~o
<STREAMINFO> 1 39
<VECSIZE> 39<NULLD><MFCC_D_A><DIAGC>
~h "a"
<BEGINHMM>
<NUMSTATES> 7
<STATE> 2
<NUMMIXES> 2
<MIXTURE> 1 5.383669e-01
<MEAN> 39
 1.126123e+01 -3.442227e+00 -5.251800e+00 4.171148e+00 -6.448896e-01 -7.910792e+00 -5.990603e+00 1.726114e+01 1.790408e+00 -1.071890e+01 3.572440e+00 1.820025e+00 1.392545e-01 1.864450e+00 -6.037644e-01 -1.439514e+00 3.320355e-03 1.958422e-01 -1.873397e+00 -1.147684e+00 1.283398e+00 3.404456e-02 -1.265500e+00 6.162733e-01 2.270266e-01 -6.368513e-01 -2.425735e-01 -1.952754e-01 -1.005496e-02 -3.288626e-02 1.932283e-01 2.366886e-01 4.579753e-02 1.032650e-01 -6.902874e-02 -3.867112e-02 1.182677e-01 -7.730615e-03 2.782004e-02
<VARIANCE> 39
 2.191855e+02 2.804051e+01 4.575760e+01 4.971571e+01 6.430239e+01 9.892787e+01 9.950397e+01 1.566215e+02 7.032826e+01 4.977750e+01 4.792409e+01 2.502025e+01 2.607481e+01 3.843332e+00 1.746126e+00 3.454950e+00 2.564148e+00 3.250237e+00 5.004309e+00 3.819288e+00 3.506630e+00 2.354939e+00 3.530333e+00 2.569007e+00 1.553573e+00 1.726362e+00 3.862371e-01 2.806318e-01 4.064667e-01 4.036025e-01 3.580729e-01 5.648960e-01 3.860422e-01 5.515172e-01 3.354093e-01 3.901978e-01 4.021427e-01 2.373388e-01 2.263032e-01
<GCONST> 1.255272e+02
<MIXTURE> 2 4.616332e-01
<MEAN> 39
 2.123505e+01 -1.098640e+01 -6.903040e+00 8.542019e+00 1.358984e+01 -2.609162e+00 -1.744551e+01 1.412165e+01 -1.128344e+01 -2.257567e+01 1.486132e+01 2.701978e+00 -3.429929e+00 1.326769e+00 -6.117313e-01 -2.179783e+00 -1.505444e-01 1.154604e+00 -2.470982e+00 -2.107714e+00 1.881570e+00 -7.568297e-01 -2.076673e+00 1.990448e+00 6.121269e-01 -7.355171e-01 -6.651080e-01 6.364720e-02 5.297289e-01 -3.489071e-01 -3.923004e-01 6.017350e-01 4.817334e-01 -3.089972e-01 3.474180e-01 7.183591e-01 -3.893484e-01 -1.080823e-01 3.883759e-01
<VARIANCE> 39
 8.366776e+00 1.537188e+01 3.502816e+01 3.327412e+01 3.887564e+01 3.992155e+01 3.771813e+01 5.182789e+01 3.925811e+01 2.918363e+01 5.425790e+01 1.649690e+01 2.378686e+01 1.251936e+00 1.830038e+00 2.428151e+00 1.740215e+00 1.344651e+00 2.026885e+00 2.612132e+00 2.133691e+00 1.533400e+00 2.461109e+00 2.313773e+00 1.056676e+00 1.193210e+00 1.689331e-01 2.336419e-01 4.124491e-01 4.076104e-01 2.062326e-01 2.116266e-01 3.014714e-01 4.069687e-01 2.073164e-01 3.385783e-01 3.767311e-01 1.705174e-01 1.572458e-01
<GCONST> 1.054230e+02
<STATE> 3
<NUMMIXES> 2
<MIXTURE> 1 5.027100e-01
<MEAN> 39
 2.269985e+01 -8.744322e+00 -1.226992e+01 4.674513e+00 4.902668e+00 -1.465986e+01 -1.302774e+01 2.391645e+01 2.505164e-01 -1.967358e+01 7.467292e+00 3.473621e+00 -2.096599e+00 -6.624018e-02 -5.680286e-02 4.674909e-03 -3.998113e-02 1.855318e-01 -1.029128e-01 -3.283022e-01 -1.578393e-01 -1.080954e-01 -1.732572e-01 -2.480219e-02 8.222398e-02 8.860774e-02 -4.077005e-02 1.508119e-01 1.813462e-01 4.191155e-02 1.038049e-02 1.672468e-01 3.616622e-02 -7.521521e-02 -5.593054e-02 3.721009e-02 -4.264808e-03 -9.383199e-02 -3.561041e-02
<VARIANCE> 39
 7.812989e+00 1.407522e+01 2.522761e+01 1.286759e+01 3.120502e+01 2.972202e+01 4.976448e+01 5.845279e+01 6.271837e+01 3.316829e+01 5.568286e+01 1.134429e+01 1.590226e+01 6.004223e-01 6.446924e-01 6.878161e-01 5.928332e-01 7.533891e-01 1.157939e+00 1.297961e+00 1.755797e+00 1.044174e+00 9.713285e-01 1.989431e+00 5.229270e-01 4.344120e-01 9.203192e-02 5.803526e-02 9.012464e-02 7.454219e-02 7.369640e-02 8.322113e-02 1.331024e-01 1.915768e-01 6.252147e-02 1.227443e-01 1.627948e-01 7.676564e-02 5.663646e-02
<GCONST> 8.076237e+01
<MIXTURE> 2 4.972898e-01
<MEAN> 39
 1.981668e+01 -7.598783e+00 -4.425468e+00 5.521375e+00 7.173824e+00 -5.217347e+00 -1.259161e+01 2.030190e+01 -5.754008e+00 -1.796188e+01 1.698217e+01 2.739411e+00 -2.683428e+00 1.572054e-01 -1.767173e-01 -3.324442e-01 -2.342208e-01 1.031097e-01 -3.730494e-01 -3.346612e-01 3.626068e-01 -1.303987e-01 -3.050971e-01 2.644325e-01 -4.544872e-02 -8.703578e-02 -5.270842e-02 2.218805e-02 4.675014e-02 4.421990e-02 5.312623e-04 9.688523e-02 8.509012e-02 -1.175949e-01 1.951701e-02 7.686099e-02 -1.394242e-01 -2.053046e-02 3.287046e-02
<VARIANCE> 39
 1.165826e+01 2.140964e+01 3.707554e+01 3.479356e+01 5.765260e+01 5.015585e+01 1.086722e+02 7.147216e+01 4.837857e+01 6.835645e+01 6.662554e+01 2.030579e+01 2.308394e+01 4.722928e-01 7.275092e-01 1.152061e+00 1.141385e+00 1.221816e+00 1.560947e+00 2.655930e+00 2.206374e+00 1.435729e+00 1.980977e+00 2.159277e+00 1.078920e+00 8.617761e-01 1.116513e-01 1.241560e-01 1.709286e-01 1.943246e-01 1.872030e-01 2.533419e-01 3.796693e-01 4.312738e-01 2.182838e-01 3.659124e-01 3.871687e-01 1.960453e-01 1.505526e-01
<GCONST> 1.035607e+02
<STATE> 4
<NUMMIXES> 2
<MIXTURE> 1 1.240503e-01
<MEAN> 39
 1.134646e-01 -1.029010e+01 8.562054e+00 6.603913e+00 3.897031e+00 5.688524e+00 -5.446892e+00 9.511885e+00 -4.992276e+00 -1.022197e+01 4.514444e+00 3.132802e-01 4.779685e-01 -2.265938e-02 9.759624e-02 -3.559343e-01 1.815025e-01 3.122808e-01 -2.627999e-01 -8.731076e-02 1.309311e-01 -1.186960e-01 -2.668790e-01 -1.947722e-02 -9.411071e-03 -1.626625e-01 9.673668e-03 -4.338957e-03 4.509497e-02 -7.298572e-02 1.783800e-02 2.208398e-02 -1.085532e-01 2.789796e-02 4.326844e-02 6.221471e-02 8.572976e-02 -4.516328e-02 -4.664667e-02
<VARIANCE> 39
 2.524949e+02 1.859719e+02 3.408977e+02 3.117893e+02 1.413343e+02 2.523575e+02 8.995837e+01 1.064739e+02 1.209714e+02 7.655274e+01 6.280682e+01 3.244342e+01 3.563206e+01 5.056613e+00 4.183993e+00 5.157708e+00 4.702431e+00 3.506136e+00 4.885597e+00 3.350292e+00 3.724782e+00 3.289255e+00 4.332300e+00 2.652499e+00 1.360767e+00 1.493029e+00 4.102466e-01 4.331611e-01 4.403305e-01 5.143117e-01 4.300258e-01 5.572322e-01 4.855550e-01 6.335061e-01 5.216559e-01 6.563212e-01 4.451106e-01 2.557374e-01 2.381232e-01
<GCONST> 1.394299e+02
<MIXTURE> 2 8.759497e-01
<MEAN> 39
 2.296680e+01 -1.034734e+01 -9.693771e+00 5.014603e+00 1.233524e+01 -8.902454e+00 -2.013507e+01 2.221955e+01 -9.300611e+00 -2.495967e+01 1.765084e+01 2.105730e+00 -4.069123e+00 2.437542e-02 3.655527e-01 3.660807e-02 5.898472e-02 3.077853e-01 2.939273e-01 -7.919378e-02 -4.134531e-01 -1.725001e-01 3.389229e-02 -2.050566e-01 -1.095087e-01 1.950424e-03 -3.003308e-01 3.446881e-01 2.249959e-01 1.432267e-01 -1.646125e-01 3.282169e-01 5.715262e-01 -6.552313e-01 2.608793e-01 5.482973e-01 -7.100777e-01 2.271214e-02 1.581348e-01
<VARIANCE> 39
 5.637576e+00 1.669353e+01 2.841525e+01 2.130874e+01 4.813656e+01 4.679795e+01 5.069978e+01 5.243188e+01 8.297443e+01 3.161549e+01 8.854511e+01 1.800714e+01 2.442297e+01 5.254394e-01 6.659673e-01 8.556374e-01 9.991751e-01 9.188809e-01 1.570480e+00 1.937420e+00 2.547395e+00 1.248787e+00 1.372070e+00 2.567296e+00 8.728569e-01 8.153179e-01 7.405243e-02 6.837017e-02 1.552568e-01 1.117557e-01 1.128274e-01 1.504242e-01 1.880170e-01 2.040216e-01 1.350382e-01 1.602192e-01 2.035034e-01 1.385466e-01 1.037849e-01
<GCONST> 9.222832e+01
<STATE> 5
<NUMMIXES> 2
<MIXTURE> 1 6.180596e-01
<MEAN> 39
 2.143290e+01 -1.087867e+01 -1.179490e+01 4.928619e+00 1.617555e+01 -5.893574e+00 -2.245406e+01 1.278556e+01 -1.106165e+01 -2.133327e+01 1.743375e+01 5.443225e+00 -7.474933e-01 3.830686e-02 3.226654e-01 -2.584518e-01 -6.582998e-02 1.525994e-01 3.647047e-01 1.990214e-01 -5.648083e-01 2.197724e-01 4.080068e-01 -5.189599e-01 2.309458e-02 2.040412e-01 -8.708473e-03 9.167790e-02 7.172954e-02 1.239229e-01 5.074424e-02 1.343508e-01 1.205339e-01 -2.363700e-03 -8.175747e-03 -1.995230e-02 -1.150928e-01 -9.201317e-02 -8.134050e-02
<VARIANCE> 39
 8.143983e+00 1.308825e+01 2.705742e+01 2.001824e+01 2.124991e+01 1.529843e+01 2.998566e+01 3.932605e+01 3.456977e+01 3.422153e+01 6.263911e+01 1.519067e+01 2.723672e+01 5.473661e-01 3.654221e-01 6.285182e-01 7.414958e-01 7.692668e-01 8.266611e-01 1.416376e+00 2.399226e+00 8.197328e-01 1.251445e+00 2.153962e+00 7.550176e-01 7.321130e-01 9.030694e-02 5.194050e-02 9.128194e-02 8.431489e-02 8.411718e-02 7.889062e-02 2.123743e-01 2.745703e-01 8.843520e-02 1.662169e-01 2.322025e-01 9.848618e-02 7.729492e-02
<GCONST> 8.268928e+01
<MIXTURE> 2 3.819404e-01
<MEAN> 39
 2.151793e+01 -6.104805e+00 -9.843568e+00 7.348792e+00 1.078549e+01 -8.261228e+00 -1.452355e+01 1.765452e+01 -5.393363e+00 -2.129352e+01 7.877025e+00 2.935058e+00 -2.733196e+00 -1.136543e+00 1.772229e+00 1.192293e+00 8.958619e-01 6.701519e-02 1.468021e+00 1.858083e+00 -1.735817e+00 7.917013e-01 1.561261e+00 -2.482374e+00 -4.156392e-01 2.268564e-01 -4.784986e-01 3.896008e-01 5.434439e-01 1.732872e-01 -4.552253e-03 4.796807e-01 4.387211e-01 -3.170482e-01 2.396411e-01 5.525014e-01 -3.742285e-01 -1.783712e-01 1.717100e-01
<VARIANCE> 39
 1.774566e+01 1.931280e+01 4.217997e+01 3.868504e+01 6.901382e+01 9.057627e+01 4.767340e+01 8.367519e+01 1.076551e+02 3.195566e+01 9.058071e+01 2.055445e+01 2.382209e+01 9.071293e-01 7.644724e-01 1.637305e+00 1.022111e+00 1.348454e+00 1.989356e+00 2.523077e+00 2.776349e+00 1.431955e+00 1.901261e+00 2.266865e+00 1.138436e+00 1.137576e+00 1.008015e-01 1.206505e-01 1.796549e-01 1.726330e-01 2.437915e-01 2.762744e-01 3.277286e-01 3.324624e-01 2.621320e-01 2.477888e-01 3.380573e-01 2.031994e-01 2.046899e-01
<GCONST> 1.061515e+02
<STATE> 6
<NUMMIXES> 2
<MIXTURE> 1 5.760822e-01
<MEAN> 39
 1.541494e+01 1.660208e+00 -3.622140e+00 1.024101e+01 1.120463e+01 -1.043221e+00 -6.671523e+00 1.145683e+01 -2.747482e+00 -1.430453e+01 -1.152067e-01 1.264168e+00 -4.897468e-01 -2.056155e+00 2.613379e+00 2.395376e+00 1.092487e+00 3.190215e-01 2.159395e+00 1.856747e+00 -1.567131e+00 8.345793e-01 1.778064e+00 -2.349555e+00 -5.917478e-01 7.705801e-01 -2.611519e-02 -1.816438e-01 9.959093e-02 -3.322154e-02 3.587183e-02 -1.064149e-01 -3.185222e-01 1.663798e-01 -3.470446e-01 -3.254937e-01 4.800636e-01 -9.478765e-03 -1.015897e-01
<VARIANCE> 39
 2.198687e+01 2.781442e+01 3.336045e+01 2.190224e+01 4.922784e+01 8.936015e+01 3.058837e+01 8.699324e+01 8.535764e+01 3.129796e+01 5.606961e+01 2.443873e+01 3.070572e+01 8.511509e-01 1.351065e+00 1.327909e+00 1.770270e+00 2.007588e+00 1.926237e+00 2.515612e+00 2.653226e+00 2.000408e+00 2.343477e+00 2.516403e+00 1.990527e+00 2.086103e+00 1.005682e-01 2.200650e-01 2.314513e-01 2.001798e-01 2.542873e-01 2.734888e-01 3.103878e-01 3.526563e-01 2.635608e-01 2.494024e-01 2.482691e-01 2.014383e-01 1.917128e-01
<GCONST> 1.085071e+02
<MIXTURE> 2 4.239174e-01
<MEAN> 39
 1.730957e+01 -6.614671e+00 -2.387822e+00 1.287781e+01 1.877192e+01 -1.593173e+00 -2.110805e+01 1.046857e+01 -7.535829e+00 -1.576347e+01 1.552530e+01 -1.007722e+00 -7.902619e+00 -3.048831e-01 4.918096e-01 5.400158e-01 6.975155e-01 9.294150e-02 4.404474e-01 4.996340e-01 -6.334628e-01 1.327964e-01 6.293607e-01 -3.923124e-01 -2.398203e-01 -1.288994e-01 -8.702773e-02 3.188494e-02 7.467029e-02 4.644906e-02 -9.092486e-02 5.953175e-02 2.101152e-01 -2.084654e-02 3.939593e-02 4.522550e-02 -1.590032e-01 3.298456e-02 6.856567e-02
<VARIANCE> 39
 3.586381e+01 5.436822e+01 9.066890e+01 1.239978e+02 7.049194e+01 5.950888e+01 1.078961e+02 6.560699e+01 6.095801e+01 7.437099e+01 1.794223e+02 2.588320e+01 5.913802e+01 6.192974e-01 8.800073e-01 1.582105e+00 1.819644e+00 1.422288e+00 1.669878e+00 2.739471e+00 2.724613e+00 1.371106e+00 2.363906e+00 2.658030e+00 1.120840e+00 1.010633e+00 9.170862e-02 1.098710e-01 1.852379e-01 2.247012e-01 2.024037e-01 2.047906e-01 3.523591e-01 3.476339e-01 2.044080e-01 3.016532e-01 3.194708e-01 1.721607e-01 1.633971e-01
<GCONST> 1.117750e+02
<TRANSP> 7
 0.000000e+00 1.000000e+00 0.000000e+00 0.000000e+00 0.000000e+00 0.000000e+00 0.000000e+00
 0.000000e+00 7.062572e-01 2.937428e-01 0.000000e+00 0.000000e+00 0.000000e+00 0.000000e+00
 0.000000e+00 0.000000e+00 8.597243e-01 1.402756e-01 0.000000e+00 0.000000e+00 0.000000e+00
 0.000000e+00 0.000000e+00 0.000000e+00 4.958386e-01 5.041614e-01 0.000000e+00 0.000000e+00
 0.000000e+00 0.000000e+00 0.000000e+00 0.000000e+00 7.900361e-01 2.099639e-01 0.000000e+00
 0.000000e+00 0.000000e+00 0.000000e+00 0.000000e+00 0.000000e+00 6.344715e-01 3.655285e-01
 0.000000e+00 0.000000e+00 0.000000e+00 0.000000e+00 0.000000e+00 0.000000e+00 0.000000e+00
<ENDHMM>
~h "b"
<BEGINHMM>
<NUMSTATES> 5
<STATE> 2
<NUMMIXES> 2
<MIXTURE> 1 5.000000e-01
<MEAN> 39
 8.289194e+00 1.541325e+01 1.034192e+01 1.441599e+01 9.457196e+00 4.693424e+00 2.655903e+00 1.463235e+01 3.610357e+00 -8.247202e+00 -7.375303e+00 -5.526471e+00 -4.071802e+00 -1.112597e+00 1.339720e+00 1.557721e+00 1.380050e-01 9.007753e-02 1.497911e+00 1.082403e+00 -6.093430e-01 -3.540407e-01 9.591239e-01 4.350548e-01 -3.012958e-01 -2.302398e-01 7.884844e-02 -4.715743e-01 -3.203804e-01 -5.770198e-02 2.280158e-02 -2.077590e-01 -2.490833e-01 -3.726613e-02 -9.568878e-02 -1.014363e-01 2.320632e-01 1.646070e-01 1.081728e-02
<VARIANCE> 39
 2.299476e+01 1.252362e+01 1.840600e+01 1.450553e+01 2.062849e+01 4.454869e+01 2.196276e+01 3.647988e+01 2.692414e+01 2.651162e+01 1.747652e+01 1.932046e+01 2.732171e+01 1.254099e+00 1.897224e+00 1.870100e+00 9.578138e-01 1.236044e+00 2.808083e+00 1.608941e+00 2.064909e+00 1.337167e+00 1.849106e+00 1.440524e+00 1.279856e+00 1.172655e+00 7.143826e-02 1.448772e-01 1.582815e-01 1.598359e-01 1.964727e-01 2.335526e-01 2.216891e-01 2.906392e-01 2.675954e-01 2.731383e-01 2.260822e-01 1.773293e-01 2.039153e-01
<GCONST> 9.621380e+01
<MIXTURE> 2 5.000000e-01
<MEAN> 39
 8.289194e+00 1.541325e+01 1.034192e+01 1.441599e+01 9.457196e+00 4.693424e+00 2.655903e+00 1.463235e+01 3.610357e+00 -8.247202e+00 -7.375303e+00 -5.526471e+00 -4.071802e+00 -1.112597e+00 1.339720e+00 1.557721e+00 1.380050e-01 9.007753e-02 1.497911e+00 1.082403e+00 -6.093430e-01 -3.540407e-01 9.591239e-01 4.350548e-01 -3.012958e-01 -2.302398e-01 7.884844e-02 -4.715743e-01 -3.203804e-01 -5.770198e-02 2.280158e-02 -2.077590e-01 -2.490833e-01 -3.726613e-02 -9.568878e-02 -1.014363e-01 2.320632e-01 1.646070e-01 1.081728e-02
<VARIANCE> 39
 2.299476e+01 1.252362e+01 1.840600e+01 1.450553e+01 2.062849e+01 4.454869e+01 2.196276e+01 3.647988e+01 2.692414e+01 2.651162e+01 1.747652e+01 1.932046e+01 2.732171e+01 1.254099e+00 1.897224e+00 1.870100e+00 9.578138e-01 1.236044e+00 2.808083e+00 1.608941e+00 2.064909e+00 1.337167e+00 1.849106e+00 1.440524e+00 1.279856e+00 1.172655e+00 7.143826e-02 1.448772e-01 1.582815e-01 1.598359e-01 1.964727e-01 2.335526e-01 2.216891e-01 2.906392e-01 2.675954e-01 2.731383e-01 2.260822e-01 1.773293e-01 2.039153e-01
<GCONST> 9.621380e+01
<STATE> 3
<NUMMIXES> 2
<MIXTURE> 1 5.000000e-01
<MEAN> 39
 3.533525e+00 1.923352e+01 1.614177e+01 1.606495e+01 1.284553e+01 1.269026e+01 5.698273e+00 9.564559e+00 1.459329e+00 -2.696839e+00 -3.446564e+00 -5.885826e+00 -5.211349e+00 -3.178834e-01 -1.985385e-01 -7.047045e-02 1.083677e-01 2.713788e-01 2.219285e-01 5.922077e-02 1.477657e-01 3.040699e-01 3.010860e-01 8.714978e-02 8.829033e-02 2.664738e-01 8.860952e-02 -2.946738e-01 -2.723105e-01 2.887007e-02 4.815198e-02 -2.119187e-01 -2.097538e-01 1.289029e-01 1.231900e-01 -1.461350e-01 -9.050170e-02 7.106693e-02 1.573610e-01
<VARIANCE> 39
 1.467687e+01 4.964061e+00 8.539760e+00 6.268773e+00 6.740660e+00 1.241111e+01 8.682094e+00 1.000258e+01 1.147800e+01 1.380086e+01 1.049378e+01 1.114385e+01 1.207074e+01 4.689825e-01 7.622898e-01 8.765588e-01 5.875818e-01 5.168099e-01 7.361779e-01 7.058946e-01 6.909026e-01 6.981491e-01 7.572157e-01 7.551662e-01 7.184402e-01 9.412412e-01 4.561523e-02 1.363838e-01 1.685902e-01 9.534578e-02 8.148264e-02 1.336067e-01 1.320946e-01 1.159128e-01 1.158840e-01 1.212368e-01 1.250468e-01 1.149726e-01 1.224541e-01
<GCONST> 6.795148e+01
<MIXTURE> 2 5.000000e-01
<MEAN> 39
 3.533525e+00 1.923352e+01 1.614177e+01 1.606495e+01 1.284553e+01 1.269026e+01 5.698273e+00 9.564559e+00 1.459329e+00 -2.696839e+00 -3.446564e+00 -5.885826e+00 -5.211349e+00 -3.178834e-01 -1.985385e-01 -7.047045e-02 1.083677e-01 2.713788e-01 2.219285e-01 5.922077e-02 1.477657e-01 3.040699e-01 3.010860e-01 8.714978e-02 8.829033e-02 2.664738e-01 8.860952e-02 -2.946738e-01 -2.723105e-01 2.887007e-02 4.815198e-02 -2.119187e-01 -2.097538e-01 1.289029e-01 1.231900e-01 -1.461350e-01 -9.050170e-02 7.106693e-02 1.573610e-01
<VARIANCE> 39
 1.467687e+01 4.964061e+00 8.539760e+00 6.268773e+00 6.740660e+00 1.241111e+01 8.682094e+00 1.000258e+01 1.147800e+01 1.380086e+01 1.049378e+01 1.114385e+01 1.207074e+01 4.689825e-01 7.622898e-01 8.765588e-01 5.875818e-01 5.168099e-01 7.361779e-01 7.058946e-01 6.909026e-01 6.981491e-01 7.572157e-01 7.551662e-01 7.184402e-01 9.412412e-01 4.561523e-02 1.363838e-01 1.685902e-01 9.534578e-02 8.148264e-02 1.336067e-01 1.320946e-01 1.159128e-01 1.158840e-01 1.212368e-01 1.250468e-01 1.149726e-01 1.224541e-01
<GCONST> 6.795148e+01
<STATE> 4
<NUMMIXES> 2
<MIXTURE> 1 5.000000e-01
<MEAN> 39
 5.413168e+00 1.027916e+01 7.905212e+00 1.619489e+01 1.388134e+01 6.552384e+00 -3.756834e-01 1.388707e+01 6.397148e+00 -4.990299e+00 -5.049351e+00 -4.332817e+00 -6.441600e-01 1.383502e+00 -2.775133e+00 -2.758292e+00 -1.010429e+00 -7.988586e-01 -2.541169e+00 -2.301174e+00 7.543190e-01 2.798933e-01 -1.376971e+00 5.159434e-01 8.424463e-01 7.748054e-01 5.590038e-01 -1.711283e-01 -2.852505e-01 -4.407606e-01 -6.093693e-01 -7.024061e-01 -3.302287e-01 8.825578e-02 -3.038622e-01 -4.371556e-01 2.535889e-01 8.988360e-02 -3.213871e-01
<VARIANCE> 39
 3.006384e+01 2.659953e+01 2.618640e+01 1.587087e+01 2.148860e+01 5.410973e+01 3.816106e+01 1.914524e+01 2.576568e+01 2.097769e+01 1.993667e+01 1.828449e+01 1.594464e+01 2.319911e+00 9.672913e-01 1.234596e+00 2.352644e+00 3.488514e+00 5.064387e+00 2.246184e+00 2.089283e+00 2.434773e+00 2.230606e+00 2.030168e+00 1.209905e+00 1.385761e+00 7.549844e-02 3.034429e-01 2.500064e-01 3.060245e-01 3.571631e-01 3.518473e-01 2.733007e-01 3.485025e-01 3.107266e-01 2.926330e-01 2.918245e-01 2.167141e-01 2.323547e-01
<GCONST> 1.048233e+02
<MIXTURE> 2 5.000000e-01
<MEAN> 39
 5.413168e+00 1.027916e+01 7.905212e+00 1.619489e+01 1.388134e+01 6.552384e+00 -3.756834e-01 1.388707e+01 6.397148e+00 -4.990299e+00 -5.049351e+00 -4.332817e+00 -6.441600e-01 1.383502e+00 -2.775133e+00 -2.758292e+00 -1.010429e+00 -7.988586e-01 -2.541169e+00 -2.301174e+00 7.543190e-01 2.798933e-01 -1.376971e+00 5.159434e-01 8.424463e-01 7.748054e-01 5.590038e-01 -1.711283e-01 -2.852505e-01 -4.407606e-01 -6.093693e-01 -7.024061e-01 -3.302287e-01 8.825578e-02 -3.038622e-01 -4.371556e-01 2.535889e-01 8.988360e-02 -3.213871e-01
<VARIANCE> 39
 3.006384e+01 2.659953e+01 2.618640e+01 1.587087e+01 2.148860e+01 5.410973e+01 3.816106e+01 1.914524e+01 2.576568e+01 2.097769e+01 1.993667e+01 1.828449e+01 1.594464e+01 2.319911e+00 9.672913e-01 1.234596e+00 2.352644e+00 3.488514e+00 5.064387e+00 2.246184e+00 2.089283e+00 2.434773e+00 2.230606e+00 2.030168e+00 1.209905e+00 1.385761e+00 7.549844e-02 3.034429e-01 2.500064e-01 3.060245e-01 3.571631e-01 3.518473e-01 2.733007e-01 3.485025e-01 3.107266e-01 2.926330e-01 2.918245e-01 2.167141e-01 2.323547e-01
<GCONST> 1.048233e+02
<TRANSP> 5
 0.000000e+00 1.000000e+00 0.000000e+00 0.000000e+00 0.000000e+00
 0.000000e+00 7.870613e-01 2.129386e-01 0.000000e+00 0.000000e+00
 0.000000e+00 0.000000e+00 8.613006e-01 1.386994e-01 0.000000e+00
 0.000000e+00 0.000000e+00 0.000000e+00 7.546371e-01 2.453630e-01
 0.000000e+00 0.000000e+00 0.000000e+00 0.000000e+00 0.000000e+00
<ENDHMM>
~h "c"
<BEGINHMM>
<NUMSTATES> 5
<STATE> 2
<NUMMIXES> 2
<MIXTURE> 1 6.430252e-01
<MEAN> 39
 -1.320220e+01 -3.185599e+00 6.966188e+00 1.112043e+01 5.703616e+00 9.863657e+00 1.228372e+00 5.400208e+00 -7.975296e-01 -4.044168e+00 -5.584160e-01 7.796742e-01 4.848866e+00 -2.261614e+00 -2.829270e+00 -3.175203e-01 -1.069220e+00 -1.873926e+00 -3.677905e-01 -4.573211e-01 -2.946705e-01 3.301237e-01 1.771258e-01 1.979126e-01 -4.994513e-02 -1.342830e-01 2.706011e-01 -4.130449e-01 -2.057916e-02 -2.012765e-01 -2.827666e-01 -2.218518e-01 -2.578080e-01 5.165538e-02 -5.627684e-02 -2.090828e-01 1.666785e-01 -6.827567e-03 -2.692819e-01
<VARIANCE> 39
 8.042684e+01 1.601935e+02 9.269381e+01 6.121992e+01 4.304084e+01 5.367035e+01 4.445866e+01 3.589516e+01 3.956742e+01 3.630693e+01 2.738816e+01 2.365292e+01 2.489396e+01 2.306705e+00 1.155499e+01 4.285085e+00 3.547440e+00 3.012304e+00 3.529064e+00 3.201959e+00 2.823571e+00 2.761566e+00 2.865269e+00 2.532198e+00 1.889031e+00 2.512129e+00 2.157547e-01 8.265275e-01 5.604738e-01 4.957359e-01 3.819268e-01 5.449230e-01 4.013071e-01 4.442907e-01 4.904433e-01 4.190423e-01 4.205797e-01 3.570531e-01 3.895325e-01
<GCONST> 1.262679e+02
<MIXTURE> 2 3.569748e-01
<MEAN> 39
 -1.652607e+01 -3.825336e+01 2.256863e+01 8.252994e+00 -1.427363e+01 7.916694e+00 -7.051929e+00 7.990755e+00 8.722758e-01 -1.144650e+01 5.143846e+00 2.380408e+00 3.198631e-01 8.749688e-02 -2.654423e+00 2.342191e+00 -3.605345e-01 -9.043097e-01 -2.301037e-02 -1.372168e+00 2.079790e-01 -2.892886e-01 -2.627576e-01 1.124285e+00 3.924543e-01 -3.282059e-01 1.517449e-01 7.854989e-01 -4.153627e-01 3.135625e-01 8.505806e-01 2.980861e-01 1.736730e-01 -2.038776e-01 -2.537864e-02 3.683923e-01 -2.043053e-01 -8.733013e-02 2.938994e-01
<VARIANCE> 39
 1.606236e+01 5.359198e+01 8.667853e+01 2.276302e+01 2.611715e+01 2.144759e+01 2.741236e+01 2.044161e+01 2.730003e+01 1.889201e+01 2.916934e+01 1.581030e+01 9.695395e+00 2.065165e+00 5.968289e+00 6.343431e+00 2.264929e+00 5.613751e+00 3.010326e+00 1.784343e+00 1.990328e+00 1.729478e+00 2.695588e+00 1.572801e+00 2.014532e+00 1.615520e+00 4.274906e-01 7.166267e-01 1.254048e+00 2.823437e-01 2.869825e-01 4.638041e-01 3.156109e-01 3.624145e-01 3.089253e-01 3.175378e-01 2.300195e-01 3.677560e-01 1.991829e-01
<GCONST> 1.129625e+02
<STATE> 3
<NUMMIXES> 2
<MIXTURE> 1 6.473856e-01
<MEAN> 39
 -1.586424e+01 -3.899678e+01 1.317659e+01 1.069413e+01 -3.810980e+00 9.620162e+00 -1.231640e+01 1.022864e+00 3.584735e+00 -5.631656e+00 1.251300e+00 2.675591e+00 3.241512e+00 1.072140e+00 -3.745566e-01 4.932324e-01 6.902000e-01 5.971960e-01 1.082247e+00 7.376681e-02 -4.326307e-01 2.375465e-01 1.669384e-01 2.223292e-01 2.468519e-01 1.594646e-02 2.292279e-01 5.458657e-01 -2.025404e-02 2.903537e-02 3.532296e-02 5.873465e-03 1.836473e-01 2.118162e-02 -2.796643e-03 -2.627328e-02 -1.330433e-02 -1.480040e-02 -9.223305e-02
<VARIANCE> 39
 2.856039e+01 1.307320e+02 1.405196e+02 3.633957e+01 3.551477e+01 6.095003e+01 4.376917e+01 3.212418e+01 4.556319e+01 2.778617e+01 5.053879e+01 2.176091e+01 1.820996e+01 2.364687e+00 9.940539e+00 5.709411e+00 2.195983e+00 2.813468e+00 1.894184e+00 3.102365e+00 1.743241e+00 2.177577e+00 2.279882e+00 1.857447e+00 1.596492e+00 1.582634e+00 3.747444e-01 6.965274e-01 5.735419e-01 2.758959e-01 3.237713e-01 3.771521e-01 3.616198e-01 2.884031e-01 3.154505e-01 3.891033e-01 3.354860e-01 2.911413e-01 2.785155e-01
<GCONST> 1.193610e+02
<MIXTURE> 2 3.526134e-01
<MEAN> 39
 -2.657184e+01 -6.550460e+00 -5.207262e+00 -2.590403e+00 -3.414887e+00 5.402536e-01 -3.590804e+00 1.542259e+00 -1.316412e+00 -6.675283e-01 3.621552e-01 -8.283382e-01 6.254627e-01 3.841236e-03 -3.521659e-01 -1.247913e-01 1.838302e-01 7.406928e-02 -1.893045e-01 -1.659292e-01 3.298987e-02 1.709454e-02 -1.337121e-01 -1.746990e-01 6.008302e-02 1.779461e-01 1.350104e-01 -1.623564e-01 4.650726e-02 2.567054e-01 1.735500e-01 8.208062e-02 2.236124e-02 8.699745e-02 7.228915e-02 -6.461897e-02 -8.481378e-02 6.580989e-02 1.628793e-01
<VARIANCE> 39
 6.003239e-01 1.802634e+00 1.703915e+00 3.666377e+00 4.314874e+00 5.341213e+00 6.280765e+00 6.133492e+00 7.386353e+00 7.547092e+00 7.009713e+00 6.315608e+00 5.720086e+00 1.995363e-01 9.191947e-01 4.289306e-01 1.116943e+00 9.404504e-01 9.403550e-01 1.110554e+00 1.109205e+00 1.279574e+00 1.329480e+00 1.222687e+00 9.948829e-01 1.216419e+00 5.446785e-02 2.097783e-01 1.307268e-01 2.212116e-01 2.121017e-01 2.237412e-01 2.348940e-01 2.553582e-01 2.689544e-01 2.803252e-01 2.588194e-01 2.060670e-01 2.111326e-01
<GCONST> 6.756079e+01
<STATE> 4
<NUMMIXES> 2
<MIXTURE> 1 9.965959e-01
<MEAN> 39
 4.308411e+00 -2.137611e+01 1.357390e+01 1.619557e+01 3.963000e+00 1.446336e+01 -7.744217e+00 1.170781e+00 2.457466e+00 -8.168223e+00 2.892215e+00 4.385168e+00 1.873098e+00 4.193831e+00 4.211942e+00 -3.150211e+00 6.277364e-01 1.845027e+00 -2.652406e+00 -8.360534e-01 7.306460e-01 -7.906132e-01 -1.692720e+00 -5.008445e-01 -1.513981e-01 -4.526863e-01 -2.562841e-01 -6.883591e-01 -6.017183e-01 -3.364191e-01 2.254833e-02 -9.446571e-01 -6.843975e-01 5.069109e-01 -3.236172e-01 -4.557133e-01 2.388560e-01 -7.891531e-02 -9.266949e-02
<VARIANCE> 39
 1.053735e+02 9.800531e+01 6.944474e+01 2.750706e+01 4.391887e+01 7.482822e+01 4.502617e+01 3.688564e+01 2.338021e+01 3.735593e+01 3.844996e+01 1.711320e+01 1.292331e+01 4.173345e+00 5.505897e+00 8.312585e+00 1.850544e+00 2.025216e+00 6.140158e+00 3.998514e+00 3.856602e+00 2.198575e+00 3.825089e+00 2.147744e+00 1.153720e+00 1.411420e+00 5.956928e-01 6.129543e-01 6.218979e-01 1.578199e-01 1.970741e-01 6.603712e-01 5.927532e-01 4.239682e-01 2.962812e-01 4.165136e-01 3.608120e-01 2.340226e-01 1.468712e-01
<GCONST> 1.210822e+02
<MIXTURE> 2 3.404082e-03
<MEAN> 39
 -1.209897e+01 -4.169722e+01 1.154459e+01 4.205656e+00 -1.738037e+01 4.752168e+00 -1.617877e+01 -8.469489e+00 3.080506e+00 -7.874886e+00 7.277630e-01 4.369623e+00 1.268426e+00 1.461387e+00 1.779153e+00 -3.060936e+00 -1.933902e+00 -2.377350e+00 -2.659541e+00 3.404090e-01 -2.701688e+00 -1.109947e+00 -9.490104e-01 -8.266192e-01 1.372049e+00 -3.049830e-01 5.870696e-01 -2.836612e-01 2.036864e-01 -7.915637e-02 -5.369185e-03 2.452287e-01 -5.254535e-02 8.627701e-01 -1.986894e-02 -3.312968e-01 1.903525e-01 -6.472344e-01 -3.660181e-01
<VARIANCE> 39
 7.727998e+00 4.205399e+00 1.837072e-01 8.433472e+00 9.174490e+00 4.719291e-01 7.200521e+00 2.866564e-01 1.106849e+00 6.630652e-01 1.040959e-02 1.804324e+00 1.466974e+00 5.931337e-01 5.151355e-02 4.636735e-01 4.557954e-02 2.783623e-01 1.441654e-03 2.755065e-01 5.821673e-01 3.155593e-02 1.266232e-03 3.123829e-04 2.346994e-01 1.559483e-01 7.716620e-04 2.382507e-03 6.601118e-04 9.015242e-03 5.908640e-02 8.105269e-02 3.000028e-02 5.936959e-02 5.326727e-03 8.817401e-03 2.682656e-02 1.280898e-03 5.191005e-02
<GCONST> -2.473060e+01
<TRANSP> 5
 0.000000e+00 1.000000e+00 0.000000e+00 0.000000e+00 0.000000e+00
 0.000000e+00 8.998060e-01 1.001940e-01 0.000000e+00 0.000000e+00
 0.000000e+00 0.000000e+00 9.402832e-01 5.971680e-02 0.000000e+00
 0.000000e+00 0.000000e+00 0.000000e+00 7.395803e-01 2.604197e-01
 0.000000e+00 0.000000e+00 0.000000e+00 0.000000e+00 0.000000e+00
<ENDHMM>
~h "d"
<BEGINHMM>
<NUMSTATES> 5
<STATE> 2
<NUMMIXES> 2
<MIXTURE> 1 5.000000e-01
<MEAN> 39
 7.009183e+00 1.342139e+01 1.039605e+01 1.765423e+01 1.375751e+01 7.242254e+00 1.932156e+00 1.108886e+01 -2.189233e+00 -1.163553e+01 -6.597695e+00 -3.125880e+00 2.298896e-01 -1.236640e+00 2.095218e+00 1.844514e+00 8.661181e-02 2.261268e-01 1.924614e+00 1.173373e+00 -1.004490e+00 3.325226e-02 1.128177e+00 -2.905867e-01 -6.603725e-02 1.185217e-01 2.142268e-01 -6.610097e-01 -3.311139e-01 -6.291721e-02 -1.053964e-01 -3.587314e-01 -2.748790e-01 1.696620e-01 -8.888499e-02 -1.010670e-01 4.466214e-01 -3.316481e-02 -2.193825e-01
<VARIANCE> 39
 2.217467e+01 2.324844e+01 2.486812e+01 1.619570e+01 3.225602e+01 5.336736e+01 1.494342e+01 5.144165e+01 3.238600e+01 3.013242e+01 2.174167e+01 1.827476e+01 1.860485e+01 7.005970e-01 2.052416e+00 1.033543e+00 8.216199e-01 1.701676e+00 2.216296e+00 1.346581e+00 2.411592e+00 1.766151e+00 1.693702e+00 2.103042e+00 9.976122e-01 1.352221e+00 4.170724e-02 2.283273e-01 1.717491e-01 1.467040e-01 2.062149e-01 1.876783e-01 2.269856e-01 2.605326e-01 4.061512e-01 3.310675e-01 2.391504e-01 1.675590e-01 2.358659e-01
<GCONST> 9.756842e+01
<MIXTURE> 2 5.000000e-01
<MEAN> 39
 7.009183e+00 1.342139e+01 1.039605e+01 1.765423e+01 1.375751e+01 7.242254e+00 1.932156e+00 1.108886e+01 -2.189233e+00 -1.163553e+01 -6.597695e+00 -3.125880e+00 2.298896e-01 -1.236640e+00 2.095218e+00 1.844514e+00 8.661181e-02 2.261268e-01 1.924614e+00 1.173373e+00 -1.004490e+00 3.325226e-02 1.128177e+00 -2.905867e-01 -6.603725e-02 1.185217e-01 2.142268e-01 -6.610097e-01 -3.311139e-01 -6.291721e-02 -1.053964e-01 -3.587314e-01 -2.748790e-01 1.696620e-01 -8.888499e-02 -1.010670e-01 4.466214e-01 -3.316481e-02 -2.193825e-01
<VARIANCE> 39
 2.217467e+01 2.324844e+01 2.486812e+01 1.619570e+01 3.225602e+01 5.336736e+01 1.494342e+01 5.144165e+01 3.238600e+01 3.013242e+01 2.174167e+01 1.827476e+01 1.860485e+01 7.005970e-01 2.052416e+00 1.033543e+00 8.216199e-01 1.701676e+00 2.216296e+00 1.346581e+00 2.411592e+00 1.766151e+00 1.693702e+00 2.103042e+00 9.976122e-01 1.352221e+00 4.170724e-02 2.283273e-01 1.717491e-01 1.467040e-01 2.062149e-01 1.876783e-01 2.269856e-01 2.605326e-01 4.061512e-01 3.310675e-01 2.391504e-01 1.675590e-01 2.358659e-01
<GCONST> 9.756842e+01
<STATE> 3
<NUMMIXES> 2
<MIXTURE> 1 5.000000e-01
<MEAN> 39
 7.545412e-01 1.794367e+01 1.642953e+01 1.720786e+01 1.447498e+01 1.471753e+01 6.728808e+00 9.372408e+00 7.111994e-01 -2.793747e+00 -1.878515e+00 -3.406141e+00 -2.651695e+00 -3.072950e-01 -5.275438e-01 -1.647515e-01 1.889237e-01 1.996596e-01 1.774930e-01 1.122738e-01 2.766477e-01 5.018525e-01 4.210507e-01 6.747222e-02 3.067916e-02 3.180181e-01 6.372087e-02 -4.418340e-01 -3.037034e-01 4.114321e-02 6.296448e-02 -1.309778e-01 -1.910203e-01 5.173298e-02 1.310043e-02 -8.753673e-02 3.141319e-02 3.565981e-02 1.415428e-01
<VARIANCE> 39
 1.610411e+01 6.099637e+00 1.010748e+01 9.009823e+00 7.016603e+00 9.300522e+00 8.433994e+00 9.042521e+00 1.443487e+01 2.046625e+01 1.250869e+01 9.676763e+00 9.820714e+00 5.920762e-01 1.730841e+00 1.272981e+00 9.581701e-01 8.315166e-01 7.504248e-01 8.097786e-01 7.252830e-01 8.311598e-01 1.239312e+00 8.353941e-01 8.758722e-01 1.239329e+00 6.401500e-02 2.164868e-01 2.174008e-01 1.646889e-01 1.612566e-01 1.247423e-01 1.575718e-01 1.183744e-01 1.275161e-01 1.653786e-01 1.743305e-01 1.324041e-01 1.373787e-01
<GCONST> 7.609949e+01
<MIXTURE> 2 5.000000e-01
<MEAN> 39
 7.545412e-01 1.794367e+01 1.642953e+01 1.720786e+01 1.447498e+01 1.471753e+01 6.728808e+00 9.372408e+00 7.111994e-01 -2.793747e+00 -1.878515e+00 -3.406141e+00 -2.651695e+00 -3.072950e-01 -5.275438e-01 -1.647515e-01 1.889237e-01 1.996596e-01 1.774930e-01 1.122738e-01 2.766477e-01 5.018525e-01 4.210507e-01 6.747222e-02 3.067916e-02 3.180181e-01 6.372087e-02 -4.418340e-01 -3.037034e-01 4.114321e-02 6.296448e-02 -1.309778e-01 -1.910203e-01 5.173298e-02 1.310043e-02 -8.753673e-02 3.141319e-02 3.565981e-02 1.415428e-01
<VARIANCE> 39
 1.610411e+01 6.099637e+00 1.010748e+01 9.009823e+00 7.016603e+00 9.300522e+00 8.433994e+00 9.042521e+00 1.443487e+01 2.046625e+01 1.250869e+01 9.676763e+00 9.820714e+00 5.920762e-01 1.730841e+00 1.272981e+00 9.581701e-01 8.315166e-01 7.504248e-01 8.097786e-01 7.252830e-01 8.311598e-01 1.239312e+00 8.353941e-01 8.758722e-01 1.239329e+00 6.401500e-02 2.164868e-01 2.174008e-01 1.646889e-01 1.612566e-01 1.247423e-01 1.575718e-01 1.183744e-01 1.275161e-01 1.653786e-01 1.743305e-01 1.324041e-01 1.373787e-01
<GCONST> 7.609949e+01
<STATE> 4
<NUMMIXES> 2
<MIXTURE> 1 5.000000e-01
<MEAN> 39
 3.629075e+00 -6.204032e-01 5.685077e+00 1.722315e+01 1.272405e+01 1.016313e+01 2.627736e+00 1.147437e+01 -4.791429e-01 -4.654613e+00 1.295836e+00 -3.666232e+00 2.489419e+00 1.790489e+00 -3.199313e+00 -1.888057e+00 -8.052045e-01 -9.119241e-01 -1.344264e+00 -1.523626e+00 1.822385e-01 -1.425738e+00 -1.405461e+00 1.568677e+00 -1.840330e-01 -3.072106e-01 4.082905e-01 3.462212e-01 1.938395e-01 -8.030166e-02 1.107262e-02 -3.086098e-01 -4.196535e-01 -5.157468e-02 -3.620071e-01 -5.930308e-01 3.988659e-02 5.211499e-02 -3.750711e-01
<VARIANCE> 39
 3.629365e+01 8.372679e+01 2.898202e+01 2.604489e+01 4.868732e+01 3.422886e+01 3.691724e+01 3.348000e+01 6.029760e+01 5.098780e+01 5.093336e+01 2.652986e+01 2.723849e+01 1.938892e+00 4.703624e+00 2.331487e+00 2.077221e+00 3.139557e+00 2.342156e+00 3.458033e+00 1.915506e+00 6.396249e+00 5.704215e+00 5.913190e+00 1.931000e+00 2.445460e+00 2.238174e-01 7.805579e-01 4.608676e-01 5.379232e-01 7.623550e-01 3.758402e-01 4.068233e-01 3.854032e-01 1.401435e+00 7.484640e-01 1.181812e+00 3.680425e-01 3.631881e-01
<GCONST> 1.259658e+02
<MIXTURE> 2 5.000000e-01
<MEAN> 39
 3.629075e+00 -6.204032e-01 5.685077e+00 1.722315e+01 1.272405e+01 1.016313e+01 2.627736e+00 1.147437e+01 -4.791429e-01 -4.654613e+00 1.295836e+00 -3.666232e+00 2.489419e+00 1.790489e+00 -3.199313e+00 -1.888057e+00 -8.052045e-01 -9.119241e-01 -1.344264e+00 -1.523626e+00 1.822385e-01 -1.425738e+00 -1.405461e+00 1.568677e+00 -1.840330e-01 -3.072106e-01 4.082905e-01 3.462212e-01 1.938395e-01 -8.030166e-02 1.107262e-02 -3.086098e-01 -4.196535e-01 -5.157468e-02 -3.620071e-01 -5.930308e-01 3.988659e-02 5.211499e-02 -3.750711e-01
<VARIANCE> 39
 3.629365e+01 8.372679e+01 2.898202e+01 2.604489e+01 4.868732e+01 3.422886e+01 3.691724e+01 3.348000e+01 6.029760e+01 5.098780e+01 5.093336e+01 2.652986e+01 2.723849e+01 1.938892e+00 4.703624e+00 2.331487e+00 2.077221e+00 3.139557e+00 2.342156e+00 3.458033e+00 1.915506e+00 6.396249e+00 5.704215e+00 5.913190e+00 1.931000e+00 2.445460e+00 2.238174e-01 7.805579e-01 4.608676e-01 5.379232e-01 7.623550e-01 3.758402e-01 4.068233e-01 3.854032e-01 1.401435e+00 7.484640e-01 1.181812e+00 3.680425e-01 3.631881e-01
<GCONST> 1.259658e+02
<TRANSP> 5
 0.000000e+00 1.000000e+00 0.000000e+00 0.000000e+00 0.000000e+00
 0.000000e+00 6.980392e-01 3.019607e-01 0.000000e+00 0.000000e+00
 0.000000e+00 0.000000e+00 8.730571e-01 1.269429e-01 0.000000e+00
 0.000000e+00 0.000000e+00 0.000000e+00 8.221602e-01 1.778398e-01
 0.000000e+00 0.000000e+00 0.000000e+00 0.000000e+00 0.000000e+00
<ENDHMM>
~h "f"
<BEGINHMM>
<NUMSTATES> 5
<STATE> 2
<NUMMIXES> 2
<MIXTURE> 1 1.000000e+00
<MEAN> 39
 2.378756e+01 -4.706667e+00 -1.187214e+01 1.002688e+01 -1.105192e+00 -2.965805e+01 -1.962937e+01 2.699723e+01 1.180463e+01 -1.283564e+01 3.925865e+00 5.922224e+00 -4.834269e-01 -1.248712e+00 8.758348e-01 3.382152e-01 -6.607220e-01 -3.548879e-01 3.354993e-01 3.837145e-01 -6.589171e-01 5.210308e-01 6.765683e-01 -8.183864e-01 1.841004e-01 2.926135e-01 6.607772e-02 -8.079674e-02 4.119174e-02 -8.165520e-02 1.742045e-01 1.974955e-01 -6.284306e-02 4.943772e-02 6.609041e-02 -2.286566e-01 -1.108530e-01 -7.742763e-02 -5.312834e-02
<VARIANCE> 39
 2.608428e+00 1.223524e+01 4.587128e+01 8.106260e+00 1.123926e+02 6.445979e+01 1.540041e+01 1.813394e+00 6.708337e+01 7.478975e+01 5.403376e+01 1.018971e+01 2.887752e+00 2.420979e-01 2.547530e-01 2.213498e-01 1.717371e-01 5.573624e-01 2.859856e-01 3.445434e-01 1.936972e-01 7.946550e-01 8.180738e-01 1.658253e-02 4.807075e-01 2.232064e-02 3.168733e-02 4.741675e-02 1.045092e-02 1.539181e-02 2.399080e-02 3.421124e-02 4.946985e-02 1.378663e-01 2.323200e-03 6.159753e-02 2.077152e-02 9.350417e-03 1.223622e-02
<GCONST> 4.037408e+01
<MIXTURE> 2 0.000000e+00
<MEAN> 39
 -1.585175e+01 -1.551351e+00 7.729309e+00 -7.243529e+00 1.722945e+01 -4.595492e+00 8.562895e+00 -3.340965e+00 3.503048e+00 -4.349793e+00 2.257324e+00 -9.441703e-01 1.405435e+00 -2.463601e+00 -8.618322e-01 -7.031665e-01 -4.471729e-01 2.791805e-01 3.659815e-01 -1.137626e-01 -3.731829e-01 -3.769362e-02 -3.910118e-02 3.242532e-01 -1.921992e-02 3.981748e-01 4.077158e-01 -1.006740e-01 -2.800901e-01 -9.457918e-02 -3.625076e-01 -3.459834e-01 -2.940953e-01 2.188951e-02 -1.688870e-01 -1.846896e-01 -1.475902e-01 -2.191112e-03 -1.261082e-01
<VARIANCE> 39
 3.794474e+01 3.006912e+01 3.696891e+01 3.629724e+01 4.906600e+01 3.866109e+01 4.917469e+01 3.866268e+01 3.933981e+01 3.216502e+01 2.111969e+01 2.085070e+01 1.584314e+01 1.946436e+00 1.199190e+00 1.955029e+00 2.033741e+00 2.686450e+00 2.348367e+00 2.500819e+00 2.211571e+00 1.997479e+00 1.933216e+00 1.770481e+00 1.567442e+00 1.408696e+00 2.019766e-01 2.254066e-01 2.903521e-01 2.933460e-01 3.599655e-01 3.714276e-01 4.149454e-01 4.019520e-01 3.977194e-01 3.726283e-01 3.362232e-01 2.893453e-01 2.591272e-01
<GCONST> 1.105595e+02
<STATE> 3
<NUMMIXES> 2
<MIXTURE> 1 1.000000e+00
<MEAN> 39
 1.688150e+01 -3.665768e+00 -7.740673e+00 6.940153e+00 -4.681171e+00 -2.603174e+01 -1.432869e+01 1.894748e+01 1.245935e+01 -7.783242e+00 -1.570522e+00 6.477597e+00 1.396364e+00 5.702258e-01 5.298389e-01 -4.522899e-01 -1.918029e-01 4.709570e-01 6.094812e-02 -4.587472e-01 1.620519e+00 -2.245016e-02 -1.079894e+00 7.444431e-01 -4.374932e-01 -6.238621e-01 6.767033e-01 -2.364683e-01 -1.533444e-01 1.857930e-01 2.085990e-01 -1.707957e-01 -3.005945e-01 7.461842e-01 3.652466e-02 -5.425509e-01 3.503705e-01 -1.795955e-01 -2.464067e-01
<VARIANCE> 39
 1.995592e+00 1.667502e+01 2.269409e+01 2.740397e+00 4.400469e+01 5.886308e+01 5.141734e-01 1.279554e+01 3.643875e+01 1.900610e+01 1.092263e+01 8.566231e+00 7.094540e+00 7.640509e-02 5.822791e-01 4.050324e-02 1.985650e-01 5.132354e-02 2.586337e-01 4.204493e-01 1.013509e+00 7.202517e-01 4.002449e-02 5.000986e-01 3.780181e-01 2.703542e-01 7.608284e-02 3.911333e-03 4.295777e-02 2.703012e-03 8.767942e-02 4.312305e-03 8.557563e-02 3.529054e-02 1.707172e-02 5.399823e-02 1.175634e-02 1.044539e-01 3.089377e-03
<GCONST> 3.212851e+01
<MIXTURE> 2 0.000000e+00
<MEAN> 39
 3.639828e+00 2.334219e+01 2.275135e+01 1.852283e+01 1.423527e+01 1.180350e+01 1.503383e+00 3.615908e+00 -5.643132e+00 -7.883940e+00 -4.223375e+00 -8.214487e+00 -1.385839e+00 7.378227e-01 3.235949e-01 3.322033e-01 2.980543e-01 5.087882e-01 -9.404181e-01 -6.376179e-01 -4.802291e-01 -1.009100e+00 -7.107889e-01 -4.104046e-01 7.652082e-02 7.022230e-01 8.588254e-02 -5.611768e-01 -7.325470e-01 -3.333505e-01 -7.526119e-02 1.938971e-01 3.722913e-01 3.623554e-01 5.790925e-01 5.305554e-01 -6.042129e-02 1.178928e-01 -2.853412e-01
<VARIANCE> 39
 -6.103516e-05 6.103516e-05 6.103516e-05 -6.103516e-05 0.000000e+00 0.000000e+00 -4.768372e-07 0.000000e+00 0.000000e+00 0.000000e+00 -3.814697e-06 3.814697e-06 0.000000e+00 5.960464e-08 0.000000e+00 0.000000e+00 2.980232e-08 5.960464e-08 5.960464e-08 -2.980232e-08 1.490116e-08 0.000000e+00 0.000000e+00 2.980232e-08 0.000000e+00 0.000000e+00 1.862645e-09 5.960464e-08 5.960464e-08 -1.490116e-08 -1.862645e-09 3.725290e-09 0.000000e+00 0.000000e+00 0.000000e+00 -2.980232e-08 9.313226e-10 -9.313226e-10 0.000000e+00
<GCONST> -2.500001e+11
<STATE> 4
<NUMMIXES> 2
<MIXTURE> 1 1.000000e+00
<MEAN> 39
 2.128858e+01 -3.312614e+00 -1.009457e+01 7.311953e+00 -3.446175e+00 -2.770353e+01 -1.752445e+01 2.378361e+01 1.351201e+01 -1.086658e+01 6.414326e-01 6.666255e+00 1.082285e+00 3.590046e-01 -5.320378e-02 3.037536e-01 -4.072607e-01 -4.199854e-01 -2.523516e-02 3.159456e-01 7.841625e-01 1.575082e-01 -4.626134e-01 2.695212e-03 -3.309673e-01 -4.662961e-01 2.417042e-01 -1.662322e-01 1.581499e-01 1.467897e-01 -7.701776e-02 1.489467e-02 1.724603e-01 2.226966e-01 -7.965234e-02 -1.029307e-01 4.333068e-02 -2.757950e-01 -1.238635e-01
<VARIANCE> 39
 1.323198e+00 2.510353e+01 3.355009e+01 4.630639e+00 6.061596e+01 5.332724e+01 3.569175e+00 5.416340e+00 3.601799e+01 1.934183e+01 1.896765e+01 1.029107e+01 5.818109e+00 3.170137e-01 2.935736e-01 8.914893e-02 1.169182e-01 1.893858e-01 2.159576e-02 3.732368e-02 2.700926e-01 8.288230e-01 6.971777e-01 1.660674e-01 6.107397e-02 2.564418e-02 1.593213e-02 4.372527e-02 5.808948e-02 9.819556e-02 6.473368e-03 6.985029e-02 2.518825e-02 1.448396e-01 6.000668e-03 3.431920e-03 5.504116e-02 2.261071e-02 5.068169e-03
<GCONST> 3.049751e+01
<MIXTURE> 2 0.000000e+00
<MEAN> 39
 -1.919306e+01 -9.236015e+00 3.689552e+00 -1.223476e+01 1.489335e+01 -6.318414e+00 7.143879e+00 -6.103525e+00 3.174531e+00 -6.095226e+00 4.311400e+00 -2.684157e-01 3.222131e+00 2.403928e+00 6.682029e-01 1.196788e+00 8.050752e-01 2.333375e-01 1.086554e-01 -3.363338e-03 2.492941e-01 -2.023524e-01 1.609932e-01 -2.533848e-01 3.826904e-02 -4.694991e-01 5.983038e-01 5.120639e-01 1.572707e-01 3.195376e-01 -1.208165e-01 -2.085501e-01 -3.490097e-01 1.940116e-01 -1.673514e-01 -7.740311e-02 -3.054772e-01 -1.087985e-01 -3.564875e-01
<VARIANCE> 39
 3.042087e+01 2.921870e+01 3.283026e+01 3.405130e+01 4.104346e+01 3.583276e+01 4.287782e+01 3.903381e+01 3.163493e+01 3.066770e+01 2.307189e+01 1.659729e+01 1.461290e+01 2.254787e+00 2.112019e+00 1.727328e+00 2.238523e+00 2.263419e+00 2.361685e+00 2.342651e+00 2.605778e+00 2.095444e+00 2.131377e+00 2.099487e+00 1.836933e+00 1.663770e+00 2.622992e-01 2.496722e-01 3.391603e-01 3.445290e-01 4.448123e-01 5.514072e-01 5.425829e-01 4.482497e-01 4.572209e-01 4.257733e-01 3.892074e-01 3.408262e-01 2.868415e-01
<GCONST> 1.128664e+02
<TRANSP> 5
 0.000000e+00 1.000000e+00 0.000000e+00 0.000000e+00 0.000000e+00
 0.000000e+00 0.000000e+00 1.000000e+00 0.000000e+00 0.000000e+00
 0.000000e+00 0.000000e+00 0.000000e+00 1.000000e+00 0.000000e+00
 0.000000e+00 0.000000e+00 0.000000e+00 0.000000e+00 1.000000e+00
 0.000000e+00 0.000000e+00 0.000000e+00 0.000000e+00 0.000000e+00
<ENDHMM>
~h "g"
<BEGINHMM>
<NUMSTATES> 5
<STATE> 2
<NUMMIXES> 2
<MIXTURE> 1 5.000000e-01
<MEAN> 39
 7.152275e+00 1.732248e+01 1.323533e+01 1.645249e+01 1.247635e+01 7.463194e+00 -6.627954e-01 5.663006e+00 -3.345813e+00 -7.587331e+00 -3.941957e+00 -4.783528e+00 -4.883049e+00 -1.251863e+00 1.089772e+00 1.406146e+00 1.673695e-01 6.810806e-01 2.149247e+00 1.210435e+00 -6.967139e-01 -4.751170e-01 1.790482e-01 -8.393679e-01 -9.783086e-01 -3.156404e-02 1.560163e-01 -6.209681e-01 -4.542713e-01 -1.250997e-01 -1.080989e-01 -3.505196e-01 -1.817388e-01 3.640087e-01 1.310088e-01 -3.838718e-02 4.126323e-01 1.214321e-01 -1.274737e-01
<VARIANCE> 39
 1.056338e+01 1.621264e+01 1.997852e+01 1.145338e+01 3.468795e+01 3.691530e+01 2.731713e+01 3.545029e+01 3.642669e+01 3.399562e+01 2.525443e+01 2.576904e+01 1.774219e+01 4.514533e-01 2.017452e+00 2.089805e+00 1.037369e+00 1.778131e+00 2.534716e+00 1.793655e+00 2.203105e+00 1.475355e+00 1.513963e+00 2.139197e+00 1.998040e+00 1.106302e+00 3.890789e-02 1.666784e-01 1.958414e-01 1.357527e-01 1.466814e-01 2.180683e-01 2.133000e-01 2.312380e-01 2.398066e-01 2.263243e-01 2.633669e-01 2.040503e-01 1.871476e-01
<GCONST> 9.604641e+01
<MIXTURE> 2 5.000000e-01
<MEAN> 39
 7.152275e+00 1.732248e+01 1.323533e+01 1.645249e+01 1.247635e+01 7.463194e+00 -6.627954e-01 5.663006e+00 -3.345813e+00 -7.587331e+00 -3.941957e+00 -4.783528e+00 -4.883049e+00 -1.251863e+00 1.089772e+00 1.406146e+00 1.673695e-01 6.810806e-01 2.149247e+00 1.210435e+00 -6.967139e-01 -4.751170e-01 1.790482e-01 -8.393679e-01 -9.783086e-01 -3.156404e-02 1.560163e-01 -6.209681e-01 -4.542713e-01 -1.250997e-01 -1.080989e-01 -3.505196e-01 -1.817388e-01 3.640087e-01 1.310088e-01 -3.838718e-02 4.126323e-01 1.214321e-01 -1.274737e-01
<VARIANCE> 39
 1.056338e+01 1.621264e+01 1.997852e+01 1.145338e+01 3.468795e+01 3.691530e+01 2.731713e+01 3.545029e+01 3.642669e+01 3.399562e+01 2.525443e+01 2.576904e+01 1.774219e+01 4.514533e-01 2.017452e+00 2.089805e+00 1.037369e+00 1.778131e+00 2.534716e+00 1.793655e+00 2.203105e+00 1.475355e+00 1.513963e+00 2.139197e+00 1.998040e+00 1.106302e+00 3.890789e-02 1.666784e-01 1.958414e-01 1.357527e-01 1.466814e-01 2.180683e-01 2.133000e-01 2.312380e-01 2.398066e-01 2.263243e-01 2.633669e-01 2.040503e-01 1.871476e-01
<GCONST> 9.604641e+01
<STATE> 3
<NUMMIXES> 2
<MIXTURE> 1 5.000000e-01
<MEAN> 39
 2.597833e+00 1.878918e+01 1.641631e+01 1.679139e+01 1.424050e+01 1.354069e+01 3.746995e+00 6.129655e+00 -1.764061e+00 -4.567286e+00 -4.403608e+00 -7.327943e+00 -5.775916e+00 -5.630198e-01 -5.379142e-01 -3.405822e-01 -4.808327e-01 -3.335950e-01 2.180468e-01 5.724207e-01 8.291016e-01 5.291799e-01 2.630098e-01 4.163412e-01 2.183754e-01 1.924826e-01 1.624234e-01 -3.860666e-01 -4.540555e-01 -2.925202e-01 -2.560378e-01 -3.255109e-01 -1.444649e-01 3.004359e-01 1.227981e-01 -8.962636e-02 2.181661e-01 1.624792e-01 5.603809e-02
<VARIANCE> 39
 1.493212e+01 8.992645e+00 1.129042e+01 9.307207e+00 9.566744e+00 9.617993e+00 1.898472e+01 1.727217e+01 1.478747e+01 1.425717e+01 8.946979e+00 1.061607e+01 8.597998e+00 5.080807e-01 1.276228e+00 1.554454e+00 1.589026e+00 1.467750e+00 1.527813e+00 1.102337e+00 1.429346e+00 9.944409e-01 1.101072e+00 1.034259e+00 1.159874e+00 9.191893e-01 6.818344e-02 1.883760e-01 2.524380e-01 2.850631e-01 3.060394e-01 2.184340e-01 1.499516e-01 2.030468e-01 1.659939e-01 1.507270e-01 2.099906e-01 1.540707e-01 1.245675e-01
<GCONST> 8.313883e+01
<MIXTURE> 2 5.000000e-01
<MEAN> 39
 2.597833e+00 1.878918e+01 1.641631e+01 1.679139e+01 1.424050e+01 1.354069e+01 3.746995e+00 6.129655e+00 -1.764061e+00 -4.567286e+00 -4.403608e+00 -7.327943e+00 -5.775916e+00 -5.630198e-01 -5.379142e-01 -3.405822e-01 -4.808327e-01 -3.335950e-01 2.180468e-01 5.724207e-01 8.291016e-01 5.291799e-01 2.630098e-01 4.163412e-01 2.183754e-01 1.924826e-01 1.624234e-01 -3.860666e-01 -4.540555e-01 -2.925202e-01 -2.560378e-01 -3.255109e-01 -1.444649e-01 3.004359e-01 1.227981e-01 -8.962636e-02 2.181661e-01 1.624792e-01 5.603809e-02
<VARIANCE> 39
 1.493212e+01 8.992645e+00 1.129042e+01 9.307207e+00 9.566744e+00 9.617993e+00 1.898472e+01 1.727217e+01 1.478747e+01 1.425717e+01 8.946979e+00 1.061607e+01 8.597998e+00 5.080807e-01 1.276228e+00 1.554454e+00 1.589026e+00 1.467750e+00 1.527813e+00 1.102337e+00 1.429346e+00 9.944409e-01 1.101072e+00 1.034259e+00 1.159874e+00 9.191893e-01 6.818344e-02 1.883760e-01 2.524380e-01 2.850631e-01 3.060394e-01 2.184340e-01 1.499516e-01 2.030468e-01 1.659939e-01 1.507270e-01 2.099906e-01 1.540707e-01 1.245675e-01
<GCONST> 8.313883e+01
<STATE> 4
<NUMMIXES> 2
<MIXTURE> 1 5.000000e-01
<MEAN> 39
 5.441712e+00 7.271129e+00 2.663078e+00 5.116191e+00 7.987391e+00 1.100261e+01 3.307229e+00 1.348322e+01 -1.367021e+00 -8.851552e+00 1.423728e+00 -3.844188e+00 -3.401086e+00 1.116011e+00 -1.969417e+00 -1.844784e+00 -1.121315e+00 -5.799558e-01 -1.074710e+00 -1.269397e+00 5.428718e-01 -5.355693e-01 -1.002787e+00 1.373234e+00 5.642910e-01 -3.046384e-02 2.165146e-01 7.490271e-02 2.205769e-01 3.824034e-01 2.517602e-01 -2.728404e-01 -4.939629e-01 -3.625834e-01 -2.482035e-01 -1.031774e-01 7.026412e-02 -1.255077e-02 -1.873789e-01
<VARIANCE> 39
 5.913420e+01 7.678580e+01 6.613258e+01 1.302592e+02 1.131256e+02 7.403625e+01 6.799744e+01 8.921313e+01 9.140476e+01 7.826366e+01 4.868535e+01 3.240578e+01 2.630767e+01 2.133681e+00 3.023520e+00 3.852825e+00 1.166340e+01 1.017574e+01 6.569812e+00 4.119524e+00 7.452632e+00 5.759070e+00 4.114684e+00 3.738142e+00 1.798245e+00 2.030967e+00 2.239338e-01 3.707389e-01 6.224098e-01 1.460257e+00 1.093271e+00 7.232673e-01 4.977518e-01 8.204260e-01 7.983404e-01 6.155527e-01 5.370854e-01 3.291336e-01 3.412223e-01
<GCONST> 1.382542e+02
<MIXTURE> 2 5.000000e-01
<MEAN> 39
 5.441712e+00 7.271129e+00 2.663078e+00 5.116191e+00 7.987391e+00 1.100261e+01 3.307229e+00 1.348322e+01 -1.367021e+00 -8.851552e+00 1.423728e+00 -3.844188e+00 -3.401086e+00 1.116011e+00 -1.969417e+00 -1.844784e+00 -1.121315e+00 -5.799558e-01 -1.074710e+00 -1.269397e+00 5.428718e-01 -5.355693e-01 -1.002787e+00 1.373234e+00 5.642910e-01 -3.046384e-02 2.165146e-01 7.490271e-02 2.205769e-01 3.824034e-01 2.517602e-01 -2.728404e-01 -4.939629e-01 -3.625834e-01 -2.482035e-01 -1.031774e-01 7.026412e-02 -1.255077e-02 -1.873789e-01
<VARIANCE> 39
 5.913420e+01 7.678580e+01 6.613258e+01 1.302592e+02 1.131256e+02 7.403625e+01 6.799744e+01 8.921313e+01 9.140476e+01 7.826366e+01 4.868535e+01 3.240578e+01 2.630767e+01 2.133681e+00 3.023520e+00 3.852825e+00 1.166340e+01 1.017574e+01 6.569812e+00 4.119524e+00 7.452632e+00 5.759070e+00 4.114684e+00 3.738142e+00 1.798245e+00 2.030967e+00 2.239338e-01 3.707389e-01 6.224098e-01 1.460257e+00 1.093271e+00 7.232673e-01 4.977518e-01 8.204260e-01 7.983404e-01 6.155527e-01 5.370854e-01 3.291336e-01 3.412223e-01
<GCONST> 1.382542e+02
<TRANSP> 5
 0.000000e+00 1.000000e+00 0.000000e+00 0.000000e+00 0.000000e+00
 0.000000e+00 6.558738e-01 3.441263e-01 0.000000e+00 0.000000e+00
 0.000000e+00 0.000000e+00 7.994422e-01 2.005578e-01 0.000000e+00
 0.000000e+00 0.000000e+00 0.000000e+00 8.044341e-01 1.955660e-01
 0.000000e+00 0.000000e+00 0.000000e+00 0.000000e+00 0.000000e+00
<ENDHMM>
~h "h"
<BEGINHMM>
<NUMSTATES> 5
<STATE> 2
<NUMMIXES> 2
<MIXTURE> 1 5.953347e-01
<MEAN> 39
 1.361803e+01 -7.172794e+00 -7.580895e+00 8.952296e+00 8.748008e+00 5.263331e+00 -4.561356e+00 6.314341e+00 -1.921791e-01 8.762140e+00 2.566029e+01 6.079081e+00 -3.232587e+00 -2.884717e-01 1.906549e-01 2.529461e-01 3.663358e-01 3.308474e-01 2.396192e-01 -3.998562e-02 -2.215159e-01 1.713828e-01 4.756070e-01 2.578343e-01 1.282092e-01 -1.056492e-01 3.326083e-02 2.020542e-02 4.022970e-02 3.867705e-02 7.584245e-02 -1.198401e-01 -1.764012e-01 5.940685e-02 -1.076063e-01 -3.254694e-01 -1.395589e-01 -5.387387e-02 -1.522450e-02
<VARIANCE> 39
 7.535926e+00 1.889349e+01 3.677272e+01 3.558074e+01 4.672424e+01 2.061135e+01 5.748082e+01 5.003476e+01 3.315240e+01 8.818780e+01 3.621314e+01 2.671241e+01 3.013928e+01 2.839806e-01 9.132450e-01 1.108882e+00 1.350208e+00 1.775075e+00 1.437579e+00 3.286396e+00 1.883840e+00 1.941210e+00 3.670542e+00 2.522579e+00 1.192209e+00 1.360820e+00 2.845100e-02 1.106835e-01 1.253562e-01 1.569156e-01 1.675846e-01 2.166286e-01 2.834622e-01 2.858435e-01 2.588874e-01 2.808870e-01 3.254003e-01 2.129595e-01 2.114289e-01
<GCONST> 9.973177e+01
<MIXTURE> 2 4.046654e-01
<MEAN> 39
 -1.038418e+01 -3.877788e+00 -3.442040e+00 2.762250e+00 1.551307e+00 2.408313e+00 -2.604839e+00 4.969215e+00 -3.195780e+00 -3.797204e+00 4.806684e+00 2.150404e+00 1.171865e+00 -4.026254e-01 -3.811502e-02 -1.814206e-01 -3.063829e-01 -4.968063e-01 -5.386015e-02 5.623686e-01 3.762026e-01 4.213036e-01 3.177403e-01 -2.830777e-01 -5.792971e-02 8.163459e-02 8.267576e-02 -6.532726e-02 -2.566695e-02 -6.426324e-03 -3.411454e-03 -4.943230e-02 -3.287558e-02 1.343448e-01 4.067151e-02 -4.182172e-02 6.188307e-02 -2.935195e-02 -8.407171e-02
<VARIANCE> 39
 3.088706e+02 5.591539e+01 5.509422e+01 1.248792e+02 9.959167e+01 6.154772e+01 7.306060e+01 9.099950e+01 5.795166e+01 5.342975e+01 5.606313e+01 3.732825e+01 3.450555e+01 1.802497e+00 1.401567e+00 1.789042e+00 1.754165e+00 1.954955e+00 2.344701e+00 2.819360e+00 3.231518e+00 2.362363e+00 2.452556e+00 2.043233e+00 1.486982e+00 1.434916e+00 8.717003e-02 1.386542e-01 1.814933e-01 2.094496e-01 2.495185e-01 3.136374e-01 3.569936e-01 3.819464e-01 3.688193e-01 3.494230e-01 3.024818e-01 2.531349e-01 2.398660e-01
<GCONST> 1.177785e+02
<STATE> 3
<NUMMIXES> 2
<MIXTURE> 1 4.919592e-01
<MEAN> 39
 6.533074e+00 -8.998109e-02 7.977634e+00 2.467797e+01 1.833019e+01 1.890842e+00 -1.162384e+01 9.798802e+00 3.479863e+00 6.235987e-01 1.354832e+01 -4.819250e+00 -1.137782e+01 -3.403638e-03 1.651319e-01 6.645977e-02 -9.834408e-02 -7.387382e-02 -1.573672e-01 -1.365194e-01 2.422751e-01 1.663857e-01 -1.850143e-01 2.208143e-03 1.516762e-01 -5.778914e-02 1.051234e-01 -6.495594e-02 -7.521933e-02 -5.771569e-02 4.611689e-02 -6.644399e-02 -1.996814e-01 -3.148158e-02 -1.385024e-01 -1.977408e-01 8.678700e-02 5.010255e-02 -3.472336e-02
<VARIANCE> 39
 1.162472e+01 3.102760e+01 3.912817e+01 4.401892e+01 2.328600e+01 2.946748e+01 2.944288e+01 3.563971e+01 4.475943e+01 5.863749e+01 5.102197e+01 2.826379e+01 2.984359e+01 4.348830e-01 5.898719e-01 1.087817e+00 1.642218e+00 1.455686e+00 1.296253e+00 2.344345e+00 1.867856e+00 2.465613e+00 3.295161e+00 2.318240e+00 1.308931e+00 1.477289e+00 2.778714e-02 9.922060e-02 1.291325e-01 1.966735e-01 1.960735e-01 2.056926e-01 2.794216e-01 2.904548e-01 2.728239e-01 3.052080e-01 3.215437e-01 2.080705e-01 2.465212e-01
<GCONST> 1.000936e+02
<MIXTURE> 2 5.080400e-01
<MEAN> 39
 1.349214e+01 -2.180116e-01 -1.929835e+00 4.935955e+00 -6.314321e+00 -1.838015e+00 1.153231e+01 2.632813e+01 6.253547e+00 -5.611527e+00 3.621546e+00 3.002749e+00 2.430848e+00 5.328744e-02 1.385242e-01 4.783414e-02 -1.457056e-01 -3.091690e-01 -2.119897e-01 1.486773e-01 1.370284e-01 -1.349188e-01 -1.822295e-01 -5.807587e-02 8.795703e-03 -7.006577e-02 6.206989e-02 -3.407858e-02 -4.749751e-02 1.242422e-02 1.032440e-01 -9.376959e-02 -2.429720e-01 -8.656738e-02 -5.484113e-02 -6.937036e-02 6.035725e-02 -9.521418e-03 -8.014709e-02
<VARIANCE> 39
 4.570216e+01 7.035986e+01 5.537348e+01 2.230921e+01 7.221724e+01 7.760997e+01 7.395296e+01 6.928335e+01 4.374295e+01 6.439113e+01 3.664335e+01 2.165907e+01 2.285934e+01 8.124965e-01 9.403461e-01 1.077366e+00 9.229001e-01 1.506984e+00 2.100087e+00 3.169739e+00 2.392539e+00 1.470887e+00 1.780524e+00 1.475494e+00 1.047895e+00 1.140364e+00 4.120008e-02 1.001919e-01 1.225184e-01 1.338697e-01 1.642823e-01 2.115680e-01 2.375139e-01 2.768496e-01 2.164285e-01 2.305252e-01 2.154996e-01 1.878868e-01 1.667844e-01
<GCONST> 1.025503e+02
<STATE> 4
<NUMMIXES> 2
<MIXTURE> 1 5.576980e-01
<MEAN> 39
 1.245051e+01 -2.618548e+00 6.990055e-01 1.848740e+01 1.944913e+01 -4.564818e-01 -2.013055e+01 6.646820e+00 -3.931620e+00 -4.934274e+00 2.226081e+01 1.433008e+00 -1.049388e+01 7.617304e-01 -4.600587e-01 -9.300939e-01 -3.021933e-01 8.239053e-01 -4.456964e-01 -1.448364e+00 -7.021330e-02 -9.520181e-01 -1.729315e+00 -7.907098e-02 1.057229e-01 -5.071003e-02 5.093766e-03 -1.706877e-01 -3.208807e-01 -1.160627e-01 9.522174e-02 1.373703e-01 5.754560e-02 -1.442914e-01 3.847772e-02 1.612431e-01 -6.901760e-02 6.289863e-02 1.283133e-01
<VARIANCE> 39
 9.577044e+00 1.577145e+01 3.696104e+01 2.898610e+01 1.920850e+01 1.842178e+01 3.128370e+01 3.739261e+01 3.125142e+01 4.024336e+01 4.027585e+01 2.923116e+01 2.684035e+01 3.517583e-01 8.337698e-01 1.669831e+00 1.563543e+00 1.187870e+00 1.497838e+00 2.185784e+00 2.155671e+00 1.358860e+00 2.260024e+00 2.158720e+00 1.195225e+00 1.106110e+00 5.095960e-02 1.079582e-01 1.912809e-01 2.386540e-01 2.046001e-01 2.442747e-01 3.604236e-01 3.474112e-01 2.617468e-01 3.167705e-01 3.529072e-01 2.019629e-01 1.835415e-01
<GCONST> 9.794304e+01
<MIXTURE> 2 4.423017e-01
<MEAN> 39
 4.080763e+00 -7.754296e+00 -1.261819e+01 -6.286800e+00 -1.387255e+01 -6.285701e+00 8.429716e+00 2.232266e+01 1.182489e+00 -9.468919e+00 8.356011e-01 2.542752e+00 2.445384e+00 1.456756e+00 4.445404e-01 5.083264e-01 7.494723e-01 2.607810e-01 -3.235794e-01 -9.179387e-02 3.980179e-01 3.048662e-01 1.098992e-01 2.960113e-01 6.349773e-02 -5.431106e-02 6.240672e-03 1.615690e-02 1.252616e-01 1.875721e-01 2.428284e-01 2.386609e-02 -1.924720e-01 -9.354562e-02 -2.448210e-02 -8.595884e-03 7.996742e-02 -1.597509e-02 -7.374982e-02
<VARIANCE> 39
 1.202142e+02 7.506819e+01 9.703952e+01 9.826319e+01 1.175816e+02 6.488679e+01 8.502839e+01 1.073605e+02 4.246695e+01 7.267753e+01 7.223366e+01 2.208691e+01 2.375750e+01 2.103278e+00 1.814598e+00 3.145388e+00 3.148428e+00 4.609978e+00 3.400979e+00 3.218077e+00 2.847064e+00 2.156950e+00 2.685543e+00 2.098562e+00 1.449256e+00 1.518786e+00 9.807478e-02 1.990709e-01 3.628049e-01 3.787852e-01 4.022862e-01 4.503455e-01 4.966885e-01 4.673353e-01 3.738253e-01 4.165312e-01 3.120379e-01 2.488265e-01 2.509256e-01
<GCONST> 1.235829e+02
<TRANSP> 5
 0.000000e+00 1.000000e+00 0.000000e+00 0.000000e+00 0.000000e+00
 0.000000e+00 8.494040e-01 1.505960e-01 0.000000e+00 0.000000e+00
 0.000000e+00 0.000000e+00 8.813460e-01 1.186540e-01 0.000000e+00
 0.000000e+00 0.000000e+00 0.000000e+00 7.721804e-01 2.278196e-01
 0.000000e+00 0.000000e+00 0.000000e+00 0.000000e+00 0.000000e+00
<ENDHMM>
~h "i"
<BEGINHMM>
<NUMSTATES> 7
<STATE> 2
<NUMMIXES> 2
<MIXTURE> 1 5.138907e-01
<MEAN> 39
 -5.560282e+00 -6.025188e+00 4.277624e+00 9.266949e+00 6.850663e+00 3.032559e+00 -6.213103e+00 6.925565e+00 -4.332342e+00 -7.683242e+00 3.025554e+00 -1.210422e+00 -1.584982e+00 6.124615e-01 -1.268275e-01 2.459222e-01 5.071192e-01 5.595145e-01 -8.712357e-02 -5.972269e-01 1.208671e-01 -1.700995e-01 -4.203008e-01 3.810658e-01 -7.339311e-02 -4.447153e-01 1.339291e-01 -4.757904e-02 -3.166293e-02 6.447878e-02 1.420573e-01 -2.707544e-02 -1.941809e-01 2.524945e-02 -4.858109e-02 -1.256864e-01 1.608118e-01 -8.794052e-03 -1.654529e-01
<VARIANCE> 39
 2.858628e+02 1.563466e+02 1.413250e+02 1.858446e+02 1.079067e+02 9.910520e+01 8.640128e+01 9.024606e+01 8.712201e+01 7.846511e+01 7.156315e+01 4.178926e+01 4.539936e+01 4.550470e+00 3.504368e+00 2.973893e+00 3.569547e+00 3.587417e+00 2.671163e+00 3.470765e+00 2.662759e+00 2.361197e+00 2.736038e+00 3.040697e+00 1.893263e+00 2.377979e+00 2.625369e-01 3.411265e-01 3.952972e-01 3.966268e-01 3.663968e-01 3.398059e-01 3.957428e-01 4.532968e-01 3.545457e-01 4.394113e-01 4.156457e-01 2.900382e-01 2.965666e-01
<GCONST> 1.322883e+02
<MIXTURE> 2 4.861095e-01
<MEAN> 39
 1.159849e+01 -9.393867e+00 7.310029e+00 2.720016e+01 2.356294e+01 3.940357e+00 -1.770645e+01 4.163995e+00 -7.823162e+00 -1.602452e+01 8.434603e+00 -2.800748e+00 -1.099808e+01 1.623495e+00 -7.940409e-01 -7.237263e-01 8.488809e-01 2.695715e+00 -1.033691e+00 -3.911474e+00 -5.300879e-02 -8.741156e-01 -2.782304e+00 1.271015e+00 4.499300e-01 -2.387283e+00 -4.004944e-01 -1.495608e-01 5.764557e-02 -2.999333e-01 -2.400996e-01 -3.154895e-02 9.797797e-02 4.507481e-01 2.312783e-01 8.961427e-04 -5.265406e-02 1.461239e-02 1.391226e-01
<VARIANCE> 39
 1.727686e+01 2.944301e+01 5.072551e+01 9.887440e+01 3.268340e+01 3.587451e+01 4.455479e+01 3.742347e+01 3.717434e+01 3.668867e+01 4.595519e+01 2.150452e+01 2.632014e+01 1.150027e+00 2.105923e+00 2.757547e+00 2.276479e+00 2.367381e+00 2.304944e+00 2.730006e+00 3.570114e+00 2.264011e+00 3.149776e+00 3.939606e+00 1.493269e+00 1.787518e+00 1.411470e-01 3.315515e-01 4.111468e-01 4.127322e-01 3.392530e-01 2.882367e-01 3.887418e-01 4.770812e-01 3.544517e-01 4.285721e-01 4.435970e-01 2.001534e-01 2.448139e-01
<GCONST> 1.147534e+02
<STATE> 3
<NUMMIXES> 2
<MIXTURE> 1 4.006625e-01
<MEAN> 39
 1.624051e+01 -1.087856e+01 2.437376e+00 2.186077e+01 2.697599e+01 1.922098e+00 -2.564877e+01 8.110431e+00 -1.141356e+01 -2.494794e+01 1.502387e+01 6.083844e-01 -1.487415e+01 4.559086e-01 -8.573211e-01 -1.850384e-02 -1.466140e-01 1.248521e+00 -4.618757e-01 -2.501930e+00 8.680546e-01 -1.555507e-01 -1.543543e+00 1.399551e+00 6.185662e-02 -1.522943e+00 -3.431756e-01 2.449711e-01 2.474619e-01 -1.675903e-01 -4.321557e-01 1.711240e-01 6.547613e-01 -8.450349e-02 2.863698e-01 6.158695e-01 -4.374318e-01 -1.806536e-01 3.855060e-01
<VARIANCE> 39
 1.319966e+01 1.960100e+01 4.943849e+01 9.435409e+01 3.146443e+01 2.302250e+01 5.418731e+01 4.175769e+01 3.732525e+01 4.259269e+01 6.688636e+01 2.124575e+01 3.046753e+01 5.509961e-01 9.563535e-01 1.322052e+00 1.206140e+00 1.034888e+00 1.306700e+00 1.817130e+00 1.976351e+00 1.262444e+00 1.703942e+00 2.127509e+00 1.072311e+00 1.040622e+00 9.562427e-02 1.434114e-01 2.132483e-01 2.200478e-01 2.222988e-01 1.694098e-01 3.299932e-01 3.851855e-01 2.113025e-01 3.576550e-01 2.865743e-01 1.836015e-01 2.042187e-01
<GCONST> 1.012680e+02
<MIXTURE> 2 5.993373e-01
<MEAN> 39
 1.719008e+01 -1.182986e+01 3.093160e-01 1.609737e+01 2.620771e+01 1.050943e+00 -2.875426e+01 8.931296e+00 -1.315058e+01 -2.684556e+01 1.995549e+01 1.504690e+00 -1.720015e+01 -2.329580e-01 -6.403255e-02 5.255353e-01 1.511641e-01 1.644307e-01 2.226117e-01 -1.997544e-01 -1.906617e-01 -1.090600e-01 1.974438e-02 2.372083e-01 -3.425812e-01 -6.381552e-01 7.636334e-03 6.118983e-02 -3.275730e-02 4.044865e-02 -5.094391e-02 1.068344e-01 2.302747e-01 -2.828575e-02 -1.244198e-02 8.319157e-02 -1.068228e-01 -4.562850e-03 1.301237e-01
<VARIANCE> 39
 6.803427e+00 1.209531e+01 2.667541e+01 2.284694e+01 1.884528e+01 1.754386e+01 3.390873e+01 3.836324e+01 2.420545e+01 2.467544e+01 4.197146e+01 1.223986e+01 3.142504e+01 3.835893e-01 3.975998e-01 6.984709e-01 9.308994e-01 5.654839e-01 6.903888e-01 1.367269e+00 1.433370e+00 6.096353e-01 1.178286e+00 1.325177e+00 5.559500e-01 9.902899e-01 5.572265e-02 5.905123e-02 8.075465e-02 7.848114e-02 7.532862e-02 9.347910e-02 1.929576e-01 2.116812e-01 8.589349e-02 1.794233e-01 1.882351e-01 8.153433e-02 1.004736e-01
<GCONST> 7.874948e+01
<STATE> 4
<NUMMIXES> 2
<MIXTURE> 1 4.312607e-01
<MEAN> 39
 1.547001e+01 -1.413344e+01 3.907071e+00 2.361397e+01 3.303762e+01 6.111037e-01 -3.429023e+01 1.030025e+01 -1.026091e+01 -2.678604e+01 1.680573e+01 -1.172527e+00 -1.839378e+01 -1.247244e-02 2.383265e-01 -1.673167e-01 3.797871e-02 -8.763136e-02 1.894827e-01 4.666160e-01 -3.645128e-01 -2.004646e-01 2.226109e-01 -3.179802e-02 6.390440e-02 7.905346e-02 -1.669373e-01 2.495739e-01 -2.032067e-04 6.307259e-02 -3.157727e-01 6.952483e-02 6.124229e-01 -4.104953e-01 1.063963e-01 4.729343e-01 -4.389568e-01 1.283629e-02 3.228816e-01
<VARIANCE> 39
 7.679768e+00 1.065257e+01 3.993378e+01 4.973643e+01 2.896710e+01 2.136024e+01 3.929567e+01 2.814198e+01 3.627887e+01 1.881310e+01 4.015789e+01 1.312009e+01 2.552853e+01 5.135635e-01 5.523228e-01 6.850354e-01 1.110949e+00 9.653989e-01 8.949224e-01 2.181274e+00 2.013162e+00 8.741106e-01 1.617803e+00 1.594001e+00 6.404819e-01 8.099452e-01 5.120974e-02 8.813136e-02 1.202569e-01 1.328336e-01 1.337177e-01 1.353077e-01 2.366915e-01 2.264609e-01 1.496067e-01 2.276636e-01 1.939094e-01 1.021771e-01 1.673012e-01
<GCONST> 8.753599e+01
<MIXTURE> 2 5.687391e-01
<MEAN> 39
 1.120563e+01 -1.283446e+01 8.744788e+00 3.293962e+01 3.174282e+01 8.468818e-02 -2.860450e+01 5.543122e+00 -2.615469e+00 -1.991121e+01 5.429109e+00 -3.426568e+00 -1.583717e+01 6.413982e-02 -5.789441e-02 -9.911703e-02 -3.353667e-01 1.203174e-01 2.849111e-02 -3.818433e-01 1.671205e-01 1.920348e-02 -2.891969e-01 1.530570e-01 9.851049e-02 -8.715069e-02 6.530894e-02 -1.880224e-02 -5.652999e-03 -2.792686e-02 7.671845e-05 5.087370e-02 -1.495634e-02 1.111009e-01 -9.276539e-02 -7.927384e-02 1.434159e-01 6.460457e-04 3.587335e-03
<VARIANCE> 39
 6.907165e+00 1.144072e+01 3.384998e+01 4.845901e+01 2.567166e+01 1.662599e+01 4.036974e+01 2.487529e+01 3.193993e+01 2.902912e+01 2.941721e+01 1.515522e+01 1.825079e+01 3.500431e-01 4.120885e-01 6.248642e-01 9.350185e-01 8.526169e-01 7.608834e-01 1.636630e+00 1.290705e+00 1.053588e+00 1.223958e+00 1.096565e+00 6.426963e-01 7.733433e-01 5.861125e-02 6.741063e-02 8.428096e-02 1.278671e-01 1.479201e-01 1.098033e-01 2.544654e-01 2.063552e-01 1.347208e-01 1.921565e-01 1.655917e-01 1.011102e-01 1.194051e-01
<GCONST> 8.274297e+01
<STATE> 5
<NUMMIXES> 2
<MIXTURE> 1 6.386197e-01
<MEAN> 39
 1.492028e+01 -9.858833e+00 3.708428e+00 2.151781e+01 2.728215e+01 6.064355e+00 -2.384578e+01 4.092016e+00 -1.246595e+01 -2.237449e+01 1.579715e+01 -5.856106e-01 -1.666804e+01 -8.758382e-01 1.397825e+00 9.746060e-01 -2.380858e-01 -1.685232e+00 1.641991e+00 3.009980e+00 -1.767802e+00 8.212598e-01 2.635202e+00 -2.370380e+00 -3.600460e-01 2.040401e+00 -3.505436e-01 3.407951e-01 5.319400e-01 -2.846161e-01 -4.400888e-01 2.788244e-01 4.132734e-01 -1.493303e-01 3.274051e-01 6.122746e-01 -5.595372e-01 -1.452812e-01 5.470204e-01
<VARIANCE> 39
 9.525748e+00 2.242173e+01 4.164371e+01 5.208514e+01 3.906331e+01 4.663778e+01 5.369556e+01 4.981403e+01 3.357075e+01 4.097661e+01 5.561205e+01 1.949519e+01 3.037955e+01 6.293588e-01 2.908262e+00 1.910078e+00 1.431633e+00 1.481508e+00 2.534790e+00 2.136317e+00 3.202504e+00 1.868112e+00 2.564432e+00 2.077167e+00 9.912173e-01 1.447207e+00 7.973757e-02 2.190705e-01 2.226223e-01 1.830031e-01 1.859799e-01 2.388848e-01 3.281166e-01 3.953328e-01 3.299024e-01 3.438144e-01 2.971493e-01 1.918535e-01 2.098995e-01
<GCONST> 1.062601e+02
<MIXTURE> 2 3.613802e-01
<MEAN> 39
 1.185661e+01 -6.802402e+00 7.473553e+00 2.812691e+01 2.632931e+01 5.393043e-01 -2.320431e+01 3.143473e+00 -6.602150e+00 -1.714459e+01 7.230299e+00 -1.793136e+00 -1.266065e+01 -1.251279e-01 8.313600e-01 -1.098560e-01 -1.803330e-01 -6.162530e-01 1.849118e-01 1.217864e+00 -2.386630e-01 -9.219927e-02 6.549494e-01 -3.487092e-01 1.532472e-01 6.546596e-01 2.149462e-02 -2.563690e-02 -4.090154e-02 -1.025925e-01 -7.472171e-03 6.727723e-02 1.093708e-02 1.893976e-01 3.875234e-02 -7.834934e-02 5.468952e-02 2.108289e-02 3.361681e-02
<VARIANCE> 39
 1.159892e+01 2.453453e+01 5.128266e+01 7.154746e+01 3.882245e+01 3.394617e+01 7.500605e+01 5.218297e+01 6.415115e+01 4.567221e+01 7.932616e+01 3.456207e+01 2.352758e+01 4.202652e-01 1.274397e+00 1.200634e+00 1.800861e+00 1.583902e+00 1.366730e+00 2.820287e+00 2.272923e+00 1.510444e+00 2.488273e+00 2.204244e+00 1.199671e+00 1.296342e+00 5.367361e-02 1.265227e-01 1.409128e-01 2.016588e-01 2.176718e-01 2.071337e-01 3.199517e-01 3.329327e-01 2.527738e-01 3.155629e-01 2.215950e-01 1.696119e-01 1.517454e-01
<GCONST> 1.037952e+02
<STATE> 6
<NUMMIXES> 2
<MIXTURE> 1 8.698633e-01
<MEAN> 39
 5.952754e+00 2.577418e+00 7.762038e+00 1.982404e+01 1.979392e+01 9.115665e+00 -8.200052e+00 3.964659e+00 -3.808116e+00 -8.532342e+00 4.092164e+00 -1.480236e+00 -5.753851e+00 -1.857581e+00 1.637430e+00 1.394359e+00 -1.103880e+00 -1.882318e+00 1.190695e+00 2.439082e+00 -3.321437e-01 1.087062e+00 2.186930e+00 -1.757375e+00 -3.282502e-01 1.795764e+00 -1.255710e-01 -4.202041e-01 6.996545e-02 -1.109370e-01 7.570208e-02 -7.893292e-02 -3.909367e-01 1.306626e-01 -3.211711e-01 -3.581595e-01 4.386015e-01 5.190450e-02 -2.600687e-01
<VARIANCE> 39
 6.753143e+01 7.161028e+01 3.489983e+01 4.155039e+01 4.298472e+01 5.645847e+01 7.989880e+01 7.203946e+01 5.224381e+01 7.962222e+01 5.049332e+01 1.961664e+01 2.862424e+01 9.775040e-01 4.010053e+00 3.147799e+00 1.813657e+00 1.679148e+00 2.705316e+00 2.478623e+00 3.549871e+00 2.839439e+00 2.952283e+00 3.046740e+00 1.378398e+00 2.188920e+00 1.074056e-01 2.231160e-01 2.889300e-01 2.331367e-01 2.740469e-01 2.180490e-01 2.918182e-01 4.596588e-01 2.906052e-01 3.149544e-01 2.736547e-01 1.857605e-01 1.975081e-01
<GCONST> 1.153717e+02
<MIXTURE> 2 1.301364e-01
<MEAN> 39
 -1.304225e+01 -9.241127e+00 -2.641443e+00 6.955825e+00 7.833115e+00 1.094160e+00 -1.095550e+01 1.939030e+00 -5.421952e+00 -8.721585e+00 3.824731e+00 1.531629e+00 -3.350577e+00 5.431660e-02 5.737728e-03 -2.616283e-01 -2.680202e-01 -1.847775e-01 -1.408913e-01 1.332305e-02 3.074219e-02 -1.808825e-01 -8.621198e-02 9.808077e-02 1.156953e-01 1.218776e-01 4.457774e-02 -3.737882e-03 3.133683e-02 1.797602e-02 5.117052e-02 2.561793e-02 -7.098345e-02 8.739605e-02 1.203398e-02 -8.109159e-02 8.056074e-02 1.045651e-03 -4.986924e-02
<VARIANCE> 39
 3.318488e+02 1.780684e+01 6.669108e+01 2.125221e+02 2.094678e+02 3.051375e+01 1.903860e+02 2.929223e+01 4.150686e+01 9.559424e+01 3.133520e+01 3.122915e+01 4.991713e+01 2.022579e-01 3.518482e-01 7.127514e-01 9.057810e-01 8.807548e-01 1.057671e+00 1.119069e+00 1.184675e+00 1.474773e+00 1.162976e+00 1.163179e+00 1.281287e+00 9.395845e-01 4.166462e-02 4.987398e-02 7.512859e-02 1.202930e-01 1.704246e-01 1.958974e-01 2.494384e-01 2.593050e-01 2.437090e-01 2.174713e-01 2.328350e-01 2.460007e-01 1.765707e-01
<GCONST> 9.984703e+01
<TRANSP> 7
 0.000000e+00 1.000000e+00 0.000000e+00 0.000000e+00 0.000000e+00 0.000000e+00 0.000000e+00
 0.000000e+00 7.332584e-01 2.667416e-01 0.000000e+00 0.000000e+00 0.000000e+00 0.000000e+00
 0.000000e+00 0.000000e+00 8.182312e-01 1.817688e-01 0.000000e+00 0.000000e+00 0.000000e+00
 0.000000e+00 0.000000e+00 0.000000e+00 8.926828e-01 1.073172e-01 0.000000e+00 0.000000e+00
 0.000000e+00 0.000000e+00 0.000000e+00 0.000000e+00 7.471606e-01 2.528394e-01 0.000000e+00
 0.000000e+00 0.000000e+00 0.000000e+00 0.000000e+00 0.000000e+00 6.894619e-01 3.105381e-01
 0.000000e+00 0.000000e+00 0.000000e+00 0.000000e+00 0.000000e+00 0.000000e+00 0.000000e+00
<ENDHMM>
~h "j"
<BEGINHMM>
<NUMSTATES> 5
<STATE> 2
<NUMMIXES> 2
<MIXTURE> 1 6.874958e-01
<MEAN> 39
 2.524348e+00 1.933417e+01 1.773040e+01 1.814847e+01 1.472961e+01 1.350270e+01 4.546567e+00 7.619939e+00 -4.851375e-01 -4.551923e+00 -4.593627e+00 -5.633248e+00 -3.616658e+00 -2.298265e-01 -2.318604e-01 1.033776e-01 2.047273e-01 -1.912861e-02 1.509010e-01 2.576720e-01 2.293611e-01 3.561491e-01 2.427570e-01 -9.215411e-02 5.374566e-02 2.388095e-01 -1.301236e-01 -4.002486e-01 -6.027885e-02 1.196751e-01 -5.643609e-02 -6.211459e-02 -7.917608e-02 1.790448e-02 1.540819e-01 7.238407e-02 3.394339e-02 1.060125e-01 1.847017e-01
<VARIANCE> 39
 9.793555e+00 5.593574e+00 1.110011e+01 8.440524e+00 4.338458e+00 7.166201e+00 8.066791e+00 1.282109e+01 1.374549e+01 1.247487e+01 9.495258e+00 7.821681e+00 5.621872e+00 7.664075e-01 1.185510e+00 1.242322e+00 1.190234e+00 6.281796e-01 5.718356e-01 6.473964e-01 5.947667e-01 8.737358e-01 1.014691e+00 8.686813e-01 7.038615e-01 8.228816e-01 5.765524e-02 2.296295e-01 2.406657e-01 2.178145e-01 1.043925e-01 9.343313e-02 1.041294e-01 9.389984e-02 1.300945e-01 1.285090e-01 1.355402e-01 1.092388e-01 1.354312e-01
<GCONST> 7.015080e+01
<MIXTURE> 2 3.125043e-01
<MEAN> 39
 -9.830299e+00 8.799329e+00 1.022785e+01 1.171619e+01 9.591049e+00 1.135772e+01 4.099973e+00 8.078850e+00 2.192211e+00 5.101329e-01 1.351765e+00 -1.110835e+00 2.182769e-02 1.800244e+00 2.246370e+00 2.102604e+00 1.362156e+00 9.346780e-01 1.071775e+00 7.610936e-01 2.026926e-01 2.644306e-02 -1.215915e-01 -5.188558e-01 -4.758931e-01 -3.198144e-01 6.979704e-04 -2.176805e-01 -4.531867e-02 -4.509088e-02 -1.216871e-01 -1.230636e-01 -1.956773e-01 -1.453657e-01 -2.020632e-01 -2.322185e-01 -8.660351e-02 -1.096257e-01 -1.179944e-01
<VARIANCE> 39
 9.138068e+01 4.600256e+01 3.525054e+01 3.605200e+01 2.819869e+01 1.746073e+01 1.478477e+01 1.292078e+01 1.363138e+01 2.239539e+01 1.513324e+01 1.182765e+01 9.783215e+00 3.433122e+00 1.207693e+00 1.977515e+00 2.374245e+00 3.356997e+00 1.955316e+00 2.107687e+00 1.622138e+00 1.654796e+00 1.971044e+00 1.428079e+00 1.176839e+00 9.581699e-01 2.485047e-01 3.994448e-01 2.908801e-01 4.049414e-01 3.947628e-01 2.709773e-01 2.697055e-01 2.278975e-01 2.347051e-01 2.181060e-01 2.637591e-01 1.628881e-01 1.253897e-01
<GCONST> 1.018783e+02
<STATE> 3
<NUMMIXES> 2
<MIXTURE> 1 5.111594e-01
<MEAN> 39
 -2.373297e+00 3.571949e+00 1.983715e+01 2.451788e+01 1.137642e+01 1.499994e+01 4.677976e+00 8.720437e+00 6.223320e+00 -1.884594e+00 -4.715951e+00 -2.034482e+00 3.400540e+00 -1.588874e+00 -5.370035e+00 1.292328e+00 9.189976e-01 -1.569369e+00 1.196359e+00 -2.789054e-01 2.041952e-01 1.578682e+00 -1.387216e-01 8.548331e-01 1.150477e+00 7.198708e-01 -6.897095e-02 -9.522169e-01 1.026685e-01 -3.843628e-01 -3.465504e-01 2.491027e-02 -3.107257e-01 1.508508e-01 -9.508887e-02 -4.996713e-01 5.621024e-01 3.667593e-01 -3.801123e-01
<VARIANCE> 39
 1.825472e+01 7.481376e+01 2.732921e+01 2.186640e+01 2.956898e+01 2.110225e+01 2.040174e+01 2.096672e+01 4.727349e+01 3.016240e+01 2.678064e+01 1.988590e+01 1.849599e+01 6.520700e-01 3.890752e+00 3.012798e+00 2.192631e+00 2.091867e+00 1.989612e+00 2.194278e+00 1.563473e+00 1.841658e+00 2.503425e+00 2.937950e+00 2.032672e+00 2.183568e+00 7.565415e-02 4.717406e-01 2.346091e-01 4.077168e-01 2.602760e-01 3.926825e-01 2.678812e-01 2.405591e-01 2.882471e-01 3.336512e-01 3.078826e-01 2.543534e-01 2.743722e-01
<GCONST> 1.069314e+02
<MIXTURE> 2 4.888406e-01
<MEAN> 39
 -9.900484e+00 -2.633362e+01 2.740166e+01 2.161672e+01 -7.649443e-01 1.777441e+01 -2.634075e-01 1.091030e+01 1.086300e+01 -7.215001e+00 3.727988e+00 6.011188e+00 2.396407e+00 -8.466587e-01 -4.939135e+00 2.663678e+00 -7.431735e-01 -2.167691e+00 4.620934e-01 -2.113520e+00 -1.461161e-01 1.806396e-01 -1.087817e+00 1.479267e+00 5.580026e-01 -6.865500e-01 5.504782e-01 1.045290e+00 -3.523947e-02 2.883825e-01 7.553205e-01 9.363359e-02 -3.197225e-01 -4.654489e-01 -4.331202e-01 1.524880e-01 -3.979469e-01 -6.455159e-01 -4.686600e-02
<VARIANCE> 39
 2.119018e+01 7.914564e+01 6.592850e+01 4.731897e+01 6.000026e+01 3.971587e+01 5.129142e+01 2.963935e+01 7.374992e+01 3.256831e+01 3.544767e+01 2.638690e+01 2.134430e+01 1.557937e+00 3.280982e+00 2.683192e+00 4.027316e+00 4.498110e+00 3.763026e+00 2.303545e+00 2.173169e+00 2.451643e+00 2.734796e+00 1.929043e+00 3.434511e+00 1.327065e+00 2.180526e-01 4.327134e-01 9.130818e-01 7.379675e-01 8.933541e-01 7.667701e-01 4.936458e-01 3.182703e-01 3.617595e-01 4.312528e-01 3.026445e-01 3.664286e-01 2.393384e-01
<GCONST> 1.219923e+02
<STATE> 4
<NUMMIXES> 2
<MIXTURE> 1 5.141739e-01
<MEAN> 39
 -6.080336e+00 -3.373180e+01 3.212552e+01 2.251315e+01 2.344484e+00 2.307894e+01 -8.876685e+00 3.352471e+00 6.333189e+00 -9.431054e+00 4.852152e+00 2.783158e+00 -8.821142e-01 2.321693e+00 1.639206e+00 -1.660734e+00 2.045518e-01 1.909665e+00 2.576896e-01 -9.315856e-01 -2.298765e+00 -1.501438e+00 -4.573607e-01 -9.574838e-01 -7.504277e-01 -5.221782e-01 4.374099e-01 8.169821e-01 -1.083120e+00 -1.803934e-01 2.783566e-01 -5.304443e-01 1.458282e-01 -5.453454e-02 -4.384574e-02 -2.783845e-02 -3.165562e-01 1.314197e-01 7.532117e-02
<VARIANCE> 39
 3.682572e+01 5.868001e+01 8.055254e+01 5.849370e+01 4.585978e+01 3.520821e+01 4.997477e+01 5.173565e+01 7.011381e+01 2.909266e+01 3.570729e+01 2.819164e+01 2.459188e+01 2.048688e+00 3.982921e+00 4.766258e+00 1.839616e+00 1.608537e+00 3.705566e+00 3.662823e+00 3.000061e+00 2.202073e+00 1.545167e+00 1.846168e+00 1.407533e+00 1.021407e+00 2.527317e-01 7.341084e-01 6.805462e-01 2.509381e-01 4.583450e-01 4.047949e-01 4.742021e-01 6.346085e-01 3.907947e-01 3.008216e-01 3.724388e-01 2.679352e-01 1.572211e-01
<GCONST> 1.188154e+02
<MIXTURE> 2 4.858263e-01
<MEAN> 39
 1.194670e+01 -2.011921e+01 1.355265e+01 2.212701e+01 1.350433e+01 1.462212e+01 -1.730274e+01 -3.167869e+00 -8.013093e-02 -1.652644e+01 -1.387769e+00 3.076974e-01 -3.965999e+00 2.409538e+00 2.004587e+00 -4.489263e+00 -6.240482e-01 2.001486e+00 -3.206203e+00 -1.431743e+00 1.604439e+00 -6.090477e-01 -1.548126e+00 4.673768e-04 7.109783e-02 -3.162550e-01 -4.280698e-01 -1.145723e-01 2.557639e-01 -1.071281e-01 -1.717590e-01 -3.166596e-01 1.070988e-01 8.448409e-01 1.535865e-01 -7.605428e-02 4.022148e-01 2.310801e-02 -7.114739e-03
<VARIANCE> 39
 2.645820e+01 2.780057e+01 8.573452e+01 3.321870e+01 3.242968e+01 6.873188e+01 3.567329e+01 3.805759e+01 3.156022e+01 2.382745e+01 3.532605e+01 1.306265e+01 1.609963e+01 1.666880e+00 8.260825e-01 2.518486e+00 7.354454e-01 1.666788e+00 2.250375e+00 2.194699e+00 4.670585e+00 1.090912e+00 1.541275e+00 1.798920e+00 1.478365e+00 7.137654e-01 1.051178e-01 1.223490e-01 3.414344e-01 1.144152e-01 1.650683e-01 4.021069e-01 2.189498e-01 5.709885e-01 1.984604e-01 2.463034e-01 2.066886e-01 1.612822e-01 9.732165e-02
<GCONST> 1.013000e+02
<TRANSP> 5
 0.000000e+00 1.000000e+00 0.000000e+00 0.000000e+00 0.000000e+00
 0.000000e+00 9.055959e-01 9.440406e-02 0.000000e+00 0.000000e+00
 0.000000e+00 0.000000e+00 8.891528e-01 1.108472e-01 0.000000e+00
 0.000000e+00 0.000000e+00 0.000000e+00 9.033018e-01 9.669822e-02
 0.000000e+00 0.000000e+00 0.000000e+00 0.000000e+00 0.000000e+00
<ENDHMM>
~h "k"
<BEGINHMM>
<NUMSTATES> 5
<STATE> 2
<NUMMIXES> 2
<MIXTURE> 1 4.542884e-01
<MEAN> 39
 -2.659091e+01 -6.364258e+00 -5.087208e+00 -2.866873e+00 -3.601622e+00 8.561960e-01 -3.471070e+00 1.135851e+00 -1.786772e+00 -7.894441e-01 6.870494e-01 -7.263008e-01 5.336553e-01 -8.008074e-03 -9.257261e-02 -9.817533e-02 -2.270130e-02 9.020466e-04 -6.886835e-02 -7.851753e-02 -2.683034e-03 2.497349e-02 -2.717629e-02 -5.369037e-02 -2.521852e-03 5.094016e-02 1.407895e-01 3.898121e-03 4.054144e-02 1.264464e-01 1.555393e-01 1.207485e-01 7.885504e-02 9.631798e-02 2.891489e-02 -2.770417e-02 1.411572e-03 6.278519e-02 1.009093e-01
<VARIANCE> 39
 5.631996e-01 1.399452e+00 2.032577e+00 2.803456e+00 3.904067e+00 5.538986e+00 6.245424e+00 6.653429e+00 9.246338e+00 8.294082e+00 6.560968e+00 7.464182e+00 5.967316e+00 1.542143e-01 2.760045e-01 3.726217e-01 5.342777e-01 7.504441e-01 8.909913e-01 1.047245e+00 1.045718e+00 1.208621e+00 1.112718e+00 1.004043e+00 1.004731e+00 9.280731e-01 7.908574e-02 8.521934e-02 1.091177e-01 1.550242e-01 2.173015e-01 2.419318e-01 2.551309e-01 2.534308e-01 2.656308e-01 2.464267e-01 2.345574e-01 2.262467e-01 2.268436e-01
<GCONST> 6.323597e+01
<MIXTURE> 2 5.457112e-01
<MEAN> 39
 -1.112239e+01 5.590438e+00 7.223804e+00 1.123198e+01 1.057765e+01 1.118348e+01 1.912477e+00 5.012780e+00 -1.978629e+00 -3.252595e+00 -7.502148e-04 -9.250678e-04 2.020308e+00 -2.543552e+00 -1.817519e+00 -1.564718e+00 -1.640321e+00 -1.344001e+00 -5.140443e-01 1.789823e-01 1.278368e-01 1.974366e-01 2.095395e-01 -6.321132e-02 1.984469e-01 4.600493e-01 2.824952e-01 -6.339927e-01 -6.669453e-01 -3.152634e-01 -2.322247e-01 -4.131209e-01 -3.973755e-01 2.326827e-02 -2.878919e-02 -1.494220e-01 5.846605e-02 -1.003764e-01 -1.165660e-01
<VARIANCE> 39
 5.395649e+01 4.929258e+01 3.459797e+01 3.740372e+01 3.298339e+01 2.678857e+01 3.325324e+01 3.184622e+01 4.610777e+01 3.965553e+01 3.003172e+01 4.190219e+01 3.890401e+01 8.366119e-01 4.681277e+00 4.410449e+00 2.572726e+00 2.606028e+00 3.275481e+00 3.159770e+00 2.526448e+00 2.591206e+00 2.232396e+00 1.893030e+00 1.909919e+00 2.492157e+00 1.733095e-01 2.727998e-01 3.305665e-01 3.037843e-01 3.886383e-01 3.726235e-01 3.820596e-01 4.051982e-01 4.416662e-01 4.088242e-01 4.177691e-01 3.321094e-01 3.619819e-01
<GCONST> 1.169061e+02
<STATE> 3
<NUMMIXES> 2
<MIXTURE> 1 6.269397e-01
<MEAN> 39
 -2.046305e+01 -7.826014e+00 -5.972231e+00 6.969458e-01 1.899257e+00 4.236741e+00 -1.901238e+00 5.021602e+00 -7.315270e-01 -3.358242e+00 -8.508852e-01 5.405086e-01 4.458228e+00 1.372056e+00 -1.922456e+00 -2.058348e+00 -9.121793e-01 -7.674755e-01 -1.308551e+00 -1.058164e+00 4.968549e-01 4.837067e-02 -5.707750e-01 -9.269805e-02 -3.561622e-01 3.007227e-01 9.905381e-01 2.104428e-01 4.657969e-01 2.650491e-01 9.576443e-02 1.806784e-01 -4.941925e-03 1.907698e-01 -1.688681e-01 -8.043855e-02 4.114402e-01 -3.158925e-01 -3.859918e-01
<VARIANCE> 39
 2.741946e+01 2.521214e+01 2.278086e+01 3.170964e+01 3.585383e+01 3.199538e+01 3.244262e+01 2.428376e+01 2.499101e+01 2.268073e+01 1.995206e+01 1.696749e+01 1.836171e+01 4.494339e+00 4.460938e+00 4.510724e+00 5.725444e+00 6.116756e+00 4.878314e+00 4.043732e+00 3.837386e+00 3.071218e+00 3.213877e+00 3.254761e+00 2.823005e+00 3.093446e+00 2.230862e-01 3.564621e-01 3.476170e-01 4.630215e-01 5.972950e-01 5.957186e-01 6.073722e-01 6.041315e-01 6.533681e-01 5.026070e-01 5.638752e-01 4.356372e-01 7.004441e-01
<GCONST> 1.223439e+02
<MIXTURE> 2 3.730603e-01
<MEAN> 39
 -7.758909e+00 -1.476977e+01 -1.069078e+01 7.512596e-01 1.842735e+00 1.944515e+00 -5.707329e+00 8.412055e+00 -1.302532e+00 -5.120888e+00 2.116901e+00 -5.156054e+00 1.224296e+00 3.735893e+00 -2.172122e+00 -8.170277e-01 -1.117939e+00 -7.652745e-01 2.295335e-01 -8.903270e-01 6.192125e-01 -2.590492e+00 -1.874679e+00 3.055860e+00 -1.384002e+00 -2.146416e+00 4.049988e-03 3.098135e-01 6.594540e-01 1.979973e-01 2.793176e-01 5.647814e-01 1.960443e-01 -7.210466e-02 -8.200589e-01 -6.978813e-01 3.528397e-01 2.450147e-01 -4.495627e-02
<VARIANCE> 39
 3.230162e+01 4.776676e+01 2.740714e+01 6.037546e+01 5.232432e+01 5.408251e+01 5.673610e+01 4.085591e+01 3.528462e+01 3.436436e+01 4.318042e+01 2.909263e+01 2.468693e+01 1.343957e+00 2.208674e+00 2.622397e+00 5.072363e+00 3.491026e+00 4.059254e+00 3.582090e+00 3.860251e+00 4.683714e+00 4.435167e+00 3.360599e+00 2.030483e+00 2.027844e+00 2.942212e-01 3.657097e-01 4.436038e-01 5.298908e-01 4.137088e-01 4.503323e-01 4.100508e-01 4.152271e-01 7.006758e-01 4.826094e-01 7.368734e-01 2.791737e-01 4.610738e-01
<GCONST> 1.236162e+02
<STATE> 4
<NUMMIXES> 2
<MIXTURE> 1 5.380546e-01
<MEAN> 39
 1.908272e-01 -1.404748e+01 3.294130e+00 1.477658e+01 7.505471e+00 4.551723e+00 -6.023660e+00 9.997847e+00 -5.131801e+00 -9.194004e+00 8.402602e+00 -3.980455e+00 -8.274497e-01 1.665422e+00 1.616443e+00 2.224854e+00 3.115469e+00 2.228584e+00 -3.763566e-01 -9.137289e-01 -8.993870e-02 1.051317e+00 1.586610e-01 -1.038954e-01 6.548139e-01 -6.160457e-01 3.527927e-01 -1.316189e-01 -6.703348e-01 -3.912192e-01 2.165873e-01 -3.452502e-01 -7.218449e-01 -1.216261e-01 -3.544381e-01 -6.260948e-01 6.811681e-02 -1.967568e-02 -4.778226e-01
<VARIANCE> 39
 1.050664e+02 1.152773e+02 7.895122e+01 1.656935e+02 7.176935e+01 6.123920e+01 5.279789e+01 5.554248e+01 5.083805e+01 4.064550e+01 3.681442e+01 3.725251e+01 2.570916e+01 2.844250e+00 2.959278e+00 4.759802e+00 5.172678e+00 5.145581e+00 6.221345e+00 6.039157e+00 4.409465e+00 4.030138e+00 4.562727e+00 3.329545e+00 2.380647e+00 3.223004e+00 1.979501e-01 5.241091e-01 5.388911e-01 6.223564e-01 6.191565e-01 5.043834e-01 6.162863e-01 5.446833e-01 6.615570e-01 7.576197e-01 4.803271e-01 3.150227e-01 3.544653e-01
<GCONST> 1.340382e+02
<MIXTURE> 2 4.619455e-01
<MEAN> 39
 1.019676e+00 -1.870508e+01 -1.097218e+01 -2.358378e+00 8.611464e-01 4.892195e+00 -7.229558e+00 9.060534e+00 -1.337058e+01 -1.586164e+01 9.765265e+00 -5.956628e+00 -2.658333e+00 1.538448e+00 1.177474e-02 1.790219e+00 1.307476e+00 4.101658e-01 4.214556e-01 -6.358236e-02 2.630654e-01 -9.552616e-01 -8.273646e-01 9.052897e-01 3.457632e-02 -7.740394e-02 -6.334136e-01 8.125898e-01 9.462105e-01 1.210909e+00 6.021141e-01 -1.703936e-01 1.754794e-01 -1.153436e-01 1.233262e+00 1.022453e+00 -7.120226e-01 3.987050e-01 4.438231e-01
<VARIANCE> 39
 6.425432e+01 9.018601e+01 5.885550e+01 1.732381e+02 1.277679e+02 1.249147e+02 1.152336e+02 1.231840e+02 7.782142e+01 7.017122e+01 8.535751e+01 6.347895e+01 4.515561e+01 2.865420e+00 3.747160e+00 4.672065e+00 6.207871e+00 3.702036e+00 3.384319e+00 3.329140e+00 3.644838e+00 7.804727e+00 6.795944e+00 4.207423e+00 1.883831e+00 2.085426e+00 1.906940e-01 4.326421e-01 5.281656e-01 8.136899e-01 7.885405e-01 1.020497e+00 9.279873e-01 9.032986e-01 8.460129e-01 7.271351e-01 8.618656e-01 4.444562e-01 5.062135e-01
<GCONST> 1.415052e+02
<TRANSP> 5
 0.000000e+00 1.000000e+00 0.000000e+00 0.000000e+00 0.000000e+00
 0.000000e+00 8.762890e-01 1.237110e-01 0.000000e+00 0.000000e+00
 0.000000e+00 0.000000e+00 8.135246e-01 1.864754e-01 0.000000e+00
 0.000000e+00 0.000000e+00 0.000000e+00 8.263181e-01 1.736819e-01
 0.000000e+00 0.000000e+00 0.000000e+00 0.000000e+00 0.000000e+00
<ENDHMM>
~h "l"
<BEGINHMM>
<NUMSTATES> 5
<STATE> 2
<NUMMIXES> 2
<MIXTURE> 1 9.391918e-01
<MEAN> 39
 1.393899e+01 -5.572805e+00 3.532295e+00 3.039745e+01 2.012089e+01 -5.030852e+00 -4.564510e+00 2.045051e+01 -9.844093e+00 -3.218035e+01 -6.374702e+00 5.115020e-02 -2.739176e+00 -1.654151e-01 -8.264644e-02 4.594876e-01 1.064044e+00 1.825403e-01 -5.142735e-01 3.127633e-01 7.091933e-01 -8.070647e-02 -7.524296e-01 -4.837322e-01 -8.738856e-03 -1.442365e-01 3.084239e-02 -2.060340e-02 -1.169480e-01 -3.229212e-01 -5.166952e-02 1.193276e-01 -2.387622e-01 -3.005461e-01 8.420026e-02 4.106994e-01 2.877583e-01 -3.320817e-02 -1.738376e-02
<VARIANCE> 39
 1.465736e+01 2.377048e+01 3.195291e+01 7.555895e+01 5.456579e+01 4.989784e+01 3.719817e+01 6.060321e+01 4.216449e+01 6.973547e+01 5.969776e+01 3.005269e+01 2.183150e+01 4.838529e-01 6.594610e-01 1.132374e+00 2.365657e+00 1.034387e+00 1.667908e+00 1.910335e+00 3.099508e+00 1.267260e+00 4.046608e+00 2.601270e+00 1.062812e+00 8.828522e-01 6.200566e-02 9.685490e-02 1.330823e-01 2.188722e-01 1.541896e-01 2.131899e-01 2.710431e-01 3.542210e-01 2.025794e-01 4.331760e-01 2.597342e-01 1.612525e-01 1.277728e-01
<GCONST> 1.021325e+02
<MIXTURE> 2 6.080842e-02
<MEAN> 39
 1.433448e+01 -1.092752e+01 3.913677e+00 3.425082e+01 2.737045e+01 -4.394750e+00 -1.801522e+01 9.806563e+00 -1.011418e+01 -2.119958e+01 8.073478e+00 -2.576887e+00 -1.248321e+01 -2.483515e-01 3.214678e-01 2.891474e-01 7.175659e-01 -1.908450e-01 -5.735993e-01 5.400833e-01 4.026549e-01 2.971355e-01 1.238954e-01 -4.327163e-01 2.187308e-01 -1.350935e-01 -9.629307e-02 6.096663e-02 1.463786e-01 -1.862031e-01 -2.554016e-01 2.539988e-01 2.737466e-01 -1.729151e-01 6.280535e-02 8.213228e-02 -3.603631e-01 -4.759400e-02 2.403015e-01
<VARIANCE> 39
 7.395366e+00 8.607377e+00 2.068508e+01 1.034221e+02 1.904614e+01 1.835924e+01 4.481725e+01 4.369960e+01 2.760612e+01 4.735472e+01 9.086455e+01 1.251948e+01 1.821690e+01 5.566479e-01 9.437709e-01 1.341659e+00 3.031016e+00 7.184120e-01 1.283269e+00 3.496001e+00 2.439719e+00 5.688042e-01 1.819849e+00 3.859682e+00 6.266883e-01 8.920324e-01 5.017552e-02 9.610065e-02 1.265938e-01 2.574378e-01 1.257081e-01 2.381538e-01 2.550092e-01 3.640388e-01 1.166431e-01 2.581014e-01 2.160949e-01 9.294908e-02 8.418272e-02
<GCONST> 9.314596e+01
<STATE> 3
<NUMMIXES> 2
<MIXTURE> 1 2.064054e-01
<MEAN> 39
 1.186097e+01 1.781301e+00 1.289948e+00 1.770182e+01 1.488543e+01 1.916182e+00 -2.721414e+00 1.510338e+01 -1.489958e+00 -1.775265e+01 -8.415025e+00 -6.701500e+00 -4.909469e+00 -4.298900e-01 8.913179e-01 1.327378e-01 -9.944464e-01 -3.233970e-01 1.142665e+00 7.547842e-01 -4.545024e-01 3.871417e-01 1.210656e+00 6.537987e-02 -1.019530e-01 1.640082e-01 -1.395799e-01 2.596406e-02 1.491190e-01 2.242227e-02 -6.447022e-02 -9.506415e-02 -7.151832e-02 2.831351e-04 -2.111781e-02 1.905010e-02 1.408818e-01 1.606176e-01 9.875616e-02
<VARIANCE> 39
 7.138804e+01 4.263421e+01 4.877826e+01 1.124535e+02 8.595583e+01 1.030299e+02 9.389414e+01 8.483343e+01 8.763814e+01 1.021356e+02 5.954720e+01 7.851246e+01 5.165335e+01 2.156557e+00 1.871889e+00 2.544915e+00 4.367577e+00 2.420449e+00 3.267658e+00 4.588547e+00 4.714056e+00 2.793694e+00 6.061547e+00 2.409832e+00 1.793855e+00 1.547053e+00 1.132032e-01 1.125664e-01 3.379712e-01 5.732888e-01 3.420317e-01 3.126813e-01 6.142150e-01 7.439429e-01 4.300819e-01 5.584216e-01 3.205757e-01 2.165089e-01 2.182420e-01
<GCONST> 1.269103e+02
<MIXTURE> 2 7.935943e-01
<MEAN> 39
 9.658236e+00 -6.599153e+00 1.102900e+01 4.165381e+01 2.294152e+01 -6.385319e+00 -5.740196e+00 1.705122e+01 -6.446727e+00 -2.289660e+01 -3.025235e+00 -2.900083e-01 -6.435255e+00 -1.122911e-01 1.876938e-01 1.573177e-01 -1.791576e-01 -1.920591e-01 2.879492e-01 9.215978e-02 -4.089203e-01 2.285724e-01 7.247798e-01 6.229868e-02 -1.249910e-01 -6.945118e-03 5.228730e-02 -4.262333e-02 -1.356141e-01 -2.178475e-01 7.019231e-02 2.057534e-01 -1.346583e-01 -2.311655e-01 -9.327035e-02 8.071069e-02 1.615145e-01 -2.980746e-02 -4.406315e-02
<VARIANCE> 39
 5.129725e+00 1.176347e+01 1.470164e+01 1.462032e+01 2.170841e+01 1.602270e+01 3.489989e+01 4.341662e+01 2.695554e+01 6.671450e+01 2.025990e+01 2.788759e+01 2.380249e+01 2.110925e-01 4.022788e-01 6.224930e-01 1.328044e+00 1.048782e+00 1.226678e+00 1.194385e+00 2.047357e+00 1.217988e+00 2.014174e+00 1.253726e+00 9.568318e-01 8.579947e-01 3.628124e-02 7.344794e-02 1.041121e-01 2.531007e-01 1.757337e-01 2.011127e-01 2.087516e-01 2.884623e-01 2.001299e-01 2.924037e-01 2.183432e-01 1.528056e-01 1.447457e-01
<GCONST> 8.685204e+01
<STATE> 4
<NUMMIXES> 2
<MIXTURE> 1 1.049251e-02
<MEAN> 39
 -2.653621e+01 -6.672396e+00 -5.141027e+00 -2.587065e+00 -3.182945e+00 1.451752e+00 -3.882226e+00 3.728560e-01 -3.452487e+00 -3.146641e+00 -6.344902e-01 -1.534903e+00 3.446267e-01 -4.110664e-01 -6.720933e-01 -5.251881e-01 3.729997e-01 5.203110e-01 6.831343e-01 1.633550e+00 1.468865e+00 6.830987e-01 4.644828e-01 3.158435e-01 2.604227e-01 -4.532056e-02 7.419213e-01 4.086714e-01 2.390981e-01 3.866372e-02 -3.999622e-01 -5.447909e-01 -2.464290e-01 -1.049906e-02 -3.318018e-01 -3.589449e-01 -8.434008e-02 1.846715e-01 -3.024511e-03
<VARIANCE> 39
 5.196959e-01 8.155707e-01 3.372679e+00 8.071900e-01 1.664223e+00 2.208841e+00 7.652922e+00 5.575377e+00 1.229018e+01 9.445820e+00 3.651320e+00 5.959987e+00 8.562467e+00 8.928988e-01 4.833241e-01 2.761147e-01 3.595253e-01 8.714445e-01 1.029728e+00 1.023260e+00 1.560672e+00 1.328599e+00 2.628878e+00 1.864356e+00 2.599387e+00 1.332463e+00 1.560432e-01 2.086957e-01 1.303255e-01 1.231984e-01 1.828309e-01 1.370253e-01 4.007474e-01 5.874887e-01 2.310874e-01 2.050988e-01 4.780920e-01 5.075368e-01 1.561192e-01
<GCONST> 6.817120e+01
<MIXTURE> 2 9.895076e-01
<MEAN> 39
 1.120167e+01 -4.520137e+00 6.836502e+00 3.071566e+01 2.071163e+01 -5.175359e-01 -6.765378e+00 1.099543e+01 -7.451585e+00 -1.872314e+01 -7.291058e-01 -1.610794e+00 -5.648230e+00 6.361102e-01 -7.979817e-01 -1.372086e+00 -1.905949e+00 5.273057e-01 1.049813e+00 -2.145134e+00 -2.268199e+00 -6.046389e-01 1.305344e+00 2.391266e+00 -7.007737e-03 -7.402713e-01 2.261858e-01 -3.838963e-01 -2.562425e-01 6.965017e-02 3.224063e-01 -2.347537e-01 -6.462165e-01 1.241392e-01 -1.558632e-01 -4.598286e-01 3.606646e-01 1.169787e-01 -2.226302e-01
<VARIANCE> 39
 1.453815e+01 3.519387e+01 3.105216e+01 8.309885e+01 3.341403e+01 3.972326e+01 3.936808e+01 5.390334e+01 3.366541e+01 7.149593e+01 4.071847e+01 2.198537e+01 2.335182e+01 8.941413e-01 1.428400e+00 2.033655e+00 2.948176e+00 1.764330e+00 1.727543e+00 3.175632e+00 2.456890e+00 2.084345e+00 3.003553e+00 2.989776e+00 1.377948e+00 1.435203e+00 6.137327e-02 1.271546e-01 1.809964e-01 3.913043e-01 1.961639e-01 2.568919e-01 2.665923e-01 4.624249e-01 2.618690e-01 3.822263e-01 3.559493e-01 1.934000e-01 1.575169e-01
<GCONST> 1.077636e+02
<TRANSP> 5
 0.000000e+00 1.000000e+00 0.000000e+00 0.000000e+00 0.000000e+00
 0.000000e+00 8.599930e-01 1.400070e-01 0.000000e+00 0.000000e+00
 0.000000e+00 0.000000e+00 8.709630e-01 1.290371e-01 0.000000e+00
 0.000000e+00 0.000000e+00 0.000000e+00 6.067028e-01 3.932972e-01
 0.000000e+00 0.000000e+00 0.000000e+00 0.000000e+00 0.000000e+00
<ENDHMM>
~h "m"
<BEGINHMM>
<NUMSTATES> 5
<STATE> 2
<NUMMIXES> 2
<MIXTURE> 1 3.502353e-01
<MEAN> 39
 1.601171e+01 5.873272e+00 2.132859e+00 1.617516e+01 1.207256e+01 -3.700425e+00 -6.086268e+00 1.496762e+01 3.360230e+00 -1.289521e+01 -5.941588e+00 -5.515131e+00 -9.173406e+00 -5.643089e-01 1.056646e+00 1.477634e+00 1.791854e+00 1.799550e+00 1.433464e+00 -1.981530e-01 -1.988262e+00 -6.310364e-01 8.643190e-01 -6.842764e-01 -1.634534e+00 -1.081486e+00 1.869482e-01 -3.939625e-01 -3.108793e-01 -1.876670e-01 -1.157335e-01 -3.767545e-01 -3.809651e-01 1.257928e-01 -1.500965e-01 -2.702917e-01 4.284541e-01 2.947603e-01 1.042520e-02
<VARIANCE> 39
 1.675464e+01 2.260276e+01 3.211217e+01 2.513139e+01 3.944107e+01 4.660947e+01 2.078197e+01 6.817654e+01 3.145090e+01 2.782198e+01 2.468373e+01 1.899879e+01 1.486954e+01 9.649902e-01 1.157874e+00 1.303472e+00 1.590827e+00 2.064316e+00 2.164052e+00 1.870613e+00 2.341104e+00 1.038492e+00 2.096895e+00 1.571080e+00 1.394366e+00 9.022086e-01 8.343790e-02 1.138906e-01 1.398107e-01 1.887563e-01 3.207270e-01 2.412633e-01 2.956055e-01 3.257168e-01 1.819203e-01 2.600970e-01 2.261759e-01 1.953915e-01 1.550295e-01
<GCONST> 9.875298e+01
<MIXTURE> 2 6.497645e-01
<MEAN> 39
 1.554676e+01 5.800564e+00 5.024294e+00 2.223515e+01 1.743594e+01 -2.691037e+00 -9.518004e+00 8.594657e+00 2.486432e-01 -1.112451e+01 -4.673048e+00 -8.019966e+00 -1.283623e+01 -1.772194e-01 3.213296e-01 4.610025e-01 1.237270e-01 7.850269e-02 2.199795e-01 -1.988014e-01 -7.123585e-01 -2.953691e-01 3.190350e-01 1.713476e-01 -3.231509e-02 1.051062e-01 4.960402e-03 4.302714e-02 -2.898724e-02 -1.864889e-01 -1.805070e-01 -1.334442e-02 8.321944e-02 9.019817e-02 4.492087e-02 -1.750294e-02 -1.722194e-02 9.701176e-02 1.561192e-01
<VARIANCE> 39
 3.187308e+00 1.229239e+01 2.261206e+01 1.154771e+01 2.359297e+01 2.628436e+01 2.686388e+01 6.858497e+01 2.969600e+01 2.686220e+01 2.263891e+01 1.747033e+01 1.420960e+01 1.289122e-01 3.569867e-01 4.615783e-01 5.931666e-01 5.813133e-01 5.481533e-01 7.096141e-01 1.122155e+00 5.138812e-01 7.454686e-01 5.783334e-01 5.385261e-01 5.465028e-01 2.146824e-02 4.072940e-02 6.321692e-02 1.195583e-01 1.214931e-01 8.889302e-02 1.158815e-01 1.560216e-01 8.010764e-02 1.313556e-01 9.821919e-02 9.600359e-02 8.141451e-02
<GCONST> 6.950453e+01
<STATE> 3
<NUMMIXES> 2
<MIXTURE> 1 2.919037e-02
<MEAN> 39
 -2.646646e+01 -6.020398e+00 -5.059287e+00 -3.176219e+00 -3.653902e+00 9.630967e-01 -3.973288e+00 5.955677e-01 -2.051531e+00 -3.759968e-01 5.456631e-01 -9.622186e-01 2.787848e-01 -5.167991e-02 -7.098788e-02 -2.303430e-02 4.519326e-02 6.686084e-02 -1.403315e-02 -1.193670e-02 4.166868e-02 5.875544e-02 2.778352e-02 7.643001e-02 3.754878e-02 -7.671140e-03 1.746055e-01 1.488562e-01 1.833634e-01 2.019406e-01 1.538746e-01 5.788519e-02 3.155323e-02 7.875734e-02 5.848009e-02 -2.787922e-02 -4.501534e-02 -3.420506e-02 -1.691446e-02
<VARIANCE> 39
 6.696682e-01 1.607928e+00 2.064264e+00 2.752445e+00 3.298370e+00 4.193669e+00 3.686615e+00 4.639471e+00 5.698304e+00 6.717060e+00 7.002552e+00 6.106194e+00 5.817026e+00 6.302550e-01 7.204580e-01 9.713786e-01 1.247902e+00 1.269445e+00 7.976245e-01 8.236845e-01 9.204522e-01 1.091218e+00 1.028979e+00 1.110410e+00 1.110303e+00 9.687296e-01 1.268000e-01 1.232626e-01 1.954237e-01 2.308962e-01 2.232067e-01 1.580813e-01 1.817918e-01 2.044427e-01 2.488186e-01 2.058858e-01 2.562013e-01 2.243495e-01 1.867301e-01
<GCONST> 6.614839e+01
<MIXTURE> 2 9.708096e-01
<MEAN> 39
 1.193670e+01 1.338427e+01 1.159901e+01 1.960268e+01 1.553542e+01 3.660216e+00 -7.611229e+00 5.032155e-01 -3.458117e+00 -7.111985e+00 -4.854857e+00 -8.676496e+00 -8.837257e+00 -2.723659e-01 2.302724e-01 1.378955e-01 -3.003018e-01 -2.312969e-01 3.160120e-01 3.238148e-01 -8.940645e-02 -1.218005e-01 5.073639e-02 -7.420511e-02 5.724880e-02 1.721415e-01 -5.306933e-02 -1.418621e-01 -1.090465e-01 -8.468641e-02 -7.661992e-02 -3.498270e-02 7.096337e-02 2.202795e-01 4.997668e-02 -1.348384e-01 2.943730e-02 1.339858e-01 9.221264e-02
<VARIANCE> 39
 1.013603e+01 1.290067e+01 1.634186e+01 1.177483e+01 1.851297e+01 1.994737e+01 3.414495e+01 4.135133e+01 2.099706e+01 1.927398e+01 1.350468e+01 1.622419e+01 1.770121e+01 6.590123e-01 5.825592e-01 7.121063e-01 7.687928e-01 9.070621e-01 7.729661e-01 1.554753e+00 1.386832e+00 7.314981e-01 1.021095e+00 6.508052e-01 8.411258e-01 8.097333e-01 4.402793e-02 8.575617e-02 9.921478e-02 1.238784e-01 1.387310e-01 1.073957e-01 1.804103e-01 1.837064e-01 1.087731e-01 1.878500e-01 1.030883e-01 1.295635e-01 1.073190e-01
<GCONST> 7.895915e+01
<STATE> 4
<NUMMIXES> 2
<MIXTURE> 1 0.000000e+00
<MEAN> 39
 -3.465476e+01 1.675967e+01 -7.743439e+00 1.826633e+00 -1.155705e+00 1.236522e+01 -1.445375e+01 5.846484e+00 -1.598039e-01 2.253834e-01 -2.058068e+00 -9.824362e-02 3.765816e+00 -1.362455e-01 8.215038e-02 1.575990e-02 -2.231550e-02 5.907191e-02 6.852118e-02 -5.401044e-02 8.545254e-03 3.942942e-02 2.500927e-04 -6.214541e-04 1.159003e-02 3.031951e-02 2.616155e-01 -1.072249e-01 2.894851e-02 8.718687e-02 -5.242795e-02 -9.323000e-02 1.351443e-01 9.685402e-03 -5.067167e-02 2.049104e-02 2.124489e-02 -7.652363e-03 -4.976257e-02
<VARIANCE> 39
 4.483082e-01 6.496472e-01 1.372011e+00 1.126045e+00 1.920628e+00 1.941905e+00 2.517905e+00 2.499093e+00 2.399876e+00 2.720778e+00 3.064659e+00 2.732042e+00 2.229308e+00 1.086354e+00 3.270376e-01 2.173789e-01 2.914865e-01 3.910311e-01 4.624964e-01 5.924420e-01 3.902425e-01 4.446459e-01 4.080288e-01 4.378160e-01 3.926591e-01 3.533571e-01 2.683040e-01 8.656988e-02 6.370471e-02 7.948849e-02 7.781372e-02 1.027722e-01 1.615612e-01 9.150107e-02 9.617190e-02 9.459340e-02 9.706742e-02 8.784577e-02 8.113205e-02
<GCONST> 3.729400e+01
<MIXTURE> 2 1.000000e+00
<MEAN> 39
 1.386553e+01 8.220797e+00 5.595372e+00 1.687018e+01 1.414511e+01 1.402351e+00 -6.587037e+00 6.725337e+00 -1.965407e+00 -1.170522e+01 -4.814794e+00 -5.192695e+00 -8.077950e+00 4.865307e-01 -1.498312e+00 -1.365719e+00 -1.364803e+00 -9.795689e-01 -7.569442e-01 -1.981557e-01 1.782826e+00 -2.298683e-01 -2.123039e+00 8.139644e-01 1.755433e+00 9.574715e-01 1.366742e-01 -4.928482e-01 -2.562730e-01 -7.908262e-02 1.422088e-03 -2.891623e-01 -3.941711e-01 3.408356e-01 -1.374520e-01 -4.613404e-01 5.140544e-01 3.729776e-01 -1.027336e-01
<VARIANCE> 39
 2.806796e+01 2.916945e+01 4.745380e+01 1.955826e+01 3.565390e+01 5.743696e+01 2.467113e+01 6.263173e+01 4.235976e+01 3.552914e+01 1.615479e+01 2.083992e+01 1.790099e+01 1.407270e+00 2.084772e+00 3.017675e+00 1.803725e+00 3.126220e+00 3.100380e+00 2.400355e+00 3.074473e+00 1.523295e+00 4.854381e+00 1.943956e+00 1.919599e+00 1.047974e+00 1.109905e-01 1.749069e-01 3.209314e-01 2.956770e-01 3.373319e-01 2.596645e-01 3.393328e-01 4.186562e-01 2.214720e-01 4.837583e-01 2.799463e-01 2.251962e-01 1.958836e-01
<GCONST> 1.093001e+02
<TRANSP> 5
 0.000000e+00 1.000000e+00 0.000000e+00 0.000000e+00 0.000000e+00
 0.000000e+00 8.929821e-01 1.070179e-01 0.000000e+00 0.000000e+00
 0.000000e+00 0.000000e+00 8.577898e-01 1.422103e-01 0.000000e+00
 0.000000e+00 0.000000e+00 0.000000e+00 6.536254e-01 3.463746e-01
 0.000000e+00 0.000000e+00 0.000000e+00 0.000000e+00 0.000000e+00
<ENDHMM>
~h "n"
<BEGINHMM>
<NUMSTATES> 5
<STATE> 2
<NUMMIXES> 2
<MIXTURE> 1 4.870507e-01
<MEAN> 39
 1.229490e+01 9.241914e+00 5.285517e+00 1.717558e+01 1.937420e+01 8.483506e+00 -7.547786e+00 -4.052352e-01 -6.128497e+00 -1.055755e+01 -4.275347e+00 -4.797653e+00 -2.405387e+00 1.320342e-01 1.456305e+00 1.132160e+00 8.959292e-01 5.684737e-01 -4.281339e-03 -8.401631e-01 -1.927138e+00 -2.239331e-01 7.412670e-01 -1.118571e+00 -1.049256e+00 -8.462671e-02 2.363587e-01 -6.177181e-01 -4.584728e-01 -1.393461e-01 1.379152e-01 -1.799868e-01 -4.992916e-01 8.750618e-02 -9.586343e-02 -2.042137e-01 5.421990e-01 2.135570e-01 -1.352692e-01
<VARIANCE> 39
 2.302364e+01 2.274462e+01 2.815853e+01 2.142553e+01 2.414362e+01 2.483741e+01 4.672226e+01 3.877946e+01 1.833921e+01 2.915471e+01 2.800193e+01 1.682808e+01 1.319680e+01 1.431386e+00 2.093312e+00 2.502606e+00 2.275826e+00 2.104707e+00 1.330039e+00 2.949725e+00 2.028404e+00 1.498369e+00 2.466259e+00 2.249657e+00 1.269294e+00 1.408609e+00 1.210070e-01 1.807362e-01 2.048099e-01 1.996852e-01 2.782062e-01 2.195255e-01 4.575063e-01 3.948482e-01 2.479733e-01 3.014899e-01 3.016068e-01 1.865049e-01 2.190900e-01
<GCONST> 1.030944e+02
<MIXTURE> 2 5.129496e-01
<MEAN> 39
 1.322991e+01 1.300452e+01 1.075553e+01 1.909115e+01 1.759054e+01 4.763806e+00 -1.091337e+01 -4.807661e+00 -4.624914e+00 -7.220285e+00 -7.174728e+00 -8.892735e+00 -3.948484e+00 2.629194e-03 1.185601e-01 8.495739e-02 2.747184e-02 7.825372e-02 7.687765e-02 -1.415326e-01 -3.217819e-01 -6.146129e-03 2.748025e-01 -6.217729e-03 -1.587076e-01 9.317383e-03 1.032486e-03 -9.302799e-02 -1.123607e-01 -3.955878e-02 2.904877e-02 5.360853e-02 5.994727e-02 1.589096e-01 -3.745158e-02 -1.590371e-01 7.081510e-02 1.187761e-01 1.543321e-02
<VARIANCE> 39
 2.087266e+00 6.619638e+00 5.356596e+00 8.934257e+00 1.508640e+01 1.716306e+01 2.094007e+01 1.949407e+01 1.100124e+01 2.050304e+01 9.024230e+00 1.219271e+01 1.031754e+01 1.436285e-01 3.830446e-01 3.629993e-01 5.848747e-01 8.722966e-01 5.348201e-01 1.331656e+00 8.219929e-01 5.900282e-01 9.960328e-01 4.843674e-01 6.713803e-01 4.785581e-01 1.841923e-02 6.956560e-02 6.351510e-02 9.588097e-02 1.276408e-01 7.778859e-02 1.857528e-01 1.019948e-01 9.444223e-02 1.497083e-01 9.064274e-02 1.084640e-01 7.359642e-02
<GCONST> 6.284948e+01
<STATE> 3
<NUMMIXES> 2
<MIXTURE> 1 7.809384e-01
<MEAN> 39
 1.519703e+01 9.248823e+00 4.822904e+00 2.026909e+01 2.423249e+01 7.301366e+00 -1.530564e+01 -8.803529e+00 -7.480193e+00 -8.323339e+00 -4.370357e+00 -6.098276e+00 -2.701535e+00 1.592890e-02 -1.980779e-02 2.147163e-02 -5.915598e-03 -2.398962e-02 -6.441483e-02 -8.159798e-02 -4.602697e-02 -3.008249e-03 1.638021e-02 4.856540e-02 4.768573e-03 -1.353757e-02 -4.225792e-02 -8.877975e-02 -8.375172e-03 -1.180592e-01 -1.755241e-01 -3.546672e-02 1.908716e-01 3.659608e-01 4.639103e-02 -1.664061e-01 7.524221e-02 5.758635e-02 -7.518139e-02
<VARIANCE> 39
 2.613756e+00 9.855720e+00 1.590876e+01 1.267160e+01 1.650102e+01 2.572948e+01 2.158080e+01 2.892026e+01 1.592701e+01 3.208705e+01 1.836481e+01 1.472825e+01 1.220934e+01 1.570285e-01 4.570209e-01 5.093464e-01 5.647395e-01 1.022289e+00 5.522323e-01 1.263704e+00 1.223430e+00 6.206633e-01 1.223846e+00 6.491663e-01 6.515132e-01 4.799230e-01 2.314641e-02 7.029694e-02 7.420888e-02 1.114004e-01 1.740069e-01 9.953329e-02 1.804577e-01 1.840025e-01 1.111769e-01 2.238084e-01 1.095826e-01 1.033588e-01 8.531915e-02
<GCONST> 7.185950e+01
<MIXTURE> 2 2.190617e-01
<MEAN> 39
 1.466492e+01 9.901425e+00 4.814197e+00 1.532477e+01 1.637778e+01 6.037434e+00 -5.822482e+00 3.456570e+00 -5.575199e+00 -1.416468e+01 -8.073777e+00 -8.418006e+00 -5.897255e+00 -2.315669e-01 1.043555e-01 -1.739496e-02 -2.753340e-01 -2.349778e-01 4.886589e-01 9.074059e-01 5.745717e-01 -4.660954e-01 -8.692658e-01 -3.421700e-01 3.215350e-01 3.917777e-01 -1.356563e-01 2.782764e-02 1.541835e-01 3.247103e-02 -3.457634e-02 -7.703972e-02 -2.100010e-01 -1.685240e-01 7.664528e-02 2.540808e-01 2.324924e-01 1.551142e-01 9.583692e-02
<VARIANCE> 39
 1.038384e+01 2.060432e+01 2.926302e+01 3.679047e+01 3.383129e+01 2.874382e+01 4.670120e+01 6.249123e+01 2.957536e+01 4.691321e+01 4.032889e+01 2.776042e+01 2.052666e+01 9.839967e-01 1.175209e+00 3.113429e+00 3.302638e+00 1.956726e+00 1.314155e+00 4.449162e+00 5.551163e+00 1.393454e+00 4.306635e+00 1.629226e+00 1.201798e+00 9.506253e-01 1.088685e-01 2.082671e-01 4.933040e-01 5.080528e-01 2.416439e-01 2.336434e-01 5.846035e-01 8.088694e-01 2.544333e-01 7.316271e-01 2.832712e-01 2.263549e-01 1.563587e-01
<GCONST> 1.101236e+02
<STATE> 4
<NUMMIXES> 2
<MIXTURE> 1 5.099385e-01
<MEAN> 39
 1.531288e+01 5.121162e+00 2.739890e+00 1.759461e+01 2.196659e+01 6.438987e+00 -1.289576e+01 -4.439438e-01 -7.378094e+00 -1.363004e+01 -1.111951e+00 -3.524694e+00 -3.612090e+00 5.912756e-01 -2.520079e+00 -1.401672e+00 -9.856989e-01 -5.668954e-01 -1.115789e+00 -5.449532e-01 3.167691e+00 -3.402199e-01 -2.384679e+00 2.778200e+00 1.549435e+00 -1.046564e+00 1.842668e-01 -5.769125e-01 -3.187896e-01 -1.767323e-01 2.877384e-02 -2.487019e-01 -4.248635e-01 4.695797e-01 -1.552750e-01 -4.330177e-01 7.427806e-01 2.633188e-01 -2.988508e-01
<VARIANCE> 39
 7.007403e+00 2.260144e+01 2.747843e+01 2.547957e+01 2.389278e+01 1.631955e+01 3.057388e+01 5.250256e+01 2.167191e+01 3.413106e+01 5.048330e+01 2.014361e+01 1.467076e+01 6.460096e-01 1.938386e+00 2.039584e+00 2.606854e+00 1.992645e+00 1.313240e+00 2.613568e+00 2.879734e+00 1.881723e+00 2.896006e+00 3.349423e+00 1.686065e+00 1.685627e+00 5.499252e-02 1.961716e-01 2.105148e-01 2.282845e-01 2.737753e-01 1.625720e-01 3.531767e-01 4.305540e-01 2.412098e-01 4.243177e-01 2.879555e-01 2.454022e-01 2.115393e-01
<GCONST> 1.026393e+02
<MIXTURE> 2 4.900617e-01
<MEAN> 39
 6.357449e+00 1.650826e+01 1.407073e+01 1.666707e+01 1.328892e+01 8.215254e+00 -2.928397e+00 5.225936e-01 -6.006495e+00 -8.427254e+00 -5.591706e+00 -6.711228e+00 -4.148061e+00 -1.656756e+00 1.476254e-01 5.771930e-01 -4.034318e-01 -6.109597e-01 5.149052e-01 8.491295e-01 5.155243e-01 3.385473e-01 5.805908e-01 3.946898e-01 3.393737e-01 1.691928e-01 -1.721613e-01 -3.200608e-01 -1.708083e-01 -5.510960e-02 5.528313e-02 2.913375e-02 -7.063340e-02 5.773583e-02 7.587688e-02 -2.470910e-02 9.189733e-03 1.539335e-02 4.813665e-02
<VARIANCE> 39
 3.189304e+01 7.844038e+00 1.016575e+01 1.241831e+01 1.253463e+01 1.252567e+01 2.276709e+01 1.715987e+01 1.335714e+01 1.747503e+01 9.592152e+00 1.086987e+01 7.894279e+00 9.021584e-01 9.529284e-01 1.101160e+00 1.040402e+00 9.842537e-01 8.499982e-01 1.274020e+00 1.048117e+00 9.631132e-01 1.633020e+00 8.372186e-01 7.576097e-01 6.204022e-01 4.427155e-02 1.416135e-01 2.026267e-01 1.777314e-01 1.567022e-01 1.325288e-01 1.699100e-01 1.556437e-01 1.627123e-01 2.119920e-01 1.294815e-01 1.197455e-01 1.057985e-01
<GCONST> 7.916061e+01
<TRANSP> 5
 0.000000e+00 1.000000e+00 0.000000e+00 0.000000e+00 0.000000e+00
 0.000000e+00 8.394006e-01 1.605994e-01 0.000000e+00 0.000000e+00
 0.000000e+00 0.000000e+00 8.746281e-01 1.253720e-01 0.000000e+00
 0.000000e+00 0.000000e+00 0.000000e+00 7.849840e-01 2.150160e-01
 0.000000e+00 0.000000e+00 0.000000e+00 0.000000e+00 0.000000e+00
<ENDHMM>
~h "o"
<BEGINHMM>
<NUMSTATES> 7
<STATE> 2
<NUMMIXES> 2
<MIXTURE> 1 5.178533e-01
<MEAN> 39
 4.456218e+00 8.018334e+00 3.183772e+00 -3.355293e+00 -1.232841e+01 -1.072056e+01 -5.784118e+00 1.798278e+01 4.774237e+00 -4.698003e+00 7.598374e+00 -2.785181e-01 -4.435084e+00 2.399237e+00 8.356020e-01 7.803709e-01 1.530335e+00 9.276780e-01 -6.891476e-01 -5.467194e-01 6.073879e-01 2.712811e-01 -7.273470e-01 -3.262478e-01 -2.827983e-01 -8.552083e-01 -1.643609e-01 -2.124006e-01 3.783069e-02 6.533113e-01 6.363850e-01 1.033018e-01 -8.411594e-02 -2.918292e-01 -1.396565e-01 -2.023308e-01 -4.103035e-01 6.789831e-03 1.677763e-02
<VARIANCE> 39
 4.907308e+01 2.874762e+01 3.458548e+01 9.700978e+01 1.173353e+02 6.489447e+01 5.433577e+01 7.379139e+01 3.284163e+01 5.136757e+01 4.236361e+01 3.192009e+01 3.408968e+01 2.467253e+00 1.767141e+00 1.502506e+00 1.025770e+01 1.300241e+01 7.807615e+00 4.775257e+00 5.351248e+00 2.105425e+00 3.527757e+00 4.619228e+00 1.900480e+00 2.030499e+00 3.189898e-01 2.344725e-01 2.905151e-01 1.325666e+00 1.940007e+00 1.703678e+00 9.368153e-01 8.144690e-01 3.978663e-01 7.911317e-01 6.378131e-01 3.425231e-01 3.836221e-01
<GCONST> 1.331479e+02
<MIXTURE> 2 4.821467e-01
<MEAN> 39
 1.680971e+01 3.714770e+00 5.207065e+00 1.306877e+01 2.518933e+00 -1.107923e+01 -1.026325e+01 1.782429e+01 1.863927e+00 -1.549703e+01 -4.716560e-01 -2.771382e+00 -6.477480e+00 1.628277e+00 1.201034e-01 -4.013556e-01 8.726690e-01 3.702020e-01 -3.428731e+00 -2.700088e+00 1.778624e+00 8.957878e-01 -2.459574e+00 -1.030580e+00 -1.156333e-01 -1.320689e+00 -4.108770e-01 -3.351176e-01 -1.608997e-01 -4.631985e-01 -3.069247e-01 1.282967e-01 4.890312e-02 1.877609e-01 2.099821e-01 2.714043e-01 3.595944e-01 6.380044e-03 1.449027e-02
<VARIANCE> 39
 1.328516e+01 9.703484e+01 3.105201e+01 2.870094e+01 5.159277e+01 6.992529e+01 3.998540e+01 4.276936e+01 4.615332e+01 6.557751e+01 3.195741e+01 3.117115e+01 2.483040e+01 8.368957e-01 2.042931e+00 1.332010e+00 2.732956e+00 1.840282e+00 1.772549e+00 2.389310e+00 2.744677e+00 2.486738e+00 2.387844e+00 2.998456e+00 1.087942e+00 8.976153e-01 1.230081e-01 1.538737e-01 2.631879e-01 3.957700e-01 4.057123e-01 6.059648e-01 3.993115e-01 4.533126e-01 2.956950e-01 3.879253e-01 3.568039e-01 1.628945e-01 1.539446e-01
<GCONST> 1.109221e+02
<STATE> 3
<NUMMIXES> 2
<MIXTURE> 1 1.000000e+00
<MEAN> 39
 2.004537e+01 -1.500067e+00 -4.290408e-01 1.051664e+01 7.263220e+00 -1.408259e+01 -1.877578e+01 2.298077e+01 5.632254e+00 -2.255067e+01 -2.253072e+00 -5.350144e+00 -9.709212e+00 5.031678e-02 4.371908e-01 2.993513e-01 -4.374690e-02 -7.076942e-01 -1.589196e+00 -6.833366e-01 9.238746e-01 1.038725e+00 1.847224e-01 2.169871e-02 -8.099787e-02 -4.864056e-01 -1.403718e-01 -1.403882e-02 1.455147e-01 7.459082e-02 -7.808748e-02 2.569638e-01 2.332750e-01 -3.100093e-01 -8.134902e-02 3.030206e-01 5.804715e-02 7.077055e-02 1.321057e-01
<VARIANCE> 39
 1.185433e+01 3.724137e+01 3.594382e+01 3.465030e+01 4.189874e+01 6.158744e+01 4.036266e+01 5.760141e+01 3.379229e+01 5.317133e+01 4.256649e+01 2.044853e+01 1.585467e+01 4.868127e-01 7.795960e-01 7.150448e-01 9.596756e-01 8.886014e-01 9.096292e-01 1.791300e+00 1.901388e+00 7.584741e-01 1.853138e+00 1.141828e+00 7.037721e-01 5.620853e-01 9.421401e-02 6.229563e-02 1.105405e-01 1.229797e-01 1.185523e-01 1.657751e-01 2.416147e-01 2.632180e-01 1.120337e-01 2.443256e-01 2.068808e-01 9.680574e-02 7.499298e-02
<GCONST> 9.052077e+01
<MIXTURE> 2 0.000000e+00
<MEAN> 39
 2.053493e+01 -1.293648e+01 -2.003549e+01 5.413818e+00 3.407337e+00 -1.218152e+01 -8.150859e+00 1.543847e+01 -1.538217e-01 -7.834913e+00 1.010392e+01 5.555103e+00 -1.096917e-01 -1.596474e-01 -6.584548e-01 7.967833e-01 -5.153264e-01 5.315405e-01 2.146320e-01 8.254738e-02 1.298883e-01 -6.072966e-01 5.288538e-01 5.167323e-01 -3.581259e-01 4.330588e-01 1.113991e-01 -1.392816e-01 2.348052e-01 -2.920718e-01 2.698408e-01 4.800510e-02 -7.561634e-02 1.628003e-01 -1.398900e-01 -3.354345e-02 4.109193e-01 -1.860107e-01 -5.932641e-02
<VARIANCE> 39
 0.000000e+00 3.725290e-09 0.000000e+00 2.910383e-11 0.000000e+00 -4.656613e-10 0.000000e+00 0.000000e+00 0.000000e+00 0.000000e+00 0.000000e+00 0.000000e+00 0.000000e+00 0.000000e+00 0.000000e+00 0.000000e+00 0.000000e+00 0.000000e+00 9.094947e-13 0.000000e+00 0.000000e+00 0.000000e+00 -1.818989e-12 1.455192e-11 0.000000e+00 0.000000e+00 0.000000e+00 0.000000e+00 0.000000e+00 0.000000e+00 -4.547474e-13 0.000000e+00 -3.552714e-15 0.000000e+00 -1.818989e-12 0.000000e+00 0.000000e+00 0.000000e+00 0.000000e+00
<GCONST> -3.500002e+11
<STATE> 4
<NUMMIXES> 2
<MIXTURE> 1 2.572492e-01
<MEAN> 39
 1.638617e+01 9.758268e+00 9.551356e+00 1.179401e+01 -3.753412e+00 -2.017994e+01 -1.405731e+01 1.950546e+01 6.190124e+00 -1.361664e+01 1.880924e+00 1.614661e+00 -9.130840e+00 1.272764e-01 -7.619778e-02 -2.226245e-02 1.456310e-01 1.091743e-02 -2.688273e-01 -1.829367e-01 9.342609e-02 -5.307562e-02 -9.932242e-02 1.620925e-01 -8.609921e-03 -2.331356e-01 7.929570e-03 -5.398281e-02 -9.184103e-02 1.731947e-02 1.469936e-01 1.297623e-01 -5.262201e-03 1.826805e-02 2.933890e-02 1.613303e-02 -4.175568e-02 -1.000615e-01 2.669312e-02
<VARIANCE> 39
 1.214749e+01 3.009492e+01 2.396525e+01 3.372721e+01 3.583964e+01 6.545363e+01 5.017383e+01 4.495333e+01 2.965959e+01 4.823523e+01 3.461118e+01 3.846741e+01 2.660755e+01 4.087010e-01 8.280475e-01 7.470322e-01 8.446200e-01 7.691690e-01 1.659849e+00 1.733816e+00 2.113276e+00 1.070483e+00 1.609930e+00 1.042083e+00 1.192645e+00 5.360664e-01 5.106118e-02 6.401126e-02 6.875613e-02 1.237129e-01 1.103293e-01 2.177211e-01 2.203405e-01 3.376130e-01 1.600908e-01 2.214846e-01 1.499013e-01 1.481531e-01 8.734864e-02
<GCONST> 9.123102e+01
<MIXTURE> 2 7.427509e-01
<MEAN> 39
 1.902281e+01 3.853698e+00 6.662659e+00 1.546366e+01 -1.697412e+00 -2.737049e+01 -2.018562e+01 2.486661e+01 9.889399e+00 -1.788972e+01 -5.716675e-01 -1.885776e+00 -1.177007e+01 -4.216802e-02 4.033672e-02 8.918175e-02 2.710511e-02 -1.244989e-01 -1.101739e-01 2.077466e-02 -1.017174e-02 -5.798366e-02 1.828172e-02 1.069364e-01 5.645951e-02 -6.775107e-02 -2.929906e-02 4.023378e-02 -6.193543e-03 -6.397951e-02 2.097287e-02 1.776071e-01 1.239736e-01 -5.226553e-02 -1.045050e-01 9.845185e-03 3.097490e-02 -3.841889e-03 3.472970e-02
<VARIANCE> 39
 3.140095e+00 1.357103e+01 1.741004e+01 9.700307e+00 9.706235e+00 1.690071e+01 1.883509e+01 2.196875e+01 1.108076e+01 1.671623e+01 2.413730e+01 1.543780e+01 1.114272e+01 2.442336e-01 4.693341e-01 6.249403e-01 5.117104e-01 4.389848e-01 8.490608e-01 9.898176e-01 1.236463e+00 4.957530e-01 9.160289e-01 8.467823e-01 6.529722e-01 3.169267e-01 3.918041e-02 3.878208e-02 6.315405e-02 6.050873e-02 5.347978e-02 9.380600e-02 1.318655e-01 1.767034e-01 6.131295e-02 1.242352e-01 1.046677e-01 6.787013e-02 4.823741e-02
<GCONST> 6.464813e+01
<STATE> 5
<NUMMIXES> 2
<MIXTURE> 1 4.629625e-01
<MEAN> 39
 2.003219e+01 -2.178174e+00 -1.787943e-02 1.061368e+01 6.251889e+00 -1.506422e+01 -1.714314e+01 2.643806e+01 2.365304e+00 -2.757895e+01 -1.309819e+00 -5.277265e+00 -1.098666e+01 6.161534e-02 -5.382289e-01 -5.110215e-01 -5.480223e-02 1.087108e+00 1.439914e+00 3.626448e-01 -4.163681e-01 -1.264744e+00 -7.625510e-01 2.871242e-01 -2.183887e-02 2.343593e-01 -1.007713e-01 1.366670e-01 1.149251e-01 1.050755e-01 6.397285e-03 1.503726e-01 1.804926e-01 -2.924166e-01 -3.545927e-02 2.954383e-01 -5.498013e-02 5.817906e-02 1.072665e-01
<VARIANCE> 39
 4.809253e+00 2.145830e+01 2.203575e+01 2.201724e+01 4.248244e+01 4.766042e+01 3.306884e+01 3.422024e+01 5.877499e+01 4.284069e+01 4.879989e+01 1.836886e+01 2.024839e+01 3.260463e-01 4.452893e-01 7.020705e-01 9.495752e-01 7.269713e-01 1.117733e+00 1.579919e+00 2.340123e+00 8.211520e-01 1.691946e+00 1.427792e+00 1.175879e+00 5.803644e-01 6.824084e-02 6.859839e-02 1.069920e-01 8.257281e-02 1.132206e-01 1.241185e-01 2.630618e-01 3.000622e-01 1.387935e-01 2.451186e-01 2.419907e-01 1.164570e-01 9.781061e-02
<GCONST> 8.767638e+01
<MIXTURE> 2 5.370375e-01
<MEAN> 39
 1.683973e+01 6.281599e+00 6.702518e+00 1.424922e+01 3.855902e-01 -1.853929e+01 -1.354554e+01 2.193711e+01 5.046912e+00 -1.584775e+01 1.701099e+00 -1.124706e+00 -1.025327e+01 -9.638995e-01 1.064969e+00 5.524884e-01 -2.602577e-01 1.734385e-01 2.489284e+00 1.976370e+00 -1.715905e+00 -2.584966e-01 1.875428e+00 -5.086753e-01 -4.229894e-02 9.309670e-01 -2.837503e-01 1.284365e-01 1.661270e-01 -1.250792e-01 1.680390e-01 6.583487e-01 2.625163e-01 -3.197311e-01 4.143253e-02 2.945578e-01 -2.284351e-01 -1.193214e-01 2.527355e-01
<VARIANCE> 39
 1.559706e+01 5.618122e+01 5.168163e+01 3.027103e+01 5.369471e+01 6.807546e+01 5.238947e+01 5.544620e+01 4.216526e+01 8.254369e+01 5.263457e+01 4.182089e+01 2.321593e+01 7.228452e-01 1.165449e+00 1.551708e+00 1.213790e+00 1.413727e+00 3.065501e+00 2.020906e+00 2.056903e+00 1.374186e+00 2.141243e+00 1.521921e+00 1.395480e+00 7.735637e-01 7.180808e-02 1.582825e-01 2.178503e-01 1.492830e-01 1.884471e-01 2.520103e-01 2.600527e-01 3.635479e-01 2.353310e-01 3.935942e-01 2.201342e-01 2.159771e-01 1.316656e-01
<GCONST> 1.051496e+02
<STATE> 6
<NUMMIXES> 2
<MIXTURE> 1 7.018058e-01
<MEAN> 39
 3.314022e+00 9.015653e+00 7.116609e+00 9.858574e+00 4.843165e+00 9.418712e-01 -1.980977e+00 1.199176e+01 2.681851e+00 -6.389594e+00 -1.461635e+00 -2.939539e+00 -3.868768e+00 -1.787537e+00 1.997961e-01 6.091027e-01 -5.717966e-02 5.483019e-01 2.221629e+00 1.375724e+00 -9.816867e-01 -3.637018e-01 8.876396e-01 -4.133930e-01 -8.561158e-02 9.119841e-01 -8.513554e-02 -2.403463e-01 5.900714e-02 7.584520e-02 -5.266289e-02 -2.590085e-01 -2.106028e-01 1.539942e-01 -7.792673e-02 -2.457227e-01 1.332211e-01 5.691095e-02 -1.181340e-01
<VARIANCE> 39
 1.944406e+02 7.734464e+01 6.767377e+01 5.052803e+01 6.091461e+01 7.281338e+01 5.547983e+01 5.241956e+01 3.549002e+01 1.023187e+02 6.150782e+01 3.611818e+01 2.318665e+01 1.463661e+00 3.039068e+00 3.318828e+00 1.692486e+00 2.057711e+00 4.572910e+00 3.247842e+00 2.595489e+00 2.182654e+00 2.761307e+00 1.932943e+00 1.172285e+00 1.296865e+00 1.148819e-01 1.935851e-01 2.665102e-01 2.177837e-01 2.074017e-01 2.696365e-01 3.341915e-01 3.518107e-01 2.983254e-01 3.088190e-01 2.852925e-01 1.849429e-01 1.715261e-01
<GCONST> 1.165519e+02
<MIXTURE> 2 2.981943e-01
<MEAN> 39
 1.804924e+01 8.043877e+00 5.356293e+00 1.292404e+01 6.256956e+00 -1.248888e+01 -1.918055e+01 9.115999e+00 6.796108e+00 -6.228949e+00 1.942295e+00 -4.892499e+00 -1.169790e+01 -2.142419e-01 4.289367e-01 1.055963e-01 4.675624e-01 8.317472e-01 8.812397e-01 1.169119e-01 -1.510358e+00 -5.221552e-01 1.080777e+00 -1.948998e-01 -5.755446e-01 3.333901e-01 -4.505881e-02 1.325023e-02 6.244437e-02 -3.606761e-02 -3.813550e-03 1.526911e-01 1.522413e-01 9.810762e-02 -1.114203e-01 -2.339697e-01 -6.509244e-02 3.618839e-02 2.793166e-02
<VARIANCE> 39
 5.135049e+00 2.086162e+01 2.246766e+01 3.574586e+01 3.308834e+01 4.149791e+01 6.349290e+01 5.176364e+01 4.798451e+01 4.717466e+01 8.452012e+01 5.664714e+01 2.356583e+01 2.298630e-01 4.673620e-01 7.316660e-01 1.287764e+00 8.859269e-01 1.448595e+00 1.608702e+00 1.447577e+00 7.164375e-01 1.693319e+00 1.341575e+00 8.043433e-01 7.774306e-01 3.025574e-02 4.997832e-02 8.039014e-02 1.286937e-01 1.136331e-01 1.146654e-01 2.199292e-01 1.731216e-01 9.781498e-02 1.624917e-01 1.543057e-01 1.178104e-01 8.925377e-02
<GCONST> 8.730270e+01
<TRANSP> 7
 0.000000e+00 1.000000e+00 0.000000e+00 0.000000e+00 0.000000e+00 0.000000e+00 0.000000e+00
 0.000000e+00 7.808992e-01 2.191009e-01 0.000000e+00 0.000000e+00 0.000000e+00 0.000000e+00
 0.000000e+00 0.000000e+00 7.788760e-01 2.211240e-01 0.000000e+00 0.000000e+00 0.000000e+00
 0.000000e+00 0.000000e+00 0.000000e+00 9.116046e-01 8.839545e-02 0.000000e+00 0.000000e+00
 0.000000e+00 0.000000e+00 0.000000e+00 0.000000e+00 7.942194e-01 2.057806e-01 0.000000e+00
 0.000000e+00 0.000000e+00 0.000000e+00 0.000000e+00 0.000000e+00 7.936913e-01 2.063086e-01
 0.000000e+00 0.000000e+00 0.000000e+00 0.000000e+00 0.000000e+00 0.000000e+00 0.000000e+00
<ENDHMM>
~h "p"
<BEGINHMM>
<NUMSTATES> 5
<STATE> 2
<NUMMIXES> 2
<MIXTURE> 1 1.175025e-01
<MEAN> 39
 -2.452121e+01 -1.068947e+01 -9.255839e+00 -4.208318e+00 -1.234902e+00 5.427570e+00 8.480275e-02 5.931989e-01 -8.834749e+00 -6.184690e+00 3.824323e+00 5.333231e+00 2.861699e+00 -1.576597e-01 2.108579e-01 -1.541826e-01 -1.709968e-01 -3.334739e-02 -2.263441e-01 -1.689646e-01 -2.042665e-01 -2.425408e-02 8.975501e-02 -6.867861e-03 -2.616747e-02 -9.824434e-02 7.221361e-02 -1.542586e-03 1.039683e-01 3.962660e-02 3.070522e-02 8.600235e-02 2.716721e-02 5.587134e-02 1.725071e-02 -2.721293e-03 -1.803964e-03 -2.604276e-02 -9.877283e-03
<VARIANCE> 39
 2.556397e+00 1.229522e+01 1.618472e+01 1.778572e+01 1.861699e+01 2.367635e+01 1.715989e+01 2.075896e+01 4.793233e+01 2.150773e+01 1.938645e+01 2.923082e+01 1.190843e+01 3.520931e-01 1.532995e+00 1.565965e+00 1.212082e+00 1.174772e+00 2.089449e+00 1.903564e+00 1.741723e+00 2.309999e+00 1.680594e+00 1.504354e+00 1.449339e+00 1.063570e+00 6.071500e-02 1.273793e-01 1.796505e-01 1.400303e-01 1.824574e-01 3.154882e-01 3.371043e-01 2.797881e-01 3.447881e-01 2.215131e-01 2.618085e-01 2.286614e-01 1.661609e-01
<GCONST> 9.188181e+01
<MIXTURE> 2 8.824976e-01
<MEAN> 39
 -5.241004e+00 1.190811e+01 1.087812e+01 1.190415e+01 8.654676e+00 8.120027e+00 1.740783e+00 8.023350e+00 4.438265e-01 -3.193677e+00 -1.102829e+00 -1.332410e+00 -2.036121e-01 -2.889807e+00 -1.329056e+00 -3.202011e-01 -7.325603e-01 -6.233181e-01 4.787737e-01 4.135977e-01 -4.766658e-01 -7.650221e-02 7.786192e-01 5.155914e-01 1.883735e-01 4.158093e-01 4.842325e-02 -6.200826e-01 -6.113104e-01 -2.158032e-01 -1.017037e-01 -2.471194e-01 -1.662660e-01 6.340086e-02 9.401336e-03 -1.490712e-01 1.038276e-03 3.251527e-02 -1.419377e-02
<VARIANCE> 39
 5.609724e+01 2.164139e+01 2.842405e+01 2.892672e+01 3.656388e+01 4.227649e+01 2.244453e+01 3.578792e+01 4.936359e+01 3.589324e+01 1.962042e+01 1.757587e+01 1.679417e+01 4.627356e-01 2.991781e+00 3.287060e+00 1.403365e+00 1.630118e+00 1.865259e+00 1.287804e+00 1.479433e+00 1.484907e+00 1.519218e+00 1.279734e+00 1.083062e+00 1.165568e+00 8.933835e-02 1.429680e-01 1.697024e-01 2.298550e-01 3.059027e-01 2.787256e-01 2.221668e-01 2.656718e-01 2.685882e-01 2.654602e-01 2.543538e-01 2.081621e-01 2.005782e-01
<GCONST> 1.004885e+02
<STATE> 3
<NUMMIXES> 2
<MIXTURE> 1 5.231778e-01
<MEAN> 39
 -1.999192e+01 -2.728990e+00 -4.822758e-01 2.892899e+00 2.025139e+00 5.771752e+00 7.449774e-01 5.725120e+00 5.484961e-01 -7.001008e-01 7.469559e-01 -1.447938e-01 2.040530e+00 -3.183040e-01 -1.936801e+00 -1.474620e+00 -6.515770e-01 -1.009322e-01 1.369342e-01 -3.787692e-02 1.934363e-01 -5.785794e-02 -3.995938e-01 -1.496610e-01 9.841889e-02 5.665435e-01 8.738125e-01 3.569238e-01 4.158027e-01 3.801402e-01 3.226703e-01 1.721510e-01 -9.599451e-03 2.237926e-01 -3.908959e-02 -2.522441e-01 -7.746957e-02 -8.817057e-02 -5.944801e-03
<VARIANCE> 39
 3.581477e+01 3.051379e+01 2.415505e+01 3.341952e+01 4.255708e+01 3.959779e+01 2.652166e+01 3.389404e+01 3.324210e+01 3.328875e+01 2.003854e+01 1.527446e+01 1.636572e+01 5.324743e+00 5.546521e+00 4.950170e+00 5.173629e+00 5.884829e+00 4.840273e+00 3.877023e+00 4.452763e+00 3.476815e+00 3.041411e+00 2.500075e+00 2.277324e+00 2.457544e+00 2.607383e-01 2.750163e-01 4.290854e-01 4.682026e-01 5.138825e-01 4.711042e-01 4.829462e-01 4.726572e-01 4.551229e-01 4.442548e-01 4.485827e-01 3.712118e-01 4.228131e-01
<GCONST> 1.215619e+02
<MIXTURE> 2 4.768218e-01
<MEAN> 39
 -2.663114e+01 -6.113438e+00 -5.037055e+00 -2.982972e+00 -3.783567e+00 5.621752e-01 -3.602136e+00 9.488823e-01 -1.603242e+00 -5.318326e-01 3.407470e-01 -1.021516e+00 4.156340e-01 7.692091e-03 -4.435437e-03 -1.497028e-02 2.989502e-02 4.530882e-02 1.107903e-02 -7.725866e-03 4.074569e-02 3.850597e-02 8.421302e-03 -1.230638e-02 2.823368e-02 4.624815e-02 1.918282e-01 8.435299e-02 1.267946e-01 1.692481e-01 1.918972e-01 1.863283e-01 1.454085e-01 1.507816e-01 6.160164e-02 3.105402e-05 2.169811e-02 4.823030e-02 7.790422e-02
<VARIANCE> 39
 4.526362e-01 1.021648e+00 1.758582e+00 2.631033e+00 3.399526e+00 5.025738e+00 5.111531e+00 5.743169e+00 6.276142e+00 6.785677e+00 6.099215e+00 5.912446e+00 4.972840e+00 1.434743e-01 2.283440e-01 3.440531e-01 4.871846e-01 6.665229e-01 8.546375e-01 8.796108e-01 1.018466e+00 9.902619e-01 1.011187e+00 9.649651e-01 9.418470e-01 8.427508e-01 1.207451e-01 9.652892e-02 1.384052e-01 1.887906e-01 2.246607e-01 2.622659e-01 2.591257e-01 2.813477e-01 2.513760e-01 2.329267e-01 2.259808e-01 2.274829e-01 2.004389e-01
<GCONST> 6.049381e+01
<STATE> 4
<NUMMIXES> 2
<MIXTURE> 1 4.913499e-01
<MEAN> 39
 -7.879143e+00 -3.004707e+00 -1.876871e+00 7.939343e+00 8.971242e+00 8.428760e+00 8.779213e-01 1.011319e+01 2.715324e+00 -2.995395e+00 -4.233209e-01 2.832835e-01 5.639089e+00 3.922418e+00 -4.069882e-01 -6.584475e-01 5.347129e-01 6.971236e-01 -3.081156e-01 -8.433090e-01 9.814356e-01 1.865407e-02 -1.075856e+00 2.814542e-01 -5.473064e-01 -3.276715e-01 3.109064e-01 -4.227016e-02 -1.334413e-01 -3.837714e-01 -4.571413e-01 -5.026187e-01 -4.067832e-01 -8.719283e-02 -3.230087e-01 -3.062814e-01 2.716337e-01 -1.519216e-01 -5.071438e-01
<VARIANCE> 39
 6.825080e+01 1.656362e+01 1.423920e+01 1.991319e+01 3.020241e+01 4.369087e+01 3.847981e+01 2.420197e+01 2.636208e+01 2.330434e+01 1.925324e+01 1.778205e+01 1.455134e+01 1.044850e+00 1.229961e+00 1.050729e+00 2.179403e+00 3.143134e+00 4.672650e+00 2.860411e+00 2.239762e+00 2.426152e+00 2.249389e+00 2.407784e+00 1.827875e+00 2.565019e+00 1.943195e-01 2.181808e-01 2.572638e-01 2.677724e-01 4.118373e-01 5.087751e-01 4.202550e-01 3.940723e-01 4.300215e-01 4.148476e-01 3.992788e-01 3.654616e-01 3.084885e-01
<GCONST> 1.090337e+02
<MIXTURE> 2 5.086501e-01
<MEAN> 39
 -8.133093e-01 -9.581583e+00 -2.501074e+00 5.949157e+00 9.122384e+00 1.382286e+01 1.693400e+00 1.235403e+01 -3.433516e+00 -9.644916e+00 3.317282e+00 -3.644559e+00 1.027614e+00 2.080508e+00 3.365744e-01 7.582909e-01 4.329157e-01 2.542259e-01 -4.186611e-01 -7.722328e-01 9.416750e-02 -5.303662e-01 -7.234665e-01 6.326723e-01 3.183257e-01 -5.316135e-01 -2.746097e-01 4.611461e-01 2.380926e-01 3.124709e-01 1.947714e-02 -5.799999e-01 -2.538557e-01 -2.499330e-01 3.032602e-01 3.126008e-01 -2.308486e-01 2.580572e-01 -1.339893e-02
<VARIANCE> 39
 9.596540e+01 1.080019e+02 7.617267e+01 9.767816e+01 1.240983e+02 1.130318e+02 7.810038e+01 7.788113e+01 6.550845e+01 6.190186e+01 5.078849e+01 3.674686e+01 2.678203e+01 3.914260e+00 4.683072e+00 3.838868e+00 4.097447e+00 3.242106e+00 6.677607e+00 4.254930e+00 4.366066e+00 4.885299e+00 5.146575e+00 3.855568e+00 2.158350e+00 1.983400e+00 2.085922e-01 4.275924e-01 5.839473e-01 4.840827e-01 3.843575e-01 8.361133e-01 6.922691e-01 5.740280e-01 7.507270e-01 8.365990e-01 6.903464e-01 4.163728e-01 3.892218e-01
<GCONST> 1.365226e+02
<TRANSP> 5
 0.000000e+00 1.000000e+00 0.000000e+00 0.000000e+00 0.000000e+00
 0.000000e+00 8.510250e-01 1.489750e-01 0.000000e+00 0.000000e+00
 0.000000e+00 0.000000e+00 8.786781e-01 1.213219e-01 0.000000e+00
 0.000000e+00 0.000000e+00 0.000000e+00 8.610618e-01 1.389382e-01
 0.000000e+00 0.000000e+00 0.000000e+00 0.000000e+00 0.000000e+00
<ENDHMM>
~h "q"
<BEGINHMM>
<NUMSTATES> 5
<STATE> 2
<NUMMIXES> 2
<MIXTURE> 1 4.758888e-01
<MEAN> 39
 3.045824e+00 3.848963e+00 3.796312e+00 1.399773e+01 1.237417e+01 2.173810e+00 -8.734207e+00 3.687006e+00 -3.040262e+00 -7.770660e+00 8.766263e-01 -2.002887e+00 -3.997002e+00 -1.005139e+00 3.849760e-01 3.266905e-01 -2.784589e-01 -5.522682e-01 1.928928e-01 1.919090e-01 -1.183747e+00 -4.342689e-01 2.577993e-01 -1.082808e+00 -4.941705e-01 3.556617e-01 1.008566e-01 -2.443302e-01 5.778605e-04 5.518217e-03 1.048319e-01 5.020925e-02 1.634843e-02 4.197376e-01 8.856373e-02 -1.171353e-01 3.697443e-01 1.096834e-01 -1.229844e-01
<VARIANCE> 39
 2.739299e+02 6.111589e+01 5.265973e+01 1.079173e+02 1.313791e+02 6.551700e+01 9.830620e+01 9.869911e+01 4.109944e+01 6.515681e+01 6.195877e+01 3.001387e+01 3.209459e+01 1.400445e+00 2.259132e+00 3.094193e+00 3.708689e+00 3.734429e+00 3.366051e+00 4.313811e+00 2.514512e+00 1.504603e+00 2.488489e+00 1.669813e+00 1.118957e+00 1.620704e+00 1.349370e-01 2.985168e-01 3.306750e-01 4.138333e-01 4.232231e-01 3.616597e-01 4.152527e-01 3.288904e-01 2.664253e-01 3.318463e-01 2.909296e-01 2.012489e-01 1.924234e-01
<GCONST> 1.221334e+02
<MIXTURE> 2 5.241113e-01
<MEAN> 39
 1.469629e+01 6.386914e+00 6.522478e+00 2.294671e+01 1.419307e+01 -6.383151e+00 -7.804923e+00 1.614257e+01 5.949044e+00 -1.104640e+01 -7.691382e+00 -1.003542e+01 -1.377685e+01 -2.062731e-01 3.814114e-01 5.243383e-01 7.373658e-02 -1.545104e-02 2.964146e-01 8.701167e-02 -4.048976e-01 -2.315072e-01 2.204031e-01 4.650841e-02 -1.983920e-01 -8.561211e-02 8.725713e-03 2.064678e-02 -4.332072e-02 -1.437213e-01 -1.058236e-01 2.159971e-02 5.442216e-02 -2.533456e-03 -9.107874e-03 7.147981e-03 2.055917e-02 7.986932e-02 1.063579e-01
<VARIANCE> 39
 3.448953e+00 1.545833e+01 2.429682e+01 1.195897e+01 1.811461e+01 1.935050e+01 1.425935e+01 2.580549e+01 2.119943e+01 1.575750e+01 1.727906e+01 1.513721e+01 9.684618e+00 1.072888e-01 3.757407e-01 3.820620e-01 9.175708e-01 7.850599e-01 8.409449e-01 8.008374e-01 9.819642e-01 7.239639e-01 6.013446e-01 5.160425e-01 6.597288e-01 7.395400e-01 1.799502e-02 5.099912e-02 5.935683e-02 1.184801e-01 1.145079e-01 1.216132e-01 1.216177e-01 1.439762e-01 1.110813e-01 1.076663e-01 8.657235e-02 1.178737e-01 1.029441e-01
<GCONST> 6.806101e+01
<STATE> 3
<NUMMIXES> 2
<MIXTURE> 1 4.193129e-01
<MEAN> 39
 -7.742705e-01 1.197501e+01 1.205766e+01 1.488152e+01 1.068123e+01 6.702092e+00 -2.769151e+00 2.837623e+00 -4.308401e+00 -6.108299e+00 -1.515194e+00 -3.894861e+00 -3.511168e+00 -1.502748e+00 -2.044757e-01 1.170093e-01 -6.594798e-01 -6.741589e-01 5.067099e-01 7.853733e-01 1.929311e-01 9.547884e-02 1.994177e-01 -2.130686e-01 1.095711e-01 4.460026e-01 -3.487908e-02 -3.085888e-01 -1.193075e-01 4.727797e-02 1.195141e-01 -3.202754e-03 -1.035208e-01 1.190471e-01 1.560790e-01 6.259436e-02 1.555115e-01 7.514945e-02 3.861173e-02
<VARIANCE> 39
 1.320083e+02 7.992205e+01 5.644352e+01 6.031832e+01 4.669207e+01 3.257534e+01 3.307545e+01 3.187885e+01 2.693218e+01 3.397493e+01 3.276880e+01 2.066202e+01 1.690726e+01 1.134217e+00 1.360884e+00 2.126465e+00 1.452207e+00 1.468272e+00 1.778788e+00 2.131628e+00 1.700899e+00 1.294202e+00 1.572768e+00 1.292650e+00 1.002218e+00 9.903354e-01 1.131373e-01 2.709067e-01 3.245234e-01 3.200251e-01 2.944787e-01 2.267340e-01 2.709820e-01 3.002337e-01 2.261487e-01 2.594258e-01 2.458211e-01 1.715876e-01 1.725439e-01
<GCONST> 1.055719e+02
<MIXTURE> 2 5.806874e-01
<MEAN> 39
 1.323552e+01 1.169926e+01 9.632046e+00 2.132636e+01 1.987102e+01 4.079220e+00 -1.330336e+01 -5.235994e+00 -5.463498e+00 -7.174045e+00 -4.329384e+00 -7.402926e+00 -5.366928e+00 -4.515416e-01 6.774412e-01 6.275948e-01 -2.711656e-01 -5.199777e-01 4.518187e-01 8.502357e-01 1.118990e-01 -1.232713e-01 8.355068e-02 -3.190204e-01 -2.529862e-01 7.662077e-02 -7.396279e-02 -6.044680e-02 -1.965071e-02 -3.771920e-02 -5.133796e-02 8.555720e-03 9.220517e-02 2.127189e-01 2.068884e-02 -9.284817e-02 7.761316e-02 7.863349e-02 -2.151401e-02
<VARIANCE> 39
 5.633366e+00 2.093263e+01 2.124269e+01 1.547833e+01 3.056421e+01 2.528700e+01 4.592930e+01 4.295775e+01 1.608120e+01 2.852414e+01 2.653486e+01 1.991368e+01 1.648825e+01 2.381462e-01 4.179710e-01 4.298851e-01 6.647208e-01 9.398105e-01 5.976437e-01 1.518815e+00 1.208239e+00 6.039331e-01 9.705759e-01 7.465793e-01 7.805815e-01 5.206485e-01 1.878848e-02 7.070216e-02 5.621724e-02 1.116080e-01 1.535853e-01 8.024671e-02 1.795879e-01 1.312987e-01 9.980074e-02 1.434477e-01 9.988421e-02 1.157918e-01 8.639801e-02
<GCONST> 7.543117e+01
<STATE> 4
<NUMMIXES> 2
<MIXTURE> 1 7.843134e-01
<MEAN> 39
 -2.662690e+01 -6.330254e+00 -5.137681e+00 -2.956491e+00 -3.715194e+00 7.475067e-01 -3.499226e+00 1.080190e+00 -1.737649e+00 -6.630474e-01 5.875970e-01 -8.062118e-01 5.146198e-01 -3.604642e-03 -6.323961e-03 -3.956609e-03 3.892749e-03 2.955780e-04 -3.521661e-03 1.936123e-03 4.639537e-03 2.432557e-03 8.203970e-03 1.644934e-03 2.522205e-04 1.240552e-03 2.898475e-02 1.939992e-02 2.603453e-02 3.581573e-02 3.950335e-02 3.171571e-02 2.646930e-02 2.282226e-02 4.683083e-03 6.221174e-04 1.657806e-02 1.708408e-02 4.837321e-03
<VARIANCE> 39
 5.489277e-01 1.254228e+00 1.805867e+00 2.639256e+00 3.694081e+00 4.956467e+00 5.571972e+00 6.402095e+00 8.440180e+00 8.020933e+00 6.557546e+00 6.798768e+00 5.387919e+00 7.486752e-02 1.609621e-01 2.579763e-01 3.935181e-01 5.478598e-01 7.196393e-01 8.273770e-01 9.275529e-01 1.088995e+00 1.062951e+00 9.624221e-01 9.458932e-01 7.939432e-01 2.570783e-02 4.208523e-02 6.847577e-02 1.016505e-01 1.318086e-01 1.677189e-01 1.949776e-01 2.117225e-01 2.341094e-01 2.286576e-01 2.130515e-01 2.013174e-01 1.754449e-01
<GCONST> 5.435118e+01
<MIXTURE> 2 2.156865e-01
<MEAN> 39
 -1.198020e+01 7.746741e-01 2.854277e+00 6.846338e+00 5.797593e+00 6.441263e+00 -1.274942e+00 3.827214e+00 -4.296829e+00 -5.057715e+00 1.540641e+00 4.020793e-01 -2.469479e-01 -4.723192e-01 -4.047909e-01 1.137772e-02 -1.586350e-01 -1.781469e-01 2.865652e-01 5.348569e-01 5.516707e-01 3.885874e-01 1.963815e-01 1.070699e-02 1.554244e-01 3.320870e-01 1.643214e-01 -1.073124e-01 -1.944989e-02 1.299405e-01 1.100311e-01 -1.066083e-01 -1.423636e-01 1.123356e-01 8.505818e-02 -3.920031e-02 3.779101e-02 -1.725833e-02 -3.566105e-02
<VARIANCE> 39
 1.921383e+02 1.124348e+02 1.104108e+02 1.038758e+02 6.923183e+01 4.967247e+01 5.091226e+01 5.572546e+01 5.906054e+01 5.303996e+01 4.711409e+01 5.031303e+01 2.817888e+01 4.432551e+00 3.124783e+00 4.041154e+00 3.904697e+00 3.354107e+00 2.781524e+00 2.693406e+00 2.846937e+00 2.553639e+00 2.778212e+00 1.898683e+00 1.630375e+00 1.440924e+00 2.602271e-01 3.690046e-01 4.010712e-01 3.727612e-01 3.612008e-01 3.760162e-01 3.433155e-01 4.008786e-01 3.708078e-01 3.710485e-01 3.361843e-01 2.791359e-01 2.407930e-01
<GCONST> 1.253728e+02
<TRANSP> 5
 0.000000e+00 1.000000e+00 0.000000e+00 0.000000e+00 0.000000e+00
 0.000000e+00 6.221368e-01 3.778632e-01 0.000000e+00 0.000000e+00
 0.000000e+00 0.000000e+00 8.149074e-01 1.850927e-01 0.000000e+00
 0.000000e+00 0.000000e+00 0.000000e+00 8.946606e-01 1.053394e-01
 0.000000e+00 0.000000e+00 0.000000e+00 0.000000e+00 0.000000e+00
<ENDHMM>
~h "r"
<BEGINHMM>
<NUMSTATES> 5
<STATE> 2
<NUMMIXES> 2
<MIXTURE> 1 7.618988e-01
<MEAN> 39
 2.090610e+01 -1.586787e+00 -1.289557e+01 2.531321e+00 1.433693e+01 3.501440e+00 -1.258837e+01 4.103487e+00 -4.457252e+00 -1.234375e+01 1.977204e+00 6.586369e-01 2.413586e+00 -1.302228e+00 1.879817e+00 1.198918e+00 5.041132e-01 -6.508884e-02 2.042987e+00 2.528524e+00 -1.335481e+00 1.632876e-01 1.106041e+00 -2.129690e+00 -1.611214e-01 6.510298e-01 -2.689631e-01 -7.599624e-02 5.269955e-01 2.632599e-01 -3.503235e-01 -2.754821e-01 2.420945e-01 6.284420e-01 -6.676082e-02 -2.119305e-01 3.051772e-01 2.371878e-02 -1.475598e-01
<VARIANCE> 39
 1.550205e+01 2.148132e+01 3.440712e+01 3.631609e+01 4.096023e+01 2.676289e+01 5.015126e+01 2.957006e+01 2.258464e+01 3.209742e+01 3.660314e+01 3.191834e+01 1.813977e+01 1.496758e+00 9.811905e-01 2.618190e+00 1.367667e+00 1.865126e+00 1.698395e+00 3.388622e+00 2.779463e+00 1.762765e+00 2.071076e+00 1.729966e+00 1.349257e+00 1.133024e+00 2.334061e-01 2.339098e-01 3.287728e-01 2.185864e-01 1.763038e-01 2.114075e-01 6.175592e-01 3.670207e-01 2.508053e-01 4.144012e-01 4.939468e-01 2.186032e-01 1.917760e-01
<GCONST> 1.063320e+02
<MIXTURE> 2 2.381013e-01
<MEAN> 39
 1.940887e+01 -7.182460e+00 -4.226448e+00 1.043650e+01 1.548001e+01 -9.732137e-01 -1.651886e+01 1.179734e+01 -1.264632e+01 -2.340221e+01 1.311663e+01 3.290602e-01 -7.323377e+00 3.051588e-01 -6.223793e-02 -4.740831e-01 -8.992854e-02 4.945783e-01 2.201500e-01 -2.713542e-01 -1.405589e-01 -2.275701e-01 -4.422068e-01 -1.682801e-01 3.509435e-02 1.995647e-02 -2.321766e-01 1.470419e-01 2.120447e-01 -6.682711e-02 -1.633716e-01 3.541549e-01 3.201073e-01 -2.956972e-01 2.468481e-01 3.623923e-01 -4.351195e-01 4.528708e-03 2.750545e-01
<VARIANCE> 39
 1.276758e+01 3.194948e+01 2.947818e+01 5.831241e+01 6.290588e+01 4.254457e+01 1.090095e+02 5.103797e+01 3.022800e+01 5.568842e+01 8.534240e+01 2.299464e+01 4.044345e+01 7.773056e-01 1.164943e+00 1.479800e+00 9.639063e-01 1.470003e+00 2.083525e+00 3.228143e+00 2.356694e+00 1.168649e+00 2.183360e+00 3.189243e+00 9.873548e-01 1.213133e+00 1.310256e-01 1.518043e-01 1.947750e-01 1.618095e-01 1.570846e-01 2.281478e-01 3.481194e-01 3.341908e-01 1.597827e-01 3.156837e-01 3.127085e-01 1.303242e-01 1.410856e-01
<GCONST> 1.050454e+02
<STATE> 3
<NUMMIXES> 2
<MIXTURE> 1 7.346039e-01
<MEAN> 39
 1.478578e+01 3.843045e+00 -5.165242e+00 6.754087e+00 1.247478e+01 7.312529e+00 -3.875203e+00 4.290757e+00 -4.658996e+00 -1.068184e+01 -2.296915e+00 2.058176e-01 3.272079e+00 -1.519343e-01 8.511728e-02 5.999436e-01 5.499257e-01 -7.171609e-02 3.792588e-01 5.556179e-01 3.966029e-01 -1.193376e+00 -1.072904e+00 7.441717e-01 2.623380e-01 -6.565142e-01 7.304403e-01 -9.197102e-01 -7.542254e-01 -1.661929e-01 3.711301e-01 -5.036637e-01 -1.123223e+00 2.045079e-01 -6.104282e-01 -8.671229e-01 1.010449e+00 2.459518e-01 -3.876384e-01
<VARIANCE> 39
 8.752196e+00 1.327170e+01 1.752397e+01 3.040897e+01 2.593793e+01 1.612963e+01 3.057541e+01 2.298527e+01 2.129886e+01 2.278702e+01 2.610906e+01 1.758275e+01 1.381122e+01 2.163756e+00 3.202484e+00 3.875536e+00 1.955386e+00 2.505866e+00 2.196259e+00 4.953649e+00 2.478294e+00 2.338462e+00 3.380289e+00 3.732112e+00 1.854463e+00 1.731965e+00 1.785714e-01 2.498525e-01 3.132967e-01 2.346100e-01 2.303139e-01 2.353491e-01 3.962671e-01 4.517581e-01 3.355615e-01 4.130035e-01 4.410360e-01 2.281518e-01 2.392414e-01
<GCONST> 1.069085e+02
<MIXTURE> 2 2.653963e-01
<MEAN> 39
 1.580708e+01 -4.950321e+00 -6.225796e-01 1.460228e+01 1.483009e+01 4.547920e+00 -9.034318e+00 6.520935e+00 -1.602082e+01 -2.079983e+01 9.106927e+00 2.337373e-01 -3.832005e+00 -6.913592e-01 -6.979489e-02 1.177038e+00 2.486856e-01 -5.257672e-01 9.708415e-01 7.378114e-01 -6.790528e-01 1.919674e-01 7.751859e-01 -5.734914e-01 -1.063569e-01 3.806612e-01 -4.133592e-01 3.109502e-01 3.755818e-01 -3.366043e-01 -1.051882e-01 3.459911e-01 1.208225e-01 -1.286301e-01 5.618711e-01 6.060776e-01 -3.998555e-01 -3.098176e-02 2.491219e-01
<VARIANCE> 39
 2.154275e+01 2.994699e+01 4.279120e+01 8.852176e+01 1.280002e+02 4.708463e+01 1.048349e+02 6.068736e+01 3.977385e+01 3.889252e+01 7.250806e+01 3.003089e+01 6.322675e+01 1.786734e+00 3.364111e+00 3.626219e+00 2.178448e+00 3.744252e+00 4.607325e+00 4.635805e+00 3.695039e+00 4.370715e+00 5.371013e+00 5.808517e+00 1.308463e+00 2.603948e+00 1.929372e-01 3.607982e-01 4.124758e-01 2.717722e-01 4.219677e-01 3.424267e-01 5.513654e-01 5.185838e-01 5.838656e-01 6.811420e-01 5.194841e-01 2.520608e-01 2.467479e-01
<GCONST> 1.263210e+02
<STATE> 4
<NUMMIXES> 2
<MIXTURE> 1 4.473667e-01
<MEAN> 39
 7.472074e+00 4.954649e+00 -1.182691e+00 6.615214e+00 1.041564e+01 1.002973e+01 3.476808e-01 5.901036e+00 -5.842692e+00 -1.047259e+01 -8.750429e-01 2.519544e-01 2.101806e+00 -2.150275e+00 8.285922e-01 1.939244e+00 5.367579e-01 -3.234215e-01 7.291667e-01 1.154160e+00 2.025084e-01 1.021603e+00 1.224172e+00 -7.980420e-01 -3.688599e-01 2.462466e-01 -1.348883e-01 -1.136435e-01 8.292873e-02 1.223941e-02 3.208464e-02 -6.709556e-02 -1.689431e-01 5.866118e-02 -1.505175e-01 -1.641154e-01 1.853153e-01 5.752964e-02 -6.000832e-02
<VARIANCE> 39
 1.479244e+02 5.668185e+01 5.080861e+01 6.139783e+01 6.846806e+01 5.159657e+01 6.441219e+01 5.021652e+01 4.399812e+01 4.060943e+01 4.391640e+01 3.887801e+01 3.762221e+01 2.309216e+00 3.293730e+00 3.548693e+00 2.242872e+00 1.971725e+00 2.232062e+00 2.677677e+00 2.026984e+00 2.589244e+00 3.138940e+00 2.225292e+00 1.707198e+00 1.552079e+00 2.024084e-01 2.818197e-01 3.272777e-01 2.376178e-01 2.192353e-01 2.284907e-01 3.254449e-01 3.394471e-01 3.924249e-01 4.136023e-01 3.121812e-01 2.259446e-01 2.106668e-01
<GCONST> 1.180707e+02
<MIXTURE> 2 5.526333e-01
<MEAN> 39
 2.030972e+01 -4.700317e-01 -1.095410e+01 4.326625e+00 1.596094e+01 7.046877e+00 -1.034687e+01 5.256490e+00 -1.069421e+01 -1.856311e+01 5.267299e+00 2.457579e+00 -1.011158e+00 5.940976e-01 -7.955381e-01 -5.941947e-01 -1.628051e-02 7.035444e-01 -4.820634e-01 -1.353506e+00 2.518187e-01 -4.660427e-01 -8.045712e-01 1.173241e+00 3.084984e-01 -5.448989e-01 -3.991980e-01 1.643810e-01 3.999032e-01 1.157568e-01 -1.063601e-01 -1.504975e-02 2.197277e-01 1.195192e-01 5.129588e-01 5.163997e-01 -2.719088e-01 -1.906262e-01 1.171411e-01
<VARIANCE> 39
 1.122340e+01 2.365596e+01 2.291740e+01 4.997392e+01 4.196460e+01 3.444069e+01 5.932991e+01 3.058116e+01 2.109719e+01 2.945609e+01 5.011523e+01 1.963762e+01 1.944666e+01 1.559501e+00 1.635081e+00 1.903163e+00 1.267530e+00 1.480908e+00 1.661435e+00 3.680254e+00 2.226581e+00 2.599151e+00 3.618128e+00 3.186925e+00 1.331035e+00 1.340979e+00 2.827785e-01 2.599379e-01 3.604235e-01 1.879723e-01 2.127783e-01 2.725386e-01 5.009468e-01 3.677666e-01 3.121431e-01 4.626483e-01 4.367167e-01 2.139230e-01 1.778121e-01
<GCONST> 1.082992e+02
<TRANSP> 5
 0.000000e+00 1.000000e+00 0.000000e+00 0.000000e+00 0.000000e+00
 0.000000e+00 6.580340e-01 3.419659e-01 0.000000e+00 0.000000e+00
 0.000000e+00 0.000000e+00 6.952220e-01 3.047779e-01 0.000000e+00
 0.000000e+00 0.000000e+00 0.000000e+00 7.995989e-01 2.004010e-01
 0.000000e+00 0.000000e+00 0.000000e+00 0.000000e+00 0.000000e+00
<ENDHMM>
~h "s"
<BEGINHMM>
<NUMSTATES> 5
<STATE> 2
<NUMMIXES> 2
<MIXTURE> 1 5.592666e-01
<MEAN> 39
 -2.092042e+00 -1.664575e+01 3.118530e+01 3.408053e+00 4.362018e+00 2.658795e+01 -4.282990e+00 2.048023e+00 -1.233212e+01 -7.332449e+00 7.917084e+00 -1.699723e+00 1.551261e+00 -3.634480e+00 -2.361672e+00 3.835001e+00 -1.880380e+00 -6.087247e-01 1.958971e+00 1.174368e+00 1.465271e+00 -5.152681e-01 1.391280e+00 9.491845e-01 7.064067e-01 1.373010e+00 -4.855128e-02 -1.034358e-01 -6.816071e-01 -1.489824e-01 9.977632e-02 -6.557834e-01 -2.948515e-01 3.828470e-01 1.349109e-01 -9.239450e-02 2.692683e-01 8.908976e-02 -1.894449e-01
<VARIANCE> 39
 9.018120e+01 8.233833e+01 1.392142e+02 9.261444e+01 6.149071e+01 7.147015e+01 6.420142e+01 1.130429e+02 4.378852e+01 5.322290e+01 4.160411e+01 2.735083e+01 3.287434e+01 1.663107e+00 2.854819e+00 6.300438e+00 2.320546e+00 2.240219e+00 3.485955e+00 2.534559e+00 3.505523e+00 2.543504e+00 2.534905e+00 2.801951e+00 1.658758e+00 1.516549e+00 3.093530e-01 3.806600e-01 7.056877e-01 2.870235e-01 4.222165e-01 3.420902e-01 3.399175e-01 7.357829e-01 3.900562e-01 4.485954e-01 4.587240e-01 3.253812e-01 2.154326e-01
<GCONST> 1.256751e+02
<MIXTURE> 2 4.407333e-01
<MEAN> 39
 -1.934850e+01 -2.902697e+01 3.861650e+01 -9.650585e+00 -1.096313e+00 2.660620e+01 -3.821003e+00 9.986439e+00 -1.259589e+01 -8.011756e-01 1.374002e+01 1.910218e+00 6.531122e+00 -1.825146e+00 -1.058589e+00 -4.158505e-01 -2.481609e+00 -1.974307e+00 -1.848157e+00 -1.256732e+00 9.907719e-02 -1.290708e-01 1.940959e-01 -2.193573e-01 -3.273754e-01 1.518429e-01 4.589470e-01 4.079443e-01 -2.506143e-01 1.839799e-01 -6.209246e-02 -2.271555e-01 -1.904477e-01 -4.130857e-01 -1.509397e-01 -3.524828e-01 -3.962550e-01 -3.054571e-01 -2.483009e-01
<VARIANCE> 39
 1.786407e+01 3.216876e+01 3.859858e+01 5.210756e+01 5.008322e+01 5.704800e+01 3.844992e+01 4.993288e+01 3.373025e+01 3.079078e+01 2.122751e+01 1.809963e+01 1.539288e+01 1.418059e+00 1.936154e+00 2.785711e+00 1.874297e+00 1.526535e+00 2.037349e+00 1.420261e+00 2.420140e+00 2.220225e+00 2.218087e+00 2.070189e+00 1.839228e+00 1.258735e+00 1.399740e-01 2.050053e-01 4.222059e-01 2.786692e-01 3.704751e-01 5.130227e-01 3.228495e-01 3.250565e-01 3.228298e-01 2.942200e-01 2.741223e-01 2.741069e-01 1.834163e-01
<GCONST> 1.087350e+02
<STATE> 3
<NUMMIXES> 2
<MIXTURE> 1 6.848613e-02
<MEAN> 39
 -2.524206e+01 -9.585215e+00 -3.673086e+00 -3.346663e+00 -3.358247e+00 4.771245e+00 -2.095298e+00 9.282513e-01 -5.211230e+00 -3.505436e+00 2.427892e+00 1.386200e+00 1.993876e+00 -4.560044e-02 -1.064954e-01 1.907338e-01 -4.371243e-02 -1.427099e-01 1.409500e-02 -1.424034e-01 -3.326470e-02 4.986761e-03 -5.985915e-02 1.504920e-02 4.262035e-04 -2.463028e-02 5.846530e-02 1.029301e-02 1.677613e-01 -2.893550e-03 3.719081e-02 5.010635e-02 -4.761209e-03 6.673263e-02 -1.331431e-03 2.742305e-02 1.414291e-02 -9.002757e-04 2.246398e-02
<VARIANCE> 39
 1.553679e+01 4.629702e+01 4.494716e+01 1.218916e+01 1.291061e+01 4.769247e+01 1.645675e+01 1.504597e+01 3.962017e+01 2.473394e+01 1.885251e+01 1.998019e+01 1.081264e+01 6.325564e-01 2.001955e+00 4.049438e+00 1.249881e+00 1.397114e+00 2.470797e+00 1.405014e+00 1.459217e+00 1.961133e+00 1.506494e+00 1.409036e+00 1.399338e+00 1.009371e+00 8.263098e-02 1.381495e-01 2.251623e-01 1.574724e-01 1.985885e-01 2.793579e-01 2.397055e-01 2.782234e-01 2.965253e-01 2.537381e-01 2.452054e-01 2.544997e-01 1.957990e-01
<GCONST> 9.687848e+01
<MIXTURE> 2 9.315139e-01
<MEAN> 39
 -2.389277e+01 -2.997269e+01 3.689491e+01 -1.786939e+01 -7.919478e+00 1.903695e+01 -9.656077e+00 8.229786e+00 -1.445847e+01 -2.517364e+00 1.011101e+01 -1.618185e+00 5.566162e+00 -1.995806e-02 -1.690630e-01 -1.647910e-01 -1.541363e-01 6.819469e-02 -3.502586e-02 -1.183518e-01 -1.302795e-01 -1.886382e-01 4.637487e-02 -1.507106e-02 -9.301445e-02 7.358396e-03 9.615140e-02 -5.279633e-03 -9.594364e-02 1.554218e-01 1.501753e-01 1.413360e-01 1.098469e-01 -1.300126e-02 3.025541e-02 3.916748e-02 6.957535e-02 8.669512e-02 3.536339e-02
<VARIANCE> 39
 1.096272e+01 2.869071e+01 1.532166e+01 3.127738e+01 2.420241e+01 2.891568e+01 3.097190e+01 2.540254e+01 3.728832e+01 2.509245e+01 2.451520e+01 2.032599e+01 1.150456e+01 1.144981e+00 1.494779e+00 1.281941e+00 7.886375e-01 7.007244e-01 1.036502e+00 7.015617e-01 1.065184e+00 1.702641e+00 1.654220e+00 1.912186e+00 1.696622e+00 9.679904e-01 2.157359e-01 2.300084e-01 2.018676e-01 1.346174e-01 1.151422e-01 1.688553e-01 1.334365e-01 1.860684e-01 2.964272e-01 3.054570e-01 3.542365e-01 3.258500e-01 1.844569e-01
<GCONST> 9.393526e+01
<STATE> 4
<NUMMIXES> 2
<MIXTURE> 1 5.465485e-01
<MEAN> 39
 -8.091768e+00 -1.728295e+01 1.701166e+01 -6.762066e-01 1.455346e+00 1.812991e+01 -4.987143e+00 4.207163e+00 -7.281975e+00 -3.845885e+00 6.269771e+00 -1.578540e+00 3.715018e+00 2.715097e+00 2.709292e+00 -2.718466e+00 2.681422e+00 1.108246e+00 -1.719603e+00 -5.331149e-01 5.363766e-02 1.226071e+00 -1.042384e+00 -6.393634e-01 -2.896980e-01 -9.042559e-01 -1.499850e-01 -3.498450e-01 -2.746398e-01 -1.557488e-01 2.413666e-02 -5.141557e-01 -3.772453e-01 1.362983e-01 -3.530240e-01 -3.954653e-01 2.307519e-01 6.672086e-02 -1.998957e-01
<VARIANCE> 39
 1.412411e+02 9.764388e+01 1.126187e+02 1.271390e+02 7.555577e+01 8.960323e+01 1.031925e+02 9.768993e+01 8.295835e+01 5.997277e+01 3.864486e+01 2.895555e+01 2.917230e+01 9.862878e+00 4.446414e+00 7.237089e+00 4.268674e+00 2.449207e+00 5.587126e+00 4.855850e+00 3.693132e+00 4.516912e+00 5.563517e+00 2.351366e+00 1.824370e+00 2.037492e+00 5.939388e-01 6.401765e-01 8.088996e-01 4.618909e-01 3.328127e-01 8.602992e-01 8.474534e-01 5.717438e-01 6.449448e-01 7.735397e-01 4.782126e-01 3.213332e-01 3.278705e-01
<GCONST> 1.382187e+02
<MIXTURE> 2 4.534514e-01
<MEAN> 39
 -2.023633e+01 -3.333728e+01 3.025753e+01 -1.463350e+01 -3.272593e+00 2.271577e+01 -7.535105e+00 4.400495e+00 -1.708382e+01 -1.193514e+00 1.222520e+01 -2.409755e-01 6.121988e+00 1.831675e+00 1.403499e+00 -1.793720e+00 1.862690e+00 1.066314e+00 3.511195e-01 9.151697e-01 -6.814579e-01 7.724044e-01 1.761169e-01 -1.875231e-01 2.354119e-01 -1.368433e-01 6.235608e-01 8.544420e-01 -2.976403e-01 5.572429e-01 1.112713e-01 -2.611345e-01 1.406880e-03 5.714091e-02 4.989424e-01 -9.250069e-02 -2.895080e-01 -1.719598e-01 -1.963047e-01
<VARIANCE> 39
 2.835291e+01 3.879253e+01 3.974754e+01 4.473112e+01 4.335938e+01 4.821066e+01 5.656824e+01 6.928751e+01 3.907823e+01 4.498585e+01 2.074414e+01 1.679145e+01 1.550736e+01 3.259580e+00 4.039576e+00 2.379361e+00 2.632108e+00 1.711003e+00 2.338769e+00 2.100486e+00 2.135011e+00 3.265911e+00 1.660671e+00 1.614854e+00 1.480568e+00 1.146501e+00 3.656668e-01 3.661416e-01 3.855777e-01 2.405034e-01 1.951756e-01 3.924378e-01 3.999361e-01 3.787142e-01 3.876851e-01 3.581944e-01 2.542942e-01 2.566055e-01 1.986290e-01
<GCONST> 1.129819e+02
<TRANSP> 5
 0.000000e+00 1.000000e+00 0.000000e+00 0.000000e+00 0.000000e+00
 0.000000e+00 8.998964e-01 1.001036e-01 0.000000e+00 0.000000e+00
 0.000000e+00 0.000000e+00 9.299925e-01 7.000755e-02 0.000000e+00
 0.000000e+00 0.000000e+00 0.000000e+00 8.898418e-01 1.101582e-01
 0.000000e+00 0.000000e+00 0.000000e+00 0.000000e+00 0.000000e+00
<ENDHMM>
~h "t"
<BEGINHMM>
<NUMSTATES> 5
<STATE> 2
<NUMMIXES> 2
<MIXTURE> 1 5.067611e-01
<MEAN> 39
 -2.660921e+01 -6.322072e+00 -5.094683e+00 -2.945887e+00 -3.667056e+00 7.504714e-01 -3.576132e+00 1.108411e+00 -1.560840e+00 -5.572696e-01 6.261244e-01 -7.471241e-01 5.749059e-01 -2.918101e-02 -3.110334e-02 -6.945835e-02 -2.094731e-02 -2.614472e-02 -7.094263e-02 -6.108713e-02 -4.964838e-02 2.462228e-02 3.268036e-02 -4.764112e-02 -2.648272e-02 7.311661e-03 1.766132e-01 7.821324e-02 1.159820e-01 1.434843e-01 1.948140e-01 2.091826e-01 1.326793e-01 1.021824e-01 4.529336e-03 -2.318614e-02 2.887395e-02 6.980734e-02 9.741540e-02
<VARIANCE> 39
 5.317686e-01 1.298830e+00 1.904921e+00 2.809016e+00 3.708808e+00 5.063412e+00 5.879714e+00 6.913797e+00 8.291196e+00 7.227395e+00 6.474192e+00 6.433487e+00 5.551549e+00 1.978841e-01 3.077058e-01 4.254152e-01 5.834238e-01 7.941613e-01 1.067968e+00 1.097799e+00 1.068951e+00 1.173484e+00 1.087542e+00 1.017395e+00 9.766551e-01 8.714089e-01 1.056909e-01 8.453378e-02 1.233044e-01 1.712824e-01 2.278152e-01 2.670185e-01 2.499708e-01 2.545715e-01 2.648200e-01 2.505085e-01 2.324835e-01 2.287259e-01 2.159344e-01
<GCONST> 6.375208e+01
<MIXTURE> 2 4.932389e-01
<MEAN> 39
 1.013986e+01 3.956817e+00 7.643919e+00 1.303511e+01 2.035545e+00 -1.183108e+01 -9.974864e+00 1.948044e+01 3.052541e+00 -1.289433e+01 3.932216e+00 -1.831277e+00 -7.548527e+00 -9.023601e-01 2.539560e-01 3.120774e-02 -2.775733e-01 -1.003380e-01 5.103161e-02 -1.476374e-02 -2.323957e-01 2.064161e-01 2.193056e-01 -2.235414e-01 1.514938e-01 1.088405e-01 -4.548908e-02 -1.365359e-01 -8.899534e-02 -5.829385e-02 -5.001435e-02 -4.407725e-02 -3.286164e-02 -1.324283e-02 -5.638238e-02 -2.874495e-02 3.925720e-02 -1.590525e-02 -1.869632e-02
<VARIANCE> 39
 1.631138e+02 8.334156e+01 3.731468e+01 1.996581e+01 3.954566e+01 2.882569e+02 1.333598e+02 9.468276e+01 4.993438e+01 1.132820e+02 3.118067e+01 2.596918e+01 6.943214e+01 2.405538e+00 1.819681e+00 1.622708e+00 1.080178e+00 1.499259e+00 3.582166e+00 2.647126e+00 2.224177e+00 1.541163e+00 2.475396e+00 1.638164e+00 8.119099e-01 1.185746e+00 8.008701e-02 1.348230e-01 1.500304e-01 1.369780e-01 1.529895e-01 2.469664e-01 2.585543e-01 3.043913e-01 2.097628e-01 2.707645e-01 2.175407e-01 1.228552e-01 1.218677e-01
<GCONST> 1.106301e+02
<STATE> 3
<NUMMIXES> 2
<MIXTURE> 1 4.264541e-01
<MEAN> 39
 -9.042150e+00 5.643523e+00 5.969009e+00 9.094455e+00 8.085321e+00 9.596552e+00 1.630507e+00 5.329058e+00 -2.437409e+00 -3.798849e+00 6.206249e-01 2.021232e+00 5.611503e+00 -2.544132e+00 -1.366721e+00 -6.791121e-01 -8.991560e-01 -8.723260e-01 -2.325417e-01 5.874708e-04 -2.462193e-01 3.520900e-01 6.607571e-01 6.295948e-02 -1.202889e-01 -8.343512e-02 2.745753e-01 -5.539715e-01 -5.416717e-01 -2.176113e-01 -2.032028e-01 -3.471102e-01 -2.780021e-01 6.564727e-02 4.286490e-02 -2.637670e-02 9.242641e-02 -1.710519e-01 -1.743523e-01
<VARIANCE> 39
 6.142384e+01 3.418113e+01 2.237971e+01 2.770328e+01 3.090666e+01 3.253701e+01 3.402148e+01 4.080822e+01 5.316776e+01 4.968045e+01 3.884069e+01 3.060603e+01 3.619275e+01 3.292586e+00 3.524870e+00 3.012079e+00 1.782911e+00 2.220489e+00 3.106028e+00 2.207351e+00 2.640810e+00 3.112285e+00 2.562597e+00 2.395852e+00 1.850946e+00 2.352124e+00 1.982566e-01 2.137588e-01 2.196315e-01 2.677292e-01 3.391587e-01 4.126558e-01 3.859247e-01 4.688935e-01 6.270714e-01 5.196269e-01 4.882477e-01 3.347195e-01 3.785335e-01
<GCONST> 1.171269e+02
<MIXTURE> 2 5.735461e-01
<MEAN> 39
 -1.974168e+01 -4.727929e+00 -2.614717e+00 2.831250e+00 2.979201e+00 5.717183e+00 -1.015437e+00 3.782834e+00 -5.405975e-01 -1.372388e+00 -8.478239e-04 5.992297e-01 4.402852e+00 2.096142e+00 -7.234718e-01 -1.737593e-01 8.657710e-01 8.423539e-01 3.942969e-01 -2.331664e-01 4.873962e-01 3.989751e-01 8.654355e-02 2.239441e-02 -1.531916e-01 7.205454e-01 7.973077e-01 -4.299937e-03 2.329909e-01 1.579837e-01 3.065738e-02 7.691696e-02 -1.223290e-01 1.102988e-01 -4.056168e-02 4.265369e-02 3.101406e-01 -1.880925e-01 -1.000083e-01
<VARIANCE> 39
 3.732912e+01 1.025770e+01 1.117096e+01 2.831196e+01 3.476261e+01 2.408571e+01 1.798146e+01 1.832878e+01 1.612249e+01 1.413107e+01 1.188875e+01 1.169372e+01 2.157919e+01 5.431818e+00 2.547599e+00 2.861005e+00 4.202858e+00 5.322714e+00 4.218622e+00 3.358983e+00 3.073687e+00 2.821440e+00 2.795057e+00 2.152617e+00 2.303239e+00 2.836067e+00 3.802760e-01 3.294254e-01 3.480646e-01 7.515436e-01 1.040144e+00 7.220910e-01 5.512060e-01 4.651873e-01 4.933866e-01 4.545697e-01 4.310195e-01 4.331155e-01 6.724201e-01
<GCONST> 1.159779e+02
<STATE> 4
<NUMMIXES> 2
<MIXTURE> 1 4.056972e-01
<MEAN> 39
 -3.500847e+00 -1.030194e+01 -2.786634e+00 6.135276e+00 3.927566e+00 6.824945e+00 -3.480894e+00 6.862020e+00 1.526767e+00 1.170329e+00 4.551545e+00 -3.658072e+00 5.297363e+00 3.935312e+00 -2.219602e+00 -9.157015e-02 -7.081786e-01 -8.260741e-01 4.679493e-01 -1.119416e+00 2.045241e-01 -2.057252e+00 -9.379006e-01 3.158960e+00 -1.271104e+00 -1.321993e+00 3.930839e-02 2.072809e-01 2.915708e-01 2.469811e-02 3.754803e-01 3.455955e-01 -2.525178e-03 -1.906834e-01 -1.015964e+00 -9.453878e-01 3.078645e-01 3.237272e-01 -1.521320e-01
<VARIANCE> 39
 2.144017e+01 1.733230e+01 1.170801e+01 1.964825e+01 2.940761e+01 2.582536e+01 2.750661e+01 3.063419e+01 3.536518e+01 2.687193e+01 2.844483e+01 2.107488e+01 2.241073e+01 5.124275e-01 8.950636e-01 1.054984e+00 1.444077e+00 2.063560e+00 2.530792e+00 2.220649e+00 2.191457e+00 4.983606e+00 4.259708e+00 2.042777e+00 1.598631e+00 1.740870e+00 1.347800e-01 3.351647e-01 1.839263e-01 4.091405e-01 4.919633e-01 3.765513e-01 3.681754e-01 3.960523e-01 6.572007e-01 4.162289e-01 6.116070e-01 3.351005e-01 4.472212e-01
<GCONST> 1.074533e+02
<MIXTURE> 2 5.943028e-01
<MEAN> 39
 7.563014e+00 -1.340291e+01 5.149880e-01 7.129471e+00 6.602097e+00 1.056452e+01 -5.773221e+00 7.015881e+00 -9.467135e+00 -7.810394e+00 1.260616e+01 -3.921934e+00 2.408782e+00 2.419709e+00 8.327433e-01 6.132004e-01 1.419231e+00 1.731017e+00 -5.248496e-01 -8.983407e-01 2.244583e-01 -1.024060e+00 -1.780264e+00 4.043779e-01 3.548315e-01 -8.462714e-01 -3.736828e-01 4.732954e-01 -2.348489e-01 3.313349e-01 3.973613e-01 -7.723262e-01 -3.787135e-01 1.160706e-01 5.210450e-01 -9.532898e-02 -5.921972e-01 1.990880e-01 -1.995517e-01
<VARIANCE> 39
 5.765495e+01 4.681572e+01 4.121453e+01 5.307672e+01 6.409819e+01 8.665757e+01 6.551819e+01 6.165024e+01 4.689741e+01 5.989939e+01 5.226234e+01 3.009285e+01 4.232910e+01 3.160522e+00 3.105964e+00 2.863858e+00 3.476728e+00 3.470641e+00 6.041764e+00 4.914096e+00 3.489241e+00 5.933471e+00 4.730799e+00 5.453605e+00 1.963990e+00 2.589082e+00 1.989423e-01 5.991271e-01 4.968556e-01 5.779023e-01 4.973524e-01 6.229923e-01 7.351359e-01 4.932130e-01 7.807235e-01 7.230805e-01 7.856597e-01 3.632416e-01 4.632422e-01
<GCONST> 1.322095e+02
<TRANSP> 5
 0.000000e+00 1.000000e+00 0.000000e+00 0.000000e+00 0.000000e+00
 0.000000e+00 9.011118e-01 9.888814e-02 0.000000e+00 0.000000e+00
 0.000000e+00 0.000000e+00 8.766245e-01 1.233756e-01 0.000000e+00
 0.000000e+00 0.000000e+00 0.000000e+00 8.385645e-01 1.614355e-01
 0.000000e+00 0.000000e+00 0.000000e+00 0.000000e+00 0.000000e+00
<ENDHMM>
~h "u"
<BEGINHMM>
<NUMSTATES> 7
<STATE> 2
<NUMMIXES> 2
<MIXTURE> 1 5.955291e-01
<MEAN> 39
 3.879855e+00 5.608599e+00 4.717106e+00 4.148749e+00 -5.438101e+00 -8.264274e+00 -6.323951e+00 1.342036e+01 5.236960e-01 -9.445387e+00 1.730770e+00 -1.685383e+00 -5.039502e+00 1.891089e+00 3.653075e-01 2.384282e-01 8.957110e-01 3.470226e-01 -1.477723e+00 -1.068866e+00 9.674825e-01 2.310971e-01 -1.281792e+00 -1.704927e-01 -7.830030e-02 -9.483268e-01 -1.716678e-01 -2.630969e-01 -6.940126e-02 5.460792e-02 1.763719e-01 6.930314e-02 -8.586141e-02 6.186926e-02 -6.143479e-03 -1.762150e-01 -2.005225e-02 -2.189994e-02 -7.881124e-02
<VARIANCE> 39
 1.783347e+02 5.230520e+01 3.947015e+01 9.310060e+01 1.079503e+02 1.132586e+02 5.447747e+01 1.114078e+02 4.656297e+01 6.052925e+01 6.444141e+01 4.108978e+01 2.725691e+01 4.455866e+00 2.317381e+00 2.729175e+00 4.494090e+00 7.120405e+00 7.908186e+00 3.935671e+00 4.322865e+00 2.194627e+00 4.472636e+00 3.616277e+00 1.958008e+00 1.829579e+00 3.040990e-01 2.397900e-01 3.204651e-01 7.547886e-01 1.052803e+00 1.023491e+00 5.562944e-01 5.498343e-01 3.374316e-01 5.369160e-01 5.883322e-01 3.110539e-01 2.424523e-01
<GCONST> 1.328609e+02
<MIXTURE> 2 4.044707e-01
<MEAN> 39
 1.940493e+01 4.094675e+00 3.612494e+00 1.312608e+01 -5.554442e+00 -2.831691e+01 -1.567579e+01 2.522358e+01 8.532760e+00 -1.516676e+01 1.366205e+00 2.018554e+00 -7.976800e+00 1.315823e-02 4.963335e-02 3.080367e-01 1.303449e-01 1.054708e-01 -9.812202e-02 -2.831923e-01 2.722959e-01 2.748711e-01 -3.238195e-01 -2.858261e-01 -3.761239e-01 -3.720199e-01 -1.052141e-01 -2.061778e-02 -5.815697e-02 -8.973446e-02 1.537296e-01 3.442136e-01 1.018627e-01 -1.124910e-01 -7.202717e-02 7.016095e-02 1.165313e-02 -8.576444e-02 6.992906e-02
<VARIANCE> 39
 5.986481e+00 4.537444e+01 6.165019e+01 1.862476e+01 1.704598e+01 3.797907e+01 2.926471e+01 3.918500e+01 3.935446e+01 1.696520e+01 3.284298e+01 1.581933e+01 2.021099e+01 5.407045e-01 9.764051e-01 1.159041e+00 7.940871e-01 7.903142e-01 1.449651e+00 9.983848e-01 2.566716e+00 8.044105e-01 1.301724e+00 1.061156e+00 9.735188e-01 4.495809e-01 1.025302e-01 5.789433e-02 1.097452e-01 1.086606e-01 1.135754e-01 2.520446e-01 1.598223e-01 2.678340e-01 8.921690e-02 1.823477e-01 1.514217e-01 9.806636e-02 6.740323e-02
<GCONST> 8.595686e+01
<STATE> 3
<NUMMIXES> 2
<MIXTURE> 1 8.439812e-01
<MEAN> 39
 1.891738e+01 4.998633e+00 4.254860e+00 1.018844e+01 2.221035e+00 -1.445458e+01 -1.490772e+01 2.135890e+01 6.856773e+00 -1.784701e+01 -2.712320e+00 -6.654087e+00 -1.271931e+01 1.751944e-01 -3.478950e-01 -3.538049e-01 -2.476823e-01 4.945381e-01 3.910367e-01 -3.001499e-01 1.118216e-01 -1.089285e-01 -4.647476e-01 8.386984e-02 -3.535468e-01 -3.600458e-01 -8.083317e-02 2.074038e-02 -2.163783e-02 -4.834061e-02 3.195708e-02 2.945008e-01 2.555188e-01 -1.742927e-01 -2.244467e-01 9.272087e-02 1.026883e-01 1.038225e-01 1.755013e-01
<VARIANCE> 39
 4.709767e+00 2.356709e+01 2.842002e+01 2.873857e+01 3.270179e+01 6.301477e+01 4.082650e+01 6.658842e+01 2.535553e+01 6.547961e+01 3.136656e+01 2.086318e+01 1.880506e+01 3.423676e-01 1.104154e+00 9.072751e-01 1.012347e+00 1.169054e+00 2.482506e+00 2.076794e+00 2.532397e+00 1.284034e+00 3.050907e+00 1.168965e+00 1.073332e+00 7.036572e-01 5.874183e-02 4.469144e-02 8.766738e-02 1.363391e-01 1.097997e-01 1.709840e-01 2.069640e-01 2.605243e-01 1.164262e-01 2.411353e-01 1.832929e-01 1.177269e-01 9.800083e-02
<GCONST> 9.137512e+01
<MIXTURE> 2 1.560186e-01
<MEAN> 39
 1.794027e+01 -6.501427e+00 -7.964019e-01 1.805877e+01 2.187216e+01 7.373800e-01 -1.872097e+01 1.263854e+01 -4.284918e+00 -2.667560e+01 1.947931e+00 -1.784294e+00 -1.140678e+01 3.476539e-01 4.769208e-01 -5.625100e-01 -6.432168e-01 3.953144e-03 -1.255533e+00 -8.598558e-01 1.158085e+00 6.332915e-01 -7.302116e-01 -3.179690e-01 -4.305753e-01 -6.230730e-01 -2.014829e-01 9.549968e-04 2.207323e-01 -3.285435e-02 -2.934691e-01 4.017445e-01 4.107887e-01 -4.424156e-01 1.369561e-01 6.013465e-01 -1.976767e-01 -3.362866e-02 2.964855e-01
<VARIANCE> 39
 2.082550e+01 1.361290e+01 1.844509e+01 6.080372e+01 8.273619e+01 5.330612e+01 3.245913e+01 5.674501e+01 1.882348e+01 2.595007e+01 3.824211e+01 1.825302e+01 3.440619e+01 3.048664e-01 3.138345e-01 8.734653e-01 6.587278e-01 1.680075e+00 2.604217e+00 2.445708e+00 3.159075e+00 8.465402e-01 3.308403e+00 1.780447e+00 8.107741e-01 1.985298e+00 1.144054e-01 7.990099e-02 1.759394e-01 1.116943e-01 1.813865e-01 3.306873e-01 2.521511e-01 3.851465e-01 1.491659e-01 3.050910e-01 2.761488e-01 1.327481e-01 1.879540e-01
<GCONST> 9.740105e+01
<STATE> 4
<NUMMIXES> 2
<MIXTURE> 1 1.000000e+00
<MEAN> 39
 1.972967e+01 -2.109440e+00 1.071137e+00 1.027879e+01 6.981669e+00 -9.662852e+00 -1.332982e+01 2.484866e+01 -1.903075e+00 -2.928934e+01 2.312797e+00 -3.103184e+00 -1.197519e+01 -6.482166e-02 -3.950226e-01 -4.198539e-01 4.895319e-01 9.940116e-01 1.115046e+00 7.720081e-01 -5.593796e-01 -1.413798e+00 -5.996469e-01 2.229459e-01 3.446764e-01 4.172922e-01 -1.940264e-01 2.665809e-01 1.500616e-01 1.251120e-01 -1.255140e-01 1.447774e-01 4.287581e-01 -2.603743e-01 1.153694e-01 5.236731e-01 -2.473037e-01 2.761307e-03 2.207931e-01
<VARIANCE> 39
 8.521456e+00 2.589869e+01 2.262224e+01 2.427313e+01 5.552430e+01 9.305769e+01 2.896727e+01 6.026734e+01 3.868224e+01 9.153839e+01 3.469359e+01 2.931433e+01 2.728277e+01 3.601256e-01 8.151631e-01 7.078801e-01 9.381428e-01 6.839706e-01 9.882737e-01 1.744158e+00 1.703793e+00 8.374996e-01 1.929662e+00 1.337569e+00 1.074538e+00 5.834086e-01 8.441862e-02 9.882548e-02 1.305144e-01 1.136585e-01 8.165212e-02 2.059362e-01 1.887925e-01 3.533399e-01 2.283131e-01 3.401481e-01 2.409204e-01 1.238634e-01 1.467675e-01
<GCONST> 9.339043e+01
<MIXTURE> 2 0.000000e+00
<MEAN> 39
 3.417223e+00 7.293330e+00 8.330730e+00 -9.710498e+00 -1.625434e-01 -2.035127e+01 -9.064593e-01 1.561739e+00 -1.227357e+01 -1.039749e+01 -7.147142e+00 -1.017353e+01 -1.074242e+01 -2.990634e-02 2.168149e-01 1.001392e-02 -4.689300e-02 -1.589202e-01 -7.911995e-03 6.217949e-02 3.558638e-02 5.552286e-02 3.114433e-03 -1.407267e-01 -1.060831e-01 -1.548424e-01 -5.462008e-03 -1.843423e-02 -2.657526e-02 6.268177e-02 6.855920e-02 9.713328e-02 -2.289386e-02 -5.790818e-02 2.742950e-02 2.240322e-02 1.946409e-02 5.355634e-02 3.129942e-02
<VARIANCE> 39
 6.075173e+00 4.578182e+01 2.743917e+01 3.471677e+01 5.041447e+01 4.296664e+01 3.941714e+01 4.597451e+01 8.174229e+01 6.164312e+01 4.850667e+01 5.474281e+01 4.559898e+01 9.210440e-02 5.496898e-01 4.708762e-01 6.562652e-01 8.952708e-01 9.710230e-01 9.655681e-01 1.150128e+00 1.134475e+00 1.179296e+00 1.051585e+00 1.147964e+00 1.009993e+00 1.406629e-02 4.912791e-02 6.224088e-02 9.069604e-02 1.023018e-01 1.395229e-01 1.419330e-01 1.569344e-01 1.592698e-01 1.563243e-01 1.508348e-01 1.450534e-01 1.304802e-01
<GCONST> 8.581348e+01
<STATE> 5
<NUMMIXES> 2
<MIXTURE> 1 2.751163e-01
<MEAN> 39
 -3.802054e+00 -1.561569e+01 1.001865e+01 9.745419e+00 -2.617280e-01 4.601264e+00 -1.141027e+01 -7.413950e-01 -3.933738e+00 -1.125142e+01 -2.515280e+00 1.915700e+00 4.193546e+00 -8.258579e-01 -2.047009e-01 -2.644884e-01 -4.932206e-01 -4.631964e-01 -2.269703e-01 -1.283851e-01 -3.588771e-01 -3.645834e-03 3.724548e-01 1.537316e-01 1.694458e-02 3.457527e-02 2.853857e-02 -5.743921e-02 -7.712889e-02 -1.825556e-02 2.805534e-02 -2.683318e-02 1.650302e-02 1.287751e-01 -5.997877e-03 -7.041211e-02 8.615947e-02 3.969169e-02 -8.757082e-02
<VARIANCE> 39
 1.490354e+02 4.173047e+02 1.128555e+02 5.796288e+01 6.901949e+01 9.038831e+01 6.885558e+01 7.256848e+01 6.675534e+01 3.038729e+01 2.416545e+01 2.606414e+01 2.419761e+01 6.729382e+00 1.476322e+01 6.200875e+00 3.745721e+00 3.966733e+00 5.036257e+00 4.160083e+00 3.478078e+00 3.847376e+00 2.955135e+00 2.116344e+00 2.732574e+00 2.991817e+00 3.532339e-01 1.183933e+00 1.055869e+00 5.431015e-01 3.656401e-01 7.036141e-01 5.977063e-01 5.407300e-01 6.179452e-01 5.083904e-01 3.511077e-01 5.171871e-01 5.824836e-01
<GCONST> 1.373760e+02
<MIXTURE> 2 7.248835e-01
<MEAN> 39
 1.787973e+01 9.486852e-01 1.705353e+00 1.344517e+01 7.879650e+00 -7.225663e+00 -8.579168e+00 1.982853e+01 -2.856121e+00 -2.338581e+01 -3.541610e-01 -3.031122e+00 -8.984753e+00 -1.337360e+00 1.400794e+00 6.610864e-01 5.706133e-02 2.310818e-01 2.399595e+00 2.336516e+00 -1.944500e+00 4.402734e-01 2.712626e+00 -1.680066e+00 -4.553044e-01 1.633057e+00 -4.331178e-01 3.809532e-01 4.348646e-01 -6.711666e-02 -2.513144e-02 4.415960e-01 1.589423e-01 -2.654395e-01 4.000959e-01 5.486856e-01 -3.568088e-01 -1.412144e-01 2.947059e-01
<VARIANCE> 39
 1.127485e+01 4.180183e+01 4.081126e+01 3.813447e+01 7.697707e+01 1.193910e+02 4.324061e+01 6.261510e+01 6.218570e+01 9.694022e+01 3.975288e+01 4.656990e+01 1.990162e+01 9.927427e-01 1.641545e+00 1.794618e+00 1.430720e+00 1.401158e+00 2.773686e+00 1.773735e+00 2.181246e+00 2.440460e+00 4.043321e+00 2.007340e+00 1.476556e+00 1.332299e+00 6.375539e-02 2.287219e-01 1.699057e-01 1.784016e-01 2.308287e-01 3.569451e-01 3.075536e-01 4.035367e-01 4.077513e-01 6.638311e-01 3.182120e-01 2.611969e-01 1.495705e-01
<GCONST> 1.112343e+02
<STATE> 6
<NUMMIXES> 2
<MIXTURE> 1 2.081572e-01
<MEAN> 39
 -2.593242e+01 -7.576223e+00 -6.381721e+00 -3.680989e+00 -3.698453e+00 1.685297e+00 -1.993882e+00 1.646740e+00 -4.061776e+00 -2.789163e+00 6.874099e-01 1.155619e+00 1.635451e+00 -5.164564e-02 -7.317290e-02 -9.700592e-02 -2.212022e-02 1.742893e-02 4.937831e-02 1.002686e-01 1.177353e-01 4.947233e-02 3.852323e-02 -2.279105e-02 -6.437705e-02 3.110315e-03 7.534091e-02 5.408730e-02 4.706262e-02 6.204052e-02 7.954121e-02 3.168648e-02 -3.464295e-02 -4.451810e-02 -4.788454e-02 -5.281143e-02 2.489529e-02 4.301640e-02 2.984310e-02
<VARIANCE> 39
 1.591895e+00 3.961809e+00 5.657081e+00 3.292154e+00 3.469273e+00 1.058366e+01 1.110073e+01 4.976633e+00 2.203065e+01 3.032680e+01 9.223844e+00 1.766749e+01 8.153785e+00 1.012958e-01 1.807304e-01 3.558441e-01 4.472820e-01 5.794088e-01 7.601569e-01 7.340929e-01 8.318760e-01 1.150584e+00 1.483745e+00 1.217539e+00 8.801105e-01 6.774588e-01 5.060948e-02 4.279711e-02 8.789793e-02 1.086511e-01 1.652705e-01 1.854161e-01 1.896742e-01 1.965333e-01 2.387442e-01 2.724307e-01 2.806472e-01 1.816000e-01 1.460551e-01
<GCONST> 6.562398e+01
<MIXTURE> 2 7.918428e-01
<MEAN> 39
 1.141100e+01 8.849201e+00 5.114679e+00 1.032127e+01 6.911617e+00 2.548317e+00 2.403161e-02 1.356826e+01 1.284995e+00 -1.130386e+01 -6.244782e+00 -6.376262e+00 -4.437218e+00 -2.016943e+00 1.073131e+00 1.390034e+00 4.568864e-01 6.122147e-01 2.455040e+00 1.650228e+00 -1.200822e+00 3.089784e-02 1.424803e+00 -9.961945e-01 -1.262013e-01 1.311653e+00 -1.261567e-01 -3.395905e-01 1.669232e-01 1.797833e-01 -1.521189e-02 -2.795823e-01 -4.433685e-01 1.060873e-01 -1.219968e-01 -3.304844e-01 2.961471e-01 1.285333e-01 -1.359788e-01
<VARIANCE> 39
 5.182050e+01 4.286236e+01 5.779788e+01 5.014167e+01 4.461910e+01 6.860225e+01 4.952100e+01 3.449892e+01 3.001231e+01 5.217595e+01 3.982655e+01 3.754552e+01 2.024796e+01 8.371457e-01 3.254470e+00 1.873410e+00 2.156461e+00 2.468957e+00 4.178495e+00 3.888344e+00 3.167618e+00 2.547039e+00 4.587128e+00 2.367113e+00 1.614531e+00 1.386374e+00 8.288983e-02 3.264575e-01 2.463271e-01 2.393418e-01 2.075891e-01 2.859080e-01 3.572618e-01 3.435155e-01 2.919583e-01 3.756979e-01 2.476418e-01 1.764178e-01 2.005824e-01
<GCONST> 1.135577e+02
<TRANSP> 7
 0.000000e+00 1.000000e+00 0.000000e+00 0.000000e+00 0.000000e+00 0.000000e+00 0.000000e+00
 0.000000e+00 8.865114e-01 1.134886e-01 0.000000e+00 0.000000e+00 0.000000e+00 0.000000e+00
 0.000000e+00 0.000000e+00 8.354822e-01 1.645178e-01 0.000000e+00 0.000000e+00 0.000000e+00
 0.000000e+00 0.000000e+00 0.000000e+00 7.107693e-01 2.892307e-01 0.000000e+00 0.000000e+00
 0.000000e+00 0.000000e+00 0.000000e+00 0.000000e+00 7.097282e-01 2.902718e-01 0.000000e+00
 0.000000e+00 0.000000e+00 0.000000e+00 0.000000e+00 0.000000e+00 7.266862e-01 2.733138e-01
 0.000000e+00 0.000000e+00 0.000000e+00 0.000000e+00 0.000000e+00 0.000000e+00 0.000000e+00
<ENDHMM>
~h "w"
<BEGINHMM>
<NUMSTATES> 5
<STATE> 2
<NUMMIXES> 2
<MIXTURE> 1 1.000000e+00
<MEAN> 39
 6.495389e+00 1.533824e+01 1.071885e+01 1.413448e+01 1.074121e+01 7.544764e+00 4.439550e+00 1.653366e+01 4.566742e+00 -7.577502e+00 -6.314281e+00 -6.250261e+00 -6.588778e+00 -5.559953e-01 5.157420e-01 8.292782e-01 2.171979e-01 8.810709e-02 5.889384e-01 3.634824e-01 -1.307453e-01 1.748993e-01 5.519068e-01 6.041173e-02 -3.068179e-01 -3.265915e-02 1.060638e-01 -4.146642e-01 -3.190647e-01 1.834432e-02 1.053668e-01 -1.316561e-01 -2.612492e-01 -8.044965e-03 -6.753765e-02 -1.783711e-01 9.395253e-02 1.368936e-01 1.564889e-01
<VARIANCE> 39
 2.155659e+01 1.366060e+01 2.766660e+01 1.625098e+01 2.121811e+01 3.863996e+01 1.749516e+01 4.324048e+01 2.988327e+01 3.844281e+01 1.942062e+01 1.659432e+01 1.388596e+01 1.099411e+00 1.511438e+00 1.622183e+00 7.622697e-01 8.413279e-01 1.688855e+00 1.362333e+00 1.773289e+00 1.205086e+00 1.969576e+00 1.363862e+00 1.174701e+00 1.321953e+00 8.129179e-02 1.360635e-01 1.923593e-01 1.315937e-01 1.277773e-01 2.254402e-01 2.133674e-01 3.148122e-01 2.031482e-01 2.576343e-01 2.121285e-01 1.755171e-01 1.724561e-01
<GCONST> 9.340296e+01
<MIXTURE> 2 0.000000e+00
<MEAN> 39
 1.378911e+01 -5.882964e+00 5.711132e+00 9.465131e+00 -1.243303e+01 8.746708e+00 5.601330e-01 -7.174479e+00 2.589908e+00 -1.117520e+01 -1.118331e+01 1.178023e-01 -6.158607e+00 -1.288440e-01 1.712742e-02 2.953843e-01 2.247112e-02 -1.709286e-01 2.319557e-01 7.940844e-02 2.872613e-02 2.858532e-01 -3.339471e-02 -1.537790e-01 2.861512e-02 -6.112367e-02 4.143821e-02 -1.702908e-01 -5.036233e-02 -1.903104e-02 -4.757323e-02 -1.118162e-01 -1.095709e-01 -5.744234e-02 -1.100288e-01 -7.373928e-02 7.590093e-02 2.229727e-02 -1.457045e-03
<VARIANCE> 39
 5.693203e+00 3.076212e+01 1.764848e+01 2.169621e+01 3.926045e+01 3.001332e+01 2.751151e+01 3.213239e+01 3.717189e+01 2.692718e+01 1.927668e+01 1.926764e+01 1.896693e+01 1.228157e-01 5.694669e-01 4.044106e-01 4.887558e-01 7.384183e-01 9.813445e-01 7.732689e-01 8.090994e-01 9.743630e-01 8.385676e-01 6.937302e-01 6.511840e-01 6.163760e-01 1.787036e-02 5.931752e-02 6.642151e-02 7.853088e-02 1.136717e-01 1.498673e-01 1.329894e-01 1.448491e-01 1.629503e-01 1.434017e-01 1.325567e-01 1.232411e-01 1.184856e-01
<GCONST> 7.573148e+01
<STATE> 3
<NUMMIXES> 2
<MIXTURE> 1 9.037719e-01
<MEAN> 39
 5.561180e+00 8.725940e+00 7.791546e+00 1.502212e+01 1.342627e+01 8.787058e+00 1.334223e+00 1.660592e+01 5.366226e+00 -7.849473e+00 -4.784357e+00 -5.611920e+00 -1.830019e+00 1.481981e+00 -2.531253e+00 -2.340052e+00 -6.837900e-01 -1.960309e-01 -1.728664e+00 -2.179286e+00 5.626194e-01 -1.329284e-01 -1.495573e+00 5.369716e-01 5.074576e-01 7.061804e-01 5.434474e-01 -2.140945e-01 -4.119408e-01 -2.165402e-01 -2.450458e-01 -6.720418e-01 -5.077201e-01 -4.031360e-02 -2.552415e-01 -4.175819e-01 1.855498e-01 2.208389e-01 -1.757429e-01
<VARIANCE> 39
 1.587048e+01 3.140197e+01 2.475319e+01 1.696171e+01 2.722604e+01 4.982159e+01 2.625178e+01 2.489230e+01 3.585899e+01 3.037843e+01 2.808885e+01 1.390707e+01 1.151741e+01 1.232926e+00 9.714807e-01 1.244250e+00 1.290550e+00 1.673094e+00 3.351980e+00 1.996357e+00 1.929368e+00 2.392057e+00 2.157313e+00 2.387599e+00 1.210476e+00 1.070494e+00 7.095829e-02 2.308647e-01 2.318416e-01 2.343704e-01 2.204578e-01 2.352297e-01 2.411157e-01 3.364357e-01 2.796302e-01 3.280468e-01 3.439473e-01 2.061293e-01 1.816295e-01
<GCONST> 1.002892e+02
<MIXTURE> 2 9.622828e-02
<MEAN> 39
 1.661416e+01 8.720269e+00 2.699718e+00 1.108904e+01 7.717385e+00 -3.406823e+00 -7.476248e+00 1.336886e+01 -8.800578e-01 -1.552550e+01 -2.289087e+00 -4.081239e+00 -9.541163e+00 5.476934e-01 -1.034056e+00 -8.554255e-01 4.448121e-02 7.213512e-01 -2.935378e-01 -9.085220e-01 1.048702e-01 -4.698349e-01 -1.151585e+00 2.435800e-01 3.657718e-01 -1.329294e-01 -7.122847e-02 -1.445107e-01 -4.029517e-02 -3.071910e-03 1.239808e-01 1.388608e-01 -2.257237e-03 -3.370811e-02 -1.277473e-01 -4.899233e-02 1.635116e-01 1.220104e-01 9.873126e-02
<VARIANCE> 39
 1.143502e+01 3.721217e+01 3.468985e+01 3.143113e+01 6.251164e+01 6.548170e+01 2.733812e+01 1.395510e+02 2.987397e+01 7.932829e+01 1.644543e+01 2.002841e+01 2.081696e+01 2.441468e-01 6.524821e-01 4.349780e-01 4.803455e-01 6.150243e-01 1.534399e+00 1.126024e+00 1.922996e+00 9.397911e-01 1.963595e+00 9.591089e-01 5.428153e-01 7.358894e-01 3.306058e-02 7.022879e-02 6.738765e-02 7.772668e-02 1.124883e-01 1.393482e-01 1.646940e-01 2.052881e-01 7.623693e-02 2.049638e-01 1.903825e-01 8.929719e-02 7.518768e-02
<GCONST> 8.517632e+01
<STATE> 4
<NUMMIXES> 2
<MIXTURE> 1 0.000000e+00
<MEAN> 39
 1.883199e+01 -7.001300e+00 -1.800085e+00 7.613077e+00 4.525700e+00 -6.993447e+00 -1.184967e+01 1.523451e+01 -9.600030e+00 -2.765470e+01 9.438578e+00 3.366591e+00 -8.420697e+00 -2.649488e-01 -1.113522e-01 -5.765734e-02 -2.314895e-01 1.876235e-01 3.040232e-01 -2.620974e-02 -6.262864e-01 -1.918356e+00 -4.364128e-02 2.249173e+00 4.445328e-01 -1.567626e-01 3.064628e-01 -2.403390e-01 2.766851e-01 -1.412306e-01 2.970545e-01 6.027837e-02 -3.513275e-01 4.939724e-01 4.594464e-02 2.586159e-02 3.198166e-01 -4.293582e-01 -8.306079e-02
<VARIANCE> 39
 1.164153e-10 0.000000e+00 0.000000e+00 0.000000e+00 0.000000e+00 0.000000e+00 0.000000e+00 0.000000e+00 2.328306e-10 0.000000e+00 0.000000e+00 0.000000e+00 0.000000e+00 0.000000e+00 5.820766e-11 0.000000e+00 0.000000e+00 1.455192e-11 0.000000e+00 0.000000e+00 0.000000e+00 0.000000e+00 0.000000e+00 0.000000e+00 -1.455192e-11 -7.275958e-12 0.000000e+00 2.273737e-13 0.000000e+00 1.421085e-14 0.000000e+00 0.000000e+00 0.000000e+00 0.000000e+00 7.275958e-12 0.000000e+00 -7.275958e-12 0.000000e+00 0.000000e+00
<GCONST> -3.200001e+11
<MIXTURE> 2 1.000000e+00
<MEAN> 39
 1.764569e+01 9.626705e-02 -3.839102e+00 1.069964e+01 5.899487e+00 -1.235231e+01 -1.326821e+01 2.126900e+01 7.280553e+00 -1.646931e+01 -5.162121e+00 -2.490537e+00 -1.511263e+00 1.670344e+00 -1.480469e+00 -1.799930e+00 -4.582500e-01 -4.055981e-01 -2.533019e+00 -2.061893e+00 2.132473e-01 -2.910751e-01 -1.236450e+00 5.340118e-01 9.179215e-01 2.032159e-01 -2.176968e-01 1.607202e-01 1.638836e-01 6.283738e-02 2.257325e-01 3.536395e-01 2.433582e-01 -8.680692e-03 4.434906e-03 1.679597e-01 7.846335e-02 2.418710e-02 1.206992e-02
<VARIANCE> 39
 1.757486e+01 1.802432e+01 2.527120e+01 1.562681e+01 3.497518e+01 1.275183e+02 4.632566e+01 3.964513e+01 5.601625e+01 3.137481e+01 4.179919e+01 1.443753e+01 1.440999e+01 1.666226e+00 9.514392e-01 1.510400e+00 9.059898e-01 1.663028e+00 3.498510e+00 2.428483e+00 2.329960e+00 1.931301e+00 2.821500e+00 1.773027e+00 1.165055e+00 7.759941e-01 1.322766e-01 1.051223e-01 1.585857e-01 1.592081e-01 1.833345e-01 3.896448e-01 2.793227e-01 3.367705e-01 1.756933e-01 3.050216e-01 2.597822e-01 1.613660e-01 1.333252e-01
<GCONST> 1.012402e+02
<TRANSP> 5
 0.000000e+00 1.000000e+00 0.000000e+00 0.000000e+00 0.000000e+00
 0.000000e+00 8.768314e-01 1.231687e-01 0.000000e+00 0.000000e+00
 0.000000e+00 0.000000e+00 7.630615e-01 2.369385e-01 0.000000e+00
 0.000000e+00 0.000000e+00 0.000000e+00 7.767930e-01 2.232070e-01
 0.000000e+00 0.000000e+00 0.000000e+00 0.000000e+00 0.000000e+00
<ENDHMM>
~h "y"
<BEGINHMM>
<NUMSTATES> 5
<STATE> 2
<NUMMIXES> 2
<MIXTURE> 1 1.000000e+00
<MEAN> 39
 5.146962e+00 -6.725081e-01 1.608788e+01 3.518525e+01 1.787350e+01 -2.453073e+00 -4.612003e+00 1.785301e+01 -2.629192e+00 -1.798787e+01 3.711455e-01 -6.866484e-01 -8.001982e+00 3.884344e-01 -5.540681e-01 6.665765e-03 4.616575e-01 4.251424e-01 -6.413035e-02 -6.589561e-01 -2.466731e-01 -8.242881e-02 -3.041140e-01 2.619693e-02 -1.409960e-01 -1.733134e-01 9.479606e-03 -1.151584e-01 -1.251228e-01 -1.171421e-01 9.108067e-02 3.711404e-02 -1.841449e-01 -4.138306e-02 -2.414962e-02 -8.183112e-02 7.502781e-02 2.931284e-02 -4.199295e-02
<VARIANCE> 39
 2.207862e+01 7.617261e+01 3.418959e+01 5.749021e+01 3.863979e+01 4.874027e+01 7.407195e+01 6.669036e+01 2.708386e+01 6.401142e+01 4.047864e+01 3.027215e+01 3.575933e+01 1.067441e+00 2.650362e+00 1.505407e+00 2.947398e+00 2.299563e+00 2.218995e+00 3.523146e+00 2.700809e+00 1.159987e+00 3.490499e+00 1.670673e+00 1.463788e+00 1.751495e+00 8.031328e-02 2.032277e-01 1.936878e-01 3.884794e-01 2.197005e-01 2.484503e-01 2.436601e-01 3.459588e-01 1.708902e-01 4.586630e-01 2.377550e-01 2.263511e-01 1.862333e-01
<GCONST> 1.109130e+02
<MIXTURE> 2 0.000000e+00
<MEAN> 39
 1.077002e+01 -1.956420e+01 1.628934e+01 2.477308e+01 -1.067274e+01 -2.976494e-01 -1.631964e+01 -1.125875e+01 8.065402e+00 -1.447605e+01 -1.309809e+01 -1.712498e+00 -8.394070e+00 6.742813e-02 -9.836404e-02 -1.169972e-01 -9.043243e-02 -7.185069e-02 -4.700645e-02 -1.383417e-01 -1.586409e-01 -4.520181e-02 8.582173e-02 1.406730e-01 1.323300e-02 -1.787742e-02 1.718775e-02 -1.453367e-03 -6.490878e-02 -5.673794e-02 8.897717e-03 2.129654e-02 3.349083e-04 -4.583070e-02 -3.346105e-02 4.537795e-02 5.137637e-02 4.648509e-03 -1.070770e-02
<VARIANCE> 39
 4.835891e+00 1.564970e+01 1.978276e+01 2.057377e+01 2.182557e+01 2.436750e+01 2.886898e+01 3.342552e+01 2.415036e+01 3.267395e+01 2.042847e+01 2.264841e+01 1.821476e+01 1.990445e-01 2.737281e-01 3.442593e-01 4.312418e-01 5.640050e-01 5.272828e-01 3.877100e-01 4.964686e-01 5.398856e-01 5.405872e-01 4.196366e-01 3.762387e-01 3.816764e-01 2.946622e-02 3.539984e-02 2.297077e-02 5.282143e-02 8.965132e-02 8.030171e-02 5.395827e-02 6.092423e-02 8.503931e-02 7.202144e-02 5.072999e-02 5.755227e-02 6.090007e-02
<GCONST> 6.119115e+01
<STATE> 3
<NUMMIXES> 2
<MIXTURE> 1 6.614458e-01
<MEAN> 39
 1.270657e+01 -1.154595e+01 6.014580e+00 3.219497e+01 3.301262e+01 2.007056e+00 -2.633694e+01 6.660897e+00 -6.566773e+00 -2.341963e+01 9.748179e+00 -1.373195e-01 -1.745357e+01 3.058448e-01 8.693548e-02 -3.865036e-01 -1.039989e+00 -2.177591e-01 -1.684778e-01 -5.217192e-01 6.860679e-02 -1.571244e-01 -5.755341e-01 1.934495e-01 4.347341e-01 -2.234286e-02 -2.443028e-03 9.547942e-02 -8.027619e-03 -1.289695e-01 -2.595444e-01 -2.232912e-02 2.818779e-01 6.891934e-02 4.772312e-03 9.643219e-02 -1.063752e-01 -1.489124e-02 1.965665e-01
<VARIANCE> 39
 6.717288e+00 1.452345e+01 1.643102e+01 4.362029e+01 2.312866e+01 3.808102e+01 4.559594e+01 4.212787e+01 2.339229e+01 3.618262e+01 3.506384e+01 1.623687e+01 2.224520e+01 4.315584e-01 4.916412e-01 9.082830e-01 1.816690e+00 1.339456e+00 1.166323e+00 2.226088e+00 1.514477e+00 9.322657e-01 1.792365e+00 1.410269e+00 6.638005e-01 8.596725e-01 4.718204e-02 5.522497e-02 7.300863e-02 1.407202e-01 1.538573e-01 1.489737e-01 2.469289e-01 2.132164e-01 1.416318e-01 2.682888e-01 1.931579e-01 1.082783e-01 1.286455e-01
<GCONST> 8.783305e+01
<MIXTURE> 2 3.385543e-01
<MEAN> 39
 1.225257e+01 -1.280813e+01 7.301773e+00 2.956461e+01 2.754354e+01 4.178416e+00 -2.225965e+01 6.147463e+00 -5.906263e+00 -2.042654e+01 7.507568e+00 -1.602305e+00 -1.117173e+01 1.277233e+00 -3.694475e-01 -1.340101e+00 -8.229769e-01 1.714015e+00 -1.089547e+00 -3.388626e+00 5.816811e-01 -5.284922e-01 -2.460202e+00 1.392788e+00 8.623738e-01 -1.614943e+00 -2.216284e-01 2.050060e-02 -1.208086e-02 -3.928045e-01 -4.631423e-01 1.078044e-02 3.950163e-01 2.405740e-01 8.223642e-02 1.913847e-01 -1.312288e-03 2.247619e-02 3.103023e-01
<VARIANCE> 39
 1.462342e+01 2.595261e+01 4.442269e+01 6.636532e+01 4.087049e+01 5.870558e+01 5.907417e+01 4.429979e+01 2.272682e+01 5.142445e+01 4.349540e+01 1.974449e+01 3.191478e+01 8.268121e-01 1.856685e+00 2.075898e+00 3.713781e+00 2.200053e+00 1.862492e+00 2.686046e+00 2.256527e+00 1.266513e+00 2.330847e+00 1.912025e+00 1.114463e+00 1.906457e+00 1.597869e-01 3.151774e-01 2.287157e-01 2.928114e-01 3.344845e-01 2.931459e-01 5.236894e-01 3.743385e-01 2.406561e-01 5.597858e-01 3.131280e-01 1.918069e-01 2.635482e-01
<GCONST> 1.109134e+02
<STATE> 4
<NUMMIXES> 2
<MIXTURE> 1 1.000000e+00
<MEAN> 39
 1.854389e+01 -1.292795e+01 -3.220445e+00 1.449085e+01 2.356557e+01 -3.866406e+00 -3.049747e+01 1.150122e+01 -8.857355e+00 -2.551860e+01 1.730916e+01 4.826338e+00 -8.452227e+00 2.905502e-01 3.964341e-01 -7.143674e-01 -1.245067e+00 -1.218468e+00 -2.351097e-01 9.455429e-01 2.910300e-01 4.318206e-02 6.669818e-01 5.348813e-01 5.105580e-01 8.412048e-01 -9.556533e-02 5.203879e-02 1.186756e-01 1.456689e-01 -9.481802e-02 6.839222e-02 2.817280e-01 6.214450e-03 1.183727e-01 1.867228e-01 -1.785982e-01 -9.662770e-02 4.504643e-02
<VARIANCE> 39
 8.980042e+00 1.279773e+01 3.045646e+01 4.294884e+01 3.371768e+01 2.392869e+01 4.485104e+01 3.764218e+01 1.858445e+01 3.927641e+01 5.845966e+01 1.637768e+01 3.969093e+01 6.221222e-01 6.453798e-01 1.155553e+00 1.220713e+00 9.354570e-01 1.058601e+00 2.554037e+00 2.168022e+00 9.856588e-01 2.139169e+00 2.715583e+00 9.008063e-01 8.580161e-01 9.072726e-02 7.968137e-02 1.227774e-01 1.254177e-01 1.197828e-01 1.312618e-01 3.150135e-01 3.174016e-01 1.344514e-01 2.965966e-01 2.684616e-01 1.371433e-01 1.377463e-01
<GCONST> 9.341675e+01
<MIXTURE> 2 0.000000e+00
<MEAN> 39
 1.834593e+01 7.934944e+00 7.932682e+00 1.503719e+01 1.803111e+00 -2.037606e+01 -1.644926e+01 2.184258e+01 1.260148e+01 -1.503142e+01 -6.399386e+00 -2.764359e+00 -1.201426e+01 -1.433372e-01 3.626778e-01 3.765360e-01 1.642747e-01 -9.144862e-01 -4.275381e-01 1.047767e+00 -6.491117e-01 -9.508583e-01 8.822717e-02 1.451628e-01 1.063848e+00 6.089023e-01 1.985392e-02 -2.290012e-03 -9.664199e-02 -1.148163e-01 1.024915e-01 1.975246e-01 -2.949605e-02 -5.193375e-02 -2.115059e-02 1.766418e-02 8.069424e-02 -5.974209e-02 -1.925800e-02
<VARIANCE> 39
 2.187982e+00 3.667252e+00 5.720903e+00 3.864647e+00 1.667177e+01 5.763923e+00 2.584094e+01 1.628677e+01 2.029194e+01 2.039786e+00 3.877239e+00 2.346906e+01 9.470806e+00 1.590848e-01 5.457012e-02 3.687519e-01 6.536990e-01 2.725386e-01 8.634763e-01 3.062788e-01 5.284209e-01 1.873871e-01 1.812601e-01 4.500642e-01 3.207888e-01 1.490624e-01 2.418954e-02 1.140214e-02 8.152611e-02 1.984748e-02 2.653353e-02 2.705498e-02 8.348361e-02 1.094728e-01 4.964291e-02 3.034215e-02 2.737052e-02 7.228445e-02 3.352412e-02
<GCONST> 3.861128e+01
<TRANSP> 5
 0.000000e+00 1.000000e+00 0.000000e+00 0.000000e+00 0.000000e+00
 0.000000e+00 8.704811e-01 1.295189e-01 0.000000e+00 0.000000e+00
 0.000000e+00 0.000000e+00 8.760382e-01 1.239618e-01 0.000000e+00
 0.000000e+00 0.000000e+00 0.000000e+00 8.401810e-01 1.598190e-01
 0.000000e+00 0.000000e+00 0.000000e+00 0.000000e+00 0.000000e+00
<ENDHMM>
~h "z"
<BEGINHMM>
<NUMSTATES> 5
<STATE> 2
<NUMMIXES> 2
<MIXTURE> 1 6.493111e-01
<MEAN> 39
 -1.573949e+00 -1.147676e+01 3.843226e+01 3.635679e+00 1.124236e+01 3.730079e+01 -1.258444e+01 -9.035355e-01 -1.322229e+01 -1.503650e+01 4.881811e+00 -3.228631e+00 1.078730e+00 -2.628961e+00 -2.637230e-01 3.254731e+00 -1.362536e+00 -9.671835e-01 1.399561e+00 1.496847e+00 1.784985e+00 3.964268e-01 6.418548e-01 -7.016408e-02 6.042846e-01 9.533144e-01 8.473480e-02 -7.550716e-02 -8.955361e-01 2.955059e-01 1.879427e-01 -6.523742e-01 2.945643e-01 3.725058e-01 3.369430e-01 7.239573e-02 3.288423e-01 2.434341e-01 -3.648679e-01
<VARIANCE> 39
 1.997718e+01 2.861621e+01 3.816458e+01 5.960701e+01 4.385210e+01 4.485163e+01 3.582196e+01 9.464928e+01 4.695229e+01 3.152548e+01 4.620788e+01 3.395645e+01 2.484458e+01 4.046217e-01 8.696078e-01 3.839540e+00 2.002495e+00 1.615538e+00 2.667649e+00 2.448924e+00 1.947363e+00 2.095454e+00 1.689900e+00 1.438120e+00 1.702827e+00 1.605621e+00 3.428771e-02 1.095707e-01 2.457552e-01 2.205802e-01 2.878660e-01 3.289796e-01 3.156278e-01 3.896752e-01 4.631051e-01 3.068233e-01 2.938194e-01 2.929547e-01 2.429426e-01
<GCONST> 1.072205e+02
<MIXTURE> 2 3.506888e-01
<MEAN> 39
 8.503224e+00 -1.193692e+01 1.935078e+01 1.489591e+01 2.029234e+01 2.806326e+01 -1.753507e+01 -8.089088e+00 -1.413815e+01 -1.694654e+01 9.615441e+00 -2.082696e+00 -7.719530e+00 -2.448942e+00 -3.150036e-01 5.641645e+00 -2.825867e+00 -2.538539e+00 4.655775e+00 9.053358e-01 -1.404403e+00 6.857796e-01 1.473937e+00 -2.247617e+00 -9.893352e-02 2.736594e+00 -2.653760e-01 -5.290792e-02 2.742567e-01 -2.884639e-01 6.517717e-02 -4.562289e-01 -1.153698e-01 1.061277e+00 -3.156807e-01 -2.224597e-01 7.069367e-01 -4.000411e-02 -1.663835e-01
<VARIANCE> 39
 6.590016e+00 1.944058e+01 3.271856e+01 2.928958e+01 1.698607e+01 4.002106e+01 2.173792e+01 1.388108e+01 2.614823e+01 2.092067e+01 1.894279e+01 1.338903e+01 1.606874e+01 6.153657e-01 5.508266e-01 1.415569e+00 9.878322e-01 1.354323e+00 1.598902e+00 1.583581e+00 1.748325e+00 2.306325e+00 1.024350e+00 2.122770e+00 1.301622e+00 1.134397e+00 3.945640e-02 1.629657e-01 2.509716e-01 1.898542e-01 1.438580e-01 3.467993e-01 3.153293e-01 2.098532e-01 2.427087e-01 1.499022e-01 2.588242e-01 1.947330e-01 1.313410e-01
<GCONST> 9.115498e+01
<STATE> 3
<NUMMIXES> 2
<MIXTURE> 1 1.000000e+00
<MEAN> 39
 -1.339678e+01 -1.575152e+01 4.416687e+01 -2.451335e+00 6.193243e+00 3.814352e+01 -3.432166e+00 8.747258e+00 -4.981239e+00 -7.479208e+00 8.124938e+00 2.313908e+00 3.200382e+00 -1.500271e+00 -1.421341e+00 -1.191229e-01 -1.476916e+00 -1.033525e+00 -2.770334e-01 7.256674e-01 1.369267e+00 1.433778e+00 1.633951e+00 9.601350e-01 7.690699e-01 8.845859e-01 3.648010e-01 -1.551216e-01 -3.069945e-01 -4.123215e-02 1.085909e-01 -5.725479e-02 -4.587720e-01 -3.787454e-01 -3.841524e-01 -8.910111e-02 2.470366e-02 -1.264122e-01 1.385871e-01
<VARIANCE> 39
 1.721486e+01 2.345582e+01 1.756160e+01 4.316068e+01 2.682702e+01 2.984353e+01 1.956060e+01 3.507759e+01 3.304522e+01 3.946789e+01 3.280027e+01 1.699729e+01 1.685605e+01 8.065725e-01 8.691865e-01 1.776972e+00 1.596149e+00 1.886861e+00 2.386009e+00 2.140455e+00 2.598753e+00 3.272636e+00 1.570769e+00 1.278054e+00 1.534357e+00 1.576173e+00 9.066658e-02 1.213261e-01 3.301030e-01 2.316691e-01 3.412181e-01 4.279288e-01 2.279470e-01 3.355166e-01 5.585297e-01 3.187869e-01 2.630425e-01 2.484683e-01 2.352483e-01
<GCONST> 1.030442e+02
<MIXTURE> 2 0.000000e+00
<MEAN> 39
 9.548405e+00 2.757985e+00 1.587493e+00 2.546423e+01 2.516029e+01 -1.532878e+00 -2.210041e+01 2.676743e-01 -3.253519e+00 -5.463100e+00 8.693054e+00 -2.583130e+00 -1.410593e+01 1.165624e+00 -1.204195e+00 -1.929883e+00 -1.209229e+00 -1.199724e+00 -1.876355e+00 -1.184111e+00 -1.165375e+00 -1.026490e+00 -1.079515e+00 1.903820e-03 1.041484e+00 2.377080e-01 1.381469e-01 -5.691695e-01 -3.220993e-01 2.302902e-01 -1.282913e-01 -4.383549e-01 2.209661e-01 1.049928e+00 -1.342033e-01 -4.240417e-01 3.025464e-01 2.700545e-02 -1.260652e-01
<VARIANCE> 39
 0.000000e+00 0.000000e+00 -2.273737e-13 0.000000e+00 -2.842171e-14 5.684342e-14 -4.547474e-13 0.000000e+00 0.000000e+00 -3.637979e-12 0.000000e+00 0.000000e+00 -5.684342e-14 -1.421085e-14 1.136868e-13 0.000000e+00 0.000000e+00 0.000000e+00 0.000000e+00 0.000000e+00 0.000000e+00 2.842171e-14 0.000000e+00 0.000000e+00 0.000000e+00 0.000000e+00 0.000000e+00 0.000000e+00 0.000000e+00 -3.552714e-15 0.000000e+00 0.000000e+00 0.000000e+00 0.000000e+00 -7.105427e-15 -7.105427e-15 0.000000e+00 -8.881784e-16 0.000000e+00
<GCONST> -3.600002e+11
<STATE> 4
<NUMMIXES> 2
<MIXTURE> 1 5.973107e-01
<MEAN> 39
 -1.398686e+01 -2.302525e+01 4.036266e+01 -8.039805e+00 4.110059e+00 3.636876e+01 -5.289121e+00 7.535921e+00 -6.733622e+00 -2.300796e+00 1.062506e+01 2.982624e+00 8.183968e+00 2.110147e+00 5.560843e-01 -1.280497e+00 4.739959e-01 1.561428e-01 -7.441611e-01 -7.374882e-01 -1.418097e+00 -7.682009e-01 -3.952825e-01 -9.862906e-01 -7.715163e-01 -9.735364e-02 7.195801e-01 5.305671e-01 -5.340482e-01 4.480955e-01 4.637301e-02 -4.995960e-01 -1.584608e-01 -1.784468e-01 3.869537e-02 -4.349923e-01 -3.278792e-01 -1.318997e-01 -2.879611e-01
<VARIANCE> 39
 3.551421e+01 1.956097e+01 1.641246e+01 4.900509e+01 2.549277e+01 3.071569e+01 2.401078e+01 2.443675e+01 2.997373e+01 2.919199e+01 2.468048e+01 2.071628e+01 1.171331e+01 3.312722e+00 2.832784e+00 2.288412e+00 2.397969e+00 1.702734e+00 3.906123e+00 1.434771e+00 1.418920e+00 2.512705e+00 1.790513e+00 1.498862e+00 1.150111e+00 1.126211e+00 1.162574e-01 2.065965e-01 4.392743e-01 2.564276e-01 3.288859e-01 7.333003e-01 2.752914e-01 3.451475e-01 4.631464e-01 3.545664e-01 2.734497e-01 3.137462e-01 1.955042e-01
<GCONST> 1.065518e+02
<MIXTURE> 2 4.026893e-01
<MEAN> 39
 8.234498e+00 -1.379166e+01 2.150374e+01 1.056220e+00 5.464603e+00 2.257428e+01 -1.205894e+01 1.557883e+00 -8.323003e+00 -1.291234e+01 3.145071e+00 -5.112203e-01 3.746337e+00 4.226590e+00 9.731548e-01 -5.861385e+00 2.119947e+00 9.788634e-01 -4.567677e+00 -1.742652e+00 9.752282e-01 -6.198865e-01 -3.561649e+00 9.209579e-01 4.324045e-01 -1.653752e+00 -4.581322e-01 -3.498625e-01 -1.698431e-01 -4.778343e-02 4.195951e-01 -2.392833e-01 -5.650244e-02 8.722810e-01 -2.792057e-01 -3.356649e-01 1.123032e+00 2.311109e-01 -2.998967e-01
<VARIANCE> 39
 4.218634e+01 7.049617e+00 8.984167e+01 2.718609e+01 1.719463e+01 5.297858e+01 1.586688e+01 1.951244e+01 1.707158e+01 4.241107e+01 2.025341e+01 8.537939e+00 1.346525e+01 1.218640e+00 1.014991e+00 1.224774e+00 8.128024e-01 1.218426e+00 1.310618e+00 7.923878e-01 2.922468e+00 1.350256e+00 1.345397e+00 4.870236e+00 1.045823e+00 1.042876e+00 2.608779e-01 1.196748e-01 7.014896e-01 2.391240e-01 1.252110e-01 2.515672e-01 1.585251e-01 2.054476e-01 2.032929e-01 3.864683e-01 2.260704e-01 2.077424e-01 1.399702e-01
<GCONST> 9.614069e+01
<TRANSP> 5
 0.000000e+00 1.000000e+00 0.000000e+00 0.000000e+00 0.000000e+00
 0.000000e+00 8.642167e-01 1.357833e-01 0.000000e+00 0.000000e+00
 0.000000e+00 0.000000e+00 8.306928e-01 1.693072e-01 0.000000e+00
 0.000000e+00 0.000000e+00 0.000000e+00 9.104193e-01 8.958066e-02
 0.000000e+00 0.000000e+00 0.000000e+00 0.000000e+00 0.000000e+00
<ENDHMM>
~h "aa"
<BEGINHMM>
<NUMSTATES> 7
<STATE> 2
<NUMMIXES> 2
<MIXTURE> 1 5.847148e-01
<MEAN> 39
 2.263863e+01 -1.285380e+01 -1.518749e+01 4.666544e+00 1.192392e+01 -1.009766e+01 -1.871129e+01 1.911876e+01 -4.696194e+00 -1.814569e+01 1.563822e+01 5.900987e+00 2.104659e-01 -7.540373e-03 -8.344984e-02 -7.136366e-01 -5.529968e-01 -6.049734e-01 -4.999894e-01 5.113967e-01 4.685459e-01 1.006122e+00 7.628393e-01 -5.174491e-01 3.251681e-02 3.124877e-01 -1.145144e-01 9.128816e-02 1.592657e-01 1.032417e-01 -6.868168e-02 1.368220e-01 1.654460e-01 -1.907617e-01 6.258685e-02 1.342009e-01 -2.384671e-01 -9.532326e-02 -3.268695e-02
<VARIANCE> 39
 8.120930e+00 7.702298e+00 2.115418e+01 2.734650e+01 2.223440e+01 2.082642e+01 3.487248e+01 6.525733e+01 2.761656e+01 3.071812e+01 4.125066e+01 1.928196e+01 1.895685e+01 6.558354e-01 3.687657e-01 6.991916e-01 7.239463e-01 5.555288e-01 5.681738e-01 1.311208e+00 2.188989e+00 8.351936e-01 1.063801e+00 1.733191e+00 8.751751e-01 5.865713e-01 1.067727e-01 6.751345e-02 9.435333e-02 8.887456e-02 8.819807e-02 9.728901e-02 1.998066e-01 2.833954e-01 1.047464e-01 1.839634e-01 2.351180e-01 1.278113e-01 8.112077e-02
<GCONST> 8.266240e+01
<MIXTURE> 2 4.152850e-01
<MEAN> 39
 2.120399e+01 -7.800345e+00 -9.752201e+00 7.143280e+00 6.565496e+00 -8.671299e+00 -1.266799e+01 1.698519e+01 -2.494592e+00 -1.534823e+01 8.505190e+00 2.821865e+00 -8.020879e-02 1.598554e+00 -9.611553e-01 -2.403125e+00 -5.855958e-01 2.225048e-02 -2.556138e+00 -1.359406e+00 1.857296e+00 2.079202e-01 -1.208283e+00 1.064094e+00 9.124132e-01 -1.134157e-01 -6.341606e-01 -1.602473e-02 3.407301e-01 -1.071093e-01 -4.817268e-02 5.812821e-01 4.062058e-01 -2.040998e-01 3.089341e-01 5.482017e-01 -2.677361e-01 -1.655199e-01 1.742755e-01
<VARIANCE> 39
 1.672044e+01 3.035079e+01 3.683041e+01 3.339231e+01 5.907613e+01 8.001460e+01 5.631371e+01 6.877306e+01 9.348864e+01 5.321748e+01 8.402264e+01 1.922882e+01 2.148184e+01 1.946046e+00 1.348982e+00 2.191880e+00 2.004677e+00 2.698250e+00 3.222815e+00 2.508079e+00 2.964136e+00 1.869958e+00 2.518558e+00 2.256635e+00 1.422387e+00 1.137259e+00 2.506670e-01 2.667259e-01 4.090774e-01 4.022188e-01 3.871152e-01 3.857920e-01 3.530941e-01 5.170054e-01 2.928045e-01 3.812770e-01 3.931434e-01 2.157443e-01 1.716256e-01
<GCONST> 1.156357e+02
<STATE> 3
<NUMMIXES> 2
<MIXTURE> 1 1.740197e-03
<MEAN> 39
 2.251042e+01 -1.020816e+01 -1.105798e+01 7.723111e+00 -7.784190e+00 -1.974906e+01 2.970561e+00 3.087547e+01 4.596062e+00 -1.703563e+01 9.014152e-01 5.129697e+00 -4.136965e+00 1.769544e-02 -3.856333e-01 -1.168785e-01 2.224824e-02 2.318369e-01 2.494168e-01 2.756173e-01 -1.818145e-01 -2.359376e-01 1.426699e-01 2.223700e-02 -2.191124e-01 -1.508567e-02 -3.692028e-02 4.713568e-02 7.506441e-03 -3.818242e-02 1.092421e-01 -1.043611e-01 -1.283997e-01 7.491773e-02 1.657064e-02 -1.568052e-02 2.618287e-02 3.954823e-02 -3.556649e-02
<VARIANCE> 39
 9.819756e+00 4.638004e+00 1.119820e+00 3.452089e+00 1.371666e+00 1.351404e+00 1.629215e+00 4.260243e+00 2.165390e+00 1.116571e+00 4.372244e+00 2.817938e+00 1.305749e-01 6.131458e-01 2.085365e-01 1.168493e-01 2.282428e-01 1.138320e-01 2.389228e-01 9.193969e-02 2.784078e-01 8.463947e-02 1.001284e-01 3.022393e-01 2.024958e-01 2.881898e-02 7.434491e-02 3.365091e-02 1.727308e-02 2.839728e-02 1.189167e-02 2.209786e-02 4.178738e-02 3.442479e-02 3.827616e-03 1.837564e-02 4.332089e-02 2.649960e-02 1.395805e-02
<GCONST> 7.696209e+00
<MIXTURE> 2 9.982597e-01
<MEAN> 39
 2.114725e+01 -9.699189e+00 -1.630923e+01 3.842486e+00 4.605650e+00 -1.342683e+01 -1.227746e+01 2.091018e+01 6.151101e+00 -1.076865e+01 5.140152e+00 3.912339e+00 2.605062e+00 -1.741584e-01 -5.256915e-03 -1.764565e-01 -1.455081e-01 -4.152320e-01 -2.170248e-01 4.793030e-01 2.188625e-01 6.019309e-01 5.046232e-01 -4.265228e-01 -6.789301e-02 7.037321e-02 -3.420384e-03 2.225533e-02 1.145471e-01 3.345439e-02 6.316193e-02 1.238832e-01 1.718220e-03 -8.287163e-03 -1.586216e-01 -7.289638e-02 1.011441e-01 -4.891209e-02 -3.362475e-02
<VARIANCE> 39
 1.408411e+01 1.791833e+01 3.130615e+01 1.704649e+01 3.151257e+01 4.661227e+01 4.253361e+01 7.249020e+01 4.323938e+01 3.864961e+01 5.110921e+01 2.478155e+01 1.904082e+01 1.113283e+00 8.785321e-01 1.154030e+00 8.606270e-01 9.819423e-01 1.094091e+00 1.738311e+00 2.451167e+00 1.235841e+00 1.557523e+00 2.129191e+00 1.014693e+00 7.121632e-01 2.164759e-01 1.308350e-01 1.961516e-01 1.477958e-01 1.517493e-01 2.121632e-01 2.893401e-01 4.114591e-01 1.665328e-01 2.644148e-01 3.250428e-01 1.723227e-01 1.217944e-01
<GCONST> 9.812428e+01
<STATE> 4
<NUMMIXES> 2
<MIXTURE> 1 3.236842e-01
<MEAN> 39
 -1.189984e+00 -2.894002e+00 -8.628482e+00 -1.419448e+00 -2.369766e+00 -1.645528e+00 1.249452e+00 1.532209e+01 5.414445e+00 -1.528899e+00 4.355454e+00 4.732751e+00 4.747851e+00 -4.344652e-01 -1.017611e-01 7.722964e-02 -5.009373e-02 1.411071e-02 2.003681e-01 1.435161e-01 -6.032614e-02 -1.450267e-01 1.694500e-02 -6.865367e-03 -1.870852e-01 -1.332277e-01 8.641105e-02 -6.994673e-02 -2.935616e-02 4.405344e-02 7.686905e-02 -3.402741e-02 -1.112941e-01 3.601922e-02 -6.896952e-02 -9.027508e-02 8.004428e-02 -1.925930e-02 -4.643703e-02
<VARIANCE> 39
 3.269345e+02 3.865452e+01 3.640574e+01 3.399575e+01 6.816073e+01 1.249062e+02 1.112651e+02 1.471802e+02 6.908865e+01 4.464217e+01 4.326179e+01 4.803530e+01 3.374585e+01 2.733732e+00 1.090391e+00 1.297413e+00 1.428116e+00 2.044573e+00 2.732947e+00 3.316187e+00 3.225551e+00 2.013856e+00 1.933158e+00 1.806690e+00 1.517498e+00 1.217228e+00 1.817760e-01 1.264281e-01 1.678909e-01 2.112694e-01 2.699905e-01 3.262001e-01 3.840823e-01 4.339034e-01 3.068800e-01 3.200236e-01 3.127646e-01 2.522536e-01 1.996205e-01
<GCONST> 1.167463e+02
<MIXTURE> 2 6.763150e-01
<MEAN> 39
 2.283988e+01 -1.116031e+01 -1.780068e+01 4.714718e+00 -3.838430e-01 -1.923180e+01 -8.464594e+00 2.580549e+01 1.050072e+01 -1.003742e+01 9.772817e-01 1.753809e+00 -1.094949e-01 3.829880e-03 -1.129376e-01 -2.425553e-02 -3.912446e-02 2.885529e-03 1.172042e-01 1.291681e-01 -1.630985e-02 -1.518781e-01 3.077221e-02 1.125895e-01 -6.778487e-02 7.144188e-03 -2.157854e-02 5.435303e-02 7.825071e-02 -3.294104e-03 3.447262e-02 6.420430e-02 -3.537750e-02 -3.028045e-02 -9.350546e-02 -3.115476e-02 7.485593e-02 -1.134860e-02 2.618319e-03
<VARIANCE> 39
 1.075803e+01 1.171469e+01 1.636479e+01 1.070139e+01 1.881767e+01 2.541217e+01 2.657494e+01 3.105987e+01 2.766928e+01 2.205892e+01 2.842036e+01 1.036666e+01 1.119956e+01 9.627506e-01 5.287724e-01 5.730004e-01 5.281258e-01 4.966316e-01 5.507506e-01 7.317574e-01 1.231367e+00 6.906503e-01 6.542127e-01 1.167409e+00 4.676429e-01 3.233250e-01 1.447896e-01 6.545723e-02 7.691005e-02 8.229837e-02 6.111735e-02 7.003358e-02 1.068453e-01 1.717088e-01 7.068612e-02 1.041631e-01 1.587192e-01 6.849632e-02 5.030541e-02
<GCONST> 7.168494e+01
<STATE> 5
<NUMMIXES> 2
<MIXTURE> 1 9.146729e-01
<MEAN> 39
 2.283777e+01 -1.276795e+01 -1.720126e+01 3.201623e+00 6.249113e+00 -1.169789e+01 -1.176469e+01 2.071615e+01 1.683166e-01 -1.167888e+01 1.042323e+01 2.614198e+00 1.289827e+00 7.654041e-03 1.168971e-01 3.438726e-01 1.536717e-02 4.886776e-01 5.193167e-01 -3.828098e-01 -3.489813e-01 -8.539290e-01 -2.178864e-01 7.851824e-01 2.313618e-03 3.763753e-03 -6.770929e-02 1.143343e-01 1.010165e-01 4.268261e-02 2.529912e-02 8.228145e-02 -1.685699e-04 -1.230057e-01 2.222172e-03 2.617607e-02 -5.044663e-02 -1.606811e-03 -1.935153e-02
<VARIANCE> 39
 8.165261e+00 1.078461e+01 2.019362e+01 1.496345e+01 2.968679e+01 2.077402e+01 3.377058e+01 5.915299e+01 3.874741e+01 3.060106e+01 4.077448e+01 2.780844e+01 1.629841e+01 7.039188e-01 5.141330e-01 5.878568e-01 6.328179e-01 7.901977e-01 6.316534e-01 1.253481e+00 1.946814e+00 9.507923e-01 9.276807e-01 1.793229e+00 8.381191e-01 4.673491e-01 1.043757e-01 6.204380e-02 8.576275e-02 9.236625e-02 7.692518e-02 9.064586e-02 1.490691e-01 2.314897e-01 1.063276e-01 1.290534e-01 2.174173e-01 1.185109e-01 6.710694e-02
<GCONST> 8.164707e+01
<MIXTURE> 2 8.532692e-02
<MEAN> 39
 2.876405e+00 -6.213280e+00 2.159950e-01 8.298531e+00 1.014693e+01 4.746023e+00 -8.402871e+00 7.873909e+00 -2.996928e+00 -8.076781e+00 7.360680e+00 1.144263e+00 -9.400486e-01 9.242828e-02 4.709647e-02 2.582588e-01 2.021720e-01 1.502684e-01 -1.890414e-02 -1.459779e-01 1.626650e-01 -1.933772e-01 -1.308788e-01 2.079987e-01 -1.048645e-01 -1.747200e-01 1.044697e-01 -5.521436e-02 -1.031596e-02 4.416273e-03 4.659473e-02 -1.207960e-02 -4.844503e-02 1.194944e-01 -7.124716e-03 -4.714917e-02 6.862982e-02 -1.916934e-02 -1.456048e-02
<VARIANCE> 39
 2.766118e+02 1.928637e+02 1.816644e+02 1.242263e+02 1.054217e+02 1.171669e+02 1.230263e+02 8.290185e+01 6.056513e+01 9.415815e+01 1.010360e+02 3.249972e+01 6.229163e+01 4.502569e+00 3.948283e+00 3.630134e+00 2.582358e+00 2.462764e+00 3.753918e+00 4.272093e+00 3.457986e+00 2.459902e+00 3.495204e+00 4.091489e+00 1.688910e+00 2.059517e+00 4.838340e-01 4.512339e-01 4.427514e-01 2.902004e-01 2.994518e-01 4.309851e-01 5.951415e-01 5.390874e-01 4.054218e-01 5.388790e-01 5.995039e-01 3.030049e-01 2.597958e-01
<GCONST> 1.356221e+02
<STATE> 6
<NUMMIXES> 2
<MIXTURE> 1 5.958988e-01
<MEAN> 39
 2.116282e+01 -1.122590e+01 -1.106855e+01 4.461784e+00 1.275472e+01 -7.705464e+00 -1.872489e+01 1.955301e+01 -7.393293e+00 -1.710368e+01 1.852782e+01 2.452199e+00 -1.616186e+00 -2.020134e-01 4.288948e-01 6.212989e-01 6.490170e-01 6.853765e-01 6.857375e-01 -3.117828e-01 -9.769692e-01 -6.840101e-01 -2.303806e-01 2.597795e-01 -1.002202e-01 -5.799462e-01 -1.100819e-01 1.389142e-01 7.344024e-02 1.247783e-01 -1.829386e-02 1.046494e-01 2.063849e-01 -1.716055e-01 1.741594e-01 1.150370e-01 -3.395881e-01 -8.287341e-04 -3.072346e-02
<VARIANCE> 39
 8.163120e+00 1.543019e+01 2.534839e+01 4.820925e+01 6.374113e+01 2.705474e+01 8.228754e+01 9.488329e+01 5.266967e+01 3.997266e+01 5.419742e+01 3.563902e+01 3.684555e+01 6.298293e-01 6.728165e-01 9.310138e-01 1.020440e+00 1.192522e+00 1.154554e+00 2.264252e+00 2.985151e+00 1.323758e+00 1.499017e+00 2.910194e+00 1.096242e+00 1.023892e+00 1.110750e-01 8.721565e-02 1.415042e-01 1.399184e-01 1.373780e-01 1.613423e-01 3.018128e-01 4.286300e-01 2.044317e-01 2.544824e-01 3.662247e-01 1.810223e-01 1.368565e-01
<GCONST> 9.997997e+01
<MIXTURE> 2 4.041010e-01
<MEAN> 39
 1.711989e+01 -1.358230e+00 -7.466713e+00 6.330882e+00 6.058754e+00 -4.013098e+00 -6.265403e+00 1.419092e+01 -3.930949e-01 -9.658864e+00 4.633111e+00 1.280305e+00 4.652034e-01 -1.816533e+00 2.111661e+00 2.107275e+00 5.106267e-01 1.770567e-01 2.045510e+00 1.452609e+00 -1.257739e+00 7.437099e-01 1.219523e+00 -1.802892e+00 -2.143164e-01 4.967428e-01 -2.805462e-01 -2.238906e-02 2.500468e-01 -3.902516e-02 -1.277681e-02 1.695910e-01 1.047741e-01 9.299176e-02 1.063917e-02 8.985107e-02 4.754728e-02 -4.657479e-02 6.285511e-02
<VARIANCE> 39
 5.723808e+01 4.046044e+01 4.463727e+01 2.898160e+01 6.222209e+01 8.796964e+01 4.710803e+01 8.020618e+01 8.385268e+01 4.802882e+01 7.880701e+01 2.349144e+01 2.788187e+01 1.216572e+00 1.164506e+00 1.677010e+00 1.873405e+00 1.376055e+00 2.072726e+00 2.154679e+00 2.489390e+00 1.697033e+00 1.910699e+00 2.831721e+00 1.376185e+00 1.206299e+00 1.709266e-01 2.224166e-01 2.979203e-01 2.051829e-01 2.328638e-01 3.372497e-01 3.142833e-01 3.326860e-01 3.384324e-01 3.136550e-01 4.100649e-01 2.006861e-01 1.867494e-01
<GCONST> 1.122471e+02
<TRANSP> 7
 0.000000e+00 1.000000e+00 0.000000e+00 0.000000e+00 0.000000e+00 0.000000e+00 0.000000e+00
 0.000000e+00 8.424655e-01 1.575345e-01 0.000000e+00 0.000000e+00 0.000000e+00 0.000000e+00
 0.000000e+00 0.000000e+00 7.847815e-01 2.152185e-01 0.000000e+00 0.000000e+00 0.000000e+00
 0.000000e+00 0.000000e+00 0.000000e+00 9.086093e-01 9.139064e-02 0.000000e+00 0.000000e+00
 0.000000e+00 0.000000e+00 0.000000e+00 0.000000e+00 8.324622e-01 1.675378e-01 0.000000e+00
 0.000000e+00 0.000000e+00 0.000000e+00 0.000000e+00 0.000000e+00 8.479505e-01 1.520495e-01
 0.000000e+00 0.000000e+00 0.000000e+00 0.000000e+00 0.000000e+00 0.000000e+00 0.000000e+00
<ENDHMM>
~h "ax"
<BEGINHMM>
<NUMSTATES> 7
<STATE> 2
<NUMMIXES> 2
<MIXTURE> 1 6.505572e-01
<MEAN> 39
 4.893292e-01 4.959527e-02 1.042901e+00 3.781391e+00 -4.581015e+00 -4.040812e+00 -2.296784e-01 1.716448e+01 6.380817e+00 -2.969577e+00 1.858343e+00 8.971487e-01 3.914485e+00 3.653277e+00 1.939511e-01 -3.920181e-01 8.494038e-01 -4.840059e-01 -2.363164e+00 -9.155074e-01 1.256370e+00 4.928542e-01 -9.313830e-01 -1.771573e-01 -1.126654e-01 -5.809392e-01 1.471787e-01 -3.473861e-01 -4.293688e-01 -6.696645e-01 -6.564177e-01 -5.328094e-01 -3.468716e-01 2.040768e-01 -3.345776e-01 -4.885128e-01 2.443399e-01 -2.675451e-01 -5.312501e-01
<VARIANCE> 39
 1.443529e+02 9.612041e+00 1.263240e+01 1.933614e+01 4.874646e+01 1.137163e+02 7.254871e+01 3.381329e+01 2.440961e+01 3.582307e+01 1.700990e+01 3.255442e+01 2.432733e+01 1.406989e+00 9.664370e-01 1.991738e+00 7.765544e+00 1.028043e+01 5.239195e+00 4.511581e+00 6.600727e+00 2.850254e+00 3.382094e+00 2.508874e+00 3.781823e+00 3.303536e+00 1.294552e-01 1.427300e-01 2.182996e-01 4.556260e-01 6.497577e-01 5.437572e-01 3.736622e-01 5.345269e-01 3.134632e-01 4.236913e-01 4.413898e-01 4.809583e-01 4.681501e-01
<GCONST> 1.199772e+02
<MIXTURE> 2 3.494428e-01
<MEAN> 39
 1.162336e+01 -2.197020e+00 -5.075644e-01 -7.555170e+00 -1.639381e+01 -4.279484e+00 3.972289e+00 2.824980e+01 9.015071e-01 -1.340324e+01 6.754174e+00 -6.371503e+00 -2.236773e+00 2.499968e+00 5.451079e-02 4.136416e-01 8.263050e-01 9.895661e-02 -1.007530e+00 -6.535554e-01 4.491669e-01 3.958567e-01 -3.828106e-01 -4.589464e-01 -9.843576e-01 -8.663737e-01 -6.520215e-01 5.331119e-02 -3.221231e-02 1.542465e+00 1.614883e+00 6.968968e-03 -5.310150e-01 -1.242412e+00 5.013275e-01 9.024056e-01 -6.079060e-01 6.925743e-01 4.642022e-01
<VARIANCE> 39
 1.522517e+01 1.478045e+01 1.294235e+01 3.406494e+01 7.920653e+01 3.644380e+01 5.098692e+01 4.484029e+01 3.993744e+01 6.400323e+01 2.866276e+01 2.285290e+01 1.523796e+01 2.716066e+00 6.324188e-01 8.086975e-01 1.059374e+01 1.122083e+01 2.276844e+00 2.117361e+00 9.207683e+00 3.975048e+00 7.901556e+00 3.800276e+00 2.267065e+00 1.987831e+00 2.539634e-01 1.100614e-01 2.737834e-01 6.167064e-01 6.661555e-01 6.552719e-01 4.243382e-01 7.028026e-01 6.057957e-01 8.484340e-01 4.971488e-01 3.164653e-01 2.590881e-01
<GCONST> 1.198663e+02
<STATE> 3
<NUMMIXES> 2
<MIXTURE> 1 8.926199e-01
<MEAN> 39
 2.081749e+01 -1.800539e+00 -3.645258e+00 1.097735e+01 -4.712731e+00 -2.530208e+01 -1.481361e+01 2.264701e+01 1.077688e+01 -1.031482e+01 -1.293872e-01 1.966285e+00 -1.244542e+00 1.181706e+00 -7.707119e-01 -1.520072e+00 4.595519e-01 5.864979e-01 -2.179839e+00 -1.660417e+00 8.007749e-01 8.075837e-01 -5.234314e-01 2.489760e-01 7.070304e-01 -5.698701e-01 -4.182186e-01 -5.479240e-02 7.117355e-02 -4.648997e-01 -1.576079e-01 5.522777e-01 3.603583e-01 4.769286e-02 -1.885814e-02 1.609474e-01 1.258004e-01 -9.909678e-02 1.028572e-01
<VARIANCE> 39
 9.348004e+00 2.043739e+01 2.745836e+01 9.709486e+00 3.840200e+01 1.143774e+02 4.392334e+01 3.309712e+01 5.079274e+01 3.074069e+01 1.843398e+01 2.679111e+01 1.900882e+01 1.588035e+00 5.526696e-01 1.518887e+00 1.259713e+00 1.607295e+00 4.903163e+00 2.331594e+00 2.600123e+00 9.126014e-01 2.032401e+00 1.367821e+00 1.384292e+00 1.026219e+00 2.275152e-01 1.604032e-01 1.806768e-01 3.159570e-01 3.829110e-01 5.669956e-01 2.947466e-01 6.228025e-01 2.268725e-01 4.187517e-01 2.451508e-01 2.005013e-01 1.811274e-01
<GCONST> 1.038809e+02
<MIXTURE> 2 1.073800e-01
<MEAN> 39
 2.150290e+01 -9.688240e+00 -1.137204e+01 6.693090e+00 7.075223e+00 -1.743158e+01 -1.972328e+01 2.071928e+01 -5.382234e-01 -2.304622e+01 4.900863e+00 2.998040e+00 -1.655957e+00 1.725895e-01 3.553018e-01 -9.008526e-01 -6.514797e-01 -1.622247e+00 -1.392126e+00 1.008986e+00 3.253638e-01 2.028399e+00 1.648660e+00 -1.496560e+00 4.004767e-02 6.100795e-02 7.569722e-02 2.440067e-02 1.026132e-01 2.349135e-01 1.022356e-01 -2.675125e-02 -1.864914e-01 -3.049037e-02 -6.029709e-02 2.266430e-03 1.300686e-01 3.478875e-02 -4.786471e-02
<VARIANCE> 39
 9.358939e+00 2.724719e+00 1.370574e+01 5.373404e+00 1.657557e+01 1.133976e+01 2.227772e+01 3.133295e+01 3.960068e+01 2.463169e+01 3.931134e+01 1.365745e+01 3.667518e+00 6.518354e-01 1.764124e-01 2.553380e-01 6.359992e-01 6.353406e-01 2.181879e-01 9.693488e-01 2.250088e+00 2.486577e-01 1.090112e+00 1.271771e+00 3.918297e-01 2.994673e-01 1.124641e-01 3.490046e-02 3.652252e-02 9.491522e-02 1.551388e-01 6.437417e-02 1.813969e-01 3.483947e-01 5.480652e-02 2.595828e-01 2.408192e-01 6.195022e-02 7.229543e-02
<GCONST> 6.742576e+01
<STATE> 4
<NUMMIXES> 2
<MIXTURE> 1 5.697418e-01
<MEAN> 39
 2.160272e+01 -6.213231e+00 -1.258426e+01 6.895697e+00 -1.871585e+00 -2.663108e+01 -1.753793e+01 2.065841e+01 1.544925e+01 -6.860675e+00 -1.116637e+00 3.753170e+00 -2.135135e+00 -5.594415e-02 -5.914689e-02 -2.753673e-01 -3.156957e-01 -2.743471e-02 -1.188587e-02 -1.216481e-02 -9.938080e-03 3.741210e-01 3.471426e-01 -8.438403e-02 2.497171e-02 -3.943833e-03 1.677777e-01 -1.630177e-02 -2.066330e-02 7.984234e-02 1.008506e-01 1.105085e-01 -2.943762e-02 1.761951e-01 -1.770250e-01 -2.034228e-01 1.698454e-01 -9.273031e-02 -7.385381e-02
<VARIANCE> 39
 7.321201e+00 4.750167e+00 9.419817e+00 6.816719e+00 6.535086e+00 2.246054e+01 2.526117e+01 1.174399e+01 1.529712e+01 9.632121e+00 1.464580e+01 3.906668e+00 8.957758e+00 8.502572e-01 2.739466e-01 5.711876e-01 3.995170e-01 4.995367e-01 8.119726e-01 8.059016e-01 1.226715e+00 6.827036e-01 8.719826e-01 8.185511e-01 3.435612e-01 3.290665e-01 1.141933e-01 3.749328e-02 5.749333e-02 4.929994e-02 5.795379e-02 5.259732e-02 8.326262e-02 1.016337e-01 4.002621e-02 9.179930e-02 7.061426e-02 5.111114e-02 3.654981e-02
<GCONST> 5.813043e+01
<MIXTURE> 2 4.302583e-01
<MEAN> 39
 2.569934e+01 -7.213151e+00 -1.423769e+01 8.632750e+00 8.323324e-01 -2.487178e+01 -1.798616e+01 2.571093e+01 1.183873e+01 -1.142712e+01 4.289183e+00 2.961137e+00 -5.177649e+00 5.584025e-02 -5.839646e-02 -5.627025e-01 -3.657908e-01 -1.075887e-02 -4.160630e-01 -2.358378e-01 2.564512e-01 6.764200e-01 3.483067e-01 -1.454368e-03 2.105174e-01 2.749246e-02 -4.118601e-01 2.079016e-01 3.200743e-01 -1.715572e-01 -1.981417e-01 3.135091e-01 3.839605e-01 -4.228663e-01 1.695496e-02 2.819182e-01 -3.403390e-01 -3.701941e-02 1.889036e-01
<VARIANCE> 39
 4.414630e+00 4.954969e+00 2.071172e+01 9.397828e+00 1.268064e+01 3.037723e+01 2.479339e+01 1.672716e+01 1.892570e+01 1.354446e+01 1.710891e+01 7.800823e+00 9.754595e+00 1.120894e+00 3.740982e-01 6.290825e-01 4.812405e-01 4.991823e-01 9.036117e-01 9.557336e-01 1.335264e+00 7.200387e-01 9.776852e-01 1.050777e+00 5.503573e-01 3.427117e-01 7.273824e-02 3.431217e-02 6.945662e-02 7.141837e-02 6.338631e-02 7.741075e-02 1.019993e-01 1.034888e-01 6.726833e-02 9.517019e-02 1.025659e-01 8.825273e-02 5.025262e-02
<GCONST> 6.623306e+01
<STATE> 5
<NUMMIXES> 2
<MIXTURE> 1 1.000000e+00
<MEAN> 39
 2.292760e+01 -4.443330e+00 -1.320349e+01 3.883201e+00 -1.552434e+00 -2.184461e+01 -1.370148e+01 2.354938e+01 1.338084e+01 -8.060781e+00 3.818222e+00 5.835979e+00 -5.737469e+00 -2.511563e-02 4.866988e-01 3.797350e-01 6.221084e-02 -1.548648e-01 1.255306e-01 1.585754e-01 -1.162342e-01 -3.728877e-01 -1.696278e-01 2.701434e-01 4.056764e-01 -1.089810e-01 7.385606e-03 3.571014e-02 9.104170e-02 1.163128e-01 6.854424e-02 2.581117e-02 -1.240405e-02 -1.970891e-02 -8.845370e-02 -4.122765e-02 3.037674e-02 -2.114066e-02 -2.024287e-02
<VARIANCE> 39
 1.021283e+01 8.599065e+00 1.892482e+01 1.019610e+01 1.076811e+01 1.436615e+01 1.615737e+01 2.317767e+01 9.321819e+00 1.964221e+01 2.115700e+01 1.655946e+01 1.272072e+01 8.526117e-01 3.282742e-01 6.545401e-01 6.590575e-01 6.260535e-01 5.796685e-01 8.016056e-01 1.403525e+00 4.559304e-01 9.342450e-01 9.059367e-01 5.922803e-01 3.495402e-01 1.366820e-01 4.758037e-02 9.179436e-02 8.394487e-02 8.776052e-02 1.001106e-01 1.306373e-01 2.572194e-01 6.401511e-02 1.571885e-01 1.654638e-01 9.832459e-02 5.755756e-02
<GCONST> 7.085579e+01
<MIXTURE> 2 0.000000e+00
<MEAN> 39
 1.119059e+01 -4.808588e+00 6.214535e+00 4.253802e+01 2.260891e+01 -6.490248e+00 2.908465e+00 2.406875e+01 -1.033914e+01 -3.074433e+01 -5.919907e+00 6.651780e+00 -6.246915e-01 4.878255e-01 -1.567278e-01 -7.306920e-01 1.380102e+00 1.263041e-01 2.232395e-01 -4.475294e-01 -5.557755e-01 -1.904007e+00 -1.556017e+00 -7.721537e-01 8.257344e-01 1.931070e+00 -4.282951e-02 -5.212294e-01 2.761172e-01 -9.230186e-02 4.349045e-01 2.158295e-01 -5.826901e-01 6.262137e-02 -1.602444e-02 -8.146049e-02 3.025547e-01 -2.047906e-01 -2.837473e-01
<VARIANCE> 39
 0.000000e+00 1.907349e-06 0.000000e+00 0.000000e+00 0.000000e+00 -9.313226e-10 -1.525879e-05 1.907349e-06 0.000000e+00 1.907349e-06 0.000000e+00 0.000000e+00 0.000000e+00 -7.450581e-09 -1.490116e-08 -4.656613e-10 -5.960464e-08 -5.960464e-08 0.000000e+00 -3.725290e-09 0.000000e+00 -2.384186e-07 2.980232e-08 0.000000e+00 -2.980232e-08 0.000000e+00 0.000000e+00 0.000000e+00 -9.313226e-10 -5.820766e-11 0.000000e+00 0.000000e+00 0.000000e+00 -1.862645e-09 -2.328306e-10 0.000000e+00 -3.725290e-09 9.313226e-10 0.000000e+00
<GCONST> -3.400001e+11
<STATE> 6
<NUMMIXES> 2
<MIXTURE> 1 5.468491e-01
<MEAN> 39
 2.150449e+01 -2.140638e+00 -7.462911e+00 7.159253e+00 -2.272698e+00 -2.348666e+01 -1.494869e+01 2.478264e+01 1.096018e+01 -1.149811e+01 2.095374e+00 3.489993e+00 -2.816068e+00 -4.426101e-01 5.296313e-01 7.892252e-01 1.746108e-01 8.858995e-01 1.825329e+00 7.986133e-01 -6.122115e-01 -9.529093e-01 -1.605906e-01 -6.352293e-02 -5.203859e-01 -1.548629e-01 -1.550734e-01 1.939696e-02 1.403112e-01 1.441236e-01 1.929454e-01 2.928417e-01 1.415698e-01 -6.110397e-02 -7.028045e-02 -2.276031e-02 -8.836442e-02 -1.065665e-01 -5.158504e-02
<VARIANCE> 39
 1.284471e+01 2.807642e+01 4.364679e+01 1.977088e+01 4.822648e+01 8.908952e+01 3.078969e+01 7.599743e+01 3.260898e+01 5.187325e+01 3.783905e+01 3.340954e+01 2.970481e+01 1.696567e+00 1.148074e+00 1.479051e+00 1.749921e+00 1.318288e+00 2.242074e+00 1.266544e+00 2.751667e+00 1.164521e+00 2.165149e+00 1.747448e+00 9.795866e-01 5.018668e-01 2.486095e-01 1.854226e-01 1.446070e-01 1.559078e-01 1.607026e-01 2.227589e-01 1.991278e-01 3.889976e-01 1.127479e-01 2.407207e-01 2.553073e-01 2.060847e-01 9.314268e-02
<GCONST> 1.014564e+02
<MIXTURE> 2 4.531509e-01
<MEAN> 39
 1.733981e+01 2.442520e+00 1.139147e+00 1.841114e+01 8.459945e+00 -1.190193e+01 -7.565602e+00 2.077680e+01 2.394983e+00 -1.440334e+01 1.622350e+00 3.863301e-01 -1.006104e+01 -6.912501e-01 2.176822e-01 1.018812e+00 1.696123e+00 1.427789e+00 1.001316e+00 5.991018e-01 -4.764099e-02 -5.516412e-01 -6.228691e-01 -6.923555e-01 -8.425792e-01 -5.377418e-01 9.683559e-02 -4.858623e-02 -1.196555e-01 -2.117610e-01 -2.005331e-01 -2.202907e-01 -1.478037e-01 3.815128e-02 1.177470e-01 2.282722e-02 6.823023e-02 1.530205e-01 1.088638e-01
<VARIANCE> 39
 7.589525e+00 1.635310e+01 3.329211e+01 5.354412e+01 3.400021e+01 3.819152e+01 1.583049e+01 3.967326e+01 3.789182e+01 4.403548e+01 5.034114e+01 2.214850e+01 2.866497e+01 4.422427e-01 1.060351e+00 9.524627e-01 1.623766e+00 1.155904e+00 1.404406e+00 1.348340e+00 2.125946e+00 1.598914e+00 2.354379e+00 1.849660e+00 1.586041e+00 1.063628e+00 5.345903e-02 1.087545e-01 1.174846e-01 2.021362e-01 1.702391e-01 2.285729e-01 1.786383e-01 3.256991e-01 2.496830e-01 3.476723e-01 2.821453e-01 1.721600e-01 1.654794e-01
<GCONST> 9.682166e+01
<TRANSP> 7
 0.000000e+00 1.000000e+00 0.000000e+00 0.000000e+00 0.000000e+00 0.000000e+00 0.000000e+00
 0.000000e+00 8.543958e-01 1.456042e-01 0.000000e+00 0.000000e+00 0.000000e+00 0.000000e+00
 0.000000e+00 0.000000e+00 8.012741e-01 1.987259e-01 0.000000e+00 0.000000e+00 0.000000e+00
 0.000000e+00 0.000000e+00 0.000000e+00 9.025597e-01 9.744025e-02 0.000000e+00 0.000000e+00
 0.000000e+00 0.000000e+00 0.000000e+00 0.000000e+00 8.537675e-01 1.462325e-01 0.000000e+00
 0.000000e+00 0.000000e+00 0.000000e+00 0.000000e+00 0.000000e+00 9.045958e-01 9.540419e-02
 0.000000e+00 0.000000e+00 0.000000e+00 0.000000e+00 0.000000e+00 0.000000e+00 0.000000e+00
<ENDHMM>
~h "bh"
<BEGINHMM>
<NUMSTATES> 5
<STATE> 2
<NUMMIXES> 2
<MIXTURE> 1 5.000000e-01
<MEAN> 39
 9.478835e+00 1.534644e+01 9.988152e+00 1.582679e+01 1.093885e+01 4.470878e+00 1.756767e+00 1.383600e+01 1.977648e+00 -1.116380e+01 -9.076091e+00 -4.199082e+00 -2.491289e+00 -1.164563e+00 1.867168e+00 2.200224e+00 3.964194e-01 2.035292e-01 1.863561e+00 1.216211e+00 -9.787512e-01 -6.585168e-01 9.852327e-01 3.356456e-01 -5.638567e-01 -4.848145e-01 1.787613e-01 -5.725131e-01 -4.226771e-01 -8.233477e-02 5.697365e-02 -1.923549e-01 -2.549954e-01 -6.312945e-02 -1.026527e-01 -5.930227e-02 3.097751e-01 1.392047e-01 -1.023603e-01
<VARIANCE> 39
 1.188656e+01 1.281953e+01 1.928632e+01 1.145372e+01 9.744211e+00 2.285931e+01 1.465737e+01 2.170810e+01 1.426246e+01 2.839654e+01 1.493198e+01 1.241143e+01 1.690179e+01 4.201147e-01 1.424864e+00 1.296029e+00 7.569439e-01 8.780272e-01 1.065746e+00 7.436135e-01 1.571882e+00 9.896601e-01 1.443140e+00 1.242546e+00 8.632771e-01 1.146705e+00 2.893724e-02 8.497144e-02 1.288761e-01 1.016140e-01 1.500990e-01 1.422110e-01 1.255047e-01 2.957941e-01 2.876751e-01 2.338543e-01 2.175542e-01 1.817019e-01 2.283183e-01
<GCONST> 8.255355e+01
<MIXTURE> 2 5.000000e-01
<MEAN> 39
 9.478835e+00 1.534644e+01 9.988152e+00 1.582679e+01 1.093885e+01 4.470878e+00 1.756767e+00 1.383600e+01 1.977648e+00 -1.116380e+01 -9.076091e+00 -4.199082e+00 -2.491289e+00 -1.164563e+00 1.867168e+00 2.200224e+00 3.964194e-01 2.035292e-01 1.863561e+00 1.216211e+00 -9.787512e-01 -6.585168e-01 9.852327e-01 3.356456e-01 -5.638567e-01 -4.848145e-01 1.787613e-01 -5.725131e-01 -4.226771e-01 -8.233477e-02 5.697365e-02 -1.923549e-01 -2.549954e-01 -6.312945e-02 -1.026527e-01 -5.930227e-02 3.097751e-01 1.392047e-01 -1.023603e-01
<VARIANCE> 39
 1.188656e+01 1.281953e+01 1.928632e+01 1.145372e+01 9.744211e+00 2.285931e+01 1.465737e+01 2.170810e+01 1.426246e+01 2.839654e+01 1.493198e+01 1.241143e+01 1.690179e+01 4.201147e-01 1.424864e+00 1.296029e+00 7.569439e-01 8.780272e-01 1.065746e+00 7.436135e-01 1.571882e+00 9.896601e-01 1.443140e+00 1.242546e+00 8.632771e-01 1.146705e+00 2.893724e-02 8.497144e-02 1.288761e-01 1.016140e-01 1.500990e-01 1.422110e-01 1.255047e-01 2.957941e-01 2.876751e-01 2.338543e-01 2.175542e-01 1.817019e-01 2.283183e-01
<GCONST> 8.255355e+01
<STATE> 3
<NUMMIXES> 2
<MIXTURE> 1 5.000000e-01
<MEAN> 39
 4.727068e+00 1.782572e+01 1.513241e+01 1.705956e+01 1.377019e+01 1.241891e+01 5.469356e+00 9.795778e+00 7.389854e-01 -4.608549e+00 -4.844537e+00 -5.638898e+00 -4.401579e+00 -1.513772e-02 -8.247303e-01 -6.034766e-01 1.393362e-01 4.567431e-01 2.709118e-01 -9.325068e-03 1.895238e-01 7.728734e-02 1.999806e-02 2.681758e-01 1.807997e-01 3.256755e-01 2.106843e-01 -4.709989e-01 -4.875307e-01 -1.022994e-01 9.592813e-03 -2.291280e-01 -2.538628e-01 1.217655e-01 -4.159781e-02 -2.945162e-01 7.115813e-02 1.632602e-01 1.466295e-01
<VARIANCE> 39
 1.288933e+01 9.201993e+00 9.743396e+00 8.724034e+00 9.647231e+00 1.082017e+01 7.227675e+00 9.332299e+00 1.046433e+01 1.725549e+01 1.058393e+01 9.574765e+00 1.035915e+01 4.530021e-01 2.132388e+00 1.990002e+00 9.382818e-01 9.581456e-01 1.148073e+00 8.315076e-01 9.764822e-01 7.671235e-01 1.239875e+00 1.030546e+00 9.614835e-01 1.007505e+00 5.812734e-02 1.284417e-01 1.734948e-01 1.987697e-01 1.745930e-01 1.476883e-01 1.310251e-01 1.769992e-01 1.775475e-01 1.628289e-01 1.813377e-01 1.305718e-01 1.368139e-01
<GCONST> 7.737016e+01
<MIXTURE> 2 5.000000e-01
<MEAN> 39
 4.727068e+00 1.782572e+01 1.513241e+01 1.705956e+01 1.377019e+01 1.241891e+01 5.469356e+00 9.795778e+00 7.389854e-01 -4.608549e+00 -4.844537e+00 -5.638898e+00 -4.401579e+00 -1.513772e-02 -8.247303e-01 -6.034766e-01 1.393362e-01 4.567431e-01 2.709118e-01 -9.325068e-03 1.895238e-01 7.728734e-02 1.999806e-02 2.681758e-01 1.807997e-01 3.256755e-01 2.106843e-01 -4.709989e-01 -4.875307e-01 -1.022994e-01 9.592813e-03 -2.291280e-01 -2.538628e-01 1.217655e-01 -4.159781e-02 -2.945162e-01 7.115813e-02 1.632602e-01 1.466295e-01
<VARIANCE> 39
 1.288933e+01 9.201993e+00 9.743396e+00 8.724034e+00 9.647231e+00 1.082017e+01 7.227675e+00 9.332299e+00 1.046433e+01 1.725549e+01 1.058393e+01 9.574765e+00 1.035915e+01 4.530021e-01 2.132388e+00 1.990002e+00 9.382818e-01 9.581456e-01 1.148073e+00 8.315076e-01 9.764822e-01 7.671235e-01 1.239875e+00 1.030546e+00 9.614835e-01 1.007505e+00 5.812734e-02 1.284417e-01 1.734948e-01 1.987697e-01 1.745930e-01 1.476883e-01 1.310251e-01 1.769992e-01 1.775475e-01 1.628289e-01 1.813377e-01 1.305718e-01 1.368139e-01
<GCONST> 7.737016e+01
<STATE> 4
<NUMMIXES> 2
<MIXTURE> 1 5.000000e-01
<MEAN> 39
 1.003594e+01 2.951982e+00 3.158882e+00 1.799199e+01 1.958088e+01 1.180661e+01 -1.198517e+00 9.545313e+00 -3.693689e+00 -1.270415e+01 -5.178919e-01 -1.483166e+00 -1.072330e+00 1.230916e+00 -2.199963e+00 -1.456251e+00 3.563840e-01 9.459228e-01 -6.780777e-01 -2.175184e+00 -4.566927e-01 -7.553302e-01 -1.241010e+00 1.268869e+00 5.439528e-01 -3.086267e-01 -2.929479e-02 2.934756e-01 4.935707e-01 2.418422e-01 -1.962950e-02 -1.844353e-01 -2.397912e-01 -2.814718e-02 2.158471e-01 1.603913e-01 2.797585e-02 -1.518456e-01 -3.251751e-01
<VARIANCE> 39
 1.805132e+01 3.793091e+01 2.163951e+01 4.359154e+01 6.367414e+01 5.144711e+01 3.312481e+01 4.015958e+01 4.237088e+01 5.228127e+01 2.137421e+01 2.162622e+01 1.579248e+01 1.098980e+00 1.841862e+00 3.640653e+00 4.546786e+00 4.834968e+00 3.344371e+00 2.171841e+00 2.876602e+00 3.033111e+00 4.847539e+00 1.680171e+00 1.759534e+00 2.316725e+00 1.949035e-01 2.115411e-01 3.123415e-01 4.500360e-01 4.164820e-01 2.982608e-01 3.189061e-01 4.087846e-01 5.626779e-01 7.272882e-01 3.209995e-01 2.671041e-01 2.232528e-01
<GCONST> 1.155578e+02
<MIXTURE> 2 5.000000e-01
<MEAN> 39
 1.003594e+01 2.951982e+00 3.158882e+00 1.799199e+01 1.958088e+01 1.180661e+01 -1.198517e+00 9.545313e+00 -3.693689e+00 -1.270415e+01 -5.178919e-01 -1.483166e+00 -1.072330e+00 1.230916e+00 -2.199963e+00 -1.456251e+00 3.563840e-01 9.459228e-01 -6.780777e-01 -2.175184e+00 -4.566927e-01 -7.553302e-01 -1.241010e+00 1.268869e+00 5.439528e-01 -3.086267e-01 -2.929479e-02 2.934756e-01 4.935707e-01 2.418422e-01 -1.962950e-02 -1.844353e-01 -2.397912e-01 -2.814718e-02 2.158471e-01 1.603913e-01 2.797585e-02 -1.518456e-01 -3.251751e-01
<VARIANCE> 39
 1.805132e+01 3.793091e+01 2.163951e+01 4.359154e+01 6.367414e+01 5.144711e+01 3.312481e+01 4.015958e+01 4.237088e+01 5.228127e+01 2.137421e+01 2.162622e+01 1.579248e+01 1.098980e+00 1.841862e+00 3.640653e+00 4.546786e+00 4.834968e+00 3.344371e+00 2.171841e+00 2.876602e+00 3.033111e+00 4.847539e+00 1.680171e+00 1.759534e+00 2.316725e+00 1.949035e-01 2.115411e-01 3.123415e-01 4.500360e-01 4.164820e-01 2.982608e-01 3.189061e-01 4.087846e-01 5.626779e-01 7.272882e-01 3.209995e-01 2.671041e-01 2.232528e-01
<GCONST> 1.155578e+02
<TRANSP> 5
 0.000000e+00 1.000000e+00 0.000000e+00 0.000000e+00 0.000000e+00
 0.000000e+00 7.403240e-01 2.596760e-01 0.000000e+00 0.000000e+00
 0.000000e+00 0.000000e+00 8.662271e-01 1.337729e-01 0.000000e+00
 0.000000e+00 0.000000e+00 0.000000e+00 8.168405e-01 1.831595e-01
 0.000000e+00 0.000000e+00 0.000000e+00 0.000000e+00 0.000000e+00
<ENDHMM>
~h "ch"
<BEGINHMM>
<NUMSTATES> 5
<STATE> 2
<NUMMIXES> 2
<MIXTURE> 1 4.875961e-01
<MEAN> 39
 -3.791335e+00 1.167387e+00 1.313072e+01 1.878074e+01 9.722873e+00 1.077508e+01 -6.712430e-01 6.339873e+00 -2.355281e-02 -1.015988e+01 -7.539353e+00 -3.377088e+00 2.745681e+00 -3.136227e+00 -4.325336e+00 8.144222e-01 -3.837075e-01 -2.143420e+00 8.136871e-01 -6.716266e-01 -8.925503e-01 1.428727e+00 7.874756e-01 -1.326648e-01 -1.640881e-01 3.384334e-01 1.363180e-01 -1.657665e+00 -4.145924e-01 -4.861457e-01 -4.841628e-01 -4.314327e-01 -4.955672e-01 4.714299e-01 -1.617442e-01 -7.032822e-01 9.038621e-01 5.090238e-01 -6.012374e-01
<VARIANCE> 39
 4.618522e+01 6.650841e+01 1.700532e+01 1.582634e+01 1.913531e+01 2.644201e+01 1.717930e+01 1.813154e+01 3.901828e+01 3.351434e+01 1.466670e+01 9.274114e+00 1.834531e+01 3.691133e-01 1.222651e+01 3.148902e+00 2.539548e+00 2.451682e+00 2.791556e+00 2.439083e+00 2.974498e+00 2.050450e+00 3.583650e+00 4.584624e+00 2.027353e+00 3.483649e+00 1.389635e-01 8.040594e-01 2.368597e-01 3.613525e-01 3.732770e-01 5.713503e-01 2.784256e-01 4.285138e-01 3.970706e-01 6.278945e-01 4.548933e-01 3.759158e-01 4.582378e-01
<GCONST> 1.129749e+02
<MIXTURE> 2 5.124038e-01
<MEAN> 39
 -1.588119e+01 -2.744778e+01 1.175002e+01 1.000641e+01 -5.068513e+00 7.549779e+00 -7.468617e+00 5.814782e+00 4.714681e+00 -9.327127e+00 -5.899776e-01 1.599777e+00 3.478823e-01 -1.085947e+00 -4.916877e+00 1.461851e+00 -1.783190e+00 -2.755967e+00 -9.433793e-01 -1.862077e+00 2.223306e-01 3.481209e-01 -4.284568e-01 1.337639e+00 1.254034e+00 -1.928596e-01 2.894298e-01 7.365984e-01 5.573836e-01 1.807629e-01 5.672049e-01 2.909706e-01 -4.756669e-02 -1.184418e-01 -2.022627e-01 2.836026e-01 -1.568833e-01 -2.877443e-01 2.599030e-01
<VARIANCE> 39
 2.977556e+01 1.563156e+02 6.104383e+01 3.527202e+01 3.281550e+01 3.159687e+01 2.687297e+01 3.047003e+01 4.045292e+01 4.169294e+01 2.369748e+01 2.246808e+01 1.561030e+01 2.786117e+00 6.479517e+00 5.723073e+00 2.665813e+00 3.319033e+00 3.246098e+00 1.382679e+00 1.699172e+00 2.084321e+00 2.726750e+00 2.655790e+00 2.438347e+00 1.887976e+00 3.155108e-01 6.913042e-01 4.561277e-01 3.238636e-01 4.404915e-01 6.969255e-01 2.551319e-01 3.311138e-01 3.607430e-01 5.434497e-01 4.486876e-01 5.928726e-01 3.892060e-01
<GCONST> 1.200112e+02
<STATE> 3
<NUMMIXES> 2
<MIXTURE> 1 8.086146e-01
<MEAN> 39
 -1.608142e+01 -4.578450e+01 2.075069e+01 7.594462e+00 -8.287154e+00 1.033785e+01 -1.515278e+01 3.265412e+00 3.886086e+00 -7.584355e+00 2.769022e+00 1.686262e+00 4.591005e-01 3.537109e-01 -7.596248e-01 -1.997735e-01 -7.909885e-01 2.164096e-01 7.436109e-01 -4.987409e-01 -8.482552e-01 -7.180681e-01 1.660532e-01 2.154504e-01 -3.380871e-01 -1.354977e-01 1.683153e-01 4.731922e-01 -5.319054e-01 -3.822185e-02 1.141223e-01 -1.542822e-02 1.928823e-01 -1.413480e-01 -1.615576e-01 -1.548083e-01 -1.670340e-01 -7.744778e-03 3.064234e-02
<VARIANCE> 39
 1.581713e+01 3.156193e+01 4.523893e+01 3.616726e+01 1.818955e+01 2.104435e+01 1.902306e+01 3.585386e+01 3.451380e+01 2.039177e+01 2.707202e+01 1.875131e+01 1.152965e+01 1.657436e+00 4.092127e+00 5.638677e+00 9.426626e-01 1.619304e+00 1.348977e+00 1.711762e+00 1.663516e+00 1.786231e+00 1.744569e+00 1.624164e+00 1.293452e+00 1.049328e+00 2.922817e-01 5.988926e-01 5.791534e-01 1.891102e-01 4.188050e-01 2.539816e-01 2.636365e-01 2.462387e-01 2.411360e-01 3.371696e-01 2.887029e-01 2.757049e-01 1.733376e-01
<GCONST> 1.046113e+02
<MIXTURE> 2 1.913853e-01
<MEAN> 39
 -2.430609e+01 -1.417820e+01 -5.068013e+00 4.232233e+00 -8.418561e-01 -1.181106e-01 -6.249326e+00 2.203257e+00 7.401406e-01 -1.928102e+00 -1.663892e+00 2.091796e-01 3.603273e+00 6.503100e-01 -2.561357e+00 2.435803e-01 1.597137e+00 2.329518e-01 2.285736e-02 -7.453656e-01 5.629812e-02 5.792478e-01 -5.160978e-01 -9.451536e-04 6.802449e-01 3.708433e-01 4.001366e-01 -1.178084e-02 5.547813e-01 3.058176e-01 1.360798e-02 2.344670e-01 3.873720e-02 9.136684e-02 1.463947e-01 -1.526722e-01 1.212714e-01 1.564096e-01 -1.535690e-01
<VARIANCE> 39
 6.653383e+00 1.041354e+02 7.148839e+00 5.220652e+01 1.094555e+01 1.050634e+01 1.147482e+01 1.071884e+01 1.242811e+01 1.491804e+01 2.005316e+01 5.315500e+00 1.299398e+01 2.072984e+00 4.091841e+00 3.839764e+00 3.084760e+00 3.504233e+00 1.947172e+00 1.434651e+00 1.597039e+00 1.638606e+00 2.748740e+00 3.331401e+00 1.476027e+00 1.430154e+00 1.633560e-01 3.554049e-01 2.950930e-01 5.780280e-01 5.263112e-01 3.579785e-01 3.536268e-01 3.114947e-01 3.064139e-01 3.121415e-01 4.900997e-01 1.985342e-01 2.605128e-01
<GCONST> 1.024560e+02
<STATE> 4
<NUMMIXES> 2
<MIXTURE> 1 5.775306e-01
<MEAN> 39
 -2.351358e+00 -1.624736e+01 2.075408e+00 1.036245e+01 3.835096e+00 1.264935e+01 -1.692888e+00 4.608088e+00 1.869767e+00 -4.276021e+00 2.430020e+00 3.077140e+00 6.204031e+00 8.326753e-01 3.349003e+00 -2.520833e-01 9.672524e-01 1.458915e+00 -1.081596e+00 8.130315e-01 1.260948e+00 3.442883e-01 8.293031e-01 1.821311e-01 -2.056143e-01 -2.972497e-02 -4.721078e-02 -1.410199e-01 7.389792e-02 -2.643175e-01 -2.094110e-01 -2.924140e-01 -4.051560e-01 -1.453132e-01 -2.409180e-01 -2.695612e-01 -4.510349e-02 -1.395636e-01 -3.051126e-01
<VARIANCE> 39
 1.087812e+02 1.717464e+02 1.000206e+02 1.083390e+02 8.959942e+01 1.447766e+02 9.906628e+01 6.952520e+01 4.802415e+01 5.133312e+01 7.214755e+01 3.343280e+01 3.318336e+01 3.446158e+00 4.638472e+00 2.436388e+00 3.853832e+00 2.702775e+00 3.899359e+00 3.693662e+00 2.736273e+00 3.245461e+00 3.706884e+00 2.278497e+00 1.647444e+00 2.413599e+00 1.772353e-01 3.765802e-01 2.768209e-01 4.112670e-01 3.625349e-01 5.706936e-01 3.406233e-01 3.403897e-01 3.879181e-01 4.642974e-01 3.879671e-01 2.862778e-01 3.021669e-01
<GCONST> 1.288638e+02
<MIXTURE> 2 4.224694e-01
<MEAN> 39
 -8.165802e+00 -4.197104e+01 8.405627e+00 1.400777e+00 -8.114663e+00 1.508238e+01 -1.440873e+01 -5.296056e+00 -2.474536e+00 -1.270891e+01 4.187088e-02 1.160322e+00 1.171727e+00 1.327471e+00 1.837831e+00 -1.507535e+00 2.304394e-01 4.406572e-01 6.023157e-01 1.370568e+00 1.979114e-01 -6.785907e-02 -2.356939e-01 -8.924607e-02 3.593732e-01 5.853343e-01 3.625749e-02 4.006450e-01 1.472093e-01 4.782202e-01 3.595796e-01 3.358659e-02 4.106421e-01 5.064413e-01 3.742299e-01 4.162748e-01 2.129036e-01 6.859510e-02 1.132836e-01
<VARIANCE> 39
 2.495898e+01 3.035365e+01 6.218003e+01 3.850866e+01 3.385666e+01 5.879433e+01 5.235516e+01 4.769871e+01 3.028647e+01 3.282820e+01 3.453701e+01 1.903927e+01 2.213484e+01 6.742259e-01 2.026558e+00 1.376109e+00 3.076293e+00 2.389598e+00 2.546837e+00 2.869346e+00 2.851253e+00 2.220513e+00 2.670588e+00 1.956203e+00 1.296798e+00 1.038787e+00 1.039650e-01 2.411713e-01 1.867019e-01 2.041649e-01 2.122952e-01 2.977894e-01 2.332652e-01 2.336349e-01 2.659042e-01 2.818328e-01 1.926646e-01 2.392721e-01 2.245137e-01
<GCONST> 1.066215e+02
<TRANSP> 5
 0.000000e+00 1.000000e+00 0.000000e+00 0.000000e+00 0.000000e+00
 0.000000e+00 8.495368e-01 1.504631e-01 0.000000e+00 0.000000e+00
 0.000000e+00 0.000000e+00 8.929820e-01 1.070180e-01 0.000000e+00
 0.000000e+00 0.000000e+00 0.000000e+00 9.245998e-01 7.540016e-02
 0.000000e+00 0.000000e+00 0.000000e+00 0.000000e+00 0.000000e+00
<ENDHMM>
~h "dh"
<BEGINHMM>
<NUMSTATES> 5
<STATE> 2
<NUMMIXES> 2
<MIXTURE> 1 5.000000e-01
<MEAN> 39
 3.188213e+00 1.721613e+01 1.443074e+01 1.698033e+01 1.537639e+01 1.464609e+01 5.785286e+00 8.179921e+00 -1.842239e+00 -5.996572e+00 -4.050111e+00 -2.852758e+00 -1.469747e-01 -5.359155e-01 -2.540678e-01 4.660007e-01 2.813172e-01 -8.150309e-02 4.149035e-01 4.094357e-01 2.404859e-01 6.887387e-01 8.311073e-01 1.867460e-01 -4.010508e-01 -1.356455e-01 1.677201e-01 -6.881047e-01 -4.553785e-01 -6.387658e-02 -8.785305e-02 -2.698778e-01 -3.044489e-01 1.368541e-01 1.303150e-01 2.478779e-02 2.478142e-01 -3.484824e-02 9.018346e-03
<VARIANCE> 39
 1.563155e+01 7.009903e+00 1.360042e+01 6.605853e+00 5.422748e+00 1.033997e+01 1.014502e+01 1.037138e+01 2.349634e+01 3.130537e+01 1.575564e+01 1.053375e+01 1.743892e+01 5.215806e-01 3.141658e+00 2.036451e+00 7.593554e-01 9.109485e-01 1.320858e+00 1.317192e+00 9.339217e-01 1.302671e+00 1.452898e+00 7.961466e-01 9.790601e-01 1.588906e+00 5.490375e-02 2.324328e-01 1.888625e-01 2.255487e-01 2.196550e-01 1.836108e-01 1.420408e-01 1.660756e-01 2.200418e-01 2.360924e-01 2.971825e-01 1.537995e-01 2.586611e-01
<GCONST> 8.442939e+01
<MIXTURE> 2 5.000000e-01
<MEAN> 39
 3.188213e+00 1.721613e+01 1.443074e+01 1.698033e+01 1.537639e+01 1.464609e+01 5.785286e+00 8.179921e+00 -1.842239e+00 -5.996572e+00 -4.050111e+00 -2.852758e+00 -1.469747e-01 -5.359155e-01 -2.540678e-01 4.660007e-01 2.813172e-01 -8.150309e-02 4.149035e-01 4.094357e-01 2.404859e-01 6.887387e-01 8.311073e-01 1.867460e-01 -4.010508e-01 -1.356455e-01 1.677201e-01 -6.881047e-01 -4.553785e-01 -6.387658e-02 -8.785305e-02 -2.698778e-01 -3.044489e-01 1.368541e-01 1.303150e-01 2.478779e-02 2.478142e-01 -3.484824e-02 9.018346e-03
<VARIANCE> 39
 1.563155e+01 7.009903e+00 1.360042e+01 6.605853e+00 5.422748e+00 1.033997e+01 1.014502e+01 1.037138e+01 2.349634e+01 3.130537e+01 1.575564e+01 1.053375e+01 1.743892e+01 5.215806e-01 3.141658e+00 2.036451e+00 7.593554e-01 9.109485e-01 1.320858e+00 1.317192e+00 9.339217e-01 1.302671e+00 1.452898e+00 7.961466e-01 9.790601e-01 1.588906e+00 5.490375e-02 2.324328e-01 1.888625e-01 2.255487e-01 2.196550e-01 1.836108e-01 1.420408e-01 1.660756e-01 2.200418e-01 2.360924e-01 2.971825e-01 1.537995e-01 2.586611e-01
<GCONST> 8.442939e+01
<STATE> 3
<NUMMIXES> 2
<MIXTURE> 1 5.000000e-01
<MEAN> 39
 4.026026e+00 2.240705e+00 8.301064e+00 1.643324e+01 1.230080e+01 1.270075e+01 2.051123e+00 1.021151e+01 2.625686e+00 -1.537972e+00 1.173725e+00 -5.414159e+00 1.166546e+00 1.377745e+00 -4.709463e+00 -2.588144e+00 -2.328742e+00 -2.355699e+00 -6.131495e-01 -1.570271e+00 -4.321428e-02 -9.890932e-01 8.069057e-02 3.882730e+00 -3.525770e-02 -8.559545e-01 4.838081e-01 1.707303e-01 7.808536e-02 -4.187325e-01 -2.861435e-01 6.525809e-03 -2.371110e-01 -3.604389e-01 -1.035395e+00 -7.695597e-01 5.755139e-01 2.810912e-01 -3.298219e-01
<VARIANCE> 39
 1.391743e+01 4.479910e+01 2.275692e+01 2.678472e+01 3.914466e+01 1.327052e+01 2.090913e+01 1.735933e+01 3.256187e+01 2.556551e+01 4.308265e+01 1.438543e+01 1.514422e+01 8.174168e-01 9.515650e-01 8.894272e-01 3.063098e+00 3.339822e+00 2.224031e+00 2.128600e+00 1.528486e+00 5.353557e+00 4.309216e+00 2.645240e+00 1.882761e+00 1.971496e+00 6.287117e-02 6.569324e-01 4.867926e-01 7.616509e-01 6.557931e-01 3.161924e-01 2.799343e-01 1.680064e-01 2.813005e-01 4.670204e-01 7.189341e-01 3.103479e-01 3.555548e-01
<GCONST> 1.085294e+02
<MIXTURE> 2 5.000000e-01
<MEAN> 39
 4.026026e+00 2.240705e+00 8.301064e+00 1.643324e+01 1.230080e+01 1.270075e+01 2.051123e+00 1.021151e+01 2.625686e+00 -1.537972e+00 1.173725e+00 -5.414159e+00 1.166546e+00 1.377745e+00 -4.709463e+00 -2.588144e+00 -2.328742e+00 -2.355699e+00 -6.131495e-01 -1.570271e+00 -4.321428e-02 -9.890932e-01 8.069057e-02 3.882730e+00 -3.525770e-02 -8.559545e-01 4.838081e-01 1.707303e-01 7.808536e-02 -4.187325e-01 -2.861435e-01 6.525809e-03 -2.371110e-01 -3.604389e-01 -1.035395e+00 -7.695597e-01 5.755139e-01 2.810912e-01 -3.298219e-01
<VARIANCE> 39
 1.391743e+01 4.479910e+01 2.275692e+01 2.678472e+01 3.914466e+01 1.327052e+01 2.090913e+01 1.735933e+01 3.256187e+01 2.556551e+01 4.308265e+01 1.438543e+01 1.514422e+01 8.174168e-01 9.515650e-01 8.894272e-01 3.063098e+00 3.339822e+00 2.224031e+00 2.128600e+00 1.528486e+00 5.353557e+00 4.309216e+00 2.645240e+00 1.882761e+00 1.971496e+00 6.287117e-02 6.569324e-01 4.867926e-01 7.616509e-01 6.557931e-01 3.161924e-01 2.799343e-01 1.680064e-01 2.813005e-01 4.670204e-01 7.189341e-01 3.103479e-01 3.555548e-01
<GCONST> 1.085294e+02
<STATE> 4
<NUMMIXES> 2
<MIXTURE> 1 5.000000e-01
<MEAN> 39
 1.314565e+01 -5.734705e+00 5.419443e+00 1.218985e+01 9.331761e+00 9.642694e+00 -6.569986e+00 7.853673e+00 -8.927918e+00 -1.291743e+01 1.464536e+01 -3.165854e-02 -3.187732e+00 5.570588e-01 3.119901e-01 4.352078e-01 6.981229e-01 6.760332e-01 -3.726571e-01 -8.816789e-01 -4.471603e-01 -6.611556e-01 -9.541071e-01 3.448873e-01 5.485892e-01 -4.342746e-01 -2.393927e-01 4.415591e-01 2.600886e-01 3.912863e-01 3.236552e-01 -7.976297e-02 7.701485e-02 1.195199e-01 4.308731e-01 2.165397e-01 -4.671313e-01 -1.588014e-02 9.534600e-02
<VARIANCE> 39
 1.244040e+01 4.010173e+01 2.061882e+01 4.222283e+01 6.374761e+01 4.344617e+01 4.776062e+01 4.984874e+01 3.728750e+01 5.913505e+01 2.305659e+01 4.095313e+01 2.456172e+01 1.191579e+00 2.092520e+00 1.923003e+00 2.951983e+00 3.336621e+00 2.760731e+00 3.597689e+00 2.979207e+00 3.963980e+00 2.876804e+00 4.150238e+00 1.864643e+00 1.543055e+00 9.256250e-02 5.966954e-01 4.622398e-01 7.107113e-01 7.693884e-01 4.431578e-01 4.744626e-01 4.695268e-01 5.665452e-01 4.217387e-01 6.086531e-01 2.528289e-01 2.500244e-01
<GCONST> 1.189905e+02
<MIXTURE> 2 5.000000e-01
<MEAN> 39
 1.314565e+01 -5.734705e+00 5.419443e+00 1.218985e+01 9.331761e+00 9.642694e+00 -6.569986e+00 7.853673e+00 -8.927918e+00 -1.291743e+01 1.464536e+01 -3.165854e-02 -3.187732e+00 5.570588e-01 3.119901e-01 4.352078e-01 6.981229e-01 6.760332e-01 -3.726571e-01 -8.816789e-01 -4.471603e-01 -6.611556e-01 -9.541071e-01 3.448873e-01 5.485892e-01 -4.342746e-01 -2.393927e-01 4.415591e-01 2.600886e-01 3.912863e-01 3.236552e-01 -7.976297e-02 7.701485e-02 1.195199e-01 4.308731e-01 2.165397e-01 -4.671313e-01 -1.588014e-02 9.534600e-02
<VARIANCE> 39
 1.244040e+01 4.010173e+01 2.061882e+01 4.222283e+01 6.374761e+01 4.344617e+01 4.776062e+01 4.984874e+01 3.728750e+01 5.913505e+01 2.305659e+01 4.095313e+01 2.456172e+01 1.191579e+00 2.092520e+00 1.923003e+00 2.951983e+00 3.336621e+00 2.760731e+00 3.597689e+00 2.979207e+00 3.963980e+00 2.876804e+00 4.150238e+00 1.864643e+00 1.543055e+00 9.256250e-02 5.966954e-01 4.622398e-01 7.107113e-01 7.693884e-01 4.431578e-01 4.744626e-01 4.695268e-01 5.665452e-01 4.217387e-01 6.086531e-01 2.528289e-01 2.500244e-01
<GCONST> 1.189905e+02
<TRANSP> 5
 0.000000e+00 1.000000e+00 0.000000e+00 0.000000e+00 0.000000e+00
 0.000000e+00 8.666412e-01 1.333588e-01 0.000000e+00 0.000000e+00
 0.000000e+00 0.000000e+00 7.333552e-01 2.666448e-01 0.000000e+00
 0.000000e+00 0.000000e+00 0.000000e+00 8.766315e-01 1.233685e-01
 0.000000e+00 0.000000e+00 0.000000e+00 0.000000e+00 0.000000e+00
<ENDHMM>
~h "dx"
<BEGINHMM>
<NUMSTATES> 5
<STATE> 2
<NUMMIXES> 2
<MIXTURE> 1 5.000000e-01
<MEAN> 39
 3.019361e+00 1.714144e+01 1.409798e+01 1.699500e+01 1.700784e+01 1.654682e+01 5.999759e+00 6.676834e+00 -2.865167e+00 -5.577332e+00 -2.829685e+00 -3.280425e+00 -2.786788e+00 -6.109195e-01 -1.668940e-01 3.366337e-01 2.650964e-01 -1.761256e-01 -2.537071e-02 3.932343e-01 5.132340e-01 4.800901e-01 3.794396e-01 1.548233e-01 7.763956e-02 1.725828e-01 6.812512e-02 -5.102645e-01 -3.045408e-01 1.932644e-01 1.734912e-01 -2.022150e-01 -2.920699e-01 2.847216e-02 9.092527e-02 -5.374302e-03 6.844437e-02 1.393087e-02 5.233761e-02
<VARIANCE> 39
 1.511408e+01 7.962334e+00 1.245232e+01 1.516091e+01 1.270132e+01 2.150506e+01 2.266631e+01 2.007613e+01 2.781298e+01 2.624988e+01 1.320313e+01 1.187938e+01 1.158309e+01 4.917370e-01 1.527588e+00 1.162565e+00 1.441501e+00 1.396736e+00 1.394872e+00 1.563587e+00 1.162992e+00 1.705374e+00 1.235570e+00 9.604945e-01 1.009586e+00 9.124374e-01 5.040438e-02 2.526450e-01 1.744649e-01 1.815458e-01 1.952506e-01 1.766760e-01 1.678828e-01 1.517394e-01 2.578207e-01 2.073272e-01 1.979461e-01 1.731209e-01 1.436458e-01
<GCONST> 8.655901e+01
<MIXTURE> 2 5.000000e-01
<MEAN> 39
 3.019361e+00 1.714144e+01 1.409798e+01 1.699500e+01 1.700784e+01 1.654682e+01 5.999759e+00 6.676834e+00 -2.865167e+00 -5.577332e+00 -2.829685e+00 -3.280425e+00 -2.786788e+00 -6.109195e-01 -1.668940e-01 3.366337e-01 2.650964e-01 -1.761256e-01 -2.537071e-02 3.932343e-01 5.132340e-01 4.800901e-01 3.794396e-01 1.548233e-01 7.763956e-02 1.725828e-01 6.812512e-02 -5.102645e-01 -3.045408e-01 1.932644e-01 1.734912e-01 -2.022150e-01 -2.920699e-01 2.847216e-02 9.092527e-02 -5.374302e-03 6.844437e-02 1.393087e-02 5.233761e-02
<VARIANCE> 39
 1.511408e+01 7.962334e+00 1.245232e+01 1.516091e+01 1.270132e+01 2.150506e+01 2.266631e+01 2.007613e+01 2.781298e+01 2.624988e+01 1.320313e+01 1.187938e+01 1.158309e+01 4.917370e-01 1.527588e+00 1.162565e+00 1.441501e+00 1.396736e+00 1.394872e+00 1.563587e+00 1.162992e+00 1.705374e+00 1.235570e+00 9.604945e-01 1.009586e+00 9.124374e-01 5.040438e-02 2.526450e-01 1.744649e-01 1.815458e-01 1.952506e-01 1.766760e-01 1.678828e-01 1.517394e-01 2.578207e-01 2.073272e-01 1.979461e-01 1.731209e-01 1.436458e-01
<GCONST> 8.655901e+01
<STATE> 3
<NUMMIXES> 2
<MIXTURE> 1 5.000000e-01
<MEAN> 39
 1.095841e+00 4.467426e+00 9.402187e+00 2.319328e+01 1.910420e+01 1.171645e+01 2.119442e+00 9.482456e+00 1.275155e+00 -3.265780e+00 -1.471637e+00 -4.076413e+00 -8.099464e-01 5.154706e-01 -4.513196e+00 -2.167240e+00 6.098813e-01 -8.668436e-02 -1.018715e+00 -8.931921e-01 3.555628e-01 -9.066207e-01 -3.284870e-01 2.318055e+00 1.816373e-01 -5.540475e-01 5.282266e-01 -4.161204e-01 -2.090142e-01 -2.333843e-01 -8.288623e-02 -7.739842e-02 -3.649668e-01 -2.763085e-01 -9.316033e-01 -6.140746e-01 8.240682e-01 1.408874e-01 -6.212602e-01
<VARIANCE> 39
 2.734476e+01 4.800711e+01 2.161989e+01 2.544009e+01 2.404931e+01 2.153899e+01 2.789527e+01 2.451786e+01 2.859315e+01 3.000260e+01 3.186734e+01 1.960486e+01 1.956537e+01 1.324539e+00 1.854645e+00 1.625046e+00 2.605453e+00 3.240095e+00 2.099677e+00 2.462699e+00 2.365815e+00 4.586823e+00 2.992666e+00 4.800817e+00 2.217178e+00 2.714624e+00 7.676459e-02 5.262118e-01 4.313120e-01 3.370798e-01 5.353864e-01 2.498667e-01 3.388726e-01 2.375955e-01 3.624095e-01 3.793733e-01 4.651583e-01 2.641239e-01 3.045737e-01
<GCONST> 1.111770e+02
<MIXTURE> 2 5.000000e-01
<MEAN> 39
 1.095841e+00 4.467426e+00 9.402187e+00 2.319328e+01 1.910420e+01 1.171645e+01 2.119442e+00 9.482456e+00 1.275155e+00 -3.265780e+00 -1.471637e+00 -4.076413e+00 -8.099464e-01 5.154706e-01 -4.513196e+00 -2.167240e+00 6.098813e-01 -8.668436e-02 -1.018715e+00 -8.931921e-01 3.555628e-01 -9.066207e-01 -3.284870e-01 2.318055e+00 1.816373e-01 -5.540475e-01 5.282266e-01 -4.161204e-01 -2.090142e-01 -2.333843e-01 -8.288623e-02 -7.739842e-02 -3.649668e-01 -2.763085e-01 -9.316033e-01 -6.140746e-01 8.240682e-01 1.408874e-01 -6.212602e-01
<VARIANCE> 39
 2.734476e+01 4.800711e+01 2.161989e+01 2.544009e+01 2.404931e+01 2.153899e+01 2.789527e+01 2.451786e+01 2.859315e+01 3.000260e+01 3.186734e+01 1.960486e+01 1.956537e+01 1.324539e+00 1.854645e+00 1.625046e+00 2.605453e+00 3.240095e+00 2.099677e+00 2.462699e+00 2.365815e+00 4.586823e+00 2.992666e+00 4.800817e+00 2.217178e+00 2.714624e+00 7.676459e-02 5.262118e-01 4.313120e-01 3.370798e-01 5.353864e-01 2.498667e-01 3.388726e-01 2.375955e-01 3.624095e-01 3.793733e-01 4.651583e-01 2.641239e-01 3.045737e-01
<GCONST> 1.111770e+02
<STATE> 4
<NUMMIXES> 2
<MIXTURE> 1 5.000000e-01
<MEAN> 39
 6.269650e+00 -1.166409e+01 2.021821e+00 2.314419e+01 1.860217e+01 1.049815e+01 -1.796856e+00 7.092021e+00 -1.072110e+01 -9.724238e+00 1.240628e+01 -1.102557e+00 -6.726857e+00 1.181746e+00 -1.320028e+00 -1.228895e-01 3.127692e-01 4.586818e-01 -5.639269e-01 -1.733781e+00 -6.550931e-01 -1.419532e+00 -1.416544e+00 1.330574e+00 2.898140e-01 -1.021489e+00 -1.713505e-01 1.135843e+00 5.818184e-01 5.233374e-02 3.009999e-01 -7.048217e-02 -3.769497e-01 -1.019299e-01 7.598569e-01 1.427478e-01 -1.020479e+00 -1.150835e-01 3.025715e-01
<VARIANCE> 39
 3.895778e+01 7.332014e+01 5.287047e+01 9.175528e+01 1.005378e+02 8.298483e+01 7.974248e+01 5.746391e+01 8.841452e+01 7.021871e+01 6.983717e+01 5.029124e+01 3.908875e+01 2.847033e+00 8.550724e+00 3.212892e+00 4.394502e+00 5.525684e+00 3.848406e+00 5.402471e+00 3.180652e+00 1.079970e+01 7.228416e+00 8.506961e+00 2.216470e+00 3.807326e+00 1.927855e-01 5.066878e-01 4.738270e-01 6.541518e-01 1.127652e+00 5.911497e-01 5.894723e-01 5.867007e-01 1.194926e+00 8.716969e-01 7.326992e-01 4.056006e-01 3.506824e-01
<GCONST> 1.393310e+02
<MIXTURE> 2 5.000000e-01
<MEAN> 39
 6.269650e+00 -1.166409e+01 2.021821e+00 2.314419e+01 1.860217e+01 1.049815e+01 -1.796856e+00 7.092021e+00 -1.072110e+01 -9.724238e+00 1.240628e+01 -1.102557e+00 -6.726857e+00 1.181746e+00 -1.320028e+00 -1.228895e-01 3.127692e-01 4.586818e-01 -5.639269e-01 -1.733781e+00 -6.550931e-01 -1.419532e+00 -1.416544e+00 1.330574e+00 2.898140e-01 -1.021489e+00 -1.713505e-01 1.135843e+00 5.818184e-01 5.233374e-02 3.009999e-01 -7.048217e-02 -3.769497e-01 -1.019299e-01 7.598569e-01 1.427478e-01 -1.020479e+00 -1.150835e-01 3.025715e-01
<VARIANCE> 39
 3.895778e+01 7.332014e+01 5.287047e+01 9.175528e+01 1.005378e+02 8.298483e+01 7.974248e+01 5.746391e+01 8.841452e+01 7.021871e+01 6.983717e+01 5.029124e+01 3.908875e+01 2.847033e+00 8.550724e+00 3.212892e+00 4.394502e+00 5.525684e+00 3.848406e+00 5.402471e+00 3.180652e+00 1.079970e+01 7.228416e+00 8.506961e+00 2.216470e+00 3.807326e+00 1.927855e-01 5.066878e-01 4.738270e-01 6.541518e-01 1.127652e+00 5.911497e-01 5.894723e-01 5.867007e-01 1.194926e+00 8.716969e-01 7.326992e-01 4.056006e-01 3.506824e-01
<GCONST> 1.393310e+02
<TRANSP> 5
 0.000000e+00 1.000000e+00 0.000000e+00 0.000000e+00 0.000000e+00
 0.000000e+00 8.519205e-01 1.480795e-01 0.000000e+00 0.000000e+00
 0.000000e+00 0.000000e+00 7.270498e-01 2.729502e-01 0.000000e+00
 0.000000e+00 0.000000e+00 0.000000e+00 7.031455e-01 2.968545e-01
 0.000000e+00 0.000000e+00 0.000000e+00 0.000000e+00 0.000000e+00
<ENDHMM>
~h "ee"
<BEGINHMM>
<NUMSTATES> 7
<STATE> 2
<NUMMIXES> 2
<MIXTURE> 1 6.748819e-01
<MEAN> 39
 2.543494e+00 -5.851373e+00 3.055011e+00 1.689684e+01 1.706860e+01 3.251120e+00 -1.536625e+01 3.138896e+00 -6.851811e+00 -1.165544e+01 6.556931e+00 -1.977070e+00 -5.803614e+00 1.474353e+00 -7.566040e-01 -8.527487e-01 7.789243e-01 1.643468e+00 -1.128104e+00 -2.405470e+00 5.909550e-01 -7.134756e-01 -2.059057e+00 1.443278e+00 3.429732e-01 -1.515893e+00 -1.568335e-01 -2.084371e-01 -2.536486e-03 -1.917531e-01 -3.843866e-02 -6.457674e-02 -2.026415e-01 1.069082e-01 -5.852024e-02 -6.211795e-02 2.094868e-01 -2.764797e-02 -1.145976e-01
<VARIANCE> 39
 1.848106e+02 5.263048e+01 4.969913e+01 9.833385e+01 9.563427e+01 5.702761e+01 8.479011e+01 6.804539e+01 7.025163e+01 8.426635e+01 7.056982e+01 2.996688e+01 4.100029e+01 5.362272e+00 3.363488e+00 4.282875e+00 4.879989e+00 6.028003e+00 3.404036e+00 6.994322e+00 4.193388e+00 3.854388e+00 6.552712e+00 5.203351e+00 2.048018e+00 4.282711e+00 3.896919e-01 3.540753e-01 4.910088e-01 5.652381e-01 5.460923e-01 3.197299e-01 5.434185e-01 6.335397e-01 5.548775e-01 6.280070e-01 5.950511e-01 2.960134e-01 3.835984e-01
<GCONST> 1.362341e+02
<MIXTURE> 2 3.251176e-01
<MEAN> 39
 1.247084e+01 -1.088006e+01 7.138337e+00 2.602541e+01 3.113564e+01 -1.828616e+00 -3.398118e+01 6.803056e+00 -9.279684e+00 -2.175298e+01 1.330339e+01 -3.442521e+00 -1.510277e+01 1.121302e-01 -1.059218e-01 -6.840287e-02 -1.951568e-01 1.745167e-01 -8.467762e-02 -5.780310e-01 -6.708209e-02 8.437590e-02 -1.954462e-01 4.493692e-02 1.147574e-01 -1.324522e-01 -7.112505e-02 4.815663e-02 -2.668051e-02 -8.231538e-02 -1.514171e-01 6.996520e-02 2.253874e-01 2.268612e-02 1.258999e-01 1.183864e-01 -1.082829e-01 1.077112e-02 9.495161e-02
<VARIANCE> 39
 1.038027e+01 2.147524e+01 5.291914e+01 6.646203e+01 3.617056e+01 2.242204e+01 6.267339e+01 4.778781e+01 4.504832e+01 3.251348e+01 6.479891e+01 1.936088e+01 2.979359e+01 5.743082e-01 9.037312e-01 1.162423e+00 1.551480e+00 1.751188e+00 1.083417e+00 3.337505e+00 2.281303e+00 1.632819e+00 2.172346e+00 1.939813e+00 1.045815e+00 1.122088e+00 8.718784e-02 1.270640e-01 1.483278e-01 2.497925e-01 2.864340e-01 1.702128e-01 4.484824e-01 4.022002e-01 2.701381e-01 3.621906e-01 3.333112e-01 1.621255e-01 2.218958e-01
<GCONST> 1.031838e+02
<STATE> 3
<NUMMIXES> 2
<MIXTURE> 1 4.883283e-01
<MEAN> 39
 1.638978e+01 -1.228339e+01 -4.698568e-01 1.768369e+01 2.567688e+01 8.242167e-01 -2.784938e+01 9.181843e+00 -1.197121e+01 -2.486705e+01 1.792493e+01 2.165783e-01 -1.410311e+01 5.085166e-01 -9.432753e-01 -5.185764e-01 2.910609e-02 1.308494e+00 -1.183021e+00 -2.633804e+00 1.042273e+00 -3.702646e-01 -1.676911e+00 1.740010e+00 2.198028e-01 -1.448482e+00 -4.589800e-01 2.777109e-01 4.055497e-01 -1.460389e-01 -4.602373e-01 2.803162e-01 6.781741e-01 -3.015004e-01 3.442402e-01 8.212159e-01 -6.000643e-01 -1.964320e-01 4.955431e-01
<VARIANCE> 39
 5.111883e+01 1.672494e+01 3.917226e+01 5.435292e+01 5.005406e+01 2.560855e+01 6.220128e+01 4.456561e+01 3.427291e+01 4.798349e+01 5.372973e+01 2.668897e+01 3.423870e+01 1.058233e+00 1.402332e+00 1.697947e+00 1.182544e+00 1.434392e+00 1.741739e+00 2.561959e+00 2.449086e+00 1.259801e+00 2.774278e+00 2.756581e+00 1.045991e+00 1.462102e+00 1.615723e-01 1.827220e-01 2.484045e-01 2.389658e-01 2.341741e-01 1.877665e-01 3.590896e-01 3.974954e-01 2.136350e-01 3.317351e-01 3.294347e-01 1.965577e-01 2.583026e-01
<GCONST> 1.077606e+02
<MIXTURE> 2 5.116717e-01
<MEAN> 39
 1.355882e+01 -1.345423e+01 8.071901e+00 2.417885e+01 2.988029e+01 -2.317811e+00 -3.631907e+01 5.843313e+00 -3.473298e+00 -2.157297e+01 6.484203e+00 -1.428922e+00 -1.365835e+01 3.227420e-02 -7.341690e-02 -7.919246e-02 -2.373361e-01 -4.837764e-03 -4.730693e-02 -1.110532e-01 1.012101e-03 -1.819333e-03 6.954127e-02 1.321447e-02 -2.684114e-02 1.773395e-02 4.839608e-03 2.603046e-02 -2.292970e-03 5.506932e-02 5.790351e-03 2.631219e-02 6.591467e-02 3.113331e-02 -4.023089e-02 8.616941e-03 6.335755e-02 -2.906292e-02 -1.704519e-02
<VARIANCE> 39
 5.620352e+00 9.844955e+00 2.606490e+01 1.909069e+01 1.856064e+01 1.083418e+01 2.173052e+01 2.540968e+01 2.605512e+01 2.164938e+01 2.447284e+01 7.315589e+00 2.104149e+01 3.389352e-01 3.776525e-01 5.404765e-01 7.840512e-01 5.463118e-01 5.552560e-01 1.169677e+00 1.147225e+00 7.711276e-01 9.322062e-01 7.931940e-01 4.216952e-01 7.413583e-01 5.338983e-02 5.904917e-02 7.269203e-02 8.482191e-02 8.820674e-02 8.968421e-02 1.866781e-01 1.697469e-01 1.051208e-01 1.462802e-01 1.067625e-01 6.918880e-02 1.050835e-01
<GCONST> 7.207401e+01
<STATE> 4
<NUMMIXES> 2
<MIXTURE> 1 6.932239e-01
<MEAN> 39
 1.627266e+01 -1.414840e+01 1.022035e+00 1.836087e+01 2.872508e+01 -1.920761e+00 -3.388568e+01 1.105990e+01 -1.092840e+01 -2.577352e+01 2.042886e+01 -8.283284e-01 -1.734606e+01 -8.317967e-02 1.028781e-02 1.119282e-01 2.012693e-01 1.242554e-01 2.079171e-02 -1.716779e-02 -1.962228e-02 -1.253277e-02 7.374232e-02 1.072697e-01 -1.104636e-01 -1.848856e-01 -1.205880e-02 9.038821e-02 -8.563790e-03 4.825889e-02 -5.792241e-02 7.965553e-02 2.145865e-01 -7.652393e-02 -1.404399e-02 8.656882e-02 -1.054943e-01 5.358826e-03 7.586334e-02
<VARIANCE> 39
 8.687262e+00 9.469951e+00 2.980258e+01 2.971168e+01 2.854942e+01 1.433947e+01 3.736589e+01 4.115094e+01 2.934484e+01 2.812277e+01 4.168375e+01 1.832213e+01 2.784312e+01 5.052199e-01 3.453213e-01 6.320040e-01 7.151154e-01 6.599193e-01 6.128385e-01 1.706731e+00 1.971739e+00 6.506100e-01 1.382069e+00 1.586327e+00 5.714353e-01 7.748833e-01 7.474630e-02 6.250934e-02 7.914312e-02 8.708883e-02 9.958806e-02 9.200663e-02 2.637722e-01 2.933556e-01 9.479946e-02 2.323508e-01 2.440077e-01 8.231013e-02 1.137030e-01
<GCONST> 8.272243e+01
<MIXTURE> 2 3.067752e-01
<MEAN> 39
 -2.578241e+01 -8.548114e+00 -6.728513e+00 -2.264268e+00 -1.870064e+00 1.852934e+00 -3.162007e+00 9.296539e-01 -4.846622e+00 -3.329775e+00 2.307183e+00 2.257662e+00 1.089274e+00 -1.219983e-02 -1.048944e-02 -1.399649e-02 -1.778037e-02 -1.493384e-02 -6.209769e-03 4.085368e-03 1.200218e-03 1.692650e-03 3.897419e-03 -4.357944e-03 -5.028551e-03 -1.050943e-03 1.850811e-02 1.491108e-02 1.756061e-02 2.112102e-02 1.852633e-02 1.248226e-02 1.183468e-02 1.376856e-02 8.791387e-03 2.890552e-03 2.595633e-03 2.075711e-03 -9.446493e-05
<VARIANCE> 39
 1.805694e+00 1.295206e+01 8.264924e+00 7.000942e+00 1.210371e+01 1.071872e+01 8.765690e+00 8.902607e+00 2.651723e+01 2.153013e+01 1.380913e+01 2.562993e+01 7.291635e+00 9.727006e-02 2.779360e-01 3.843731e-01 4.804862e-01 6.709595e-01 9.119516e-01 9.035593e-01 1.039676e+00 1.440909e+00 1.226808e+00 1.095589e+00 1.200136e+00 8.071792e-01 2.507407e-02 5.187906e-02 8.176243e-02 1.098052e-01 1.443929e-01 1.901602e-01 1.968466e-01 2.277216e-01 2.878750e-01 2.491399e-01 2.322939e-01 2.404367e-01 1.724675e-01
<GCONST> 7.175361e+01
<STATE> 5
<NUMMIXES> 2
<MIXTURE> 1 6.235005e-01
<MEAN> 39
 1.571500e+01 -1.105675e+01 1.145224e+00 2.232379e+01 2.902748e+01 2.876374e-01 -2.845185e+01 8.453199e+00 -1.201964e+01 -2.378586e+01 1.825058e+01 -1.228386e+00 -1.702256e+01 -7.200984e-01 1.645184e+00 2.818861e-01 3.537951e-01 -1.034937e+00 7.112353e-01 2.813947e+00 -1.110735e+00 6.595271e-01 1.889911e+00 -2.058566e+00 -1.656820e-01 1.149037e+00 -3.624738e-01 5.222069e-01 3.102534e-01 -1.618793e-01 -4.336103e-01 1.399685e-01 5.928631e-01 -2.243606e-01 4.567346e-01 6.913312e-01 -7.336594e-01 -9.933397e-02 5.160333e-01
<VARIANCE> 39
 1.392720e+01 1.773275e+01 4.291312e+01 6.258259e+01 4.134406e+01 2.711120e+01 5.791463e+01 4.774572e+01 3.631413e+01 4.519021e+01 6.506202e+01 2.936676e+01 3.917626e+01 7.451089e-01 1.406973e+00 1.304478e+00 1.359252e+00 1.545727e+00 1.408526e+00 2.741730e+00 2.689129e+00 1.696013e+00 2.985149e+00 2.816864e+00 9.822432e-01 1.681554e+00 8.057433e-02 1.254702e-01 2.108694e-01 2.211020e-01 1.902966e-01 1.802087e-01 3.463473e-01 3.900967e-01 2.143144e-01 3.246892e-01 2.641061e-01 1.846783e-01 2.213988e-01
<GCONST> 1.049825e+02
<MIXTURE> 2 3.764995e-01
<MEAN> 39
 1.214143e+01 -9.593074e+00 2.205399e+00 2.016289e+01 2.648563e+01 -2.303580e+00 -2.881519e+01 5.281209e+00 -1.087211e+01 -1.773610e+01 1.565220e+01 -1.701414e+00 -1.258126e+01 1.124942e-03 5.186446e-01 5.920901e-02 4.416183e-01 -9.560661e-02 3.361423e-02 5.970998e-01 1.137702e-02 -3.196259e-02 1.120479e-01 -1.548279e-01 2.211569e-02 -1.243402e-02 8.565556e-02 6.447431e-03 -1.076925e-02 1.789684e-02 3.280988e-02 5.309447e-02 1.806210e-02 2.160193e-01 9.183888e-03 -1.544349e-01 4.678643e-02 -1.485327e-02 -5.427828e-02
<VARIANCE> 39
 6.896808e+01 2.310337e+01 7.203101e+01 9.055530e+01 7.728245e+01 2.819462e+01 9.028799e+01 7.210182e+01 4.170252e+01 5.654645e+01 7.334953e+01 2.983261e+01 4.543875e+01 8.619322e-01 8.904644e-01 1.324455e+00 1.496057e+00 1.759237e+00 1.143481e+00 2.997988e+00 2.656801e+00 1.467616e+00 2.158698e+00 2.295866e+00 1.074428e+00 1.222397e+00 1.110494e-01 1.168773e-01 1.761159e-01 2.221691e-01 2.572787e-01 1.901542e-01 4.218854e-01 4.352084e-01 2.407869e-01 2.903687e-01 3.319584e-01 1.645682e-01 1.675917e-01
<GCONST> 1.093729e+02
<STATE> 6
<NUMMIXES> 2
<MIXTURE> 1 7.369532e-01
<MEAN> 39
 7.599141e+00 1.989735e+00 5.525631e+00 2.273110e+01 2.225589e+01 3.403849e+00 -1.393648e+01 3.074274e+00 -5.109430e+00 -1.080921e+01 3.452804e+00 -3.401990e+00 -8.354538e+00 -1.832145e+00 2.417212e+00 1.208700e+00 -5.643424e-01 -1.519587e+00 9.405900e-01 2.647956e+00 -3.548003e-01 1.230369e+00 2.107552e+00 -2.256323e+00 -2.726316e-01 1.746733e+00 -1.349143e-01 -3.301444e-01 8.681071e-02 -1.286447e-01 3.984154e-02 7.561604e-03 -3.207216e-01 1.294098e-01 -2.225451e-01 -3.025193e-01 4.330726e-01 5.929353e-02 -2.168546e-01
<VARIANCE> 39
 4.118369e+01 3.974825e+01 3.170025e+01 4.579881e+01 4.093289e+01 3.649180e+01 5.995798e+01 5.283548e+01 3.919176e+01 5.056064e+01 5.923624e+01 3.013680e+01 3.363155e+01 1.002844e+00 2.050584e+00 1.616664e+00 2.075650e+00 1.764227e+00 1.524801e+00 2.734657e+00 3.338725e+00 2.385769e+00 3.056289e+00 2.911721e+00 1.435194e+00 2.031262e+00 9.467287e-02 2.356732e-01 2.189747e-01 2.489134e-01 3.026812e-01 2.054608e-01 4.006586e-01 4.068805e-01 3.815357e-01 4.135027e-01 3.163326e-01 2.150456e-01 2.683527e-01
<GCONST> 1.124273e+02
<MIXTURE> 2 2.630470e-01
<MEAN> 39
 -1.228719e+01 4.449782e+00 7.444566e+00 1.370064e+01 1.181209e+01 8.698203e+00 6.670529e-01 8.816348e+00 3.535761e+00 1.604554e+00 4.307846e+00 8.701774e-01 -2.794681e-01 -1.163460e+00 -4.078842e-01 -2.511813e-01 -9.103870e-01 -9.177649e-01 1.470001e-01 7.144117e-01 2.620318e-01 2.134927e-01 3.713539e-01 6.805597e-02 1.590102e-01 3.062099e-01 8.685365e-02 -2.326518e-01 -2.093502e-01 -2.260509e-02 -1.245288e-02 -2.111934e-01 -3.062571e-01 -1.842097e-01 -2.367335e-01 -2.930264e-01 -1.070281e-01 -1.025805e-01 -1.089560e-01
<VARIANCE> 39
 7.560130e+01 4.091658e+01 4.745920e+01 8.465987e+01 7.398415e+01 3.100062e+01 3.266802e+01 3.902601e+01 2.987304e+01 2.971919e+01 2.774550e+01 2.001356e+01 1.610410e+01 3.487921e+00 1.762616e+00 2.511725e+00 3.616735e+00 3.578215e+00 2.344109e+00 2.858629e+00 3.262698e+00 2.597530e+00 2.498327e+00 1.809264e+00 1.402744e+00 1.191292e+00 1.630109e-01 2.157872e-01 2.456641e-01 3.033437e-01 3.576477e-01 2.872469e-01 3.075399e-01 3.647198e-01 3.187059e-01 2.896855e-01 2.472098e-01 2.129120e-01 1.967920e-01
<GCONST> 1.127875e+02
<TRANSP> 7
 0.000000e+00 1.000000e+00 0.000000e+00 0.000000e+00 0.000000e+00 0.000000e+00 0.000000e+00
 0.000000e+00 7.645629e-01 2.354372e-01 0.000000e+00 0.000000e+00 0.000000e+00 0.000000e+00
 0.000000e+00 0.000000e+00 8.125285e-01 1.874715e-01 0.000000e+00 0.000000e+00 0.000000e+00
 0.000000e+00 0.000000e+00 0.000000e+00 9.262973e-01 7.370266e-02 0.000000e+00 0.000000e+00
 0.000000e+00 0.000000e+00 0.000000e+00 0.000000e+00 8.117932e-01 1.882068e-01 0.000000e+00
 0.000000e+00 0.000000e+00 0.000000e+00 0.000000e+00 0.000000e+00 7.929796e-01 2.070204e-01
 0.000000e+00 0.000000e+00 0.000000e+00 0.000000e+00 0.000000e+00 0.000000e+00 0.000000e+00
<ENDHMM>
~h "ei"
<BEGINHMM>
<NUMSTATES> 7
<STATE> 2
<NUMMIXES> 2
<MIXTURE> 1 6.685586e-01
<MEAN> 39
 2.047638e+01 -1.343763e+01 -1.300104e+01 9.027955e+00 2.277618e+01 -4.279279e+00 -2.809184e+01 9.762190e+00 -1.074740e+01 -1.542364e+01 2.364537e+01 3.648401e+00 -3.934191e+00 -2.215495e-01 2.174713e-02 6.777485e-02 2.365240e-01 2.782010e-01 1.052157e-01 -2.035265e-01 -6.811867e-01 -3.097160e-01 3.169584e-02 -2.262825e-02 1.507623e-01 5.786141e-03 -2.020687e-01 2.187890e-01 2.163578e-01 1.134993e-01 -1.679454e-01 8.798267e-02 2.906223e-01 -2.374949e-01 1.033859e-01 2.115519e-01 -2.627612e-01 4.385718e-02 3.169061e-02
<VARIANCE> 39
 9.961700e+00 1.360054e+01 2.968335e+01 2.966995e+01 2.055149e+01 1.588803e+01 2.862852e+01 5.432337e+01 2.355789e+01 3.832623e+01 3.392916e+01 1.924419e+01 2.835229e+01 7.866616e-01 7.048293e-01 1.071032e+00 8.238609e-01 8.741626e-01 7.873043e-01 1.972024e+00 2.625144e+00 8.010591e-01 1.448103e+00 2.300762e+00 8.710389e-01 7.843051e-01 9.611328e-02 8.202628e-02 1.297552e-01 1.089468e-01 1.085317e-01 1.038996e-01 2.242848e-01 2.983538e-01 1.196511e-01 2.049312e-01 2.827711e-01 1.277664e-01 9.935445e-02
<GCONST> 8.866347e+01
<MIXTURE> 2 3.314420e-01
<MEAN> 39
 1.786986e+01 -9.347970e+00 -1.321861e+01 8.036046e+00 1.664535e+01 -2.916564e+00 -1.890071e+01 5.961534e+00 -5.065000e+00 -7.715106e+00 1.674296e+01 5.462049e+00 -2.005532e+00 7.186957e-01 -6.995087e-01 -9.198641e-01 -1.027920e-01 1.259764e+00 -2.919046e-01 -1.533115e+00 2.437500e-01 -8.292742e-01 -1.179305e+00 6.884847e-01 2.132636e-02 -1.444645e-01 -4.021167e-02 -7.485756e-02 1.044755e-01 3.092207e-02 3.758975e-02 5.703818e-02 -1.000440e-01 1.673783e-01 -2.963956e-02 5.555099e-02 2.579860e-01 -9.936155e-02 1.771457e-02
<VARIANCE> 39
 2.346873e+01 2.061214e+01 4.654470e+01 4.574420e+01 4.642294e+01 1.681458e+01 4.949242e+01 5.074552e+01 2.852184e+01 5.674244e+01 3.483315e+01 1.848147e+01 2.472257e+01 1.440324e+00 1.268016e+00 2.044107e+00 1.088580e+00 1.178949e+00 1.184115e+00 2.017216e+00 2.873479e+00 1.261591e+00 1.848603e+00 2.748716e+00 1.352520e+00 8.451099e-01 3.053986e-01 2.592151e-01 3.378110e-01 2.129667e-01 2.158983e-01 2.097223e-01 3.379397e-01 5.069651e-01 2.339789e-01 3.962749e-01 3.996352e-01 2.153302e-01 1.522717e-01
<GCONST> 1.058195e+02
<STATE> 3
<NUMMIXES> 2
<MIXTURE> 1 9.969991e-01
<MEAN> 39
 1.145560e+01 -3.438306e+00 -6.654387e+00 1.887809e+01 2.636418e+01 -8.994529e-01 -2.870727e+01 -7.916549e+00 -1.255593e+01 -9.162037e+00 1.726555e+01 8.124026e+00 -2.469985e+00 -8.863729e-01 7.441096e-01 6.939819e-01 3.657751e-01 -3.181586e-01 1.181520e-01 3.451320e-01 -1.153044e+00 -1.185319e-01 4.884501e-01 -8.528394e-01 2.725816e-01 5.574390e-01 -1.691265e-01 1.170619e-01 1.774019e-01 -9.706115e-02 -2.302439e-01 4.354536e-02 3.001606e-01 2.142867e-01 2.103490e-01 1.190788e-01 -1.710636e-01 -8.736736e-02 7.043093e-02
<VARIANCE> 39
 1.981873e+01 2.346448e+01 3.482102e+01 2.983092e+01 2.856085e+01 2.112332e+01 5.329667e+01 7.615057e+01 4.390881e+01 4.143793e+01 4.248119e+01 3.500300e+01 3.550424e+01 1.468009e+00 2.053514e+00 2.906067e+00 2.033463e+00 4.146779e+00 1.749475e+00 6.345738e+00 3.693051e+00 3.553865e+00 3.177417e+00 4.744031e+00 1.884529e+00 1.628898e+00 3.240797e-01 3.498927e-01 5.793529e-01 3.349407e-01 8.346975e-01 3.146119e-01 1.394245e+00 7.687929e-01 8.085632e-01 6.474476e-01 9.537483e-01 3.562838e-01 3.259982e-01
<GCONST> 1.230433e+02
<MIXTURE> 2 3.001015e-03
<MEAN> 39
 1.941975e+01 6.016625e+00 3.599995e+00 7.109987e+00 2.681615e+00 -1.507786e+01 -2.167240e+01 1.799175e+01 7.787682e+00 -1.348425e+01 8.479612e+00 1.915820e+00 -1.491160e+01 -2.271637e-01 7.114044e-01 4.127765e-01 5.328549e-01 -1.078805e-01 -3.361895e-01 1.711217e-02 -1.490267e+00 -5.595474e-01 1.353136e+00 3.350937e-01 -1.094379e-01 3.793183e-01 -1.139608e-01 1.002369e-02 1.873788e-01 -9.028785e-03 1.195172e-02 2.932843e-01 1.329005e-01 -1.335404e-01 -5.197445e-02 -5.345651e-02 -7.045838e-02 -1.303909e-02 1.042299e-01
<VARIANCE> 39
 1.733729e+00 1.136786e+01 4.010607e+00 1.364174e+01 3.960003e+00 9.008102e+00 4.429178e+00 6.726007e+01 5.026276e+00 6.364288e+01 3.851489e+00 2.761621e+00 6.584577e+00 1.930832e-01 3.514976e-01 4.178579e-01 4.714492e-01 4.899175e-01 1.322464e+00 8.346247e-01 1.590843e+00 9.838930e-01 1.439821e+00 6.290099e-01 2.208768e-01 7.868486e-01 7.516521e-02 5.414143e-02 1.459927e-01 7.098056e-02 9.122365e-02 6.002765e-02 2.370854e-01 3.662756e-01 1.151590e-01 3.722636e-01 1.406888e-01 3.485784e-02 1.989501e-01
<GCONST> 6.381116e+01
<STATE> 4
<NUMMIXES> 2
<MIXTURE> 1 1.000000e+00
<MEAN> 39
 -3.511037e-01 5.014901e+00 5.204697e+00 1.976985e+01 1.912613e+01 2.277766e+00 -1.644823e+01 -5.445725e+00 -7.968002e+00 -4.024537e+00 9.724833e+00 5.959619e+00 -1.283927e-01 -1.438955e+00 4.555125e-01 1.069106e+00 5.576406e-02 -4.427565e-01 8.732052e-01 1.850494e+00 1.142304e+00 9.354587e-01 6.140590e-01 -4.790376e-01 -2.133117e-01 2.019498e-01 3.877720e-02 -1.817928e-01 -1.255685e-01 -2.014623e-03 1.342747e-01 9.382327e-02 3.735044e-02 2.180871e-01 9.038164e-02 1.899365e-02 1.899548e-01 2.944966e-03 -9.422462e-02
<VARIANCE> 39
 4.110572e+01 2.872343e+01 4.075309e+01 3.190710e+01 3.492019e+01 4.965394e+01 6.677437e+01 6.071152e+01 3.786565e+01 3.196134e+01 4.365695e+01 3.758772e+01 2.850503e+01 1.444328e+00 1.718626e+00 1.988513e+00 2.044735e+00 2.585135e+00 2.646420e+00 3.987879e+00 4.550328e+00 3.451207e+00 2.526709e+00 3.139279e+00 1.915469e+00 1.581730e+00 1.485384e-01 1.555121e-01 2.374100e-01 3.637419e-01 4.313554e-01 3.755780e-01 5.576189e-01 5.397279e-01 5.287135e-01 3.992077e-01 5.143248e-01 3.362496e-01 2.440154e-01
<GCONST> 1.171311e+02
<MIXTURE> 2 0.000000e+00
<MEAN> 39
 2.451241e-05 -3.945827e-05 -6.578863e-06 -7.152557e-07 -2.774596e-05 1.187921e-04 -1.449883e-05 1.633167e-05 -6.984919e-06 -4.756451e-05 -2.284069e-07 1.892447e-05 7.908791e-06 -7.654307e-09 2.645538e-08 3.352761e-08 1.137960e-07 9.124051e-09 1.990702e-07 1.084991e-07 -6.868504e-08 -1.708395e-08 1.569279e-07 2.568122e-07 2.303568e-08 -8.591451e-08 -1.363271e-02 1.440285e-03 -1.899552e-03 5.156639e-04 -4.873953e-04 -4.111854e-04 -4.649502e-04 -8.853489e-04 -2.279049e-04 -6.240061e-04 -1.173968e-04 -5.409846e-04 -2.049126e-04
<VARIANCE> 39
 9.626150e-06 2.426654e-05 3.815629e-06 0.000000e+00 0.000000e+00 0.000000e+00 2.935529e-06 0.000000e+00 1.143431e-06 0.000000e+00 0.000000e+00 0.000000e+00 0.000000e+00 1.686828e-11 0.000000e+00 1.923581e-10 0.000000e+00 0.000000e+00 2.846718e-10 0.000000e+00 0.000000e+00 2.116707e-11 0.000000e+00 0.000000e+00 0.000000e+00 8.787993e-11 8.329379e-03 3.102372e-04 3.842243e-04 2.258328e-04 2.910108e-04 3.261111e-04 3.767133e-04 3.033899e-04 2.445394e-04 2.236361e-04 1.965368e-04 1.861692e-04 1.587977e-04
<GCONST> -1.600000e+11
<STATE> 5
<NUMMIXES> 2
<MIXTURE> 1 1.000000e+00
<MEAN> 39
 -1.212662e+01 3.769959e+00 8.261962e+00 1.683761e+01 1.687653e+01 1.322606e+01 3.221503e+00 1.123795e+01 5.801899e+00 5.038336e+00 9.513546e+00 3.980999e+00 5.363856e-01 -1.170720e+00 -5.595008e-01 -6.028763e-01 -1.272454e+00 -1.215007e+00 -5.069368e-02 6.002661e-01 1.446594e-01 2.477994e-01 2.264160e-01 -4.461689e-01 -2.316895e-01 1.830339e-01 -3.709337e-02 -1.109263e-01 -1.898533e-01 -2.330740e-01 -2.934934e-01 -3.754708e-01 -3.946927e-01 -3.698658e-01 -3.260933e-01 -2.483696e-01 -1.450597e-01 -6.072786e-02 -2.300683e-02
<VARIANCE> 39
 4.029774e+01 2.264077e+01 2.125577e+01 3.778082e+01 3.606961e+01 2.098366e+01 3.336913e+01 3.126946e+01 3.014181e+01 3.239874e+01 1.835251e+01 1.612873e+01 1.349801e+01 1.034302e+00 1.105280e+00 1.627778e+00 2.293331e+00 3.183550e+00 3.143391e+00 2.849365e+00 3.285866e+00 2.737797e+00 2.211388e+00 1.985988e+00 1.424593e+00 9.611399e-01 8.471470e-02 1.020651e-01 1.355499e-01 1.924220e-01 2.780216e-01 2.818684e-01 2.835918e-01 2.965623e-01 2.678445e-01 2.606776e-01 2.449957e-01 2.130855e-01 1.613241e-01
<GCONST> 1.018724e+02
<MIXTURE> 2 0.000000e+00
<MEAN> 39
 -1.609325e-06 -8.135103e-07 4.749745e-07 -6.807968e-07 -4.202593e-08 -3.618188e-07 2.407432e-09 2.424931e-07 1.277658e-07 -1.313165e-07 1.412118e-07 2.625166e-07 -2.114102e-07 1.533401e-01 -5.503851e-03 3.785035e-02 1.390424e-03 1.759262e-02 1.390478e-02 1.895499e-02 1.250848e-02 7.013478e-03 6.770252e-03 6.135121e-03 5.650446e-03 4.476010e-03 -1.806013e-01 2.015203e-02 -3.495460e-02 2.499425e-02 1.963463e-02 -3.039902e-02 -3.971753e-02 -2.047334e-02 -8.192796e-04 8.419420e-03 5.635804e-03 4.006127e-03 -1.858771e-03
<VARIANCE> 39
 0.000000e+00 0.000000e+00 0.000000e+00 0.000000e+00 4.588401e-10 0.000000e+00 9.299506e-14 0.000000e+00 1.959961e-10 7.395329e-10 9.354153e-10 0.000000e+00 0.000000e+00 5.519691e-01 1.833294e-02 3.783517e-02 1.655615e-02 2.303718e-02 2.295028e-02 2.466567e-02 1.928537e-02 1.440313e-02 1.338319e-02 1.233723e-02 1.081821e-02 9.576578e-03 1.242094e-01 1.541650e-02 1.599239e-02 1.925049e-02 2.621124e-02 3.162269e-02 3.145853e-02 1.910103e-02 1.752691e-02 1.237346e-02 1.492543e-02 9.388872e-03 1.088586e-02
<GCONST> -8.000000e+10
<STATE> 6
<NUMMIXES> 2
<MIXTURE> 1 1.000000e+00
<MEAN> 39
 -2.492522e+01 -5.972542e+00 -4.332840e+00 -1.423227e+00 -1.973955e+00 1.707630e+00 -3.267003e+00 1.688166e+00 -1.757283e+00 -7.808522e-01 1.465324e+00 -1.063199e-01 6.196661e-01 -3.714755e-01 -2.302600e-01 -2.379019e-01 -4.816692e-01 -6.387812e-01 -4.516976e-01 -2.407061e-01 -2.366212e-01 -1.963687e-01 -2.329684e-01 -3.275109e-01 -2.101769e-01 -9.015276e-02 1.292568e-01 9.802470e-02 1.419170e-01 1.903425e-01 2.191411e-01 1.435425e-01 6.196806e-02 8.470917e-02 5.269705e-02 5.208345e-02 9.770316e-02 5.213892e-02 1.661729e-02
<VARIANCE> 39
 3.815695e+01 8.993295e+00 1.177247e+01 2.247473e+01 2.360385e+01 1.463580e+01 1.262939e+01 1.219713e+01 1.439367e+01 1.782467e+01 1.273985e+01 1.149634e+01 7.133103e+00 7.861739e-01 7.478907e-01 1.473744e+00 1.957425e+00 2.443467e+00 2.275937e+00 1.705348e+00 1.644386e+00 1.506440e+00 1.612036e+00 1.510634e+00 1.296175e+00 9.145004e-01 8.980868e-02 9.953792e-02 1.363560e-01 2.127294e-01 2.757606e-01 2.507493e-01 2.382638e-01 2.401020e-01 2.592385e-01 2.686797e-01 2.541999e-01 2.211104e-01 1.718890e-01
<GCONST> 9.012569e+01
<MIXTURE> 2 0.000000e+00
<MEAN> 39
 0.000000e+00 0.000000e+00 0.000000e+00 0.000000e+00 0.000000e+00 0.000000e+00 0.000000e+00 0.000000e+00 0.000000e+00 0.000000e+00 0.000000e+00 0.000000e+00 0.000000e+00 4.237878e-23 -3.786909e-23 1.582470e-23 -1.329638e-24 3.023070e-24 -8.363062e-24 6.443591e-24 -1.243620e-24 4.356885e-25 -2.915257e-24 3.233656e-24 -1.075627e-24 3.332135e-26 -1.259776e-01 9.946360e-03 -3.100975e-02 6.726459e-03 -2.000426e-04 -2.277133e-02 -2.668727e-02 -1.526267e-02 -5.181108e-03 1.760355e-04 -1.211648e-03 -1.074032e-03 -3.869191e-03
<VARIANCE> 39
 0.000000e+00 0.000000e+00 0.000000e+00 0.000000e+00 0.000000e+00 0.000000e+00 0.000000e+00 0.000000e+00 0.000000e+00 0.000000e+00 0.000000e+00 0.000000e+00 0.000000e+00 5.779452e-23 4.550961e-23 7.666999e-24 4.672506e-26 3.242006e-25 2.289604e-24 1.269824e-24 4.119810e-26 1.051707e-26 3.016532e-25 3.258485e-25 3.081342e-26 3.416759e-28 8.857191e-02 9.054033e-03 1.131149e-02 9.210194e-03 1.184606e-02 1.578277e-02 1.645681e-02 1.080695e-02 9.119515e-03 6.624663e-03 7.254379e-03 5.319290e-03 5.618778e-03
<GCONST> -1.300000e+11
<TRANSP> 7
 0.000000e+00 1.000000e+00 0.000000e+00 0.000000e+00 0.000000e+00 0.000000e+00 0.000000e+00
 0.000000e+00 9.044234e-01 9.557661e-02 0.000000e+00 0.000000e+00 0.000000e+00 0.000000e+00
 0.000000e+00 0.000000e+00 8.709629e-01 1.290371e-01 0.000000e+00 0.000000e+00 0.000000e+00
 0.000000e+00 0.000000e+00 0.000000e+00 8.958179e-01 1.041821e-01 0.000000e+00 0.000000e+00
 0.000000e+00 0.000000e+00 0.000000e+00 0.000000e+00 8.823012e-01 1.176988e-01 0.000000e+00
 0.000000e+00 0.000000e+00 0.000000e+00 0.000000e+00 0.000000e+00 8.664376e-01 1.335625e-01
 0.000000e+00 0.000000e+00 0.000000e+00 0.000000e+00 0.000000e+00 0.000000e+00 0.000000e+00
<ENDHMM>
~h "ii"
<BEGINHMM>
<NUMSTATES> 7
<STATE> 2
<NUMMIXES> 2
<MIXTURE> 1 3.017077e-01
<MEAN> 39
 4.801878e+00 -1.460502e+01 1.933048e+01 2.837927e+01 1.705145e+01 1.222067e+01 -1.281647e+01 1.249308e+00 -7.283849e-01 -5.083675e+00 4.476219e+00 -7.726775e+00 -5.695701e+00 2.960498e+00 1.954570e+00 -4.685531e-01 2.903746e+00 3.278252e+00 -1.490872e+00 -3.791088e+00 -1.134781e+00 6.219651e-01 -2.753024e+00 -1.676554e+00 -1.539039e-01 -2.307205e+00 -4.135270e-01 -8.155053e-01 -7.343825e-01 -4.313086e-01 2.379526e-01 -3.471492e-01 -7.415102e-01 1.674133e-01 -2.382933e-01 -7.314848e-01 2.307300e-01 2.979016e-01 -3.265495e-01
<VARIANCE> 39
 1.570841e+01 3.767483e+01 7.518780e+01 6.820940e+01 2.846663e+01 1.107154e+02 4.246257e+01 9.003648e+01 3.375903e+01 4.386649e+01 2.231268e+01 2.201061e+01 1.612909e+01 1.379570e+00 3.054715e+00 3.746161e+00 3.870387e+00 2.588786e+00 3.367868e+00 2.744215e+00 2.568172e+00 3.110377e+00 2.796909e+00 2.265386e+00 2.064852e+00 1.709336e+00 1.980770e-01 2.399423e-01 3.051508e-01 4.117492e-01 4.035501e-01 3.316302e-01 6.056939e-01 4.966560e-01 5.031569e-01 5.146594e-01 3.868397e-01 3.410989e-01 2.269284e-01
<GCONST> 1.184653e+02
<MIXTURE> 2 6.982924e-01
<MEAN> 39
 1.124974e+01 -1.116398e+01 1.084868e+01 3.248715e+01 2.748528e+01 4.982168e+00 -2.342366e+01 2.939089e+00 -2.012720e+00 -1.705987e+01 4.865198e+00 -3.963253e+00 -1.298556e+01 7.462729e-01 -5.723240e-01 -5.383006e-01 9.005180e-01 2.038974e+00 -1.210303e+00 -3.126267e+00 4.562305e-01 3.937537e-01 -2.035270e+00 4.146018e-01 4.738518e-01 -1.840603e+00 -3.540500e-01 -8.774626e-02 1.554458e-01 -4.322778e-01 -4.764923e-01 1.310209e-01 4.460915e-01 2.856066e-01 1.167810e-01 3.206092e-01 5.701864e-02 -2.676027e-02 3.054223e-01
<VARIANCE> 39
 1.048288e+01 2.820459e+01 6.456000e+01 4.638203e+01 3.606837e+01 5.089859e+01 4.998827e+01 4.611796e+01 4.294121e+01 3.906742e+01 4.301207e+01 1.974720e+01 2.449772e+01 6.856186e-01 1.799574e+00 2.177449e+00 1.960929e+00 2.479841e+00 2.001485e+00 3.308035e+00 2.458935e+00 2.116627e+00 2.882533e+00 2.173074e+00 1.672449e+00 1.630298e+00 1.249234e-01 2.417433e-01 2.516645e-01 3.122551e-01 3.370449e-01 2.179042e-01 4.052080e-01 3.165733e-01 3.112469e-01 3.805423e-01 3.301106e-01 2.241883e-01 2.393336e-01
<GCONST> 1.100698e+02
<STATE> 3
<NUMMIXES> 2
<MIXTURE> 1 1.000000e+00
<MEAN> 39
 1.340962e+01 -1.272313e+01 6.650899e+00 2.880121e+01 3.215802e+01 3.918269e-01 -3.125099e+01 8.575780e+00 -6.898279e+00 -2.411405e+01 1.300595e+01 -2.982596e+00 -1.858530e+01 -2.860441e-01 -1.304536e-01 6.728075e-01 4.156091e-01 3.922342e-01 -5.427705e-02 -6.914488e-01 1.831880e-01 6.131155e-01 -2.147900e-01 -2.653878e-01 -2.311990e-01 -6.054354e-01 -6.976671e-02 1.321632e-01 -4.932707e-03 -7.941613e-02 -2.466828e-01 7.335142e-02 3.982505e-01 -1.217438e-01 2.817691e-02 2.634122e-01 -1.879962e-01 3.440323e-04 2.563033e-01
<VARIANCE> 39
 9.903028e+00 1.589870e+01 4.105030e+01 4.998511e+01 4.161748e+01 2.999930e+01 4.208229e+01 4.086268e+01 4.775944e+01 3.353812e+01 6.468826e+01 1.695803e+01 3.067216e+01 4.659204e-01 5.593970e-01 1.117322e+00 1.028041e+00 1.077351e+00 1.042249e+00 2.116821e+00 1.854956e+00 1.043196e+00 1.733140e+00 1.580849e+00 8.712031e-01 9.728417e-01 7.931106e-02 8.868109e-02 1.173434e-01 1.367536e-01 1.980245e-01 1.287325e-01 3.599828e-01 2.957382e-01 1.655535e-01 3.224576e-01 2.650179e-01 1.484913e-01 1.526124e-01
<GCONST> 9.486332e+01
<MIXTURE> 2 0.000000e+00
<MEAN> 39
 -2.208270e+00 -4.924166e+00 1.908871e+01 1.414313e+01 1.305121e+01 -2.550124e+01 -8.712596e+00 3.256981e+00 -1.020494e+01 -1.600216e+01 -1.043865e+01 -7.724840e+00 -3.884650e+00 -3.069684e-02 5.741307e-02 2.626543e-02 -1.140945e-02 -5.099841e-03 1.462645e-03 -7.175154e-02 2.450622e-02 1.508959e-02 -8.209687e-02 -2.880517e-02 4.053793e-02 1.540386e-02 4.400872e-03 3.426807e-02 -3.873229e-02 -2.918413e-02 4.017396e-02 7.009056e-02 -1.632413e-02 -6.592760e-02 5.973514e-02 5.484207e-02 -7.151864e-03 -6.910361e-03 -2.705606e-03
<VARIANCE> 39
 5.265318e+00 3.126786e+01 2.337614e+01 3.727947e+01 3.152877e+01 2.943056e+01 3.225301e+01 2.729765e+01 2.195340e+01 2.848150e+01 2.092086e+01 3.419135e+01 3.785925e+01 6.421357e-02 2.003726e-01 3.487247e-01 3.611105e-01 4.247755e-01 4.733264e-01 5.225756e-01 5.518345e-01 5.403954e-01 5.455791e-01 4.727846e-01 4.464683e-01 3.817663e-01 9.004888e-03 2.605502e-02 4.109941e-02 5.433235e-02 6.215053e-02 8.339533e-02 8.227700e-02 8.697993e-02 9.257926e-02 8.818587e-02 8.279812e-02 7.263009e-02 6.514387e-02
<GCONST> 6.347967e+01
<STATE> 4
<NUMMIXES> 2
<MIXTURE> 1 5.353844e-01
<MEAN> 39
 1.177654e+01 -1.333506e+01 1.193449e+01 3.324210e+01 3.133335e+01 2.940287e-01 -3.402775e+01 6.648819e+00 2.109782e+00 -2.339870e+01 4.711635e+00 -2.596644e+00 -1.752588e+01 2.070198e-02 1.208581e-01 -1.348215e-01 1.000387e-01 3.247117e-02 -1.531491e-01 1.186690e-01 -1.069819e-01 -4.943400e-02 1.758317e-01 -1.280915e-01 -8.289911e-02 3.396767e-02 -3.773445e-02 1.314389e-01 -5.162909e-02 2.472203e-02 -1.043171e-01 -7.047744e-03 3.190809e-01 -1.010689e-01 -1.176943e-01 2.167491e-01 -6.982647e-02 -6.796547e-02 1.310360e-01
<VARIANCE> 39
 4.120071e+00 1.260076e+01 2.317000e+01 2.218161e+01 2.737799e+01 2.274405e+01 2.389476e+01 2.399357e+01 2.871263e+01 2.142639e+01 2.756257e+01 1.130939e+01 2.042111e+01 3.203626e-01 4.286812e-01 6.059177e-01 7.810180e-01 7.898589e-01 7.961841e-01 1.536260e+00 1.002008e+00 9.124274e-01 1.183929e+00 1.039730e+00 6.024474e-01 7.045133e-01 4.362561e-02 6.308867e-02 7.578491e-02 1.085749e-01 1.155743e-01 1.096951e-01 1.947638e-01 1.439344e-01 1.118573e-01 1.794795e-01 1.309150e-01 1.000018e-01 1.065947e-01
<GCONST> 7.720777e+01
<MIXTURE> 2 4.646153e-01
<MEAN> 39
 1.042918e+01 -8.318462e+00 1.322395e+01 3.516964e+01 2.645629e+01 -8.779415e-01 -2.471598e+01 4.453178e+00 5.116858e+00 -1.549814e+01 -4.044331e+00 -6.541163e+00 -1.284299e+01 1.611182e-02 2.000156e-01 -1.003554e-01 4.327740e-02 -1.570854e-02 -2.108230e-01 6.036622e-02 2.215536e-02 -7.151279e-02 3.638279e-02 -1.532348e-01 -1.351158e-01 3.464012e-02 5.512783e-02 -5.339748e-02 -1.046064e-02 -3.416700e-02 6.857663e-02 1.178797e-01 -1.176226e-01 4.930513e-02 -6.126399e-02 -1.102408e-01 1.776350e-01 3.923894e-02 -4.868168e-02
<VARIANCE> 39
 4.498811e+00 1.607598e+01 2.311796e+01 2.247594e+01 2.167986e+01 4.240842e+01 4.438575e+01 3.378443e+01 2.623705e+01 2.553105e+01 4.256639e+01 1.815171e+01 2.527067e+01 2.351110e-01 5.379056e-01 6.641489e-01 9.790590e-01 9.590681e-01 9.846638e-01 1.630543e+00 1.201203e+00 9.398764e-01 1.199876e+00 1.108543e+00 8.637416e-01 7.609615e-01 4.286867e-02 6.835712e-02 8.760431e-02 1.474226e-01 1.373950e-01 1.389892e-01 1.963547e-01 1.781332e-01 1.347558e-01 1.830990e-01 1.501273e-01 1.326499e-01 1.262192e-01
<GCONST> 8.347364e+01
<STATE> 5
<NUMMIXES> 2
<MIXTURE> 1 6.440832e-01
<MEAN> 39
 1.210857e+01 -9.450258e+00 7.868843e+00 3.393374e+01 3.192639e+01 1.954027e-04 -2.805637e+01 4.765912e+00 -3.534785e+00 -1.993061e+01 6.040159e+00 -4.312934e+00 -1.709427e+01 -2.855686e-01 1.396142e+00 -3.606227e-01 -5.124204e-01 -1.015679e+00 3.449339e-01 2.314738e+00 -4.770759e-01 -2.313586e-01 1.462055e+00 -7.380170e-01 -3.386443e-02 1.164954e+00 -2.291228e-01 4.423202e-01 1.751229e-01 -4.074214e-01 -5.388185e-01 1.208124e-01 6.475236e-01 8.789309e-02 3.167695e-01 4.593763e-01 -4.135186e-01 -2.621419e-02 4.701153e-01
<VARIANCE> 39
 1.077506e+01 2.445145e+01 3.203655e+01 4.334952e+01 3.204706e+01 4.273057e+01 4.349554e+01 4.263344e+01 4.176991e+01 3.261881e+01 4.830640e+01 2.344587e+01 2.376098e+01 4.886976e-01 1.192506e+00 9.963776e-01 1.757284e+00 1.691465e+00 1.289125e+00 2.921957e+00 1.801537e+00 1.612147e+00 2.245621e+00 2.000996e+00 1.061200e+00 1.273576e+00 5.948055e-02 1.245502e-01 1.587692e-01 2.161430e-01 2.047218e-01 2.063894e-01 2.840009e-01 3.016976e-01 2.360849e-01 2.693604e-01 2.129023e-01 1.630020e-01 1.539087e-01
<GCONST> 9.950809e+01
<MIXTURE> 2 3.559169e-01
<MEAN> 39
 -1.697954e+01 -1.551502e+00 9.264425e-01 6.738481e+00 3.546763e+00 -9.982377e-02 -7.189892e+00 1.584776e+00 -3.069376e+00 -4.198425e+00 -6.177281e-01 -2.737193e+00 -2.393257e+00 -7.869679e-01 -1.677135e-01 -2.710704e-01 -7.257313e-01 -5.258793e-01 2.036913e-01 3.542158e-01 -9.188404e-02 4.541008e-02 3.125960e-01 8.788431e-02 1.913185e-01 3.111012e-01 4.727942e-02 -6.069206e-02 9.293822e-04 9.163029e-02 8.347438e-02 -1.427855e-02 -3.866628e-02 4.399901e-02 8.156695e-04 -4.793210e-02 4.838267e-02 -3.803862e-03 -6.555239e-02
<VARIANCE> 39
 1.451782e+02 4.252244e+01 5.577732e+01 1.663966e+02 1.140110e+02 4.618512e+01 6.522890e+01 5.562347e+01 5.096731e+01 5.502535e+01 4.028268e+01 5.031330e+01 5.102957e+01 1.367856e+00 1.357787e+00 1.171597e+00 2.476175e+00 2.127808e+00 1.255788e+00 1.553647e+00 1.930616e+00 2.085238e+00 2.129632e+00 1.845071e+00 1.634725e+00 1.738689e+00 7.798267e-02 1.269938e-01 1.340895e-01 2.227662e-01 2.411026e-01 1.848511e-01 2.028170e-01 2.769909e-01 3.545964e-01 3.606790e-01 2.929815e-01 2.547302e-01 2.531908e-01
<GCONST> 1.125643e+02
<STATE> 6
<NUMMIXES> 2
<MIXTURE> 1 4.431636e-01
<MEAN> 39
 1.559557e+00 9.230406e+00 1.141345e+01 2.334816e+01 1.930109e+01 6.944556e+00 -4.380255e+00 7.903797e+00 3.967165e+00 -2.713015e+00 -3.194726e+00 -5.353120e+00 -3.810825e+00 -1.946567e+00 1.562979e+00 7.260972e-01 -1.861384e+00 -1.607717e+00 1.241457e+00 2.225367e+00 3.711933e-01 1.815715e-01 1.022811e+00 2.699818e-02 3.375953e-01 7.820329e-01 -9.770545e-02 -6.301026e-01 -1.494904e-01 5.973717e-02 7.473181e-02 -7.703533e-02 -3.292745e-01 -1.496774e-01 -2.745182e-01 -3.043035e-01 3.158797e-01 4.599809e-02 -3.041635e-01
<VARIANCE> 39
 4.241040e+01 2.011956e+01 1.768003e+01 4.130288e+01 3.033397e+01 1.791160e+01 2.359192e+01 1.665581e+01 2.044848e+01 2.318341e+01 1.362773e+01 1.400140e+01 1.022282e+01 1.041966e+00 2.182078e+00 1.324340e+00 2.030814e+00 1.773723e+00 1.153581e+00 1.470108e+00 1.327774e+00 1.356259e+00 1.316656e+00 1.552320e+00 1.266272e+00 1.226444e+00 6.942906e-02 1.288354e-01 2.021006e-01 2.938436e-01 3.051831e-01 1.602901e-01 2.209316e-01 1.983658e-01 1.924761e-01 2.186447e-01 2.311584e-01 1.598761e-01 2.116901e-01
<GCONST> 9.397931e+01
<MIXTURE> 2 5.568362e-01
<MEAN> 39
 9.478534e+00 -3.875448e+00 1.026011e+01 3.177482e+01 2.522991e+01 2.548793e+00 -1.716526e+01 3.772916e+00 -5.356252e-01 -1.136141e+01 2.200270e-01 -6.443161e+00 -1.045778e+01 -8.644428e-01 1.934984e+00 5.293071e-01 -1.190267e+00 -1.685273e+00 9.627466e-01 2.903039e+00 1.656799e-01 4.412655e-01 1.932886e+00 -9.926293e-01 -1.451952e-01 1.829636e+00 -1.422041e-01 2.762205e-02 1.951437e-01 -1.414098e-01 -1.077417e-02 1.200395e-01 -6.553390e-02 1.985394e-01 4.746168e-02 -1.536775e-01 8.628692e-02 8.762626e-02 -1.113945e-02
<VARIANCE> 39
 1.234487e+01 4.261099e+01 3.784324e+01 4.493046e+01 2.814069e+01 5.848925e+01 4.364339e+01 5.516303e+01 3.400998e+01 3.470040e+01 3.208874e+01 3.242505e+01 2.058953e+01 5.755164e-01 2.809156e+00 1.664612e+00 2.248025e+00 1.876269e+00 2.113469e+00 2.767678e+00 2.669852e+00 2.202557e+00 2.256865e+00 2.464728e+00 1.286306e+00 1.482229e+00 7.004347e-02 1.853174e-01 1.879694e-01 2.440000e-01 2.424891e-01 2.336726e-01 3.157274e-01 2.962707e-01 2.469420e-01 2.880021e-01 2.218622e-01 2.242087e-01 1.835663e-01
<GCONST> 1.059420e+02
<TRANSP> 7
 0.000000e+00 1.000000e+00 0.000000e+00 0.000000e+00 0.000000e+00 0.000000e+00 0.000000e+00
 0.000000e+00 7.569070e-01 2.430930e-01 0.000000e+00 0.000000e+00 0.000000e+00 0.000000e+00
 0.000000e+00 0.000000e+00 7.467200e-01 2.532800e-01 0.000000e+00 0.000000e+00 0.000000e+00
 0.000000e+00 0.000000e+00 0.000000e+00 9.236696e-01 7.633035e-02 0.000000e+00 0.000000e+00
 0.000000e+00 0.000000e+00 0.000000e+00 0.000000e+00 7.672764e-01 2.327236e-01 0.000000e+00
 0.000000e+00 0.000000e+00 0.000000e+00 0.000000e+00 0.000000e+00 8.201806e-01 1.798194e-01
 0.000000e+00 0.000000e+00 0.000000e+00 0.000000e+00 0.000000e+00 0.000000e+00 0.000000e+00
<ENDHMM>
~h "jh"
<BEGINHMM>
<NUMSTATES> 5
<STATE> 2
<NUMMIXES> 2
<MIXTURE> 1 2.579066e-01
<MEAN> 39
 1.505345e+01 -1.516822e+00 1.455191e+00 1.701325e+01 1.403748e+01 2.924117e+00 -1.747770e+00 1.120686e+01 -1.778659e+01 -2.082196e+01 1.110106e+01 1.977745e+00 -4.879327e+00 -1.999333e+00 3.206901e+00 1.893975e+00 7.612095e-01 -3.354854e-01 2.162931e+00 2.299118e+00 -1.179035e+00 2.286173e+00 2.505208e+00 -3.608013e+00 -2.794761e-01 2.026832e+00 -2.134030e-01 -1.956488e-01 6.033224e-01 -3.113120e-02 -4.645618e-01 3.210956e-01 3.191554e-02 -5.476208e-02 5.201011e-01 1.877786e-01 -2.807752e-01 -8.135194e-02 3.694237e-01
<VARIANCE> 39
 1.225424e+01 3.575586e+01 1.986330e+01 1.289511e+01 3.685587e+00 2.441953e+01 1.422677e+01 1.965690e+01 5.102400e+01 2.306053e+01 9.400761e+01 4.506302e+00 2.297181e+01 5.551251e-01 1.186086e+00 1.920502e+00 1.175679e-01 1.299270e+00 5.775480e-01 1.471933e+00 6.451027e-01 5.512316e+00 2.111655e+00 3.489614e+00 2.596006e-01 1.856205e+00 5.338264e-02 6.121786e-01 1.768542e-01 7.065075e-02 6.989336e-02 1.018943e-01 8.517758e-02 8.863223e-02 1.409240e+00 6.103635e-01 1.039292e+00 6.725990e-02 5.928933e-01
<GCONST> 8.945325e+01
<MIXTURE> 2 7.420934e-01
<MEAN> 39
 2.847987e+00 5.433092e+00 1.767225e+01 2.050689e+01 8.345168e+00 1.371690e+01 4.199323e+00 3.515488e+00 -5.602900e+00 -1.021789e+01 -3.818784e+00 -5.363162e-01 2.517427e+00 -2.740310e+00 -2.209414e+00 3.694048e+00 2.769486e-01 -2.039044e+00 2.322435e+00 2.140554e-01 -8.339954e-01 1.918133e+00 9.299107e-01 1.137715e-01 -4.403683e-02 -3.751168e-01 -1.519861e-01 -1.750261e+00 4.193276e-02 -1.298407e-02 -2.610528e-01 -3.424472e-01 -4.730026e-01 8.245807e-01 9.787901e-02 -5.807995e-01 9.141272e-01 2.147816e-01 -5.577570e-01
<VARIANCE> 39
 2.749146e+01 4.069467e+01 5.722953e+01 4.441053e+01 1.239008e+01 3.385263e+01 1.582888e+01 1.410801e+01 2.962512e+01 2.562525e+01 2.015385e+01 1.412963e+01 1.481363e+01 9.935387e-01 8.804662e+00 2.088837e+00 1.153159e+00 1.413289e+00 1.847886e+00 2.157370e+00 3.226753e+00 1.334771e+00 2.776870e+00 2.930583e+00 1.334540e+00 2.038927e+00 6.495739e-02 2.581021e-01 2.673866e-01 2.113975e-01 1.380159e-01 6.294585e-01 3.125612e-01 4.341864e-01 3.239148e-01 6.043618e-01 2.070505e-01 3.591909e-01 2.725356e-01
<GCONST> 1.053676e+02
<STATE> 3
<NUMMIXES> 2
<MIXTURE> 1 5.157358e-01
<MEAN> 39
 -8.086451e+00 -1.746632e+01 3.047898e+01 2.154210e+01 -1.915891e+00 1.718864e+01 2.424986e+00 8.864999e+00 2.704705e+00 -1.076702e+01 3.747459e+00 1.877849e+00 -1.836844e+00 -2.219399e+00 -7.044488e+00 2.155614e+00 -8.770364e-01 -3.206082e+00 -5.977998e-01 -1.525010e+00 2.084336e+00 1.362372e+00 -8.183037e-01 2.414509e+00 1.426988e+00 -4.011672e-01 4.910055e-01 3.358621e-01 -6.359940e-01 -4.199692e-01 2.445026e-01 -2.759551e-01 -3.205439e-01 -3.902181e-01 -7.750307e-01 -2.460021e-02 -1.413835e-01 1.061842e-02 4.851074e-01
<VARIANCE> 39
 3.668965e+01 9.496346e+01 2.447859e+01 6.413296e+01 2.431508e+01 1.593875e+01 1.243940e+01 1.468648e+01 2.835560e+01 5.760458e+01 2.753658e+01 2.146313e+01 1.407433e+01 9.300374e-01 1.177380e+00 1.537420e+00 3.517470e+00 8.938829e-01 3.550149e+00 1.182198e+00 1.230056e+00 3.335687e+00 4.109987e+00 1.709641e+00 3.041824e+00 9.913973e-01 1.401583e-01 8.090516e-01 3.604898e-01 3.964908e-01 4.657697e-01 5.716413e-01 1.707819e-01 4.573926e-01 2.966432e-01 5.198177e-01 3.685159e-01 3.321112e-01 1.166262e-01
<GCONST> 1.082363e+02
<MIXTURE> 2 4.842641e-01
<MEAN> 39
 -1.073210e+01 -3.599081e+01 3.515845e+01 2.057537e+01 -8.264466e+00 1.640645e+01 -3.755291e+00 1.038518e+01 3.456617e+00 -1.341394e+01 8.900225e+00 6.538479e+00 -4.164917e-01 -1.456756e-01 -2.526099e+00 -5.321375e-01 -9.074764e-01 -1.189620e-03 9.425867e-02 -1.729840e+00 -1.128135e+00 -1.057911e+00 3.210068e-01 8.250005e-01 1.222566e-01 4.074281e-01 6.508838e-01 1.554612e+00 -8.069621e-01 -8.256763e-02 8.093131e-01 -3.412488e-03 1.919182e-01 -6.439428e-01 -2.898419e-01 3.061359e-01 -6.690921e-01 -4.722466e-01 -1.258388e-01
<VARIANCE> 39
 3.664662e+01 5.273886e+01 2.231620e+01 5.721389e+01 2.127915e+01 3.492362e+01 1.714262e+01 1.016610e+01 2.409674e+01 5.764182e+01 8.472775e+00 1.341823e+01 1.254004e+01 1.777654e+00 4.125822e+00 2.947065e+00 2.316128e+00 2.899407e+00 2.098582e+00 1.341837e+00 1.164271e+00 6.798549e-01 4.221649e+00 1.437311e+00 1.307049e+00 6.983587e-01 1.159341e-01 3.276520e-01 5.305023e-01 2.800408e-01 4.125574e-01 4.292650e-01 3.186532e-01 2.284763e-01 2.382695e-01 7.205955e-01 2.136477e-01 2.308016e-01 8.816893e-02
<GCONST> 1.034288e+02
<STATE> 4
<NUMMIXES> 2
<MIXTURE> 1 7.057379e-01
<MEAN> 39
 3.381743e+00 -1.940593e+01 2.219752e+01 2.328381e+01 4.269824e+00 1.658897e+01 -4.211051e+00 2.416528e+00 -2.169184e+00 -1.257125e+01 5.519216e+00 3.631558e+00 -1.219720e+00 1.897228e+00 3.368726e+00 -2.154772e+00 4.129145e-02 1.600350e+00 -7.591061e-01 -6.240578e-02 -6.326342e-01 -4.949983e-01 5.266474e-01 -4.067990e-01 -3.903440e-01 9.652505e-02 -7.293569e-02 4.993124e-02 -9.834348e-02 -2.099938e-01 -5.637801e-02 -2.744310e-01 -1.865951e-01 1.138438e-01 4.078139e-02 1.001275e-01 6.613419e-02 -4.312780e-02 2.455306e-02
<VARIANCE> 39
 4.857722e+01 1.618717e+02 6.312238e+01 4.013999e+01 7.136399e+01 4.161969e+01 3.010937e+01 3.646423e+01 3.582751e+01 2.780194e+01 1.389133e+01 2.444207e+01 2.236420e+01 1.165449e+00 3.373067e+00 2.925869e+00 3.773907e+00 2.120386e+00 2.816761e+00 2.929584e+00 2.758942e+00 1.711040e+00 2.238663e+00 1.491710e+00 1.363663e+00 1.385800e+00 1.140222e-01 5.900230e-01 3.024750e-01 4.013786e-01 2.303745e-01 3.385165e-01 4.084551e-01 3.558525e-01 3.040712e-01 3.175582e-01 1.858954e-01 1.763643e-01 1.464018e-01
<GCONST> 1.123837e+02
<MIXTURE> 2 2.942622e-01
<MEAN> 39
 -1.537133e+01 -4.364959e+01 2.838373e+01 8.658160e+00 -1.005754e+01 1.093775e+01 -1.013113e+01 6.860816e+00 -2.042440e+00 -8.138339e+00 9.672549e+00 4.417554e+00 1.849274e+00 6.030520e-01 6.213287e-01 -1.283201e-01 1.749011e-01 3.311639e-01 -2.350733e-04 3.411613e-01 -7.303841e-02 -1.636387e-01 -4.754000e-02 -2.532109e-01 -1.819615e-01 -1.632029e-02 2.137415e-01 5.307055e-01 1.224064e-01 5.262789e-01 3.165582e-01 2.823548e-01 4.390680e-01 1.399642e-01 1.510516e-01 -1.391797e-01 -1.179962e-01 4.233070e-02 -6.111711e-02
<VARIANCE> 39
 8.502641e+00 3.114019e+01 6.388229e+00 1.446748e+01 4.372664e+00 6.302608e+00 1.081913e+01 1.915595e+01 1.559230e+01 1.978020e+01 1.736762e+01 1.729237e+01 7.738112e+00 8.399091e-01 2.896165e+00 1.735025e+00 2.964062e+00 1.732234e+00 1.494432e+00 2.652458e+00 1.871273e+00 2.364961e+00 1.556580e+00 1.675440e+00 1.358250e+00 5.190099e-01 9.120430e-02 1.945354e-01 8.636069e-02 1.387710e-01 3.101243e-01 2.137014e-01 1.420323e-01 2.042066e-01 1.915540e-01 2.616883e-01 3.406604e-01 2.165540e-01 1.303470e-01
<GCONST> 8.811693e+01
<TRANSP> 5
 0.000000e+00 1.000000e+00 0.000000e+00 0.000000e+00 0.000000e+00
 0.000000e+00 8.338791e-01 1.661209e-01 0.000000e+00 0.000000e+00
 0.000000e+00 0.000000e+00 8.395019e-01 1.604981e-01 0.000000e+00
 0.000000e+00 0.000000e+00 0.000000e+00 9.173500e-01 8.265001e-02
 0.000000e+00 0.000000e+00 0.000000e+00 0.000000e+00 0.000000e+00
<ENDHMM>
~h "kh"
<BEGINHMM>
<NUMSTATES> 5
<STATE> 2
<NUMMIXES> 2
<MIXTURE> 1 2.157960e-01
<MEAN> 39
 -2.499311e+01 -6.595366e+00 -5.756588e+00 -2.370265e+00 -1.862731e+00 2.361724e+00 -2.412454e+00 2.697083e+00 -8.795604e-01 -8.958287e-01 -1.402625e-01 -8.381690e-01 1.317955e+00 4.481713e-02 -1.126675e+00 -1.237205e+00 -4.419224e-01 -4.334721e-01 -1.105465e+00 -9.992831e-01 -1.021785e-01 5.806354e-02 -4.342737e-01 -6.512593e-01 -2.019765e-01 5.911383e-02 7.161047e-01 1.430475e-01 2.299928e-01 2.930226e-01 1.868650e-01 1.739864e-01 1.899668e-01 3.382080e-01 3.148950e-02 -1.686950e-01 8.329515e-02 1.787838e-01 2.843391e-01
<VARIANCE> 39
 3.961034e+00 9.438254e+00 9.626438e+00 7.811983e+00 1.157369e+01 1.292285e+01 1.448480e+01 1.209552e+01 1.033258e+01 1.557613e+01 1.030312e+01 6.065805e+00 7.347277e+00 2.388299e+00 1.443500e+00 1.595435e+00 2.264052e+00 2.948328e+00 2.527453e+00 2.442387e+00 3.580380e+00 2.159802e+00 2.460788e+00 1.848821e+00 1.890682e+00 2.131028e+00 1.663682e-01 3.097337e-01 2.853441e-01 1.993939e-01 4.109588e-01 4.913948e-01 4.267847e-01 5.646453e-01 4.215554e-01 3.326319e-01 3.820609e-01 3.056634e-01 2.812895e-01
<GCONST> 9.714499e+01
<MIXTURE> 2 7.842039e-01
<MEAN> 39
 -5.551188e+00 4.462142e+00 5.533399e+00 1.679457e+01 1.692026e+01 8.382243e+00 -4.980997e+00 3.395093e+00 -8.679844e-01 -2.769206e+00 6.682318e-01 -1.016076e+00 3.281781e-01 -3.001809e+00 -9.900743e-01 -7.131424e-01 -2.017660e+00 -1.722558e+00 9.950277e-01 1.654641e+00 -4.987890e-01 -6.088513e-01 2.400072e-01 -7.153189e-01 2.231784e-01 1.286243e+00 3.222463e-01 -1.198183e+00 -8.449954e-01 -3.536806e-01 -1.622327e-01 -1.624257e-01 -2.994992e-01 7.728827e-02 -3.239206e-01 -4.059044e-01 3.949811e-01 -1.730105e-01 -3.722610e-01
<VARIANCE> 39
 3.903724e+01 6.635109e+00 1.128703e+01 5.270649e+01 5.101112e+01 1.613353e+01 4.552507e+01 3.344459e+01 3.050817e+01 2.553549e+01 2.230164e+01 3.819709e+01 3.142257e+01 4.722216e-01 3.800556e+00 2.456287e+00 1.725366e+00 2.145254e+00 2.532463e+00 3.108769e+00 2.435802e+00 2.457070e+00 2.402953e+00 2.200546e+00 1.673839e+00 2.272175e+00 1.868525e-01 2.915749e-01 2.472968e-01 2.593841e-01 4.002663e-01 4.120438e-01 3.668328e-01 4.263871e-01 6.085296e-01 4.837649e-01 4.586150e-01 3.083214e-01 4.444860e-01
<GCONST> 1.108588e+02
<STATE> 3
<NUMMIXES> 2
<MIXTURE> 1 3.627844e-01
<MEAN> 39
 -1.169695e+01 -7.642747e+00 -4.334052e+00 8.004012e+00 1.023533e+01 9.340931e+00 -1.839569e+00 3.838722e+00 -1.990872e+00 -3.648204e+00 -1.262416e+00 -2.278788e+00 3.580801e+00 5.045071e-01 -4.368659e+00 -3.731428e+00 -3.228626e+00 -2.792474e+00 -8.934536e-01 -8.639468e-01 -5.673262e-01 -1.088904e+00 -1.831158e-01 1.385089e+00 -4.675228e-01 1.910688e-01 1.064220e+00 -6.454176e-02 1.951564e-01 7.668152e-02 -1.284993e-01 -3.506030e-01 -9.293845e-01 -4.946336e-01 -6.302249e-01 -2.073038e-01 8.765419e-01 -2.006301e-01 -6.485536e-01
<VARIANCE> 39
 2.584157e+01 4.019981e+01 3.225180e+01 3.826567e+01 4.440611e+01 5.723885e+01 3.959077e+01 4.511283e+01 4.441348e+01 3.444790e+01 4.912886e+01 3.209707e+01 2.159318e+01 3.274585e+00 2.088661e+00 1.862626e+00 3.219742e+00 3.801272e+00 4.986649e+00 5.025251e+00 4.317930e+00 5.016929e+00 3.136525e+00 5.614346e+00 2.819561e+00 3.778491e+00 1.498681e-01 4.448836e-01 6.580319e-01 3.939359e-01 4.636968e-01 5.254860e-01 4.977720e-01 4.215122e-01 6.749406e-01 6.098298e-01 6.823013e-01 4.704468e-01 4.752199e-01
<GCONST> 1.256191e+02
<MIXTURE> 2 6.372157e-01
<MEAN> 39
 -3.502864e+00 -2.044139e+01 -1.165192e+01 -2.440909e+00 -2.509362e+00 3.864010e+00 -9.314603e+00 1.663977e-01 -1.203257e+01 -9.875905e+00 7.653878e+00 -5.205817e+00 -8.050533e-01 1.781154e+00 -1.840527e+00 5.794770e-01 -3.735963e-01 -1.397360e+00 8.400743e-02 -1.060388e+00 -9.135194e-01 -1.939447e+00 -1.040771e+00 1.990565e+00 -1.540867e-02 -4.730944e-01 -3.321630e-01 5.036466e-01 9.100270e-01 8.284071e-01 4.872234e-01 3.431548e-01 4.424419e-01 2.042635e-01 4.982275e-01 3.282208e-01 -2.925053e-01 2.952026e-01 2.840013e-01
<VARIANCE> 39
 4.574841e+01 6.647720e+01 2.796156e+01 6.946007e+01 1.066803e+02 1.565036e+02 1.256067e+02 1.053159e+02 6.841298e+01 6.654671e+01 9.103215e+01 4.333640e+01 2.268996e+01 2.170100e+00 2.530344e+00 4.363286e+00 4.452453e+00 2.544876e+00 3.604236e+00 3.697209e+00 2.943911e+00 4.705971e+00 3.756599e+00 3.933226e+00 2.465502e+00 2.676687e+00 3.429148e-01 3.217074e-01 4.742349e-01 4.778120e-01 3.614955e-01 5.615979e-01 5.214593e-01 4.654612e-01 8.602202e-01 7.774028e-01 8.016163e-01 3.303311e-01 4.560288e-01
<GCONST> 1.324939e+02
<STATE> 4
<NUMMIXES> 2
<MIXTURE> 1 6.687464e-01
<MEAN> 39
 -2.175642e+00 -2.533564e+01 1.804853e+00 1.355663e+01 6.035483e+00 1.239411e+01 -8.273898e+00 -2.954049e+00 -1.120889e+01 -4.939577e+00 1.450063e+01 -9.559821e-01 8.840311e-01 2.387660e-01 1.209851e+00 1.081937e+00 1.261909e+00 9.861988e-01 4.969302e-01 9.097548e-01 7.855237e-01 1.019092e+00 7.920943e-01 1.794058e-01 5.631024e-01 1.952337e-01 7.191558e-02 3.946007e-01 -1.930934e-01 -1.986372e-01 -2.785119e-02 -2.838900e-01 -8.433262e-02 1.474257e-01 1.359583e-01 -5.273077e-02 -1.723193e-01 -9.906277e-02 -9.000941e-02
<VARIANCE> 39
 3.176662e+01 9.534678e+01 3.998501e+01 9.984942e+01 1.282988e+02 2.169547e+02 1.278524e+02 5.302356e+01 5.265124e+01 5.154882e+01 4.043978e+01 5.779045e+01 2.791642e+01 1.243577e+00 5.937367e+00 2.341851e+00 2.485573e+00 3.180479e+00 5.121233e+00 2.876342e+00 2.977702e+00 2.827744e+00 2.249815e+00 3.028949e+00 1.447338e+00 1.438128e+00 1.140521e-01 3.135910e-01 3.020067e-01 2.880345e-01 3.719233e-01 5.507525e-01 4.895450e-01 4.249031e-01 4.950147e-01 4.693026e-01 3.549808e-01 2.197447e-01 2.214437e-01
<GCONST> 1.239767e+02
<MIXTURE> 2 3.312536e-01
<MEAN> 39
 8.336835e+00 -1.720392e+01 -1.263079e+01 -5.959157e+00 -1.632477e+01 -1.040522e+00 6.290977e+00 1.326335e+01 -1.659323e+00 -1.751404e+00 9.555486e+00 3.136324e+00 7.494839e+00 8.517106e-01 6.247210e-01 -2.727275e-01 5.244212e-01 3.706835e-01 -8.266810e-01 3.430673e-02 6.858392e-01 1.089193e+00 5.604732e-01 -4.353167e-01 -7.476113e-02 -1.756654e-01 7.268316e-02 5.582578e-02 1.612872e-02 5.611516e-02 1.886816e-01 -1.570920e-02 -1.845367e-01 -2.938925e-02 -1.160164e-01 -2.066970e-01 -6.441756e-03 -4.462748e-02 -1.507625e-01
<VARIANCE> 39
 5.070576e+01 3.388557e+01 2.357925e+01 7.218768e+01 1.349952e+02 3.970621e+01 3.975513e+01 6.603908e+01 5.842719e+01 9.560890e+01 7.719589e+01 2.931933e+01 1.524495e+01 7.673721e-01 1.752849e+00 2.107609e+00 2.648905e+00 4.607284e+00 3.466172e+00 2.418071e+00 1.689234e+00 2.172082e+00 2.385134e+00 1.728394e+00 1.305986e+00 1.552878e+00 5.218697e-02 1.739018e-01 3.031790e-01 3.575984e-01 3.932789e-01 5.276829e-01 4.475367e-01 2.874256e-01 3.179829e-01 2.986260e-01 3.006895e-01 2.455102e-01 1.887127e-01
<GCONST> 1.140206e+02
<TRANSP> 5
 0.000000e+00 1.000000e+00 0.000000e+00 0.000000e+00 0.000000e+00
 0.000000e+00 7.722782e-01 2.277218e-01 0.000000e+00 0.000000e+00
 0.000000e+00 0.000000e+00 8.625428e-01 1.374572e-01 0.000000e+00
 0.000000e+00 0.000000e+00 0.000000e+00 9.221659e-01 7.783408e-02
 0.000000e+00 0.000000e+00 0.000000e+00 0.000000e+00 0.000000e+00
<ENDHMM>
~h "mq"
<BEGINHMM>
<NUMSTATES> 5
<STATE> 2
<NUMMIXES> 2
<MIXTURE> 1 1.000000e+00
<MEAN> 39
 2.213413e+01 -5.978206e+00 -1.098057e+01 -3.457002e+00 1.243750e+00 -4.370506e+00 -1.627291e+00 2.656933e+01 -3.936171e+00 -1.894379e+01 1.079144e+01 -3.539761e-01 -7.440804e+00 -9.040100e-02 8.039435e-02 6.383768e-01 1.692925e-01 2.299983e-01 6.320574e-01 -2.550427e-02 -4.791314e-01 -8.308338e-01 -7.465193e-02 7.258679e-01 -1.822746e-01 -8.944821e-02 -7.294246e-04 1.123199e-02 6.985683e-03 9.981663e-02 5.622517e-02 -1.515060e-02 -3.147724e-02 -6.226873e-02 -2.102291e-02 4.205435e-02 -1.117356e-02 -6.196279e-03 2.059898e-02
<VARIANCE> 39
 6.455554e+00 1.551870e+01 2.672986e+01 3.531747e+01 2.533529e+01 4.321621e+01 3.069363e+01 4.431156e+01 3.698107e+01 2.631466e+01 4.890646e+01 1.308861e+01 7.220730e+00 4.953279e-01 4.872586e-01 4.883473e-01 8.647263e-01 7.398106e-01 7.567428e-01 1.670329e+00 1.906524e+00 5.667850e-01 9.398545e-01 1.373623e+00 5.726070e-01 2.900464e-01 7.694287e-02 7.205492e-02 6.549931e-02 9.845424e-02 7.901173e-02 1.091180e-01 1.908907e-01 2.789654e-01 8.697184e-02 1.469940e-01 2.058215e-01 9.260792e-02 4.957046e-02
<GCONST> 7.960510e+01
<MIXTURE> 2 0.000000e+00
<MEAN> 39
 -9.685755e-07 -6.519258e-07 -1.657754e-07 6.034970e-07 1.440640e-09 1.266599e-07 -8.195639e-08 7.823110e-08 2.533197e-07 1.257285e-08 1.639128e-07 7.078052e-07 2.328306e-08 3.019522e-10 -4.656613e-09 -1.216540e-08 1.164153e-10 1.781154e-08 1.982698e-10 -3.026798e-09 5.587935e-09 -1.746230e-09 4.097819e-08 2.363231e-08 1.315493e-08 -2.043089e-08 -3.744487e-03 2.978991e-04 -4.746468e-04 6.844162e-05 -1.603577e-04 -3.450464e-05 5.754238e-05 -8.061554e-05 1.271995e-04 -1.902887e-04 4.669849e-05 -1.564687e-04 -6.364408e-05
<VARIANCE> 39
 0.000000e+00 0.000000e+00 0.000000e+00 0.000000e+00 0.000000e+00 9.313226e-09 0.000000e+00 3.492460e-10 0.000000e+00 1.473381e-10 1.781154e-08 0.000000e+00 0.000000e+00 0.000000e+00 0.000000e+00 0.000000e+00 2.110312e-12 0.000000e+00 0.000000e+00 1.409717e-11 0.000000e+00 1.318767e-11 3.419700e-10 0.000000e+00 0.000000e+00 0.000000e+00 1.827128e-03 6.024704e-05 5.945166e-05 2.794358e-05 3.412523e-05 3.360989e-05 3.020229e-05 3.188291e-05 2.277736e-05 2.193036e-05 1.852728e-05 2.304439e-05 1.544051e-05
<GCONST> -1.800000e+11
<STATE> 3
<NUMMIXES> 2
<MIXTURE> 1 1.000000e+00
<MEAN> 39
 1.947952e+01 -2.822423e+00 -2.309749e+00 4.668891e+00 8.447543e+00 3.924670e+00 -3.658375e+00 1.515075e+01 -1.180947e+01 -1.696786e+01 1.422524e+01 -2.676835e+00 -6.195246e+00 -1.150500e+00 2.189253e+00 1.285739e+00 1.748670e+00 1.023594e+00 1.011525e+00 1.050025e+00 -1.856591e+00 4.240103e-01 9.314340e-01 -2.982331e+00 -2.544372e-01 6.557110e-01 -2.979541e-01 4.119073e-01 2.320267e-01 7.954939e-02 5.088389e-03 1.108709e-01 1.313387e-01 2.382283e-02 3.790790e-01 2.378064e-02 -7.589884e-01 -7.110085e-02 2.177046e-01
<VARIANCE> 39
 4.788352e+00 2.660988e+01 2.652874e+01 2.263247e+01 3.921922e+01 3.389999e+01 5.112733e+01 5.482121e+01 2.701498e+01 1.621375e+01 7.803366e+01 1.758275e+01 1.095469e+01 7.143639e-01 1.234910e+00 1.208836e+00 8.406935e-01 6.340602e-01 1.440457e+00 2.506163e+00 8.699924e-01 1.949188e+00 6.223294e-01 4.222025e+00 7.719827e-01 5.093650e-01 4.545915e-02 9.948029e-02 1.285954e-01 1.382423e-01 1.226981e-01 1.007332e-01 4.811119e-01 1.570403e-01 2.033090e-01 1.314621e-01 4.605684e-01 1.108690e-01 6.933679e-02
<GCONST> 8.936266e+01
<MIXTURE> 2 0.000000e+00
<MEAN> 39
 1.769513e-08 2.514571e-08 -9.313226e-09 1.443550e-08 7.078052e-08 3.911555e-08 -6.798655e-08 3.725290e-09 -1.192093e-07 4.773028e-08 -2.095476e-08 3.818423e-08 3.492460e-09 -1.477929e-11 -3.783498e-10 1.746230e-10 1.011358e-09 1.149601e-09 4.911271e-10 2.779416e-09 1.760782e-09 3.929017e-10 5.966285e-10 -5.209586e-09 2.590241e-09 4.249159e-09 -2.047057e-02 1.739704e-03 -2.860196e-03 4.944406e-04 -9.179143e-04 -4.275220e-04 -1.494129e-04 -1.110907e-03 -5.215620e-04 -1.377407e-03 -4.617415e-04 -8.713729e-04 -4.312473e-04
<VARIANCE> 39
 0.000000e+00 1.964509e-09 0.000000e+00 3.888090e-11 0.000000e+00 0.000000e+00 0.000000e+00 0.000000e+00 1.804437e-09 3.074092e-10 3.783498e-10 0.000000e+00 3.836931e-13 0.000000e+00 2.060574e-13 0.000000e+00 1.962874e-13 1.108447e-12 1.085798e-13 0.000000e+00 8.490986e-13 0.000000e+00 0.000000e+00 4.021672e-12 0.000000e+00 1.989520e-13 1.418590e-02 4.708500e-04 6.059122e-04 2.832045e-04 2.438255e-04 1.964814e-04 2.386844e-04 2.203498e-04 2.247814e-04 1.830704e-04 2.037936e-04 1.436218e-04 1.237932e-04
<GCONST> -1.300000e+11
<STATE> 4
<NUMMIXES> 2
<MIXTURE> 1 1.000000e+00
<MEAN> 39
 8.535069e+00 9.545053e+00 9.054110e+00 1.398305e+01 1.081271e+01 1.064942e+01 1.488883e+00 5.205669e+00 -6.911644e+00 -1.227762e+01 -5.610404e+00 -3.781002e+00 8.634088e-01 -2.621032e+00 -1.971646e-01 3.024249e+00 1.283183e+00 -1.350018e+00 1.155845e+00 6.953329e-01 -1.039206e+00 5.360166e-01 5.251564e-01 -1.301258e+00 -9.928235e-02 1.084328e+00 -1.887110e-01 -1.370920e+00 6.284156e-02 -1.540973e-01 -5.009203e-01 -1.131743e-01 -2.618483e-01 3.515274e-01 1.628524e-02 -1.556921e-01 9.234705e-01 1.474353e-01 -2.033045e-01
<VARIANCE> 39
 3.189740e+01 2.383014e+01 5.960234e+01 7.561898e+00 4.495130e+01 3.022758e+01 1.984882e+01 3.790318e+01 1.654824e+01 1.925048e+01 2.921484e+01 8.226537e+00 1.766764e+01 8.536835e-01 1.129915e+01 1.183250e+00 7.521569e-01 3.016309e+00 6.981353e-01 1.448754e+00 1.722106e+00 2.175281e+00 2.313672e+00 5.291867e+00 7.352549e-01 1.012570e+00 8.468284e-02 5.627301e-01 3.268698e-01 1.600094e-01 3.341760e-01 1.563070e-01 3.150767e-01 1.956492e-01 3.475191e-01 4.037074e-01 3.188751e-01 9.983590e-02 2.118877e-01
<GCONST> 1.004769e+02
<MIXTURE> 2 0.000000e+00
<MEAN> 39
 0.000000e+00 0.000000e+00 0.000000e+00 0.000000e+00 0.000000e+00 0.000000e+00 0.000000e+00 0.000000e+00 0.000000e+00 0.000000e+00 0.000000e+00 0.000000e+00 0.000000e+00 0.000000e+00 0.000000e+00 0.000000e+00 0.000000e+00 0.000000e+00 0.000000e+00 0.000000e+00 0.000000e+00 0.000000e+00 0.000000e+00 0.000000e+00 0.000000e+00 0.000000e+00 -7.323198e-02 1.123042e-02 -1.038370e-02 1.682460e-03 -2.594927e-03 -1.410091e-03 -1.503533e-03 -3.022441e-03 -2.858302e-03 -3.888699e-03 -2.411382e-03 -1.670942e-03 -2.166644e-03
<VARIANCE> 39
 0.000000e+00 0.000000e+00 0.000000e+00 0.000000e+00 0.000000e+00 0.000000e+00 0.000000e+00 0.000000e+00 0.000000e+00 0.000000e+00 0.000000e+00 0.000000e+00 0.000000e+00 0.000000e+00 0.000000e+00 0.000000e+00 0.000000e+00 0.000000e+00 0.000000e+00 0.000000e+00 0.000000e+00 0.000000e+00 0.000000e+00 0.000000e+00 0.000000e+00 0.000000e+00 6.110287e-02 6.616157e-03 5.196090e-03 3.621858e-03 3.050250e-03 4.287072e-03 4.344802e-03 3.931833e-03 3.373807e-03 2.996578e-03 2.947920e-03 2.834462e-03 2.042745e-03
<GCONST> -2.600001e+11
<TRANSP> 5
 0.000000e+00 1.000000e+00 0.000000e+00 0.000000e+00 0.000000e+00
 0.000000e+00 9.344823e-01 6.551769e-02 0.000000e+00 0.000000e+00
 0.000000e+00 0.000000e+00 7.688738e-01 2.311262e-01 0.000000e+00
 0.000000e+00 0.000000e+00 0.000000e+00 7.932451e-01 2.067549e-01
 0.000000e+00 0.000000e+00 0.000000e+00 0.000000e+00 0.000000e+00
<ENDHMM>
~h "nj"
<BEGINHMM>
<NUMSTATES> 5
<STATE> 2
<NUMMIXES> 2
<MIXTURE> 1 6.448376e-01
<MEAN> 39
 2.500529e+00 4.883284e+00 9.640644e+00 7.663284e+00 8.983262e+00 1.102280e+00 -1.110930e+01 -4.794134e+00 -1.288087e+00 -5.336167e+00 -8.651181e+00 -5.994543e+00 -4.689224e+00 -8.037093e-03 3.616399e-01 2.282659e-01 1.904264e-01 -7.341486e-02 2.493188e-01 -1.645973e-01 1.039757e-01 1.836264e-01 -2.358938e-02 -1.693905e-01 -2.100465e-01 6.134257e-02 -2.933799e-02 -8.245458e-02 -2.934181e-02 -2.555616e-02 -3.167558e-02 -6.560107e-02 9.943750e-02 4.022849e-02 -2.891495e-02 -3.393753e-02 8.488162e-02 6.642201e-02 -4.307508e-02
<VARIANCE> 39
 2.984620e+01 6.743415e+01 3.440329e+01 6.486826e+01 9.630917e+01 1.111856e+02 7.206052e+01 3.914428e+01 4.361893e+01 6.400179e+01 5.133936e+01 4.753320e+01 6.246100e+01 3.205257e-01 9.356377e-01 8.799419e-01 1.011097e+00 1.131665e+00 1.602336e+00 1.676275e+00 1.622988e+00 1.393007e+00 1.544790e+00 1.534638e+00 1.262773e+00 1.005133e+00 5.129976e-02 1.324087e-01 1.310566e-01 1.649362e-01 1.886846e-01 2.602298e-01 2.799097e-01 2.472048e-01 2.361487e-01 2.447439e-01 2.395605e-01 1.899032e-01 1.721881e-01
<GCONST> 1.035840e+02
<MIXTURE> 2 3.551624e-01
<MEAN> 39
 2.709807e+00 8.928315e+00 1.147999e+01 -1.502002e+00 5.525277e+00 -1.202266e+01 -1.337622e+01 -2.554715e-01 -4.602529e+00 -1.768139e+01 -1.319073e+01 -1.517253e+01 -1.372431e+01 -3.641024e-02 1.717343e-01 7.861748e-02 2.967181e-02 -1.046537e-01 -5.441139e-03 -2.671677e-02 6.079637e-02 1.669364e-01 -1.932618e-01 -2.864245e-01 5.561825e-02 9.325963e-02 -4.810160e-02 -6.521460e-02 -1.482642e-02 1.193514e-02 -1.650132e-02 -1.109369e-02 1.465435e-01 -1.707742e-01 -4.778483e-02 1.308504e-01 6.270327e-02 7.036697e-02 2.437993e-02
<VARIANCE> 39
 2.806140e+00 1.555293e+01 1.314208e+01 1.840736e+01 2.262506e+01 2.127437e+01 3.199649e+01 3.318005e+01 3.093358e+01 4.198512e+01 4.848846e+01 2.774301e+01 2.260729e+01 5.275457e-02 2.340834e-01 2.735551e-01 3.459295e-01 4.041417e-01 4.254854e-01 6.606404e-01 7.842113e-01 6.592637e-01 7.675110e-01 6.076438e-01 6.638942e-01 4.363255e-01 1.427971e-02 5.345663e-02 5.262011e-02 7.491710e-02 9.308103e-02 1.030196e-01 1.470128e-01 1.566586e-01 1.284100e-01 1.334793e-01 1.117656e-01 1.170488e-01 9.097067e-02
<GCONST> 6.805726e+01
<STATE> 3
<NUMMIXES> 2
<MIXTURE> 1 5.768365e-01
<MEAN> 39
 -1.650130e+00 4.293084e+00 1.251531e+01 7.997261e+00 8.073728e+00 -5.246037e-01 -5.022378e+00 -3.656913e+00 -1.169887e+00 -5.260289e+00 -6.472120e+00 -5.230941e+00 -5.362416e+00 -2.457572e-01 -1.055694e+00 5.425199e-02 6.005565e-02 -8.472940e-02 -6.629400e-01 5.229853e-01 -3.181231e-01 -3.388248e-01 -7.298808e-02 3.639769e-01 1.593710e-01 -1.386185e-01 1.520792e-02 -1.310300e-01 -6.702862e-02 -3.907461e-02 5.318189e-02 -1.073812e-01 -1.160357e-01 4.202005e-03 -2.860112e-02 -1.644950e-02 3.863433e-02 3.098836e-02 1.592401e-03
<VARIANCE> 39
 3.918433e+01 6.900724e+01 3.661243e+01 5.426512e+01 7.157546e+01 9.625215e+01 7.617765e+01 5.381805e+01 4.801081e+01 6.558137e+01 4.535140e+01 4.882023e+01 3.880204e+01 1.803826e+00 4.185937e+00 2.995981e+00 3.165112e+00 2.961892e+00 4.166068e+00 5.236826e+00 3.490489e+00 2.493116e+00 2.927037e+00 2.647161e+00 2.256471e+00 1.742612e+00 2.675167e-01 6.951686e-01 5.092847e-01 5.361979e-01 4.958111e-01 6.914724e-01 8.867679e-01 5.816731e-01 4.441610e-01 4.559211e-01 3.934963e-01 3.435938e-01 2.966835e-01
<GCONST> 1.282403e+02
<MIXTURE> 2 4.231635e-01
<MEAN> 39
 1.295004e+01 -1.990565e+00 1.135198e+01 1.051720e+01 -6.057696e+00 5.887888e+00 -1.010513e+01 -1.137384e+01 1.444680e+00 -1.270348e+01 -1.434898e+01 -7.786644e+00 -1.003824e+01 -9.293678e-02 2.690157e-01 1.644063e-01 -4.434790e-02 4.908991e-03 -1.315278e-02 2.359147e-02 2.516896e-02 3.590895e-02 -1.700219e-02 -1.722138e-01 -5.740685e-02 3.323376e-02 -9.219238e-03 -9.527378e-02 1.038478e-02 5.471010e-02 -4.705711e-02 -1.766123e-03 5.385786e-02 9.632568e-03 -1.593223e-02 1.461344e-02 6.699349e-02 4.784431e-02 -4.166522e-02
<VARIANCE> 39
 3.856699e+00 2.329041e+01 2.029645e+01 2.178050e+01 2.279533e+01 2.924805e+01 4.529770e+01 3.117255e+01 4.292793e+01 9.096780e+01 3.922691e+01 2.936979e+01 2.970384e+01 1.036110e-01 3.492112e-01 2.670597e-01 3.809765e-01 4.285590e-01 5.403163e-01 4.986794e-01 4.888597e-01 5.781164e-01 5.797477e-01 5.508767e-01 4.750876e-01 4.293715e-01 1.962212e-02 7.488119e-02 4.759888e-02 7.101423e-02 9.162906e-02 9.864736e-02 9.496345e-02 9.101721e-02 1.042438e-01 1.084253e-01 8.732623e-02 8.894771e-02 7.543494e-02
<GCONST> 6.937938e+01
<STATE> 4
<NUMMIXES> 2
<MIXTURE> 1 6.193125e-01
<MEAN> 39
 1.028075e+01 -1.288878e+01 1.373863e+01 1.291313e+01 -1.063704e+01 3.015265e+00 -1.051210e+01 -9.272548e+00 1.731557e+00 -1.466234e+01 -7.812191e+00 -3.781766e+00 -1.403609e+01 -1.313824e-01 -1.218131e+00 -2.753857e-02 8.111192e-02 -5.507110e-01 -1.762661e-01 1.277021e-02 -2.771645e-02 9.013085e-02 -2.377615e-02 5.405732e-01 4.540587e-01 -2.427453e-01 1.725942e-02 3.638613e-02 -6.293325e-02 -6.635727e-02 3.109851e-02 -2.954077e-03 -4.337660e-02 -9.599536e-03 -1.934156e-02 8.019480e-03 4.517408e-03 -5.125827e-03 2.411142e-02
<VARIANCE> 39
 5.360118e+01 1.147594e+02 5.651950e+01 4.958639e+01 6.452203e+01 8.099206e+01 6.030843e+01 4.255379e+01 4.687903e+01 6.013706e+01 5.901341e+01 4.074115e+01 4.006900e+01 1.196394e+00 4.081296e+00 2.274762e+00 1.764822e+00 2.229019e+00 2.915065e+00 2.342601e+00 1.784886e+00 1.712513e+00 1.735224e+00 1.473653e+00 1.255965e+00 1.251955e+00 1.512755e-01 5.907288e-01 2.923045e-01 2.467913e-01 3.750200e-01 4.103101e-01 3.571459e-01 2.759851e-01 2.797883e-01 2.719341e-01 2.224235e-01 2.094979e-01 1.860853e-01
<GCONST> 1.158219e+02
<MIXTURE> 2 3.806876e-01
<MEAN> 39
 7.986883e-01 -2.793469e+00 4.055068e+00 2.384333e+00 1.088714e+01 -1.595118e+01 -9.973896e+00 -5.408926e+00 -6.926043e+00 -7.952407e+00 -2.742266e+00 -4.678221e+00 -8.477713e+00 1.703769e-01 -3.709843e-01 -7.981473e-01 -6.735662e-01 5.414159e-02 -6.422171e-01 -1.553994e-01 1.988008e-01 -1.845535e-01 -3.992972e-03 4.756051e-01 5.521997e-01 5.975723e-02 -9.899956e-03 9.672721e-02 2.898581e-02 -8.035121e-02 -5.190688e-02 1.995320e-01 1.440018e-01 3.425548e-02 4.790647e-02 -3.596259e-02 -8.568133e-02 2.389571e-02 3.080674e-02
<VARIANCE> 39
 9.078952e+00 3.836557e+01 4.360814e+01 6.360629e+01 1.041817e+02 1.081912e+02 7.833575e+01 4.377275e+01 4.398346e+01 6.020568e+01 4.762598e+01 8.173207e+01 5.883461e+01 1.580081e-01 6.745912e-01 6.551996e-01 1.306109e+00 1.275327e+00 2.599120e+00 1.752467e+00 1.489350e+00 1.622001e+00 1.614136e+00 1.536328e+00 1.120704e+00 1.123707e+00 2.352860e-02 7.751360e-02 8.667944e-02 1.638183e-01 1.665535e-01 2.938957e-01 2.637431e-01 2.522829e-01 2.238973e-01 2.590835e-01 2.209582e-01 1.880653e-01 1.505378e-01
<GCONST> 1.003273e+02
<TRANSP> 5
 0.000000e+00 1.000000e+00 0.000000e+00 0.000000e+00 0.000000e+00
 0.000000e+00 8.560609e-01 1.439391e-01 0.000000e+00 0.000000e+00
 0.000000e+00 0.000000e+00 8.582612e-01 1.417388e-01 0.000000e+00
 0.000000e+00 0.000000e+00 0.000000e+00 8.322633e-01 1.677367e-01
 0.000000e+00 0.000000e+00 0.000000e+00 0.000000e+00 0.000000e+00
<ENDHMM>
~h "nx"
<BEGINHMM>
<NUMSTATES> 5
<STATE> 2
<NUMMIXES> 2
<MIXTURE> 1 1.000000e+00
<MEAN> 39
 2.276738e+01 7.595869e-01 -1.334635e+01 -7.861271e+00 1.527067e+01 1.172677e+01 -1.535912e+01 4.190076e+00 -6.177788e+00 -1.556007e+01 8.355650e+00 -1.211267e+00 -3.596702e+00 -1.018911e-01 2.845980e-01 2.299344e-01 2.140413e-01 -3.223518e-02 1.961637e-01 7.813826e-01 1.456288e-01 -2.539924e-01 -2.481443e-01 -3.703082e-01 2.005729e-02 -9.663343e-02 -7.182700e-02 2.765262e-02 1.308875e-01 2.307278e-01 -8.911187e-03 -7.295657e-02 1.134595e-01 2.503974e-02 -3.946415e-03 -1.125078e-02 -1.301100e-01 -3.308756e-03 1.267773e-02
<VARIANCE> 39
 1.419926e+01 1.064236e+01 2.208718e+01 3.161013e+01 1.699887e+01 1.733386e+01 5.145921e+01 3.956842e+01 1.577282e+01 2.476504e+01 2.303347e+01 8.540544e+00 9.969028e+00 3.817214e-01 3.409578e-01 7.403716e-01 1.748831e+00 5.945000e-01 8.404158e-01 2.598931e+00 1.642197e+00 6.461906e-01 1.366294e+00 1.701324e+00 6.067181e-01 4.275679e-01 6.835105e-02 5.808779e-02 1.408423e-01 1.357554e-01 1.000684e-01 1.243718e-01 2.930176e-01 2.619567e-01 9.014591e-02 2.477161e-01 1.710047e-01 1.219761e-01 6.195187e-02
<GCONST> 8.123877e+01
<MIXTURE> 2 0.000000e+00
<MEAN> 39
 1.361686e+01 -1.383072e+00 7.618060e+00 1.232223e+01 -2.383529e+00 8.959254e+00 -1.035662e+01 -1.021862e+01 8.851387e+00 -8.332142e+00 -1.389112e+01 -1.311377e+00 -7.191798e+00 -1.457334e-01 3.850303e-01 1.832990e-01 7.829956e-02 1.980715e-01 -5.036991e-02 -1.340757e-01 -1.179461e-01 -3.900307e-02 1.584407e-01 2.003755e-02 -8.778737e-02 -5.617338e-02 -8.385319e-04 -4.167615e-02 -5.001837e-02 5.873689e-03 7.726591e-03 -9.950018e-03 4.415042e-02 -3.027088e-03 -5.418176e-02 3.586245e-02 5.732016e-02 -7.334471e-04 -7.240163e-03
<VARIANCE> 39
 2.374427e+00 2.125168e+01 1.217588e+01 1.771664e+01 1.535122e+01 2.714209e+01 2.611153e+01 3.003095e+01 4.948417e+01 3.589555e+01 2.532868e+01 2.865796e+01 2.461707e+01 5.158678e-02 1.692707e-01 2.307495e-01 3.434558e-01 3.976840e-01 4.632231e-01 5.185775e-01 4.969022e-01 5.959083e-01 6.742363e-01 5.816705e-01 4.702742e-01 4.794611e-01 8.847732e-03 2.771878e-02 3.858319e-02 5.424614e-02 6.815128e-02 7.742334e-02 8.735045e-02 8.348746e-02 1.017274e-01 9.737392e-02 8.988705e-02 7.854709e-02 8.157872e-02
<GCONST> 6.095366e+01
<STATE> 3
<NUMMIXES> 2
<MIXTURE> 1 2.206070e-01
<MEAN> 39
 1.480720e+01 8.795725e+00 5.739810e+00 2.166434e+01 2.437058e+01 6.325494e+00 -1.578473e+01 -1.069468e+01 -7.746964e+00 -6.792714e+00 -3.171790e+00 -5.324716e+00 -3.533476e+00 -1.167323e-01 3.308860e-01 2.847806e-01 -2.282858e-01 -4.099150e-01 1.572449e-01 4.425648e-01 -1.309330e-01 -5.967039e-02 3.341951e-01 -1.950875e-01 -3.239980e-01 1.128929e-01 5.317869e-03 -1.922041e-01 -1.116845e-01 -1.264920e-01 -5.207840e-03 8.674302e-02 1.118335e-01 3.986521e-01 3.829402e-02 -2.319697e-01 1.004007e-01 2.294990e-02 -5.677181e-02
<VARIANCE> 39
 2.461870e+00 1.273603e+01 1.292385e+01 8.515990e+00 1.350288e+01 7.612923e+00 1.416983e+01 2.122058e+01 1.364055e+01 2.787640e+01 1.190806e+01 1.617826e+01 4.748731e+00 1.030563e-01 3.843262e-01 2.827060e-01 7.058650e-01 7.767159e-01 3.438272e-01 7.190655e-01 1.098008e+00 4.369320e-01 9.557139e-01 6.618728e-01 7.983138e-01 3.241935e-01 2.723639e-02 8.900191e-02 5.085963e-02 1.920825e-01 1.401631e-01 9.411514e-02 1.540427e-01 1.947287e-01 8.553437e-02 1.945034e-01 1.142326e-01 1.492191e-01 5.147961e-02
<GCONST> 6.426713e+01
<MIXTURE> 2 7.793930e-01
<MEAN> 39
 1.873022e+01 3.946478e+00 -4.371921e+00 8.368285e+00 1.644344e+01 8.495074e+00 -4.614962e+00 4.766032e+00 -8.768026e+00 -1.751746e+01 -2.503830e+00 -2.993943e+00 -4.443110e+00 -7.390338e-02 -4.962578e-01 4.635308e-01 7.485104e-01 -6.210639e-02 -6.887087e-01 -2.902595e-01 4.099886e-01 -1.613453e-01 -1.836375e-01 5.186723e-01 -1.943426e-01 -4.438969e-01 1.494777e-01 -2.292560e-01 -2.290071e-01 -4.052690e-01 -7.822286e-02 2.315974e-02 -2.879273e-01 8.941709e-02 -1.399884e-01 -7.124633e-02 6.274367e-01 1.161316e-01 -1.136042e-01
<VARIANCE> 39
 1.742119e+01 1.270575e+01 2.333320e+01 4.401283e+01 2.334701e+01 1.965287e+01 2.522251e+01 4.237433e+01 1.285553e+01 2.126321e+01 2.522200e+01 1.103632e+01 1.431249e+01 7.607298e-01 1.034474e+00 2.511999e+00 5.863235e+00 1.591647e+00 1.127676e+00 2.223959e+00 2.832969e+00 1.076193e+00 2.060299e+00 5.120856e+00 1.223327e+00 7.014336e-01 7.209944e-02 9.779166e-02 2.241582e-01 4.203803e-01 2.058364e-01 1.529347e-01 3.432924e-01 3.681158e-01 1.646400e-01 3.642938e-01 2.454968e-01 1.876935e-01 1.127678e-01
<GCONST> 9.725018e+01
<STATE> 4
<NUMMIXES> 2
<MIXTURE> 1 1.636845e-01
<MEAN> 39
 1.156526e+01 -1.200085e+01 1.880186e+00 3.502597e+01 3.426102e+01 -8.509954e-01 -2.547503e+01 4.168320e+00 -8.551111e+00 -1.796833e+01 9.011750e+00 -3.078819e+00 -1.299149e+01 -3.080581e-02 1.522151e-01 -1.572701e-01 7.440607e-02 1.248990e-01 -1.913102e-01 -1.401365e-01 -2.085879e-01 -8.257090e-02 -6.029158e-02 -2.171116e-01 3.740816e-02 1.055823e-02 -8.889180e-02 6.584185e-02 4.336136e-02 -1.042610e-01 -1.585912e-01 2.188173e-02 1.068389e-01 -5.598337e-02 8.489417e-02 1.318345e-01 -1.208199e-01 -2.886002e-02 1.161174e-01
<VARIANCE> 39
 1.185449e+01 2.059001e+01 3.120054e+01 6.892726e+01 4.282965e+01 1.768605e+01 8.832062e+01 7.156337e+01 3.532121e+01 6.014172e+01 4.656744e+01 1.835435e+01 1.816951e+01 1.107643e+00 1.160975e+00 1.541999e+00 2.394724e+00 3.267438e+00 7.242023e-01 3.321306e+00 2.108338e+00 1.700044e+00 3.673201e+00 2.308593e+00 7.845276e-01 1.519245e+00 1.404987e-01 2.071780e-01 2.201763e-01 3.296320e-01 4.554992e-01 1.623188e-01 4.798969e-01 3.229253e-01 2.898813e-01 5.192274e-01 3.862421e-01 1.185617e-01 2.030815e-01
<GCONST> 1.075504e+02
<MIXTURE> 2 8.363155e-01
<MEAN> 39
 1.463591e+01 4.058523e+00 2.941420e+00 1.149489e+01 1.430382e+01 5.956570e+00 -8.110318e+00 2.985802e+00 -1.445694e+01 -1.544312e+01 9.753396e+00 -2.459481e+00 -9.877227e+00 -9.785911e-01 7.269158e-01 1.097143e+00 4.790616e-01 -1.999486e-01 1.850188e-01 2.830297e-01 -3.117094e-01 1.986893e-01 5.819644e-01 -3.987609e-01 -1.358633e-01 3.307381e-01 -1.491621e-01 6.485234e-02 6.102593e-02 7.288053e-02 3.292713e-02 5.802877e-02 1.017725e-01 -7.534001e-03 1.717134e-01 9.739289e-02 -2.480815e-01 -1.294705e-02 1.143482e-01
<VARIANCE> 39
 6.334037e+01 7.888321e+01 6.715106e+01 4.644242e+01 2.776748e+01 3.341154e+01 3.085025e+01 8.581477e+01 3.650554e+01 4.491475e+01 1.148074e+02 1.685982e+01 3.174415e+01 1.206039e+00 3.068368e+00 1.793628e+00 2.098011e+00 1.492083e+00 1.567456e+00 2.055968e+00 3.539281e+00 2.431654e+00 2.055023e+00 9.367426e+00 1.010689e+00 2.101602e+00 8.094202e-02 3.311331e-01 3.000503e-01 3.092447e-01 2.174622e-01 2.336112e-01 2.463578e-01 4.538019e-01 2.600965e-01 3.215365e-01 8.563344e-01 1.550522e-01 2.352563e-01
<GCONST> 1.143335e+02
<TRANSP> 5
 0.000000e+00 1.000000e+00 0.000000e+00 0.000000e+00 0.000000e+00
 0.000000e+00 9.192962e-01 8.070375e-02 0.000000e+00 0.000000e+00
 0.000000e+00 0.000000e+00 8.876836e-01 1.123164e-01 0.000000e+00
 0.000000e+00 0.000000e+00 0.000000e+00 9.036894e-01 9.631061e-02
 0.000000e+00 0.000000e+00 0.000000e+00 0.000000e+00 0.000000e+00
<ENDHMM>
~h "ou"
<BEGINHMM>
<NUMSTATES> 7
<STATE> 2
<NUMMIXES> 2
<MIXTURE> 1 0.000000e+00
<MEAN> 39
 2.950430e-05 -1.596659e-05 2.567470e-05 -3.993511e-06 -5.960464e-07 1.929002e-07 -1.204014e-05 8.247793e-06 -1.933426e-06 2.965331e-06 -1.872890e-06 -3.390014e-05 -2.196059e-06 2.152519e-07 -1.188600e-07 -1.470326e-07 2.579764e-07 1.881272e-07 -7.177005e-08 7.529743e-07 5.150214e-07 -5.541369e-08 5.667098e-07 8.731149e-08 2.587331e-08 -1.939479e-07 -6.008020e-02 6.977572e-03 -1.033811e-02 -1.313004e-03 -2.156086e-03 -2.000537e-03 2.022802e-04 5.487027e-04 1.507605e-03 -2.313650e-03 -2.747252e-04 -8.833668e-04 -1.887041e-04
<VARIANCE> 39
 0.000000e+00 0.000000e+00 0.000000e+00 1.138542e-07 1.933426e-06 0.000000e+00 0.000000e+00 4.717149e-07 0.000000e+00 0.000000e+00 0.000000e+00 0.000000e+00 1.194421e-07 0.000000e+00 5.235279e-10 2.760316e-10 0.000000e+00 0.000000e+00 3.660716e-11 1.359149e-08 8.079951e-09 2.454215e-11 0.000000e+00 0.000000e+00 1.390887e-11 0.000000e+00 5.130608e-02 3.996924e-03 4.374815e-03 3.314181e-03 3.503656e-03 3.531398e-03 3.649473e-03 3.541191e-03 3.137489e-03 2.687086e-03 2.360017e-03 1.943796e-03 1.500225e-03
<GCONST> -1.500000e+11
<MIXTURE> 2 1.000000e+00
<MEAN> 39
 2.029631e+00 -3.859467e-01 -2.825264e+00 3.108835e+00 -1.884196e+00 -8.718111e+00 -7.793273e+00 1.363083e+01 3.172568e+00 -8.531359e+00 -3.251535e-01 -3.422918e-01 -7.174620e-01 -8.438230e-01 -4.071971e-01 -5.191047e-01 -3.195067e-01 -2.570843e-01 -6.324191e-01 -2.672359e-01 5.647832e-02 2.231625e-01 2.808876e-01 1.622145e-01 1.219814e-01 -4.275364e-02 -1.249455e-02 -5.080399e-02 1.128198e-01 7.771665e-02 1.881204e-02 1.419974e-01 7.905428e-02 -5.662853e-02 5.920495e-02 1.093433e-01 -1.085115e-02 3.379164e-05 2.206287e-03
<VARIANCE> 39
 3.643828e+02 7.617533e+01 6.400510e+01 7.740475e+01 8.427481e+01 1.439689e+02 8.312195e+01 1.551956e+02 8.327200e+01 1.027359e+02 3.288093e+01 3.792751e+01 3.748364e+01 3.697238e+00 2.040429e+00 2.113312e+00 1.941733e+00 2.489434e+00 4.606143e+00 2.183279e+00 4.286948e+00 2.878921e+00 2.618009e+00 2.069051e+00 1.776093e+00 1.650590e+00 2.394264e-01 1.935487e-01 2.912050e-01 2.307830e-01 3.001157e-01 3.758416e-01 2.890893e-01 4.628066e-01 3.773255e-01 3.940360e-01 3.379684e-01 2.588037e-01 2.288869e-01
<GCONST> 1.252404e+02
<STATE> 3
<NUMMIXES> 2
<MIXTURE> 1 0.000000e+00
<MEAN> 39
 0.000000e+00 0.000000e+00 0.000000e+00 0.000000e+00 0.000000e+00 0.000000e+00 0.000000e+00 0.000000e+00 0.000000e+00 0.000000e+00 0.000000e+00 0.000000e+00 0.000000e+00 6.126449e-30 -5.464483e-30 2.270194e-30 -1.821515e-31 4.406674e-31 -1.213802e-30 9.256382e-31 -1.708705e-31 6.429896e-32 -4.287194e-31 4.667875e-31 -1.477681e-31 3.115776e-33 -5.948948e-02 7.116884e-03 -1.043719e-02 -1.810754e-03 -2.071288e-03 -1.224210e-03 1.069486e-03 9.119928e-04 2.393554e-03 -1.654138e-03 -8.557731e-05 -5.460818e-04 -2.131514e-04
<VARIANCE> 39
 0.000000e+00 0.000000e+00 0.000000e+00 0.000000e+00 0.000000e+00 0.000000e+00 0.000000e+00 0.000000e+00 0.000000e+00 0.000000e+00 0.000000e+00 0.000000e+00 0.000000e+00 7.215268e-30 5.740278e-30 9.907425e-31 6.378229e-33 3.732989e-32 2.832244e-31 1.647090e-31 5.612664e-33 7.947721e-34 3.533306e-32 4.188642e-32 4.197554e-33 1.866239e-36 5.242730e-02 4.308010e-03 4.828463e-03 3.723914e-03 3.905280e-03 3.459802e-03 3.704401e-03 3.736516e-03 3.287535e-03 2.844681e-03 2.523395e-03 2.245883e-03 1.678810e-03
<GCONST> -1.300000e+11
<MIXTURE> 2 1.000000e+00
<MEAN> 39
 -2.511745e+01 -6.295502e+00 -5.079898e+00 -2.443071e+00 -3.566870e+00 -1.344459e-02 -3.953899e+00 1.751124e+00 -1.390014e+00 -1.207414e+00 2.724130e-01 -7.493470e-01 4.470837e-01 1.925188e-02 1.660640e-02 1.976661e-02 4.028546e-02 -2.136949e-02 -5.812637e-02 -1.177467e-02 3.685961e-02 8.235999e-02 4.294632e-02 7.702786e-03 2.336930e-02 2.204033e-02 1.129111e-01 8.531787e-02 7.538880e-02 5.457289e-02 1.480127e-02 -1.301755e-02 1.379715e-03 5.784971e-02 3.930141e-02 1.811417e-02 4.018452e-02 3.695163e-02 1.682428e-02
<VARIANCE> 39
 6.052898e+01 4.657703e+00 4.039441e+00 7.275519e+00 5.339210e+00 1.944841e+01 9.938522e+00 1.651424e+01 1.384274e+01 1.462992e+01 7.208697e+00 8.247236e+00 6.069298e+00 2.409359e-01 2.610319e-01 3.521481e-01 5.107918e-01 6.741050e-01 9.656386e-01 9.614170e-01 1.097302e+00 1.379008e+00 1.178372e+00 9.469128e-01 9.587830e-01 8.270070e-01 8.159604e-02 8.718121e-02 1.022988e-01 1.270566e-01 1.480920e-01 1.950116e-01 2.232706e-01 2.435450e-01 3.021502e-01 2.519314e-01 2.104408e-01 2.023035e-01 1.900940e-01
<GCONST> 7.384608e+01
<STATE> 4
<NUMMIXES> 2
<MIXTURE> 1 1.000000e+00
<MEAN> 39
 -1.568256e+01 -9.412121e-01 -8.815126e-01 1.583066e+00 -2.608127e+00 -3.313340e+00 -5.227403e+00 6.359079e+00 2.663039e+00 -3.254911e-01 2.060744e+00 1.037214e+00 1.087579e+00 2.886981e+00 2.012918e+00 1.758834e+00 1.513692e+00 8.727942e-02 -1.503742e+00 -7.641648e-01 1.603750e+00 1.779704e+00 6.453698e-01 4.436824e-01 7.810717e-01 2.808229e-01 5.727807e-01 5.687198e-02 -2.248232e-02 2.201261e-01 -6.083487e-02 -5.767277e-01 -3.409414e-01 4.367079e-01 3.313297e-01 -2.316160e-01 -2.537535e-01 -2.378286e-02 4.815643e-02
<VARIANCE> 39
 2.077671e+02 2.955613e+01 2.959995e+01 2.081689e+01 1.842105e+01 7.850547e+01 3.179805e+01 5.932680e+01 2.467279e+01 4.380019e+01 1.571974e+01 1.078897e+01 8.708848e+00 2.223289e+00 1.706709e+00 1.666312e+00 1.523709e+00 2.020067e+00 2.897486e+00 1.866625e+00 2.224971e+00 1.784034e+00 1.792148e+00 1.936661e+00 1.420812e+00 1.179662e+00 2.774211e-01 3.826930e-01 4.550727e-01 2.542041e-01 2.912706e-01 3.706030e-01 3.038763e-01 2.906059e-01 3.118594e-01 3.580130e-01 4.133116e-01 2.656058e-01 2.070760e-01
<GCONST> 1.086925e+02
<MIXTURE> 2 0.000000e+00
<MEAN> 39
 1.208484e-05 -8.553267e-06 -2.384186e-07 -1.952052e-06 -1.340359e-05 -3.114343e-05 -5.429611e-07 -6.236136e-06 2.693385e-06 -4.857779e-06 -7.867813e-06 4.526228e-07 9.596348e-06 -5.797483e-08 -3.934838e-07 1.234002e-08 -5.355105e-09 2.961606e-07 -4.060566e-07 -2.242159e-07 7.650815e-07 -7.157214e-07 2.267188e-08 -1.420267e-08 1.264270e-07 -1.518056e-07 -1.733069e-02 2.135032e-03 -2.558388e-03 2.833310e-04 -6.236576e-04 -1.803544e-04 -3.749149e-05 -4.109075e-04 1.268192e-04 -8.433932e-04 1.034832e-04 -7.428668e-04 1.402625e-04
<VARIANCE> 39
 3.943220e-06 1.306646e-06 2.658926e-07 0.000000e+00 4.642643e-06 1.331419e-05 0.000000e+00 0.000000e+00 0.000000e+00 4.651025e-06 1.906883e-06 0.000000e+00 0.000000e+00 0.000000e+00 0.000000e+00 0.000000e+00 0.000000e+00 2.783054e-10 4.038156e-10 0.000000e+00 1.731314e-08 0.000000e+00 3.075229e-11 7.235030e-10 0.000000e+00 6.684786e-10 1.100459e-02 5.213512e-04 5.872871e-04 3.387984e-04 4.089739e-04 3.906928e-04 4.339819e-04 3.915064e-04 3.306664e-04 3.511715e-04 2.671561e-04 2.600339e-04 1.677476e-04
<GCONST> -1.300000e+11
<STATE> 5
<NUMMIXES> 2
<MIXTURE> 1 3.853555e-01
<MEAN> 39
 -2.752546e-01 5.457495e+00 2.523600e+00 8.017348e+00 -3.610713e+00 -1.502363e+01 -1.065334e+01 1.596499e+01 1.208038e+01 -5.109167e-01 7.770561e-02 3.723081e+00 3.318824e+00 4.303886e+00 2.067536e-01 -7.101216e-01 9.496201e-01 -7.972085e-01 -3.624191e+00 -1.234929e+00 2.445534e+00 1.432048e+00 -1.132378e+00 -5.603941e-01 4.327430e-01 -9.011826e-02 -3.490570e-02 -3.539915e-01 -2.990597e-01 -1.585109e-01 -2.134212e-01 -1.639732e-01 8.243679e-02 -5.264002e-02 -2.711128e-01 -1.679517e-01 1.149323e-01 -4.782164e-03 -2.141264e-01
<VARIANCE> 39
 7.626554e+01 1.612554e+01 1.519312e+01 1.661923e+01 3.175122e+01 5.892859e+01 2.343166e+01 3.585066e+01 2.240282e+01 1.650534e+01 1.953590e+01 1.409024e+01 1.542682e+01 9.363638e-01 1.034989e+00 9.828111e-01 1.076102e+00 2.570836e+00 2.578604e+00 2.000890e+00 1.805172e+00 1.765282e+00 1.286883e+00 1.924502e+00 1.134800e+00 1.764864e+00 2.271661e-01 1.587763e-01 2.676502e-01 2.025869e-01 4.224851e-01 4.306205e-01 3.464520e-01 3.486235e-01 2.723052e-01 2.851497e-01 4.072942e-01 2.613026e-01 2.803327e-01
<GCONST> 1.021052e+02
<MIXTURE> 2 6.146445e-01
<MEAN> 39
 1.968257e+01 1.112345e+00 -2.681054e+00 1.140371e+01 -8.841863e+00 -3.407839e+01 -1.657321e+01 2.806568e+01 1.563908e+01 -9.790474e+00 -8.036937e-01 5.237529e+00 1.835984e-02 9.918061e-01 -8.112188e-01 -6.344087e-01 2.670560e-01 -7.922979e-02 -1.085172e+00 -4.581375e-01 6.278313e-01 3.445689e-01 -3.804032e-01 -2.259022e-02 -4.180103e-03 -1.667246e-01 -3.679537e-01 -5.337645e-02 2.752968e-02 -1.057675e-01 2.647110e-01 5.556207e-01 1.326949e-01 -3.066283e-01 -1.379035e-01 1.292951e-01 7.475622e-03 -1.234628e-01 5.705104e-02
<VARIANCE> 39
 1.274701e+01 2.741345e+01 2.809839e+01 1.093456e+01 2.507015e+01 2.666158e+01 1.955421e+01 3.113848e+01 1.774489e+01 2.755693e+01 1.351421e+01 1.948506e+01 9.038775e+00 2.155909e+00 8.614715e-01 7.449715e-01 7.457549e-01 1.499507e+00 3.584672e+00 1.376553e+00 2.768953e+00 9.970629e-01 1.658271e+00 9.161620e-01 8.563023e-01 5.909175e-01 3.117083e-01 1.134460e-01 1.003047e-01 1.238321e-01 2.353310e-01 4.614434e-01 2.245224e-01 4.415722e-01 1.483962e-01 2.318882e-01 1.684789e-01 1.359711e-01 1.060812e-01
<GCONST> 9.127920e+01
<STATE> 6
<NUMMIXES> 2
<MIXTURE> 1 4.132589e-01
<MEAN> 39
 2.249938e+01 -4.564736e+00 -8.857264e+00 4.215067e+00 8.306863e-01 -1.640127e+01 -1.294727e+01 2.279490e+01 4.720555e+00 -1.370595e+01 4.186637e+00 -2.277025e+00 -2.964839e+00 1.639706e-02 6.114184e-01 -1.390104e-01 -8.144257e-01 1.006722e+00 2.493514e+00 5.061950e-01 -1.671456e+00 -1.087076e+00 3.376842e-01 2.958496e-02 -6.073312e-01 7.437352e-02 -1.266595e-01 2.530358e-01 2.579858e-02 -3.376197e-02 4.104861e-02 2.486279e-01 1.792062e-01 -3.148769e-01 1.168831e-01 2.155995e-01 -3.226016e-01 1.055505e-01 1.815898e-01
<VARIANCE> 39
 1.176335e+01 1.584056e+01 3.217737e+01 3.255524e+01 2.722130e+01 7.705912e+01 4.534684e+01 7.996754e+01 3.729538e+01 3.992390e+01 3.510380e+01 1.768351e+01 1.623641e+01 1.007918e+00 1.000245e+00 9.544519e-01 1.149225e+00 9.131902e-01 2.051451e+00 1.957888e+00 3.537333e+00 1.400359e+00 1.771050e+00 2.175938e+00 9.190193e-01 6.463733e-01 1.632130e-01 1.076424e-01 1.263691e-01 1.304138e-01 1.295658e-01 1.526470e-01 3.251529e-01 3.782391e-01 1.908744e-01 2.558912e-01 3.053240e-01 1.693872e-01 1.090411e-01
<GCONST> 9.769283e+01
<MIXTURE> 2 5.867408e-01
<MEAN> 39
 2.187850e+01 -5.255016e+00 -8.971119e+00 9.659972e+00 -5.002203e+00 -3.068552e+01 -1.616383e+01 2.561439e+01 1.468228e+01 -9.904799e+00 -1.506564e+00 2.984012e+00 -3.045464e-01 4.621202e-02 -2.476902e-01 -2.231317e-01 -3.982831e-01 3.352843e-01 8.428175e-01 3.148889e-01 -1.973224e-01 -5.564108e-01 -2.529488e-01 2.050391e-01 -3.669620e-01 -1.603955e-01 1.644906e-03 6.212126e-02 3.922844e-02 -4.543525e-02 4.646089e-02 1.491388e-01 2.297379e-02 -9.749701e-03 -1.435967e-01 -6.708207e-02 8.517042e-02 -5.409415e-02 -1.896547e-02
<VARIANCE> 39
 9.616662e+00 1.063739e+01 1.809501e+01 1.053399e+01 1.434031e+01 2.388939e+01 1.666261e+01 2.109287e+01 1.642473e+01 2.055835e+01 1.489451e+01 6.409145e+00 6.995251e+00 9.020202e-01 5.515028e-01 6.004949e-01 5.866420e-01 5.618539e-01 9.856048e-01 5.460116e-01 9.986761e-01 7.724330e-01 7.357651e-01 8.075609e-01 3.970564e-01 3.078738e-01 1.505429e-01 7.998436e-02 7.348821e-02 7.355677e-02 5.048971e-02 6.621982e-02 8.204059e-02 1.417891e-01 5.483865e-02 9.080334e-02 1.102689e-01 5.489198e-02 4.284692e-02
<GCONST> 6.640612e+01
<TRANSP> 7
 0.000000e+00 1.000000e+00 0.000000e+00 0.000000e+00 0.000000e+00 0.000000e+00 0.000000e+00
 0.000000e+00 8.507648e-01 1.492352e-01 0.000000e+00 0.000000e+00 0.000000e+00 0.000000e+00
 0.000000e+00 0.000000e+00 9.075205e-01 9.247956e-02 0.000000e+00 0.000000e+00 0.000000e+00
 0.000000e+00 0.000000e+00 0.000000e+00 6.601055e-01 3.398946e-01 0.000000e+00 0.000000e+00
 0.000000e+00 0.000000e+00 0.000000e+00 0.000000e+00 9.015216e-01 9.847841e-02 0.000000e+00
 0.000000e+00 0.000000e+00 0.000000e+00 0.000000e+00 0.000000e+00 9.459352e-01 5.406483e-02
 0.000000e+00 0.000000e+00 0.000000e+00 0.000000e+00 0.000000e+00 0.000000e+00 0.000000e+00
<ENDHMM>
~h "ph"
<BEGINHMM>
<NUMSTATES> 5
<STATE> 2
<NUMMIXES> 2
<MIXTURE> 1 3.992162e-01
<MEAN> 39
 -2.664354e+01 -6.227551e+00 -4.963881e+00 -2.827429e+00 -3.580089e+00 7.062244e-01 -3.611555e+00 1.171449e+00 -1.593854e+00 -5.781193e-01 5.285834e-01 -8.949201e-01 3.714042e-01 -8.539849e-02 -9.259482e-02 -8.050037e-02 -7.469057e-02 -1.034372e-01 -1.057098e-01 -9.571745e-02 -1.650501e-02 4.747188e-02 4.530621e-02 4.028295e-02 1.714235e-02 3.245430e-02 1.760496e-01 1.403096e-01 1.594063e-01 1.869365e-01 1.791350e-01 1.240240e-01 9.169291e-02 8.769058e-02 1.403183e-02 -4.079629e-02 -8.249542e-03 9.533721e-03 1.761560e-02
<VARIANCE> 39
 5.005529e-01 1.021610e+00 1.687486e+00 2.616750e+00 3.763347e+00 4.468131e+00 5.681161e+00 6.407886e+00 6.728345e+00 6.077424e+00 6.522222e+00 6.058132e+00 4.990452e+00 1.518022e-01 2.452843e-01 3.426661e-01 5.055213e-01 6.508421e-01 7.981548e-01 9.853655e-01 1.068607e+00 1.068802e+00 1.060750e+00 1.088153e+00 9.329211e-01 7.335258e-01 7.540282e-02 9.390661e-02 1.337830e-01 1.680507e-01 1.901195e-01 2.112762e-01 2.694817e-01 3.013583e-01 2.825062e-01 2.787658e-01 2.775367e-01 2.308083e-01 1.834744e-01
<GCONST> 6.063151e+01
<MIXTURE> 2 6.007838e-01
<MEAN> 39
 -9.994748e+00 2.426597e-01 2.987429e+00 7.806482e+00 6.374261e+00 6.080694e+00 -4.384088e+00 1.048555e+00 -7.640881e+00 -9.199258e+00 -1.908574e+00 -3.028819e+00 8.615846e-01 -1.642222e+00 -1.301012e+00 -9.656106e-01 -1.023725e+00 -9.525395e-01 -3.939848e-01 -1.906428e-01 -3.863347e-01 -2.343354e-02 3.867185e-01 2.042822e-01 2.167353e-02 8.772559e-02 1.850147e-01 -1.021011e-01 -1.540587e-01 -4.698112e-02 6.927039e-03 -4.461740e-02 -2.371971e-02 1.171835e-01 8.331213e-02 1.484476e-02 7.955132e-02 2.766030e-02 -3.645264e-02
<VARIANCE> 39
 1.059040e+02 1.025606e+02 6.193413e+01 7.745512e+01 5.636758e+01 5.003679e+01 8.081573e+01 8.045396e+01 8.441875e+01 7.017360e+01 4.187171e+01 3.593627e+01 3.028346e+01 3.831887e+00 5.317067e+00 3.819159e+00 3.584712e+00 2.851921e+00 3.145997e+00 3.416176e+00 4.333622e+00 4.953850e+00 4.091261e+00 3.534601e+00 2.081275e+00 1.992106e+00 2.928257e-01 5.028144e-01 4.994462e-01 4.781161e-01 3.984906e-01 4.264586e-01 4.677337e-01 5.711466e-01 7.403075e-01 6.543158e-01 5.539247e-01 3.325910e-01 3.278848e-01
<GCONST> 1.318264e+02
<STATE> 3
<NUMMIXES> 2
<MIXTURE> 1 7.078720e-01
<MEAN> 39
 -1.161438e+01 -1.840922e+00 9.773564e-01 1.017162e+01 1.039232e+01 9.698868e+00 1.929026e+00 8.767331e+00 7.402979e-01 -2.386332e+00 3.145977e+00 4.435581e+00 7.075631e+00 3.354097e+00 -4.711819e-02 -4.805503e-02 1.150687e+00 1.250270e+00 2.845412e-01 -5.322862e-01 4.885528e-01 -6.149439e-01 -1.096591e+00 7.956483e-01 6.488652e-01 7.006460e-01 1.452770e-01 -2.170141e-01 -3.484972e-01 -4.933837e-01 -4.987241e-01 -4.132860e-01 -4.331323e-01 -2.896152e-01 -3.454294e-01 -1.826745e-01 2.464085e-01 -6.598815e-02 -2.289644e-01
<VARIANCE> 39
 6.041035e+01 1.644735e+01 1.217251e+01 2.078833e+01 2.182880e+01 2.312564e+01 2.903085e+01 2.029123e+01 2.716045e+01 2.626466e+01 1.897938e+01 2.399912e+01 2.209499e+01 8.247148e-01 1.862377e+00 2.132315e+00 3.758081e+00 4.552412e+00 3.752645e+00 4.003593e+00 2.890487e+00 2.875198e+00 2.397102e+00 2.487275e+00 2.126976e+00 2.288853e+00 2.317886e-01 1.271246e-01 2.102150e-01 2.359065e-01 3.576218e-01 5.046999e-01 6.004598e-01 4.230598e-01 4.377930e-01 4.290483e-01 3.752255e-01 3.673163e-01 3.830218e-01
<GCONST> 1.104984e+02
<MIXTURE> 2 2.921282e-01
<MEAN> 39
 -2.613530e+01 -5.831840e+00 -4.241292e+00 -1.819860e+00 -2.857039e+00 1.134292e+00 -2.979783e+00 2.071949e+00 -8.030568e-01 8.419519e-02 1.238468e+00 -5.701885e-01 8.941864e-01 1.192633e+00 6.690270e-01 1.140308e+00 1.714211e+00 1.920032e+00 1.509795e+00 1.253371e+00 1.408964e+00 7.582298e-01 2.844230e-01 5.945296e-01 7.264222e-01 6.969001e-01 8.218338e-01 3.636675e-01 5.412377e-01 8.877276e-01 1.020693e+00 7.183385e-01 4.194541e-01 5.031742e-01 1.199736e-01 -1.626591e-01 2.682824e-02 3.064966e-01 3.959497e-01
<VARIANCE> 39
 1.394518e+00 2.881108e+00 3.556774e+00 6.278195e+00 6.934214e+00 8.280695e+00 8.214410e+00 8.211437e+00 7.882104e+00 7.810119e+00 6.091616e+00 5.743538e+00 5.197096e+00 1.665937e+00 1.223233e+00 1.722003e+00 2.763685e+00 3.163655e+00 2.681515e+00 2.501178e+00 2.111832e+00 1.786114e+00 1.610110e+00 1.156875e+00 1.438935e+00 1.338946e+00 1.304576e-01 1.577252e-01 2.025419e-01 2.873617e-01 2.497866e-01 3.142958e-01 4.049915e-01 2.939662e-01 3.248417e-01 3.091061e-01 2.537353e-01 2.649519e-01 2.459302e-01
<GCONST> 8.388998e+01
<STATE> 4
<NUMMIXES> 2
<MIXTURE> 1 1.000000e+00
<MEAN> 39
 4.935838e+00 -1.061772e+01 -8.917864e+00 4.008119e+00 5.762228e+00 6.730232e+00 -1.609717e+00 1.016708e+01 -1.477293e+00 -1.562376e+00 1.428477e+01 8.075793e+00 6.797647e+00 9.222434e-01 -4.484237e-02 -3.330953e-01 -1.236910e-01 -2.718372e-01 -4.530929e-01 -8.912691e-02 2.564695e-01 4.051507e-01 5.424331e-01 5.472679e-01 1.237567e-02 -4.276139e-01 -1.111068e-01 1.793225e-01 1.565376e-01 9.519455e-02 5.775274e-02 -9.669477e-02 -5.307542e-02 1.140791e-03 6.924561e-02 -3.458896e-02 -1.911620e-01 -1.106725e-01 -1.052695e-01
<VARIANCE> 39
 9.278822e+01 8.729499e+01 1.017346e+02 5.495638e+01 8.035576e+01 9.454985e+01 6.334471e+01 6.834518e+01 1.026916e+02 1.424779e+02 6.889937e+01 7.169519e+01 3.597795e+01 1.893185e+00 3.580286e+00 4.104456e+00 2.859173e+00 3.119837e+00 3.412636e+00 2.843740e+00 3.127177e+00 4.893690e+00 5.894223e+00 3.353611e+00 3.529644e+00 2.356832e+00 1.962795e-01 3.236815e-01 4.579810e-01 3.286904e-01 3.714700e-01 5.177494e-01 4.950992e-01 4.846322e-01 8.472096e-01 1.021796e+00 3.975564e-01 4.598602e-01 3.280807e-01
<GCONST> 1.332270e+02
<MIXTURE> 2 0.000000e+00
<MEAN> 39
 -1.015390e+01 -4.631816e+01 1.016816e+01 1.162639e+01 -1.891591e+00 2.216642e+01 -1.014524e+01 -1.183229e+00 9.757619e+00 -9.515562e+00 -1.309112e+00 1.899875e+00 1.101491e+00 -1.253500e+00 -1.690578e+00 9.529696e-01 -3.898689e-02 -7.293209e-01 -5.052592e-01 -1.963609e+00 -2.120598e+00 -5.859047e-01 -5.689625e-01 5.280949e-02 8.777792e-01 9.806890e-01 2.039303e-01 4.147044e-01 -3.179018e-01 1.201470e-01 3.889616e-01 1.040026e-01 3.136157e-01 2.636020e-01 4.920377e-02 1.007182e-01 -1.477228e-01 -3.440652e-01 -4.367760e-01
<VARIANCE> 39
 1.321690e+01 3.304022e+01 8.485703e+00 1.848543e+00 3.048569e+00 1.438585e+01 3.167401e+01 3.004016e+01 7.520224e+00 9.705881e+00 4.621343e+00 1.152077e+01 1.606346e+01 1.299537e+00 2.936247e+00 3.920347e+00 3.001309e-01 1.903624e+00 1.777923e+00 2.750505e+00 1.801411e+00 3.051873e-01 6.002272e-01 6.143333e-01 2.153111e+00 5.379997e+00 1.675129e-01 3.451068e-01 4.612655e-01 1.254931e-01 1.764835e-01 2.608429e-01 2.595738e-01 2.582701e-01 9.209108e-02 1.474895e-01 1.323039e-01 1.194983e-01 5.899492e-01
<GCONST> 8.632181e+01
<TRANSP> 5
 0.000000e+00 1.000000e+00 0.000000e+00 0.000000e+00 0.000000e+00
 0.000000e+00 9.394615e-01 6.053845e-02 0.000000e+00 0.000000e+00
 0.000000e+00 0.000000e+00 8.475446e-01 1.524554e-01 0.000000e+00
 0.000000e+00 0.000000e+00 0.000000e+00 9.073724e-01 9.262763e-02
 0.000000e+00 0.000000e+00 0.000000e+00 0.000000e+00 0.000000e+00
<ENDHMM>
~h "rq"
<BEGINHMM>
<NUMSTATES> 7
<STATE> 2
<NUMMIXES> 2
<MIXTURE> 1 8.333641e-01
<MEAN> 39
 6.530367e+00 -1.663249e+01 9.335423e+00 3.502040e+00 4.290464e-01 2.034516e+01 -4.889424e+00 5.533620e+00 -5.943804e+00 -1.947881e+01 3.184668e+00 2.307049e+00 1.301306e+00 1.812102e+00 1.046407e+00 4.897927e-01 1.478053e+00 8.702413e-01 -8.423476e-01 1.087413e-01 1.867356e-01 -1.131202e+00 -1.359470e+00 -1.033032e-02 2.514094e-01 -3.252468e-01 -1.064286e-01 4.392777e-01 -3.237611e-01 3.550980e-01 2.833592e-01 -5.515037e-01 2.477943e-03 6.436996e-04 2.361739e-01 3.771323e-01 -2.002752e-01 -1.308882e-01 5.307545e-02
<VARIANCE> 39
 4.359383e+01 5.302464e+01 4.274366e+01 6.158883e+01 5.396576e+01 3.863787e+01 1.594584e+01 1.726583e+01 2.276112e+01 1.674260e+01 1.366127e+01 3.606994e+00 1.798742e+01 1.299652e+00 3.807111e+00 4.598073e+00 4.084273e+00 2.207140e+00 5.485958e+00 4.360301e+00 1.568961e+00 1.660812e+00 2.040843e+00 2.743888e+00 1.060773e+00 9.000295e-01 4.136833e-01 4.060186e-01 4.994057e-01 8.329021e-01 4.726540e-01 3.697960e-01 6.168137e-01 2.648632e-01 4.629583e-01 1.915999e-01 5.360605e-01 1.551978e-01 1.737402e-01
<GCONST> 1.115452e+02
<MIXTURE> 2 1.666359e-01
<MEAN> 39
 1.532526e+01 -5.430266e+00 8.549422e+00 1.313308e+01 3.520570e-01 7.698315e+00 3.540540e+00 4.145554e+00 -1.532496e+01 -1.971988e+01 1.192366e+00 -1.288746e+00 2.879935e+00 1.797221e+00 5.441656e-01 -2.405829e+00 1.102296e+00 1.251694e+00 -3.140854e+00 -1.411996e+00 -7.354975e-01 -1.245669e+00 -6.102476e-01 -4.532658e-02 -9.781813e-01 -1.439248e+00 -5.345839e-01 -6.113480e-01 -2.938059e-01 -6.274792e-01 7.344781e-01 3.583312e-01 -8.358193e-01 3.315552e-01 -1.036277e-01 -2.535844e-01 4.467400e-01 6.353785e-01 -1.858167e-01
<VARIANCE> 39
 3.147597e+00 7.801514e-01 6.165746e+00 1.169612e+00 1.906460e+00 1.998351e+01 7.644165e+00 1.681329e+00 4.514043e-01 1.658570e+00 4.241229e-01 2.673168e+00 2.071715e+00 5.116585e-01 5.133523e-01 2.653623e-02 1.948154e-01 1.051200e+00 3.842104e-01 1.149702e+00 3.966285e-02 1.368546e-01 6.830409e-01 2.497428e-01 1.562247e+00 7.842220e-02 1.605908e-02 1.508484e-01 8.954542e-02 4.024729e-02 1.949573e-02 8.351361e-02 1.963006e-01 4.384718e-02 4.745171e-03 3.043031e-01 1.941483e-03 2.354683e-01 8.979113e-03
<GCONST> 2.308839e+01
<STATE> 3
<NUMMIXES> 2
<MIXTURE> 1 0.000000e+00
<MEAN> 39
 4.792265e+00 -1.912126e+01 8.256557e+00 2.451213e+01 1.160292e+01 1.819415e+01 7.673485e+00 3.453903e+00 4.996493e+00 -4.574647e+00 -3.024233e+00 4.534252e+00 1.549923e+00 -2.303306e+00 -4.620656e+00 1.031160e+00 -1.352414e+00 -1.113822e+00 3.745343e+00 -7.456693e-01 -1.206692e+00 4.268679e+00 -2.608063e-01 -2.248156e+00 2.545908e-02 2.149880e-01 4.363273e-01 -5.970409e-01 -4.939691e-01 -4.104499e-01 4.786224e-01 7.117655e-02 -2.241323e+00 -1.253818e+00 -7.737113e-01 -4.610961e-01 5.581028e-01 -7.018080e-01 -7.416869e-01
<VARIANCE> 39
 0.000000e+00 0.000000e+00 0.000000e+00 -2.980232e-08 0.000000e+00 5.960464e-08 0.000000e+00 1.164153e-10 1.192093e-07 5.960464e-08 0.000000e+00 0.000000e+00 0.000000e+00 -3.725290e-09 -7.450581e-09 0.000000e+00 0.000000e+00 0.000000e+00 1.490116e-08 -4.656613e-10 5.820766e-11 -7.450581e-09 -3.637979e-12 -1.862645e-09 0.000000e+00 0.000000e+00 -2.328306e-10 0.000000e+00 0.000000e+00 0.000000e+00 0.000000e+00 -5.820766e-11 -9.313226e-10 9.313226e-10 1.164153e-10 7.105427e-15 0.000000e+00 0.000000e+00 1.164153e-10
<GCONST> -2.900001e+11
<MIXTURE> 2 1.000000e+00
<MEAN> 39
 1.820911e+01 -4.783146e+00 1.700303e+00 1.331189e+01 1.022370e+01 4.323996e+00 -7.255733e+00 4.394221e+00 -1.275106e+01 -2.130943e+01 1.669134e+00 -3.289927e-01 -7.670372e-01 7.989193e-01 4.448453e-01 -1.488968e+00 1.701471e-01 2.587507e+00 -2.301455e+00 -2.729910e+00 4.881299e-01 -1.145463e+00 -1.648145e+00 1.366427e+00 1.561400e+00 -9.576683e-01 -4.075847e-01 -1.744232e-02 3.147308e-01 -1.924970e-01 1.422233e-01 6.697226e-01 7.773076e-03 5.208792e-01 3.454739e-01 -2.784613e-01 5.567995e-01 4.158561e-01 -2.927055e-01
<VARIANCE> 39
 1.559095e+00 1.325114e+01 8.626821e+00 1.622385e+00 1.799937e+01 6.995593e+00 1.865840e+01 5.253955e+00 2.076341e+01 1.505075e+00 1.155784e-01 1.672267e+01 2.184016e+00 6.394441e-02 1.820685e+00 1.569546e+00 1.319860e-02 6.395773e-01 2.166736e+00 7.481822e-01 3.387457e-01 2.953697e+00 1.911014e+00 3.597825e-02 1.364299e+00 1.098377e+00 1.393969e-03 4.745731e-02 2.946233e-02 1.150040e-01 1.600451e-02 4.975432e-02 1.127291e-01 7.739268e-02 8.183267e-02 1.273579e-01 1.754883e-01 8.687872e-02 4.402268e-02
<GCONST> 4.432539e+01
<STATE> 4
<NUMMIXES> 2
<MIXTURE> 1 6.224357e-01
<MEAN> 39
 1.543677e+01 1.661957e+00 4.794544e+00 1.664612e+01 2.021877e+01 5.349310e+00 -1.709444e+01 1.510924e+00 -7.380436e+00 -1.656284e+01 7.232072e+00 8.584626e-01 -7.783684e+00 -2.123468e-01 3.271863e-01 1.482659e-01 6.646576e-02 1.514519e-01 1.387731e-01 1.455890e-01 -1.310751e-01 1.384041e-01 1.745787e-01 -2.885118e-01 4.433472e-03 3.499844e-02 -2.352650e-02 2.336964e-03 3.590025e-02 -3.487324e-02 -4.383940e-02 5.400163e-02 2.828549e-02 2.527697e-02 2.159842e-02 -1.519000e-03 1.790982e-03 -3.502893e-02 -3.036947e-02
<VARIANCE> 39
 5.165921e+00 6.914799e+01 3.868705e+01 2.068530e+01 2.019188e+01 1.917641e+01 5.671366e+01 1.001819e+02 2.526134e+01 1.097894e+02 1.351641e+02 5.931916e+01 3.313842e+01 1.038319e+00 2.462673e+00 3.308470e+00 9.732379e-01 1.933068e+00 1.746882e+00 4.206268e+00 2.763668e+00 1.887464e+00 4.188029e+00 5.468806e+00 1.530774e+00 1.494225e+00 1.184757e-01 2.223198e-01 3.830693e-01 1.191902e-01 3.291824e-01 1.987414e-01 5.589297e-01 3.495995e-01 2.753456e-01 4.094264e-01 4.535588e-01 2.198177e-01 1.112520e-01
<GCONST> 1.118674e+02
<MIXTURE> 2 3.775645e-01
<MEAN> 39
 2.026235e+01 -8.223599e+00 -4.434121e+00 1.004698e+01 1.724467e+01 -3.937433e+00 -1.853279e+01 1.446818e+01 -1.867785e+01 -2.996268e+01 1.594615e+01 7.556246e-01 -8.500029e+00 -1.640187e-02 -2.901261e-01 6.128779e-02 -2.128704e-01 2.123453e-01 -2.099976e-01 -4.966948e-01 8.617595e-01 -5.438110e-01 -2.852166e-01 1.180556e+00 -5.556899e-01 -2.215323e-01 -1.396026e-01 1.476144e-01 2.172259e-01 1.092394e-01 -1.584117e-01 2.317822e-01 3.333810e-01 -2.213448e-01 1.463349e-01 3.351264e-01 -2.697057e-01 -1.015104e-01 1.824341e-01
<VARIANCE> 39
 4.483289e+00 1.074612e+01 1.046450e+01 3.639692e+00 6.890262e+00 1.405965e+01 1.356052e+01 3.569683e+01 2.410575e+01 5.740972e+00 3.615370e+01 8.464494e+00 6.167747e+00 3.840695e-01 7.219870e-01 6.179038e-01 5.213995e-01 1.003695e+00 1.616981e+00 2.619914e+00 2.333632e+00 3.354698e-01 1.191316e+00 2.184150e+00 9.119043e-01 8.881671e-01 6.743724e-02 1.077214e-01 1.072743e-01 5.781353e-02 1.057396e-01 1.953450e-01 2.184174e-01 4.289663e-01 8.465677e-02 2.687206e-01 2.526343e-01 1.652459e-01 6.890982e-02
<GCONST> 7.606397e+01
<STATE> 5
<NUMMIXES> 2
<MIXTURE> 1 5.000120e-01
<MEAN> 39
 1.021688e+01 1.267120e+00 5.982322e+00 1.339476e+01 1.737659e+01 8.431540e+00 -4.428910e+00 1.002921e+01 -8.625237e+00 -1.735670e+01 2.380607e+00 -3.578122e+00 -1.385570e+00 -2.133778e+00 3.768610e+00 3.026504e+00 7.010439e-01 -3.845930e-01 2.681403e+00 2.456858e+00 -1.237620e+00 1.599082e+00 2.370901e+00 -2.715326e+00 -2.505870e-01 1.108258e+00 3.187979e-01 8.996294e-02 -3.447067e-01 6.114932e-02 -1.160328e-01 -8.701926e-01 -3.677611e-01 2.326606e-01 -8.056543e-01 -4.829231e-01 4.753269e-01 1.260953e-01 -1.321595e-01
<VARIANCE> 39
 9.223194e-02 1.592294e+01 4.503635e-01 3.794490e+01 2.690859e-01 1.473864e+00 8.428820e+00 1.439545e+00 8.682389e+00 9.118071e+00 1.277505e+01 1.779366e+01 9.004557e-02 2.109785e-01 7.702997e-01 3.454174e-01 1.098607e-01 1.693531e-01 8.886310e-01 9.025299e-01 6.659623e-02 1.018985e+00 2.648595e+00 6.829752e-01 4.508407e-01 5.809130e-05 1.422032e-02 1.164175e-01 4.461940e-04 1.733392e-02 4.041189e-02 1.968604e-04 5.359357e-02 3.168393e-01 1.736281e-01 3.412412e-01 5.062147e-01 6.145367e-02 1.236521e-02
<GCONST> 1.944897e+01
<MIXTURE> 2 4.999880e-01
<MEAN> 39
 1.748334e+01 -4.912408e+00 6.519381e+00 7.172497e+00 1.876625e+01 2.960281e+00 -1.890984e+01 1.331033e+01 -3.220710e+01 -2.887740e+01 2.771542e+01 -9.329806e+00 -1.071295e+01 6.647688e-01 -3.381926e-01 3.525429e-01 6.915750e-01 -3.196233e-01 1.935851e+00 1.045099e+00 -1.640531e+00 4.245627e-01 2.374650e+00 5.452879e-01 -1.946172e+00 -1.427778e+00 -1.598011e-01 3.043729e-01 -2.685203e-01 1.269881e-01 1.659334e-01 -1.655996e-01 5.790511e-01 -1.808861e-02 1.157945e+00 6.222216e-01 -1.445170e+00 3.042874e-01 5.446976e-01
<VARIANCE> 39
 1.422229e+00 3.023720e-01 2.461566e-01 4.064647e-01 2.195065e+00 3.879410e+00 5.447817e+00 1.945909e+01 6.212686e+00 6.674847e+00 6.240867e+00 4.603499e-04 8.652865e-01 4.369711e-03 1.781983e-03 1.034947e-02 1.283658e-02 1.614247e-01 5.547156e-01 1.595090e-04 1.202204e-01 1.646672e-01 6.196649e-02 4.493979e-01 1.122476e-02 1.183711e-02 4.694442e-02 4.750057e-02 1.907628e-02 2.191946e-02 7.276126e-03 3.455763e-02 1.179594e-02 1.824278e-01 2.320286e-02 2.791244e-02 4.022332e-02 2.537120e-02 1.728746e-01
<GCONST> -1.951064e+01
<STATE> 6
<NUMMIXES> 2
<MIXTURE> 1 8.789494e-01
<MEAN> 39
 2.684628e+00 1.429101e+01 1.409638e+01 1.723636e+01 1.542772e+01 1.260796e+01 2.719231e+00 8.433627e+00 -5.533053e+00 -1.054732e+01 -2.989500e+00 -3.347040e+00 -5.026944e-01 -1.460937e+00 6.372561e-01 5.451940e-01 1.874375e-01 -1.753222e-01 3.063786e-01 5.309989e-01 -8.400922e-01 4.957130e-01 8.653935e-01 -7.806652e-01 3.044043e-01 1.483539e-01 8.098907e-02 -5.541619e-01 -3.018770e-01 -1.668913e-01 -5.083203e-02 -2.589142e-01 -3.179532e-01 7.876069e-02 -2.239260e-01 -1.573903e-01 4.592573e-01 -2.702350e-02 -2.098031e-01
<VARIANCE> 39
 2.030764e+01 2.965665e+01 2.204140e+01 2.166838e+01 5.498756e+00 1.438274e+01 2.158870e+01 2.121179e+01 3.617605e+01 4.296278e+01 1.941527e+01 7.139474e+00 1.160830e+01 9.728323e-01 4.284699e+00 1.612782e+00 8.294528e-01 5.031672e-01 1.168389e+00 8.897223e-01 1.667252e+00 4.501592e-01 1.448732e+00 4.145894e+00 8.578540e-01 9.848297e-01 3.918656e-02 1.336046e-01 7.694347e-02 2.457735e-01 2.130100e-01 2.613699e-01 1.660283e-01 1.258180e-01 1.575011e-01 3.646195e-01 2.687803e-01 9.223589e-02 1.593727e-01
<GCONST> 8.751565e+01
<MIXTURE> 2 1.210505e-01
<MEAN> 39
 1.520720e+01 -1.030250e+00 6.950017e+00 9.908771e+00 1.662517e+01 6.283697e+00 -1.146421e+01 1.111219e+01 -2.179631e+01 -1.960523e+01 1.835246e+01 -1.136171e+01 -8.615722e+00 -1.864216e+00 2.672724e+00 7.501567e-01 3.604808e-01 -1.215666e+00 1.924911e+00 3.770801e+00 -9.410024e-01 3.606461e+00 2.282365e+00 -4.851629e+00 7.206517e-01 2.802938e+00 -5.594936e-01 6.710693e-01 1.849288e-01 -4.330461e-02 -8.580692e-02 5.916889e-02 1.344954e-01 -1.466750e-01 1.458600e-02 -5.235820e-01 -8.392505e-01 8.256207e-01 6.981336e-01
<VARIANCE> 39
 9.685804e+00 1.274071e+01 1.531119e+00 1.541870e+00 7.926181e+00 7.493004e+00 4.174856e+01 4.886885e+00 4.540773e+01 1.049287e+01 5.370697e+01 6.138872e+00 2.548844e+01 4.724957e-01 9.673914e-01 2.395553e-01 2.203318e-01 1.366924e-01 3.449855e-01 5.027826e-01 4.663987e-01 4.359541e-01 7.548404e-01 9.650548e-01 1.703384e+00 1.740167e+00 8.444423e-02 1.510943e-01 1.219158e-02 3.535958e-02 8.258169e-02 6.197276e-02 6.185619e-01 1.384565e-01 7.446137e-01 1.185846e-01 6.972656e-01 9.876659e-02 6.702801e-01
<GCONST> 6.832137e+01
<TRANSP> 7
 0.000000e+00 1.000000e+00 0.000000e+00 0.000000e+00 0.000000e+00 0.000000e+00 0.000000e+00
 0.000000e+00 8.750197e-01 1.249803e-01 0.000000e+00 0.000000e+00 0.000000e+00 0.000000e+00
 0.000000e+00 0.000000e+00 0.000000e+00 1.000000e+00 0.000000e+00 0.000000e+00 0.000000e+00
 0.000000e+00 0.000000e+00 0.000000e+00 9.699990e-01 3.000109e-02 0.000000e+00 0.000000e+00
 0.000000e+00 0.000000e+00 0.000000e+00 0.000000e+00 2.499943e-01 7.500057e-01 0.000000e+00
 0.000000e+00 0.000000e+00 0.000000e+00 0.000000e+00 0.000000e+00 9.092094e-01 9.079064e-02
 0.000000e+00 0.000000e+00 0.000000e+00 0.000000e+00 0.000000e+00 0.000000e+00 0.000000e+00
<ENDHMM>
~h "sh"
<BEGINHMM>
<NUMSTATES> 5
<STATE> 2
<NUMMIXES> 2
<MIXTURE> 1 5.275616e-01
<MEAN> 39
 5.757513e+00 -2.065151e+01 8.839253e+00 2.321103e+01 1.194634e+01 1.896378e+01 -3.057258e+00 -2.723350e+00 -3.834487e-01 -8.411229e+00 -2.493855e+00 -2.625153e-02 1.346909e+00 -2.220393e+00 -4.481865e+00 1.690630e+00 1.595680e-01 -1.325022e+00 2.995614e+00 1.497204e+00 8.099625e-02 1.994762e+00 9.506360e-01 2.920591e-01 1.195439e+00 9.800302e-01 -1.480800e-01 -5.107146e-01 -4.943802e-01 -4.302747e-01 2.341412e-01 -2.910182e-01 -4.395131e-01 5.569720e-01 3.759812e-02 -2.162830e-01 5.187158e-01 6.846085e-02 -2.080587e-01
<VARIANCE> 39
 4.672094e+01 1.134344e+02 7.990324e+01 1.103699e+02 8.623720e+01 6.262133e+01 1.000773e+02 3.552879e+01 4.257069e+01 2.708970e+01 4.762439e+01 3.449400e+01 6.254738e+01 1.376712e+00 4.834158e+00 2.929962e+00 3.683332e+00 2.800410e+00 3.000702e+00 3.173764e+00 3.064389e+00 2.034632e+00 2.174185e+00 3.275106e+00 1.797424e+00 1.910631e+00 1.011879e-01 7.223288e-01 2.883291e-01 2.482314e-01 3.254620e-01 5.068781e-01 4.045962e-01 4.773589e-01 3.325453e-01 4.193870e-01 4.884102e-01 3.544883e-01 2.432607e-01
<GCONST> 1.234462e+02
<MIXTURE> 2 4.724382e-01
<MEAN> 39
 -6.178114e+00 -4.383185e+01 1.149536e+01 1.853381e+01 6.465375e+00 2.731548e+01 -2.398954e+00 7.977259e-01 8.756917e+00 -4.264686e+00 2.623602e+00 4.496047e+00 4.305339e+00 -1.863728e+00 -3.173024e+00 -9.038798e-01 -2.279926e+00 -1.856427e+00 -9.590691e-01 -1.525942e+00 -3.229977e-01 1.568948e-01 1.876515e-01 1.005934e-01 -2.171439e-01 3.069790e-01 3.310650e-01 7.861360e-01 -1.068219e-01 -2.588563e-02 -1.384412e-02 -6.699668e-01 -4.110599e-01 -4.132802e-01 -5.825512e-01 -2.503421e-01 -3.647358e-01 -3.660339e-01 -2.091512e-01
<VARIANCE> 39
 1.892237e+01 3.641280e+01 3.889323e+01 3.980459e+01 3.483904e+01 3.477892e+01 1.125273e+02 2.699537e+01 2.714344e+01 1.724863e+01 2.784213e+01 2.075170e+01 3.406436e+01 8.471162e-01 3.302408e+00 8.985056e-01 1.175374e+00 1.252962e+00 3.750782e+00 2.146967e+00 2.100066e+00 2.204587e+00 1.634263e+00 2.059346e+00 1.812166e+00 1.220349e+00 9.079790e-02 2.961137e-01 2.061089e-01 2.878256e-01 2.825796e-01 5.982361e-01 4.026645e-01 2.667702e-01 2.137777e-01 2.579240e-01 2.784869e-01 2.525005e-01 1.786028e-01
<GCONST> 1.059221e+02
<STATE> 3
<NUMMIXES> 2
<MIXTURE> 1 4.936948e-01
<MEAN> 39
 -1.005382e+01 -5.153190e+01 2.685624e+00 7.400436e+00 -2.364568e+00 2.158256e+01 -1.750878e+00 -3.781780e+00 -9.832530e-01 -7.144017e+00 -5.113684e+00 -9.942487e-01 7.309957e+00 -3.565015e-03 -6.052846e-02 -4.959793e-02 -1.686552e-01 2.182608e-02 -1.979040e-03 -5.545311e-02 1.809594e-02 -1.665527e-01 -1.023695e-01 -5.742139e-02 -4.327897e-02 7.355446e-03 1.147546e-01 2.232355e-01 2.518432e-02 8.634477e-02 5.891902e-02 3.975932e-02 9.966704e-02 5.966584e-02 8.266925e-02 5.000843e-02 5.869852e-02 9.700575e-02 3.235301e-02
<VARIANCE> 39
 1.060184e+01 1.407342e+01 2.396445e+01 1.614333e+01 8.224710e+00 1.402174e+01 3.190985e+01 1.982936e+01 2.094823e+01 1.887552e+01 1.759594e+01 1.705487e+01 1.095147e+01 8.093870e-01 1.634727e+00 1.188254e+00 6.438261e-01 5.295966e-01 1.253424e+00 1.552294e+00 1.356576e+00 1.390761e+00 1.605313e+00 1.726904e+00 1.484141e+00 7.689327e-01 1.467205e-01 3.486026e-01 2.121091e-01 1.208874e-01 9.698319e-02 2.017223e-01 2.364873e-01 2.304494e-01 2.339609e-01 2.951072e-01 3.153186e-01 2.647991e-01 1.491359e-01
<GCONST> 8.920547e+01
<MIXTURE> 2 5.063054e-01
<MEAN> 39
 -1.226121e+01 -4.984660e+01 1.078620e+01 1.159579e+01 1.047422e+00 1.792708e+01 -1.685843e+01 -6.556870e+00 6.058152e+00 -3.341341e+00 1.858461e+00 1.260486e+00 1.708756e+00 9.078467e-03 9.886816e-03 -1.135425e-01 -1.758147e-01 3.154704e-02 3.913873e-02 -2.662999e-02 -1.280587e-01 -2.386185e-01 -6.639177e-02 -1.266794e-01 4.512417e-03 5.927217e-02 8.371052e-02 1.512906e-01 -1.568375e-02 9.310743e-02 1.111419e-01 1.587770e-01 2.052089e-01 8.654113e-02 1.639113e-02 -4.937754e-02 -1.574319e-02 4.414879e-02 1.575082e-02
<VARIANCE> 39
 1.083468e+01 1.654557e+01 1.816450e+01 1.210013e+01 1.091937e+01 1.650573e+01 2.296582e+01 2.766476e+01 1.907799e+01 2.309091e+01 2.208528e+01 1.764992e+01 1.327129e+01 9.720429e-01 1.645507e+00 1.059967e+00 5.497633e-01 6.692017e-01 1.424829e+00 1.305050e+00 1.161340e+00 1.439984e+00 1.678883e+00 1.949281e+00 1.566616e+00 9.379125e-01 1.687409e-01 3.045674e-01 1.766808e-01 1.074302e-01 1.276106e-01 1.994663e-01 1.877762e-01 1.924246e-01 2.680709e-01 3.293921e-01 3.750405e-01 2.998893e-01 1.792293e-01
<GCONST> 9.052412e+01
<STATE> 4
<NUMMIXES> 2
<MIXTURE> 1 4.130173e-01
<MEAN> 39
 9.638131e+00 -1.686087e+01 8.629105e+00 1.620250e+01 6.995519e+00 1.754296e+01 -4.507738e+00 -1.586682e+00 2.377514e+00 -7.008420e+00 -1.433707e+00 3.503653e+00 4.237672e+00 4.490404e+00 5.463303e+00 -2.303041e+00 -1.109553e-01 1.713918e+00 -4.023537e+00 -2.181235e+00 1.363773e+00 -1.084122e+00 -1.679344e+00 4.024878e-01 -5.866536e-01 -1.108171e+00 -3.356124e-01 -1.296789e+00 -1.222252e+00 -7.056486e-01 3.074389e-01 -7.279859e-01 -8.236924e-01 6.706249e-01 -4.182789e-01 -8.255026e-01 4.224392e-01 -3.740026e-02 -2.837224e-01
<VARIANCE> 39
 3.693423e+01 6.592293e+01 3.725970e+01 2.525817e+01 2.100566e+01 4.414088e+01 5.569352e+01 2.630212e+01 1.922806e+01 1.580660e+01 2.723615e+01 1.361816e+01 1.732545e+01 8.717389e-01 5.190893e+00 6.193698e+00 2.877285e+00 1.429626e+00 2.716796e+00 2.818094e+00 2.649491e+00 1.943176e+00 2.764644e+00 1.778786e+00 1.202437e+00 1.102359e+00 3.326130e-01 5.354556e-01 4.130892e-01 2.274943e-01 2.145144e-01 4.990270e-01 3.481616e-01 2.879291e-01 3.028320e-01 2.887467e-01 2.315461e-01 2.304609e-01 1.677862e-01
<GCONST> 1.094475e+02
<MIXTURE> 2 5.869827e-01
<MEAN> 39
 -6.920349e+00 -4.102522e+01 5.430880e+00 9.606432e+00 2.609163e+00 2.325047e+01 -4.012627e+00 -1.761068e+00 2.794897e+00 -6.927758e+00 -1.701571e+00 3.403058e+00 6.046239e+00 2.194774e+00 4.789024e+00 5.827435e-01 1.491966e+00 9.361569e-01 -1.473770e-01 1.168888e+00 3.921726e-01 4.106229e-01 1.992739e-01 -3.739515e-02 5.242483e-01 1.590942e-01 6.037822e-01 1.016829e+00 1.159800e-01 1.947716e-01 1.637444e-01 -6.272077e-01 -3.541337e-01 1.727312e-02 -7.823857e-02 7.414796e-02 2.309600e-02 -2.002968e-01 -1.575286e-01
<VARIANCE> 39
 2.555325e+01 7.621278e+01 4.663797e+01 4.894917e+01 2.934179e+01 5.172170e+01 8.677078e+01 4.246088e+01 2.654128e+01 1.906087e+01 3.211991e+01 2.025639e+01 2.112521e+01 2.986330e+00 3.758159e+00 2.099429e+00 1.500600e+00 1.210183e+00 2.459585e+00 1.963158e+00 1.568298e+00 1.367422e+00 1.562610e+00 1.253164e+00 1.265641e+00 1.060982e+00 2.655066e-01 4.512049e-01 4.091218e-01 2.846243e-01 1.935823e-01 4.960901e-01 4.444616e-01 2.746327e-01 2.896942e-01 2.958153e-01 2.074564e-01 2.397073e-01 2.054670e-01
<GCONST> 1.095776e+02
<TRANSP> 5
 0.000000e+00 1.000000e+00 0.000000e+00 0.000000e+00 0.000000e+00
 0.000000e+00 8.883282e-01 1.116718e-01 0.000000e+00 0.000000e+00
 0.000000e+00 0.000000e+00 9.489800e-01 5.102000e-02 0.000000e+00
 0.000000e+00 0.000000e+00 0.000000e+00 8.582539e-01 1.417461e-01
 0.000000e+00 0.000000e+00 0.000000e+00 0.000000e+00 0.000000e+00
<ENDHMM>
~h "sp"
<BEGINHMM>
<NUMSTATES> 5
<STATE> 2
<NUMMIXES> 2
<MIXTURE> 1 5.000000e-01
<MEAN> 39
 5.098849e+00 -6.514025e+00 2.430083e+00 1.092778e+01 1.083864e+01 1.500667e+00 -1.140838e+01 9.359310e+00 -3.377835e+00 -1.113024e+01 6.044074e+00 -4.088247e-01 -3.646332e+00 -1.380477e-02 1.475701e-03 -1.072459e-03 -5.524765e-03 -3.099398e-03 2.005852e-03 8.190720e-04 -5.087083e-03 2.488556e-03 5.650900e-03 -1.806995e-03 5.936168e-04 1.443354e-03 -1.213556e-03 -1.404243e-04 -1.926630e-04 -5.029775e-04 -4.298560e-04 2.249404e-04 5.535607e-04 -2.933974e-04 7.204357e-05 8.173331e-04 -1.603794e-04 -1.434907e-04 3.551734e-04
<VARIANCE> 39
 2.696502e+02 1.642264e+02 1.776205e+02 1.699619e+02 1.712323e+02 1.501611e+02 1.653076e+02 1.112998e+02 8.102897e+01 1.132308e+02 1.038732e+02 3.576029e+01 7.139818e+01 2.864393e+00 3.049235e+00 2.950589e+00 2.442850e+00 2.488132e+00 2.882445e+00 3.574063e+00 2.837703e+00 2.254665e+00 3.083899e+00 2.848865e+00 1.410452e+00 1.706605e+00 2.059384e-01 2.861855e-01 3.165202e-01 2.798763e-01 2.958655e-01 3.292713e-01 4.082396e-01 3.875320e-01 3.475762e-01 4.161765e-01 3.917231e-01 2.236369e-01 2.362328e-01
<GCONST> 1.313330e+02
<MIXTURE> 2 5.000000e-01
<MEAN> 39
 5.098849e+00 -6.514025e+00 2.430083e+00 1.092778e+01 1.083864e+01 1.500667e+00 -1.140838e+01 9.359310e+00 -3.377835e+00 -1.113024e+01 6.044074e+00 -4.088247e-01 -3.646332e+00 -1.380477e-02 1.475701e-03 -1.072459e-03 -5.524765e-03 -3.099398e-03 2.005852e-03 8.190720e-04 -5.087083e-03 2.488556e-03 5.650900e-03 -1.806995e-03 5.936168e-04 1.443354e-03 -1.213556e-03 -1.404243e-04 -1.926630e-04 -5.029775e-04 -4.298560e-04 2.249404e-04 5.535607e-04 -2.933974e-04 7.204357e-05 8.173331e-04 -1.603794e-04 -1.434907e-04 3.551734e-04
<VARIANCE> 39
 2.696502e+02 1.642264e+02 1.776205e+02 1.699619e+02 1.712323e+02 1.501611e+02 1.653076e+02 1.112998e+02 8.102897e+01 1.132308e+02 1.038732e+02 3.576029e+01 7.139818e+01 2.864393e+00 3.049235e+00 2.950589e+00 2.442850e+00 2.488132e+00 2.882445e+00 3.574063e+00 2.837703e+00 2.254665e+00 3.083899e+00 2.848865e+00 1.410452e+00 1.706605e+00 2.059384e-01 2.861855e-01 3.165202e-01 2.798763e-01 2.958655e-01 3.292713e-01 4.082396e-01 3.875320e-01 3.475762e-01 4.161765e-01 3.917231e-01 2.236369e-01 2.362328e-01
<GCONST> 1.313330e+02
<STATE> 3
<NUMMIXES> 2
<MIXTURE> 1 5.000000e-01
<MEAN> 39
 5.098849e+00 -6.514025e+00 2.430083e+00 1.092778e+01 1.083864e+01 1.500667e+00 -1.140838e+01 9.359310e+00 -3.377835e+00 -1.113024e+01 6.044074e+00 -4.088247e-01 -3.646332e+00 -1.380477e-02 1.475701e-03 -1.072459e-03 -5.524765e-03 -3.099398e-03 2.005852e-03 8.190720e-04 -5.087083e-03 2.488556e-03 5.650900e-03 -1.806995e-03 5.936168e-04 1.443354e-03 -1.213556e-03 -1.404243e-04 -1.926630e-04 -5.029775e-04 -4.298560e-04 2.249404e-04 5.535607e-04 -2.933974e-04 7.204357e-05 8.173331e-04 -1.603794e-04 -1.434907e-04 3.551734e-04
<VARIANCE> 39
 2.696502e+02 1.642264e+02 1.776205e+02 1.699619e+02 1.712323e+02 1.501611e+02 1.653076e+02 1.112998e+02 8.102897e+01 1.132308e+02 1.038732e+02 3.576029e+01 7.139818e+01 2.864393e+00 3.049235e+00 2.950589e+00 2.442850e+00 2.488132e+00 2.882445e+00 3.574063e+00 2.837703e+00 2.254665e+00 3.083899e+00 2.848865e+00 1.410452e+00 1.706605e+00 2.059384e-01 2.861855e-01 3.165202e-01 2.798763e-01 2.958655e-01 3.292713e-01 4.082396e-01 3.875320e-01 3.475762e-01 4.161765e-01 3.917231e-01 2.236369e-01 2.362328e-01
<GCONST> 1.313330e+02
<MIXTURE> 2 5.000000e-01
<MEAN> 39
 5.098849e+00 -6.514025e+00 2.430083e+00 1.092778e+01 1.083864e+01 1.500667e+00 -1.140838e+01 9.359310e+00 -3.377835e+00 -1.113024e+01 6.044074e+00 -4.088247e-01 -3.646332e+00 -1.380477e-02 1.475701e-03 -1.072459e-03 -5.524765e-03 -3.099398e-03 2.005852e-03 8.190720e-04 -5.087083e-03 2.488556e-03 5.650900e-03 -1.806995e-03 5.936168e-04 1.443354e-03 -1.213556e-03 -1.404243e-04 -1.926630e-04 -5.029775e-04 -4.298560e-04 2.249404e-04 5.535607e-04 -2.933974e-04 7.204357e-05 8.173331e-04 -1.603794e-04 -1.434907e-04 3.551734e-04
<VARIANCE> 39
 2.696502e+02 1.642264e+02 1.776205e+02 1.699619e+02 1.712323e+02 1.501611e+02 1.653076e+02 1.112998e+02 8.102897e+01 1.132308e+02 1.038732e+02 3.576029e+01 7.139818e+01 2.864393e+00 3.049235e+00 2.950589e+00 2.442850e+00 2.488132e+00 2.882445e+00 3.574063e+00 2.837703e+00 2.254665e+00 3.083899e+00 2.848865e+00 1.410452e+00 1.706605e+00 2.059384e-01 2.861855e-01 3.165202e-01 2.798763e-01 2.958655e-01 3.292713e-01 4.082396e-01 3.875320e-01 3.475762e-01 4.161765e-01 3.917231e-01 2.236369e-01 2.362328e-01
<GCONST> 1.313330e+02
<STATE> 4
<NUMMIXES> 2
<MIXTURE> 1 5.000000e-01
<MEAN> 39
 5.098849e+00 -6.514025e+00 2.430083e+00 1.092778e+01 1.083864e+01 1.500667e+00 -1.140838e+01 9.359310e+00 -3.377835e+00 -1.113024e+01 6.044074e+00 -4.088247e-01 -3.646332e+00 -1.380477e-02 1.475701e-03 -1.072459e-03 -5.524765e-03 -3.099398e-03 2.005852e-03 8.190720e-04 -5.087083e-03 2.488556e-03 5.650900e-03 -1.806995e-03 5.936168e-04 1.443354e-03 -1.213556e-03 -1.404243e-04 -1.926630e-04 -5.029775e-04 -4.298560e-04 2.249404e-04 5.535607e-04 -2.933974e-04 7.204357e-05 8.173331e-04 -1.603794e-04 -1.434907e-04 3.551734e-04
<VARIANCE> 39
 2.696502e+02 1.642264e+02 1.776205e+02 1.699619e+02 1.712323e+02 1.501611e+02 1.653076e+02 1.112998e+02 8.102897e+01 1.132308e+02 1.038732e+02 3.576029e+01 7.139818e+01 2.864393e+00 3.049235e+00 2.950589e+00 2.442850e+00 2.488132e+00 2.882445e+00 3.574063e+00 2.837703e+00 2.254665e+00 3.083899e+00 2.848865e+00 1.410452e+00 1.706605e+00 2.059384e-01 2.861855e-01 3.165202e-01 2.798763e-01 2.958655e-01 3.292713e-01 4.082396e-01 3.875320e-01 3.475762e-01 4.161765e-01 3.917231e-01 2.236369e-01 2.362328e-01
<GCONST> 1.313330e+02
<MIXTURE> 2 5.000000e-01
<MEAN> 39
 5.098849e+00 -6.514025e+00 2.430083e+00 1.092778e+01 1.083864e+01 1.500667e+00 -1.140838e+01 9.359310e+00 -3.377835e+00 -1.113024e+01 6.044074e+00 -4.088247e-01 -3.646332e+00 -1.380477e-02 1.475701e-03 -1.072459e-03 -5.524765e-03 -3.099398e-03 2.005852e-03 8.190720e-04 -5.087083e-03 2.488556e-03 5.650900e-03 -1.806995e-03 5.936168e-04 1.443354e-03 -1.213556e-03 -1.404243e-04 -1.926630e-04 -5.029775e-04 -4.298560e-04 2.249404e-04 5.535607e-04 -2.933974e-04 7.204357e-05 8.173331e-04 -1.603794e-04 -1.434907e-04 3.551734e-04
<VARIANCE> 39
 2.696502e+02 1.642264e+02 1.776205e+02 1.699619e+02 1.712323e+02 1.501611e+02 1.653076e+02 1.112998e+02 8.102897e+01 1.132308e+02 1.038732e+02 3.576029e+01 7.139818e+01 2.864393e+00 3.049235e+00 2.950589e+00 2.442850e+00 2.488132e+00 2.882445e+00 3.574063e+00 2.837703e+00 2.254665e+00 3.083899e+00 2.848865e+00 1.410452e+00 1.706605e+00 2.059384e-01 2.861855e-01 3.165202e-01 2.798763e-01 2.958655e-01 3.292713e-01 4.082396e-01 3.875320e-01 3.475762e-01 4.161765e-01 3.917231e-01 2.236369e-01 2.362328e-01
<GCONST> 1.313330e+02
<TRANSP> 5
 0.000000e+00 1.000000e+00 0.000000e+00 0.000000e+00 0.000000e+00
 0.000000e+00 6.000000e-01 4.000000e-01 0.000000e+00 0.000000e+00
 0.000000e+00 0.000000e+00 6.000000e-01 4.000000e-01 0.000000e+00
 0.000000e+00 0.000000e+00 0.000000e+00 6.000000e-01 4.000000e-01
 0.000000e+00 0.000000e+00 0.000000e+00 0.000000e+00 0.000000e+00
<ENDHMM>
~h "sx"
<BEGINHMM>
<NUMSTATES> 5
<STATE> 2
<NUMMIXES> 2
<MIXTURE> 1 5.549716e-01
<MEAN> 39
 6.101776e+00 -2.141356e+01 4.941657e+00 1.856023e+01 1.027971e+01 1.920874e+01 -3.879056e+00 -3.846096e+00 4.691817e-01 -6.080966e+00 -8.633137e-02 2.825609e+00 3.254689e+00 -1.979645e+00 -4.706638e+00 2.269822e+00 9.994487e-01 -9.962205e-01 3.348778e+00 1.793842e+00 9.374184e-02 1.716786e+00 6.800070e-01 -4.504651e-02 5.706310e-01 3.170112e-01 -2.224857e-01 -4.805959e-01 -4.661393e-01 -5.284244e-01 2.390454e-01 -2.443208e-01 -3.853966e-01 6.112744e-01 2.198920e-03 -3.249728e-01 3.971683e-01 1.275176e-02 -2.304112e-01
<VARIANCE> 39
 5.476669e+01 1.208419e+02 1.169878e+02 1.218169e+02 8.375070e+01 4.571870e+01 8.075311e+01 3.527413e+01 2.627094e+01 2.580234e+01 3.939994e+01 2.321358e+01 5.237505e+01 1.599930e+00 2.110263e+00 2.448286e+00 3.708430e+00 2.251216e+00 1.908531e+00 2.504373e+00 3.160336e+00 1.832550e+00 2.256682e+00 2.172540e+00 9.442716e-01 2.459600e+00 7.737243e-02 5.143312e-01 3.053825e-01 1.703796e-01 2.646827e-01 4.613076e-01 3.742057e-01 4.682727e-01 3.399426e-01 3.966499e-01 3.193884e-01 1.896762e-01 2.758631e-01
<GCONST> 1.174078e+02
<MIXTURE> 2 4.450285e-01
<MEAN> 39
 -3.854983e+00 -4.264421e+01 1.093188e+01 1.801396e+01 7.918437e+00 2.919927e+01 -1.097226e+00 5.305899e-01 7.643947e+00 -3.606920e+00 3.117235e+00 4.924529e+00 4.020285e+00 -2.081584e+00 -3.402157e+00 -7.832282e-01 -2.321128e+00 -1.515685e+00 -5.061187e-01 -1.120336e+00 1.923854e-01 2.379452e-01 3.450325e-01 1.886683e-01 -1.576756e-01 4.661023e-01 2.434980e-01 6.989154e-01 -1.661274e-01 -1.992676e-01 -1.277905e-01 -7.114784e-01 -4.430240e-01 -4.096594e-01 -5.335618e-01 -1.418214e-01 -2.237666e-01 -2.451721e-01 -2.557382e-02
<VARIANCE> 39
 1.782088e+01 3.697639e+01 4.297765e+01 2.956146e+01 2.666696e+01 2.075649e+01 9.428732e+01 2.543762e+01 2.261291e+01 1.836487e+01 2.041093e+01 2.047279e+01 2.510927e+01 5.381365e-01 1.951417e+00 8.465375e-01 7.994912e-01 9.125512e-01 2.587668e+00 1.605735e+00 1.925926e+00 1.814222e+00 1.700426e+00 1.511189e+00 1.265612e+00 9.239858e-01 9.939924e-02 1.585853e-01 2.160370e-01 2.498691e-01 1.772354e-01 3.166347e-01 3.563536e-01 2.222443e-01 2.246395e-01 2.662852e-01 1.771806e-01 2.117536e-01 1.656199e-01
<GCONST> 9.766123e+01
<STATE> 3
<NUMMIXES> 2
<MIXTURE> 1 0.000000e+00
<MEAN> 39
 -2.589639e+01 -8.086056e+00 -5.842546e+00 -8.568189e-01 -1.132706e+00 3.758358e+00 -1.747407e+00 1.918359e-01 -6.092826e+00 -6.091179e+00 1.424222e+00 3.768395e+00 2.979695e+00 -8.323479e-02 1.047209e-01 -1.360199e-01 -2.555425e-01 -5.355441e-01 -6.853368e-01 -3.608705e-01 5.298619e-01 1.221652e+00 9.246182e-01 7.676374e-01 2.320677e-01 -1.368400e-01 1.882693e-01 1.151544e-01 2.240881e-02 -1.060433e-01 -1.462484e-01 -2.573616e-01 -1.659429e-01 2.528915e-02 -1.167465e-01 2.891361e-01 2.165567e-02 -2.161635e-01 -3.127986e-01
<VARIANCE> 39
 1.924733e+00 6.048767e+00 3.232208e+00 4.033120e+00 1.022189e+01 1.084621e+01 4.412310e+00 5.510023e+00 1.363655e+01 1.911531e+01 8.857162e+00 2.420563e+01 2.668977e+00 1.241993e-01 4.406725e-01 7.311630e-01 1.078301e+00 8.011302e-01 7.876549e-01 8.789538e-01 2.311564e+00 2.261892e+00 1.462139e+00 1.491107e+00 1.320726e+00 1.260225e+00 7.360157e-02 9.111705e-02 1.334201e-01 2.809681e-01 3.253425e-01 1.084391e-01 1.206654e-01 2.485622e-01 1.709281e-01 1.943447e-01 3.101693e-01 2.409264e-01 2.716875e-01
<GCONST> 7.328081e+01
<MIXTURE> 2 1.000000e+00
<MEAN> 39
 -1.215646e+01 -5.026736e+01 9.759922e+00 6.712831e+00 2.386609e+00 2.080812e+01 -1.571887e+01 -3.466273e+00 5.139521e+00 -4.300171e+00 2.030129e+00 1.885419e+00 2.949032e+00 -1.304093e-01 -1.464919e-02 1.355923e-01 -3.365296e-01 -4.445958e-01 -2.099790e-01 -8.277207e-02 6.164072e-02 -1.584554e-01 -3.399243e-01 -2.896611e-01 -4.394806e-02 7.696000e-02 1.420718e-01 3.562483e-01 -2.133034e-02 1.526381e-01 1.035384e-01 5.060371e-02 1.767027e-01 6.754410e-02 4.641119e-02 -3.025093e-02 -3.657575e-02 3.881054e-02 1.540640e-02
<VARIANCE> 39
 1.388863e+01 2.016902e+01 4.181067e+01 1.371747e+01 1.290825e+01 2.500397e+01 4.943885e+01 2.682695e+01 1.568671e+01 2.053544e+01 2.066183e+01 1.895156e+01 1.441428e+01 1.131732e+00 3.243627e+00 1.705884e+00 1.032668e+00 8.475034e-01 2.288375e+00 1.959880e+00 1.507729e+00 1.867488e+00 1.581942e+00 1.435038e+00 1.186630e+00 7.782400e-01 1.789954e-01 4.495198e-01 2.353124e-01 1.546760e-01 1.615798e-01 2.907103e-01 2.127240e-01 2.313683e-01 2.946765e-01 2.929725e-01 2.853802e-01 1.837993e-01 1.490651e-01
<GCONST> 9.681835e+01
<STATE> 4
<NUMMIXES> 2
<MIXTURE> 1 4.289698e-01
<MEAN> 39
 -7.209768e+00 -2.746435e+01 3.826104e+00 1.067941e+01 1.573840e+00 1.399236e+01 -5.294499e+00 5.376516e-01 3.989110e+00 -6.129827e+00 -3.110372e+00 3.307520e+00 6.994969e+00 1.237784e+00 4.739788e+00 -1.153534e+00 1.947462e-01 9.096642e-01 -1.835291e+00 2.367664e-01 6.208190e-01 -4.485062e-01 2.598098e-02 1.753015e-01 -9.995181e-02 -1.701051e-01 2.172164e-02 -9.999599e-02 -2.169342e-01 -3.193668e-01 1.275695e-01 -2.850529e-01 -3.874284e-01 1.112192e-01 -2.537830e-01 -1.725559e-01 1.573569e-01 -1.150539e-01 -1.638228e-01
<VARIANCE> 39
 1.813358e+02 1.621773e+02 7.020155e+01 3.261019e+01 4.316888e+01 1.191719e+02 5.745664e+01 2.597960e+01 5.007188e+01 3.912872e+01 3.201625e+01 2.372307e+01 1.563502e+01 7.656729e+00 5.097767e+00 4.901598e+00 3.049386e+00 2.231671e+00 3.167119e+00 4.398801e+00 1.529940e+00 2.347408e+00 2.036288e+00 2.037939e+00 1.380007e+00 1.610891e+00 4.248554e-01 1.113251e+00 7.725938e-01 3.563795e-01 2.863429e-01 6.452917e-01 4.666342e-01 3.472219e-01 2.777892e-01 3.462422e-01 2.809970e-01 2.491013e-01 2.878512e-01
<GCONST> 1.240319e+02
<MIXTURE> 2 5.710302e-01
<MEAN> 39
 -1.028091e+01 -5.132993e+01 5.452237e+00 6.447929e+00 -1.547871e+00 2.096421e+01 -5.210356e+00 -2.279725e+00 6.068434e-01 -6.286660e+00 -3.784679e+00 -3.132307e-02 7.669374e+00 -3.945555e-03 2.550860e-01 1.823142e-01 1.262886e-01 1.125688e-01 -1.506582e-01 -2.183195e-01 -8.642184e-02 -1.092717e-01 -4.333915e-02 -2.954844e-02 5.487011e-02 8.985515e-02 1.358412e-01 3.041828e-01 -4.908178e-02 9.287592e-02 3.961312e-02 -1.135246e-02 1.082204e-01 4.704520e-02 1.128224e-01 6.343952e-02 4.241751e-02 9.581432e-02 1.053544e-02
<VARIANCE> 39
 1.011958e+01 1.425812e+01 3.738155e+01 1.421675e+01 6.001417e+00 1.570656e+01 3.667108e+01 1.583428e+01 1.806323e+01 2.094135e+01 1.642133e+01 1.785594e+01 7.647211e+00 9.695911e-01 2.293848e+00 1.410406e+00 6.200097e-01 4.316418e-01 1.170978e+00 1.418453e+00 1.170935e+00 1.270660e+00 1.525151e+00 1.475621e+00 1.563926e+00 7.713840e-01 1.402023e-01 4.339283e-01 2.187088e-01 1.197286e-01 8.054513e-02 2.169320e-01 1.778396e-01 2.120946e-01 2.159024e-01 3.041975e-01 2.880389e-01 2.805431e-01 1.505717e-01
<GCONST> 8.831551e+01
<TRANSP> 5
 0.000000e+00 1.000000e+00 0.000000e+00 0.000000e+00 0.000000e+00
 0.000000e+00 8.768405e-01 1.231595e-01 0.000000e+00 0.000000e+00
 0.000000e+00 0.000000e+00 8.838878e-01 1.161122e-01 0.000000e+00
 0.000000e+00 0.000000e+00 0.000000e+00 9.406574e-01 5.934260e-02
 0.000000e+00 0.000000e+00 0.000000e+00 0.000000e+00 0.000000e+00
<ENDHMM>
~h "th"
<BEGINHMM>
<NUMSTATES> 5
<STATE> 2
<NUMMIXES> 2
<MIXTURE> 1 0.000000e+00
<MEAN> 39
 -3.886223e-05 -1.931190e-05 5.215406e-07 8.761883e-06 -2.145767e-06 5.111098e-06 8.314848e-06 2.488494e-06 -7.539988e-06 1.132488e-06 -3.003515e-07 5.424023e-06 -4.022149e-08 1.873821e-06 -4.437752e-07 5.909242e-07 1.825392e-07 -4.018657e-07 -3.222376e-07 3.189780e-07 -5.820766e-11 -6.482005e-07 -5.755574e-07 -2.846355e-08 6.949995e-08 9.033829e-08 -3.673423e-02 3.657988e-03 -6.203171e-03 1.457151e-03 -7.559096e-04 -1.241736e-03 -9.468020e-04 -1.675523e-03 -7.280131e-04 -1.245679e-03 7.821736e-05 -6.539826e-04 -5.843351e-06
<VARIANCE> 39
 6.791949e-05 0.000000e+00 1.187436e-07 1.545995e-06 3.539026e-07 4.889444e-07 7.301569e-06 3.557652e-07 0.000000e+00 0.000000e+00 0.000000e+00 3.034249e-06 1.224976e-10 0.000000e+00 0.000000e+00 8.043571e-09 0.000000e+00 0.000000e+00 0.000000e+00 2.622983e-09 1.563194e-12 0.000000e+00 0.000000e+00 0.000000e+00 0.000000e+00 0.000000e+00 2.939744e-02 1.510691e-03 1.924523e-03 1.205781e-03 1.539571e-03 1.394400e-03 1.598690e-03 1.480532e-03 1.398113e-03 1.215753e-03 1.174650e-03 9.854551e-04 6.629324e-04
<GCONST> -1.400000e+11
<MIXTURE> 2 1.000000e+00
<MEAN> 39
 -1.062233e+01 3.463898e+00 3.511713e+00 7.184937e+00 7.353759e+00 8.539812e+00 -2.329427e-01 4.545763e+00 -1.795383e+00 -3.016172e+00 7.724214e-01 9.579523e-01 4.258996e+00 -1.564221e+00 -1.238062e+00 -7.753239e-01 -2.959756e-01 -7.152037e-01 -7.922059e-02 5.991496e-01 2.216157e-01 9.579497e-01 9.056723e-01 -3.935879e-01 1.156653e-01 9.388689e-01 5.631345e-01 -5.750177e-01 -1.623469e-01 -1.432578e-02 6.341436e-02 2.823038e-02 -1.852534e-01 3.148198e-01 1.675688e-01 2.574767e-02 2.074248e-01 -8.972944e-02 9.382205e-02
<VARIANCE> 39
 1.142562e+02 5.762518e+01 4.041981e+01 5.547976e+01 5.567340e+01 3.298773e+01 2.879463e+01 2.494079e+01 2.961067e+01 2.579334e+01 2.219731e+01 1.958362e+01 2.982448e+01 4.219666e+00 4.554794e+00 2.711859e+00 2.730359e+00 2.833497e+00 2.562703e+00 2.537238e+00 2.711495e+00 2.836339e+00 1.669424e+00 2.388093e+00 1.631806e+00 2.404117e+00 3.140079e-01 3.449982e-01 4.701772e-01 3.615252e-01 4.416161e-01 4.719928e-01 3.799920e-01 4.064313e-01 5.005319e-01 3.737018e-01 4.498029e-01 3.316998e-01 4.328805e-01
<GCONST> 1.192002e+02
<STATE> 3
<NUMMIXES> 2
<MIXTURE> 1 0.000000e+00
<MEAN> 39
 0.000000e+00 0.000000e+00 0.000000e+00 0.000000e+00 0.000000e+00 0.000000e+00 0.000000e+00 0.000000e+00 0.000000e+00 0.000000e+00 0.000000e+00 0.000000e+00 0.000000e+00 7.602786e-28 -6.781300e-28 2.817260e-28 -2.260459e-29 5.468585e-29 -1.506301e-28 1.148696e-28 -2.120465e-29 7.979356e-30 -5.320312e-29 5.792728e-29 -1.833769e-29 3.866608e-31 -4.988265e-02 4.965165e-03 -7.294576e-03 2.466788e-03 2.788171e-04 -1.618284e-03 -9.823618e-04 -1.922494e-03 -5.035132e-04 -1.812430e-03 -3.375670e-05 -6.368760e-04 -8.684045e-05
<VARIANCE> 39
 0.000000e+00 0.000000e+00 0.000000e+00 0.000000e+00 0.000000e+00 0.000000e+00 0.000000e+00 0.000000e+00 0.000000e+00 0.000000e+00 0.000000e+00 0.000000e+00 0.000000e+00 8.953985e-28 7.123556e-28 1.229489e-28 7.915240e-31 4.632556e-30 3.514752e-29 2.044002e-29 6.965190e-31 9.862945e-32 4.384753e-30 5.198011e-30 5.209071e-31 2.315961e-34 4.486060e-02 3.359458e-03 3.289693e-03 2.491937e-03 2.905590e-03 2.327311e-03 2.783720e-03 2.963404e-03 2.648251e-03 2.054753e-03 2.260878e-03 1.761504e-03 1.385205e-03
<GCONST> -1.300000e+11
<MIXTURE> 2 1.000000e+00
<MEAN> 39
 -8.225570e+00 -8.679921e+00 -5.063331e-01 6.241318e+00 3.778483e+00 8.512824e+00 -4.884374e-01 8.972830e+00 6.022807e+00 3.392467e+00 2.069724e+00 -1.081230e+00 9.049440e+00 3.179564e+00 -2.478370e+00 9.074077e-02 -1.296568e+00 -1.828315e+00 6.248267e-02 -1.328090e+00 2.375202e-02 -6.101870e-01 2.679645e-01 2.003486e+00 -1.047365e+00 -5.012316e-01 4.578498e-01 6.889398e-02 4.275325e-01 -5.217296e-01 -3.641942e-01 1.738696e-01 -4.010367e-01 -4.979387e-01 -1.281025e+00 -7.326543e-01 7.181457e-01 3.348236e-02 -4.946828e-01
<VARIANCE> 39
 3.495912e+01 1.741532e+01 1.343546e+01 2.175320e+01 2.725644e+01 1.812523e+01 2.811391e+01 2.305081e+01 2.728016e+01 1.732685e+01 1.913715e+01 2.429727e+01 2.016990e+01 1.637896e+00 1.618159e+00 1.903678e+00 3.504214e+00 2.548835e+00 2.227014e+00 2.871712e+00 3.669284e+00 8.783081e+00 4.786479e+00 3.580415e+00 2.164356e+00 3.990204e+00 4.130810e-01 2.038077e-01 2.181201e-01 3.272484e-01 4.601327e-01 3.994806e-01 4.429348e-01 4.431614e-01 5.850786e-01 4.905002e-01 3.364659e-01 5.969365e-01 7.491977e-01
<GCONST> 1.143026e+02
<STATE> 4
<NUMMIXES> 2
<MIXTURE> 1 3.781135e-01
<MEAN> 39
 8.615977e+00 -1.656367e+01 1.069635e+00 -3.515010e-01 -1.472132e+00 7.411879e+00 -9.852876e+00 8.477864e+00 -9.049323e+00 -8.615285e+00 1.611666e+01 -9.587516e-01 3.585332e+00 9.895563e-01 -7.550325e-01 3.175138e-01 -5.503343e-01 -4.980683e-01 5.842502e-01 -1.731595e-02 -3.170046e-01 -1.533144e+00 -6.612124e-01 1.623071e+00 8.798004e-01 2.080216e-01 -7.128740e-01 5.396858e-01 -2.445427e-01 5.989207e-01 4.673834e-01 -6.856829e-02 7.031355e-01 9.358660e-02 8.489416e-01 6.393323e-01 -6.355985e-01 2.685578e-01 2.238669e-01
<VARIANCE> 39
 5.806970e+01 3.238593e+01 4.271944e+01 5.182552e+01 6.741525e+01 1.246623e+02 8.128417e+01 1.084734e+02 4.158181e+01 1.630709e+02 3.390406e+01 2.328144e+01 4.126197e+01 2.961777e+00 2.168269e+00 1.717621e+00 2.992305e+00 2.063265e+00 3.408312e+00 4.582228e+00 3.075471e+00 6.756432e+00 5.722810e+00 5.161737e+00 1.405716e+00 1.418882e+00 2.449792e-01 2.284581e-01 2.853258e-01 4.572286e-01 3.476183e-01 4.023698e-01 5.189487e-01 4.928706e-01 6.900029e-01 6.201901e-01 4.653570e-01 3.107187e-01 3.641728e-01
<GCONST> 1.262896e+02
<MIXTURE> 2 6.218864e-01
<MEAN> 39
 6.413373e+00 -1.366294e+01 -3.329879e+00 1.169698e+00 -4.874695e+00 8.595040e+00 3.604109e+00 8.041017e+00 -3.850663e+00 1.813281e+00 1.515195e+01 3.113462e+00 6.646692e+00 6.235349e-01 1.377105e+00 -2.799799e-01 8.912794e-01 6.900177e-01 -8.217738e-01 5.009935e-01 6.127622e-01 5.327874e-01 -1.824450e-01 -5.438160e-01 -5.294779e-02 -6.814731e-01 1.930758e-01 8.843498e-02 8.667288e-02 -3.708401e-02 6.543694e-02 -2.440819e-01 -4.262260e-01 1.300598e-01 -7.894005e-02 -3.220843e-01 -2.302220e-02 -2.074033e-01 -2.152562e-01
<VARIANCE> 39
 7.633310e+01 7.368159e+01 6.804839e+01 6.454608e+01 1.255147e+02 1.103917e+02 6.359443e+01 6.505343e+01 4.200335e+01 7.175153e+01 5.662323e+01 2.824627e+01 2.515138e+01 1.603234e+00 3.563509e+00 2.506481e+00 2.874077e+00 4.124723e+00 3.080208e+00 4.516572e+00 2.690626e+00 2.406033e+00 3.357037e+00 2.704950e+00 2.398702e+00 1.782033e+00 1.191442e-01 3.581668e-01 3.631672e-01 3.019806e-01 4.304128e-01 5.160704e-01 5.249869e-01 4.362431e-01 4.104746e-01 4.201384e-01 3.834627e-01 3.587153e-01 2.652313e-01
<GCONST> 1.250594e+02
<TRANSP> 5
 0.000000e+00 1.000000e+00 0.000000e+00 0.000000e+00 0.000000e+00
 0.000000e+00 8.364603e-01 1.635397e-01 0.000000e+00 0.000000e+00
 0.000000e+00 0.000000e+00 7.670909e-01 2.329091e-01 0.000000e+00
 0.000000e+00 0.000000e+00 0.000000e+00 9.267131e-01 7.328688e-02
 0.000000e+00 0.000000e+00 0.000000e+00 0.000000e+00 0.000000e+00
<ENDHMM>
~h "tx"
<BEGINHMM>
<NUMSTATES> 5
<STATE> 2
<NUMMIXES> 2
<MIXTURE> 1 7.412517e-01
<MEAN> 39
 -1.835080e+01 -8.917451e+00 5.081690e+00 6.230749e+00 2.582319e+00 8.256334e+00 -2.414763e+00 6.253020e+00 1.142382e+00 -3.541977e+00 -1.183855e+00 -4.075127e-01 6.156610e+00 5.221884e-01 -1.015144e+00 -1.810079e+00 8.884894e-01 6.690993e-01 1.255436e-01 2.352720e-01 4.137271e-01 1.575351e+00 6.825109e-01 -4.359255e-01 8.424398e-03 1.180199e+00 6.113232e-01 -4.524181e-01 2.334982e-01 -3.754331e-01 -4.025971e-01 -7.890236e-02 -1.922830e-01 5.567498e-02 -9.721532e-02 8.864061e-02 2.565031e-01 -2.164383e-01 -3.664303e-01
<VARIANCE> 39
 6.944488e+01 9.731379e+01 7.003761e+01 6.816065e+01 9.919904e+01 2.065098e+01 3.224038e+01 2.133308e+01 2.768022e+01 2.199959e+01 3.166832e+01 1.585159e+01 2.492517e+01 6.202158e+00 9.167463e+00 8.066618e+00 3.716845e+00 4.767015e+00 2.936209e+00 2.647673e+00 3.168900e+00 2.772520e+00 2.087739e+00 2.414176e+00 1.683999e+00 3.181706e+00 2.956396e-01 4.580908e-01 7.308682e-01 4.318947e-01 8.810526e-01 4.159753e-01 4.416569e-01 4.413319e-01 4.438030e-01 3.244511e-01 5.015721e-01 2.984944e-01 6.909196e-01
<GCONST> 1.254960e+02
<MIXTURE> 2 2.587483e-01
<MEAN> 39
 -2.641397e+01 -7.553456e+00 -4.136489e+00 -2.658805e+00 -3.959109e+00 9.794568e-01 -4.090553e+00 1.505830e+00 -1.925721e+00 -1.559046e+00 7.624591e-01 -1.121129e+00 9.177322e-01 2.746710e-01 2.429139e-01 -7.236649e-01 5.550311e-01 8.515829e-01 -8.850241e-02 3.386107e-01 2.393141e-01 3.153047e-01 2.962575e-01 -2.863894e-01 1.323884e-01 3.519114e-01 3.808241e-01 -3.072060e-01 6.013854e-01 4.229344e-01 2.076700e-01 4.483569e-01 6.740994e-02 2.545167e-01 1.149773e-01 -9.972547e-02 -2.891886e-02 3.669400e-02 3.043227e-01
<VARIANCE> 39
 7.201406e-01 5.063998e+00 6.430157e+00 3.955569e+00 5.472838e+00 6.502232e+00 6.630096e+00 7.060933e+00 9.156281e+00 8.879512e+00 7.803318e+00 6.735868e+00 6.166047e+00 6.565050e-01 1.414409e+00 3.157716e+00 1.730298e+00 2.073059e+00 1.820995e+00 1.492509e+00 1.668711e+00 1.683648e+00 1.722423e+00 1.301104e+00 1.200971e+00 1.341243e+00 1.837891e-01 3.535774e-01 4.474005e-01 3.081920e-01 3.334166e-01 3.251547e-01 2.587006e-01 3.636133e-01 4.301533e-01 3.621990e-01 2.501971e-01 2.281763e-01 2.665222e-01
<GCONST> 8.412901e+01
<STATE> 3
<NUMMIXES> 2
<MIXTURE> 1 4.883550e-01
<MEAN> 39
 -8.567929e+00 -1.544072e+01 1.727302e+00 1.007249e+01 3.657212e+00 9.461191e+00 -2.402446e+00 8.195664e+00 7.875635e+00 1.402132e+00 -1.388878e+00 -3.098698e+00 7.986513e+00 2.698757e+00 -3.880182e+00 1.166323e+00 -7.454304e-01 -2.181254e+00 5.118461e-01 -1.055632e+00 -2.216058e-01 -7.253250e-01 -8.330357e-01 2.270921e+00 6.222737e-02 -2.131345e+00 -1.656395e-02 -3.919146e-01 7.643692e-01 -3.122400e-01 -2.189659e-01 4.194085e-01 -1.663106e-01 -1.792896e-01 -1.210431e+00 -1.119102e+00 7.367503e-01 5.506595e-01 -6.087446e-01
<VARIANCE> 39
 1.621383e+01 2.482873e+01 2.215247e+01 2.719675e+01 4.101769e+01 2.339453e+01 3.251471e+01 2.452730e+01 3.258057e+01 1.879566e+01 3.339337e+01 2.165342e+01 3.509383e+01 1.531877e+00 2.337334e+00 3.030016e+00 2.406343e+00 1.966336e+00 2.419391e+00 1.878914e+00 2.068312e+00 5.417330e+00 4.627801e+00 3.764257e+00 3.547232e+00 2.828354e+00 3.314574e-01 3.704202e-01 3.586930e-01 4.112444e-01 6.854806e-01 5.383729e-01 3.974072e-01 4.345140e-01 4.384534e-01 3.870178e-01 4.373116e-01 3.795649e-01 1.016372e+00
<GCONST> 1.168976e+02
<MIXTURE> 2 5.116450e-01
<MEAN> 39
 -2.546330e+00 -3.188612e+01 1.170307e+01 5.826327e+00 -3.353061e+00 1.637516e+01 -6.680456e+00 7.560906e+00 -1.945301e+00 -1.050266e+01 7.802473e+00 1.678195e+00 1.665623e+00 1.048273e+00 -3.042480e+00 3.456971e+00 5.732350e-02 -3.932815e-01 2.900326e+00 -7.478522e-01 1.660139e-01 -2.230436e+00 -2.329026e+00 2.085666e+00 9.324617e-01 -7.152425e-02 -3.428845e-01 1.535931e+00 -3.748301e-01 5.167252e-01 8.665338e-01 -2.649093e-01 3.218714e-01 -1.944425e-01 4.778462e-01 7.023507e-01 -7.687645e-01 -2.538136e-01 5.350850e-01
<VARIANCE> 39
 3.593506e+01 5.631380e+01 9.237037e+01 6.706592e+01 6.093930e+01 7.551940e+01 6.319370e+01 4.356011e+01 7.290556e+01 5.272039e+01 7.884108e+01 3.658660e+01 4.327211e+01 2.841099e+00 5.377540e+00 3.217837e+00 2.555154e+00 2.500782e+00 3.137903e+00 2.720596e+00 2.917842e+00 3.891353e+00 4.851232e+00 3.023479e+00 2.245918e+00 2.468187e+00 2.262412e-01 9.995068e-01 1.347080e+00 3.631582e-01 3.641213e-01 1.210556e+00 6.851909e-01 6.031553e-01 6.744042e-01 8.468987e-01 6.320352e-01 4.040097e-01 4.636729e-01
<GCONST> 1.324886e+02
<STATE> 4
<NUMMIXES> 2
<MIXTURE> 1 8.697035e-01
<MEAN> 39
 -2.393254e+00 -2.107384e+01 1.257244e+01 1.132284e+01 4.497946e+00 1.905964e+01 -1.712045e+00 7.181454e+00 -1.825829e+00 -9.063145e+00 6.216364e+00 3.569175e+00 4.722453e+00 1.138345e+00 3.672872e+00 -1.452532e+00 9.552993e-01 1.683316e+00 -1.640887e+00 1.088965e-01 -7.953786e-01 -2.620021e-01 2.808287e-01 -6.801960e-01 -3.418775e-02 -3.633052e-01 1.273438e-01 2.890013e-01 -7.012957e-01 -1.780555e-01 1.655582e-01 -7.047662e-01 -4.099212e-01 1.275566e-01 -7.599649e-03 -1.638133e-01 -5.813384e-02 -8.583933e-02 -2.515358e-01
<VARIANCE> 39
 8.320763e+01 2.090715e+02 8.865692e+01 6.761614e+01 6.429396e+01 8.335030e+01 7.185268e+01 6.545979e+01 8.331779e+01 5.009665e+01 7.234359e+01 3.973675e+01 5.822697e+01 4.935115e+00 3.940158e+00 6.383357e+00 3.016793e+00 4.256448e+00 4.565768e+00 6.037850e+00 3.442492e+00 4.322341e+00 4.692173e+00 2.709792e+00 2.149741e+00 2.698829e+00 3.008073e-01 1.325301e+00 1.400597e+00 3.459515e-01 5.898632e-01 9.173214e-01 6.104274e-01 7.575128e-01 6.822931e-01 7.425547e-01 6.742439e-01 3.423735e-01 3.601497e-01
<GCONST> 1.390417e+02
<MIXTURE> 2 1.302965e-01
<MEAN> 39
 1.092170e+01 -1.720225e+01 -8.518137e+00 6.419293e+00 2.247745e+00 -7.427540e-01 -1.477107e+01 -1.491861e+00 -8.603267e+00 -4.748270e+00 1.774874e+01 5.765774e+00 -2.371986e-01 1.294546e+00 1.567669e+00 -2.103880e+00 -2.361396e-01 1.303313e+00 -2.074345e+00 -1.161196e+00 9.071838e-01 -4.010564e-01 -5.201676e-01 7.394433e-01 4.935139e-02 -5.410512e-01 -3.465595e-01 -2.427698e-01 4.858408e-01 -1.716813e-03 -5.287269e-02 3.542562e-01 1.906793e-01 3.696703e-01 2.203045e-01 2.102807e-03 8.443753e-02 2.192880e-02 2.841921e-02
<VARIANCE> 39
 5.480920e+01 4.720658e+01 9.448351e+01 5.045416e+01 8.557536e+01 7.919701e+01 4.389680e+01 6.489775e+01 3.163283e+01 2.277686e+02 1.095411e+02 2.342487e+01 2.422445e+01 1.958759e+00 1.392733e+00 5.969605e+00 1.281591e+00 3.490766e+00 6.433698e+00 4.036941e+00 3.062687e+00 2.734332e+00 6.036912e+00 2.367064e+00 1.439204e+00 1.253242e+00 1.983512e-01 3.951777e-01 3.112041e-01 2.055562e-01 3.648458e-01 4.188321e-01 3.466024e-01 5.685433e-01 2.689246e-01 4.283421e-01 4.915920e-01 2.259666e-01 2.014003e-01
<GCONST> 1.228617e+02
<TRANSP> 5
 0.000000e+00 1.000000e+00 0.000000e+00 0.000000e+00 0.000000e+00
 0.000000e+00 8.055754e-01 1.944246e-01 0.000000e+00 0.000000e+00
 0.000000e+00 0.000000e+00 8.357016e-01 1.642984e-01 0.000000e+00
 0.000000e+00 0.000000e+00 0.000000e+00 8.270913e-01 1.729087e-01
 0.000000e+00 0.000000e+00 0.000000e+00 0.000000e+00 0.000000e+00
<ENDHMM>
~h "uu"
<BEGINHMM>
<NUMSTATES> 7
<STATE> 2
<NUMMIXES> 2
<MIXTURE> 1 6.958194e-01
<MEAN> 39
 1.583493e+01 -8.033749e-01 5.467896e+00 1.943167e+01 1.802181e+01 4.160858e-01 -1.409700e+01 1.185421e+01 -3.725222e+00 -2.856110e+01 -1.771883e+00 1.177677e+00 -1.480105e+01 1.875356e-01 9.299882e-01 1.735374e-01 -1.014344e+00 -1.842946e+00 -1.160493e+00 9.836411e-01 1.539916e+00 9.730603e-01 -4.355261e-02 -1.371433e+00 -8.836654e-01 2.818585e-01 -1.165542e-02 -1.162316e-02 -5.843778e-04 9.750655e-02 7.884655e-02 -4.180135e-02 -9.258011e-02 -8.309447e-02 5.338550e-02 2.516152e-01 9.544890e-02 -9.538697e-02 -5.723954e-02
<VARIANCE> 39
 3.747152e+00 1.637018e+01 1.055667e+01 3.612710e+01 5.347362e+01 3.071737e+01 3.075075e+01 4.530812e+01 2.926759e+01 3.742972e+01 2.896119e+01 2.100843e+01 1.341448e+01 1.653970e-01 2.644507e-01 3.510996e-01 6.314576e-01 7.402171e-01 8.345040e-01 1.022518e+00 1.074129e+00 7.426726e-01 1.926758e+00 8.441619e-01 6.668186e-01 5.427974e-01 2.693562e-02 3.351994e-02 5.122259e-02 8.028444e-02 8.739263e-02 1.126462e-01 1.337182e-01 1.682884e-01 1.060202e-01 2.138003e-01 1.076865e-01 1.055196e-01 7.876628e-02
<GCONST> 7.481175e+01
<MIXTURE> 2 3.041804e-01
<MEAN> 39
 1.172958e+01 3.429450e+00 4.921277e+00 8.609871e+00 6.257900e+00 9.080941e+00 4.279553e+00 1.237617e+01 -3.485889e+00 -1.319137e+01 -7.182932e+00 -8.381185e+00 -2.453783e+00 8.937740e-01 5.553439e-01 -1.119933e-01 -2.798385e-02 -1.682790e-01 -1.349580e+00 -8.560468e-01 4.736647e-01 3.139481e-01 -4.070276e-01 -1.850758e-01 -4.014196e-01 -1.031863e+00 -5.757764e-02 -1.724086e-01 -6.915777e-02 3.016552e-02 7.860786e-02 -2.314888e-01 -4.252211e-01 -2.406291e-03 3.355060e-01 2.150712e-01 1.183543e-01 2.575898e-02 -1.697286e-01
<VARIANCE> 39
 6.438833e+01 1.585239e+02 7.938090e+01 7.265150e+01 4.548448e+01 8.694204e+01 6.322283e+01 3.383818e+01 6.516725e+01 3.478794e+01 9.455534e+01 4.285090e+01 2.709882e+01 1.885388e+00 3.585436e+00 2.703775e+00 2.565340e+00 1.626220e+00 8.412735e+00 5.062734e+00 3.094026e+00 3.143953e+00 2.787699e+00 3.737073e+00 1.530237e+00 2.028621e+00 2.682285e-01 6.429576e-01 4.287742e-01 2.851265e-01 1.905814e-01 5.635539e-01 5.382025e-01 3.344328e-01 6.220472e-01 4.167985e-01 5.426198e-01 2.265847e-01 2.046433e-01
<GCONST> 1.258508e+02
<STATE> 3
<NUMMIXES> 2
<MIXTURE> 1 7.116991e-01
<MEAN> 39
 1.698971e+01 7.947200e+00 8.213279e+00 1.457255e+01 2.811056e+00 -1.390746e+01 -1.005439e+01 2.054191e+01 7.016536e+00 -1.746007e+01 -6.951098e+00 -5.223389e+00 -1.379117e+01 -6.063860e-02 4.214400e-01 2.872918e-01 -3.253941e-02 -5.456973e-01 -5.206296e-01 9.472773e-02 -1.684875e-01 -6.669245e-02 5.420819e-01 3.275100e-01 2.996023e-01 1.243419e-01 1.420222e-03 -3.178400e-02 -5.891921e-02 -3.651288e-02 1.096633e-01 2.347575e-01 3.529366e-02 -1.611516e-01 -1.328776e-01 -2.028879e-02 3.015757e-02 1.745790e-02 6.351040e-02
<VARIANCE> 39
 2.078234e+00 9.220988e+00 7.089959e+00 1.316370e+01 1.455860e+01 2.391578e+01 2.904739e+01 1.769781e+01 1.889016e+01 2.770700e+01 1.145243e+01 1.234829e+01 6.716961e+00 1.141759e-01 3.372426e-01 4.307629e-01 4.891632e-01 4.811672e-01 8.623644e-01 7.847100e-01 1.208992e+00 6.702491e-01 1.389444e+00 6.677944e-01 1.061472e+00 3.521843e-01 1.778867e-02 3.810253e-02 4.053449e-02 6.015805e-02 6.375223e-02 8.591584e-02 1.308018e-01 1.546862e-01 7.014486e-02 1.306566e-01 7.917517e-02 8.732334e-02 5.863754e-02
<GCONST> 6.224910e+01
<MIXTURE> 2 2.883008e-01
<MEAN> 39
 1.786802e+01 8.652371e+00 3.174214e+00 9.323550e+00 6.338722e+00 -3.265071e+00 -7.828685e+00 1.501750e+01 6.644797e+00 -1.144561e+01 -8.070382e+00 -1.161244e+01 -1.191959e+01 1.135769e-01 2.629547e-01 5.080724e-01 6.585321e-01 -2.068846e-01 -2.214951e+00 -1.651915e+00 8.681968e-01 1.372646e+00 2.181567e-01 3.233682e-01 1.977193e-01 -9.497585e-01 -1.621251e-01 -1.315887e-01 1.226726e-01 5.075863e-02 -6.237039e-02 2.102586e-01 2.407419e-01 -1.061946e-01 -1.975351e-01 -3.668128e-02 8.566443e-02 2.500422e-01 2.599066e-01
<VARIANCE> 39
 7.378769e+00 2.888601e+01 1.791252e+01 4.868332e+01 1.829907e+01 6.772996e+01 4.768251e+01 4.394936e+01 3.253437e+01 6.034516e+01 2.636968e+01 2.896252e+01 1.505397e+01 3.206283e-01 5.705972e-01 6.404980e-01 7.953330e-01 6.760914e-01 1.069559e+00 1.686081e+00 1.597350e+00 1.131126e+00 1.722069e+00 1.107242e+00 1.051297e+00 1.182890e+00 4.425960e-02 6.482422e-02 1.073260e-01 1.040858e-01 9.142287e-02 2.686394e-01 1.832564e-01 2.952434e-01 1.286302e-01 2.527570e-01 1.479469e-01 1.069098e-01 1.034339e-01
<GCONST> 8.797906e+01
<STATE> 4
<NUMMIXES> 2
<MIXTURE> 1 1.000000e+00
<MEAN> 39
 1.631696e+01 1.123588e+01 1.085469e+01 1.422960e+01 6.262842e-01 -1.468468e+01 -1.264694e+01 1.299845e+01 3.575768e+00 -1.186715e+01 -2.206087e-01 1.975623e-01 -9.729312e+00 3.647515e-02 1.217460e-02 -2.076116e-01 -2.537544e-01 -1.754235e-02 3.142369e-01 2.053913e-01 -1.370298e-01 -1.009999e-01 1.134145e-01 -1.046008e-01 -1.814233e-01 1.273225e-01 -1.659038e-02 -3.300869e-02 -7.833916e-02 -4.531266e-02 7.516155e-02 1.681233e-01 8.202317e-02 1.862516e-03 5.839118e-03 2.055914e-03 -8.872287e-02 -1.023443e-01 3.151971e-02
<VARIANCE> 39
 5.268099e+00 2.073197e+01 1.589552e+01 2.257116e+01 4.713601e+01 6.566107e+01 4.551075e+01 5.742311e+01 1.995267e+01 4.487465e+01 3.504879e+01 3.869914e+01 2.186401e+01 1.569837e-01 4.560762e-01 4.275555e-01 6.069167e-01 5.590231e-01 1.237389e+00 1.128080e+00 1.366134e+00 6.734233e-01 1.178209e+00 7.811617e-01 9.645039e-01 5.649986e-01 2.265851e-02 4.768305e-02 4.883396e-02 7.844381e-02 7.205665e-02 1.585676e-01 1.424340e-01 1.753661e-01 9.877159e-02 1.405412e-01 9.200546e-02 1.009664e-01 8.028109e-02
<GCONST> 7.821155e+01
<MIXTURE> 2 0.000000e+00
<MEAN> 39
 1.461647e+01 1.566086e+00 4.283029e+00 1.047744e+00 6.502785e+00 -3.856531e+00 -1.250123e+01 2.030444e+01 -1.960878e+01 -2.413631e+01 2.176554e+01 -7.722874e+00 -7.521120e+00 -4.162222e-01 2.032520e+00 -5.039091e-01 1.759992e+00 1.890749e+00 1.935911e+00 3.822842e+00 1.088910e+00 2.521060e-02 7.017113e-01 -2.663080e+00 -9.208404e-01 -1.433905e+00 1.389438e-01 8.101916e-02 -2.536862e-01 6.819131e-01 -1.020201e-01 -2.967118e-01 -8.747735e-03 1.133121e-01 1.003956e+00 3.701299e-01 -5.309095e-01 6.789156e-01 3.156795e-01
<VARIANCE> 39
 4.115295e-02 2.975082e-01 4.843025e-01 9.611969e-01 1.559830e-01 5.576782e-01 4.045944e-01 3.110657e-01 3.703461e+00 5.259857e-01 7.216492e+00 1.791811e-01 4.307785e-01 1.492903e-03 6.646347e-02 1.838729e-03 5.336142e-02 5.822301e-02 8.217597e-02 2.733870e-01 1.406014e-02 6.674170e-03 3.956914e-03 1.246338e-01 3.787160e-03 1.335406e-02 3.626533e-04 7.911138e-04 1.759008e-04 2.990633e-03 4.511999e-03 3.617913e-03 2.029712e-03 2.319252e-03 9.037256e-03 5.548552e-03 1.611993e-03 2.322674e-03 1.445673e-03
<GCONST> -7.153688e+01
<STATE> 5
<NUMMIXES> 2
<MIXTURE> 1 5.874472e-01
<MEAN> 39
 1.595986e+01 1.110765e+01 5.142933e+00 8.511252e+00 3.900751e+00 -2.916848e+00 -5.261267e+00 1.244679e+01 3.287198e+00 -1.155022e+01 -7.814636e+00 -8.123590e+00 -9.095490e+00 -8.500910e-01 3.467633e-01 -2.531618e-01 -5.679781e-01 6.053324e-01 2.541397e+00 1.769821e+00 -7.402384e-01 -5.176315e-01 8.134903e-01 -4.949101e-01 -5.466494e-01 1.072187e+00 -3.425718e-01 3.444902e-02 3.041247e-01 2.736311e-01 1.291035e-01 1.002600e-01 1.228878e-01 7.653946e-02 1.166070e-02 4.752801e-02 9.902525e-02 1.655947e-01 9.265684e-02
<VARIANCE> 39
 1.241445e+01 2.464011e+01 2.664209e+01 2.605559e+01 5.962784e+01 8.430032e+01 4.444101e+01 3.950794e+01 2.477159e+01 3.644807e+01 5.481106e+01 6.928838e+01 2.249158e+01 8.613387e-01 6.410089e-01 1.107628e+00 1.396133e+00 1.269252e+00 1.713019e+00 2.044971e+00 2.353862e+00 9.435181e-01 1.908733e+00 1.123458e+00 1.203485e+00 9.216301e-01 6.466781e-02 9.052344e-02 1.699368e-01 2.397617e-01 1.770053e-01 3.056647e-01 3.432259e-01 3.667514e-01 1.678793e-01 2.649389e-01 1.872674e-01 2.479770e-01 1.552236e-01
<GCONST> 9.971997e+01
<MIXTURE> 2 4.125527e-01
<MEAN> 39
 1.664008e+01 2.722603e+00 5.375417e+00 1.708389e+01 1.144467e+01 -4.859811e+00 -8.746794e+00 1.895623e+01 7.372544e-01 -2.561775e+01 -8.502513e+00 -4.561937e+00 -1.062077e+01 -1.461408e-01 -3.387992e-01 -8.077043e-02 2.801714e-01 7.080029e-01 1.000326e+00 1.428483e-01 -5.525181e-01 -3.371378e-01 6.467822e-02 -1.805516e-01 -1.398867e-01 5.512270e-01 -1.086489e-01 7.340993e-02 8.887318e-02 -3.586509e-02 -4.521773e-02 2.011316e-01 1.529001e-01 -1.698708e-01 -5.475547e-02 2.062330e-01 5.769876e-02 2.245653e-02 1.180895e-01
<VARIANCE> 39
 3.558084e+00 1.303721e+01 1.723915e+01 1.838553e+01 3.645176e+01 3.228511e+01 2.765230e+01 4.042168e+01 2.534483e+01 4.038978e+01 1.811473e+01 2.637501e+01 1.354582e+01 2.231559e-01 4.739768e-01 7.618362e-01 1.087120e+00 5.959261e-01 1.029350e+00 1.162365e+00 1.036843e+00 6.508581e-01 1.624021e+00 8.612412e-01 9.773325e-01 5.024578e-01 3.900395e-02 8.990137e-02 9.699082e-02 1.284226e-01 1.088014e-01 1.512219e-01 2.356691e-01 1.636660e-01 1.245047e-01 2.954927e-01 1.018980e-01 9.436046e-02 8.307412e-02
<GCONST> 7.969071e+01
<STATE> 6
<NUMMIXES> 2
<MIXTURE> 1 7.269102e-02
<MEAN> 39
 -2.669259e+01 -6.091667e+00 -4.651708e+00 -2.708060e+00 -3.641903e+00 6.883875e-01 -3.674891e+00 9.102723e-01 -1.732070e+00 -3.257335e-01 5.624053e-01 -9.576396e-01 2.127091e-01 7.989731e-02 7.983392e-02 9.961517e-02 2.524666e-01 2.792342e-01 1.947609e-01 6.594463e-02 1.374791e-01 1.796640e-01 3.169328e-01 2.397740e-01 1.432042e-01 8.416719e-02 3.344486e-01 2.236240e-01 2.580774e-01 3.557371e-01 2.394603e-01 1.175185e-02 -9.640212e-02 -2.630818e-02 -6.484766e-02 -2.184448e-01 -2.119229e-01 -1.382859e-01 -6.887934e-02
<VARIANCE> 39
 6.825899e-01 1.063756e+00 2.010393e+00 1.866096e+00 4.381172e+00 5.239084e+00 6.345234e+00 5.224014e+00 9.042361e+00 7.888692e+00 6.891921e+00 6.589008e+00 5.742935e+00 1.088643e+00 8.059276e-01 1.007644e+00 1.978996e+00 1.891559e+00 9.741550e-01 1.035686e+00 1.201039e+00 2.737719e+00 2.513465e+00 2.009401e+00 1.133076e+00 1.172022e+00 2.482899e-01 1.368131e-01 2.395319e-01 4.791026e-01 4.321929e-01 1.824626e-01 2.277031e-01 3.142122e-01 6.634117e-01 4.369314e-01 4.397431e-01 2.889808e-01 2.874554e-01
<GCONST> 7.817129e+01
<MIXTURE> 2 9.273092e-01
<MEAN> 39
 5.204026e+00 1.134937e+01 9.459940e+00 1.317826e+01 1.008617e+01 8.254431e+00 2.086835e+00 1.034689e+01 3.394305e-01 -8.931689e+00 -7.452808e+00 -6.509640e+00 -2.635273e+00 -2.218215e+00 -9.588332e-02 9.480919e-01 6.411405e-01 4.506526e-01 1.202069e+00 6.057001e-01 -6.532125e-01 7.546443e-02 1.208500e+00 3.535004e-01 4.131210e-01 1.101305e+00 -5.597267e-02 -4.766073e-01 -1.361484e-01 -1.205278e-02 -5.856995e-02 -2.175210e-01 -3.529035e-01 7.335566e-03 1.342202e-01 -8.098339e-02 7.265802e-02 9.736624e-02 1.836137e-02
<VARIANCE> 39
 6.396730e+01 3.778933e+01 3.393414e+01 4.186466e+01 5.452100e+01 6.558766e+01 5.869820e+01 4.910086e+01 3.105477e+01 5.956113e+01 5.366528e+01 3.470282e+01 1.882700e+01 8.485729e-01 4.118635e+00 2.245533e+00 2.002682e+00 1.702919e+00 2.842695e+00 2.838429e+00 2.120045e+00 1.595978e+00 3.244989e+00 1.691938e+00 1.732366e+00 1.453857e+00 7.774460e-02 5.130762e-01 3.757976e-01 2.994602e-01 2.001010e-01 2.633589e-01 3.208625e-01 3.212073e-01 2.499685e-01 3.644804e-01 3.213501e-01 1.920349e-01 2.249841e-01
<GCONST> 1.127886e+02
<TRANSP> 7
 0.000000e+00 1.000000e+00 0.000000e+00 0.000000e+00 0.000000e+00 0.000000e+00 0.000000e+00
 0.000000e+00 8.708660e-01 1.291340e-01 0.000000e+00 0.000000e+00 0.000000e+00 0.000000e+00
 0.000000e+00 0.000000e+00 8.887392e-01 1.112608e-01 0.000000e+00 0.000000e+00 0.000000e+00
 0.000000e+00 0.000000e+00 0.000000e+00 8.454505e-01 1.545495e-01 0.000000e+00 0.000000e+00
 0.000000e+00 0.000000e+00 0.000000e+00 0.000000e+00 8.314410e-01 1.685589e-01 0.000000e+00
 0.000000e+00 0.000000e+00 0.000000e+00 0.000000e+00 0.000000e+00 8.016086e-01 1.983914e-01
 0.000000e+00 0.000000e+00 0.000000e+00 0.000000e+00 0.000000e+00 0.000000e+00 0.000000e+00
<ENDHMM>
~h "SIL"
<BEGINHMM>
<NUMSTATES> 5
<STATE> 2
<NUMMIXES> 2
<MIXTURE> 1 6.343535e-01
<MEAN> 39
 -9.558927e+00 -2.955737e+00 -2.506285e+00 4.132630e+00 -4.022208e-01 3.377083e+00 4.130420e+00 3.240064e-02 1.627516e+00 6.109094e-01 -1.318923e-01 4.498853e+00 -8.942712e-01 -6.928948e-02 3.829870e-02 -6.734582e-04 6.790166e-03 1.340300e-02 1.375837e-02 2.232590e-02 1.784532e-02 1.971374e-02 1.640245e-02 -5.062588e-03 -1.623879e-03 2.044486e-02 -2.696889e-03 4.180977e-03 1.697672e-02 -6.120666e-03 -4.228717e-03 6.320278e-04 -1.656370e-03 -2.444819e-03 6.286830e-03 -8.582719e-03 -1.216181e-02 -5.073556e-03 -4.548995e-03
<VARIANCE> 39
 4.186462e+01 7.402940e+01 3.099679e+01 3.340697e+01 4.645889e+01 4.345008e+01 2.968412e+01 3.228226e+01 3.052909e+01 2.290461e+01 1.840874e+01 1.938979e+01 2.506889e+01 1.440693e-01 3.649671e-01 4.392949e-01 5.817301e-01 7.149680e-01 8.990549e-01 1.019488e+00 1.134216e+00 1.207672e+00 1.148922e+00 1.105158e+00 1.056239e+00 9.328530e-01 2.465242e-02 5.432563e-02 8.521398e-02 1.176557e-01 1.502030e-01 1.916525e-01 2.139053e-01 2.402989e-01 2.571377e-01 2.458468e-01 2.369102e-01 2.262610e-01 2.008634e-01
<GCONST> 8.756295e+01
<MIXTURE> 2 3.656465e-01
<MEAN> 39
 -1.142323e+01 1.189757e+00 -1.150043e+00 2.073591e+00 1.984568e+00 1.458758e+00 4.666055e+00 1.247311e+00 2.303590e+00 6.847165e-01 -4.941858e-01 4.576219e+00 -1.241537e+00 -2.383977e-01 3.311241e-02 -1.279305e-02 2.437228e-02 2.793390e-02 1.407799e-01 9.608070e-02 8.677866e-02 1.114440e-01 1.082627e-01 3.608481e-02 3.226501e-02 6.382274e-02 1.940947e-02 3.630415e-03 8.181022e-03 2.361297e-02 2.753633e-02 -1.779759e-02 -3.005121e-02 -1.506858e-02 -2.992165e-02 -1.730591e-02 -1.236073e-02 -2.410082e-02 -2.872620e-03
<VARIANCE> 39
 4.480489e+01 6.668343e+01 4.001367e+01 5.130425e+01 5.788618e+01 6.144305e+01 5.531167e+01 4.810794e+01 4.128096e+01 3.064755e+01 2.747056e+01 2.852841e+01 3.160432e+01 1.514161e+00 2.485977e+00 2.332164e+00 2.129232e+00 2.084023e+00 2.247124e+00 2.255863e+00 2.281002e+00 2.357451e+00 2.077529e+00 1.851172e+00 1.746888e+00 1.433622e+00 2.191909e-01 3.888186e-01 4.058700e-01 3.762366e-01 3.878883e-01 4.263409e-01 4.298833e-01 4.452224e-01 4.540788e-01 4.104838e-01 3.682645e-01 3.519675e-01 2.906989e-01
<GCONST> 1.171093e+02
<STATE> 3
<NUMMIXES> 2
<MIXTURE> 1 6.952365e-01
<MEAN> 39
 -4.614826e-36 4.088473e-39 7.546833e-41 -2.003180e-38 -1.016468e-37 1.405099e-39 -7.973388e-43 7.664946e-39 -1.286953e-38 1.415171e-41 6.993320e-41 6.165994e-41 1.993908e-41 5.552645e-41 1.641061e-40 1.461414e-41 6.268008e-42 1.373272e-43 -2.054304e-42 1.018744e-41 -2.522337e-44 -2.642154e-39 1.558244e-42 1.841306e-42 3.833953e-42 -1.401298e-45 -1.041492e-02 1.165869e-03 -4.681267e-04 1.067939e-03 -3.674125e-04 -4.449329e-04 -4.800549e-04 -8.346118e-04 -4.919678e-04 -6.385805e-04 -4.974747e-04 3.757836e-04 -7.628010e-04
<VARIANCE> 39
 1.000000e-02 1.000000e-02 1.000000e-02 1.000000e-02 1.000000e-02 1.000000e-02 1.000000e-02 1.000000e-02 1.000000e-02 1.000000e-02 1.000000e-02 1.000000e-02 1.000000e-02 1.000000e-02 1.000000e-02 1.000000e-02 1.000000e-02 1.000000e-02 1.000000e-02 1.000000e-02 1.000000e-02 1.000000e-02 1.000000e-02 1.000000e-02 1.000000e-02 1.000000e-02 1.000000e-02 1.000000e-02 1.000000e-02 1.000000e-02 1.000000e-02 1.000000e-02 1.000000e-02 1.000000e-02 1.000000e-02 1.000000e-02 1.000000e-02 1.000000e-02 1.000000e-02
<GCONST> -1.079245e+02
<MIXTURE> 2 3.047635e-01
<MEAN> 39
 -3.073403e+01 1.425273e+01 -6.347635e+00 2.336389e+00 -7.483404e-01 1.066642e+01 -1.116233e+01 5.172227e+00 2.572465e-01 4.570226e-01 -1.853601e+00 4.806254e-01 3.082728e+00 -1.703352e-02 1.551152e-02 3.685159e-02 3.168634e-02 1.600667e-02 2.196852e-03 1.066339e-02 1.046215e-02 6.194680e-03 -2.002487e-03 -2.168891e-02 -2.960364e-02 -1.420306e-02 6.402527e-02 -2.888847e-02 1.946194e-02 2.577228e-02 -3.223030e-03 -2.393205e-02 1.966219e-02 7.751088e-04 -1.281637e-02 -3.375708e-03 5.767592e-03 -3.608371e-03 -2.195551e-02
<VARIANCE> 39
 7.722108e+01 3.633752e+01 1.621295e+01 8.805264e+00 1.116743e+01 2.184221e+01 5.614600e+01 9.989722e+00 7.891666e+00 5.587424e+00 5.826734e+00 7.160335e+00 7.011834e+00 2.358004e-01 2.073665e-01 2.922952e-01 2.998027e-01 3.982294e-01 4.320155e-01 5.057585e-01 5.343324e-01 5.329021e-01 5.498871e-01 5.658979e-01 5.152957e-01 4.229449e-01 9.825453e-02 6.422583e-02 7.037972e-02 7.732156e-02 9.463117e-02 1.049519e-01 1.273331e-01 1.155301e-01 1.163909e-01 1.174336e-01 1.189772e-01 1.076718e-01 9.144803e-02
<GCONST> 6.387524e+01
<STATE> 4
<NUMMIXES> 2
<MIXTURE> 1 5.103472e-01
<MEAN> 39
 -1.256804e+01 6.479373e+00 2.038786e+00 8.567524e+00 2.427899e+00 5.176943e+00 4.114543e-01 4.024741e+00 1.021508e+00 1.262775e+00 -1.256009e+00 9.477930e-01 3.137723e-02 -8.586787e-02 3.690922e-02 2.457621e-01 1.594240e-01 1.689443e-01 5.045222e-02 3.103973e-02 6.963865e-02 1.091670e-01 7.266748e-02 3.943156e-02 6.249414e-03 -1.648775e-02 1.051229e-02 -3.655927e-02 1.203187e-02 -3.837839e-02 1.769672e-03 -1.438639e-02 9.163395e-03 8.845959e-03 -7.347676e-03 -3.171584e-02 -5.209196e-03 1.373672e-02 -1.236865e-02
<VARIANCE> 39
 7.612381e+01 6.791934e+01 3.206618e+01 5.097443e+01 4.710615e+01 4.857334e+01 4.886001e+01 4.522910e+01 3.813118e+01 2.496777e+01 2.466132e+01 2.227277e+01 1.953887e+01 6.615518e-01 8.886616e-01 9.175950e-01 1.017072e+00 1.108420e+00 1.194592e+00 1.274129e+00 1.362965e+00 1.347271e+00 1.241394e+00 1.154082e+00 1.094268e+00 9.258087e-01 1.785030e-01 2.040161e-01 1.926394e-01 2.249779e-01 2.455316e-01 2.707347e-01 2.889727e-01 3.002017e-01 2.985176e-01 2.784478e-01 2.593574e-01 2.391664e-01 2.035334e-01
<GCONST> 1.016392e+02
<MIXTURE> 2 4.896528e-01
<MEAN> 39
 -1.020193e+01 3.199551e+00 2.373005e+00 5.452412e+00 2.385052e+00 2.486034e+00 1.580645e+00 3.328131e+00 1.332066e+00 -7.191740e-01 -2.476467e+00 1.183569e+00 -1.171889e+00 1.273982e+00 -3.833585e-01 4.658445e-01 1.614458e-01 4.792918e-02 -5.415885e-01 -1.025224e-01 -1.463170e-02 -2.565329e-01 -5.430909e-01 -4.399176e-01 -3.804746e-01 -3.820809e-01 6.029564e-02 -8.747855e-02 5.094163e-03 -3.020878e-02 5.573182e-03 -8.083791e-02 -5.798243e-02 -1.463480e-02 1.865065e-03 -3.867018e-02 -9.503978e-03 -1.724554e-02 6.533443e-03
<VARIANCE> 39
 9.643607e+01 9.792954e+01 6.559746e+01 7.856171e+01 8.060581e+01 7.181393e+01 7.312693e+01 5.997856e+01 4.726611e+01 4.559750e+01 3.356037e+01 3.527980e+01 2.955104e+01 5.178400e+00 5.150322e+00 3.770604e+00 3.737880e+00 3.884596e+00 3.836053e+00 4.076818e+00 3.454412e+00 3.297246e+00 2.993804e+00 2.481349e+00 2.278534e+00 1.766467e+00 7.921278e-01 8.026540e-01 6.029379e-01 5.582282e-01 6.184182e-01 6.333398e-01 6.467891e-01 5.800772e-01 5.622950e-01 5.424428e-01 4.485731e-01 3.958752e-01 3.163141e-01
<GCONST> 1.329065e+02
<TRANSP> 5
 0.000000e+00 1.000000e+00 0.000000e+00 0.000000e+00 0.000000e+00
 0.000000e+00 9.535479e-01 4.645211e-02 0.000000e+00 0.000000e+00
 0.000000e+00 0.000000e+00 9.280416e-01 7.195845e-02 0.000000e+00
 0.000000e+00 0.000000e+00 0.000000e+00 9.013939e-01 9.860607e-02
 0.000000e+00 0.000000e+00 0.000000e+00 0.000000e+00 0.000000e+00
<ENDHMM>
~h "dxhq"
<BEGINHMM>
<NUMSTATES> 5
<STATE> 2
<NUMMIXES> 2
<MIXTURE> 1 5.000000e-01
<MEAN> 39
 2.400272e+01 -3.622170e+00 -2.127864e+01 -5.146519e+00 8.493896e+00 -4.811692e+00 -1.735608e+01 1.020073e+01 1.174922e+01 -4.406406e+00 -1.129657e+00 6.766775e-02 2.535020e+00 -6.272534e-02 4.661563e-01 8.465032e-02 -1.479794e-01 4.983918e-02 9.700162e-01 7.582945e-01 -6.481580e-01 -5.225530e-01 2.044156e-01 -1.775919e-01 -3.074574e-01 7.816907e-03 -2.603455e-02 8.849785e-02 1.381311e-01 4.424169e-02 -4.146039e-02 -6.997816e-03 -1.089006e-02 -5.227562e-02 -6.653741e-02 7.090954e-02 3.188779e-02 -1.742129e-01 -1.398862e-01
<VARIANCE> 39
 1.105902e+01 6.818151e+00 2.215278e+01 1.572118e+01 9.672850e+00 2.657816e+01 2.518913e+01 2.723321e+01 1.518848e+01 1.604666e+01 1.123742e+01 4.362787e+00 8.563630e+00 4.375619e-01 5.277790e-01 6.908791e-01 2.636991e-01 4.311729e-01 3.263039e-01 6.962270e-01 1.212607e+00 1.853180e-01 9.498543e-01 6.492957e-01 7.565268e-01 4.928641e-01 5.599111e-02 4.389226e-02 6.705471e-02 7.658389e-02 7.170440e-02 7.073513e-02 6.264631e-02 1.849379e-01 2.702572e-02 1.376592e-01 9.720946e-02 6.391003e-02 6.420687e-02
<GCONST> 6.257189e+01
<MIXTURE> 2 5.000000e-01
<MEAN> 39
 2.400272e+01 -3.622170e+00 -2.127864e+01 -5.146519e+00 8.493896e+00 -4.811692e+00 -1.735608e+01 1.020073e+01 1.174922e+01 -4.406406e+00 -1.129657e+00 6.766775e-02 2.535020e+00 -6.272534e-02 4.661563e-01 8.465032e-02 -1.479794e-01 4.983918e-02 9.700162e-01 7.582945e-01 -6.481580e-01 -5.225530e-01 2.044156e-01 -1.775919e-01 -3.074574e-01 7.816907e-03 -2.603455e-02 8.849785e-02 1.381311e-01 4.424169e-02 -4.146039e-02 -6.997816e-03 -1.089006e-02 -5.227562e-02 -6.653741e-02 7.090954e-02 3.188779e-02 -1.742129e-01 -1.398862e-01
<VARIANCE> 39
 1.105902e+01 6.818151e+00 2.215278e+01 1.572118e+01 9.672850e+00 2.657816e+01 2.518913e+01 2.723321e+01 1.518848e+01 1.604666e+01 1.123742e+01 4.362787e+00 8.563630e+00 4.375619e-01 5.277790e-01 6.908791e-01 2.636991e-01 4.311729e-01 3.263039e-01 6.962270e-01 1.212607e+00 1.853180e-01 9.498543e-01 6.492957e-01 7.565268e-01 4.928641e-01 5.599111e-02 4.389226e-02 6.705471e-02 7.658389e-02 7.170440e-02 7.073513e-02 6.264631e-02 1.849379e-01 2.702572e-02 1.376592e-01 9.720946e-02 6.391003e-02 6.420687e-02
<GCONST> 6.257189e+01
<STATE> 3
<NUMMIXES> 2
<MIXTURE> 1 5.000000e-01
<MEAN> 39
 2.124007e+01 1.747397e+00 -1.242731e+01 -8.307081e-01 4.180226e+00 -1.787648e-01 -7.181220e+00 7.313762e+00 3.877627e+00 -6.644835e-01 1.347199e+00 -6.380501e+00 -1.208098e+00 -3.542472e-01 -4.458042e-01 9.814455e-01 1.100488e+00 -1.574452e+00 -5.465288e-01 2.204972e+00 9.689387e-01 -7.957454e-01 5.401641e-01 8.811986e-01 4.058177e-02 -6.619193e-02 -6.844532e-02 -3.602526e-01 -6.809250e-02 6.827737e-02 -7.230140e-02 8.844404e-02 2.313955e-01 1.625124e-01 1.058985e-01 9.113410e-02 1.302455e-01 2.274921e-01 3.076081e-01
<VARIANCE> 39
 8.037348e+00 6.086690e+00 2.070749e+01 2.666593e+01 3.761696e+01 2.586117e+01 4.113471e+01 3.163278e+01 2.130514e+01 2.109056e+01 1.600889e+01 1.484150e+01 1.062654e+01 2.870376e-01 1.528057e+00 8.822293e-01 4.673011e-01 1.194074e+00 1.584069e+00 1.973123e+00 3.280730e+00 5.652359e-01 1.589785e+00 6.919912e-01 1.472409e+00 1.656557e+00 3.577830e-02 8.999298e-02 1.268226e-01 6.552213e-02 3.103175e-01 4.999546e-01 2.910837e-01 5.468858e-01 1.001477e-01 2.845037e-01 1.254948e-01 2.134057e-01 1.353875e-01
<GCONST> 8.767800e+01
<MIXTURE> 2 5.000000e-01
<MEAN> 39
 2.124007e+01 1.747397e+00 -1.242731e+01 -8.307081e-01 4.180226e+00 -1.787648e-01 -7.181220e+00 7.313762e+00 3.877627e+00 -6.644835e-01 1.347199e+00 -6.380501e+00 -1.208098e+00 -3.542472e-01 -4.458042e-01 9.814455e-01 1.100488e+00 -1.574452e+00 -5.465288e-01 2.204972e+00 9.689387e-01 -7.957454e-01 5.401641e-01 8.811986e-01 4.058177e-02 -6.619193e-02 -6.844532e-02 -3.602526e-01 -6.809250e-02 6.827737e-02 -7.230140e-02 8.844404e-02 2.313955e-01 1.625124e-01 1.058985e-01 9.113410e-02 1.302455e-01 2.274921e-01 3.076081e-01
<VARIANCE> 39
 8.037348e+00 6.086690e+00 2.070749e+01 2.666593e+01 3.761696e+01 2.586117e+01 4.113471e+01 3.163278e+01 2.130514e+01 2.109056e+01 1.600889e+01 1.484150e+01 1.062654e+01 2.870376e-01 1.528057e+00 8.822293e-01 4.673011e-01 1.194074e+00 1.584069e+00 1.973123e+00 3.280730e+00 5.652359e-01 1.589785e+00 6.919912e-01 1.472409e+00 1.656557e+00 3.577830e-02 8.999298e-02 1.268226e-01 6.552213e-02 3.103175e-01 4.999546e-01 2.910837e-01 5.468858e-01 1.001477e-01 2.845037e-01 1.254948e-01 2.134057e-01 1.353875e-01
<GCONST> 8.767800e+01
<STATE> 4
<NUMMIXES> 2
<MIXTURE> 1 5.000000e-01
<MEAN> 39
 1.644891e+01 -1.260501e+01 -6.938094e+00 5.774375e+00 -1.003388e+01 2.366002e+00 1.427641e+01 1.645138e+01 6.936835e+00 9.396629e+00 6.348108e+00 -4.867560e+00 5.095078e+00 4.493530e-02 -2.193281e-01 1.061988e-01 9.207819e-04 -6.029714e-02 4.534975e-02 8.776832e-03 -5.423861e-02 -8.155472e-02 -1.536329e-01 2.535113e-02 1.439604e-01 1.045000e-01 5.230944e-02 5.981214e-02 -6.809642e-02 -6.414893e-02 1.170187e-01 -5.646807e-02 -2.236607e-01 -5.626187e-02 -3.484859e-03 -1.045268e-01 -4.570697e-02 2.869116e-03 -7.711432e-02
<VARIANCE> 39
 9.751430e+00 3.550393e+01 1.047633e+01 8.182682e+00 2.678989e+01 2.570808e+01 3.462199e+01 1.387362e+01 2.850608e+01 3.450531e+01 6.182973e+00 1.134117e+01 8.618392e+00 6.804345e-01 2.203549e+00 1.317798e+00 8.871787e-01 9.345711e-01 2.370508e+00 2.780307e+00 6.828644e-01 1.603851e+00 2.073421e+00 8.516821e-01 9.882436e-01 9.647987e-01 2.958414e-02 1.544224e-01 1.512600e-01 1.629028e-01 1.166037e-01 2.481802e-01 1.288902e-01 1.231344e-01 2.425919e-01 2.316245e-01 1.894958e-01 1.900241e-01 1.217983e-01
<GCONST> 8.588513e+01
<MIXTURE> 2 5.000000e-01
<MEAN> 39
 1.644891e+01 -1.260501e+01 -6.938094e+00 5.774375e+00 -1.003388e+01 2.366002e+00 1.427641e+01 1.645138e+01 6.936835e+00 9.396629e+00 6.348108e+00 -4.867560e+00 5.095078e+00 4.493530e-02 -2.193281e-01 1.061988e-01 9.207819e-04 -6.029714e-02 4.534975e-02 8.776832e-03 -5.423861e-02 -8.155472e-02 -1.536329e-01 2.535113e-02 1.439604e-01 1.045000e-01 5.230944e-02 5.981214e-02 -6.809642e-02 -6.414893e-02 1.170187e-01 -5.646807e-02 -2.236607e-01 -5.626187e-02 -3.484859e-03 -1.045268e-01 -4.570697e-02 2.869116e-03 -7.711432e-02
<VARIANCE> 39
 9.751430e+00 3.550393e+01 1.047633e+01 8.182682e+00 2.678989e+01 2.570808e+01 3.462199e+01 1.387362e+01 2.850608e+01 3.450531e+01 6.182973e+00 1.134117e+01 8.618392e+00 6.804345e-01 2.203549e+00 1.317798e+00 8.871787e-01 9.345711e-01 2.370508e+00 2.780307e+00 6.828644e-01 1.603851e+00 2.073421e+00 8.516821e-01 9.882436e-01 9.647987e-01 2.958414e-02 1.544224e-01 1.512600e-01 1.629028e-01 1.166037e-01 2.481802e-01 1.288902e-01 1.231344e-01 2.425919e-01 2.316245e-01 1.894958e-01 1.900241e-01 1.217983e-01
<GCONST> 8.588513e+01
<TRANSP> 5
 0.000000e+00 1.000000e+00 0.000000e+00 0.000000e+00 0.000000e+00
 0.000000e+00 9.017696e-01 9.823043e-02 0.000000e+00 0.000000e+00
 0.000000e+00 0.000000e+00 8.491037e-01 1.508962e-01 0.000000e+00
 0.000000e+00 0.000000e+00 0.000000e+00 9.359360e-01 6.406404e-02
 0.000000e+00 0.000000e+00 0.000000e+00 0.000000e+00 0.000000e+00
<ENDHMM>
~h "dxh"
<BEGINHMM>
<NUMSTATES> 5
<STATE> 2
<NUMMIXES> 2
<MIXTURE> 1 5.000000e-01
<MEAN> 39
 2.765694e+00 1.928220e+01 1.712514e+01 1.825989e+01 1.724028e+01 1.709653e+01 8.482919e+00 1.017398e+01 2.372512e-01 -3.423369e+00 -2.474842e+00 -5.299011e+00 -5.455307e+00 -4.723306e-01 -1.031825e-01 1.532806e-01 8.220572e-03 -3.210174e-01 -1.443078e-01 1.644437e-01 5.016856e-01 6.599897e-01 4.775186e-01 2.704438e-01 3.349068e-01 3.993555e-02 6.080880e-02 -3.682836e-01 -2.412409e-01 -1.311127e-02 2.152334e-02 -1.951128e-01 -1.581302e-01 6.404874e-02 7.396535e-02 1.136666e-02 -1.969545e-02 8.029065e-02 2.907956e-01
<VARIANCE> 39
 3.153782e+00 2.777603e+00 3.391149e+00 8.651225e+00 4.405617e+00 1.519227e+01 1.967823e+01 1.429230e+01 2.513696e+01 1.503151e+01 4.206505e+00 8.743920e+00 8.354657e+00 2.654526e-01 8.391894e-01 8.649298e-01 7.108804e-01 4.090840e-01 1.359623e+00 2.079455e+00 3.626024e-01 9.901538e-01 8.153681e-01 3.006495e-01 6.453922e-01 1.295120e+00 1.987761e-02 2.132690e-01 9.254025e-02 7.982948e-02 5.891921e-02 1.801782e-01 1.925509e-01 6.396501e-02 1.918055e-01 1.457008e-01 4.378480e-02 1.134982e-01 1.816089e-01
<GCONST> 6.437804e+01
<MIXTURE> 2 5.000000e-01
<MEAN> 39
 2.765694e+00 1.928220e+01 1.712514e+01 1.825989e+01 1.724028e+01 1.709653e+01 8.482919e+00 1.017398e+01 2.372512e-01 -3.423369e+00 -2.474842e+00 -5.299011e+00 -5.455307e+00 -4.723306e-01 -1.031825e-01 1.532806e-01 8.220572e-03 -3.210174e-01 -1.443078e-01 1.644437e-01 5.016856e-01 6.599897e-01 4.775186e-01 2.704438e-01 3.349068e-01 3.993555e-02 6.080880e-02 -3.682836e-01 -2.412409e-01 -1.311127e-02 2.152334e-02 -1.951128e-01 -1.581302e-01 6.404874e-02 7.396535e-02 1.136666e-02 -1.969545e-02 8.029065e-02 2.907956e-01
<VARIANCE> 39
 3.153782e+00 2.777603e+00 3.391149e+00 8.651225e+00 4.405617e+00 1.519227e+01 1.967823e+01 1.429230e+01 2.513696e+01 1.503151e+01 4.206505e+00 8.743920e+00 8.354657e+00 2.654526e-01 8.391894e-01 8.649298e-01 7.108804e-01 4.090840e-01 1.359623e+00 2.079455e+00 3.626024e-01 9.901538e-01 8.153681e-01 3.006495e-01 6.453922e-01 1.295120e+00 1.987761e-02 2.132690e-01 9.254025e-02 7.982948e-02 5.891921e-02 1.801782e-01 1.925509e-01 6.396501e-02 1.918055e-01 1.457008e-01 4.378480e-02 1.134982e-01 1.816089e-01
<GCONST> 6.437804e+01
<STATE> 3
<NUMMIXES> 2
<MIXTURE> 1 5.000000e-01
<MEAN> 39
 2.351897e+00 1.794079e+01 1.755770e+01 2.044581e+01 1.707889e+01 1.314591e+01 4.531709e+00 9.920647e+00 3.041745e-01 -5.059725e+00 -4.385983e+00 -7.317895e+00 -6.000403e+00 -8.238745e-01 -1.662279e+00 -7.088180e-01 -5.558649e-01 5.089798e-02 1.063516e-01 6.228666e-01 1.058207e+00 7.852940e-01 1.056957e+00 1.661457e-01 7.417305e-01 2.097961e+00 -1.630037e-02 -7.439416e-01 -4.676659e-01 -3.880299e-01 -3.736654e-01 2.197600e-01 5.004751e-01 2.398710e-01 2.081988e-02 1.685150e-01 1.927671e-01 1.582260e-01 3.670696e-01
<VARIANCE> 39
 1.643337e+01 1.228881e+01 2.590388e+01 8.118483e+00 1.109345e+01 3.385372e+01 2.486126e+01 1.172212e+01 8.683050e+00 1.712168e+01 1.874976e+01 1.563698e+01 2.030427e+01 3.016459e-03 2.523663e+00 2.886497e-02 1.158335e+00 5.254700e-01 5.627717e-01 1.027860e+00 2.366109e-01 1.264057e-01 2.294747e-02 1.012814e-01 5.602271e-01 1.208870e+00 3.675811e-02 5.432726e-02 2.047798e-01 1.397610e-01 1.754555e-03 7.375429e-02 3.317522e-01 5.725444e-02 1.065838e-01 2.130322e-01 1.821106e-01 1.079232e-01 2.897826e-01
<GCONST> 5.656044e+01
<MIXTURE> 2 5.000000e-01
<MEAN> 39
 2.351897e+00 1.794079e+01 1.755770e+01 2.044581e+01 1.707889e+01 1.314591e+01 4.531709e+00 9.920647e+00 3.041745e-01 -5.059725e+00 -4.385983e+00 -7.317895e+00 -6.000403e+00 -8.238745e-01 -1.662279e+00 -7.088180e-01 -5.558649e-01 5.089798e-02 1.063516e-01 6.228666e-01 1.058207e+00 7.852940e-01 1.056957e+00 1.661457e-01 7.417305e-01 2.097961e+00 -1.630037e-02 -7.439416e-01 -4.676659e-01 -3.880299e-01 -3.736654e-01 2.197600e-01 5.004751e-01 2.398710e-01 2.081988e-02 1.685150e-01 1.927671e-01 1.582260e-01 3.670696e-01
<VARIANCE> 39
 1.643337e+01 1.228881e+01 2.590388e+01 8.118483e+00 1.109345e+01 3.385372e+01 2.486126e+01 1.172212e+01 8.683050e+00 1.712168e+01 1.874976e+01 1.563698e+01 2.030427e+01 3.016459e-03 2.523663e+00 2.886497e-02 1.158335e+00 5.254700e-01 5.627717e-01 1.027860e+00 2.366109e-01 1.264057e-01 2.294747e-02 1.012814e-01 5.602271e-01 1.208870e+00 3.675811e-02 5.432726e-02 2.047798e-01 1.397610e-01 1.754555e-03 7.375429e-02 3.317522e-01 5.725444e-02 1.065838e-01 2.130322e-01 1.821106e-01 1.079232e-01 2.897826e-01
<GCONST> 5.656044e+01
<STATE> 4
<NUMMIXES> 2
<MIXTURE> 1 5.000000e-01
<MEAN> 39
 1.846415e+00 1.568385e+01 1.539525e+01 1.851736e+01 1.617702e+01 1.119658e+01 3.196341e+00 1.016807e+01 6.675216e-01 -2.146092e+00 -3.018262e+00 -5.208467e+00 -1.209564e+00 -7.917235e-01 -2.448540e+00 -1.365158e+00 -9.463224e-01 -5.050280e-01 6.017473e-01 1.708229e+00 1.679668e+00 1.005434e+00 9.447238e-01 1.299128e-01 5.252588e-01 1.924236e+00 4.614929e-02 -5.995021e-01 -3.450357e-01 -2.330821e-01 -6.218031e-01 1.238861e-01 3.608242e-01 -6.743167e-02 -3.205592e-01 -1.736041e-01 3.772850e-01 3.287905e-02 -1.487547e-01
<VARIANCE> 39
 2.303826e+00 1.840417e+01 2.855809e+00 1.562227e+01 3.650740e+00 8.025915e+00 1.072275e+01 1.285456e+01 2.100516e+01 2.047650e+01 1.574510e+01 1.834309e+01 2.498046e+01 1.396532e-02 3.162508e+00 1.431221e-01 1.508790e+00 6.226066e-01 1.762321e+00 3.255450e+00 9.595564e-01 4.272024e-01 9.867707e-01 1.081982e+00 8.685701e-01 6.224906e-01 3.602148e-02 9.020603e-02 2.626929e-02 5.795066e-02 1.974460e-01 9.523464e-02 3.437528e-01 1.286542e-01 5.271431e-02 1.381338e-01 7.881787e-01 1.721897e-02 4.669322e-01
<GCONST> 6.836060e+01
<MIXTURE> 2 5.000000e-01
<MEAN> 39
 1.846415e+00 1.568385e+01 1.539525e+01 1.851736e+01 1.617702e+01 1.119658e+01 3.196341e+00 1.016807e+01 6.675216e-01 -2.146092e+00 -3.018262e+00 -5.208467e+00 -1.209564e+00 -7.917235e-01 -2.448540e+00 -1.365158e+00 -9.463224e-01 -5.050280e-01 6.017473e-01 1.708229e+00 1.679668e+00 1.005434e+00 9.447238e-01 1.299128e-01 5.252588e-01 1.924236e+00 4.614929e-02 -5.995021e-01 -3.450357e-01 -2.330821e-01 -6.218031e-01 1.238861e-01 3.608242e-01 -6.743167e-02 -3.205592e-01 -1.736041e-01 3.772850e-01 3.287905e-02 -1.487547e-01
<VARIANCE> 39
 2.303826e+00 1.840417e+01 2.855809e+00 1.562227e+01 3.650740e+00 8.025915e+00 1.072275e+01 1.285456e+01 2.100516e+01 2.047650e+01 1.574510e+01 1.834309e+01 2.498046e+01 1.396532e-02 3.162508e+00 1.431221e-01 1.508790e+00 6.226066e-01 1.762321e+00 3.255450e+00 9.595564e-01 4.272024e-01 9.867707e-01 1.081982e+00 8.685701e-01 6.224906e-01 3.602148e-02 9.020603e-02 2.626929e-02 5.795066e-02 1.974460e-01 9.523464e-02 3.437528e-01 1.286542e-01 5.271431e-02 1.381338e-01 7.881787e-01 1.721897e-02 4.669322e-01
<GCONST> 6.836060e+01
<TRANSP> 5
 0.000000e+00 1.000000e+00 0.000000e+00 0.000000e+00 0.000000e+00
 0.000000e+00 8.421458e-01 1.578542e-01 0.000000e+00 0.000000e+00
 0.000000e+00 0.000000e+00 0.000000e+00 1.000000e+00 0.000000e+00
 0.000000e+00 0.000000e+00 0.000000e+00 0.000000e+00 1.000000e+00
 0.000000e+00 0.000000e+00 0.000000e+00 0.000000e+00 0.000000e+00
<ENDHMM>
~h "dxq"
<BEGINHMM>
<NUMSTATES> 5
<STATE> 2
<NUMMIXES> 2
<MIXTURE> 1 5.000000e-01
<MEAN> 39
 2.149913e+01 9.008093e+00 -4.138554e+00 9.867899e-01 6.502901e+00 -5.973167e+00 -2.342003e+01 -1.317214e+00 9.331409e+00 3.264035e+00 -5.160532e-01 -1.234947e+01 -1.052473e+01 2.531772e-01 1.579612e-01 -6.314332e-01 -1.246536e+00 -1.429343e-02 1.696413e+00 1.279290e+00 -4.499469e-01 -1.262153e+00 -5.409567e-01 3.422900e-01 6.002183e-02 -2.417078e-01 -1.109838e-02 2.169997e-02 -8.777365e-03 -3.051722e-02 -8.683282e-02 8.291289e-02 3.369101e-01 2.543282e-01 -1.157995e-01 -2.954241e-01 -1.327844e-01 1.357772e-01 1.418874e-01
<VARIANCE> 39
 4.496215e+00 2.635689e+01 4.260040e+01 3.746432e+01 2.935416e+01 5.131770e+01 4.429803e+01 1.443288e+01 3.302863e+01 2.392851e+01 1.409146e+01 1.683962e+01 1.812512e+01 2.801607e-01 2.699952e-01 6.479119e-01 6.963251e-01 7.154094e-01 8.390594e-01 2.513548e+00 1.275839e+00 5.767369e-01 1.566450e+00 8.182290e-01 6.714408e-01 6.420138e-01 5.146829e-02 3.729931e-02 9.433924e-02 7.214873e-02 9.632596e-02 8.066913e-02 2.115835e-01 1.304342e-01 7.424757e-02 1.322423e-01 1.195533e-01 6.642615e-02 8.368725e-02
<GCONST> 7.714530e+01
<MIXTURE> 2 5.000000e-01
<MEAN> 39
 2.149913e+01 9.008093e+00 -4.138554e+00 9.867899e-01 6.502901e+00 -5.973167e+00 -2.342003e+01 -1.317214e+00 9.331409e+00 3.264035e+00 -5.160532e-01 -1.234947e+01 -1.052473e+01 2.531772e-01 1.579612e-01 -6.314332e-01 -1.246536e+00 -1.429343e-02 1.696413e+00 1.279290e+00 -4.499469e-01 -1.262153e+00 -5.409567e-01 3.422900e-01 6.002183e-02 -2.417078e-01 -1.109838e-02 2.169997e-02 -8.777365e-03 -3.051722e-02 -8.683282e-02 8.291289e-02 3.369101e-01 2.543282e-01 -1.157995e-01 -2.954241e-01 -1.327844e-01 1.357772e-01 1.418874e-01
<VARIANCE> 39
 4.496215e+00 2.635689e+01 4.260040e+01 3.746432e+01 2.935416e+01 5.131770e+01 4.429803e+01 1.443288e+01 3.302863e+01 2.392851e+01 1.409146e+01 1.683962e+01 1.812512e+01 2.801607e-01 2.699952e-01 6.479119e-01 6.963251e-01 7.154094e-01 8.390594e-01 2.513548e+00 1.275839e+00 5.767369e-01 1.566450e+00 8.182290e-01 6.714408e-01 6.420138e-01 5.146829e-02 3.729931e-02 9.433924e-02 7.214873e-02 9.632596e-02 8.066913e-02 2.115835e-01 1.304342e-01 7.424757e-02 1.322423e-01 1.195533e-01 6.642615e-02 8.368725e-02
<GCONST> 7.714530e+01
<STATE> 3
<NUMMIXES> 2
<MIXTURE> 1 5.000000e-01
<MEAN> 39
 2.276488e+01 6.544059e+00 -1.214994e+01 -7.506774e+00 6.951433e+00 6.734558e+00 -7.399319e+00 2.502634e+00 -3.108050e+00 -8.875725e+00 -1.245049e+00 -5.575490e+00 -3.901502e+00 -4.267751e-01 2.655429e-01 5.761578e-01 6.219373e-01 -4.180547e-01 5.272552e-01 2.275133e+00 8.932651e-01 -7.687134e-01 -1.099359e+00 -1.227314e+00 9.857419e-02 6.222482e-01 -1.046745e-01 -2.460825e-01 2.169519e-01 5.356890e-01 9.372161e-02 -4.944026e-01 -3.892609e-01 2.749408e-01 3.547548e-01 6.428142e-02 -3.135490e-02 -8.525253e-02 2.947179e-02
<VARIANCE> 39
 6.763154e+00 5.500526e+01 4.454275e+01 3.101085e+01 6.264112e+01 3.047609e+01 8.611979e+01 2.436212e+01 3.294096e+01 2.502723e+01 3.374694e+01 2.075265e+01 2.251458e+01 5.032881e-01 5.139294e-01 1.305573e+00 1.925914e+00 8.114835e-01 1.473927e+00 3.271804e+00 2.299037e+00 1.462491e+00 2.017007e+00 1.127211e+00 1.455211e+00 1.910703e+00 7.535845e-02 1.331939e-01 1.560047e-01 1.773049e-01 1.549350e-01 1.560416e-01 5.068875e-01 2.404296e-01 1.483511e-01 2.167521e-01 2.104559e-01 1.488724e-01 9.100726e-02
<GCONST> 9.708772e+01
<MIXTURE> 2 5.000000e-01
<MEAN> 39
 2.276488e+01 6.544059e+00 -1.214994e+01 -7.506774e+00 6.951433e+00 6.734558e+00 -7.399319e+00 2.502634e+00 -3.108050e+00 -8.875725e+00 -1.245049e+00 -5.575490e+00 -3.901502e+00 -4.267751e-01 2.655429e-01 5.761578e-01 6.219373e-01 -4.180547e-01 5.272552e-01 2.275133e+00 8.932651e-01 -7.687134e-01 -1.099359e+00 -1.227314e+00 9.857419e-02 6.222482e-01 -1.046745e-01 -2.460825e-01 2.169519e-01 5.356890e-01 9.372161e-02 -4.944026e-01 -3.892609e-01 2.749408e-01 3.547548e-01 6.428142e-02 -3.135490e-02 -8.525253e-02 2.947179e-02
<VARIANCE> 39
 6.763154e+00 5.500526e+01 4.454275e+01 3.101085e+01 6.264112e+01 3.047609e+01 8.611979e+01 2.436212e+01 3.294096e+01 2.502723e+01 3.374694e+01 2.075265e+01 2.251458e+01 5.032881e-01 5.139294e-01 1.305573e+00 1.925914e+00 8.114835e-01 1.473927e+00 3.271804e+00 2.299037e+00 1.462491e+00 2.017007e+00 1.127211e+00 1.455211e+00 1.910703e+00 7.535845e-02 1.331939e-01 1.560047e-01 1.773049e-01 1.549350e-01 1.560416e-01 5.068875e-01 2.404296e-01 1.483511e-01 2.167521e-01 2.104559e-01 1.488724e-01 9.100726e-02
<GCONST> 9.708772e+01
<STATE> 4
<NUMMIXES> 2
<MIXTURE> 1 5.000000e-01
<MEAN> 39
 2.042256e+01 1.097050e+00 -6.827664e+00 4.228287e+00 7.016290e+00 3.344387e-01 -5.343252e+00 1.177611e+01 -3.495569e+00 -1.557018e+01 -3.966072e+00 -6.577932e+00 -1.587022e+00 -1.675941e-01 -1.847393e+00 3.736323e-01 1.978540e+00 3.467224e-01 -1.926811e+00 -1.364599e+00 1.329852e+00 5.611041e-02 -7.924816e-01 1.111779e+00 2.456701e-01 5.366664e-03 3.377551e-04 -2.758995e-02 -8.700205e-02 -2.149131e-01 -1.251552e-02 -6.643073e-03 -1.808234e-01 -7.634316e-02 3.898676e-02 1.475023e-01 3.175448e-01 1.065075e-01 -1.093957e-01
<VARIANCE> 39
 9.675850e+00 4.544097e+01 2.869254e+01 4.953983e+01 4.112026e+01 6.421653e+01 7.722072e+01 5.078275e+01 2.401919e+01 3.514170e+01 5.612053e+01 2.110750e+01 1.447920e+01 1.115600e+00 2.065364e+00 1.696285e+00 1.343875e+00 1.907205e+00 2.496418e+00 4.367822e+00 2.452365e+00 2.150295e+00 2.390193e+00 3.207534e+00 1.034358e+00 1.298672e+00 2.428000e-01 5.198888e-01 2.768265e-01 1.760443e-01 2.373510e-01 5.772663e-01 1.057910e+00 3.963932e-01 2.801809e-01 3.757779e-01 7.020993e-01 1.729137e-01 2.713524e-01
<GCONST> 1.127400e+02
<MIXTURE> 2 5.000000e-01
<MEAN> 39
 2.042256e+01 1.097050e+00 -6.827664e+00 4.228287e+00 7.016290e+00 3.344387e-01 -5.343252e+00 1.177611e+01 -3.495569e+00 -1.557018e+01 -3.966072e+00 -6.577932e+00 -1.587022e+00 -1.675941e-01 -1.847393e+00 3.736323e-01 1.978540e+00 3.467224e-01 -1.926811e+00 -1.364599e+00 1.329852e+00 5.611041e-02 -7.924816e-01 1.111779e+00 2.456701e-01 5.366664e-03 3.377551e-04 -2.758995e-02 -8.700205e-02 -2.149131e-01 -1.251552e-02 -6.643073e-03 -1.808234e-01 -7.634316e-02 3.898676e-02 1.475023e-01 3.175448e-01 1.065075e-01 -1.093957e-01
<VARIANCE> 39
 9.675850e+00 4.544097e+01 2.869254e+01 4.953983e+01 4.112026e+01 6.421653e+01 7.722072e+01 5.078275e+01 2.401919e+01 3.514170e+01 5.612053e+01 2.110750e+01 1.447920e+01 1.115600e+00 2.065364e+00 1.696285e+00 1.343875e+00 1.907205e+00 2.496418e+00 4.367822e+00 2.452365e+00 2.150295e+00 2.390193e+00 3.207534e+00 1.034358e+00 1.298672e+00 2.428000e-01 5.198888e-01 2.768265e-01 1.760443e-01 2.373510e-01 5.772663e-01 1.057910e+00 3.963932e-01 2.801809e-01 3.757779e-01 7.020993e-01 1.729137e-01 2.713524e-01
<GCONST> 1.127400e+02
<TRANSP> 5
 0.000000e+00 1.000000e+00 0.000000e+00 0.000000e+00 0.000000e+00
 0.000000e+00 8.551736e-01 1.448263e-01 0.000000e+00 0.000000e+00
 0.000000e+00 0.000000e+00 8.097588e-01 1.902412e-01 0.000000e+00
 0.000000e+00 0.000000e+00 0.000000e+00 8.275205e-01 1.724795e-01
 0.000000e+00 0.000000e+00 0.000000e+00 0.000000e+00 0.000000e+00
<ENDHMM>
~h "khq"
<BEGINHMM>
<NUMSTATES> 5
<STATE> 2
<NUMMIXES> 2
<MIXTURE> 1 5.000000e-01
<MEAN> 39
 5.098849e+00 -6.514025e+00 2.430083e+00 1.092778e+01 1.083864e+01 1.500667e+00 -1.140838e+01 9.359310e+00 -3.377835e+00 -1.113024e+01 6.044074e+00 -4.088247e-01 -3.646332e+00 -1.380477e-02 1.475701e-03 -1.072459e-03 -5.524765e-03 -3.099398e-03 2.005852e-03 8.190720e-04 -5.087083e-03 2.488556e-03 5.650900e-03 -1.806995e-03 5.936168e-04 1.443354e-03 -1.213556e-03 -1.404243e-04 -1.926630e-04 -5.029775e-04 -4.298560e-04 2.249404e-04 5.535607e-04 -2.933974e-04 7.204357e-05 8.173331e-04 -1.603794e-04 -1.434907e-04 3.551734e-04
<VARIANCE> 39
 2.696502e+02 1.642264e+02 1.776205e+02 1.699619e+02 1.712323e+02 1.501611e+02 1.653076e+02 1.112998e+02 8.102897e+01 1.132308e+02 1.038732e+02 3.576029e+01 7.139818e+01 2.864393e+00 3.049235e+00 2.950589e+00 2.442850e+00 2.488132e+00 2.882445e+00 3.574063e+00 2.837703e+00 2.254665e+00 3.083899e+00 2.848865e+00 1.410452e+00 1.706605e+00 2.059384e-01 2.861855e-01 3.165202e-01 2.798763e-01 2.958655e-01 3.292713e-01 4.082396e-01 3.875320e-01 3.475762e-01 4.161765e-01 3.917231e-01 2.236369e-01 2.362328e-01
<GCONST> 1.313330e+02
<MIXTURE> 2 5.000000e-01
<MEAN> 39
 5.098849e+00 -6.514025e+00 2.430083e+00 1.092778e+01 1.083864e+01 1.500667e+00 -1.140838e+01 9.359310e+00 -3.377835e+00 -1.113024e+01 6.044074e+00 -4.088247e-01 -3.646332e+00 -1.380477e-02 1.475701e-03 -1.072459e-03 -5.524765e-03 -3.099398e-03 2.005852e-03 8.190720e-04 -5.087083e-03 2.488556e-03 5.650900e-03 -1.806995e-03 5.936168e-04 1.443354e-03 -1.213556e-03 -1.404243e-04 -1.926630e-04 -5.029775e-04 -4.298560e-04 2.249404e-04 5.535607e-04 -2.933974e-04 7.204357e-05 8.173331e-04 -1.603794e-04 -1.434907e-04 3.551734e-04
<VARIANCE> 39
 2.696502e+02 1.642264e+02 1.776205e+02 1.699619e+02 1.712323e+02 1.501611e+02 1.653076e+02 1.112998e+02 8.102897e+01 1.132308e+02 1.038732e+02 3.576029e+01 7.139818e+01 2.864393e+00 3.049235e+00 2.950589e+00 2.442850e+00 2.488132e+00 2.882445e+00 3.574063e+00 2.837703e+00 2.254665e+00 3.083899e+00 2.848865e+00 1.410452e+00 1.706605e+00 2.059384e-01 2.861855e-01 3.165202e-01 2.798763e-01 2.958655e-01 3.292713e-01 4.082396e-01 3.875320e-01 3.475762e-01 4.161765e-01 3.917231e-01 2.236369e-01 2.362328e-01
<GCONST> 1.313330e+02
<STATE> 3
<NUMMIXES> 2
<MIXTURE> 1 5.000000e-01
<MEAN> 39
 5.098849e+00 -6.514025e+00 2.430083e+00 1.092778e+01 1.083864e+01 1.500667e+00 -1.140838e+01 9.359310e+00 -3.377835e+00 -1.113024e+01 6.044074e+00 -4.088247e-01 -3.646332e+00 -1.380477e-02 1.475701e-03 -1.072459e-03 -5.524765e-03 -3.099398e-03 2.005852e-03 8.190720e-04 -5.087083e-03 2.488556e-03 5.650900e-03 -1.806995e-03 5.936168e-04 1.443354e-03 -1.213556e-03 -1.404243e-04 -1.926630e-04 -5.029775e-04 -4.298560e-04 2.249404e-04 5.535607e-04 -2.933974e-04 7.204357e-05 8.173331e-04 -1.603794e-04 -1.434907e-04 3.551734e-04
<VARIANCE> 39
 2.696502e+02 1.642264e+02 1.776205e+02 1.699619e+02 1.712323e+02 1.501611e+02 1.653076e+02 1.112998e+02 8.102897e+01 1.132308e+02 1.038732e+02 3.576029e+01 7.139818e+01 2.864393e+00 3.049235e+00 2.950589e+00 2.442850e+00 2.488132e+00 2.882445e+00 3.574063e+00 2.837703e+00 2.254665e+00 3.083899e+00 2.848865e+00 1.410452e+00 1.706605e+00 2.059384e-01 2.861855e-01 3.165202e-01 2.798763e-01 2.958655e-01 3.292713e-01 4.082396e-01 3.875320e-01 3.475762e-01 4.161765e-01 3.917231e-01 2.236369e-01 2.362328e-01
<GCONST> 1.313330e+02
<MIXTURE> 2 5.000000e-01
<MEAN> 39
 5.098849e+00 -6.514025e+00 2.430083e+00 1.092778e+01 1.083864e+01 1.500667e+00 -1.140838e+01 9.359310e+00 -3.377835e+00 -1.113024e+01 6.044074e+00 -4.088247e-01 -3.646332e+00 -1.380477e-02 1.475701e-03 -1.072459e-03 -5.524765e-03 -3.099398e-03 2.005852e-03 8.190720e-04 -5.087083e-03 2.488556e-03 5.650900e-03 -1.806995e-03 5.936168e-04 1.443354e-03 -1.213556e-03 -1.404243e-04 -1.926630e-04 -5.029775e-04 -4.298560e-04 2.249404e-04 5.535607e-04 -2.933974e-04 7.204357e-05 8.173331e-04 -1.603794e-04 -1.434907e-04 3.551734e-04
<VARIANCE> 39
 2.696502e+02 1.642264e+02 1.776205e+02 1.699619e+02 1.712323e+02 1.501611e+02 1.653076e+02 1.112998e+02 8.102897e+01 1.132308e+02 1.038732e+02 3.576029e+01 7.139818e+01 2.864393e+00 3.049235e+00 2.950589e+00 2.442850e+00 2.488132e+00 2.882445e+00 3.574063e+00 2.837703e+00 2.254665e+00 3.083899e+00 2.848865e+00 1.410452e+00 1.706605e+00 2.059384e-01 2.861855e-01 3.165202e-01 2.798763e-01 2.958655e-01 3.292713e-01 4.082396e-01 3.875320e-01 3.475762e-01 4.161765e-01 3.917231e-01 2.236369e-01 2.362328e-01
<GCONST> 1.313330e+02
<STATE> 4
<NUMMIXES> 2
<MIXTURE> 1 5.000000e-01
<MEAN> 39
 5.098849e+00 -6.514025e+00 2.430083e+00 1.092778e+01 1.083864e+01 1.500667e+00 -1.140838e+01 9.359310e+00 -3.377835e+00 -1.113024e+01 6.044074e+00 -4.088247e-01 -3.646332e+00 -1.380477e-02 1.475701e-03 -1.072459e-03 -5.524765e-03 -3.099398e-03 2.005852e-03 8.190720e-04 -5.087083e-03 2.488556e-03 5.650900e-03 -1.806995e-03 5.936168e-04 1.443354e-03 -1.213556e-03 -1.404243e-04 -1.926630e-04 -5.029775e-04 -4.298560e-04 2.249404e-04 5.535607e-04 -2.933974e-04 7.204357e-05 8.173331e-04 -1.603794e-04 -1.434907e-04 3.551734e-04
<VARIANCE> 39
 2.696502e+02 1.642264e+02 1.776205e+02 1.699619e+02 1.712323e+02 1.501611e+02 1.653076e+02 1.112998e+02 8.102897e+01 1.132308e+02 1.038732e+02 3.576029e+01 7.139818e+01 2.864393e+00 3.049235e+00 2.950589e+00 2.442850e+00 2.488132e+00 2.882445e+00 3.574063e+00 2.837703e+00 2.254665e+00 3.083899e+00 2.848865e+00 1.410452e+00 1.706605e+00 2.059384e-01 2.861855e-01 3.165202e-01 2.798763e-01 2.958655e-01 3.292713e-01 4.082396e-01 3.875320e-01 3.475762e-01 4.161765e-01 3.917231e-01 2.236369e-01 2.362328e-01
<GCONST> 1.313330e+02
<MIXTURE> 2 5.000000e-01
<MEAN> 39
 5.098849e+00 -6.514025e+00 2.430083e+00 1.092778e+01 1.083864e+01 1.500667e+00 -1.140838e+01 9.359310e+00 -3.377835e+00 -1.113024e+01 6.044074e+00 -4.088247e-01 -3.646332e+00 -1.380477e-02 1.475701e-03 -1.072459e-03 -5.524765e-03 -3.099398e-03 2.005852e-03 8.190720e-04 -5.087083e-03 2.488556e-03 5.650900e-03 -1.806995e-03 5.936168e-04 1.443354e-03 -1.213556e-03 -1.404243e-04 -1.926630e-04 -5.029775e-04 -4.298560e-04 2.249404e-04 5.535607e-04 -2.933974e-04 7.204357e-05 8.173331e-04 -1.603794e-04 -1.434907e-04 3.551734e-04
<VARIANCE> 39
 2.696502e+02 1.642264e+02 1.776205e+02 1.699619e+02 1.712323e+02 1.501611e+02 1.653076e+02 1.112998e+02 8.102897e+01 1.132308e+02 1.038732e+02 3.576029e+01 7.139818e+01 2.864393e+00 3.049235e+00 2.950589e+00 2.442850e+00 2.488132e+00 2.882445e+00 3.574063e+00 2.837703e+00 2.254665e+00 3.083899e+00 2.848865e+00 1.410452e+00 1.706605e+00 2.059384e-01 2.861855e-01 3.165202e-01 2.798763e-01 2.958655e-01 3.292713e-01 4.082396e-01 3.875320e-01 3.475762e-01 4.161765e-01 3.917231e-01 2.236369e-01 2.362328e-01
<GCONST> 1.313330e+02
<TRANSP> 5
 0.000000e+00 1.000000e+00 0.000000e+00 0.000000e+00 0.000000e+00
 0.000000e+00 6.000000e-01 4.000000e-01 0.000000e+00 0.000000e+00
 0.000000e+00 0.000000e+00 6.000000e-01 4.000000e-01 0.000000e+00
 0.000000e+00 0.000000e+00 0.000000e+00 6.000000e-01 4.000000e-01
 0.000000e+00 0.000000e+00 0.000000e+00 0.000000e+00 0.000000e+00
<ENDHMM>
~h "txh"
<BEGINHMM>
<NUMSTATES> 5
<STATE> 2
<NUMMIXES> 2
<MIXTURE> 1 6.033906e-01
<MEAN> 39
 -1.005261e-01 3.650419e+00 -3.101705e+00 5.793921e+00 1.319488e+01 1.390545e+01 5.218979e-01 2.935827e+00 -3.523961e+00 -2.166412e+00 6.732253e+00 8.261298e+00 7.525863e+00 -3.427961e+00 -6.541103e-01 1.221582e+00 2.610269e-01 -1.345409e+00 -6.658915e-02 1.095418e+00 2.069831e-01 5.509339e-01 8.375055e-01 -7.753091e-01 -4.253365e-01 8.217955e-01 8.997849e-02 -6.894644e-01 -2.154822e-01 -1.273752e-01 -1.752324e-01 -2.277577e-01 -3.066460e-01 1.895904e-01 1.841490e-01 -1.197211e-01 -2.039490e-02 -3.311931e-01 -1.863801e-01
<VARIANCE> 39
 1.206457e+02 2.514635e+01 4.452304e+01 2.305683e+01 2.860924e+01 2.842550e+01 3.714534e+01 2.316324e+01 2.617194e+01 2.883822e+01 3.131219e+01 1.826788e+01 2.899512e+01 4.956776e-01 4.283817e+00 2.755301e+00 1.401006e+00 1.550717e+00 3.151949e+00 2.700828e+00 1.859480e+00 1.870331e+00 1.553623e+00 2.220271e+00 2.079144e+00 2.961877e+00 2.450832e-01 5.601833e-01 2.886299e-01 1.775625e-01 2.864164e-01 4.358310e-01 3.047173e-01 4.027661e-01 4.410284e-01 2.915621e-01 3.569909e-01 2.938430e-01 3.970847e-01
<GCONST> 1.110515e+02
<MIXTURE> 2 3.966093e-01
<MEAN> 39
 -2.642335e+01 -6.365872e+00 -4.862166e+00 -2.631662e+00 -3.175171e+00 1.126637e+00 -3.355917e+00 1.325190e+00 -1.453213e+00 -5.187230e-01 5.986670e-01 -9.856419e-01 3.743093e-01 6.444620e-02 -1.754257e-02 -4.988299e-03 2.737658e-01 2.658344e-01 -9.431665e-02 -7.439999e-02 2.051339e-01 3.654440e-01 2.104284e-01 -5.469851e-02 -8.956565e-02 8.512940e-02 2.854674e-01 1.281892e-02 1.952100e-01 3.510990e-01 3.765450e-01 3.751972e-01 2.249504e-01 2.420731e-01 1.173413e-01 3.172260e-02 1.044661e-01 1.936410e-01 2.721523e-01
<VARIANCE> 39
 8.575480e-01 2.021692e+00 3.019641e+00 3.854687e+00 3.405296e+00 4.813048e+00 5.780434e+00 5.913080e+00 7.676922e+00 9.430429e+00 7.270417e+00 6.801325e+00 4.338746e+00 6.518872e-01 7.931212e-01 8.109688e-01 1.492192e+00 1.964564e+00 2.089278e+00 1.620026e+00 1.773045e+00 1.862038e+00 1.463890e+00 1.213221e+00 1.520941e+00 1.432168e+00 1.379298e-01 1.354472e-01 1.294668e-01 1.868110e-01 3.365189e-01 4.365494e-01 3.178989e-01 3.802452e-01 3.962680e-01 2.946153e-01 2.368248e-01 2.525962e-01 2.552426e-01
<GCONST> 7.657092e+01
<STATE> 3
<NUMMIXES> 2
<MIXTURE> 1 5.573049e-01
<MEAN> 39
 -1.266224e+01 -9.022224e+00 7.389731e-01 1.129706e+01 8.741241e+00 1.136914e+01 2.500958e+00 9.427745e+00 5.219007e+00 1.675545e+00 7.875822e-01 9.493724e-01 1.035885e+01 1.611193e+00 -3.398875e+00 6.538092e-01 9.897923e-01 -7.302300e-01 5.346292e-01 8.907250e-02 1.136278e+00 1.317038e+00 6.422024e-01 6.049368e-01 -1.204992e+00 -5.218292e-01 7.916434e-01 -4.690084e-01 1.027901e-01 -4.626011e-01 -5.412763e-01 -8.250709e-02 -4.156349e-01 -4.351758e-01 -8.721449e-01 -4.829745e-01 8.984469e-01 3.096562e-01 -9.245144e-01
<VARIANCE> 39
 2.998706e+01 2.674690e+01 1.292783e+01 1.328533e+01 1.742778e+01 1.901328e+01 1.646659e+01 2.602254e+01 2.595188e+01 1.466699e+01 1.629697e+01 1.764621e+01 2.249900e+01 4.313981e+00 3.873313e+00 1.561091e+00 3.254389e+00 5.996532e+00 2.591617e+00 2.565769e+00 3.797071e+00 3.650110e+00 2.561120e+00 3.385419e+00 2.854961e+00 5.669123e+00 3.988215e-01 1.763609e-01 2.827080e-01 2.621151e-01 4.730255e-01 5.003863e-01 3.271443e-01 4.739189e-01 6.912895e-01 4.376362e-01 6.222423e-01 8.056622e-01 5.182099e-01
<GCONST> 1.146855e+02
<MIXTURE> 2 4.426950e-01
<MEAN> 39
 -3.102261e+00 -2.343681e+01 5.702603e+00 1.117653e+01 1.916365e+00 1.270769e+01 -5.501820e-01 8.100747e+00 6.643313e-01 -1.187786e+00 9.502490e+00 3.033484e-01 1.675261e+00 2.035295e+00 -4.920456e+00 2.272002e+00 -1.908188e-01 -1.353920e+00 1.725062e+00 -7.439274e-01 -1.312616e-01 -3.410956e+00 -2.330447e+00 4.136329e+00 1.753991e+00 -1.723289e+00 -4.609060e-01 3.583263e-01 3.289821e-01 1.522205e-02 5.406011e-01 7.636813e-01 1.910371e-01 -3.611333e-02 -4.400952e-01 -1.283342e-01 1.620839e-01 4.184643e-01 8.404923e-01
<VARIANCE> 39
 1.584918e+01 4.198667e+01 3.589295e+01 1.797996e+01 2.248492e+01 3.720227e+01 2.015741e+01 4.420942e+01 4.443405e+01 3.757146e+01 3.931878e+01 3.574445e+01 1.665993e+01 1.334463e+00 1.103849e+00 3.043805e+00 1.040841e+00 1.531120e+00 3.991565e+00 1.568795e+00 3.197836e+00 2.744591e+00 2.598281e+00 1.993157e+00 2.050723e+00 2.978781e+00 3.451891e-01 4.592831e-01 3.048435e-01 1.503765e-01 1.890764e-01 3.431999e-01 2.589361e-01 4.830322e-01 1.281271e+00 8.589168e-01 5.929466e-01 5.763349e-01 2.862057e-01
<GCONST> 1.131107e+02
<STATE> 4
<NUMMIXES> 2
<MIXTURE> 1 5.219713e-01
<MEAN> 39
 -2.097820e-01 -1.515147e+01 -7.100662e+00 6.335411e+00 1.869726e+00 9.427782e+00 7.690078e+00 1.305292e+01 1.837889e+00 3.155125e+00 1.342111e+01 7.289774e+00 8.316462e+00 -4.284866e-01 1.921774e+00 -4.215751e-01 -6.376036e-01 -4.513962e-01 -1.424149e+00 -2.551973e-01 1.139313e-01 6.475296e-01 1.026045e-01 -1.323253e+00 -4.499326e-01 -1.323617e-01 -8.755412e-02 -2.340736e-01 1.988844e-01 -1.012780e-01 -1.465757e-01 -2.592230e-02 -2.395775e-01 -4.299584e-02 -9.291915e-02 -1.615517e-01 2.284727e-03 -1.119657e-01 -2.153492e-01
<VARIANCE> 39
 1.219136e+02 9.363898e+01 8.087733e+01 6.162396e+01 1.367155e+02 1.213420e+02 3.742241e+01 6.381226e+01 5.803869e+01 5.788987e+01 8.001487e+01 4.330783e+01 2.090156e+01 2.579811e+00 4.133932e+00 2.579247e+00 1.962963e+00 3.156563e+00 3.164794e+00 2.279485e+00 2.099026e+00 2.113266e+00 2.556696e+00 2.176197e+00 2.222807e+00 2.064993e+00 1.830565e-01 3.521852e-01 2.914235e-01 2.699927e-01 4.039389e-01 4.557049e-01 3.201299e-01 3.717874e-01 3.579628e-01 4.161094e-01 3.962573e-01 3.427523e-01 2.690693e-01
<GCONST> 1.238649e+02
<MIXTURE> 2 4.780288e-01
<MEAN> 39
 -4.459589e+00 -3.576104e+01 1.169582e+01 1.197717e+01 3.826028e+00 2.431372e+01 -3.414233e-02 5.296581e+00 -7.413982e+00 -3.905699e+00 1.914262e+01 4.624540e+00 2.530540e+00 -1.386812e-02 9.473340e-01 -9.844106e-01 5.291304e-01 1.084805e+00 2.856283e-01 7.149568e-01 -1.268813e-01 7.637265e-02 6.457897e-01 5.027845e-01 5.018467e-01 4.180851e-01 -6.179430e-03 9.833095e-01 -5.330086e-01 7.404801e-02 1.744428e-01 -6.371058e-01 5.500819e-02 3.365968e-02 5.040018e-01 2.708715e-01 -5.959262e-01 -1.556946e-01 5.601440e-02
<VARIANCE> 39
 2.200524e+01 4.170092e+01 6.732175e+01 5.143407e+01 4.435990e+01 4.250413e+01 4.183325e+01 5.304764e+01 3.367873e+01 4.912201e+01 5.849132e+01 5.071547e+01 2.548890e+01 1.516947e+00 7.387355e+00 7.092930e+00 1.859228e+00 1.888726e+00 5.034517e+00 2.275755e+00 2.297832e+00 3.849134e+00 3.352945e+00 3.853872e+00 1.877060e+00 1.235027e+00 2.671439e-01 4.223963e-01 1.101871e+00 2.370330e-01 3.559307e-01 5.232877e-01 4.516204e-01 4.405248e-01 8.089719e-01 8.239643e-01 4.934251e-01 4.003380e-01 2.637447e-01
<GCONST> 1.240101e+02
<TRANSP> 5
 0.000000e+00 1.000000e+00 0.000000e+00 0.000000e+00 0.000000e+00
 0.000000e+00 9.006779e-01 9.932217e-02 0.000000e+00 0.000000e+00
 0.000000e+00 0.000000e+00 8.521375e-01 1.478625e-01 0.000000e+00
 0.000000e+00 0.000000e+00 0.000000e+00 9.333065e-01 6.669352e-02
 0.000000e+00 0.000000e+00 0.000000e+00 0.000000e+00 0.000000e+00
<ENDHMM>
