~o
<STREAMINFO> 1 39
<VECSIZE> 39<NULLD><MFCC_D_A><DIAGC>
~h "a"
<BEGINHMM>
<NUMSTATES> 7
<STATE> 2
<NUMMIXES> 2
<MIXTURE> 1 6.264261e-01
<MEAN> 39
 9.723629e+00 -3.961503e+00 -3.959394e+00 3.267236e+00 -3.946038e-01 -5.477594e+00 -6.037256e+00 1.535687e+01 -6.556964e-02 -1.027633e+01 4.719377e+00 1.650636e+00 5.949395e-01 1.790933e+00 -3.776142e-01 -1.297906e+00 3.120135e-02 2.545693e-01 -1.667779e+00 -1.160583e+00 1.080331e+00 1.425659e-02 -1.195194e+00 5.472779e-01 1.423417e-01 -6.574995e-01 -1.684324e-01 -2.382320e-01 -1.077608e-01 -5.903201e-02 1.470261e-01 1.244198e-01 1.037815e-03 1.523356e-01 -9.576365e-02 -1.207273e-01 1.668102e-01 2.401192e-02 -9.983189e-03
<VARIANCE> 39
 2.350238e+02 3.788748e+01 4.975822e+01 4.140819e+01 6.318630e+01 1.060894e+02 9.697797e+01 1.616196e+02 8.163951e+01 5.411145e+01 5.672615e+01 2.523114e+01 2.710110e+01 4.385239e+00 1.961609e+00 3.927641e+00 2.659180e+00 2.872212e+00 4.901405e+00 4.082112e+00 3.686128e+00 2.351274e+00 3.691265e+00 2.639009e+00 1.718232e+00 1.823168e+00 3.719705e-01 2.936878e-01 4.405917e-01 4.447500e-01 3.494237e-01 5.726676e-01 4.177554e-01 5.379928e-01 3.539486e-01 3.927009e-01 4.328689e-01 2.466448e-01 2.402854e-01
<GCONST> 1.273764e+02
<MIXTURE> 2 3.735716e-01
<MEAN> 39
 2.029497e+01 -1.092360e+01 -5.131004e+00 8.613314e+00 1.273510e+01 -1.641625e-01 -1.594538e+01 1.135768e+01 -1.119828e+01 -2.090148e+01 1.330870e+01 2.754769e+00 -2.602537e+00 1.814044e+00 -4.995257e-01 -2.901483e+00 8.851492e-02 1.547840e+00 -3.074750e+00 -2.389887e+00 2.155259e+00 -1.163084e+00 -2.739305e+00 2.300979e+00 6.838694e-01 -1.105902e+00 -7.301292e-01 -1.397829e-01 5.063488e-01 -4.351465e-01 -3.437021e-01 5.564645e-01 3.467618e-01 -8.655848e-02 2.512919e-01 5.827370e-01 -1.200803e-01 -9.800772e-02 3.308998e-01
<VARIANCE> 39
 7.707619e+00 1.504099e+01 3.502324e+01 3.583683e+01 3.712305e+01 3.611042e+01 3.464010e+01 3.900626e+01 3.269010e+01 2.769101e+01 4.806203e+01 1.526160e+01 2.094975e+01 1.302813e+00 2.217731e+00 3.093034e+00 2.118258e+00 1.387513e+00 2.113379e+00 2.790078e+00 2.013330e+00 1.386016e+00 2.181091e+00 1.998356e+00 1.140332e+00 1.103976e+00 2.253244e-01 2.665730e-01 5.412790e-01 4.496095e-01 2.473843e-01 2.390095e-01 2.917778e-01 4.109592e-01 2.310769e-01 3.813172e-01 3.844981e-01 1.666291e-01 1.621455e-01
<GCONST> 1.060233e+02
<STATE> 3
<NUMMIXES> 2
<MIXTURE> 1 6.582084e-01
<MEAN> 39
 2.233101e+01 -7.388161e+00 -1.081765e+01 4.562264e+00 1.896842e+00 -1.523199e+01 -9.762272e+00 2.658941e+01 3.092901e+00 -1.838591e+01 5.891582e+00 2.848566e+00 -2.681740e+00 6.575146e-02 -2.947139e-01 -1.913629e-01 -1.078918e-01 4.126949e-01 -1.533701e-01 -6.586313e-01 -5.614805e-03 -1.348139e-01 -4.336592e-01 1.185536e-01 6.939353e-02 1.127559e-02 -5.181901e-02 1.154426e-01 1.645094e-01 6.691795e-02 3.476402e-02 1.334731e-01 7.522268e-03 -6.210782e-02 -6.541973e-02 2.756444e-02 2.787353e-02 -5.858878e-02 -9.821455e-03
<VARIANCE> 39
 8.808434e+00 1.473199e+01 3.187964e+01 1.290842e+01 2.552387e+01 3.420702e+01 6.400566e+01 4.477708e+01 3.392482e+01 3.299808e+01 4.464954e+01 1.066249e+01 1.425150e+01 6.554055e-01 8.015233e-01 1.018862e+00 7.382371e-01 8.483983e-01 1.332465e+00 1.462056e+00 1.764847e+00 1.008480e+00 1.061913e+00 1.942972e+00 5.906109e-01 4.976933e-01 1.164076e-01 8.379527e-02 1.131063e-01 1.071290e-01 9.775886e-02 1.299076e-01 1.689073e-01 2.376585e-01 8.934367e-02 1.569819e-01 1.931064e-01 9.501769e-02 7.128009e-02
<GCONST> 8.525797e+01
<MIXTURE> 2 3.417901e-01
<MEAN> 39
 2.152865e+01 -1.065558e+01 -8.022001e+00 6.179508e+00 1.223504e+01 -6.530521e+00 -1.918243e+01 1.990772e+01 -8.842116e+00 -2.337265e+01 1.662224e+01 2.118299e+00 -4.170825e+00 5.791401e-01 -5.719531e-01 -9.040089e-01 -4.666009e-01 4.543745e-01 -9.508845e-01 -1.271028e+00 1.059493e+00 -1.121575e-01 -8.516073e-01 1.054613e+00 2.296974e-01 -7.294090e-02 -4.412795e-01 2.586058e-01 3.930705e-01 9.463611e-04 -2.779349e-01 4.416154e-01 5.981432e-01 -5.776991e-01 3.048684e-01 6.655636e-01 -6.176090e-01 -7.340501e-03 3.110895e-01
<VARIANCE> 39
 3.142393e+01 2.453626e+01 5.004937e+01 4.078485e+01 6.445556e+01 6.392250e+01 6.563525e+01 9.758340e+01 6.174271e+01 4.513252e+01 6.955637e+01 2.409284e+01 2.592890e+01 8.071020e-01 1.028556e+00 1.192528e+00 1.343253e+00 9.986282e-01 1.529220e+00 1.911681e+00 2.275703e+00 1.214060e+00 1.540328e+00 2.374809e+00 9.909632e-01 8.369298e-01 1.635855e-01 1.516680e-01 2.459534e-01 2.627817e-01 1.906812e-01 2.768973e-01 3.228643e-01 4.107377e-01 2.015847e-01 2.995931e-01 3.210336e-01 2.046415e-01 1.496930e-01
<GCONST> 1.063033e+02
<STATE> 4
<NUMMIXES> 2
<MIXTURE> 1 1.094884e-01
<MEAN> 39
 -3.434905e+00 -2.137017e+01 1.776288e+01 3.531367e+00 3.749281e+00 1.850415e+01 -1.206528e+01 2.318113e+00 -3.542886e+00 -4.707369e+00 2.813160e+00 -5.831645e+00 1.234893e+00 6.679921e-01 1.348738e+00 6.753399e-01 3.861194e+00 1.811850e+00 -3.426520e-01 9.686269e-01 2.925405e-01 9.931045e-01 -4.058520e-01 -6.209853e-01 2.391739e-01 -3.710954e-01 2.757627e-02 1.719358e-01 -1.501221e-01 1.436215e-01 1.262895e-01 -4.394653e-01 4.606750e-02 9.519560e-04 -2.851754e-01 -2.003171e-01 -5.560429e-02 8.966886e-02 -5.879624e-02
<VARIANCE> 39
 1.420337e+02 1.265292e+02 1.491469e+02 2.447717e+02 6.734467e+01 9.157038e+01 8.524237e+01 5.037329e+01 6.941860e+01 3.048398e+01 3.174935e+01 4.284111e+01 2.976637e+01 4.709853e+00 5.600009e+00 6.082879e+00 1.178304e+01 3.989588e+00 5.873598e+00 4.361137e+00 2.900349e+00 4.940153e+00 3.567984e+00 2.749463e+00 1.647774e+00 1.890482e+00 5.645970e-01 5.767004e-01 9.106481e-01 1.099493e+00 4.441838e-01 6.732276e-01 9.676043e-01 5.594562e-01 8.182656e-01 4.564885e-01 4.140913e-01 3.778302e-01 2.624911e-01
<GCONST> 1.384713e+02
<MIXTURE> 2 8.905107e-01
<MEAN> 39
 2.254607e+01 -1.088495e+01 -1.021163e+01 4.971025e+00 1.299072e+01 -8.528709e+00 -2.081206e+01 2.046319e+01 -8.817816e+00 -2.439050e+01 1.697919e+01 3.380095e+00 -2.945223e+00 -1.819190e-01 2.922509e-01 -1.337050e-01 -1.731111e-01 -1.070500e-01 -4.089498e-02 1.576049e-01 -6.435698e-01 1.637978e-01 5.212718e-01 -4.044574e-01 2.223175e-01 3.304486e-01 -1.771275e-01 2.215809e-01 1.683021e-01 1.321152e-01 -1.254990e-01 2.459309e-01 4.154916e-01 -4.376177e-01 1.259280e-01 3.606312e-01 -4.679252e-01 -3.934852e-02 5.888717e-02
<VARIANCE> 39
 5.962297e+00 1.605591e+01 2.390764e+01 2.115393e+01 4.462589e+01 3.953876e+01 4.833697e+01 5.820943e+01 6.617246e+01 3.021131e+01 7.155694e+01 1.658078e+01 2.231531e+01 4.563645e-01 4.816056e-01 8.105953e-01 9.027037e-01 8.075624e-01 1.243154e+00 1.524087e+00 2.029412e+00 1.040010e+00 1.120432e+00 1.922252e+00 7.647150e-01 6.930194e-01 6.980319e-02 6.410950e-02 1.226394e-01 9.688110e-02 9.252094e-02 1.221417e-01 1.643066e-01 1.970362e-01 9.863161e-02 1.466019e-01 1.730381e-01 1.117604e-01 7.804127e-02
<GCONST> 8.665636e+01
<STATE> 5
<NUMMIXES> 2
<MIXTURE> 1 5.869171e-01
<MEAN> 39
 2.111428e+01 -1.039291e+01 -1.256269e+01 5.221067e+00 1.308357e+01 -8.061198e+00 -1.898130e+01 1.326696e+01 -8.088169e+00 -2.000313e+01 1.284725e+01 6.068877e+00 5.968864e-01 5.999614e-02 2.724557e-01 -1.829033e-01 -8.540165e-02 6.651436e-02 1.941130e-01 1.560368e-01 -2.877813e-01 1.450242e-01 2.715862e-01 -3.097986e-01 -2.957819e-02 7.473705e-02 1.199515e-01 1.991353e-02 6.398295e-02 7.470391e-02 1.577568e-01 1.302291e-01 -1.111049e-01 2.455458e-01 -9.929301e-02 -2.095765e-01 1.461154e-01 -1.909696e-01 -1.637615e-01
<VARIANCE> 39
 9.223125e+00 1.266469e+01 2.157862e+01 1.765856e+01 2.837702e+01 2.275983e+01 3.103806e+01 4.381503e+01 4.196709e+01 2.655676e+01 5.535256e+01 1.324800e+01 1.780598e+01 5.723432e-01 4.005690e-01 6.163303e-01 7.256647e-01 7.891726e-01 9.387819e-01 1.391804e+00 2.443727e+00 1.164436e+00 1.182553e+00 2.328330e+00 7.787178e-01 7.144994e-01 8.899511e-02 4.839535e-02 7.809022e-02 8.152271e-02 6.914332e-02 8.098491e-02 1.581623e-01 2.224079e-01 7.840181e-02 1.227986e-01 1.975266e-01 8.382948e-02 6.431366e-02
<GCONST> 8.126048e+01
<MIXTURE> 2 4.130840e-01
<MEAN> 39
 2.187975e+01 -7.584338e+00 -9.645523e+00 6.624122e+00 1.126261e+01 -8.185138e+00 -1.621422e+01 1.928364e+01 -6.089736e+00 -2.183867e+01 1.080252e+01 2.233655e+00 -3.185841e+00 -6.937215e-01 1.336808e+00 8.528168e-01 7.380773e-01 1.337772e-01 1.052274e+00 1.283531e+00 -1.256830e+00 3.534197e-01 9.792551e-01 -1.628018e+00 -4.100052e-01 -4.092575e-02 -4.510307e-01 3.309644e-01 4.169724e-01 1.677454e-01 -4.473247e-02 4.032100e-01 4.687849e-01 -4.510945e-01 2.457449e-01 5.222674e-01 -5.145176e-01 -6.179938e-02 1.914307e-01
<VARIANCE> 39
 2.461233e+01 2.366577e+01 5.535381e+01 3.612457e+01 5.996394e+01 9.414120e+01 5.365165e+01 8.303423e+01 1.028941e+02 3.579482e+01 1.113638e+02 2.156869e+01 2.093920e+01 1.281776e+00 1.019083e+00 1.691412e+00 1.298418e+00 1.388202e+00 2.313074e+00 2.609316e+00 3.295649e+00 1.709311e+00 2.410115e+00 3.232728e+00 1.015037e+00 1.094251e+00 1.025829e-01 1.357579e-01 1.958281e-01 1.964078e-01 2.039371e-01 2.702662e-01 2.773092e-01 3.457199e-01 2.413155e-01 2.285889e-01 3.357019e-01 2.051434e-01 1.783795e-01
<GCONST> 1.087169e+02
<STATE> 6
<NUMMIXES> 2
<MIXTURE> 1 3.366858e-01
<MEAN> 39
 1.306840e+01 2.179957e+00 -1.860696e+00 9.736268e+00 9.979418e+00 -1.106105e-01 -6.114330e+00 1.072721e+01 -3.767435e+00 -1.342953e+01 1.760491e+00 1.870699e+00 1.092187e-01 -2.052026e+00 2.060710e+00 1.999150e+00 7.577952e-01 6.311010e-02 1.803750e+00 1.624369e+00 -1.520313e+00 5.614914e-01 1.543712e+00 -1.843527e+00 -3.109091e-01 7.633801e-01 -6.695566e-02 -2.285729e-01 4.874453e-02 -4.702232e-02 3.191027e-02 -7.644359e-02 -2.463336e-01 1.192323e-01 -2.224395e-01 -1.910840e-01 3.625376e-01 -2.032030e-02 -8.692525e-02
<VARIANCE> 39
 6.042075e+01 5.118256e+01 4.907376e+01 3.786580e+01 5.355007e+01 1.033047e+02 4.420206e+01 9.593706e+01 9.816507e+01 4.306983e+01 8.511718e+01 3.353446e+01 3.987606e+01 1.276449e+00 2.070084e+00 1.820600e+00 1.936935e+00 1.860188e+00 2.407032e+00 2.363454e+00 2.620650e+00 2.186076e+00 2.262909e+00 3.175974e+00 1.827541e+00 2.038821e+00 1.075289e-01 2.453197e-01 2.282533e-01 2.133609e-01 2.452900e-01 3.027008e-01 3.113094e-01 3.332960e-01 3.407586e-01 3.095970e-01 3.202012e-01 2.100339e-01 2.254708e-01
<GCONST> 1.158670e+02
<MIXTURE> 2 6.633127e-01
<MEAN> 39
 2.025849e+01 -8.815394e+00 -5.537835e+00 5.361678e+00 1.173148e+01 -4.595329e+00 -1.826769e+01 1.709016e+01 -1.018459e+01 -1.969059e+01 2.129707e+01 2.690409e+00 -4.298172e+00 3.512254e-02 1.457601e-01 5.436352e-02 8.535629e-02 3.789487e-02 1.273660e-01 1.208973e-01 -7.324801e-02 -1.626704e-01 -6.059825e-03 -5.215129e-02 -2.005097e-01 -9.883504e-02 -3.433042e-02 4.551470e-02 1.563671e-02 5.834353e-02 1.196469e-03 7.135729e-02 1.055027e-01 -1.116011e-01 2.420763e-02 4.667207e-02 -1.627626e-01 1.223422e-02 2.918389e-02
<VARIANCE> 39
 7.039841e+00 1.805621e+01 3.314134e+01 2.482206e+01 4.747940e+01 3.311748e+01 8.438465e+01 4.632610e+01 4.899259e+01 7.126984e+01 6.320990e+01 1.892222e+01 2.630709e+01 4.188183e-01 5.948956e-01 8.843333e-01 8.863173e-01 9.988333e-01 1.207552e+00 2.152773e+00 2.041950e+00 1.114029e+00 1.760129e+00 2.012886e+00 8.722949e-01 7.457964e-01 5.999365e-02 8.548819e-02 1.192392e-01 1.285619e-01 1.270584e-01 1.625932e-01 2.823946e-01 2.963095e-01 1.620907e-01 2.398377e-01 2.864275e-01 1.456388e-01 1.124811e-01
<GCONST> 9.393829e+01
<TRANSP> 7
 0.000000e+00 1.000000e+00 0.000000e+00 0.000000e+00 0.000000e+00 0.000000e+00 0.000000e+00
 0.000000e+00 6.770170e-01 3.229830e-01 0.000000e+00 0.000000e+00 0.000000e+00 0.000000e+00
 0.000000e+00 0.000000e+00 7.784038e-01 2.215962e-01 0.000000e+00 0.000000e+00 0.000000e+00
 0.000000e+00 0.000000e+00 0.000000e+00 5.722865e-01 4.277135e-01 0.000000e+00 0.000000e+00
 0.000000e+00 0.000000e+00 0.000000e+00 0.000000e+00 7.391801e-01 2.608199e-01 0.000000e+00
 0.000000e+00 0.000000e+00 0.000000e+00 0.000000e+00 0.000000e+00 7.864749e-01 2.135250e-01
 0.000000e+00 0.000000e+00 0.000000e+00 0.000000e+00 0.000000e+00 0.000000e+00 0.000000e+00
<ENDHMM>
~h "b"
<BEGINHMM>
<NUMSTATES> 5
<STATE> 2
<NUMMIXES> 2
<MIXTURE> 1 5.000000e-01
<MEAN> 39
 5.318412e+00 1.800574e+01 1.449796e+01 1.570843e+01 1.209063e+01 1.044111e+01 4.397116e+00 1.017583e+01 1.420145e+00 -4.550604e+00 -4.619868e+00 -6.062107e+00 -5.437571e+00 -4.806977e-01 3.009112e-01 4.146723e-01 9.960315e-02 2.108441e-01 5.987336e-01 3.811648e-01 -7.443664e-02 9.883224e-02 4.946371e-01 2.021058e-01 -3.827872e-02 8.597971e-02 5.803534e-02 -2.274133e-01 -2.074576e-01 9.102488e-03 2.661368e-02 -1.638446e-01 -1.501996e-01 1.034759e-01 1.131035e-01 -6.197646e-02 -3.802040e-02 4.836630e-02 9.836002e-02
<VARIANCE> 39
 2.168484e+01 1.848394e+01 1.910360e+01 1.112492e+01 1.118298e+01 2.876883e+01 1.559307e+01 1.431252e+01 1.312172e+01 2.304377e+01 1.344212e+01 1.328930e+01 1.381524e+01 5.237306e-01 1.136812e+00 1.389477e+00 6.538215e-01 6.246241e-01 1.198848e+00 8.617796e-01 1.049287e+00 8.823460e-01 8.928513e-01 8.237112e-01 8.042060e-01 9.705306e-01 4.342466e-02 1.092952e-01 1.466430e-01 9.258287e-02 8.683119e-02 1.314726e-01 1.218424e-01 1.374776e-01 1.101864e-01 1.306338e-01 1.260889e-01 1.101966e-01 1.171775e-01
<GCONST> 7.717638e+01
<MIXTURE> 2 5.000000e-01
<MEAN> 39
 5.318412e+00 1.800574e+01 1.449796e+01 1.570843e+01 1.209063e+01 1.044111e+01 4.397116e+00 1.017583e+01 1.420145e+00 -4.550604e+00 -4.619868e+00 -6.062107e+00 -5.437571e+00 -4.806977e-01 3.009112e-01 4.146723e-01 9.960315e-02 2.108441e-01 5.987336e-01 3.811648e-01 -7.443664e-02 9.883224e-02 4.946371e-01 2.021058e-01 -3.827872e-02 8.597971e-02 5.803534e-02 -2.274133e-01 -2.074576e-01 9.102488e-03 2.661368e-02 -1.638446e-01 -1.501996e-01 1.034759e-01 1.131035e-01 -6.197646e-02 -3.802040e-02 4.836630e-02 9.836002e-02
<VARIANCE> 39
 2.168484e+01 1.848394e+01 1.910360e+01 1.112492e+01 1.118298e+01 2.876883e+01 1.559307e+01 1.431252e+01 1.312172e+01 2.304377e+01 1.344212e+01 1.328930e+01 1.381524e+01 5.237306e-01 1.136812e+00 1.389477e+00 6.538215e-01 6.246241e-01 1.198848e+00 8.617796e-01 1.049287e+00 8.823460e-01 8.928513e-01 8.237112e-01 8.042060e-01 9.705306e-01 4.342466e-02 1.092952e-01 1.466430e-01 9.258287e-02 8.683119e-02 1.314726e-01 1.218424e-01 1.374776e-01 1.101864e-01 1.306338e-01 1.260889e-01 1.101966e-01 1.171775e-01
<GCONST> 7.717638e+01
<STATE> 3
<NUMMIXES> 2
<MIXTURE> 1 5.000000e-01
<MEAN> 39
 2.347779e+00 1.162712e+01 1.292626e+01 1.316737e+01 1.072206e+01 1.086525e+01 3.875546e+00 1.342498e+01 2.576131e+00 -4.916589e+00 -2.217768e+00 -4.089967e+00 -2.970352e+00 -1.186937e-02 -4.132162e-01 -3.786439e-01 3.012886e-01 3.531209e-01 -8.877389e-02 -1.906696e-01 2.473122e-01 3.286081e-01 -4.048697e-02 -1.445299e-01 1.078926e-01 4.287428e-01 1.300676e-01 -2.562726e-01 -2.322983e-01 -5.750022e-02 -1.735533e-02 -1.724652e-01 -2.052269e-01 7.598403e-03 1.339661e-02 -1.077700e-01 1.238666e-02 4.744384e-02 7.088648e-02
<VARIANCE> 39
 6.751367e+01 1.511964e+02 8.095348e+01 5.970679e+01 4.480592e+01 8.500661e+01 6.428912e+01 4.711021e+01 4.606009e+01 5.415948e+01 5.383274e+01 2.345319e+01 3.741912e+01 2.002662e+00 4.317045e+00 3.471232e+00 2.086902e+00 1.685951e+00 3.070918e+00 2.451859e+00 2.244540e+00 1.937211e+00 2.355042e+00 1.867843e+00 1.139436e+00 1.991072e+00 1.924375e-01 2.987141e-01 3.900383e-01 2.974953e-01 2.332166e-01 4.036814e-01 3.370976e-01 2.915127e-01 2.744349e-01 3.175522e-01 2.430402e-01 1.834092e-01 2.321049e-01
<GCONST> 1.179817e+02
<MIXTURE> 2 5.000000e-01
<MEAN> 39
 2.347779e+00 1.162712e+01 1.292626e+01 1.316737e+01 1.072206e+01 1.086525e+01 3.875546e+00 1.342498e+01 2.576131e+00 -4.916589e+00 -2.217768e+00 -4.089967e+00 -2.970352e+00 -1.186937e-02 -4.132162e-01 -3.786439e-01 3.012886e-01 3.531209e-01 -8.877389e-02 -1.906696e-01 2.473122e-01 3.286081e-01 -4.048697e-02 -1.445299e-01 1.078926e-01 4.287428e-01 1.300676e-01 -2.562726e-01 -2.322983e-01 -5.750022e-02 -1.735533e-02 -1.724652e-01 -2.052269e-01 7.598403e-03 1.339661e-02 -1.077700e-01 1.238666e-02 4.744384e-02 7.088648e-02
<VARIANCE> 39
 6.751367e+01 1.511964e+02 8.095348e+01 5.970679e+01 4.480592e+01 8.500661e+01 6.428912e+01 4.711021e+01 4.606009e+01 5.415948e+01 5.383274e+01 2.345319e+01 3.741912e+01 2.002662e+00 4.317045e+00 3.471232e+00 2.086902e+00 1.685951e+00 3.070918e+00 2.451859e+00 2.244540e+00 1.937211e+00 2.355042e+00 1.867843e+00 1.139436e+00 1.991072e+00 1.924375e-01 2.987141e-01 3.900383e-01 2.974953e-01 2.332166e-01 4.036814e-01 3.370976e-01 2.915127e-01 2.744349e-01 3.175522e-01 2.430402e-01 1.834092e-01 2.321049e-01
<GCONST> 1.179817e+02
<STATE> 4
<NUMMIXES> 2
<MIXTURE> 1 5.000000e-01
<MEAN> 39
 7.276704e+00 8.253370e+00 5.768763e+00 1.563394e+01 1.303835e+01 3.628421e+00 -2.727198e+00 1.464442e+01 7.077506e+00 -6.189003e+00 -5.569607e+00 -4.312543e+00 -3.665771e-01 1.891615e+00 -2.690222e+00 -2.895504e+00 -1.381897e+00 -1.401728e+00 -3.309973e+00 -2.575390e+00 8.373585e-01 1.670601e-01 -1.570750e+00 6.473726e-01 8.135279e-01 4.059982e-01 5.317942e-01 -2.150841e-03 -1.321521e-01 -3.677164e-01 -5.767869e-01 -6.859676e-01 -2.685853e-01 8.008016e-02 -3.303330e-01 -3.929289e-01 2.589776e-01 5.618472e-02 -4.027399e-01
<VARIANCE> 39
 2.695811e+01 3.548519e+01 3.101202e+01 2.048864e+01 2.915660e+01 6.933025e+01 4.011877e+01 1.765403e+01 2.296807e+01 2.073032e+01 1.839093e+01 1.520509e+01 1.455946e+01 2.011756e+00 1.348435e+00 1.793597e+00 2.078777e+00 3.665031e+00 5.549179e+00 2.492548e+00 2.411633e+00 2.070397e+00 2.320416e+00 1.565981e+00 1.066191e+00 1.278107e+00 9.912974e-02 2.180900e-01 2.212599e-01 3.837566e-01 4.630317e-01 3.622930e-01 2.485440e-01 3.932175e-01 2.852889e-01 2.913968e-01 2.913789e-01 1.768896e-01 2.007580e-01
<GCONST> 1.056247e+02
<MIXTURE> 2 5.000000e-01
<MEAN> 39
 7.276704e+00 8.253370e+00 5.768763e+00 1.563394e+01 1.303835e+01 3.628421e+00 -2.727198e+00 1.464442e+01 7.077506e+00 -6.189003e+00 -5.569607e+00 -4.312543e+00 -3.665771e-01 1.891615e+00 -2.690222e+00 -2.895504e+00 -1.381897e+00 -1.401728e+00 -3.309973e+00 -2.575390e+00 8.373585e-01 1.670601e-01 -1.570750e+00 6.473726e-01 8.135279e-01 4.059982e-01 5.317942e-01 -2.150841e-03 -1.321521e-01 -3.677164e-01 -5.767869e-01 -6.859676e-01 -2.685853e-01 8.008016e-02 -3.303330e-01 -3.929289e-01 2.589776e-01 5.618472e-02 -4.027399e-01
<VARIANCE> 39
 2.695811e+01 3.548519e+01 3.101202e+01 2.048864e+01 2.915660e+01 6.933025e+01 4.011877e+01 1.765403e+01 2.296807e+01 2.073032e+01 1.839093e+01 1.520509e+01 1.455946e+01 2.011756e+00 1.348435e+00 1.793597e+00 2.078777e+00 3.665031e+00 5.549179e+00 2.492548e+00 2.411633e+00 2.070397e+00 2.320416e+00 1.565981e+00 1.066191e+00 1.278107e+00 9.912974e-02 2.180900e-01 2.212599e-01 3.837566e-01 4.630317e-01 3.622930e-01 2.485440e-01 3.932175e-01 2.852889e-01 2.913968e-01 2.913789e-01 1.768896e-01 2.007580e-01
<GCONST> 1.056247e+02
<TRANSP> 5
 0.000000e+00 1.000000e+00 0.000000e+00 0.000000e+00 0.000000e+00
 0.000000e+00 8.826614e-01 1.173386e-01 0.000000e+00 0.000000e+00
 0.000000e+00 0.000000e+00 7.176948e-01 2.823052e-01 0.000000e+00
 0.000000e+00 0.000000e+00 0.000000e+00 6.819574e-01 3.180426e-01
 0.000000e+00 0.000000e+00 0.000000e+00 0.000000e+00 0.000000e+00
<ENDHMM>
~h "c"
<BEGINHMM>
<NUMSTATES> 5
<STATE> 2
<NUMMIXES> 2
<MIXTURE> 1 5.978393e-01
<MEAN> 39
 -9.981475e+00 -1.928154e+00 6.404283e+00 1.148080e+01 6.233734e+00 8.526391e+00 3.915206e-01 5.917652e+00 -1.440369e+00 -5.176809e+00 -4.497057e-01 -1.195324e-01 3.258205e+00 -1.827979e+00 -2.385072e+00 -1.689283e-01 -7.298099e-01 -1.535276e+00 -2.483449e-01 -3.258759e-01 -2.253668e-01 3.951557e-01 1.553732e-01 9.674609e-02 3.057055e-02 -5.724065e-02 1.255846e-01 -3.141662e-01 3.054509e-02 -1.446120e-01 -2.128333e-01 -1.605932e-01 -1.919295e-01 2.922400e-02 -3.102418e-02 -1.300736e-01 1.357675e-01 4.538899e-02 -1.595333e-01
<VARIANCE> 39
 1.491982e+02 1.687965e+02 8.766917e+01 6.609539e+01 6.114928e+01 6.108836e+01 4.128220e+01 5.293806e+01 4.815562e+01 4.874067e+01 4.218625e+01 2.334461e+01 2.919148e+01 2.420838e+00 1.028833e+01 3.834692e+00 3.381618e+00 3.379131e+00 3.074989e+00 2.855976e+00 2.611377e+00 2.305212e+00 2.657136e+00 2.634965e+00 1.711048e+00 2.133229e+00 2.320234e-01 6.749434e-01 5.224342e-01 4.217293e-01 3.360800e-01 4.471853e-01 3.349890e-01 3.652854e-01 3.830380e-01 3.614369e-01 3.680262e-01 2.894903e-01 3.304466e-01
<GCONST> 1.259357e+02
<MIXTURE> 2 4.021591e-01
<MEAN> 39
 -1.638997e+01 -4.026991e+01 2.298444e+01 8.135507e+00 -1.311201e+01 8.349251e+00 -8.769028e+00 6.914674e+00 2.919621e-01 -1.060774e+01 5.596629e+00 2.505065e+00 2.330621e-01 2.188507e-01 -1.765141e+00 1.354486e+00 -1.930427e-01 -2.451390e-01 2.433720e-01 -9.747134e-01 -1.406992e-01 -2.878622e-01 -3.265096e-02 8.365290e-01 3.455892e-01 -1.497477e-01 1.803827e-01 6.946918e-01 -4.263248e-01 2.165939e-01 6.214039e-01 2.202290e-01 1.988095e-01 -1.725986e-01 6.051805e-03 2.615620e-01 -1.690979e-01 -4.836556e-02 2.111452e-01
<VARIANCE> 39
 1.472950e+01 4.924719e+01 7.143287e+01 2.698230e+01 2.771638e+01 2.072700e+01 3.194481e+01 2.703443e+01 3.840868e+01 2.076270e+01 3.133236e+01 1.533895e+01 8.939407e+00 2.080480e+00 6.858286e+00 7.621951e+00 1.695148e+00 4.539792e+00 2.337784e+00 1.995384e+00 2.220512e+00 1.659366e+00 2.368891e+00 1.633820e+00 1.799695e+00 1.276206e+00 4.026329e-01 6.968992e-01 9.307054e-01 2.540101e-01 3.539217e-01 3.899321e-01 2.669762e-01 3.505901e-01 2.973254e-01 3.175516e-01 2.424542e-01 3.264356e-01 1.876670e-01
<GCONST> 1.121163e+02
<STATE> 3
<NUMMIXES> 2
<MIXTURE> 1 6.302601e-01
<MEAN> 39
 -1.570276e+01 -3.765649e+01 1.157433e+01 1.153709e+01 -2.416018e+00 9.542768e+00 -1.224566e+01 1.025386e+00 4.940406e+00 -5.153926e+00 4.042014e-01 2.747247e+00 3.684455e+00 1.142889e+00 -1.999762e-01 5.961248e-01 7.870246e-01 6.111654e-01 1.062163e+00 1.471453e-01 -3.089240e-01 2.930569e-01 1.234522e-01 1.571101e-01 2.055056e-01 1.699105e-04 2.336605e-01 5.281749e-01 -1.861041e-03 1.952246e-03 1.220388e-02 -3.050829e-02 1.325609e-01 4.787509e-03 -4.043694e-02 -4.797363e-02 -1.858811e-02 -4.482237e-02 -1.270344e-01
<VARIANCE> 39
 3.299449e+01 1.481997e+02 1.415325e+02 2.895461e+01 3.483691e+01 7.168092e+01 4.662879e+01 2.977168e+01 3.309724e+01 2.480176e+01 4.723347e+01 2.377000e+01 1.748176e+01 2.835306e+00 1.177474e+01 5.752237e+00 2.268855e+00 2.897618e+00 2.190430e+00 3.249527e+00 1.585442e+00 2.114845e+00 2.125667e+00 1.966120e+00 1.568636e+00 1.684640e+00 3.883724e-01 7.244339e-01 5.774459e-01 2.739961e-01 3.429920e-01 4.489550e-01 4.081788e-01 2.755627e-01 3.085510e-01 3.815072e-01 3.413322e-01 3.004216e-01 2.925315e-01
<GCONST> 1.200454e+02
<MIXTURE> 2 3.697389e-01
<MEAN> 39
 -2.656875e+01 -6.556991e+00 -5.199523e+00 -2.586750e+00 -3.419374e+00 5.111415e-01 -3.626096e+00 1.524602e+00 -1.302926e+00 -6.340512e-01 3.906230e-01 -7.834893e-01 6.647895e-01 2.242110e-02 -3.523498e-01 -1.179201e-01 2.041806e-01 1.001447e-01 -1.567512e-01 -1.347600e-01 5.970312e-02 2.746006e-02 -1.340978e-01 -1.717937e-01 5.656840e-02 1.838463e-01 1.176251e-01 -1.733686e-01 2.919661e-02 2.372564e-01 1.617943e-01 5.973980e-02 -6.820894e-03 5.759356e-02 6.357376e-02 -6.878560e-02 -1.032153e-01 5.512554e-02 1.589265e-01
<VARIANCE> 39
 6.003191e-01 1.813029e+00 1.745147e+00 3.557220e+00 4.294204e+00 5.478661e+00 6.365382e+00 6.369408e+00 7.518852e+00 7.646019e+00 6.919244e+00 6.241757e+00 5.686690e+00 1.767536e-01 8.951926e-01 4.010935e-01 1.032159e+00 9.274464e-01 9.320312e-01 1.095577e+00 1.104248e+00 1.287355e+00 1.276790e+00 1.193136e+00 9.789879e-01 1.184706e+00 4.737034e-02 1.957066e-01 1.106727e-01 1.995130e-01 1.943681e-01 2.092666e-01 2.269433e-01 2.483204e-01 2.656362e-01 2.684912e-01 2.456254e-01 1.968712e-01 2.068492e-01
<GCONST> 6.632675e+01
<STATE> 4
<NUMMIXES> 2
<MIXTURE> 1 9.962988e-01
<MEAN> 39
 6.361959e+00 -1.956638e+01 1.239054e+01 1.648428e+01 4.589787e+00 1.256364e+01 -8.729692e+00 1.496207e+00 2.090199e+00 -9.185218e+00 2.194367e+00 3.894609e+00 1.460429e+00 4.190928e+00 3.779155e+00 -3.506704e+00 4.655500e-01 1.831107e+00 -3.048396e+00 -1.186254e+00 8.895048e-01 -9.291859e-01 -1.979763e+00 -3.720751e-01 -1.195572e-01 -5.208959e-01 -3.700456e-01 -8.139657e-01 -5.478933e-01 -3.432415e-01 9.678379e-04 -8.371511e-01 -5.954800e-01 5.478318e-01 -2.627177e-01 -3.772552e-01 3.116843e-01 -1.820858e-02 -5.229127e-02
<VARIANCE> 39
 1.053387e+02 9.736916e+01 8.008237e+01 2.827799e+01 4.238595e+01 8.248242e+01 4.138147e+01 3.422149e+01 2.146389e+01 3.961558e+01 3.421289e+01 1.642155e+01 1.321786e+01 4.045481e+00 6.074806e+00 7.826070e+00 1.737536e+00 2.042072e+00 5.693939e+00 3.319082e+00 4.319900e+00 1.990877e+00 3.278038e+00 2.060275e+00 1.072109e+00 1.164571e+00 5.241489e-01 4.486110e-01 7.298415e-01 1.439033e-01 2.050872e-01 7.485585e-01 6.610150e-01 3.807437e-01 2.871427e-01 4.774183e-01 2.952068e-01 1.773811e-01 1.152433e-01
<GCONST> 1.194080e+02
<MIXTURE> 2 3.701186e-03
<MEAN> 39
 -1.599701e+01 -4.374184e+01 2.025483e+01 6.677389e+00 -9.292378e+00 1.116258e+01 -1.405912e+01 9.189928e-01 4.429359e+00 -6.095321e+00 6.408114e+00 1.156659e+00 -3.023298e+00 1.347354e-01 3.672886e-01 -1.392781e+00 -2.326508e-01 1.981070e-01 1.420147e-01 4.731945e-01 -1.398638e+00 -3.261250e-02 5.409142e-01 4.864610e-03 9.575149e-02 -7.089067e-01 -5.905810e-02 -9.152869e-03 -8.964097e-02 -2.338629e-02 5.493348e-02 -1.003472e-01 1.790635e-01 1.625080e-01 -6.964363e-03 1.217023e-01 1.544097e-01 2.944933e-01 1.435366e-01
<VARIANCE> 39
 8.598517e-01 1.539330e+01 3.906893e+00 3.784820e+00 4.660553e+00 2.020233e+00 3.888264e-01 2.029369e+00 5.522993e+00 2.004001e-01 1.278382e+01 1.675965e+01 2.284902e-02 6.659716e-02 3.534035e+00 4.374012e-01 4.516262e-01 4.517537e-01 9.363234e-02 3.176186e-01 1.951818e+00 1.680985e-01 1.086072e-02 2.146290e-01 4.220408e-01 9.291826e-03 1.904628e-03 7.996178e-04 5.540152e-03 4.462673e-03 7.569444e-04 5.904940e-03 1.107467e-03 3.232404e-02 9.535489e-03 8.520070e-02 1.836672e-02 9.824395e-02 1.283813e-02
<GCONST> -3.793111e+00
<TRANSP> 5
 0.000000e+00 1.000000e+00 0.000000e+00 0.000000e+00 0.000000e+00
 0.000000e+00 9.110377e-01 8.896227e-02 0.000000e+00 0.000000e+00
 0.000000e+00 0.000000e+00 9.366181e-01 6.338181e-02 0.000000e+00
 0.000000e+00 0.000000e+00 0.000000e+00 7.168584e-01 2.831416e-01
 0.000000e+00 0.000000e+00 0.000000e+00 0.000000e+00 0.000000e+00
<ENDHMM>
~h "d"
<BEGINHMM>
<NUMSTATES> 5
<STATE> 2
<NUMMIXES> 2
<MIXTURE> 1 5.000000e-01
<MEAN> 39
 1.926324e+00 1.610930e+01 1.453721e+01 1.707478e+01 1.397414e+01 1.238943e+01 5.110530e+00 9.734464e+00 -1.948809e-01 -5.331537e+00 -3.204681e+00 -3.289641e+00 -1.696572e+00 -4.465224e-01 8.388311e-02 2.976336e-01 1.739370e-01 2.083656e-01 5.624722e-01 3.459811e-01 -4.273081e-02 3.320703e-01 5.653648e-01 7.698293e-02 2.496615e-02 2.019820e-01 5.017567e-02 -3.860179e-01 -2.393385e-01 2.114078e-02 1.986010e-02 -1.057621e-01 -1.220016e-01 6.152342e-02 4.458706e-02 -4.804446e-04 7.707436e-02 -1.090470e-03 6.953297e-02
<VARIANCE> 39
 4.012197e+01 2.780326e+01 2.491596e+01 1.778965e+01 2.095922e+01 3.536723e+01 1.631568e+01 2.336005e+01 2.163758e+01 3.917950e+01 2.102715e+01 1.209738e+01 1.393464e+01 7.683344e-01 2.712792e+00 1.834992e+00 1.010266e+00 1.052941e+00 1.410005e+00 1.038188e+00 1.409595e+00 1.085797e+00 1.361449e+00 9.843581e-01 8.856311e-01 1.245839e+00 6.251332e-02 2.390265e-01 2.244086e-01 1.548874e-01 1.537123e-01 1.490585e-01 1.546808e-01 1.478808e-01 1.557634e-01 1.948385e-01 1.805737e-01 1.322801e-01 1.578637e-01
<GCONST> 9.066460e+01
<MIXTURE> 2 5.000000e-01
<MEAN> 39
 1.926324e+00 1.610930e+01 1.453721e+01 1.707478e+01 1.397414e+01 1.238943e+01 5.110530e+00 9.734464e+00 -1.948809e-01 -5.331537e+00 -3.204681e+00 -3.289641e+00 -1.696572e+00 -4.465224e-01 8.388311e-02 2.976336e-01 1.739370e-01 2.083656e-01 5.624722e-01 3.459811e-01 -4.273081e-02 3.320703e-01 5.653648e-01 7.698293e-02 2.496615e-02 2.019820e-01 5.017567e-02 -3.860179e-01 -2.393385e-01 2.114078e-02 1.986010e-02 -1.057621e-01 -1.220016e-01 6.152342e-02 4.458706e-02 -4.804446e-04 7.707436e-02 -1.090470e-03 6.953297e-02
<VARIANCE> 39
 4.012197e+01 2.780326e+01 2.491596e+01 1.778965e+01 2.095922e+01 3.536723e+01 1.631568e+01 2.336005e+01 2.163758e+01 3.917950e+01 2.102715e+01 1.209738e+01 1.393464e+01 7.683344e-01 2.712792e+00 1.834992e+00 1.010266e+00 1.052941e+00 1.410005e+00 1.038188e+00 1.409595e+00 1.085797e+00 1.361449e+00 9.843581e-01 8.856311e-01 1.245839e+00 6.251332e-02 2.390265e-01 2.244086e-01 1.548874e-01 1.537123e-01 1.490585e-01 1.546808e-01 1.478808e-01 1.557634e-01 1.948385e-01 1.805737e-01 1.322801e-01 1.578637e-01
<GCONST> 9.066460e+01
<STATE> 3
<NUMMIXES> 2
<MIXTURE> 1 5.000000e-01
<MEAN> 39
 6.776499e-01 2.965825e+00 7.084354e+00 1.749808e+01 1.436636e+01 1.172716e+01 3.030602e+00 1.065115e+01 2.565744e+00 -1.950176e+00 -5.866120e-01 -3.370047e+00 2.801620e+00 1.303724e+00 -3.784867e+00 -2.232890e+00 -8.812059e-01 -1.025445e+00 -1.100482e+00 -1.280047e+00 2.196954e-01 -1.001674e+00 -5.850268e-01 1.919012e+00 -2.553730e-01 -1.717587e-01 5.787591e-01 2.144869e-02 7.228096e-02 -2.704692e-01 -2.469524e-01 -2.934061e-01 -3.487152e-01 -8.660616e-02 -8.013234e-01 -7.521721e-01 4.290172e-01 3.652168e-02 -4.742312e-01
<VARIANCE> 39
 3.204699e+01 6.718842e+01 3.814537e+01 3.314424e+01 3.390809e+01 2.302471e+01 3.143118e+01 3.313037e+01 3.530818e+01 3.181679e+01 3.820227e+01 2.776442e+01 2.634912e+01 1.778499e+00 2.876515e+00 1.831538e+00 2.243287e+00 3.241338e+00 2.115709e+00 3.164468e+00 1.905726e+00 4.944078e+00 4.350414e+00 3.773269e+00 1.879759e+00 2.571251e+00 1.279458e-01 4.918234e-01 3.965978e-01 4.323424e-01 5.888176e-01 3.410047e-01 3.692601e-01 3.365701e-01 5.010316e-01 6.425536e-01 5.762771e-01 3.524175e-01 3.259482e-01
<GCONST> 1.180361e+02
<MIXTURE> 2 5.000000e-01
<MEAN> 39
 6.776499e-01 2.965825e+00 7.084354e+00 1.749808e+01 1.436636e+01 1.172716e+01 3.030602e+00 1.065115e+01 2.565744e+00 -1.950176e+00 -5.866120e-01 -3.370047e+00 2.801620e+00 1.303724e+00 -3.784867e+00 -2.232890e+00 -8.812059e-01 -1.025445e+00 -1.100482e+00 -1.280047e+00 2.196954e-01 -1.001674e+00 -5.850268e-01 1.919012e+00 -2.553730e-01 -1.717587e-01 5.787591e-01 2.144869e-02 7.228096e-02 -2.704692e-01 -2.469524e-01 -2.934061e-01 -3.487152e-01 -8.660616e-02 -8.013234e-01 -7.521721e-01 4.290172e-01 3.652168e-02 -4.742312e-01
<VARIANCE> 39
 3.204699e+01 6.718842e+01 3.814537e+01 3.314424e+01 3.390809e+01 2.302471e+01 3.143118e+01 3.313037e+01 3.530818e+01 3.181679e+01 3.820227e+01 2.776442e+01 2.634912e+01 1.778499e+00 2.876515e+00 1.831538e+00 2.243287e+00 3.241338e+00 2.115709e+00 3.164468e+00 1.905726e+00 4.944078e+00 4.350414e+00 3.773269e+00 1.879759e+00 2.571251e+00 1.279458e-01 4.918234e-01 3.965978e-01 4.323424e-01 5.888176e-01 3.410047e-01 3.692601e-01 3.365701e-01 5.010316e-01 6.425536e-01 5.762771e-01 3.524175e-01 3.259482e-01
<GCONST> 1.180361e+02
<STATE> 4
<NUMMIXES> 2
<MIXTURE> 1 5.000000e-01
<MEAN> 39
 1.268782e+01 -5.968719e+00 2.199574e+00 1.285480e+01 4.789569e+00 3.033701e+00 1.774083e+00 1.489804e+01 -8.052777e+00 -1.224106e+01 7.802859e+00 -1.605592e+00 1.907650e+00 1.636490e+00 -3.272075e-01 -1.406299e-01 -1.367296e-01 -8.536483e-02 -1.261695e+00 -1.418086e+00 2.087599e-01 -8.981323e-01 -1.925271e+00 1.251332e-01 1.536695e-01 -4.888884e-01 -1.777489e-01 5.769123e-01 2.298255e-01 2.941304e-01 4.981583e-01 -1.347569e-01 -3.473663e-01 7.173681e-02 6.121126e-01 4.809918e-02 -5.693344e-01 1.715338e-02 -6.546824e-02
<VARIANCE> 39
 3.269866e+01 5.901493e+01 2.114684e+01 2.711670e+01 7.084980e+01 5.632073e+01 7.186069e+01 5.365360e+01 3.642481e+01 4.279100e+01 5.396250e+01 3.639241e+01 3.103033e+01 2.699562e+00 4.346278e+00 1.701372e+00 1.256730e+00 2.238384e+00 3.291260e+00 4.930250e+00 2.290396e+00 7.653327e+00 5.831639e+00 7.201170e+00 2.024502e+00 1.690148e+00 1.353521e-01 6.472836e-01 4.180899e-01 3.467805e-01 4.274861e-01 3.922640e-01 4.194098e-01 3.849517e-01 1.086833e+00 5.038758e-01 9.171968e-01 3.068980e-01 2.376128e-01
<GCONST> 1.238763e+02
<MIXTURE> 2 5.000000e-01
<MEAN> 39
 1.268782e+01 -5.968719e+00 2.199574e+00 1.285480e+01 4.789569e+00 3.033701e+00 1.774083e+00 1.489804e+01 -8.052777e+00 -1.224106e+01 7.802859e+00 -1.605592e+00 1.907650e+00 1.636490e+00 -3.272075e-01 -1.406299e-01 -1.367296e-01 -8.536483e-02 -1.261695e+00 -1.418086e+00 2.087599e-01 -8.981323e-01 -1.925271e+00 1.251332e-01 1.536695e-01 -4.888884e-01 -1.777489e-01 5.769123e-01 2.298255e-01 2.941304e-01 4.981583e-01 -1.347569e-01 -3.473663e-01 7.173681e-02 6.121126e-01 4.809918e-02 -5.693344e-01 1.715338e-02 -6.546824e-02
<VARIANCE> 39
 3.269866e+01 5.901493e+01 2.114684e+01 2.711670e+01 7.084980e+01 5.632073e+01 7.186069e+01 5.365360e+01 3.642481e+01 4.279100e+01 5.396250e+01 3.639241e+01 3.103033e+01 2.699562e+00 4.346278e+00 1.701372e+00 1.256730e+00 2.238384e+00 3.291260e+00 4.930250e+00 2.290396e+00 7.653327e+00 5.831639e+00 7.201170e+00 2.024502e+00 1.690148e+00 1.353521e-01 6.472836e-01 4.180899e-01 3.467805e-01 4.274861e-01 3.922640e-01 4.194098e-01 3.849517e-01 1.086833e+00 5.038758e-01 9.171968e-01 3.068980e-01 2.376128e-01
<GCONST> 1.238763e+02
<TRANSP> 5
 0.000000e+00 1.000000e+00 0.000000e+00 0.000000e+00 0.000000e+00
 0.000000e+00 9.075934e-01 9.240662e-02 0.000000e+00 0.000000e+00
 0.000000e+00 0.000000e+00 7.680811e-01 2.319189e-01 0.000000e+00
 0.000000e+00 0.000000e+00 0.000000e+00 7.323104e-01 2.676896e-01
 0.000000e+00 0.000000e+00 0.000000e+00 0.000000e+00 0.000000e+00
<ENDHMM>
~h "f"
<BEGINHMM>
<NUMSTATES> 5
<STATE> 2
<NUMMIXES> 2
<MIXTURE> 1 1.000000e+00
<MEAN> 39
 2.158750e+01 -5.293841e+00 -1.262331e+01 7.855200e+00 -1.864535e+00 -2.886207e+01 -1.786226e+01 2.571913e+01 1.837827e+01 -9.033669e+00 -3.298157e+00 2.811869e+00 -6.572412e-01 -5.017909e-01 1.406633e-02 2.732668e-01 -7.780003e-01 -4.651466e-01 7.358011e-03 3.152997e-01 -3.276336e-01 4.302503e-01 7.221071e-01 -1.605202e-01 5.163909e-02 1.203064e-01 6.275843e-01 -1.024647e-03 -3.595228e-01 1.660245e-01 1.357324e-01 -1.733587e-01 -9.966278e-02 6.052448e-01 -3.065918e-01 -6.482466e-01 4.036211e-01 1.512483e-01 -1.935607e-01
<VARIANCE> 39
 1.512431e+01 8.648262e+00 8.285818e+01 4.462571e+00 1.937515e+01 1.518908e+01 8.941138e+00 1.766278e+01 7.296784e+00 1.389921e+01 5.089213e+00 2.657184e+00 6.208320e+00 2.017777e+00 1.006117e-02 1.746852e+00 2.891142e-01 1.022470e+00 8.979977e-01 1.072919e+00 3.899052e+00 3.848964e-01 1.403571e+00 2.229784e+00 9.382496e-02 1.424742e+00 4.292480e-02 3.111880e-02 1.300362e-01 7.394241e-03 2.955751e-01 2.103309e-02 1.826002e-01 1.093328e-01 2.554670e-02 1.509517e-01 7.084774e-03 1.610325e-02 4.483374e-02
<GCONST> 5.689839e+01
<MIXTURE> 2 0.000000e+00
<MEAN> 39
 -1.585175e+01 -1.551351e+00 7.729309e+00 -7.243529e+00 1.722945e+01 -4.595492e+00 8.562895e+00 -3.340965e+00 3.503048e+00 -4.349793e+00 2.257324e+00 -9.441703e-01 1.405435e+00 -2.463601e+00 -8.618322e-01 -7.031665e-01 -4.471729e-01 2.791805e-01 3.659815e-01 -1.137626e-01 -3.731829e-01 -3.769362e-02 -3.910118e-02 3.242532e-01 -1.921992e-02 3.981748e-01 4.077158e-01 -1.006740e-01 -2.800901e-01 -9.457918e-02 -3.625076e-01 -3.459834e-01 -2.940953e-01 2.188951e-02 -1.688870e-01 -1.846896e-01 -1.475902e-01 -2.191112e-03 -1.261082e-01
<VARIANCE> 39
 3.794474e+01 3.006912e+01 3.696891e+01 3.629724e+01 4.906600e+01 3.866109e+01 4.917469e+01 3.866268e+01 3.933981e+01 3.216502e+01 2.111969e+01 2.085070e+01 1.584314e+01 1.946436e+00 1.199190e+00 1.955029e+00 2.033741e+00 2.686450e+00 2.348367e+00 2.500819e+00 2.211571e+00 1.997479e+00 1.933216e+00 1.770481e+00 1.567442e+00 1.408696e+00 2.019766e-01 2.254066e-01 2.903521e-01 2.933460e-01 3.599655e-01 3.714276e-01 4.149454e-01 4.019520e-01 3.977194e-01 3.726283e-01 3.362232e-01 2.893453e-01 2.591272e-01
<GCONST> 1.105595e+02
<STATE> 3
<NUMMIXES> 2
<MIXTURE> 1 1.000000e+00
<MEAN> 39
 1.928523e+01 -5.579307e+00 -1.087395e+01 5.830176e+00 -4.413072e+00 -2.812620e+01 -1.622672e+01 2.376480e+01 1.961165e+01 -6.791782e+00 -5.180827e+00 2.531221e+00 7.921568e-01 5.281041e-01 -2.628323e-01 -1.437618e-01 -2.060122e-01 -6.764185e-01 -1.407370e-01 3.494208e-01 4.159498e-01 -3.587297e-01 -2.653607e-01 4.089535e-01 -3.738103e-02 -1.598128e-01 7.643753e-01 -1.118598e-01 -3.349532e-01 3.880204e-01 1.350370e-01 -1.943354e-01 -1.447725e-01 6.270167e-01 -4.420382e-01 -6.139072e-01 5.405294e-01 -2.846200e-02 -2.254505e-01
<VARIANCE> 39
 4.871970e+00 7.483770e+00 5.545139e+01 2.364177e+01 1.250270e+01 5.364648e+01 3.286335e+01 3.402816e+00 6.021397e+00 2.314575e+00 1.318522e+01 5.476329e+00 4.229480e-01 1.203933e+00 1.834290e-01 9.284734e-01 3.274143e-01 1.374275e+00 1.272750e+00 1.256018e+00 2.515779e+00 3.282566e-01 7.501765e-01 1.902340e+00 1.385088e-01 1.166435e+00 1.801740e-01 3.145225e-02 3.230571e-01 1.587198e-02 3.645662e-01 3.597049e-02 1.425861e-01 3.507901e-01 1.635070e-03 2.107834e-01 1.122442e-01 4.398662e-03 1.529415e-01
<GCONST> 6.091825e+01
<MIXTURE> 2 0.000000e+00
<MEAN> 39
 -2.546515e+01 -5.316592e+00 5.182599e-01 -1.014452e+01 1.336730e+01 -4.508892e+00 4.143860e+00 -4.057298e+00 1.675601e+00 -5.046123e+00 2.272683e+00 -1.283370e+00 2.229477e+00 -1.519309e-01 -3.431510e-01 -2.302347e-01 -2.690792e-01 -1.743130e-01 -7.424696e-02 -3.065879e-02 -5.297905e-02 3.275013e-02 -3.512295e-02 8.244935e-02 3.946884e-02 7.528704e-02 2.312994e-01 2.895865e-02 1.394252e-01 3.060656e-02 6.189735e-02 -5.252600e-03 9.213040e-02 -9.943989e-03 4.179194e-02 1.035141e-04 3.644056e-02 5.465960e-03 1.392528e-02
<VARIANCE> 39
 1.176915e+01 2.009933e+01 2.096771e+01 2.293049e+01 2.208943e+01 2.328727e+01 2.455520e+01 2.513758e+01 2.492216e+01 2.296042e+01 1.801677e+01 1.398869e+01 1.294775e+01 9.981425e-01 6.281391e-01 9.135668e-01 1.018384e+00 1.192862e+00 1.366520e+00 1.546908e+00 1.590251e+00 1.575584e+00 1.404581e+00 1.335052e+00 1.189907e+00 1.009449e+00 1.105499e-01 1.091064e-01 1.587749e-01 1.862282e-01 2.259963e-01 2.640838e-01 2.930050e-01 3.118650e-01 3.037787e-01 2.800012e-01 2.679037e-01 2.386677e-01 2.069542e-01
<GCONST> 9.260374e+01
<STATE> 4
<NUMMIXES> 2
<MIXTURE> 1 1.000000e+00
<MEAN> 39
 2.338786e+01 -6.100574e+00 -1.236169e+01 7.244890e+00 -4.747550e+00 -2.850686e+01 -1.545530e+01 2.639698e+01 1.658602e+01 -9.187890e+00 -1.677851e+00 2.252721e+00 -4.320853e-01 1.185277e+00 -4.051068e-01 -3.116805e-01 1.158219e-01 -4.225091e-01 -2.799304e-01 1.574179e-02 9.294320e-01 -5.261788e-01 -7.447151e-01 7.456731e-01 -1.201932e-01 -1.856655e-01 4.193090e-01 -4.740271e-02 -2.021371e-01 2.786858e-01 1.374098e-01 -9.920474e-02 -1.046979e-01 3.069890e-01 -2.815611e-01 -2.860802e-01 3.096482e-01 -1.084658e-01 -1.527175e-01
<VARIANCE> 39
 4.138215e+00 1.100303e+01 6.025445e+01 2.493550e+01 5.196935e+01 7.940556e+01 3.275834e+01 1.187030e+01 3.894186e+00 6.521821e+00 2.430514e+01 4.931417e+00 2.553037e+00 4.646601e-01 2.371110e-01 5.521439e-01 2.243439e-01 1.923101e+00 7.663381e-01 9.394143e-01 8.889082e-01 4.943813e-01 4.096273e-01 1.134104e+00 2.905424e-01 4.134944e-01 9.082368e-02 9.331767e-04 2.075403e-01 1.755052e-02 1.613735e-01 1.817034e-02 2.525442e-02 1.679956e-01 1.228849e-02 8.487950e-02 1.019219e-01 2.757648e-03 1.219986e-01
<GCONST> 5.494858e+01
<MIXTURE> 2 0.000000e+00
<MEAN> 39
 -1.919306e+01 -9.236015e+00 3.689552e+00 -1.223476e+01 1.489335e+01 -6.318414e+00 7.143879e+00 -6.103525e+00 3.174531e+00 -6.095226e+00 4.311400e+00 -2.684157e-01 3.222131e+00 2.403928e+00 6.682029e-01 1.196788e+00 8.050752e-01 2.333375e-01 1.086554e-01 -3.363338e-03 2.492941e-01 -2.023524e-01 1.609932e-01 -2.533848e-01 3.826904e-02 -4.694991e-01 5.983038e-01 5.120639e-01 1.572707e-01 3.195376e-01 -1.208165e-01 -2.085501e-01 -3.490097e-01 1.940116e-01 -1.673514e-01 -7.740311e-02 -3.054772e-01 -1.087985e-01 -3.564875e-01
<VARIANCE> 39
 3.042087e+01 2.921870e+01 3.283026e+01 3.405130e+01 4.104346e+01 3.583276e+01 4.287782e+01 3.903381e+01 3.163493e+01 3.066770e+01 2.307189e+01 1.659729e+01 1.461290e+01 2.254787e+00 2.112019e+00 1.727328e+00 2.238523e+00 2.263419e+00 2.361685e+00 2.342651e+00 2.605778e+00 2.095444e+00 2.131377e+00 2.099487e+00 1.836933e+00 1.663770e+00 2.622992e-01 2.496722e-01 3.391603e-01 3.445290e-01 4.448123e-01 5.514072e-01 5.425829e-01 4.482497e-01 4.572209e-01 4.257733e-01 3.892074e-01 3.408262e-01 2.868415e-01
<GCONST> 1.128664e+02
<TRANSP> 5
 0.000000e+00 1.000000e+00 0.000000e+00 0.000000e+00 0.000000e+00
 0.000000e+00 2.499998e-01 7.500001e-01 0.000000e+00 0.000000e+00
 0.000000e+00 0.000000e+00 0.000000e+00 1.000000e+00 0.000000e+00
 0.000000e+00 0.000000e+00 0.000000e+00 2.600837e-30 1.000000e+00
 0.000000e+00 0.000000e+00 0.000000e+00 0.000000e+00 0.000000e+00
<ENDHMM>
~h "g"
<BEGINHMM>
<NUMSTATES> 5
<STATE> 2
<NUMMIXES> 2
<MIXTURE> 1 5.000000e-01
<MEAN> 39
 4.590587e+00 1.850004e+01 1.535743e+01 1.689041e+01 1.398193e+01 1.162746e+01 2.092331e+00 5.517201e+00 -2.639500e+00 -5.850510e+00 -4.707387e+00 -6.895650e+00 -5.621162e+00 -7.616615e-01 1.092149e-01 3.820409e-01 -1.228279e-01 1.013572e-01 8.444462e-01 6.919130e-01 1.553036e-01 1.679318e-01 3.297086e-01 1.262151e-02 -2.197252e-01 1.491387e-02 6.551440e-02 -3.041319e-01 -3.033418e-01 -1.681402e-01 -1.693201e-01 -2.197939e-01 -4.228780e-02 2.794305e-01 1.427805e-01 -2.285802e-02 1.698981e-01 1.343066e-01 4.129483e-02
<VARIANCE> 39
 1.612477e+01 1.163016e+01 1.675425e+01 9.199594e+00 1.560210e+01 2.171110e+01 2.419037e+01 2.298016e+01 2.083709e+01 2.210123e+01 1.368581e+01 1.607971e+01 1.178257e+01 3.509652e-01 1.144014e+00 1.382004e+00 8.696814e-01 1.090725e+00 1.662641e+00 1.042806e+00 1.466250e+00 9.962599e-01 9.817764e-01 1.270077e+00 1.426277e+00 8.048355e-01 4.092981e-02 1.518179e-01 2.004730e-01 1.564420e-01 1.761432e-01 2.036417e-01 1.332875e-01 1.670407e-01 1.332804e-01 1.520362e-01 1.669936e-01 1.443025e-01 1.132842e-01
<GCONST> 8.325567e+01
<MIXTURE> 2 5.000000e-01
<MEAN> 39
 4.590587e+00 1.850004e+01 1.535743e+01 1.689041e+01 1.398193e+01 1.162746e+01 2.092331e+00 5.517201e+00 -2.639500e+00 -5.850510e+00 -4.707387e+00 -6.895650e+00 -5.621162e+00 -7.616615e-01 1.092149e-01 3.820409e-01 -1.228279e-01 1.013572e-01 8.444462e-01 6.919130e-01 1.553036e-01 1.679318e-01 3.297086e-01 1.262151e-02 -2.197252e-01 1.491387e-02 6.551440e-02 -3.041319e-01 -3.033418e-01 -1.681402e-01 -1.693201e-01 -2.197939e-01 -4.228780e-02 2.794305e-01 1.427805e-01 -2.285802e-02 1.698981e-01 1.343066e-01 4.129483e-02
<VARIANCE> 39
 1.612477e+01 1.163016e+01 1.675425e+01 9.199594e+00 1.560210e+01 2.171110e+01 2.419037e+01 2.298016e+01 2.083709e+01 2.210123e+01 1.368581e+01 1.607971e+01 1.178257e+01 3.509652e-01 1.144014e+00 1.382004e+00 8.696814e-01 1.090725e+00 1.662641e+00 1.042806e+00 1.466250e+00 9.962599e-01 9.817764e-01 1.270077e+00 1.426277e+00 8.048355e-01 4.092981e-02 1.518179e-01 2.004730e-01 1.564420e-01 1.761432e-01 2.036417e-01 1.332875e-01 1.670407e-01 1.332804e-01 1.520362e-01 1.669936e-01 1.443025e-01 1.132842e-01
<GCONST> 8.325567e+01
<STATE> 3
<NUMMIXES> 2
<MIXTURE> 1 5.000000e-01
<MEAN> 39
 4.285543e+00 1.011505e+01 5.567554e+00 7.048968e+00 8.875553e+00 1.240391e+01 5.209810e+00 1.307847e+01 -7.321746e-01 -7.798276e+00 -6.086142e-01 -5.415040e+00 -4.277092e+00 5.988461e-01 -1.828465e+00 -2.038614e+00 -1.655893e+00 -8.186886e-01 -2.620189e-01 -6.658828e-02 1.140232e+00 -8.433147e-02 -8.325319e-01 9.142203e-01 4.024914e-01 2.881026e-01 2.444463e-01 -4.363702e-02 1.443111e-03 2.239922e-01 1.108324e-01 -3.737404e-01 -5.057653e-01 -2.826678e-01 -1.784080e-01 -7.706437e-02 1.605184e-01 1.439607e-01 -3.219053e-02
<VARIANCE> 39
 4.623670e+01 7.661977e+01 8.358604e+01 1.179703e+02 9.687189e+01 5.102306e+01 4.953846e+01 9.466557e+01 7.934770e+01 8.017575e+01 4.212226e+01 2.520584e+01 2.574365e+01 1.999580e+00 2.895020e+00 3.879045e+00 8.898635e+00 6.568145e+00 4.375983e+00 3.612426e+00 5.146627e+00 4.564280e+00 3.942783e+00 3.300301e+00 1.816723e+00 1.934287e+00 1.983661e-01 4.324972e-01 8.072185e-01 1.644656e+00 1.152635e+00 6.981484e-01 4.251893e-01 8.049283e-01 6.806719e-01 6.010315e-01 5.026159e-01 2.534811e-01 2.730367e-01
<GCONST> 1.341839e+02
<MIXTURE> 2 5.000000e-01
<MEAN> 39
 4.285543e+00 1.011505e+01 5.567554e+00 7.048968e+00 8.875553e+00 1.240391e+01 5.209810e+00 1.307847e+01 -7.321746e-01 -7.798276e+00 -6.086142e-01 -5.415040e+00 -4.277092e+00 5.988461e-01 -1.828465e+00 -2.038614e+00 -1.655893e+00 -8.186886e-01 -2.620189e-01 -6.658828e-02 1.140232e+00 -8.433147e-02 -8.325319e-01 9.142203e-01 4.024914e-01 2.881026e-01 2.444463e-01 -4.363702e-02 1.443111e-03 2.239922e-01 1.108324e-01 -3.737404e-01 -5.057653e-01 -2.826678e-01 -1.784080e-01 -7.706437e-02 1.605184e-01 1.439607e-01 -3.219053e-02
<VARIANCE> 39
 4.623670e+01 7.661977e+01 8.358604e+01 1.179703e+02 9.687189e+01 5.102306e+01 4.953846e+01 9.466557e+01 7.934770e+01 8.017575e+01 4.212226e+01 2.520584e+01 2.574365e+01 1.999580e+00 2.895020e+00 3.879045e+00 8.898635e+00 6.568145e+00 4.375983e+00 3.612426e+00 5.146627e+00 4.564280e+00 3.942783e+00 3.300301e+00 1.816723e+00 1.934287e+00 1.983661e-01 4.324972e-01 8.072185e-01 1.644656e+00 1.152635e+00 6.981484e-01 4.251893e-01 8.049283e-01 6.806719e-01 6.010315e-01 5.026159e-01 2.534811e-01 2.730367e-01
<GCONST> 1.341839e+02
<STATE> 4
<NUMMIXES> 2
<MIXTURE> 1 5.000000e-01
<MEAN> 39
 1.090250e+00 1.037746e+01 8.826231e+00 1.102313e+01 9.764158e+00 9.916740e+00 2.853477e+00 1.134439e+01 2.995365e-01 -5.252731e+00 3.567130e-01 -3.508895e+00 -2.938905e+00 4.319903e-01 -1.719687e+00 -1.610478e+00 -1.287796e+00 -1.391823e+00 -1.720850e+00 -1.182024e+00 9.698741e-01 3.278300e-01 -1.814647e-01 1.482599e+00 6.870436e-01 6.836379e-02 3.728960e-01 -2.359949e-03 -4.867109e-02 -1.330740e-01 -1.585272e-01 -3.048823e-01 -4.028712e-01 -2.709485e-02 -1.513839e-01 -1.793276e-01 1.854627e-01 -1.671574e-01 -3.302577e-01
<VARIANCE> 39
 7.279325e+01 5.460019e+01 5.611778e+01 8.809253e+01 7.170106e+01 3.789053e+01 5.209747e+01 6.587817e+01 5.191607e+01 4.466462e+01 3.029686e+01 2.690704e+01 1.938635e+01 2.214401e+00 2.641096e+00 3.059265e+00 8.673377e+00 8.533936e+00 5.219433e+00 3.693411e+00 5.201571e+00 3.407841e+00 2.359876e+00 3.066077e+00 1.613801e+00 1.461201e+00 1.580880e-01 1.520525e-01 2.343429e-01 4.743473e-01 4.388258e-01 2.789330e-01 2.819609e-01 2.919394e-01 2.746237e-01 2.148420e-01 2.648338e-01 2.337968e-01 2.519488e-01
<GCONST> 1.202819e+02
<MIXTURE> 2 5.000000e-01
<MEAN> 39
 1.090250e+00 1.037746e+01 8.826231e+00 1.102313e+01 9.764158e+00 9.916740e+00 2.853477e+00 1.134439e+01 2.995365e-01 -5.252731e+00 3.567130e-01 -3.508895e+00 -2.938905e+00 4.319903e-01 -1.719687e+00 -1.610478e+00 -1.287796e+00 -1.391823e+00 -1.720850e+00 -1.182024e+00 9.698741e-01 3.278300e-01 -1.814647e-01 1.482599e+00 6.870436e-01 6.836379e-02 3.728960e-01 -2.359949e-03 -4.867109e-02 -1.330740e-01 -1.585272e-01 -3.048823e-01 -4.028712e-01 -2.709485e-02 -1.513839e-01 -1.793276e-01 1.854627e-01 -1.671574e-01 -3.302577e-01
<VARIANCE> 39
 7.279325e+01 5.460019e+01 5.611778e+01 8.809253e+01 7.170106e+01 3.789053e+01 5.209747e+01 6.587817e+01 5.191607e+01 4.466462e+01 3.029686e+01 2.690704e+01 1.938635e+01 2.214401e+00 2.641096e+00 3.059265e+00 8.673377e+00 8.533936e+00 5.219433e+00 3.693411e+00 5.201571e+00 3.407841e+00 2.359876e+00 3.066077e+00 1.613801e+00 1.461201e+00 1.580880e-01 1.520525e-01 2.343429e-01 4.743473e-01 4.388258e-01 2.789330e-01 2.819609e-01 2.919394e-01 2.746237e-01 2.148420e-01 2.648338e-01 2.337968e-01 2.519488e-01
<GCONST> 1.202819e+02
<TRANSP> 5
 0.000000e+00 1.000000e+00 0.000000e+00 0.000000e+00 0.000000e+00
 0.000000e+00 8.357559e-01 1.642440e-01 0.000000e+00 0.000000e+00
 0.000000e+00 0.000000e+00 6.572669e-01 3.427331e-01 0.000000e+00
 0.000000e+00 0.000000e+00 0.000000e+00 4.938353e-01 5.061647e-01
 0.000000e+00 0.000000e+00 0.000000e+00 0.000000e+00 0.000000e+00
<ENDHMM>
~h "h"
<BEGINHMM>
<NUMSTATES> 5
<STATE> 2
<NUMMIXES> 2
<MIXTURE> 1 6.565365e-01
<MEAN> 39
 1.378254e+01 -6.601526e+00 -6.073927e+00 1.016863e+01 9.644830e+00 5.315165e+00 -4.516876e+00 7.252400e+00 -9.128334e-01 6.117501e+00 2.386230e+01 5.023419e+00 -3.572952e+00 -3.265803e-01 6.429351e-02 1.167131e-01 1.802934e-01 1.138307e-01 2.406939e-01 9.687389e-02 -1.542807e-01 3.083551e-01 6.293294e-01 2.370037e-01 1.134952e-01 -3.548577e-02 -9.150987e-03 5.046100e-02 4.669499e-02 1.890446e-02 3.980193e-02 -5.849503e-02 -8.057765e-02 3.880361e-02 -2.380324e-02 -1.517012e-01 -1.048207e-01 -2.757897e-02 1.064897e-02
<VARIANCE> 39
 9.814992e+00 2.175500e+01 5.422937e+01 5.539464e+01 5.417463e+01 2.419625e+01 6.469332e+01 5.067832e+01 4.177903e+01 1.223251e+02 5.413379e+01 3.424162e+01 3.311108e+01 2.508501e-01 7.819546e-01 9.085923e-01 1.095741e+00 1.307024e+00 1.284194e+00 2.742458e+00 1.825339e+00 1.704600e+00 2.586476e+00 2.445669e+00 1.113377e+00 1.269237e+00 2.789955e-02 8.178135e-02 9.768779e-02 1.312551e-01 1.437118e-01 1.801039e-01 2.577287e-01 2.448311e-01 2.409819e-01 2.756857e-01 2.852634e-01 1.817159e-01 1.878749e-01
<GCONST> 9.890524e+01
<MIXTURE> 2 3.434622e-01
<MEAN> 39
 -1.756043e+01 -5.049109e+00 -5.390818e+00 -2.714818e+00 -2.952837e+00 2.123165e+00 -5.442727e-01 5.344245e+00 -2.057851e+00 -3.478139e+00 1.458365e+00 1.471190e+00 2.089035e+00 -1.304279e-02 -2.657223e-01 -3.456852e-01 -3.084439e-01 -4.452334e-01 -1.906043e-01 3.464828e-01 5.445073e-01 2.866554e-01 -6.658179e-02 -2.538867e-01 -1.447765e-01 -5.596310e-02 1.169562e-01 -2.074041e-02 -3.050299e-02 1.410238e-02 -2.377238e-02 -4.485365e-02 8.263867e-03 4.880372e-02 -2.182150e-02 -2.811774e-02 3.969771e-02 1.492933e-02 -1.115646e-02
<VARIANCE> 39
 1.836185e+02 5.236938e+01 5.358743e+01 6.116558e+01 5.161733e+01 5.840850e+01 4.785137e+01 8.730420e+01 4.698717e+01 3.836529e+01 2.629843e+01 2.382165e+01 1.805879e+01 2.765061e+00 9.049912e-01 1.437904e+00 1.551832e+00 1.560125e+00 1.738716e+00 2.054130e+00 2.936357e+00 2.060787e+00 2.081252e+00 1.674009e+00 1.395797e+00 1.245458e+00 9.615435e-02 9.225193e-02 1.432921e-01 1.843741e-01 2.003530e-01 2.367290e-01 2.860921e-01 3.372129e-01 3.079597e-01 2.644052e-01 2.388017e-01 2.082286e-01 2.114622e-01
<GCONST> 1.083532e+02
<STATE> 3
<NUMMIXES> 2
<MIXTURE> 1 4.158064e-01
<MEAN> 39
 5.946993e+00 -4.190828e-01 9.143829e+00 2.625840e+01 1.872146e+01 2.142568e+00 -1.101187e+01 9.982494e+00 3.695415e+00 6.164163e-01 1.231989e+01 -6.108605e+00 -1.126306e+01 -1.396955e-01 1.615883e-01 3.606959e-02 -2.341183e-01 -3.114599e-01 -1.084766e-01 1.848973e-01 4.449119e-01 5.034057e-01 1.615376e-01 -6.432579e-02 1.338572e-01 -1.215558e-03 8.215240e-02 -1.463083e-02 -3.692640e-02 -6.364480e-02 9.675302e-03 -3.757915e-02 -1.279724e-01 -3.442699e-02 -1.280006e-01 -1.681708e-01 8.240949e-02 9.143439e-02 -1.314961e-02
<VARIANCE> 39
 1.076438e+01 2.858373e+01 3.357986e+01 3.938762e+01 2.161818e+01 2.814450e+01 2.889692e+01 3.237962e+01 4.344159e+01 5.466460e+01 4.065649e+01 2.266365e+01 2.910727e+01 3.539336e-01 5.133244e-01 1.073737e+00 1.591819e+00 1.253542e+00 1.178533e+00 1.839092e+00 1.792962e+00 2.173964e+00 2.836752e+00 2.131903e+00 1.253852e+00 1.426822e+00 2.483105e-02 7.743226e-02 1.064366e-01 1.960098e-01 1.853578e-01 1.813156e-01 2.540156e-01 2.706798e-01 2.705353e-01 3.005743e-01 2.882195e-01 1.882388e-01 2.245449e-01
<GCONST> 9.627602e+01
<MIXTURE> 2 5.841941e-01
<MEAN> 39
 1.300320e+01 -3.927783e-01 -1.903919e+00 5.036435e+00 -5.321729e+00 -1.216693e+00 1.081988e+01 2.610206e+01 6.221344e+00 -5.735434e+00 4.122426e+00 3.268526e+00 2.104213e+00 5.200952e-02 1.355807e-01 7.943825e-02 -7.377316e-02 -3.587015e-01 -2.762787e-01 1.791610e-01 1.756435e-01 -9.665462e-02 -1.885784e-01 -1.439446e-01 -2.083283e-02 -4.086570e-02 6.599775e-02 -1.380697e-02 -2.425896e-02 2.070322e-02 8.101941e-02 -9.958032e-02 -2.253044e-01 -9.916884e-02 -6.794692e-02 -5.383527e-02 7.167006e-02 -4.041229e-03 -7.742876e-02
<VARIANCE> 39
 4.557351e+01 7.522157e+01 5.882703e+01 2.408317e+01 8.550240e+01 8.172906e+01 9.261555e+01 8.235461e+01 4.814594e+01 7.429284e+01 5.233165e+01 2.368088e+01 2.492324e+01 8.115045e-01 9.722160e-01 1.016185e+00 9.441755e-01 1.528198e+00 1.999458e+00 3.074429e+00 2.306390e+00 1.549374e+00 1.942033e+00 1.498668e+00 1.058682e+00 1.156678e+00 4.061998e-02 9.011620e-02 1.120540e-01 1.285139e-01 1.574305e-01 2.088472e-01 2.330595e-01 2.735733e-01 2.143724e-01 2.432256e-01 2.091969e-01 1.824251e-01 1.585165e-01
<GCONST> 1.038111e+02
<STATE> 4
<NUMMIXES> 2
<MIXTURE> 1 4.589418e-01
<MEAN> 39
 1.003148e+01 -1.119652e+00 3.847688e+00 2.043697e+01 1.903284e+01 1.239208e-01 -1.764598e+01 9.434295e+00 8.141509e-01 -2.585144e+00 1.961707e+01 -1.273448e+00 -1.294942e+01 6.518402e-01 -3.016522e-01 -6.039993e-01 -2.121376e-01 5.613779e-01 -4.304507e-01 -1.312832e+00 -2.764130e-01 -8.808347e-01 -1.269637e+00 3.450128e-01 3.166316e-01 -1.140017e-01 4.918180e-02 -1.235214e-01 -2.117457e-01 -3.363888e-02 1.044341e-01 2.150717e-02 -5.296547e-02 -6.606338e-02 -2.440855e-02 3.298800e-03 -4.718409e-02 1.301150e-02 6.859822e-02
<VARIANCE> 39
 1.050464e+01 2.082520e+01 3.877739e+01 2.609722e+01 2.075651e+01 2.447322e+01 3.917924e+01 3.371177e+01 3.718190e+01 6.298948e+01 4.313098e+01 2.172107e+01 2.554696e+01 2.721845e-01 7.756328e-01 1.492121e+00 1.448925e+00 1.147836e+00 1.435120e+00 1.883844e+00 1.827929e+00 1.505343e+00 2.035639e+00 1.968104e+00 1.143459e+00 1.294770e+00 3.611116e-02 9.423611e-02 1.556577e-01 1.851773e-01 1.926630e-01 2.371359e-01 3.433887e-01 3.081560e-01 2.487160e-01 3.300411e-01 3.383978e-01 1.968477e-01 2.322658e-01
<GCONST> 9.715337e+01
<MIXTURE> 2 5.410583e-01
<MEAN> 39
 2.983830e+00 -1.157544e+01 -7.640451e+00 -7.269027e-01 -8.795911e+00 -2.270228e+00 3.164625e+00 1.555731e+01 -1.214392e+00 -5.920507e+00 6.648006e+00 2.929384e+00 2.636180e+00 9.489346e-01 3.616418e-01 2.864320e-01 6.296328e-01 2.645528e-01 -2.692242e-01 -1.045134e-01 1.304969e-01 2.091119e-01 2.914653e-01 4.312838e-01 1.172157e-01 -9.115798e-02 2.482865e-02 7.801728e-02 9.146746e-02 1.246825e-01 2.133357e-01 2.317794e-02 -1.150703e-01 -2.287028e-02 7.051411e-03 -3.431815e-02 7.368002e-03 -2.630309e-02 -8.192655e-02
<VARIANCE> 39
 1.067846e+02 1.398421e+02 1.602074e+02 1.761555e+02 1.697254e+02 1.168517e+02 1.493456e+02 2.020176e+02 7.391212e+01 1.104592e+02 1.327612e+02 3.263640e+01 2.872604e+01 2.082005e+00 2.997667e+00 3.724557e+00 2.994885e+00 3.997737e+00 3.615490e+00 3.065003e+00 2.704216e+00 2.837168e+00 2.916585e+00 2.472792e+00 1.571690e+00 1.667717e+00 1.218877e-01 2.596212e-01 4.004505e-01 3.572078e-01 4.051629e-01 4.940592e-01 4.681483e-01 4.358325e-01 4.410720e-01 4.788734e-01 3.282573e-01 2.693670e-01 2.696123e-01
<GCONST> 1.316093e+02
<TRANSP> 5
 0.000000e+00 1.000000e+00 0.000000e+00 0.000000e+00 0.000000e+00
 0.000000e+00 8.377042e-01 1.622958e-01 0.000000e+00 0.000000e+00
 0.000000e+00 0.000000e+00 8.619767e-01 1.380234e-01 0.000000e+00
 0.000000e+00 0.000000e+00 0.000000e+00 8.051547e-01 1.948453e-01
 0.000000e+00 0.000000e+00 0.000000e+00 0.000000e+00 0.000000e+00
<ENDHMM>
~h "i"
<BEGINHMM>
<NUMSTATES> 7
<STATE> 2
<NUMMIXES> 2
<MIXTURE> 1 7.012970e-01
<MEAN> 39
 2.164325e+00 -4.891590e+00 2.334176e+00 1.586836e+01 1.512143e+01 2.683726e+00 -1.168103e+01 4.868614e+00 -7.338783e+00 -1.203312e+01 6.162795e+00 -1.299931e+00 -6.199142e+00 1.317949e+00 -6.304358e-01 1.181657e-01 8.102490e-01 1.427100e+00 -3.805090e-01 -2.061946e+00 2.888023e-01 -5.233008e-01 -1.384534e+00 1.280692e+00 -5.272967e-03 -1.388355e+00 -5.880859e-02 -7.723764e-03 8.187776e-02 5.219292e-02 1.189054e-01 -8.887775e-04 -1.542022e-01 5.675747e-02 9.771088e-02 -1.028197e-01 -2.103878e-02 -1.029265e-02 -1.026600e-01
<VARIANCE> 39
 2.369926e+02 4.781971e+01 5.199741e+01 1.601219e+02 1.244227e+02 4.690852e+01 8.096673e+01 5.916592e+01 4.963760e+01 9.220899e+01 8.098131e+01 4.155010e+01 4.677422e+01 3.324088e+00 2.463052e+00 2.262718e+00 3.191417e+00 3.093491e+00 2.030353e+00 4.441628e+00 2.957828e+00 2.428478e+00 3.375262e+00 3.969516e+00 1.887561e+00 2.693781e+00 2.018292e-01 2.668759e-01 3.554446e-01 3.557315e-01 3.395259e-01 2.535893e-01 3.224882e-01 4.191047e-01 4.049913e-01 3.816669e-01 4.707804e-01 2.621055e-01 2.896251e-01
<GCONST> 1.265411e+02
<MIXTURE> 2 2.987021e-01
<MEAN> 39
 1.063197e+01 -1.226440e+01 1.204428e+01 2.956754e+01 2.203508e+01 5.298443e+00 -1.841508e+01 3.070606e+00 -5.526574e+00 -1.476848e+01 6.858448e+00 -4.548334e+00 -1.087359e+01 1.874000e+00 6.849182e-02 -1.168912e+00 1.175689e+00 3.593035e+00 -1.553188e+00 -4.443227e+00 -7.651826e-02 -6.157471e-01 -3.457714e+00 3.749719e-01 7.737450e-01 -2.709534e+00 -5.422528e-01 -5.056615e-01 -2.346429e-01 -6.239893e-01 -4.196781e-01 -9.956765e-02 1.267877e-01 6.891418e-01 8.591373e-02 -4.293675e-02 3.060400e-01 1.254770e-01 1.506928e-01
<VARIANCE> 39
 1.148656e+01 1.911422e+01 3.875280e+01 8.827256e+01 3.419903e+01 4.004396e+01 3.799438e+01 3.550697e+01 3.678835e+01 2.768044e+01 3.347139e+01 1.606271e+01 2.330005e+01 1.086068e+00 1.809017e+00 3.828572e+00 2.327156e+00 1.875277e+00 2.628076e+00 2.499798e+00 3.625459e+00 2.145069e+00 2.494175e+00 3.309692e+00 1.254029e+00 1.813137e+00 1.441440e-01 2.607743e-01 4.942757e-01 2.863421e-01 3.178324e-01 2.633597e-01 4.790092e-01 3.318489e-01 2.832993e-01 4.794365e-01 2.987120e-01 1.887705e-01 2.724240e-01
<GCONST> 1.106263e+02
<STATE> 3
<NUMMIXES> 2
<MIXTURE> 1 4.767252e-01
<MEAN> 39
 1.586661e+01 -1.131267e+01 2.655813e+00 2.219605e+01 2.740910e+01 1.569443e+00 -2.647392e+01 8.197760e+00 -1.119280e+01 -2.466780e+01 1.536214e+01 3.625866e-01 -1.523133e+01 4.418193e-01 -7.514052e-01 8.151405e-02 -8.459924e-02 1.239918e+00 -4.218053e-01 -2.384371e+00 8.330521e-01 -1.400940e-01 -1.508398e+00 1.223622e+00 -2.138582e-02 -1.506040e+00 -3.378568e-01 2.315841e-01 2.011792e-01 -1.707619e-01 -4.245977e-01 1.680105e-01 6.594336e-01 -1.114867e-01 2.576123e-01 5.815181e-01 -4.300246e-01 -1.361236e-01 3.842356e-01
<VARIANCE> 39
 1.635753e+01 1.897067e+01 5.040460e+01 9.513567e+01 3.111031e+01 2.204895e+01 5.440514e+01 4.410230e+01 3.804689e+01 4.342125e+01 6.700291e+01 2.064605e+01 3.038046e+01 6.532677e-01 9.252957e-01 1.351317e+00 1.314698e+00 1.158991e+00 1.266035e+00 2.026212e+00 2.048715e+00 1.293472e+00 1.904687e+00 2.044042e+00 9.912671e-01 1.074908e+00 1.139324e-01 1.394303e-01 2.027716e-01 2.281618e-01 2.291143e-01 1.533823e-01 3.609472e-01 4.321139e-01 2.088681e-01 3.553796e-01 3.226203e-01 1.568662e-01 2.050220e-01
<GCONST> 1.022269e+02
<MIXTURE> 2 5.232723e-01
<MEAN> 39
 1.721353e+01 -1.216100e+01 8.411387e-01 1.630637e+01 2.657605e+01 1.294546e+00 -2.959324e+01 9.553144e+00 -1.294128e+01 -2.779870e+01 2.049934e+01 1.234083e+00 -1.843485e+01 -2.729822e-01 -1.524544e-02 5.036753e-01 1.397814e-01 7.246117e-02 1.555360e-01 -8.603197e-02 -2.854664e-01 -8.445609e-02 1.401796e-01 1.174821e-01 -2.917559e-01 -5.041006e-01 -1.033455e-02 8.086693e-02 -5.038570e-02 6.023022e-02 -5.518983e-02 9.192216e-02 2.801942e-01 -9.336493e-02 -3.069879e-02 1.373364e-01 -1.445446e-01 3.969729e-03 1.580186e-01
<VARIANCE> 39
 5.767928e+00 1.146807e+01 2.134680e+01 2.372234e+01 1.823735e+01 1.539227e+01 3.218618e+01 3.654606e+01 2.315104e+01 2.155192e+01 3.713863e+01 1.101588e+01 2.690365e+01 3.625842e-01 3.887671e-01 6.397640e-01 8.832300e-01 5.060000e-01 6.225775e-01 1.316694e+00 1.285823e+00 5.539684e-01 1.075538e+00 1.274912e+00 5.043275e-01 8.986317e-01 5.393976e-02 5.852758e-02 7.726262e-02 7.140939e-02 6.836078e-02 8.151194e-02 1.895056e-01 1.997763e-01 7.922511e-02 1.759984e-01 1.805044e-01 7.199915e-02 1.026380e-01
<GCONST> 7.578329e+01
<STATE> 4
<NUMMIXES> 2
<MIXTURE> 1 6.752344e-01
<MEAN> 39
 1.393845e+01 -1.420944e+01 4.723991e+00 2.682139e+01 3.343550e+01 -3.337447e-02 -3.272536e+01 8.198559e+00 -7.808277e+00 -2.411298e+01 1.211654e+01 -1.824010e+00 -1.672512e+01 8.085893e-02 6.117331e-02 -2.070806e-01 -2.158674e-01 6.960902e-02 5.199499e-02 -5.696463e-02 -1.863364e-02 -1.772175e-01 -9.600258e-02 1.889745e-01 7.348353e-02 -3.140629e-02 -4.375752e-02 1.093367e-01 -8.669575e-03 3.074945e-02 -1.505793e-01 6.258870e-02 2.785374e-01 -1.217613e-01 2.237151e-02 1.515262e-01 -1.101517e-01 8.531176e-03 1.021099e-01
<VARIANCE> 39
 1.009797e+01 9.426139e+00 3.700374e+01 6.116304e+01 2.909017e+01 1.749423e+01 4.158733e+01 3.073285e+01 3.208749e+01 2.403360e+01 3.708378e+01 1.160429e+01 2.022247e+01 4.821156e-01 4.237317e-01 5.786015e-01 9.585060e-01 8.571134e-01 7.434901e-01 1.882226e+00 1.719077e+00 9.148055e-01 1.391376e+00 1.308326e+00 5.795548e-01 7.495093e-01 7.034090e-02 7.205728e-02 9.073917e-02 1.165910e-01 1.364152e-01 1.103886e-01 2.919545e-01 2.662561e-01 1.299592e-01 2.350387e-01 2.054448e-01 8.470058e-02 1.319327e-01
<GCONST> 8.513530e+01
<MIXTURE> 2 3.247631e-01
<MEAN> 39
 1.009576e+01 -1.175443e+01 1.129502e+01 3.640169e+01 3.028223e+01 5.422391e-01 -2.573923e+01 5.218410e+00 9.388008e-01 -1.755857e+01 2.002110e+00 -4.814941e+00 -1.561848e+01 -1.104984e-02 -9.247009e-02 2.507633e-02 -2.966439e-01 1.273779e-01 3.542149e-02 -4.608273e-01 2.209457e-01 1.723689e-01 -3.691977e-01 2.295798e-02 8.070685e-02 -1.479346e-01 5.307193e-02 -5.063083e-02 -1.526332e-02 -1.188648e-02 4.471692e-02 4.284156e-02 -5.074582e-02 5.993634e-02 -1.480154e-01 -8.494595e-02 1.540411e-01 1.391791e-02 2.007709e-02
<VARIANCE> 39
 5.103428e+00 1.247554e+01 1.806430e+01 2.378934e+01 2.174265e+01 1.639575e+01 3.458548e+01 2.187250e+01 1.895944e+01 3.324373e+01 2.474008e+01 1.678385e+01 1.966577e+01 2.515517e-01 4.145515e-01 6.026567e-01 9.182628e-01 8.827323e-01 7.699708e-01 1.433365e+00 1.008986e+00 9.981087e-01 1.092332e+00 9.263616e-01 6.907824e-01 7.712440e-01 4.279507e-02 6.328293e-02 7.989339e-02 1.376643e-01 1.386522e-01 1.118500e-01 2.260243e-01 1.580799e-01 1.295511e-01 1.755631e-01 1.447556e-01 1.132449e-01 1.186739e-01
<GCONST> 7.841831e+01
<STATE> 5
<NUMMIXES> 2
<MIXTURE> 1 6.823975e-01
<MEAN> 39
 1.541679e+01 -1.059595e+01 2.880344e+00 2.183347e+01 2.904179e+01 3.487196e+00 -2.713261e+01 6.716536e+00 -1.309280e+01 -2.433085e+01 1.834672e+01 -3.868635e-01 -1.797088e+01 -5.970905e-01 1.301928e+00 3.945489e-01 1.640985e-01 -1.026234e+00 1.046052e+00 2.482264e+00 -1.368825e+00 4.635202e-01 1.872428e+00 -1.642182e+00 -1.047861e-01 1.298515e+00 -2.804988e-01 4.040239e-01 3.049090e-01 -1.659237e-01 -4.314771e-01 1.839103e-01 5.517082e-01 -2.775499e-01 3.596225e-01 6.294950e-01 -6.797458e-01 -7.746644e-02 5.614495e-01
<VARIANCE> 39
 9.278871e+00 1.883068e+01 3.614141e+01 5.291864e+01 3.904543e+01 3.331861e+01 5.956636e+01 4.171485e+01 3.629179e+01 3.631873e+01 4.842427e+01 1.818276e+01 3.096832e+01 6.773559e-01 1.960153e+00 1.397170e+00 1.289538e+00 1.599892e+00 1.615246e+00 2.621582e+00 2.672292e+00 1.596819e+00 3.141808e+00 2.746459e+00 8.886560e-01 1.795207e+00 7.307760e-02 1.711034e-01 2.064038e-01 1.865795e-01 1.792324e-01 2.002587e-01 3.366994e-01 3.817210e-01 2.383512e-01 2.979625e-01 2.464071e-01 1.576897e-01 1.893613e-01
<GCONST> 1.030671e+02
<MIXTURE> 2 3.176032e-01
<MEAN> 39
 1.192481e+01 -8.944415e+00 8.014048e+00 2.614413e+01 2.771620e+01 7.222571e-01 -2.745754e+01 3.269365e+00 -8.313646e+00 -1.968096e+01 9.999950e+00 -1.696881e+00 -1.516797e+01 2.978050e-02 4.950460e-01 -1.319746e-01 -2.463545e-02 -2.529603e-01 2.705148e-01 6.023869e-01 -2.514850e-01 -1.350914e-01 2.804134e-01 1.177230e-01 1.528760e-01 1.764688e-01 8.203659e-02 -4.544163e-02 -5.939862e-02 -1.018296e-02 7.950689e-02 5.145039e-02 -6.659400e-02 2.070002e-01 -3.867184e-02 -1.666729e-01 1.426705e-01 1.870671e-02 -2.640157e-02
<VARIANCE> 39
 1.403184e+01 2.176683e+01 5.643172e+01 7.310054e+01 3.935014e+01 3.017272e+01 6.319006e+01 4.216479e+01 5.778595e+01 3.352649e+01 5.903148e+01 2.510743e+01 3.672552e+01 4.533407e-01 1.074662e+00 1.116822e+00 1.503055e+00 1.506456e+00 1.274778e+00 2.856243e+00 2.113153e+00 1.345275e+00 2.244886e+00 2.042226e+00 1.101255e+00 1.333261e+00 6.285150e-02 1.106125e-01 1.375797e-01 1.829048e-01 2.208338e-01 1.990611e-01 3.517706e-01 3.418228e-01 2.017691e-01 3.014292e-01 2.286329e-01 1.399714e-01 1.531076e-01
<GCONST> 1.016050e+02
<STATE> 6
<NUMMIXES> 2
<MIXTURE> 1 6.846091e-01
<MEAN> 39
 6.487605e+00 8.578190e-01 9.370687e+00 1.986641e+01 2.048273e+01 1.077243e+01 -1.006816e+01 1.794834e+00 -5.626560e+00 -8.726961e+00 5.845539e+00 -2.156083e+00 -6.851068e+00 -1.717793e+00 1.627074e+00 1.507501e+00 -9.688827e-01 -1.774833e+00 1.352646e+00 2.468562e+00 -5.789379e-01 1.058922e+00 2.252024e+00 -1.929486e+00 -2.035100e-01 2.005658e+00 -7.118016e-02 -3.817685e-01 5.099489e-02 -1.545362e-01 5.105161e-02 -1.227096e-01 -3.617597e-01 2.454202e-01 -2.108623e-01 -3.354847e-01 3.711075e-01 5.243631e-02 -2.058530e-01
<VARIANCE> 39
 5.796442e+01 1.002367e+02 5.911446e+01 5.134611e+01 4.778582e+01 6.901788e+01 6.713750e+01 5.321947e+01 4.974487e+01 5.338243e+01 4.683785e+01 1.828741e+01 3.042397e+01 1.056694e+00 4.335114e+00 3.235829e+00 1.999941e+00 1.731385e+00 2.992411e+00 2.730861e+00 3.837673e+00 2.704921e+00 2.713010e+00 3.342819e+00 1.273364e+00 2.142077e+00 1.241288e-01 2.565090e-01 2.995034e-01 2.272270e-01 2.576954e-01 2.058600e-01 3.092138e-01 4.168561e-01 2.932240e-01 2.864450e-01 2.831984e-01 1.896089e-01 2.181316e-01
<GCONST> 1.162408e+02
<MIXTURE> 2 3.153914e-01
<MEAN> 39
 2.143554e-01 -7.792185e+00 3.175592e+00 1.480745e+01 1.678149e+01 3.919644e+00 -1.444678e+01 5.228405e+00 -6.662871e+00 -1.502836e+01 6.013459e+00 5.966907e-01 -7.872296e+00 -1.219597e-01 2.112673e-01 -1.276071e-01 -2.541047e-01 -3.179746e-01 4.944855e-02 3.764482e-01 1.243257e-01 4.797627e-02 5.303318e-02 -2.154055e-01 3.082999e-02 2.284325e-01 1.932957e-02 -4.632522e-03 3.040887e-02 5.101833e-02 5.058813e-02 3.326528e-03 -6.168947e-02 3.095423e-02 9.418166e-03 -3.227418e-03 3.756858e-02 -2.698128e-02 -2.872752e-02
<VARIANCE> 39
 3.399415e+02 7.764220e+01 1.345201e+02 2.493995e+02 2.003552e+02 5.390198e+01 1.696364e+02 5.027320e+01 5.352087e+01 1.482425e+02 7.025211e+01 3.252946e+01 7.760607e+01 4.674271e-01 7.267973e-01 5.960281e-01 9.430065e-01 9.509882e-01 8.324136e-01 1.551636e+00 1.558291e+00 9.052474e-01 1.325212e+00 1.538353e+00 9.177099e-01 8.650395e-01 5.012118e-02 5.549953e-02 6.916463e-02 9.238495e-02 1.078813e-01 1.049252e-01 1.522901e-01 1.593954e-01 1.233783e-01 1.540305e-01 1.817756e-01 1.455574e-01 1.230951e-01
<GCONST> 1.022300e+02
<TRANSP> 7
 0.000000e+00 1.000000e+00 0.000000e+00 0.000000e+00 0.000000e+00 0.000000e+00 0.000000e+00
 0.000000e+00 6.419529e-01 3.580472e-01 0.000000e+00 0.000000e+00 0.000000e+00 0.000000e+00
 0.000000e+00 0.000000e+00 8.092865e-01 1.907135e-01 0.000000e+00 0.000000e+00 0.000000e+00
 0.000000e+00 0.000000e+00 0.000000e+00 8.724123e-01 1.275877e-01 0.000000e+00 0.000000e+00
 0.000000e+00 0.000000e+00 0.000000e+00 0.000000e+00 7.341060e-01 2.658940e-01 0.000000e+00
 0.000000e+00 0.000000e+00 0.000000e+00 0.000000e+00 0.000000e+00 6.923619e-01 3.076381e-01
 0.000000e+00 0.000000e+00 0.000000e+00 0.000000e+00 0.000000e+00 0.000000e+00 0.000000e+00
<ENDHMM>
~h "j"
<BEGINHMM>
<NUMSTATES> 5
<STATE> 2
<NUMMIXES> 2
<MIXTURE> 1 6.217311e-01
<MEAN> 39
 2.686214e+00 1.934710e+01 1.764889e+01 1.800540e+01 1.459763e+01 1.334902e+01 4.413013e+00 7.473810e+00 -5.473447e-01 -4.642096e+00 -4.693493e+00 -5.784424e+00 -3.732680e+00 -1.495973e-01 -2.043613e-01 7.048260e-02 2.150762e-01 2.743808e-02 1.323131e-01 2.226637e-01 2.116717e-01 2.949222e-01 1.931684e-01 -7.772387e-02 6.157277e-02 2.085614e-01 -1.446939e-01 -3.366559e-01 -3.820764e-02 9.798609e-02 -6.723025e-02 -4.353185e-02 -4.118899e-02 2.250361e-02 1.468250e-01 8.615991e-02 2.166712e-02 9.646815e-02 1.788029e-01
<VARIANCE> 39
 1.040890e+01 5.690395e+00 1.044112e+01 7.960268e+00 4.102406e+00 6.960372e+00 7.961721e+00 1.288116e+01 1.342673e+01 1.213896e+01 8.997224e+00 7.377264e+00 5.224175e+00 7.925866e-01 1.068725e+00 1.198198e+00 1.090101e+00 5.648452e-01 5.290862e-01 5.714540e-01 5.574777e-01 8.146273e-01 9.932568e-01 8.386370e-01 7.003998e-01 7.538990e-01 5.903304e-02 2.003156e-01 2.228421e-01 1.915612e-01 8.424145e-02 8.085495e-02 8.695431e-02 8.429188e-02 1.217668e-01 1.209896e-01 1.249151e-01 1.014315e-01 1.230491e-01
<GCONST> 6.764864e+01
<MIXTURE> 2 3.782694e-01
<MEAN> 39
 -2.448084e+00 3.959229e+00 9.141587e+00 1.478684e+01 1.233378e+01 8.357789e+00 -1.772707e+00 8.485304e+00 -1.223497e+00 -6.127326e+00 2.018485e+00 -9.330804e-01 -8.988575e-01 7.440772e-01 1.693409e+00 1.426449e+00 7.172675e-01 3.120261e-01 8.202062e-01 7.438812e-01 -7.657951e-02 7.597984e-02 1.397460e-01 -6.152387e-01 -3.852167e-01 -1.091063e-01 -3.586913e-03 -1.051545e-01 7.904645e-02 -1.322807e-02 -8.961610e-02 3.153802e-02 1.528173e-02 -4.519652e-02 -3.312590e-02 -3.779112e-02 -2.975720e-02 -4.806828e-02 -5.379087e-02
<VARIANCE> 39
 1.724094e+02 1.507410e+02 9.739671e+01 7.222395e+01 8.036326e+01 6.078871e+01 1.090395e+02 4.783607e+01 5.401314e+01 1.037798e+02 5.051517e+01 1.773743e+01 3.250062e+01 4.351562e+00 3.125035e+00 2.869737e+00 2.331475e+00 2.765146e+00 2.111760e+00 2.982247e+00 1.815172e+00 2.030427e+00 3.207732e+00 2.045110e+00 1.106150e+00 1.345980e+00 2.057909e-01 3.860751e-01 3.095634e-01 2.888750e-01 3.036817e-01 2.275863e-01 2.780877e-01 2.516071e-01 2.431358e-01 3.033536e-01 2.738421e-01 1.485219e-01 1.554741e-01
<GCONST> 1.196677e+02
<STATE> 3
<NUMMIXES> 2
<MIXTURE> 1 4.353995e-01
<MEAN> 39
 -2.319654e+00 3.829030e+00 1.938266e+01 2.449513e+01 1.181447e+01 1.491611e+01 4.805744e+00 9.027881e+00 6.511644e+00 -1.777670e+00 -4.752613e+00 -1.906835e+00 3.483658e+00 -1.493269e+00 -5.349724e+00 1.091686e+00 9.583094e-01 -1.435388e+00 1.116113e+00 -3.482106e-01 1.757988e-01 1.606620e+00 -1.073835e-01 7.657369e-01 1.182128e+00 8.151147e-01 -9.890043e-02 -9.098075e-01 1.566889e-01 -3.768764e-01 -3.702392e-01 6.752081e-02 -2.765450e-01 1.420802e-01 -6.762855e-02 -4.675032e-01 5.150898e-01 3.470496e-01 -3.685553e-01
<VARIANCE> 39
 1.755009e+01 8.023157e+01 2.473888e+01 2.199012e+01 2.797783e+01 2.177239e+01 2.056997e+01 1.896291e+01 4.404060e+01 2.846897e+01 2.627157e+01 1.973578e+01 1.827586e+01 5.976002e-01 3.964254e+00 2.512524e+00 2.152349e+00 1.989508e+00 1.905352e+00 1.952948e+00 1.536000e+00 1.714057e+00 2.531282e+00 2.811672e+00 1.885780e+00 2.229015e+00 6.699122e-02 4.392157e-01 2.194657e-01 4.073246e-01 2.475198e-01 3.747406e-01 2.444546e-01 2.307542e-01 2.793153e-01 3.173975e-01 3.020768e-01 2.588238e-01 2.799296e-01
<GCONST> 1.053752e+02
<MIXTURE> 2 5.645999e-01
<MEAN> 39
 -1.043263e+01 -2.896377e+01 2.597529e+01 1.984538e+01 -5.833251e-01 1.860539e+01 -1.044574e+00 9.826480e+00 9.492770e+00 -6.827687e+00 4.546044e+00 6.360593e+00 2.922497e+00 -5.336236e-01 -3.609025e+00 1.975932e+00 -4.656441e-01 -1.390298e+00 5.883322e-01 -1.562813e+00 -2.114152e-01 5.437537e-02 -7.604193e-01 1.191731e+00 3.531061e-01 -5.431677e-01 4.804397e-01 9.444517e-01 -8.837608e-02 2.447373e-01 6.402544e-01 6.120784e-02 -2.050012e-01 -3.610800e-01 -3.259780e-01 1.117036e-01 -3.545993e-01 -5.045371e-01 -3.519496e-02
<VARIANCE> 39
 2.367940e+01 1.168246e+02 9.055499e+01 5.991644e+01 6.014574e+01 5.051372e+01 6.740508e+01 3.686456e+01 7.977333e+01 3.254568e+01 3.803125e+01 2.672108e+01 2.258023e+01 1.942656e+00 9.860264e+00 5.353445e+00 3.928874e+00 6.276576e+00 4.578348e+00 4.544546e+00 2.391629e+00 2.608702e+00 2.926473e+00 2.184863e+00 3.210807e+00 1.418924e+00 2.693062e-01 5.436620e-01 9.117182e-01 6.424496e-01 8.592150e-01 7.919490e-01 6.408021e-01 4.064907e-01 4.219804e-01 4.118613e-01 3.286636e-01 4.266455e-01 2.255919e-01
<GCONST> 1.286246e+02
<STATE> 4
<NUMMIXES> 2
<MIXTURE> 1 4.217848e-01
<MEAN> 39
 -5.408790e+00 -3.315011e+01 3.547209e+01 2.486765e+01 2.286143e+00 2.307756e+01 -9.723948e+00 3.817840e+00 7.133239e+00 -1.031538e+01 4.554164e+00 1.665784e+00 -2.066280e+00 2.603027e+00 1.628415e+00 -1.475375e+00 2.089002e-01 1.986689e+00 1.861496e-01 -1.355444e+00 -2.834150e+00 -1.823237e+00 -6.426606e-01 -1.209885e+00 -9.701766e-01 -7.007509e-01 5.405651e-01 8.968818e-01 -1.310894e+00 -2.786140e-01 2.875839e-01 -6.008526e-01 1.486251e-01 -1.995074e-01 -1.124033e-01 -1.308523e-02 -3.770779e-01 1.571825e-01 7.755469e-02
<VARIANCE> 39
 2.279959e+01 2.999796e+01 2.773787e+01 3.250581e+01 3.980354e+01 2.335024e+01 3.195521e+01 4.780112e+01 6.800997e+01 2.475357e+01 3.411493e+01 1.991992e+01 1.689835e+01 1.398914e+00 3.322796e+00 4.510816e+00 1.731270e+00 1.432145e+00 2.749745e+00 2.007146e+00 1.641090e+00 1.521938e+00 1.158930e+00 1.407292e+00 1.031910e+00 8.531761e-01 1.694461e-01 6.995849e-01 5.290954e-01 2.266045e-01 4.625679e-01 2.879584e-01 3.842771e-01 5.193530e-01 3.360290e-01 2.883232e-01 3.397720e-01 2.317341e-01 1.522277e-01
<GCONST> 1.082495e+02
<MIXTURE> 2 5.782146e-01
<MEAN> 39
 1.068093e+01 -2.082804e+01 1.533757e+01 2.249668e+01 1.269101e+01 1.562957e+01 -1.642000e+01 -3.530138e+00 2.240088e-01 -1.561559e+01 -1.278248e+00 2.536030e-01 -3.741271e+00 2.541607e+00 2.008116e+00 -4.478608e+00 -5.633532e-01 2.051131e+00 -3.015890e+00 -1.522540e+00 1.200981e+00 -6.584368e-01 -1.529353e+00 -1.623345e-01 5.509038e-02 -3.235501e-01 -3.795789e-01 -1.291705e-01 1.374358e-01 -1.027268e-01 -1.230145e-01 -3.745692e-01 5.700677e-02 9.064800e-01 1.855046e-01 -1.202622e-01 4.086926e-01 6.103683e-02 -4.280994e-03
<VARIANCE> 39
 3.683995e+01 3.167569e+01 9.500576e+01 3.568044e+01 3.468780e+01 6.465909e+01 4.287061e+01 3.478843e+01 3.332762e+01 2.698619e+01 3.396445e+01 1.366124e+01 1.802993e+01 1.798079e+00 9.002455e-01 2.818983e+00 8.200404e-01 1.683615e+00 2.665899e+00 1.997528e+00 5.703032e+00 1.141024e+00 1.425479e+00 1.810853e+00 1.420402e+00 7.068419e-01 1.223436e-01 1.273191e-01 3.942948e-01 1.130694e-01 1.737257e-01 3.760080e-01 2.192520e-01 5.132973e-01 2.015329e-01 2.191486e-01 1.870180e-01 1.635821e-01 9.829304e-02
<GCONST> 1.029509e+02
<TRANSP> 5
 0.000000e+00 1.000000e+00 0.000000e+00 0.000000e+00 0.000000e+00
 0.000000e+00 9.076020e-01 9.239803e-02 0.000000e+00 0.000000e+00
 0.000000e+00 0.000000e+00 8.914729e-01 1.085271e-01 0.000000e+00
 0.000000e+00 0.000000e+00 0.000000e+00 8.867624e-01 1.132376e-01
 0.000000e+00 0.000000e+00 0.000000e+00 0.000000e+00 0.000000e+00
<ENDHMM>
~h "k"
<BEGINHMM>
<NUMSTATES> 5
<STATE> 2
<NUMMIXES> 2
<MIXTURE> 1 5.344936e-01
<MEAN> 39
 -2.657386e+01 -6.358778e+00 -5.068434e+00 -2.870075e+00 -3.582603e+00 8.506979e-01 -3.476947e+00 1.227842e+00 -1.743471e+00 -8.026567e-01 6.484351e-01 -7.176216e-01 5.784369e-01 3.575849e-02 -9.465361e-02 -9.832191e-02 6.539100e-03 5.773634e-02 -4.505869e-03 -3.402815e-02 1.586035e-02 4.794809e-03 -5.708926e-02 -5.252269e-02 1.781864e-02 6.752375e-02 1.040947e-01 -2.797330e-02 -1.390446e-02 6.488477e-02 8.885156e-02 4.487751e-02 2.407155e-02 7.421274e-02 2.547014e-02 -3.222309e-02 -1.366875e-02 3.757439e-02 7.728545e-02
<VARIANCE> 39
 5.687553e-01 1.444227e+00 2.007638e+00 2.816009e+00 3.874424e+00 5.209455e+00 6.149610e+00 6.694897e+00 8.685255e+00 7.955980e+00 6.562046e+00 7.099286e+00 5.901717e+00 1.155010e-01 2.505729e-01 3.441004e-01 4.702637e-01 6.666314e-01 7.651084e-01 9.768516e-01 9.777738e-01 1.179923e+00 1.120468e+00 9.583660e-01 9.447959e-01 8.996294e-01 6.452305e-02 6.428636e-02 7.965223e-02 1.173389e-01 1.647977e-01 1.832573e-01 2.184995e-01 2.278323e-01 2.426448e-01 2.334496e-01 2.080253e-01 1.905997e-01 1.907375e-01
<GCONST> 5.936524e+01
<MIXTURE> 2 4.655076e-01
<MEAN> 39
 -1.099050e+01 2.680617e+00 3.530254e+00 9.789140e+00 1.080649e+01 1.007206e+01 -2.699940e-01 3.694359e+00 -3.313553e+00 -3.736914e+00 1.932692e+00 1.615719e+00 2.208837e+00 -1.796161e+00 -1.431637e+00 -1.179690e+00 -1.397277e+00 -1.309367e+00 -4.137789e-01 2.914712e-01 2.045125e-01 9.255416e-02 2.281499e-02 -2.241601e-01 -2.524857e-02 3.426621e-01 1.779618e-01 -3.638713e-01 -3.923045e-01 -1.994710e-01 -1.763754e-01 -3.030685e-01 -2.587197e-01 6.811894e-02 4.863993e-02 -4.859314e-02 6.998582e-02 -8.724399e-02 -1.068556e-01
<VARIANCE> 39
 9.562366e+01 7.110295e+01 7.013414e+01 6.878504e+01 5.136442e+01 4.102198e+01 5.406746e+01 4.882452e+01 7.542818e+01 5.634439e+01 4.423325e+01 4.926785e+01 3.423395e+01 2.146620e+00 3.270118e+00 3.503366e+00 2.513691e+00 2.683717e+00 2.911116e+00 3.121669e+00 2.695754e+00 2.947082e+00 2.529157e+00 1.957107e+00 1.742548e+00 1.849582e+00 1.599537e-01 2.564359e-01 3.265184e-01 2.789553e-01 3.171042e-01 3.361914e-01 3.377633e-01 3.690091e-01 4.087965e-01 3.574160e-01 3.218709e-01 2.557752e-01 2.697518e-01
<GCONST> 1.206084e+02
<STATE> 3
<NUMMIXES> 2
<MIXTURE> 1 6.672197e-01
<MEAN> 39
 -1.727035e+01 -8.929482e+00 -6.943510e+00 1.479952e+00 2.569830e+00 3.505294e+00 -2.842925e+00 6.013589e+00 -3.542542e-01 -3.743200e+00 -8.990696e-01 -5.286895e-01 4.396286e+00 2.209101e+00 -1.715250e+00 -1.473050e+00 -6.641809e-01 -6.980313e-01 -9.130684e-01 -7.992744e-01 7.800328e-01 -1.679069e-01 -5.287910e-01 6.210688e-01 -6.966112e-01 -2.476251e-01 7.298653e-01 1.174584e-01 3.667485e-01 7.799239e-02 -5.182596e-03 1.680266e-01 -3.183130e-02 1.014811e-01 -4.336018e-01 -2.387153e-01 5.864215e-01 -2.507141e-01 -5.066997e-01
<VARIANCE> 39
 5.057140e+01 4.245388e+01 3.162889e+01 4.588906e+01 4.593233e+01 3.617485e+01 3.969998e+01 2.866674e+01 2.524590e+01 2.354754e+01 2.286070e+01 2.362345e+01 1.983380e+01 4.537173e+00 3.773621e+00 3.713979e+00 5.134703e+00 5.418335e+00 4.270534e+00 3.726189e+00 3.364717e+00 3.367329e+00 3.275508e+00 4.312890e+00 2.886159e+00 3.684500e+00 2.690286e-01 2.835671e-01 3.102044e-01 4.357771e-01 4.671670e-01 4.843414e-01 4.646598e-01 4.942810e-01 7.168857e-01 5.747506e-01 4.921746e-01 3.634145e-01 4.698816e-01
<GCONST> 1.235391e+02
<MIXTURE> 2 3.327791e-01
<MEAN> 39
 -3.305242e+00 -1.766743e+01 -1.180472e+01 -8.429857e-01 1.506963e+00 2.922554e+00 -6.684915e+00 9.327631e+00 -6.625009e+00 -9.454133e+00 7.287167e+00 -5.919583e+00 -1.735214e+00 3.427304e+00 -1.856951e+00 -2.441394e-01 -7.644763e-01 -2.482021e-01 7.870959e-01 -6.359905e-01 7.325548e-01 -3.576520e+00 -3.059859e+00 3.165458e+00 -8.074126e-01 -1.746568e+00 -4.391270e-01 6.621033e-01 8.525517e-01 7.250631e-01 4.380597e-01 2.381714e-01 2.613265e-01 -6.534938e-02 1.589146e-01 -8.966759e-03 -4.299714e-01 4.214929e-01 5.098901e-01
<VARIANCE> 39
 4.366958e+01 6.240057e+01 3.459994e+01 9.958728e+01 7.534290e+01 8.381525e+01 7.942446e+01 6.092907e+01 6.306403e+01 6.867017e+01 5.655425e+01 3.940216e+01 2.803934e+01 1.434064e+00 1.711630e+00 2.294360e+00 4.606861e+00 2.954507e+00 3.288895e+00 3.264464e+00 3.626028e+00 3.647662e+00 3.155499e+00 3.152844e+00 1.931458e+00 2.165659e+00 2.373749e-01 4.097251e-01 3.918892e-01 6.645643e-01 4.745427e-01 7.082341e-01 5.595766e-01 5.129868e-01 1.181240e+00 9.540807e-01 8.137926e-01 2.651194e-01 3.261460e-01
<GCONST> 1.288584e+02
<STATE> 4
<NUMMIXES> 2
<MIXTURE> 1 6.521904e-01
<MEAN> 39
 -1.110241e+00 -1.347623e+01 3.058249e+00 1.432888e+01 6.781451e+00 3.749801e+00 -6.163436e+00 9.743500e+00 -4.942870e+00 -9.085485e+00 7.801748e+00 -4.042383e+00 -8.529887e-01 1.322510e+00 1.431842e+00 2.101568e+00 2.749276e+00 1.916080e+00 -3.106095e-01 -8.366724e-01 -1.480621e-01 1.017954e+00 2.457503e-01 3.017684e-03 6.583731e-01 -5.803293e-01 3.492630e-01 -1.485762e-01 -6.433601e-01 -3.416309e-01 2.891075e-01 -2.805622e-01 -6.902258e-01 -1.097565e-01 -3.520125e-01 -6.083164e-01 1.109880e-01 1.030736e-02 -4.666706e-01
<VARIANCE> 39
 1.111447e+02 1.203669e+02 7.621526e+01 1.713238e+02 7.673672e+01 5.380351e+01 5.046231e+01 5.539692e+01 4.831697e+01 4.260865e+01 3.905259e+01 3.721955e+01 2.562152e+01 3.610880e+00 2.864027e+00 5.015485e+00 6.496101e+00 5.937481e+00 5.806787e+00 5.703920e+00 4.305779e+00 4.105917e+00 4.464991e+00 3.056516e+00 2.252069e+00 2.850753e+00 1.969698e-01 4.843267e-01 5.365323e-01 5.623332e-01 5.201597e-01 4.581119e-01 6.359882e-01 5.159447e-01 6.438695e-01 7.706699e-01 4.282405e-01 2.765938e-01 3.393012e-01
<GCONST> 1.335074e+02
<MIXTURE> 2 3.478083e-01
<MEAN> 39
 2.850380e+00 -1.913792e+01 -9.963197e+00 -3.309583e-01 1.505272e+00 3.952409e+00 -7.808241e+00 1.067800e+01 -1.434459e+01 -1.706173e+01 1.164907e+01 -6.709646e+00 -3.458702e+00 1.182546e+00 1.027108e+00 2.696858e+00 2.510723e+00 7.886267e-01 1.021828e-01 1.434319e-01 2.321504e-01 3.415033e-01 2.291413e-01 1.559122e-01 2.169139e-01 3.533109e-01 -5.885773e-01 8.224542e-01 8.282865e-01 1.247251e+00 6.594525e-01 -2.636995e-01 8.786080e-02 -1.862281e-01 1.443806e+00 1.173040e+00 -7.888672e-01 4.150918e-01 3.643846e-01
<VARIANCE> 39
 5.281470e+01 7.753113e+01 5.048344e+01 1.595538e+02 1.178471e+02 1.033082e+02 1.133637e+02 1.126011e+02 7.246287e+01 7.595845e+01 6.880612e+01 6.528534e+01 4.377409e+01 1.465455e+00 2.127476e+00 2.891443e+00 3.408636e+00 3.072259e+00 2.857579e+00 3.371325e+00 3.028389e+00 4.778853e+00 4.373963e+00 2.953400e+00 1.748417e+00 1.622377e+00 1.653300e-01 3.827311e-01 4.937357e-01 7.856768e-01 7.782088e-01 1.112411e+00 1.019228e+00 9.759236e-01 8.342890e-01 7.794700e-01 7.568254e-01 4.716985e-01 5.162656e-01
<GCONST> 1.357607e+02
<TRANSP> 5
 0.000000e+00 1.000000e+00 0.000000e+00 0.000000e+00 0.000000e+00
 0.000000e+00 8.376433e-01 1.623567e-01 0.000000e+00 0.000000e+00
 0.000000e+00 0.000000e+00 8.081055e-01 1.918945e-01 0.000000e+00
 0.000000e+00 0.000000e+00 0.000000e+00 7.665535e-01 2.334464e-01
 0.000000e+00 0.000000e+00 0.000000e+00 0.000000e+00 0.000000e+00
<ENDHMM>
~h "l"
<BEGINHMM>
<NUMSTATES> 5
<STATE> 2
<NUMMIXES> 2
<MIXTURE> 1 5.898333e-01
<MEAN> 39
 1.380720e+01 -5.771782e+00 3.536245e+00 2.998439e+01 2.036246e+01 -4.484590e+00 -5.488873e+00 1.939649e+01 -9.684978e+00 -3.075273e+01 -4.966861e+00 -1.837699e-02 -3.329930e+00 -2.258531e-01 -5.371498e-02 5.845618e-01 1.250121e+00 1.468959e-01 -6.077614e-01 4.493590e-01 8.692925e-01 -3.890556e-02 -8.799719e-01 -6.667664e-01 -1.940808e-02 -9.366181e-02 2.766902e-02 -7.746248e-03 -8.641271e-02 -2.229143e-01 -3.604449e-02 6.589375e-02 -1.722268e-01 -2.195300e-01 6.927592e-02 3.131197e-01 1.910325e-01 -2.668196e-02 -9.740760e-03
<VARIANCE> 39
 1.840021e+01 2.610605e+01 3.627771e+01 8.441562e+01 5.846614e+01 5.548806e+01 4.988707e+01 7.085793e+01 4.106576e+01 8.090794e+01 7.954881e+01 2.959880e+01 2.715669e+01 5.281742e-01 6.659216e-01 1.083222e+00 1.980144e+00 1.082500e+00 1.469031e+00 1.972154e+00 2.591332e+00 1.340668e+00 3.378819e+00 2.650612e+00 9.962170e-01 8.623497e-01 5.450596e-02 6.939218e-02 1.167290e-01 2.367451e-01 1.536016e-01 1.955937e-01 2.532006e-01 3.704607e-01 1.821377e-01 4.450006e-01 2.583176e-01 1.448967e-01 1.158462e-01
<GCONST> 1.024637e+02
<MIXTURE> 2 4.101656e-01
<MEAN> 39
 1.001978e+01 -6.719743e+00 1.031775e+01 4.131756e+01 2.279154e+01 -6.699391e+00 -4.812313e+00 1.847038e+01 -7.180566e+00 -2.537224e+01 -4.138201e+00 4.635961e-01 -5.289334e+00 -1.695434e-01 2.514415e-01 3.102270e-01 1.174794e-02 -3.445991e-01 -9.829793e-03 3.405082e-01 5.735042e-03 2.772191e-01 4.501977e-01 -1.072966e-01 6.362622e-02 9.157406e-02 1.579513e-02 1.328294e-02 -5.698172e-02 -1.525904e-01 2.035409e-02 1.610847e-01 -4.618204e-02 -1.450786e-01 -6.337535e-02 7.362442e-02 1.014908e-01 -3.053452e-02 -2.580035e-02
<VARIANCE> 39
 4.591974e+00 1.090037e+01 1.556398e+01 1.441698e+01 2.074637e+01 1.420346e+01 2.843111e+01 3.187782e+01 2.739331e+01 5.763574e+01 1.956457e+01 2.378270e+01 1.944253e+01 1.780950e-01 3.283687e-01 4.973326e-01 1.041343e+00 8.436894e-01 9.733968e-01 9.404623e-01 1.409448e+00 1.087938e+00 1.713617e+00 1.090321e+00 8.643422e-01 7.605044e-01 2.804459e-02 5.354203e-02 8.188825e-02 1.949582e-01 1.364219e-01 1.682603e-01 1.444904e-01 2.230505e-01 1.745379e-01 2.560951e-01 1.745854e-01 1.353837e-01 1.238647e-01
<GCONST> 8.006200e+01
<STATE> 3
<NUMMIXES> 2
<MIXTURE> 1 6.630048e-01
<MEAN> 39
 1.117802e+01 -3.687953e+00 6.611911e+00 3.069541e+01 1.883691e+01 -3.209472e+00 -3.812716e+00 1.802763e+01 -6.392300e+00 -2.464239e+01 -5.539305e+00 -1.671667e+00 -3.895922e+00 3.279299e-01 2.597635e-02 -7.192901e-01 -1.328309e+00 7.984910e-02 9.401918e-01 -7.084808e-01 -1.423881e+00 6.287305e-02 1.477470e+00 9.732172e-01 -3.933910e-01 -3.849082e-01 1.531325e-01 -2.148295e-01 -3.406670e-01 -3.757177e-01 6.106849e-02 9.280235e-02 -3.636196e-01 -2.316448e-01 -1.140882e-01 5.339956e-02 4.166515e-01 9.087209e-02 -7.347595e-02
<VARIANCE> 39
 3.570962e+01 2.733156e+01 4.895292e+01 9.058681e+01 4.266520e+01 5.232755e+01 4.593625e+01 5.439499e+01 5.233958e+01 1.066090e+02 4.186377e+01 4.878357e+01 3.176279e+01 8.360922e-01 1.086964e+00 1.443279e+00 3.585093e+00 1.641283e+00 2.625739e+00 3.488862e+00 3.822820e+00 2.036431e+00 5.141755e+00 3.065470e+00 1.547724e+00 1.214675e+00 9.646153e-02 1.612706e-01 1.972408e-01 4.052545e-01 2.581613e-01 2.761646e-01 4.766508e-01 5.272085e-01 2.830640e-01 5.594653e-01 3.584096e-01 1.962072e-01 1.954690e-01
<GCONST> 1.150570e+02
<MIXTURE> 2 3.369950e-01
<MEAN> 39
 1.058742e+01 -8.433709e+00 9.588495e+00 4.188314e+01 2.486575e+01 -6.099370e+00 -1.083565e+01 1.052230e+01 -4.615485e+00 -1.572300e+01 -1.073303e+00 -4.036163e+00 -9.532317e+00 2.383453e-02 -6.960940e-02 -2.410055e-01 -5.799682e-01 9.018151e-02 9.117799e-01 -1.677594e-01 -1.151005e+00 -2.874299e-01 8.583093e-01 5.674968e-01 -1.449479e-01 -6.611905e-02 8.645923e-02 -1.307264e-01 -2.068298e-01 -1.252596e-01 2.451000e-01 2.333159e-01 -1.890788e-01 -2.378363e-01 -2.595558e-01 -1.291538e-01 1.970897e-01 5.708849e-02 -1.553009e-02
<VARIANCE> 39
 6.807498e+00 9.732700e+00 1.540271e+01 1.252456e+01 1.377339e+01 1.301753e+01 1.765273e+01 3.703321e+01 2.125233e+01 4.407394e+01 1.610840e+01 1.452405e+01 1.059460e+01 2.654533e-01 4.102055e-01 6.354637e-01 1.192578e+00 1.056349e+00 1.208494e+00 1.038853e+00 1.503244e+00 1.116448e+00 1.193607e+00 1.127626e+00 7.437145e-01 7.793617e-01 4.422100e-02 7.054014e-02 9.577278e-02 1.886637e-01 1.568620e-01 1.524181e-01 2.189560e-01 2.579685e-01 1.554585e-01 1.685775e-01 1.914034e-01 1.131292e-01 1.179662e-01
<GCONST> 7.951693e+01
<STATE> 4
<NUMMIXES> 2
<MIXTURE> 1 4.166713e-01
<MEAN> 39
 1.391052e+00 6.204557e-02 8.810657e-01 1.267721e+01 1.058235e+01 4.175849e+00 -1.648051e+00 9.406109e+00 -3.942220e+00 -1.343070e+01 -5.311483e+00 -3.710901e+00 -2.182161e+00 -5.334860e-01 3.917763e-01 1.112235e-01 -6.047188e-01 -3.067693e-01 4.418212e-01 3.036798e-01 -1.865729e-01 3.770362e-01 7.454496e-01 1.898111e-01 2.026512e-01 1.996272e-01 2.114344e-03 -4.541200e-02 1.683586e-02 3.145753e-02 -5.959895e-02 -1.733003e-01 -4.186165e-02 1.405725e-01 1.591154e-02 -1.050931e-01 8.960888e-03 5.024675e-02 6.059129e-04
<VARIANCE> 39
 2.843852e+02 6.180186e+01 7.565551e+01 2.025431e+02 1.075857e+02 7.834641e+01 7.397637e+01 8.912284e+01 6.748700e+01 1.125183e+02 6.748275e+01 7.514635e+01 4.556662e+01 1.917152e+00 1.212954e+00 1.554873e+00 2.852355e+00 1.724959e+00 2.147814e+00 2.797514e+00 2.513050e+00 1.751580e+00 3.195624e+00 1.839634e+00 1.662043e+00 1.221866e+00 8.288932e-02 8.276094e-02 1.628288e-01 1.999884e-01 1.814691e-01 2.339153e-01 3.209966e-01 3.076361e-01 2.402214e-01 3.170426e-01 1.920081e-01 1.809622e-01 1.409514e-01
<GCONST> 1.170658e+02
<MIXTURE> 2 5.833285e-01
<MEAN> 39
 1.214917e+01 -7.959478e+00 5.333162e+00 3.138101e+01 2.327216e+01 5.465206e-01 -1.079936e+01 6.755876e+00 -9.591718e+00 -1.730245e+01 3.774692e+00 -1.432097e+00 -7.584862e+00 1.077050e+00 -1.445787e+00 -1.776320e+00 -1.470889e+00 1.207805e+00 6.527899e-01 -3.082706e+00 -2.227394e+00 -1.057643e+00 3.117574e-01 2.579238e+00 5.375965e-02 -1.175417e+00 8.766598e-02 -1.368784e-01 1.025400e-01 3.866885e-01 2.698523e-01 -4.371056e-01 -4.628967e-01 5.231330e-01 1.532654e-01 -5.855802e-01 -1.219635e-01 1.421116e-02 -1.828855e-01
<VARIANCE> 39
 1.163497e+01 1.417539e+01 2.438084e+01 6.413139e+01 2.884589e+01 3.118323e+01 2.797019e+01 5.369031e+01 2.437361e+01 5.747254e+01 3.339493e+01 1.767663e+01 1.708425e+01 4.460612e-01 7.555137e-01 1.031332e+00 3.367042e+00 1.368424e+00 1.517825e+00 2.603450e+00 2.352768e+00 1.713731e+00 2.312685e+00 3.073445e+00 1.001272e+00 1.174349e+00 7.409457e-02 1.588629e-01 1.825920e-01 2.417252e-01 2.039674e-01 2.425020e-01 3.240573e-01 4.574678e-01 3.280483e-01 3.421100e-01 3.682782e-01 2.090204e-01 1.638142e-01
<GCONST> 1.010413e+02
<TRANSP> 5
 0.000000e+00 1.000000e+00 0.000000e+00 0.000000e+00 0.000000e+00
 0.000000e+00 9.075677e-01 9.243226e-02 0.000000e+00 0.000000e+00
 0.000000e+00 0.000000e+00 7.512744e-01 2.487256e-01 0.000000e+00
 0.000000e+00 0.000000e+00 0.000000e+00 6.481351e-01 3.518649e-01
 0.000000e+00 0.000000e+00 0.000000e+00 0.000000e+00 0.000000e+00
<ENDHMM>
~h "m"
<BEGINHMM>
<NUMSTATES> 5
<STATE> 2
<NUMMIXES> 2
<MIXTURE> 1 3.775270e-01
<MEAN> 39
 1.620471e+01 4.623362e+00 9.493051e-01 1.525589e+01 1.106832e+01 -4.922147e+00 -6.264718e+00 1.649890e+01 3.997533e+00 -1.365590e+01 -5.792378e+00 -4.925961e+00 -9.016400e+00 -6.532047e-01 9.740295e-01 1.461814e+00 1.857795e+00 1.812103e+00 1.462726e+00 -7.014281e-02 -1.847586e+00 -5.808483e-01 8.166054e-01 -7.147677e-01 -1.582180e+00 -9.967563e-01 1.429081e-01 -2.766848e-01 -1.964370e-01 -1.274218e-01 -5.891657e-02 -2.665792e-01 -3.136772e-01 5.702323e-02 -1.209910e-01 -1.615748e-01 3.551099e-01 1.963232e-01 -7.701816e-03
<VARIANCE> 39
 3.716994e+01 2.576592e+01 3.038866e+01 3.009407e+01 4.734060e+01 4.659522e+01 1.960592e+01 6.481144e+01 2.797906e+01 2.898375e+01 2.648471e+01 2.129592e+01 1.787029e+01 5.312693e-01 1.049783e+00 1.186273e+00 1.354559e+00 1.929030e+00 2.004479e+00 1.791761e+00 2.611313e+00 1.073981e+00 2.065218e+00 1.598564e+00 1.326490e+00 8.826497e-01 6.134741e-02 9.289943e-02 1.282923e-01 1.874969e-01 3.228371e-01 2.502694e-01 2.792843e-01 3.215111e-01 1.562268e-01 2.513268e-01 2.209158e-01 2.012983e-01 1.390265e-01
<GCONST> 9.818761e+01
<MIXTURE> 2 6.224722e-01
<MEAN> 39
 1.572356e+01 5.357255e+00 4.481115e+00 2.219427e+01 1.745245e+01 -2.861284e+00 -9.276054e+00 9.296700e+00 4.324055e-01 -1.149516e+01 -4.764118e+00 -7.919018e+00 -1.303332e+01 -1.806888e-01 3.008776e-01 4.674417e-01 1.643109e-01 1.029818e-01 2.065543e-01 -2.127570e-01 -7.405155e-01 -2.969712e-01 3.479774e-01 1.801793e-01 -7.076719e-02 3.253148e-02 7.000031e-03 4.103778e-02 -2.862691e-02 -1.862109e-01 -1.790553e-01 -2.054468e-02 7.101213e-02 8.811552e-02 4.973283e-02 -1.141577e-02 -9.195767e-03 9.354926e-02 1.508984e-01
<VARIANCE> 39
 3.175143e+00 1.172633e+01 2.157660e+01 1.171160e+01 2.308288e+01 2.642540e+01 2.433400e+01 6.198587e+01 2.971601e+01 2.354734e+01 2.218018e+01 1.619477e+01 1.307534e+01 1.310050e-01 3.403147e-01 4.719392e-01 5.923113e-01 5.831050e-01 5.305849e-01 6.806035e-01 1.117492e+00 5.005486e-01 7.349753e-01 5.763806e-01 5.271357e-01 5.385984e-01 2.087353e-02 4.021538e-02 6.264862e-02 1.163308e-01 1.178029e-01 8.613966e-02 1.068504e-01 1.531305e-01 7.539035e-02 1.225928e-01 9.527378e-02 9.057610e-02 8.019692e-02
<GCONST> 6.825476e+01
<STATE> 3
<NUMMIXES> 2
<MIXTURE> 1 2.043384e-01
<MEAN> 39
 -7.793950e-01 1.227217e+01 1.210056e+01 1.458412e+01 1.013061e+01 7.233231e+00 -9.085745e-01 4.293858e+00 -3.129706e+00 -5.593226e+00 -2.928398e+00 -5.182392e+00 -3.997611e+00 -7.867836e-01 -5.875042e-02 1.636651e-01 -1.254778e-01 -9.123337e-02 3.873149e-01 3.581429e-01 1.386922e-01 2.152507e-01 2.867971e-01 1.467170e-01 2.203609e-01 2.245413e-01 -1.021858e-02 -1.859994e-01 -6.279988e-02 4.341022e-02 5.348494e-02 -5.701727e-02 -1.824194e-01 -8.873930e-02 1.667343e-02 -3.166319e-02 -3.682873e-02 -5.997708e-02 -2.823076e-02
<VARIANCE> 39
 1.172452e+02 8.203612e+01 5.147255e+01 5.321373e+01 2.951890e+01 1.632729e+01 1.383937e+01 2.443592e+01 2.285863e+01 2.153811e+01 1.691151e+01 1.577470e+01 1.793933e+01 3.758960e+00 1.975393e+00 2.190184e+00 2.351428e+00 1.625661e+00 1.193166e+00 1.710611e+00 1.718236e+00 1.553948e+00 1.593145e+00 1.439071e+00 1.322749e+00 1.472350e+00 1.461517e-01 1.808094e-01 2.885076e-01 2.601818e-01 2.022139e-01 1.661248e-01 1.788384e-01 1.983396e-01 2.232741e-01 2.522998e-01 2.179335e-01 1.779345e-01 1.735000e-01
<GCONST> 1.019264e+02
<MIXTURE> 2 7.956607e-01
<MEAN> 39
 1.282317e+01 1.254428e+01 1.094925e+01 2.021161e+01 1.629691e+01 2.869759e+00 -8.748010e+00 4.370294e-01 -2.641333e+00 -6.837170e+00 -5.087611e+00 -9.282883e+00 -9.467002e+00 -1.841296e-01 2.887172e-01 2.438817e-01 -1.870646e-01 -1.878964e-01 2.681940e-01 2.167697e-01 -2.184495e-01 -1.754490e-01 9.505999e-02 -3.997082e-02 6.994639e-03 1.774049e-01 -1.268793e-02 -8.685523e-02 -9.235744e-02 -7.118272e-02 -6.839659e-02 -3.017304e-02 8.831736e-02 2.143407e-01 3.110410e-02 -1.380271e-01 1.062037e-02 1.198831e-01 7.232696e-02
<VARIANCE> 39
 4.241633e+00 1.174139e+01 1.480145e+01 1.093194e+01 1.891100e+01 2.012526e+01 3.362923e+01 4.945215e+01 2.363117e+01 2.184598e+01 1.512492e+01 1.620274e+01 1.753859e+01 2.823683e-01 5.068983e-01 5.547835e-01 6.774914e-01 8.480839e-01 7.014939e-01 1.402218e+00 1.386108e+00 6.483673e-01 9.779705e-01 5.990173e-01 7.812626e-01 6.970940e-01 2.648010e-02 6.280484e-02 6.582633e-02 1.115374e-01 1.242868e-01 9.474554e-02 1.613951e-01 1.530068e-01 9.097368e-02 1.582447e-01 8.683015e-02 1.171108e-01 9.589491e-02
<GCONST> 7.365946e+01
<STATE> 4
<NUMMIXES> 2
<MIXTURE> 1 0.000000e+00
<MEAN> 39
 -3.465476e+01 1.675967e+01 -7.743439e+00 1.826633e+00 -1.155705e+00 1.236522e+01 -1.445375e+01 5.846484e+00 -1.598039e-01 2.253834e-01 -2.058068e+00 -9.824362e-02 3.765816e+00 -1.362455e-01 8.215038e-02 1.575990e-02 -2.231550e-02 5.907191e-02 6.852118e-02 -5.401044e-02 8.545254e-03 3.942942e-02 2.500927e-04 -6.214541e-04 1.159003e-02 3.031951e-02 2.616155e-01 -1.072249e-01 2.894851e-02 8.718687e-02 -5.242795e-02 -9.323000e-02 1.351443e-01 9.685402e-03 -5.067167e-02 2.049104e-02 2.124489e-02 -7.652363e-03 -4.976257e-02
<VARIANCE> 39
 4.483082e-01 6.496472e-01 1.372011e+00 1.126045e+00 1.920628e+00 1.941905e+00 2.517905e+00 2.499093e+00 2.399876e+00 2.720778e+00 3.064659e+00 2.732042e+00 2.229308e+00 1.086354e+00 3.270376e-01 2.173789e-01 2.914865e-01 3.910311e-01 4.624964e-01 5.924420e-01 3.902425e-01 4.446459e-01 4.080288e-01 4.378160e-01 3.926591e-01 3.533571e-01 2.683040e-01 8.656988e-02 6.370471e-02 7.948849e-02 7.781372e-02 1.027722e-01 1.615612e-01 9.150107e-02 9.617190e-02 9.459341e-02 9.706742e-02 8.784577e-02 8.113205e-02
<GCONST> 3.729400e+01
<MIXTURE> 2 1.000000e+00
<MEAN> 39
 1.325704e+01 6.691890e+00 4.705859e+00 1.712454e+01 1.401515e+01 -3.172250e-02 -7.550762e+00 8.056155e+00 -5.797799e-01 -1.130642e+01 -4.163599e+00 -4.781153e+00 -8.044536e+00 6.125889e-01 -1.362692e+00 -1.308562e+00 -1.211780e+00 -9.413745e-01 -9.729801e-01 -3.667285e-01 1.596638e+00 -1.492756e-01 -1.859027e+00 7.484843e-01 1.556113e+00 8.163831e-01 1.893779e-01 -3.725423e-01 -2.492584e-01 -1.095721e-01 -1.829633e-02 -2.560311e-01 -3.440239e-01 2.679564e-01 -1.093085e-01 -3.735616e-01 4.146293e-01 2.870631e-01 -1.098175e-01
<VARIANCE> 39
 6.291972e+01 3.937617e+01 5.099261e+01 2.592891e+01 3.997030e+01 6.294940e+01 2.557403e+01 7.549294e+01 4.538529e+01 4.214832e+01 2.021574e+01 2.506661e+01 2.421644e+01 1.122783e+00 2.215950e+00 2.440725e+00 2.007140e+00 3.076333e+00 2.456234e+00 1.825890e+00 3.324673e+00 1.314019e+00 4.543007e+00 1.862884e+00 2.220024e+00 1.067739e+00 9.225278e-02 1.831979e-01 2.689267e-01 2.457566e-01 3.303495e-01 2.184458e-01 2.925543e-01 4.040105e-01 1.724838e-01 4.355233e-01 2.938891e-01 2.318665e-01 1.706834e-01
<GCONST> 1.100408e+02
<TRANSP> 5
 0.000000e+00 1.000000e+00 0.000000e+00 0.000000e+00 0.000000e+00
 0.000000e+00 8.812242e-01 1.187758e-01 0.000000e+00 0.000000e+00
 0.000000e+00 0.000000e+00 8.697656e-01 1.302344e-01 0.000000e+00
 0.000000e+00 0.000000e+00 0.000000e+00 5.909609e-01 4.090391e-01
 0.000000e+00 0.000000e+00 0.000000e+00 0.000000e+00 0.000000e+00
<ENDHMM>
~h "n"
<BEGINHMM>
<NUMSTATES> 5
<STATE> 2
<NUMMIXES> 2
<MIXTURE> 1 5.497104e-01
<MEAN> 39
 1.303998e+01 8.479093e+00 3.810805e+00 1.607393e+01 1.906856e+01 7.821877e+00 -7.890789e+00 4.135358e-01 -5.859974e+00 -1.203500e+01 -5.572118e+00 -5.473516e+00 -2.894881e+00 -2.689111e-02 8.563194e-01 9.219063e-01 1.040310e+00 6.339615e-01 -6.755899e-02 -8.316478e-01 -1.681298e+00 -3.379371e-01 6.038413e-01 -5.972218e-01 -6.407267e-01 -6.411904e-02 1.627326e-01 -3.690763e-01 -2.735611e-01 -1.444293e-01 2.646061e-02 -1.540393e-01 -3.039738e-01 1.125537e-01 -2.046078e-04 -7.481436e-02 3.947572e-01 1.659990e-01 -8.020934e-02
<VARIANCE> 39
 3.556802e+01 2.803185e+01 3.189310e+01 2.717425e+01 3.162964e+01 3.012088e+01 4.546549e+01 4.107005e+01 2.225313e+01 2.870143e+01 3.283953e+01 2.201398e+01 1.577388e+01 7.344435e-01 1.556435e+00 2.047034e+00 1.865198e+00 1.764367e+00 1.196266e+00 2.276992e+00 1.874205e+00 1.152533e+00 2.291187e+00 2.065609e+00 1.302762e+00 1.127149e+00 5.907878e-02 1.454937e-01 1.615672e-01 1.820423e-01 2.336605e-01 1.630223e-01 3.460179e-01 2.833606e-01 1.619617e-01 2.692876e-01 2.490936e-01 1.549386e-01 1.680999e-01
<GCONST> 9.924837e+01
<MIXTURE> 2 4.502890e-01
<MEAN> 39
 1.404958e+01 1.040483e+01 8.936663e+00 2.032128e+01 1.809079e+01 2.448955e+00 -1.139171e+01 -1.720127e+00 -4.753484e+00 -1.063014e+01 -6.854201e+00 -7.002738e+00 -4.187553e+00 -3.910397e-02 2.335336e-01 1.904839e-01 1.194740e-01 1.480272e-01 6.076740e-02 -3.241093e-01 -5.893139e-01 -2.979917e-02 4.110565e-01 3.319766e-02 -1.498301e-01 5.933442e-02 1.768148e-02 -1.247201e-02 -9.691487e-02 -1.390413e-01 -1.843683e-02 1.130086e-01 6.776552e-02 4.057880e-02 -3.471072e-03 -1.470889e-02 1.943762e-02 -6.709833e-03 1.104375e-02
<VARIANCE> 39
 2.820036e+00 1.278353e+01 1.345715e+01 1.358782e+01 1.902808e+01 1.621090e+01 2.332261e+01 2.681187e+01 1.616364e+01 2.805496e+01 1.726130e+01 1.709156e+01 1.318712e+01 1.165673e-01 3.612522e-01 3.678441e-01 6.202366e-01 7.012872e-01 5.174862e-01 9.546214e-01 6.738002e-01 5.131015e-01 8.932817e-01 4.708364e-01 5.298235e-01 4.323751e-01 1.380296e-02 4.338084e-02 5.497419e-02 8.938128e-02 9.483140e-02 6.083230e-02 1.293646e-01 7.958194e-02 6.946804e-02 1.208016e-01 6.772435e-02 6.474835e-02 5.468780e-02
<GCONST> 6.233287e+01
<STATE> 3
<NUMMIXES> 2
<MIXTURE> 1 7.069204e-01
<MEAN> 39
 1.479142e+01 1.017997e+01 5.736229e+00 1.980998e+01 2.352096e+01 7.706680e+00 -1.480766e+01 -9.192389e+00 -7.057827e+00 -7.177877e+00 -4.679558e+00 -7.061577e+00 -2.909126e+00 6.760457e-02 -5.144651e-02 -6.227405e-02 -6.037126e-02 2.683799e-03 -1.073999e-02 -5.845030e-02 -5.682924e-02 -1.029743e-02 -1.377301e-03 -2.698421e-02 -5.216522e-02 1.281982e-02 -4.221169e-02 -1.058018e-01 -2.195071e-02 -8.355027e-02 -1.373089e-01 -3.407799e-02 1.802216e-01 3.549867e-01 1.808880e-02 -2.009640e-01 8.004831e-02 1.058636e-01 -5.039399e-02
<VARIANCE> 39
 3.084944e+00 1.010872e+01 1.766223e+01 1.118390e+01 1.906992e+01 2.177374e+01 2.166787e+01 2.179520e+01 1.622812e+01 2.747616e+01 1.694404e+01 1.547192e+01 1.224198e+01 1.696773e-01 4.545455e-01 5.125760e-01 5.885321e-01 1.124427e+00 5.734709e-01 1.474171e+00 1.353408e+00 6.645383e-01 1.344215e+00 6.496516e-01 7.212721e-01 5.065939e-01 2.400894e-02 7.231337e-02 7.716268e-02 1.112874e-01 1.848666e-01 9.776281e-02 2.019585e-01 1.779360e-01 1.185609e-01 2.246435e-01 1.124974e-01 1.166881e-01 9.251081e-02
<GCONST> 7.291151e+01
<MIXTURE> 2 2.930793e-01
<MEAN> 39
 2.671317e+00 -1.034075e+00 2.182098e+00 1.181197e+01 1.224996e+01 9.099167e+00 -3.715137e+00 3.137778e+00 -7.516789e+00 -9.721157e+00 2.390004e+00 -1.870745e+00 -1.818913e+00 5.690888e-01 6.494682e-01 2.644911e-01 2.497483e-01 3.039731e-01 1.448319e-01 1.467026e-01 1.165914e-01 -1.231767e-01 -2.957770e-01 -2.796619e-01 -1.244272e-01 -2.674407e-02 -2.946666e-02 6.971038e-02 9.671818e-02 7.571304e-02 5.754914e-02 -3.010768e-02 -1.573452e-01 -1.826001e-01 2.936769e-02 1.301508e-01 -1.754439e-03 -2.361731e-02 1.391062e-02
<VARIANCE> 39
 1.962798e+02 1.717419e+02 1.120465e+02 1.124214e+02 8.726225e+01 6.161502e+01 5.730260e+01 5.920064e+01 6.127546e+01 7.039306e+01 1.106412e+02 3.859661e+01 3.414498e+01 2.787575e+00 4.515865e+00 4.311973e+00 4.344384e+00 3.022224e+00 3.005553e+00 4.726308e+00 4.886539e+00 3.508957e+00 4.101089e+00 3.997231e+00 1.879803e+00 1.558168e+00 2.467568e-01 4.327353e-01 5.238741e-01 5.482630e-01 3.918824e-01 4.211612e-01 5.450650e-01 6.519437e-01 5.853304e-01 6.602653e-01 5.039625e-01 2.637146e-01 2.511372e-01
<GCONST> 1.337873e+02
<STATE> 4
<NUMMIXES> 2
<MIXTURE> 1 4.876063e-01
<MEAN> 39
 1.551068e+01 5.120595e+00 2.377590e+00 1.761276e+01 2.224755e+01 6.364881e+00 -1.326822e+01 -8.209933e-01 -7.056931e+00 -1.347241e+01 -1.926921e+00 -4.043659e+00 -3.552359e+00 6.429923e-01 -2.525515e+00 -1.466303e+00 -1.070551e+00 -6.211529e-01 -1.196275e+00 -6.189430e-01 3.198414e+00 -2.186106e-01 -2.399919e+00 2.600250e+00 1.489084e+00 -9.500843e-01 1.921304e-01 -5.976815e-01 -3.340167e-01 -2.071345e-01 2.756033e-03 -2.679586e-01 -4.262833e-01 5.168478e-01 -1.589104e-01 -4.737435e-01 7.585217e-01 2.950791e-01 -2.811684e-01
<VARIANCE> 39
 7.150288e+00 2.057534e+01 2.707024e+01 2.614191e+01 2.375006e+01 1.578862e+01 2.790770e+01 5.186824e+01 2.097433e+01 3.057328e+01 4.435917e+01 1.759518e+01 1.461257e+01 5.887294e-01 1.976098e+00 1.975639e+00 2.519253e+00 1.949635e+00 1.263192e+00 2.401813e+00 3.006181e+00 1.714949e+00 2.844654e+00 3.442206e+00 1.605555e+00 1.698303e+00 5.300882e-02 1.689005e-01 1.980071e-01 2.148373e-01 2.687883e-01 1.574655e-01 3.278607e-01 4.013878e-01 2.016755e-01 3.659607e-01 2.403635e-01 2.142232e-01 2.052464e-01
<GCONST> 1.004790e+02
<MIXTURE> 2 5.123940e-01
<MEAN> 39
 8.365361e+00 1.554975e+01 1.318310e+01 1.728163e+01 1.455571e+01 7.520886e+00 -4.938630e+00 -1.306333e+00 -5.799602e+00 -7.948509e+00 -6.001657e+00 -7.382663e+00 -4.088532e+00 -9.724824e-01 2.362236e-01 4.068745e-01 -3.141049e-01 -5.368066e-01 3.187376e-01 7.770220e-01 4.563473e-01 9.928086e-02 2.027011e-01 1.943260e-01 2.261094e-01 3.708387e-02 -1.514507e-02 -1.273056e-01 -1.042056e-01 3.250828e-03 6.559212e-02 -1.394283e-02 -8.445390e-02 2.306201e-02 2.589928e-02 -3.344855e-02 2.450810e-02 1.893951e-02 6.321005e-03
<VARIANCE> 39
 4.026760e+01 1.171418e+01 1.256128e+01 1.304765e+01 1.793472e+01 1.250126e+01 2.866274e+01 2.244083e+01 1.425699e+01 2.004813e+01 1.055030e+01 1.277972e+01 8.850134e+00 8.111290e-01 8.147804e-01 9.709955e-01 9.956388e-01 9.517770e-01 6.327824e-01 1.332921e+00 9.276656e-01 8.490406e-01 1.407859e+00 6.991668e-01 7.287158e-01 5.648705e-01 4.995110e-02 7.229131e-02 1.134449e-01 1.357029e-01 1.261067e-01 7.751202e-02 1.548726e-01 1.231752e-01 1.151670e-01 1.517665e-01 8.984271e-02 1.018724e-01 7.111386e-02
<GCONST> 7.597316e+01
<TRANSP> 5
 0.000000e+00 1.000000e+00 0.000000e+00 0.000000e+00 0.000000e+00
 0.000000e+00 8.088140e-01 1.911860e-01 0.000000e+00 0.000000e+00
 0.000000e+00 0.000000e+00 8.986961e-01 1.013039e-01 0.000000e+00
 0.000000e+00 0.000000e+00 0.000000e+00 7.810198e-01 2.189802e-01
 0.000000e+00 0.000000e+00 0.000000e+00 0.000000e+00 0.000000e+00
<ENDHMM>
~h "o"
<BEGINHMM>
<NUMSTATES> 7
<STATE> 2
<NUMMIXES> 2
<MIXTURE> 1 5.336423e-01
<MEAN> 39
 4.645129e+00 8.241783e+00 2.913140e+00 -4.543170e+00 -1.357098e+01 -1.104170e+01 -5.632260e+00 1.811711e+01 4.912651e+00 -4.532565e+00 7.783334e+00 -3.342406e-01 -4.382308e+00 2.393538e+00 7.493511e-01 6.832680e-01 1.255913e+00 6.914250e-01 -7.567683e-01 -6.001197e-01 6.575479e-01 2.964315e-01 -6.985248e-01 -2.109929e-01 -2.964595e-01 -8.447301e-01 -1.501573e-01 -1.550012e-01 1.037254e-01 7.374759e-01 6.921465e-01 1.195109e-01 -6.604551e-02 -2.716631e-01 -1.185431e-01 -2.063542e-01 -4.271746e-01 -6.463524e-03 -1.060857e-02
<VARIANCE> 39
 4.469218e+01 2.704429e+01 2.646407e+01 6.198193e+01 8.360790e+01 6.149672e+01 5.431699e+01 7.286641e+01 3.049757e+01 4.847647e+01 4.126869e+01 3.061844e+01 3.402027e+01 2.341849e+00 1.781938e+00 1.595909e+00 1.117460e+01 1.441211e+01 8.095219e+00 4.699591e+00 5.378686e+00 2.054001e+00 3.147618e+00 4.859886e+00 1.839318e+00 2.106677e+00 3.106851e-01 2.318396e-01 2.792364e-01 1.165708e+00 1.891039e+00 1.728293e+00 9.457894e-01 8.294209e-01 3.965774e-01 7.740523e-01 6.112997e-01 3.427742e-01 4.061319e-01
<GCONST> 1.316176e+02
<MIXTURE> 2 4.663569e-01
<MEAN> 39
 1.761835e+01 1.789010e+00 4.099473e+00 1.278806e+01 3.347203e+00 -1.048126e+01 -1.058059e+01 1.857590e+01 1.419966e+00 -1.710164e+01 -7.895719e-01 -3.982774e+00 -6.932207e+00 1.556653e+00 3.046211e-01 -4.551905e-01 7.537370e-01 4.751278e-01 -3.425610e+00 -2.738529e+00 1.885306e+00 9.154409e-01 -2.485970e+00 -9.575820e-01 -1.117309e-01 -1.364660e+00 -4.388960e-01 -3.495625e-01 -1.072610e-01 -4.842079e-01 -3.847894e-01 1.365009e-01 7.133944e-02 1.336430e-01 1.456247e-01 3.037666e-01 4.339685e-01 3.664102e-02 2.314233e-02
<VARIANCE> 39
 1.107615e+01 9.150185e+01 2.870942e+01 2.658981e+01 4.708701e+01 6.057877e+01 4.008961e+01 4.233664e+01 4.459065e+01 5.872735e+01 3.626147e+01 2.677584e+01 2.472664e+01 8.898133e-01 1.950840e+00 1.461665e+00 3.026736e+00 1.823079e+00 1.824542e+00 2.368424e+00 2.875315e+00 2.470149e+00 2.574636e+00 3.019464e+00 1.076005e+00 8.893183e-01 1.228100e-01 1.389403e-01 3.084069e-01 4.038450e-01 3.835883e-01 6.431530e-01 4.612119e-01 4.769724e-01 2.478464e-01 4.118369e-01 3.439138e-01 1.583769e-01 1.590453e-01
<GCONST> 1.105568e+02
<STATE> 3
<NUMMIXES> 2
<MIXTURE> 1 8.081892e-01
<MEAN> 39
 2.048669e+01 -2.799214e+00 -7.466134e-01 1.065379e+01 7.219285e+00 -1.532085e+01 -1.940605e+01 2.449669e+01 5.380213e+00 -2.370165e+01 -2.006893e+00 -6.479601e+00 -1.003737e+01 -4.195432e-02 5.476615e-01 3.629290e-01 -7.860862e-02 -6.785242e-01 -1.488186e+00 -6.711681e-01 8.682314e-01 1.089536e+00 2.516237e-01 1.473047e-02 -3.779978e-02 -4.635048e-01 -1.133158e-01 -6.630867e-03 1.545777e-01 9.968816e-02 -1.003598e-01 2.181792e-01 2.335465e-01 -3.083241e-01 -9.409016e-02 2.812796e-01 4.813065e-02 8.077318e-02 1.250731e-01
<VARIANCE> 39
 5.704936e+00 2.250808e+01 2.309326e+01 2.595412e+01 3.106748e+01 4.890639e+01 3.252109e+01 5.289179e+01 3.418876e+01 3.677559e+01 4.097266e+01 1.297420e+01 1.268038e+01 4.101422e-01 6.109300e-01 6.921082e-01 9.325803e-01 7.485342e-01 8.288555e-01 1.565412e+00 1.925380e+00 6.652247e-01 1.667047e+00 1.154797e+00 6.578039e-01 5.163970e-01 8.957887e-02 5.860568e-02 1.033057e-01 9.700480e-02 1.064544e-01 1.324777e-01 2.368463e-01 2.679187e-01 9.898471e-02 2.388322e-01 2.114636e-01 9.121291e-02 6.828401e-02
<GCONST> 8.438033e+01
<MIXTURE> 2 1.918105e-01
<MEAN> 39
 1.582904e+01 1.384078e+01 9.829301e+00 1.297598e+01 -4.303066e+00 -2.087368e+01 -1.370888e+01 1.764692e+01 7.565828e+00 -8.550385e+00 2.052249e+00 4.061388e+00 -5.327406e+00 7.631230e-01 -9.300978e-01 -4.550069e-01 7.015069e-01 8.142291e-03 -1.966724e+00 -1.404716e+00 8.310741e-01 5.792388e-01 -9.036648e-01 -3.501408e-01 -7.954907e-02 -5.630998e-01 -1.650874e-01 -1.129097e-01 -1.141198e-01 -1.319168e-01 1.440343e-01 3.742092e-01 1.715327e-01 -2.462503e-02 6.905616e-02 1.325843e-01 -2.673422e-02 -1.482909e-01 6.455751e-02
<VARIANCE> 39
 8.696359e+00 1.531491e+01 1.012271e+01 1.769548e+01 8.809004e+00 4.576966e+01 3.697119e+01 3.191732e+01 1.832069e+01 2.275720e+01 1.528361e+01 2.094457e+01 1.375359e+01 3.213214e-01 5.118194e-01 4.577140e-01 6.414344e-01 7.006751e-01 1.769721e+00 1.114791e+00 1.753504e+00 8.717872e-01 1.081825e+00 5.221922e-01 7.548063e-01 4.042531e-01 6.160169e-02 8.280925e-02 7.209893e-02 1.224224e-01 1.027091e-01 2.912890e-01 1.838542e-01 2.919549e-01 1.581444e-01 1.939506e-01 1.001815e-01 1.065519e-01 7.342982e-02
<GCONST> 7.813397e+01
<STATE> 4
<NUMMIXES> 2
<MIXTURE> 1 2.114632e-01
<MEAN> 39
 1.749921e+01 7.449919e+00 8.108357e+00 1.163491e+01 -3.542737e+00 -2.113405e+01 -1.449281e+01 1.975154e+01 7.321589e+00 -1.520620e+01 -1.460374e+00 -1.011366e+00 -1.056700e+01 1.588033e-01 -2.056238e-01 -2.579922e-01 -7.533216e-02 2.312089e-01 7.670799e-02 -1.539085e-01 3.336421e-01 -2.234334e-03 -3.002588e-01 6.306913e-02 -3.659922e-01 -3.151316e-01 7.099418e-02 -3.831176e-02 -7.830147e-02 1.796258e-02 1.615625e-01 1.038631e-01 -8.929905e-02 1.576861e-01 -3.875776e-02 -1.312022e-01 9.331120e-02 -6.185463e-02 -8.663435e-03
<VARIANCE> 39
 4.568841e+00 2.088928e+01 2.014380e+01 2.650049e+01 2.274538e+01 4.850363e+01 3.028932e+01 3.445933e+01 2.601528e+01 3.082416e+01 3.108889e+01 3.188478e+01 1.584724e+01 2.721292e-01 6.521859e-01 6.633455e-01 8.617994e-01 6.893787e-01 1.415781e+00 1.484579e+00 1.959827e+00 7.588426e-01 1.751975e+00 1.043845e+00 1.117259e+00 5.428156e-01 3.892719e-02 5.871347e-02 5.721608e-02 1.026733e-01 7.769430e-02 1.583888e-01 1.594895e-01 2.631308e-01 1.174650e-01 1.732127e-01 1.301789e-01 1.052715e-01 7.041765e-02
<GCONST> 8.177942e+01
<MIXTURE> 2 7.885351e-01
<MEAN> 39
 1.901444e+01 3.586601e+00 7.270189e+00 1.578269e+01 -1.718585e+00 -2.799923e+01 -2.082854e+01 2.545457e+01 9.560278e+00 -1.835906e+01 5.778204e-01 -1.989094e+00 -1.241125e+01 -8.433360e-02 1.815393e-01 2.205597e-01 5.759493e-02 -2.227892e-01 -1.421953e-01 6.132598e-02 -1.363743e-01 -7.058620e-02 1.369361e-01 1.545743e-01 1.799384e-01 -5.442609e-02 -2.849319e-02 3.156122e-02 -3.725536e-03 -5.363328e-02 8.242577e-03 1.428316e-01 1.193785e-01 -5.727062e-02 -8.726367e-02 1.878444e-02 1.431797e-02 -4.912838e-04 2.646722e-02
<VARIANCE> 39
 3.038320e+00 1.204860e+01 1.577988e+01 8.653173e+00 9.450568e+00 1.477121e+01 1.528206e+01 2.062996e+01 9.702579e+00 1.452282e+01 2.251969e+01 1.508568e+01 9.757729e+00 2.280853e-01 3.753145e-01 5.264816e-01 4.803622e-01 3.951930e-01 7.300232e-01 9.308292e-01 1.187729e+00 4.716462e-01 8.103146e-01 8.262455e-01 5.790142e-01 3.036885e-01 3.810920e-02 3.725386e-02 6.459739e-02 6.309019e-02 5.462211e-02 9.057969e-02 1.363362e-01 1.822955e-01 6.393812e-02 1.251011e-01 1.128640e-01 7.380561e-02 4.941950e-02
<GCONST> 6.238678e+01
<STATE> 5
<NUMMIXES> 2
<MIXTURE> 1 3.125636e-01
<MEAN> 39
 2.009316e+01 -2.123822e+00 -2.254550e-01 1.148147e+01 5.803205e+00 -1.649008e+01 -1.720387e+01 2.708123e+01 3.786469e+00 -2.720205e+01 -2.894731e+00 -5.724020e+00 -1.042102e+01 9.601890e-02 -5.788687e-01 -5.249006e-01 -6.670554e-02 9.082429e-01 1.269590e+00 4.875408e-01 -1.434233e-01 -1.205249e+00 -9.206499e-01 2.145002e-01 -7.770180e-02 1.833534e-01 -6.262271e-02 1.038514e-01 1.137652e-01 1.053255e-01 -3.417280e-02 5.995734e-02 1.519722e-01 -1.806635e-01 -4.639185e-02 1.954971e-01 -2.057720e-03 6.663726e-02 4.870084e-02
<VARIANCE> 39
 4.192207e+00 1.751186e+01 1.521889e+01 1.801613e+01 3.323335e+01 4.280325e+01 2.889339e+01 2.830407e+01 4.604032e+01 3.273410e+01 3.604734e+01 1.347610e+01 1.480704e+01 3.151695e-01 3.730229e-01 6.462168e-01 7.889704e-01 7.193553e-01 1.056739e+00 1.387733e+00 2.034940e+00 6.532371e-01 1.427823e+00 1.171962e+00 8.672096e-01 5.116575e-01 5.784516e-02 5.026919e-02 8.139556e-02 7.252353e-02 8.953518e-02 1.068815e-01 2.098361e-01 2.771696e-01 1.045977e-01 1.890624e-01 1.943405e-01 8.710743e-02 7.034317e-02
<GCONST> 7.985583e+01
<MIXTURE> 2 6.874372e-01
<MEAN> 39
 1.708362e+01 8.433125e+00 8.960831e+00 1.300078e+01 -1.210767e+00 -1.946538e+01 -1.595026e+01 2.013038e+01 5.314846e+00 -1.439093e+01 4.747603e+00 -1.894888e-01 -1.261366e+01 -5.796061e-01 8.283592e-01 3.106916e-01 -6.419104e-02 2.754079e-01 1.614542e+00 1.249759e+00 -1.355893e+00 -5.069594e-01 1.323780e+00 -1.136659e-01 -5.836995e-02 5.895205e-01 -1.544964e-01 5.370175e-02 1.045386e-02 -4.858427e-02 1.556136e-01 4.162109e-01 2.099555e-01 -2.438882e-01 1.002989e-02 2.070993e-01 -2.113597e-01 -8.712695e-02 2.003341e-01
<VARIANCE> 39
 7.397322e+00 3.185847e+01 3.644387e+01 2.750440e+01 3.645795e+01 6.313286e+01 4.631021e+01 6.928262e+01 2.886333e+01 5.957427e+01 5.822380e+01 3.865260e+01 2.357415e+01 4.870485e-01 8.178323e-01 9.165996e-01 1.092622e+00 1.026723e+00 2.736691e+00 2.413254e+00 2.161309e+00 1.070599e+00 2.130128e+00 1.493977e+00 1.235219e+00 8.133358e-01 5.092461e-02 8.827277e-02 1.232380e-01 1.305373e-01 1.475871e-01 2.815302e-01 2.718259e-01 3.423271e-01 1.788848e-01 2.962261e-01 1.913495e-01 1.757236e-01 1.196296e-01
<GCONST> 9.764647e+01
<STATE> 6
<NUMMIXES> 2
<MIXTURE> 1 6.615261e-01
<MEAN> 39
 1.894312e+00 1.250535e+01 1.074728e+01 1.109209e+01 4.342622e+00 1.542424e+00 -5.554860e-01 1.191016e+01 3.960972e+00 -2.308609e+00 1.694814e+00 -1.116929e+00 -4.126740e+00 -1.929290e+00 -2.569209e-01 -3.853703e-02 -3.340289e-01 5.332652e-01 1.897400e+00 1.032069e+00 -9.434389e-01 -2.528376e-01 7.994676e-01 -4.376153e-01 -2.757697e-01 8.079917e-01 1.184519e-02 -1.865356e-01 -3.888658e-02 8.665400e-03 -9.048634e-02 -2.839987e-01 -2.206288e-01 1.319824e-01 -1.114454e-02 -2.269445e-01 4.999091e-02 1.302416e-02 -1.015976e-01
<VARIANCE> 39
 1.428356e+02 5.243632e+01 4.010421e+01 2.718447e+01 2.915926e+01 8.823714e+01 5.308234e+01 3.395761e+01 2.474245e+01 6.211132e+01 4.388916e+01 2.624193e+01 2.571116e+01 1.090878e+00 2.386183e+00 2.446856e+00 1.514845e+00 2.275024e+00 5.245219e+00 3.206237e+00 1.986732e+00 1.912299e+00 2.484914e+00 1.351222e+00 1.003358e+00 1.162588e+00 1.054655e-01 1.384139e-01 2.108482e-01 1.945048e-01 1.925026e-01 2.846801e-01 2.292924e-01 2.611431e-01 2.426216e-01 2.255803e-01 1.669359e-01 1.306833e-01 1.346800e-01
<GCONST> 1.073115e+02
<MIXTURE> 2 3.384733e-01
<MEAN> 39
 -1.679663e+01 -5.191109e+00 -4.252882e+00 4.241145e-02 -1.894269e+00 -2.932888e+00 -6.222178e+00 5.923596e+00 -2.473633e-01 -4.854489e+00 2.365355e-01 -1.668303e+00 -1.319526e+00 -1.946275e-03 -4.021425e-02 -5.333672e-02 -1.596636e-02 2.353514e-02 9.276304e-02 3.613590e-02 -9.190551e-02 -1.058210e-01 2.308682e-02 2.799944e-02 -6.930761e-03 2.868488e-02 3.817886e-02 5.725830e-02 6.680706e-02 6.544781e-02 4.748918e-02 3.788023e-02 4.180718e-02 4.551892e-02 2.805040e-02 2.581142e-02 2.964621e-02 1.790091e-02 -5.441075e-04
<VARIANCE> 39
 3.662008e+02 1.095918e+01 1.399078e+01 3.920918e+01 2.604802e+01 6.418259e+01 3.814869e+01 9.981293e+01 2.279337e+01 1.049031e+02 1.369456e+01 1.454705e+01 2.656500e+01 1.238728e-01 2.277958e-01 3.714275e-01 4.377731e-01 6.335470e-01 7.394484e-01 9.235343e-01 1.199816e+00 9.216750e-01 1.106738e+00 1.055693e+00 8.379385e-01 6.997082e-01 3.092784e-02 5.273460e-02 8.181426e-02 1.043213e-01 1.400979e-01 1.587421e-01 1.996780e-01 2.196930e-01 1.928691e-01 1.965024e-01 2.071373e-01 1.715162e-01 1.402875e-01
<GCONST> 8.511311e+01
<TRANSP> 7
 0.000000e+00 1.000000e+00 0.000000e+00 0.000000e+00 0.000000e+00 0.000000e+00 0.000000e+00
 0.000000e+00 7.702116e-01 2.297885e-01 0.000000e+00 0.000000e+00 0.000000e+00 0.000000e+00
 0.000000e+00 0.000000e+00 8.284732e-01 1.715269e-01 0.000000e+00 0.000000e+00 0.000000e+00
 0.000000e+00 0.000000e+00 0.000000e+00 9.143458e-01 8.565419e-02 0.000000e+00 0.000000e+00
 0.000000e+00 0.000000e+00 0.000000e+00 0.000000e+00 8.104163e-01 1.895838e-01 0.000000e+00
 0.000000e+00 0.000000e+00 0.000000e+00 0.000000e+00 0.000000e+00 8.142310e-01 1.857689e-01
 0.000000e+00 0.000000e+00 0.000000e+00 0.000000e+00 0.000000e+00 0.000000e+00 0.000000e+00
<ENDHMM>
~h "p"
<BEGINHMM>
<NUMSTATES> 5
<STATE> 2
<NUMMIXES> 2
<MIXTURE> 1 3.069904e-01
<MEAN> 39
 -2.493386e+01 -8.888924e+00 -7.991963e+00 -4.019479e+00 -1.720070e+00 4.643307e+00 -3.697633e-01 5.686715e-01 -7.495776e+00 -5.066535e+00 2.941426e+00 3.889312e+00 2.212147e+00 -5.484566e-02 -3.013550e-02 -7.381348e-02 -8.902192e-02 -3.826628e-02 -5.296992e-02 -1.014034e-01 -8.516824e-02 -5.758054e-02 1.378975e-02 1.230361e-02 2.788290e-02 3.675434e-02 4.226427e-02 2.893541e-02 6.129932e-02 7.493751e-02 5.989103e-02 5.646359e-02 4.663444e-02 5.828322e-02 3.753002e-02 3.002402e-02 -4.118683e-04 -5.991153e-03 1.703401e-02
<VARIANCE> 39
 3.124329e+00 1.290564e+01 1.504454e+01 1.514919e+01 1.486976e+01 2.598147e+01 1.733373e+01 1.681516e+01 5.359023e+01 2.759491e+01 1.781403e+01 3.158167e+01 1.195665e+01 1.739880e-01 5.239981e-01 6.978953e-01 7.421516e-01 8.117517e-01 1.175144e+00 1.256967e+00 1.252481e+00 1.626570e+00 1.250655e+00 1.217368e+00 1.157740e+00 8.342542e-01 3.831860e-02 7.885895e-02 1.035891e-01 1.035280e-01 1.319885e-01 2.214916e-01 2.385214e-01 2.068402e-01 2.473250e-01 1.864321e-01 1.957684e-01 1.872475e-01 1.298738e-01
<GCONST> 8.147065e+01
<MIXTURE> 2 6.930092e-01
<MEAN> 39
 -5.152129e+00 1.021642e+01 8.550536e+00 1.057643e+01 7.669616e+00 6.936139e+00 1.731725e+00 9.609572e+00 2.208517e+00 -2.397570e+00 -6.937757e-01 -6.413931e-01 6.356335e-01 -2.647327e+00 -1.385185e+00 -4.830809e-01 -7.810970e-01 -5.675061e-01 6.522427e-01 5.570030e-01 -3.964325e-01 -1.448046e-01 5.732269e-01 3.282910e-01 1.005256e-01 4.142722e-01 1.199357e-01 -6.403195e-01 -5.450151e-01 -1.265974e-01 -5.640580e-03 -1.349325e-01 -9.561280e-02 1.058614e-01 -4.076990e-02 -2.180008e-01 3.290202e-02 8.649044e-02 6.888230e-02
<VARIANCE> 39
 7.565240e+01 2.599114e+01 4.334321e+01 4.065742e+01 5.127790e+01 6.393595e+01 3.121844e+01 4.669041e+01 6.899990e+01 4.779346e+01 2.444983e+01 2.001426e+01 1.709558e+01 8.526978e-01 4.058955e+00 3.490256e+00 1.271848e+00 2.011550e+00 2.589825e+00 1.711342e+00 1.676922e+00 1.623341e+00 1.859176e+00 1.385227e+00 1.154737e+00 1.516226e+00 1.324547e-01 2.173440e-01 2.134326e-01 2.105773e-01 3.838694e-01 3.459092e-01 2.458792e-01 2.749624e-01 2.937949e-01 3.108071e-01 3.015113e-01 2.215647e-01 2.485745e-01
<GCONST> 1.088207e+02
<STATE> 3
<NUMMIXES> 2
<MIXTURE> 1 4.882932e-01
<MEAN> 39
 -1.812636e+01 -1.756463e+00 7.674648e-02 4.330857e+00 4.018703e+00 7.061944e+00 1.582992e+00 6.612987e+00 8.204650e-01 -1.172535e+00 2.576421e-01 1.981504e-01 2.805012e+00 1.175067e+00 -1.247944e+00 -8.086643e-01 4.903527e-01 1.142401e+00 1.026692e+00 5.778422e-01 1.018374e+00 3.393725e-01 -5.106658e-01 -1.704496e-01 3.763127e-01 1.143695e+00 8.908760e-01 1.287772e-01 1.641283e-01 2.465435e-01 2.081174e-01 2.137478e-02 -1.679613e-01 1.747865e-01 -1.792318e-03 -2.019215e-01 -3.047096e-02 -1.659633e-01 -6.195432e-02
<VARIANCE> 39
 4.803300e+01 3.452063e+01 2.828417e+01 3.176967e+01 3.867945e+01 3.908397e+01 2.527404e+01 2.780452e+01 2.657195e+01 2.428903e+01 1.591014e+01 1.281369e+01 1.560775e+01 5.408596e+00 6.456151e+00 5.266668e+00 4.489874e+00 4.935319e+00 3.918623e+00 3.691377e+00 3.635953e+00 3.365899e+00 3.028720e+00 2.494099e+00 2.267585e+00 2.353278e+00 2.445223e-01 2.867612e-01 3.953517e-01 3.329213e-01 3.909991e-01 3.811500e-01 3.999726e-01 3.671481e-01 3.522480e-01 3.713718e-01 3.688749e-01 3.391211e-01 4.212349e-01
<GCONST> 1.180036e+02
<MIXTURE> 2 5.117065e-01
<MEAN> 39
 -2.660799e+01 -6.076020e+00 -4.987224e+00 -2.961576e+00 -3.723715e+00 5.964143e-01 -3.564937e+00 9.187952e-01 -1.715620e+00 -4.786550e-01 3.937126e-01 -1.096503e+00 3.140323e-01 1.312893e-01 4.621258e-02 6.168066e-02 1.763763e-01 2.355010e-01 1.578893e-01 8.909533e-02 1.359074e-01 7.250136e-02 2.476620e-02 -7.670277e-03 6.878808e-02 1.461161e-01 2.749913e-01 1.035134e-01 1.470329e-01 2.314657e-01 2.735283e-01 2.485812e-01 1.903702e-01 2.025613e-01 8.971179e-02 -2.818796e-02 -4.659891e-03 6.429186e-02 1.234645e-01
<VARIANCE> 39
 4.371111e-01 9.663230e-01 1.817038e+00 2.796118e+00 3.502934e+00 5.023264e+00 5.137920e+00 5.626363e+00 6.423810e+00 6.864137e+00 6.160014e+00 5.884349e+00 5.134049e+00 2.560874e-01 3.152486e-01 4.418716e-01 6.932237e-01 9.076518e-01 1.050872e+00 9.855648e-01 1.087716e+00 1.052280e+00 1.023149e+00 9.589106e-01 9.592454e-01 8.653958e-01 1.786731e-01 9.729320e-02 1.289788e-01 2.271829e-01 2.775285e-01 2.836025e-01 2.540901e-01 2.666228e-01 2.593072e-01 2.253587e-01 2.185499e-01 2.228889e-01 2.054649e-01
<GCONST> 6.359297e+01
<STATE> 4
<NUMMIXES> 2
<MIXTURE> 1 4.350257e-01
<MEAN> 39
 -8.813170e+00 -3.329244e+00 -1.754058e+00 8.839357e+00 1.018921e+01 9.524906e+00 1.462358e+00 1.017653e+01 2.877296e+00 -2.920314e+00 -7.949690e-01 6.956109e-01 6.545098e+00 3.867468e+00 -6.711659e-01 -8.196346e-01 4.548813e-01 6.946776e-01 -2.230719e-01 -1.044105e+00 8.176050e-01 2.578818e-02 -9.416856e-01 3.297547e-01 -7.919611e-01 -4.061017e-01 3.566236e-01 1.350269e-02 -8.436573e-02 -4.853323e-01 -5.803909e-01 -5.451537e-01 -4.556977e-01 -1.308980e-01 -3.876316e-01 -3.011680e-01 3.554375e-01 -2.420687e-01 -6.495601e-01
<VARIANCE> 39
 3.804665e+01 1.530371e+01 1.139241e+01 1.781409e+01 3.021889e+01 4.415237e+01 3.968795e+01 2.425039e+01 2.782461e+01 2.330194e+01 1.947203e+01 1.806622e+01 1.297123e+01 9.681805e-01 9.388474e-01 7.775124e-01 1.872221e+00 2.559939e+00 3.253896e+00 2.533518e+00 2.007304e+00 2.193451e+00 2.169590e+00 2.446868e+00 1.790393e+00 2.283051e+00 1.710311e-01 2.148358e-01 2.515942e-01 2.574145e-01 4.022186e-01 4.924839e-01 4.335369e-01 3.954268e-01 4.304836e-01 4.640309e-01 3.629113e-01 3.406229e-01 2.585358e-01
<GCONST> 1.057345e+02
<MIXTURE> 2 5.649728e-01
<MEAN> 39
 2.248137e+00 -7.329336e+00 -4.112352e+00 3.416418e+00 6.135423e+00 9.497541e+00 -1.531612e-01 1.241698e+01 -1.704305e+00 -8.045299e+00 3.157272e+00 -3.445881e+00 1.945529e+00 2.337488e+00 3.105990e-01 -1.203996e-01 -2.786463e-01 -2.358601e-01 -6.939641e-01 -6.173432e-01 3.827847e-01 -4.973177e-01 -1.035311e+00 3.897358e-01 2.100538e-02 -5.723583e-01 -2.483818e-01 2.704999e-01 6.497775e-02 1.864710e-01 -3.332482e-02 -4.280497e-01 -2.936427e-02 -3.476420e-02 2.347896e-01 1.025021e-01 -2.505013e-01 2.820147e-01 5.327754e-02
<VARIANCE> 39
 1.164284e+02 7.637521e+01 7.755588e+01 4.676784e+01 6.421351e+01 1.165658e+02 8.383108e+01 6.533223e+01 6.371224e+01 5.183260e+01 4.124737e+01 3.237957e+01 2.129246e+01 5.747257e+00 3.697397e+00 2.652008e+00 2.011856e+00 2.575531e+00 7.004062e+00 3.460385e+00 3.530673e+00 3.985703e+00 3.927326e+00 3.161357e+00 1.794101e+00 1.566727e+00 2.224687e-01 3.823678e-01 4.854937e-01 3.329216e-01 2.961242e-01 6.722908e-01 5.157503e-01 4.568581e-01 5.521830e-01 5.615538e-01 5.434356e-01 3.191421e-01 2.539112e-01
<GCONST> 1.282745e+02
<TRANSP> 5
 0.000000e+00 1.000000e+00 0.000000e+00 0.000000e+00 0.000000e+00
 0.000000e+00 7.184385e-01 2.815615e-01 0.000000e+00 0.000000e+00
 0.000000e+00 0.000000e+00 8.139804e-01 1.860196e-01 0.000000e+00
 0.000000e+00 0.000000e+00 0.000000e+00 8.336768e-01 1.663232e-01
 0.000000e+00 0.000000e+00 0.000000e+00 0.000000e+00 0.000000e+00
<ENDHMM>
~h "q"
<BEGINHMM>
<NUMSTATES> 5
<STATE> 2
<NUMMIXES> 2
<MIXTURE> 1 6.224673e-01
<MEAN> 39
 1.032654e+01 3.611687e+00 4.893745e+00 2.052547e+01 1.969090e+01 1.579722e+00 -1.296673e+01 5.427663e+00 -3.239930e+00 -1.075975e+01 2.917998e+00 -2.689827e+00 -7.616095e+00 -6.196898e-01 1.062119e+00 9.872980e-01 7.689993e-01 3.469021e-01 6.413504e-01 4.730139e-01 -1.069770e+00 -1.417208e-01 5.785443e-01 -1.074367e+00 -4.862920e-01 3.559864e-01 2.534390e-02 -2.399003e-01 -1.523847e-01 -2.475972e-01 -1.703830e-01 -1.263097e-01 -8.251688e-02 2.114898e-01 1.648228e-02 -1.038975e-01 2.348548e-01 1.058799e-01 -4.961997e-03
<VARIANCE> 39
 1.016318e+02 5.944780e+01 5.012680e+01 5.785881e+01 6.082780e+01 5.979417e+01 1.065772e+02 1.010202e+02 5.341874e+01 7.601804e+01 9.007349e+01 2.968836e+01 3.524609e+01 9.813641e-01 1.753843e+00 1.433604e+00 2.596320e+00 2.663199e+00 1.683949e+00 3.601876e+00 3.247725e+00 1.648977e+00 2.341172e+00 2.485391e+00 1.222692e+00 1.728349e+00 7.873604e-02 1.763400e-01 1.983705e-01 2.164145e-01 2.477457e-01 2.389110e-01 4.054880e-01 3.520586e-01 2.104067e-01 3.171223e-01 3.253943e-01 1.979004e-01 1.836011e-01
<GCONST> 1.150853e+02
<MIXTURE> 2 3.775332e-01
<MEAN> 39
 1.511013e+01 5.429445e+00 5.822635e+00 2.332726e+01 1.452120e+01 -7.369239e+00 -8.961008e+00 1.620976e+01 5.718826e+00 -1.141845e+01 -6.550385e+00 -9.173204e+00 -1.393600e+01 -1.712562e-01 3.162139e-01 4.871729e-01 1.799448e-01 6.092839e-03 1.146151e-01 -4.256614e-02 -3.470283e-01 -1.364490e-01 2.287302e-01 3.583187e-02 -1.894479e-01 -8.752877e-02 6.645740e-03 3.105255e-02 -2.476059e-02 -1.223633e-01 -9.087122e-02 2.157363e-02 4.026130e-02 -2.388579e-03 -2.550971e-03 3.465523e-03 -1.420504e-03 5.253175e-02 1.040565e-01
<VARIANCE> 39
 3.594011e+00 1.262355e+01 2.244874e+01 1.239038e+01 1.768184e+01 1.822445e+01 2.369804e+01 3.020330e+01 2.499873e+01 1.632319e+01 2.813433e+01 1.892530e+01 1.053508e+01 1.015795e-01 3.100594e-01 3.796687e-01 7.724316e-01 7.090900e-01 6.345227e-01 7.934741e-01 9.998938e-01 6.405670e-01 6.314669e-01 5.968419e-01 6.355720e-01 6.988747e-01 1.713111e-02 4.333390e-02 5.636054e-02 1.199505e-01 1.059671e-01 1.076231e-01 1.276074e-01 1.418789e-01 1.080598e-01 1.096925e-01 9.488163e-02 1.164651e-01 1.072861e-01
<GCONST> 6.830471e+01
<STATE> 3
<NUMMIXES> 2
<MIXTURE> 1 6.102060e-01
<MEAN> 39
 2.299951e+00 1.181652e+01 1.305365e+01 1.973038e+01 1.599062e+01 6.891864e+00 -4.918665e+00 3.672066e+00 -3.393738e+00 -6.224140e+00 -5.177990e-02 -4.314848e+00 -5.497307e+00 -1.178272e+00 2.913590e-01 3.995847e-01 -5.305215e-01 -6.261196e-01 7.757791e-01 1.458003e+00 6.928347e-01 4.259117e-01 4.945564e-01 -7.200450e-02 1.991720e-01 4.611184e-01 -4.242611e-02 -2.282660e-01 -1.738705e-01 -4.394695e-02 3.096123e-02 -3.963057e-02 -1.145957e-01 4.673626e-02 1.047756e-01 9.231243e-02 1.940686e-01 1.306719e-01 4.159174e-02
<VARIANCE> 39
 7.487955e+01 4.403098e+01 2.354524e+01 2.846560e+01 3.015590e+01 3.255965e+01 6.028010e+01 5.391131e+01 3.460783e+01 4.363389e+01 4.938342e+01 2.270871e+01 1.754166e+01 8.664691e-01 1.080067e+00 1.105500e+00 1.295033e+00 1.414616e+00 1.148035e+00 1.768236e+00 1.962891e+00 1.638474e+00 1.870352e+00 1.701342e+00 1.181177e+00 9.406812e-01 6.153931e-02 1.101012e-01 1.407155e-01 1.939220e-01 2.030879e-01 1.641168e-01 2.390391e-01 2.277144e-01 2.039807e-01 2.443885e-01 2.179352e-01 1.814260e-01 1.446708e-01
<GCONST> 9.917645e+01
<MIXTURE> 2 3.897927e-01
<MEAN> 39
 1.432337e+01 9.979641e+00 8.026625e+00 2.214587e+01 2.133567e+01 3.051579e+00 -1.543778e+01 -5.928433e+00 -5.121100e+00 -7.484066e+00 -4.332990e+00 -6.846416e+00 -4.940042e+00 -2.729904e-01 6.388655e-01 5.896055e-01 -2.015334e-01 -3.802819e-01 3.745161e-01 5.219830e-01 -1.745318e-01 -1.051224e-01 2.191070e-01 -3.490746e-01 -4.159457e-01 5.832096e-02 -5.568581e-02 -1.776797e-02 2.773899e-02 -4.060413e-02 -7.540061e-02 1.630046e-02 1.207546e-01 2.061802e-01 -2.140494e-02 -1.225304e-01 6.148398e-02 4.278598e-02 -5.472608e-02
<VARIANCE> 39
 3.014409e+00 1.720195e+01 1.952427e+01 1.540496e+01 2.945291e+01 2.961518e+01 3.653243e+01 4.836443e+01 1.865154e+01 3.155171e+01 3.132038e+01 2.265436e+01 1.743307e+01 1.304506e-01 3.522759e-01 3.528825e-01 5.643862e-01 8.363823e-01 5.419738e-01 1.193558e+00 8.341972e-01 5.337251e-01 7.988313e-01 6.145145e-01 6.628921e-01 4.288141e-01 1.778799e-02 5.756047e-02 4.467943e-02 1.064253e-01 1.499185e-01 7.281543e-02 1.795288e-01 1.157871e-01 8.487639e-02 1.339561e-01 8.710303e-02 1.014118e-01 6.901880e-02
<GCONST> 7.079096e+01
<STATE> 4
<NUMMIXES> 2
<MIXTURE> 1 5.744406e-01
<MEAN> 39
 -2.662518e+01 -6.351819e+00 -5.134984e+00 -2.937739e+00 -3.694998e+00 7.991273e-01 -3.494282e+00 1.036650e+00 -1.776453e+00 -6.439877e-01 6.276835e-01 -7.835272e-01 5.306730e-01 -1.943219e-02 -1.815326e-02 -2.970495e-02 -2.995452e-02 -3.527705e-02 -2.238319e-02 -1.134530e-02 -1.917994e-02 -9.068109e-03 4.218913e-03 -2.284352e-02 -1.832594e-02 4.880018e-03 3.653603e-02 3.204760e-02 4.102396e-02 5.050847e-02 5.267187e-02 4.764115e-02 4.285678e-02 3.721569e-02 1.722681e-02 1.166373e-02 2.108903e-02 2.053742e-02 8.935920e-03
<VARIANCE> 39
 5.663093e-01 1.371760e+00 1.911233e+00 2.753045e+00 3.787629e+00 5.093554e+00 5.765505e+00 6.193083e+00 8.674085e+00 8.375876e+00 6.660698e+00 7.078474e+00 5.454345e+00 8.683914e-02 1.761087e-01 2.926010e-01 4.291898e-01 5.738996e-01 7.433113e-01 8.577815e-01 9.099284e-01 1.096005e+00 1.070043e+00 9.675800e-01 9.428824e-01 7.825438e-01 2.991617e-02 4.700427e-02 7.755438e-02 1.132602e-01 1.464223e-01 1.797966e-01 2.054147e-01 2.128300e-01 2.358398e-01 2.298385e-01 2.066470e-01 1.995732e-01 1.675564e-01
<GCONST> 5.596447e+01
<MIXTURE> 2 4.255564e-01
<MEAN> 39
 -1.163509e+01 4.324998e+00 7.885124e+00 1.335835e+01 1.206605e+01 1.068059e+01 2.913806e+00 1.028675e+01 3.442438e+00 1.716768e+00 6.120073e+00 2.086772e+00 -1.186825e-01 -1.026754e+00 -6.468571e-01 -7.637951e-01 -1.180574e+00 -1.106260e+00 -3.508253e-01 -8.761618e-02 -4.884939e-01 -1.997079e-01 6.831953e-02 -2.696222e-01 -4.224014e-02 2.923755e-01 2.193684e-02 -6.731702e-02 -5.679734e-02 -1.993460e-02 -4.479410e-02 -1.423612e-01 -1.914434e-01 -1.302680e-01 -1.149223e-01 -1.240219e-01 -8.035456e-02 -8.439699e-02 -7.435635e-02
<VARIANCE> 39
 1.075583e+02 5.220555e+01 5.000206e+01 7.324578e+01 6.568282e+01 4.414130e+01 5.609621e+01 5.509471e+01 4.899838e+01 5.537292e+01 3.981332e+01 2.938172e+01 2.320948e+01 1.276987e+00 1.379194e+00 1.859729e+00 2.300349e+00 2.537086e+00 2.513594e+00 2.459698e+00 2.331256e+00 1.939362e+00 1.962829e+00 1.689940e+00 1.306864e+00 9.598398e-01 1.179442e-01 1.387162e-01 1.888211e-01 2.555755e-01 3.036178e-01 2.793433e-01 2.707907e-01 2.646860e-01 2.365810e-01 2.413923e-01 2.227716e-01 1.732478e-01 1.296285e-01
<GCONST> 1.099389e+02
<TRANSP> 5
 0.000000e+00 1.000000e+00 0.000000e+00 0.000000e+00 0.000000e+00
 0.000000e+00 6.839483e-01 3.160516e-01 0.000000e+00 0.000000e+00
 0.000000e+00 0.000000e+00 8.133747e-01 1.866253e-01 0.000000e+00
 0.000000e+00 0.000000e+00 0.000000e+00 9.060256e-01 9.397435e-02
 0.000000e+00 0.000000e+00 0.000000e+00 0.000000e+00 0.000000e+00
<ENDHMM>
~h "r"
<BEGINHMM>
<NUMSTATES> 5
<STATE> 2
<NUMMIXES> 2
<MIXTURE> 1 7.809162e-01
<MEAN> 39
 2.206849e+01 -4.464056e+00 -1.355561e+01 3.203684e+00 1.572366e+01 7.269175e-01 -1.673812e+01 6.642502e+00 -6.341890e+00 -1.595891e+01 5.988818e+00 2.031730e+00 1.749808e+00 -1.041337e+00 1.668817e+00 6.682992e-01 3.921074e-01 9.096600e-02 1.960748e+00 2.203795e+00 -1.702015e+00 3.859874e-01 1.249242e+00 -2.333792e+00 -1.200813e-01 6.416979e-01 -4.131215e-01 2.006564e-01 5.922086e-01 2.220076e-01 -3.728526e-01 3.275921e-03 5.614700e-01 2.684910e-01 6.262334e-02 1.559750e-01 -8.325242e-02 -7.396268e-02 -2.794874e-02
<VARIANCE> 39
 9.191823e+00 2.107867e+01 3.640062e+01 3.007503e+01 3.646060e+01 2.412227e+01 4.689127e+01 4.153832e+01 3.098630e+01 4.752327e+01 4.996422e+01 3.404669e+01 2.252470e+01 1.254216e+00 9.683628e-01 2.309816e+00 1.077743e+00 1.531101e+00 1.359189e+00 3.275809e+00 2.562295e+00 1.612737e+00 2.034163e+00 2.006817e+00 1.167240e+00 9.827716e-01 1.383516e-01 1.333864e-01 2.100677e-01 1.696191e-01 1.413836e-01 2.146967e-01 3.889055e-01 4.917526e-01 1.742782e-01 3.598413e-01 4.000716e-01 1.936692e-01 1.615137e-01
<GCONST> 1.025068e+02
<MIXTURE> 2 2.190829e-01
<MEAN> 39
 1.897846e+01 -2.208608e+00 -6.855582e+00 5.424721e+00 1.155705e+01 5.473108e+00 -7.230273e+00 8.212781e+00 -8.911906e+00 -1.680104e+01 4.955150e+00 -1.274469e+00 -2.811580e+00 4.202725e-01 6.018106e-02 -7.202349e-01 -1.436382e-01 8.633053e-01 -2.523023e-02 -8.029063e-01 -3.944063e-01 -3.254971e-02 -3.522961e-01 -1.850125e-01 2.198794e-01 3.146999e-02 -3.050131e-02 3.634265e-02 -2.948305e-02 -6.497543e-03 8.312403e-02 3.585679e-02 -7.777137e-02 -1.501480e-02 9.612849e-02 1.899879e-02 -8.940164e-02 2.520186e-02 7.876121e-02
<VARIANCE> 39
 2.812177e+01 4.415302e+01 4.314362e+01 5.865057e+01 4.729451e+01 8.756131e+01 7.591998e+01 4.423562e+01 2.904815e+01 5.158422e+01 6.363319e+01 3.019289e+01 2.956648e+01 6.356702e-01 8.112747e-01 8.385223e-01 8.985650e-01 8.777509e-01 1.360997e+00 2.226561e+00 1.663611e+00 9.940079e-01 1.420252e+00 1.556647e+00 8.659809e-01 7.089904e-01 7.039867e-02 8.695583e-02 8.419618e-02 9.950551e-02 7.956482e-02 1.333907e-01 1.989968e-01 1.805594e-01 1.116598e-01 1.557834e-01 1.838841e-01 9.070294e-02 8.201781e-02
<GCONST> 9.379066e+01
<STATE> 3
<NUMMIXES> 2
<MIXTURE> 1 8.137811e-01
<MEAN> 39
 1.555969e+01 3.280215e+00 -6.174129e+00 6.086153e+00 1.267025e+01 7.043344e+00 -4.692675e+00 4.008383e+00 -5.041746e+00 -1.124494e+01 -1.908778e+00 4.551381e-01 3.058659e+00 -3.154318e-01 3.629369e-01 6.831359e-01 5.088686e-01 -1.317708e-01 5.198840e-01 8.537307e-01 2.999443e-01 -9.119248e-01 -7.268035e-01 3.266771e-01 1.522161e-01 -4.552267e-01 5.816096e-01 -7.397722e-01 -5.585207e-01 -1.197290e-01 2.644731e-01 -4.525356e-01 -9.267210e-01 2.832170e-01 -4.755167e-01 -7.334681e-01 8.745781e-01 1.834619e-01 -3.298204e-01
<VARIANCE> 39
 1.113655e+01 1.490181e+01 2.184518e+01 3.510927e+01 2.769894e+01 1.788707e+01 3.295606e+01 2.428078e+01 2.245974e+01 2.609332e+01 2.536957e+01 1.886160e+01 1.536361e+01 2.372557e+00 3.340638e+00 3.838642e+00 1.803798e+00 2.359479e+00 2.446570e+00 5.719944e+00 2.490379e+00 2.620704e+00 3.960237e+00 4.304941e+00 1.817136e+00 1.810860e+00 2.166990e-01 2.613407e-01 3.955747e-01 2.372998e-01 2.472851e-01 2.288040e-01 4.334802e-01 4.656321e-01 3.887085e-01 4.588073e-01 4.323635e-01 2.279413e-01 2.281606e-01
<GCONST> 1.097747e+02
<MIXTURE> 2 1.862177e-01
<MEAN> 39
 9.524568e+00 -9.514633e+00 3.861793e+00 9.148141e+00 5.456588e+00 8.376541e+00 -2.536933e+00 7.781179e+00 -1.145055e+01 -1.637926e+01 5.027495e+00 1.432267e+00 2.252001e+00 -5.848597e-01 -2.953461e-01 1.062845e+00 -1.167254e-01 -5.462614e-01 7.770123e-01 4.772530e-01 -2.312472e-01 1.820758e-01 3.991358e-01 -4.153799e-01 1.004532e-02 5.249818e-01 -3.867636e-01 2.298386e-01 2.255527e-01 -1.840704e-01 1.967282e-01 2.725049e-01 -2.798965e-02 -1.332202e-01 4.664029e-01 5.201165e-01 -3.249418e-01 -8.510204e-02 1.287523e-01
<VARIANCE> 39
 1.912393e+02 1.964209e+02 1.704802e+02 1.209809e+02 7.525581e+01 1.125229e+02 8.441636e+01 5.197147e+01 6.470226e+01 6.485613e+01 5.417160e+01 2.730852e+01 4.357235e+01 3.577919e+00 4.081703e+00 6.269348e+00 2.895046e+00 2.925145e+00 5.398192e+00 2.756587e+00 3.824357e+00 3.886302e+00 4.826857e+00 4.187513e+00 1.493159e+00 1.804150e+00 4.215727e-01 3.679997e-01 5.305670e-01 4.516953e-01 3.600837e-01 4.767243e-01 3.676737e-01 4.396122e-01 7.291044e-01 6.871300e-01 4.773395e-01 2.824615e-01 2.344094e-01
<GCONST> 1.340187e+02
<STATE> 4
<NUMMIXES> 2
<MIXTURE> 1 4.876255e-01
<MEAN> 39
 5.460614e+00 6.227463e+00 8.921486e-01 7.283607e+00 1.008192e+01 1.004124e+01 1.166659e+00 6.513011e+00 -5.010683e+00 -9.679479e+00 -1.132785e+00 7.087870e-01 3.189135e+00 -2.257875e+00 6.283107e-01 1.379784e+00 9.528567e-02 -3.272000e-01 7.169453e-01 8.332207e-01 -1.450748e-01 7.332525e-01 1.163928e+00 -4.556348e-01 -6.295961e-02 3.541009e-01 4.337538e-02 -2.063463e-01 -1.124122e-01 -7.403356e-02 -1.730142e-02 -9.922142e-02 -1.738603e-01 3.594446e-02 -1.973221e-01 -2.092064e-01 1.897494e-01 2.559504e-02 -7.130368e-02
<VARIANCE> 39
 1.381993e+02 4.804163e+01 5.523117e+01 4.539557e+01 4.513780e+01 3.707493e+01 4.297303e+01 3.467516e+01 3.727043e+01 3.962210e+01 3.494418e+01 3.365284e+01 3.485521e+01 2.289093e+00 2.333334e+00 2.755501e+00 1.630331e+00 1.601830e+00 1.977274e+00 2.311645e+00 1.768599e+00 2.553640e+00 2.849273e+00 2.156581e+00 1.345572e+00 1.420683e+00 2.117952e-01 1.842553e-01 2.755705e-01 1.864337e-01 1.611597e-01 1.832933e-01 2.222550e-01 2.511418e-01 3.367870e-01 3.535675e-01 2.461758e-01 1.724080e-01 1.692781e-01
<GCONST> 1.104090e+02
<MIXTURE> 2 5.123724e-01
<MEAN> 39
 2.026020e+01 -2.543396e+00 -1.022581e+01 6.473127e+00 1.829373e+01 5.910226e+00 -1.343320e+01 6.132252e+00 -1.218253e+01 -2.090983e+01 7.827864e+00 2.608853e+00 -2.542252e+00 4.837256e-01 -8.370399e-01 -4.677272e-01 9.727970e-02 6.921310e-01 -5.668659e-01 -1.377479e+00 3.691806e-01 -4.931616e-01 -7.906339e-01 1.277223e+00 2.646134e-01 -5.903534e-01 -3.536805e-01 2.054350e-01 3.370413e-01 3.438556e-02 -1.808216e-01 6.527210e-03 2.550706e-01 1.430510e-02 4.521598e-01 5.138457e-01 -3.091165e-01 -1.448221e-01 1.566587e-01
<VARIANCE> 39
 1.177592e+01 2.445658e+01 2.743163e+01 6.953798e+01 4.851070e+01 3.241952e+01 6.399872e+01 3.902578e+01 3.165933e+01 3.349614e+01 5.602612e+01 1.613387e+01 2.786610e+01 1.629087e+00 1.803210e+00 1.847044e+00 1.360306e+00 1.715836e+00 1.579512e+00 3.690165e+00 2.496433e+00 2.549651e+00 3.727761e+00 3.442890e+00 1.115282e+00 1.530449e+00 2.415544e-01 2.047940e-01 2.592649e-01 1.445725e-01 1.981801e-01 2.124242e-01 4.366784e-01 3.453515e-01 3.068250e-01 4.647651e-01 3.490435e-01 1.731654e-01 1.616532e-01
<GCONST> 1.084913e+02
<TRANSP> 5
 0.000000e+00 1.000000e+00 0.000000e+00 0.000000e+00 0.000000e+00
 0.000000e+00 7.055600e-01 2.944400e-01 0.000000e+00 0.000000e+00
 0.000000e+00 0.000000e+00 7.257996e-01 2.742004e-01 0.000000e+00
 0.000000e+00 0.000000e+00 0.000000e+00 7.670991e-01 2.329010e-01
 0.000000e+00 0.000000e+00 0.000000e+00 0.000000e+00 0.000000e+00
<ENDHMM>
~h "s"
<BEGINHMM>
<NUMSTATES> 5
<STATE> 2
<NUMMIXES> 2
<MIXTURE> 1 5.872245e-01
<MEAN> 39
 -2.378567e+00 -1.604594e+01 2.654052e+01 3.033207e+00 4.141530e+00 2.359200e+01 -4.143981e+00 3.566982e+00 -1.131348e+01 -8.318122e+00 6.772405e+00 -2.027224e+00 9.990363e-01 -2.764714e+00 -2.174999e+00 2.869172e+00 -1.702615e+00 -6.391385e-01 1.517104e+00 7.859965e-01 1.120758e+00 -5.441077e-01 1.030992e+00 9.198285e-01 5.708081e-01 1.042829e+00 -1.118496e-01 -8.354788e-02 -3.375161e-01 -1.286906e-01 6.066822e-04 -4.098614e-01 -1.911303e-01 1.831476e-01 7.478992e-02 7.044705e-03 1.609257e-01 7.103729e-02 -6.946684e-02
<VARIANCE> 39
 1.201538e+02 1.103033e+02 2.764955e+02 1.324505e+02 8.137447e+01 1.273956e+02 7.783605e+01 1.208057e+02 6.185521e+01 6.177499e+01 5.567142e+01 2.701209e+01 4.229818e+01 3.437567e+00 3.119409e+00 7.343935e+00 3.028195e+00 2.727864e+00 3.697052e+00 2.881902e+00 4.035129e+00 2.820319e+00 2.935536e+00 2.453943e+00 1.679496e+00 1.568991e+00 3.022354e-01 3.518559e-01 9.063216e-01 3.406948e-01 4.240300e-01 4.972784e-01 3.652865e-01 6.337454e-01 4.241112e-01 4.298896e-01 3.847418e-01 2.768860e-01 2.117629e-01
<GCONST> 1.316712e+02
<MIXTURE> 2 4.127765e-01
<MEAN> 39
 -1.975828e+01 -2.883237e+01 3.899062e+01 -1.067889e+01 -1.502614e+00 2.627006e+01 -4.327856e+00 9.903808e+00 -1.244470e+01 -2.587545e-01 1.371602e+01 1.696638e+00 6.642402e+00 -1.693187e+00 -9.386193e-01 -6.671982e-01 -2.395062e+00 -2.002797e+00 -1.942972e+00 -1.288174e+00 -3.916873e-02 -1.730284e-01 -1.987123e-02 -3.872863e-01 -3.972347e-01 5.125690e-02 4.004588e-01 3.383941e-01 -1.335661e-01 2.149561e-01 1.233253e-02 -1.177519e-01 -1.357606e-01 -3.476140e-01 -1.682643e-01 -3.308670e-01 -3.301578e-01 -2.545626e-01 -2.167034e-01
<VARIANCE> 39
 1.694314e+01 2.790225e+01 2.783382e+01 4.896847e+01 4.734641e+01 5.278481e+01 3.837471e+01 4.416077e+01 3.160560e+01 2.508017e+01 2.101778e+01 1.783817e+01 1.466308e+01 1.384451e+00 1.823787e+00 1.766856e+00 1.693231e+00 1.426347e+00 1.830029e+00 1.335926e+00 2.187532e+00 2.017597e+00 2.026635e+00 1.973660e+00 1.778306e+00 1.236007e+00 1.552643e-01 2.015087e-01 3.569363e-01 2.831591e-01 3.653169e-01 4.982377e-01 3.164432e-01 3.227592e-01 2.943108e-01 2.834300e-01 2.931580e-01 2.816066e-01 1.850802e-01
<GCONST> 1.061224e+02
<STATE> 3
<NUMMIXES> 2
<MIXTURE> 1 1.969189e-01
<MEAN> 39
 -2.378183e+01 -2.784570e+01 2.062531e+01 -6.951509e+00 -8.256960e+00 1.189499e+01 -3.174244e+00 8.986512e+00 -1.302190e+01 -7.703606e+00 8.364413e+00 1.805610e+00 4.381588e+00 -3.871891e-02 -5.438924e-02 9.799378e-02 -8.667638e-02 -1.068121e-01 -1.376793e-03 -1.690150e-01 -4.765789e-02 2.621950e-02 -3.050018e-02 -3.723437e-02 2.389415e-03 1.653807e-02 1.627459e-01 3.028683e-01 -1.087738e-01 5.245037e-02 7.180883e-02 9.084490e-03 3.863030e-02 -2.784769e-02 1.961236e-01 1.150684e-01 -9.349725e-02 -9.524725e-02 -3.505253e-02
<VARIANCE> 39
 2.349715e+01 1.717302e+02 3.178892e+02 3.521188e+01 3.408443e+01 7.492454e+01 2.510816e+01 6.835609e+01 6.903339e+01 4.048969e+01 3.724160e+01 2.194296e+01 1.660591e+01 1.382729e+00 2.797254e+00 7.570514e+00 1.819717e+00 1.253856e+00 2.352898e+00 1.629032e+00 2.038408e+00 2.827216e+00 2.076991e+00 1.724132e+00 1.750590e+00 1.110536e+00 2.612363e-01 3.575908e-01 4.481206e-01 1.636949e-01 1.654124e-01 3.088764e-01 2.345650e-01 3.225628e-01 3.556525e-01 3.375668e-01 2.827312e-01 2.923177e-01 2.138881e-01
<GCONST> 1.145910e+02
<MIXTURE> 2 8.030804e-01
<MEAN> 39
 -2.386839e+01 -2.941148e+01 3.737738e+01 -1.826972e+01 -8.217266e+00 1.884929e+01 -9.746130e+00 8.344822e+00 -1.431524e+01 -2.390938e+00 9.868167e+00 -1.931107e+00 5.570112e+00 -3.405552e-02 -1.178229e-01 -1.036490e-01 -1.580513e-01 5.789039e-02 -4.345019e-02 -1.047353e-01 -7.134988e-02 -1.545763e-01 3.661484e-02 -1.620359e-02 -9.971728e-02 -4.440080e-03 5.455986e-02 -5.863386e-02 -9.004182e-02 1.356189e-01 1.483913e-01 1.548121e-01 1.029875e-01 -6.929827e-03 1.129305e-02 4.279387e-02 9.159634e-02 1.011864e-01 4.165320e-02
<VARIANCE> 39
 1.015777e+01 2.582822e+01 1.249380e+01 2.715228e+01 2.141525e+01 2.419036e+01 2.982814e+01 2.009055e+01 3.777460e+01 2.109953e+01 2.445623e+01 1.964437e+01 1.079136e+01 1.090676e+00 1.361883e+00 1.013708e+00 6.696982e-01 5.927041e-01 8.636957e-01 6.224483e-01 9.517913e-01 1.646428e+00 1.612825e+00 1.908553e+00 1.705789e+00 9.482114e-01 1.981121e-01 2.040941e-01 1.794835e-01 1.235159e-01 1.031360e-01 1.498185e-01 1.218748e-01 1.728192e-01 2.898379e-01 3.046514e-01 3.576598e-01 3.305882e-01 1.806960e-01
<GCONST> 9.055225e+01
<STATE> 4
<NUMMIXES> 2
<MIXTURE> 1 5.133703e-01
<MEAN> 39
 -1.014450e+01 -2.158515e+01 2.256096e+01 -5.036636e+00 1.146222e+00 2.184856e+01 -3.697245e+00 4.723221e+00 -1.000068e+01 -1.284017e+00 8.945673e+00 -9.330647e-01 4.753499e+00 3.566099e+00 3.229481e+00 -2.825852e+00 2.890309e+00 1.188287e+00 -1.264007e+00 -2.406910e-01 8.511249e-02 1.705500e+00 -8.323408e-01 -8.980275e-01 -4.495372e-01 -8.392470e-01 1.401630e-01 -1.630866e-01 -4.523605e-01 -3.895871e-02 -4.012325e-02 -6.088983e-01 -5.963027e-01 2.013955e-01 -1.779304e-01 -5.972328e-01 1.169523e-01 -4.967134e-02 -2.619130e-01
<VARIANCE> 39
 1.079466e+02 9.497593e+01 8.802987e+01 1.005248e+02 6.847496e+01 7.031692e+01 8.897414e+01 1.002177e+02 7.322241e+01 4.935674e+01 3.470145e+01 2.195877e+01 2.657500e+01 8.485371e+00 3.271241e+00 5.218117e+00 2.832371e+00 1.824773e+00 4.794085e+00 4.739128e+00 3.076789e+00 3.582275e+00 4.423301e+00 1.678265e+00 1.550987e+00 1.650266e+00 6.212823e-01 8.439294e-01 7.502429e-01 3.346345e-01 2.255497e-01 7.250350e-01 6.401246e-01 4.719081e-01 6.194530e-01 6.327378e-01 4.680640e-01 2.838527e-01 2.648065e-01
<GCONST> 1.314507e+02
<MIXTURE> 2 4.866291e-01
<MEAN> 39
 -2.195758e+01 -3.325804e+01 3.211216e+01 -1.807508e+01 -2.272570e+00 2.432561e+01 -1.079091e+01 2.800712e+00 -1.662104e+01 6.843504e-01 1.253603e+01 -1.056170e+00 5.795361e+00 1.252391e+00 2.562917e-01 -1.175360e+00 1.153413e+00 1.004658e+00 6.163900e-01 6.365928e-01 -8.617429e-01 -8.725644e-02 3.642831e-01 2.374822e-01 2.863896e-01 7.259289e-02 5.738884e-01 6.996536e-01 -1.632760e-01 5.287571e-01 1.315420e-01 -1.395342e-01 1.715197e-01 2.351652e-02 3.538797e-01 -3.251954e-02 -2.076263e-01 -7.624233e-02 -1.154448e-01
<VARIANCE> 39
 1.772288e+01 2.886312e+01 2.177188e+01 2.829624e+01 2.416626e+01 2.050818e+01 3.936499e+01 3.799378e+01 3.470956e+01 2.626944e+01 2.068963e+01 1.562683e+01 1.454459e+01 2.403191e+00 3.100886e+00 1.362383e+00 2.024868e+00 1.408623e+00 1.719881e+00 1.675641e+00 1.598847e+00 2.158788e+00 1.540812e+00 1.583316e+00 1.499908e+00 1.037443e+00 3.094581e-01 4.176497e-01 2.863036e-01 2.467205e-01 1.750163e-01 2.576978e-01 2.528339e-01 2.866495e-01 3.984499e-01 2.795274e-01 2.895116e-01 2.759734e-01 1.860937e-01
<GCONST> 1.032995e+02
<TRANSP> 5
 0.000000e+00 1.000000e+00 0.000000e+00 0.000000e+00 0.000000e+00
 0.000000e+00 8.994740e-01 1.005260e-01 0.000000e+00 0.000000e+00
 0.000000e+00 0.000000e+00 9.256977e-01 7.430226e-02 0.000000e+00
 0.000000e+00 0.000000e+00 0.000000e+00 8.598215e-01 1.401785e-01
 0.000000e+00 0.000000e+00 0.000000e+00 0.000000e+00 0.000000e+00
<ENDHMM>
~h "t"
<BEGINHMM>
<NUMSTATES> 5
<STATE> 2
<NUMMIXES> 2
<MIXTURE> 1 5.977338e-01
<MEAN> 39
 -2.657441e+01 -6.255530e+00 -5.095949e+00 -3.007237e+00 -3.610260e+00 8.636584e-01 -3.562887e+00 1.132249e+00 -1.637183e+00 -5.989454e-01 5.523417e-01 -8.902996e-01 4.789419e-01 8.044502e-02 -3.928401e-02 -4.682309e-02 6.173164e-02 1.466310e-01 1.356320e-01 6.000913e-02 3.372212e-02 -3.753464e-03 -4.352970e-02 -5.786053e-02 2.539421e-02 1.035673e-01 2.402378e-01 6.165634e-02 1.034672e-01 2.202905e-01 2.627410e-01 2.225405e-01 1.293453e-01 1.078674e-01 2.179884e-02 -2.695034e-02 -6.852602e-05 8.313699e-02 1.496284e-01
<VARIANCE> 39
 5.489543e-01 1.293039e+00 1.879743e+00 2.841062e+00 3.660957e+00 4.802914e+00 5.680966e+00 7.022729e+00 8.392561e+00 7.324523e+00 6.342329e+00 6.328689e+00 5.705345e+00 2.098361e-01 2.654823e-01 3.560026e-01 5.652037e-01 7.764020e-01 9.377381e-01 9.528584e-01 1.035272e+00 1.139300e+00 1.098071e+00 1.007504e+00 9.698705e-01 9.319400e-01 1.519061e-01 5.982098e-02 9.560863e-02 2.057611e-01 2.616694e-01 2.411742e-01 2.058398e-01 2.392313e-01 2.463476e-01 2.285843e-01 2.025017e-01 1.972713e-01 2.134777e-01
<GCONST> 6.237906e+01
<MIXTURE> 2 4.022659e-01
<MEAN> 39
 -6.256481e+00 2.916292e+00 4.980820e+00 9.426490e+00 6.251019e+00 4.538579e+00 -1.702964e+00 7.110220e+00 -2.960325e+00 -6.057413e+00 2.541148e+00 8.991171e-01 1.566554e+00 -1.452070e+00 -8.970857e-01 -6.413585e-01 -7.250405e-01 -6.627534e-01 -2.597128e-01 -9.627272e-02 -3.182927e-01 1.780933e-01 3.416530e-01 -2.213665e-01 -7.886787e-02 1.454484e-01 1.917042e-01 -2.275280e-01 -2.005789e-01 -1.580487e-02 1.796497e-02 -9.970237e-02 -1.099095e-01 1.017759e-01 8.226886e-02 -3.797173e-03 2.177642e-02 -6.424690e-02 -1.607599e-02
<VARIANCE> 39
 1.835131e+02 9.036976e+01 4.538380e+01 5.033485e+01 6.110445e+01 1.418986e+02 8.956591e+01 1.020894e+02 7.664233e+01 7.915608e+01 5.738640e+01 3.411921e+01 5.920232e+01 2.621249e+00 3.872663e+00 2.955633e+00 1.899727e+00 2.364037e+00 3.245351e+00 2.981617e+00 3.004094e+00 3.076973e+00 2.676235e+00 2.469825e+00 1.705233e+00 1.905764e+00 2.308603e-01 2.994129e-01 2.790352e-01 2.419279e-01 2.870215e-01 3.765609e-01 3.508894e-01 3.909162e-01 4.265889e-01 3.818147e-01 3.601013e-01 2.376107e-01 2.527492e-01
<GCONST> 1.249237e+02
<STATE> 3
<NUMMIXES> 2
<MIXTURE> 1 4.790267e-02
<MEAN> 39
 1.258731e+01 -1.198631e+01 5.464331e+00 1.628466e+01 3.193985e+00 2.194824e+00 1.789083e+00 1.207857e+01 -1.272830e+01 -1.181642e+01 9.455808e+00 -7.699477e+00 -1.426948e+00 1.961826e+00 2.709686e+00 1.511755e-01 -5.907061e-02 5.423198e-01 -2.946238e+00 -2.776164e+00 8.446132e-01 1.630883e+00 -2.635714e+00 -3.045131e+00 -1.954338e-01 -9.999647e-01 2.462363e-01 -2.294349e-01 -6.526668e-01 -1.959829e-01 2.769706e-01 -7.278101e-01 -6.929283e-01 7.887941e-01 2.838644e-01 -6.348543e-01 3.009623e-02 7.148853e-02 -3.959399e-01
<VARIANCE> 39
 1.935180e+01 9.884180e+01 1.952659e+01 1.235447e+01 2.855957e+01 2.862260e+01 2.564758e+01 2.833476e+01 2.839668e+01 1.474499e+01 5.700688e+01 2.608496e+01 9.625715e+00 2.427358e+00 1.408334e+00 1.184215e+00 9.678040e-01 1.555624e+00 3.521442e+00 3.791628e+00 2.475573e+00 2.745275e+00 2.578250e+00 1.860678e+00 1.681537e+00 1.389878e+00 8.488186e-02 1.370468e-01 9.792016e-02 5.816798e-02 9.533116e-02 2.031323e-01 1.783012e-01 2.103401e-01 1.296088e-01 1.596476e-01 2.467736e-01 1.250446e-01 6.753834e-02
<GCONST> 9.545161e+01
<MIXTURE> 2 9.520973e-01
<MEAN> 39
 -1.751885e+01 -4.647850e+00 -2.312317e+00 4.514471e+00 5.095560e+00 7.209049e+00 -4.621513e-01 4.287453e+00 -5.547093e-01 -1.825962e+00 -3.500372e-01 1.026311e+00 5.698376e+00 3.018097e+00 -6.392616e-01 6.252981e-02 1.407031e+00 1.332263e+00 7.891779e-01 -4.460347e-02 7.375790e-01 5.608528e-01 2.401931e-01 1.803388e-01 -8.721185e-02 1.096871e+00 6.395237e-01 -2.263595e-01 4.156396e-02 -1.359934e-01 -3.455980e-01 -1.991614e-01 -2.978407e-01 7.602030e-03 -6.517756e-02 1.472457e-01 4.522482e-01 -3.761838e-01 -3.508934e-01
<VARIANCE> 39
 4.057775e+01 1.364339e+01 1.259566e+01 2.892701e+01 3.339454e+01 2.335042e+01 1.853948e+01 2.118917e+01 2.036371e+01 1.607119e+01 1.310033e+01 1.210020e+01 2.052118e+01 2.548692e+00 2.226905e+00 2.051527e+00 2.938460e+00 4.605363e+00 3.550472e+00 3.115752e+00 2.757894e+00 2.862012e+00 2.908204e+00 2.240320e+00 2.303421e+00 2.391818e+00 3.429330e-01 2.530696e-01 2.869943e-01 6.588452e-01 8.298904e-01 5.465861e-01 4.436232e-01 4.278259e-01 5.180591e-01 4.225911e-01 4.280528e-01 3.503700e-01 5.761624e-01
<GCONST> 1.129825e+02
<STATE> 4
<NUMMIXES> 2
<MIXTURE> 1 5.399081e-01
<MEAN> 39
 -3.132225e+00 -8.934482e+00 -2.214238e+00 6.742942e+00 4.925051e+00 7.379901e+00 -2.612403e+00 6.788429e+00 1.015475e+00 5.339825e-01 4.116981e+00 -2.995782e+00 5.461457e+00 3.395088e+00 -1.683579e+00 -2.060419e-01 -5.776690e-01 -6.271841e-01 5.034407e-02 -1.131570e+00 2.812509e-01 -1.555250e+00 -8.423849e-01 2.493824e+00 -1.082721e+00 -1.229741e+00 4.886533e-02 7.622482e-02 1.769288e-01 -3.727363e-02 2.915943e-01 2.946032e-01 -2.551784e-02 -1.144004e-01 -9.287671e-01 -8.578222e-01 3.644726e-01 2.610602e-01 -1.549344e-01
<VARIANCE> 39
 4.183390e+01 3.116605e+01 1.664338e+01 2.157231e+01 3.521465e+01 4.877434e+01 3.708652e+01 3.523512e+01 3.725239e+01 3.730108e+01 2.617364e+01 2.921831e+01 2.690651e+01 3.498487e+00 2.614143e+00 1.280070e+00 1.478927e+00 2.383844e+00 3.401162e+00 2.860790e+00 2.461877e+00 5.606872e+00 4.329029e+00 3.838951e+00 2.140285e+00 1.765409e+00 1.488309e-01 3.001475e-01 2.336401e-01 3.298591e-01 4.408090e-01 4.139551e-01 3.969505e-01 4.000211e-01 6.476119e-01 4.651636e-01 4.682106e-01 3.317745e-01 3.807440e-01
<GCONST> 1.160461e+02
<MIXTURE> 2 4.600915e-01
<MEAN> 39
 7.464087e+00 -1.555676e+01 -1.050849e+00 5.580932e+00 5.220972e+00 1.170173e+01 -5.409292e+00 6.440342e+00 -1.059862e+01 -7.061659e+00 1.434869e+01 -4.832323e+00 3.150041e+00 2.915942e+00 4.649853e-01 9.482421e-01 1.218003e+00 1.679127e+00 1.439894e-01 -9.017395e-01 -7.695445e-02 -1.732690e+00 -1.991863e+00 1.028664e+00 2.656154e-01 -7.566325e-01 -4.584420e-01 7.791077e-01 -1.076821e-01 5.596635e-01 6.346590e-01 -8.985177e-01 -4.140599e-01 7.418220e-02 7.840446e-01 -1.684273e-02 -9.144359e-01 3.063003e-01 -1.881302e-01
<VARIANCE> 39
 2.110648e+01 1.982118e+01 2.683801e+01 3.690854e+01 6.232634e+01 6.544271e+01 5.034797e+01 5.453444e+01 3.457207e+01 3.054148e+01 3.130999e+01 2.629951e+01 3.532318e+01 1.886858e+00 3.036232e+00 1.659440e+00 2.580674e+00 2.993202e+00 4.934979e+00 3.657933e+00 2.609082e+00 5.675986e+00 3.478346e+00 5.422631e+00 1.585732e+00 2.118021e+00 1.101383e-01 3.921475e-01 4.589919e-01 4.093501e-01 3.740728e-01 4.908492e-01 7.032973e-01 4.402132e-01 6.666074e-01 5.745005e-01 5.744960e-01 3.507724e-01 4.488332e-01
<GCONST> 1.210727e+02
<TRANSP> 5
 0.000000e+00 1.000000e+00 0.000000e+00 0.000000e+00 0.000000e+00
 0.000000e+00 8.487619e-01 1.512382e-01 0.000000e+00 0.000000e+00
 0.000000e+00 0.000000e+00 7.205741e-01 2.794259e-01 0.000000e+00
 0.000000e+00 0.000000e+00 0.000000e+00 7.973630e-01 2.026370e-01
 0.000000e+00 0.000000e+00 0.000000e+00 0.000000e+00 0.000000e+00
<ENDHMM>
~h "u"
<BEGINHMM>
<NUMSTATES> 7
<STATE> 2
<NUMMIXES> 2
<MIXTURE> 1 6.532785e-01
<MEAN> 39
 3.925954e+00 6.112469e+00 5.139237e+00 4.201565e+00 -5.670452e+00 -8.520203e+00 -6.333070e+00 1.329249e+01 6.862869e-01 -9.062406e+00 1.538666e+00 -2.119094e+00 -5.369398e+00 2.051255e+00 3.549605e-01 2.161898e-01 8.903020e-01 3.104987e-01 -1.548044e+00 -1.038150e+00 1.094975e+00 3.131142e-01 -1.342757e+00 -2.152795e-01 -9.777018e-02 -1.023583e+00 -1.552974e-01 -2.449156e-01 -7.860773e-02 6.392653e-02 1.975756e-01 7.539235e-02 -8.838433e-02 3.751481e-02 -2.632321e-02 -2.007262e-01 -5.833078e-02 -3.830619e-02 -7.031859e-02
<VARIANCE> 39
 1.822750e+02 4.592473e+01 3.344223e+01 8.530551e+01 8.471263e+01 1.012921e+02 3.947041e+01 1.044180e+02 4.735072e+01 5.717729e+01 5.439836e+01 4.077446e+01 2.460251e+01 4.263009e+00 2.430973e+00 2.763385e+00 4.638000e+00 7.194172e+00 8.052606e+00 3.567772e+00 3.905010e+00 2.183346e+00 4.389761e+00 3.546432e+00 2.061079e+00 1.721536e+00 3.233607e-01 2.652425e-01 2.875182e-01 7.681262e-01 1.062114e+00 1.062039e+00 5.318118e-01 5.587047e-01 3.423269e-01 5.244568e-01 5.530738e-01 3.218137e-01 2.418442e-01
<GCONST> 1.313106e+02
<MIXTURE> 2 3.467200e-01
<MEAN> 39
 1.808335e+01 7.993436e+00 7.959294e+00 1.058632e+01 -3.568578e+00 -1.861817e+01 -1.216511e+01 2.091118e+01 3.889719e+00 -1.630400e+01 2.061074e+00 -9.254454e-01 -1.179038e+01 3.341103e-02 -1.226031e-01 4.987623e-02 -3.970939e-02 -7.027501e-02 -2.690139e-01 -1.984205e-01 6.094104e-01 5.900839e-01 -1.729609e-01 -1.835545e-01 -3.397155e-01 -4.759557e-01 -4.170636e-02 -4.543008e-02 -7.543222e-02 -3.382639e-02 9.340295e-02 1.890803e-01 6.847218e-02 -4.422934e-02 -4.887987e-02 1.727995e-02 -1.781159e-02 -8.838059e-02 5.193351e-02
<VARIANCE> 39
 6.050287e+00 3.921399e+01 4.909516e+01 2.845481e+01 2.455535e+01 8.252655e+01 1.790807e+01 6.890701e+01 1.775316e+01 3.888774e+01 4.911160e+01 5.030098e+01 2.345860e+01 3.194465e-01 7.959154e-01 8.505109e-01 8.370463e-01 7.218442e-01 1.353272e+00 1.111473e+00 2.096262e+00 8.043312e-01 1.355428e+00 1.208797e+00 1.198707e+00 5.930204e-01 4.548279e-02 4.112801e-02 7.488994e-02 8.590016e-02 8.635198e-02 1.747868e-01 1.452284e-01 2.485780e-01 9.353366e-02 1.799466e-01 1.467262e-01 1.165550e-01 7.642335e-02
<GCONST> 8.610568e+01
<STATE> 3
<NUMMIXES> 2
<MIXTURE> 1 7.757460e-01
<MEAN> 39
 1.939499e+01 3.513227e+00 2.373155e+00 1.321366e+01 -1.933309e+00 -2.533685e+01 -1.706283e+01 2.479039e+01 1.083751e+01 -1.556208e+01 -3.060916e+00 -2.214033e+00 -8.676987e+00 1.206834e-01 -1.429495e-01 -1.853720e-03 -1.317241e-02 3.655513e-01 1.462740e-01 -3.871706e-01 8.373827e-02 7.864708e-02 -3.552878e-01 -1.280451e-01 -4.281351e-01 -3.259960e-01 -9.700837e-02 6.354186e-03 -2.736522e-02 -8.367703e-02 1.410254e-01 3.851292e-01 1.566069e-01 -1.649708e-01 -2.254143e-01 2.570105e-02 1.438307e-01 4.129192e-02 1.040607e-01
<VARIANCE> 39
 7.855201e+00 2.359145e+01 3.106479e+01 1.772845e+01 3.482369e+01 7.265813e+01 3.425333e+01 3.810600e+01 2.733598e+01 2.817545e+01 2.313195e+01 2.079101e+01 2.203583e+01 5.198857e-01 1.234104e+00 1.344670e+00 9.718962e-01 9.888152e-01 2.025796e+00 1.226333e+00 2.635340e+00 8.376498e-01 2.034550e+00 1.075876e+00 9.512016e-01 4.558497e-01 8.678177e-02 4.611376e-02 9.863374e-02 1.214138e-01 1.168450e-01 2.275018e-01 1.563767e-01 2.511202e-01 1.007769e-01 1.714421e-01 1.512590e-01 8.736698e-02 7.753710e-02
<GCONST> 8.784555e+01
<MIXTURE> 2 2.242537e-01
<MEAN> 39
 1.957563e+01 -3.018056e+00 7.795276e-02 1.342011e+01 1.279417e+01 -5.162249e+00 -1.602885e+01 1.927574e+01 -1.147953e+00 -2.711555e+01 -2.158837e-01 -3.177023e+00 -1.062530e+01 5.811354e-01 7.112581e-02 -6.690357e-01 -2.924734e-01 6.196426e-01 -1.686897e+00 -1.840968e+00 1.697392e+00 4.180819e-01 -1.819132e+00 1.891434e-01 -2.550929e-01 -1.262915e+00 -4.203063e-01 -8.741661e-02 3.148459e-01 -1.604975e-01 -3.887569e-01 5.814163e-01 5.580308e-01 -6.214242e-01 1.009799e-01 8.012830e-01 -7.998598e-02 6.768599e-02 4.083892e-01
<VARIANCE> 39
 4.427040e+00 1.856302e+01 2.060192e+01 2.475835e+01 7.838595e+01 7.574159e+01 2.833536e+01 7.714032e+01 3.103900e+01 2.106355e+01 3.855625e+01 2.220548e+01 2.144636e+01 4.420104e-01 1.025279e+00 1.135911e+00 8.020270e-01 1.615186e+00 2.202789e+00 1.988403e+00 1.934150e+00 1.209122e+00 3.773828e+00 1.537441e+00 7.562083e-01 1.112552e+00 1.251482e-01 9.388832e-02 2.099190e-01 2.077443e-01 1.229510e-01 3.126177e-01 2.091602e-01 2.972080e-01 1.641398e-01 1.672572e-01 3.885981e-01 1.616462e-01 1.092723e-01
<GCONST> 9.631718e+01
<STATE> 4
<NUMMIXES> 2
<MIXTURE> 1 1.000000e+00
<MEAN> 39
 1.965612e+01 -7.608510e-01 1.621825e+00 9.694880e+00 4.877486e+00 -1.195379e+01 -1.415335e+01 2.465901e+01 1.518393e+00 -2.605742e+01 9.482625e-01 -4.020030e+00 -1.218996e+01 5.062751e-02 -6.146919e-01 -4.974817e-01 1.368751e-01 1.081787e+00 1.057894e+00 2.199105e-01 -3.520864e-01 -1.253785e+00 -9.400991e-01 3.476412e-01 1.385081e-01 1.785681e-01 -8.041503e-02 1.541504e-01 6.738438e-02 1.192433e-01 -8.169237e-02 1.259224e-01 3.434065e-01 -2.012266e-01 -1.054240e-01 2.979107e-01 -3.632802e-02 6.662408e-02 1.497721e-01
<VARIANCE> 39
 7.860443e+00 2.569499e+01 2.315217e+01 2.020501e+01 6.052802e+01 8.768210e+01 3.727515e+01 5.875921e+01 4.166886e+01 9.856707e+01 2.941231e+01 2.720166e+01 2.724279e+01 3.489376e-01 8.098516e-01 6.988031e-01 9.228858e-01 6.872570e-01 1.120459e+00 1.636061e+00 1.777027e+00 8.255714e-01 1.817278e+00 1.183781e+00 1.087165e+00 5.641252e-01 5.737695e-02 5.845168e-02 1.016308e-01 1.011474e-01 7.977595e-02 1.424592e-01 2.114600e-01 2.798257e-01 1.278251e-01 2.167584e-01 1.790457e-01 1.014372e-01 1.101186e-01
<GCONST> 8.952044e+01
<MIXTURE> 2 0.000000e+00
<MEAN> 39
 3.417223e+00 7.293330e+00 8.330730e+00 -9.710498e+00 -1.625434e-01 -2.035127e+01 -9.064593e-01 1.561739e+00 -1.227357e+01 -1.039749e+01 -7.147142e+00 -1.017353e+01 -1.074242e+01 -2.990634e-02 2.168149e-01 1.001392e-02 -4.689300e-02 -1.589202e-01 -7.911995e-03 6.217949e-02 3.558638e-02 5.552286e-02 3.114433e-03 -1.407267e-01 -1.060831e-01 -1.548424e-01 -5.462008e-03 -1.843423e-02 -2.657526e-02 6.268177e-02 6.855920e-02 9.713328e-02 -2.289386e-02 -5.790818e-02 2.742950e-02 2.240322e-02 1.946409e-02 5.355634e-02 3.129942e-02
<VARIANCE> 39
 6.075173e+00 4.578182e+01 2.743917e+01 3.471677e+01 5.041447e+01 4.296664e+01 3.941714e+01 4.597451e+01 8.174229e+01 6.164312e+01 4.850667e+01 5.474281e+01 4.559898e+01 9.210440e-02 5.496898e-01 4.708762e-01 6.562652e-01 8.952708e-01 9.710231e-01 9.655682e-01 1.150128e+00 1.134475e+00 1.179296e+00 1.051585e+00 1.147964e+00 1.009993e+00 1.406629e-02 4.912791e-02 6.224088e-02 9.069604e-02 1.023018e-01 1.395229e-01 1.419330e-01 1.569344e-01 1.592698e-01 1.563243e-01 1.508348e-01 1.450534e-01 1.304802e-01
<GCONST> 8.581348e+01
<STATE> 5
<NUMMIXES> 2
<MIXTURE> 1 3.132737e-01
<MEAN> 39
 -2.920911e+00 -1.482706e+01 1.323394e+01 1.141513e+01 -2.576331e-01 6.576923e+00 -8.546918e+00 1.754654e+00 -4.684677e+00 -1.241700e+01 -1.572683e+00 1.129283e+00 3.354518e+00 -7.961419e-01 -1.294048e-01 -7.039118e-02 -4.007352e-01 -4.562663e-01 -6.491934e-02 -1.181058e-01 -4.316309e-01 9.286296e-02 5.477152e-01 1.383337e-01 5.498418e-03 7.708669e-02 4.953432e-02 -9.207454e-02 -1.079241e-01 -3.520904e-02 1.318531e-02 -3.838544e-02 -1.651970e-02 1.280746e-01 -6.791433e-03 -1.129722e-01 9.055971e-02 4.167718e-02 -9.631976e-02
<VARIANCE> 39
 1.359535e+02 3.646289e+02 1.544822e+02 6.227315e+01 7.055124e+01 1.123624e+02 1.015571e+02 9.303883e+01 5.945657e+01 3.745562e+01 3.461605e+01 2.856927e+01 2.547048e+01 6.743036e+00 1.299051e+01 7.449913e+00 3.297007e+00 3.945417e+00 5.691910e+00 4.124175e+00 3.443171e+00 3.821334e+00 3.887263e+00 2.708146e+00 2.685349e+00 3.053740e+00 2.848912e-01 1.028692e+00 9.231074e-01 4.771074e-01 3.710200e-01 6.691673e-01 5.809054e-01 5.183299e-01 5.608326e-01 5.120093e-01 3.599799e-01 4.607319e-01 5.298294e-01
<GCONST> 1.385513e+02
<MIXTURE> 2 6.867252e-01
<MEAN> 39
 1.878159e+01 8.074329e-01 1.375481e+00 1.116475e+01 7.626930e+00 -7.185724e+00 -1.128390e+01 1.988422e+01 -2.097483e+00 -2.386621e+01 1.123734e+00 -3.648191e+00 -1.078727e+01 -7.152700e-01 6.241767e-01 1.860744e-01 1.454167e-01 3.137797e-01 1.887069e+00 2.009970e+00 -1.213049e+00 -4.960620e-01 1.226379e+00 -8.437541e-01 -1.216954e-01 1.066714e+00 -3.321584e-01 3.047534e-01 2.995163e-01 7.294932e-03 -1.213749e-01 1.961674e-01 2.774963e-01 -1.444319e-01 3.535505e-01 5.132647e-01 -3.741787e-01 -9.416641e-02 2.998845e-01
<VARIANCE> 39
 7.585148e+00 4.535102e+01 3.807134e+01 4.903892e+01 7.103402e+01 1.288010e+02 4.883199e+01 7.378851e+01 7.870327e+01 1.431722e+02 4.815306e+01 6.013381e+01 2.491582e+01 8.467463e-01 1.185234e+00 1.395797e+00 1.528734e+00 1.198146e+00 2.577295e+00 2.430269e+00 2.706497e+00 2.091436e+00 3.842055e+00 2.142347e+00 1.257746e+00 1.448991e+00 8.229721e-02 1.544585e-01 1.543449e-01 1.651527e-01 1.638443e-01 3.550612e-01 2.780593e-01 4.783947e-01 3.895893e-01 6.955040e-01 3.632829e-01 2.693444e-01 1.867279e-01
<GCONST> 1.118913e+02
<STATE> 6
<NUMMIXES> 2
<MIXTURE> 1 2.477555e-01
<MEAN> 39
 -2.599175e+01 -7.304835e+00 -6.180373e+00 -3.640715e+00 -3.670874e+00 1.529315e+00 -2.083179e+00 1.618999e+00 -3.873402e+00 -2.765864e+00 5.166500e-01 8.403422e-01 1.339832e+00 -5.448535e-02 -8.956730e-02 -9.159673e-02 3.001074e-03 3.028108e-02 1.843578e-02 5.020142e-02 1.137724e-01 9.680708e-02 8.159715e-02 3.449984e-02 -7.657533e-02 -5.494879e-03 8.715405e-02 5.022348e-02 4.786527e-02 5.949365e-02 6.327865e-02 1.714041e-02 -3.222901e-02 -4.214305e-02 -4.428485e-02 -4.551325e-02 2.877658e-02 5.183502e-02 4.635440e-02
<VARIANCE> 39
 1.465311e+00 3.599370e+00 4.759575e+00 2.938337e+00 3.451954e+00 9.567442e+00 9.722363e+00 4.971842e+00 1.985769e+01 2.801803e+01 8.124626e+00 1.608684e+01 7.960564e+00 1.088254e-01 1.778408e-01 3.745452e-01 4.299010e-01 6.717691e-01 8.129689e-01 7.340722e-01 8.315637e-01 1.138864e+00 1.509779e+00 1.141627e+00 9.824271e-01 6.570598e-01 6.952895e-02 4.413216e-02 9.072518e-02 1.020280e-01 1.756460e-01 1.992448e-01 1.825671e-01 1.880568e-01 2.292824e-01 2.754246e-01 2.581170e-01 2.056540e-01 1.456276e-01
<GCONST> 6.517150e+01
<MIXTURE> 2 7.522439e-01
<MEAN> 39
 1.123676e+01 9.000919e+00 6.179836e+00 1.135561e+01 5.929896e+00 -8.526585e-01 -1.996379e+00 1.539073e+01 1.395869e+00 -1.218955e+01 -3.396630e+00 -4.263971e+00 -5.564084e+00 -1.771196e+00 8.314816e-01 8.908209e-01 2.185140e-01 7.076127e-01 2.260162e+00 1.419377e+00 -1.027936e+00 -3.340006e-02 1.252068e+00 -5.925751e-01 -2.093263e-01 9.003475e-01 -1.114720e-01 -2.124283e-01 6.328713e-02 6.995299e-02 -2.701194e-02 -2.460893e-01 -3.409971e-01 2.700540e-02 1.196217e-03 -1.157195e-01 1.335895e-01 2.496454e-02 -7.475604e-02
<VARIANCE> 39
 6.568015e+01 6.539034e+01 5.711921e+01 3.685069e+01 4.585599e+01 1.145096e+02 7.417039e+01 4.832172e+01 3.881193e+01 1.004486e+02 4.257160e+01 3.999728e+01 2.377237e+01 1.300414e+00 2.098846e+00 1.541242e+00 1.528974e+00 1.688451e+00 4.139538e+00 2.952848e+00 2.580778e+00 2.206414e+00 4.009825e+00 2.031002e+00 1.417866e+00 1.436702e+00 6.014658e-02 2.064868e-01 1.867847e-01 1.620389e-01 1.714138e-01 2.479197e-01 3.042868e-01 2.677589e-01 2.478956e-01 2.538072e-01 2.183740e-01 1.630440e-01 1.461977e-01
<GCONST> 1.111824e+02
<TRANSP> 7
 0.000000e+00 1.000000e+00 0.000000e+00 0.000000e+00 0.000000e+00 0.000000e+00 0.000000e+00
 0.000000e+00 8.729327e-01 1.270673e-01 0.000000e+00 0.000000e+00 0.000000e+00 0.000000e+00
 0.000000e+00 0.000000e+00 7.916305e-01 2.083695e-01 0.000000e+00 0.000000e+00 0.000000e+00
 0.000000e+00 0.000000e+00 0.000000e+00 7.487314e-01 2.512686e-01 0.000000e+00 0.000000e+00
 0.000000e+00 0.000000e+00 0.000000e+00 0.000000e+00 7.261636e-01 2.738364e-01 0.000000e+00
 0.000000e+00 0.000000e+00 0.000000e+00 0.000000e+00 0.000000e+00 7.016321e-01 2.983679e-01
 0.000000e+00 0.000000e+00 0.000000e+00 0.000000e+00 0.000000e+00 0.000000e+00 0.000000e+00
<ENDHMM>
~h "w"
<BEGINHMM>
<NUMSTATES> 5
<STATE> 2
<NUMMIXES> 2
<MIXTURE> 1 1.000000e+00
<MEAN> 39
 6.835948e+00 1.511171e+01 1.033475e+01 1.389759e+01 1.062361e+01 7.341527e+00 4.302689e+00 1.661901e+01 4.425065e+00 -8.024006e+00 -6.556864e+00 -6.319769e+00 -6.647151e+00 -5.601950e-01 4.906746e-01 7.919949e-01 2.030577e-01 1.093023e-01 5.729617e-01 3.111126e-01 -1.926524e-01 1.172558e-01 5.682051e-01 2.093001e-01 -1.853962e-01 -4.843351e-02 2.020491e-02 -2.197768e-01 -1.484485e-01 3.707384e-02 6.968280e-02 -3.009460e-02 -1.065494e-01 -3.235089e-05 -6.899164e-03 -4.812882e-02 3.122241e-02 6.225167e-02 1.286816e-01
<VARIANCE> 39
 2.234567e+01 2.127631e+01 2.775642e+01 1.633218e+01 2.155889e+01 4.019447e+01 1.807546e+01 4.304928e+01 2.924448e+01 3.881366e+01 2.029300e+01 1.664730e+01 1.444478e+01 8.035243e-01 8.881902e-01 1.191374e+00 6.491787e-01 7.201498e-01 1.355115e+00 1.006562e+00 1.619112e+00 9.721540e-01 1.681384e+00 1.123864e+00 9.866893e-01 9.738808e-01 4.826522e-02 1.041530e-01 1.413034e-01 8.831052e-02 9.326649e-02 1.491414e-01 1.433628e-01 2.359746e-01 1.391981e-01 2.251572e-01 1.510223e-01 1.265498e-01 1.222099e-01
<GCONST> 8.648431e+01
<MIXTURE> 2 0.000000e+00
<MEAN> 39
 1.378911e+01 -5.882964e+00 5.711132e+00 9.465131e+00 -1.243303e+01 8.746708e+00 5.601330e-01 -7.174479e+00 2.589908e+00 -1.117520e+01 -1.118331e+01 1.178023e-01 -6.158607e+00 -1.288440e-01 1.712742e-02 2.953843e-01 2.247112e-02 -1.709286e-01 2.319557e-01 7.940844e-02 2.872613e-02 2.858532e-01 -3.339471e-02 -1.537790e-01 2.861512e-02 -6.112367e-02 4.143821e-02 -1.702908e-01 -5.036233e-02 -1.903104e-02 -4.757323e-02 -1.118162e-01 -1.095709e-01 -5.744234e-02 -1.100288e-01 -7.373928e-02 7.590093e-02 2.229727e-02 -1.457045e-03
<VARIANCE> 39
 5.693203e+00 3.076212e+01 1.764848e+01 2.169621e+01 3.926045e+01 3.001332e+01 2.751151e+01 3.213239e+01 3.717189e+01 2.692718e+01 1.927668e+01 1.926764e+01 1.896693e+01 1.228157e-01 5.694669e-01 4.044106e-01 4.887558e-01 7.384183e-01 9.813446e-01 7.732689e-01 8.090994e-01 9.743630e-01 8.385676e-01 6.937302e-01 6.511840e-01 6.163760e-01 1.787036e-02 5.931752e-02 6.642151e-02 7.853088e-02 1.136717e-01 1.498673e-01 1.329894e-01 1.448491e-01 1.629503e-01 1.434017e-01 1.325567e-01 1.232411e-01 1.184856e-01
<GCONST> 7.573148e+01
<STATE> 3
<NUMMIXES> 2
<MIXTURE> 1 8.660791e-01
<MEAN> 39
 2.886395e+00 9.057140e+00 8.363996e+00 1.401057e+01 1.234212e+01 9.653698e+00 2.744999e+00 1.554328e+01 4.487274e+00 -6.738599e+00 -3.797200e+00 -4.890537e+00 -2.257768e+00 1.087422e+00 -1.803830e+00 -1.673950e+00 -3.764470e-01 -2.799010e-02 -1.220418e+00 -1.603497e+00 4.044611e-01 -3.302303e-02 -1.064065e+00 3.174365e-01 2.981254e-01 5.753691e-01 4.570405e-01 -2.736671e-01 -4.150810e-01 -1.855359e-01 -1.712261e-01 -5.626444e-01 -4.676162e-01 1.834706e-02 -1.557817e-01 -3.767612e-01 9.323405e-02 1.603324e-01 -7.971945e-02
<VARIANCE> 39
 6.200893e+01 6.469987e+01 3.970160e+01 3.693149e+01 3.751268e+01 4.274773e+01 2.673998e+01 3.937224e+01 4.317389e+01 3.246887e+01 3.177907e+01 2.157777e+01 1.785149e+01 1.537901e+00 3.223681e+00 2.381842e+00 1.617937e+00 1.576932e+00 3.336311e+00 2.584221e+00 1.914955e+00 2.220504e+00 2.368187e+00 2.266988e+00 1.352331e+00 1.379319e+00 1.081063e-01 2.464684e-01 2.575428e-01 2.325580e-01 2.255438e-01 3.066169e-01 2.715898e-01 3.554646e-01 2.960157e-01 3.193850e-01 3.425896e-01 2.329587e-01 2.400291e-01
<GCONST> 1.098098e+02
<MIXTURE> 2 1.339205e-01
<MEAN> 39
 1.768753e+01 5.467749e+00 2.500187e-01 1.255968e+01 3.668682e+00 -1.435639e+01 -1.009179e+01 2.266426e+01 7.468211e+00 -1.820382e+01 -8.853696e+00 -3.629270e+00 -6.988238e+00 4.188265e-01 -6.237745e-01 -4.503249e-01 2.703646e-02 -9.527487e-02 -1.340912e+00 -1.388152e+00 2.053890e-01 3.647697e-01 -3.105794e-01 2.410295e-01 1.873376e-01 -1.761155e-01 2.340983e-02 -1.643241e-01 -7.287844e-02 -3.129223e-02 6.592409e-02 1.162869e-01 -4.896832e-02 -1.194615e-01 -1.608133e-01 -5.421259e-03 1.652820e-01 2.269995e-02 1.057830e-01
<VARIANCE> 39
 4.940677e+00 1.214440e+01 1.354681e+01 1.726275e+01 1.056148e+01 5.487062e+01 4.032437e+01 2.172055e+01 2.458399e+01 2.581015e+01 3.529791e+01 1.036278e+01 2.044632e+01 3.118666e-01 9.119320e-01 8.753679e-01 4.212514e-01 7.912832e-01 1.347922e+00 1.214108e+00 1.617922e+00 1.433260e+00 2.200992e+00 7.074056e-01 6.097736e-01 5.469965e-01 4.531511e-02 3.941888e-02 1.000934e-01 6.802867e-02 7.293373e-02 1.235779e-01 1.725650e-01 2.751637e-01 1.233407e-01 2.219752e-01 1.227041e-01 1.059368e-01 6.224803e-02
<GCONST> 7.813467e+01
<STATE> 4
<NUMMIXES> 2
<MIXTURE> 1 5.815142e-03
<MEAN> 39
 2.002086e+01 -3.922130e-01 -3.158254e+00 9.110373e+00 6.457325e+00 -9.058931e+00 -8.714765e+00 1.753940e+01 -9.112654e+00 -2.585553e+01 1.206401e+00 8.230390e-02 -8.650686e+00 1.698274e-01 -1.110128e+00 -4.949117e-01 2.712925e-01 6.674232e-01 2.619573e-01 -5.713790e-01 -1.192322e+00 -1.788330e+00 -7.097686e-01 1.365730e+00 1.187579e+00 7.069641e-01 -7.904043e-02 7.968026e-02 6.171120e-02 -2.306770e-02 -3.489152e-02 6.936041e-02 1.116714e-02 -1.522783e-01 3.515950e-02 1.906723e-02 1.934356e-01 1.777481e-01 -6.913304e-02
<VARIANCE> 39
 8.296791e-01 5.151434e+00 2.851171e+00 1.844264e+00 2.715696e+01 3.422278e+01 2.654322e+00 3.188001e+01 6.221015e+00 1.012221e+01 2.635485e+01 7.672225e+00 5.130486e+01 7.079435e-03 2.556082e-01 1.020542e-01 1.685649e-01 2.376395e-01 1.607333e-01 1.719652e-01 1.044098e-01 3.661923e-01 5.475875e-01 8.923896e-01 1.742399e-01 6.713476e-02 1.359680e-02 1.182626e-02 1.722018e-02 2.535425e-02 4.104684e-02 3.163302e-02 2.018709e-02 8.953372e-02 3.931336e-02 1.415580e-02 1.029304e-01 8.351173e-02 2.456108e-02
<GCONST> 3.022950e+01
<MIXTURE> 2 9.941848e-01
<MEAN> 39
 1.778449e+01 -3.254842e-01 -4.723587e+00 1.005969e+01 5.773842e+00 -1.253960e+01 -1.373062e+01 2.112260e+01 7.785666e+00 -1.574149e+01 -4.656535e+00 -2.020216e+00 -6.816093e-01 1.814124e+00 -1.602492e+00 -2.005432e+00 -5.891017e-01 -4.547020e-01 -2.581901e+00 -2.064494e+00 2.660261e-01 -3.599292e-01 -1.351792e+00 5.420518e-01 9.766998e-01 3.013694e-01 -2.478294e-01 2.010303e-01 1.973214e-01 5.976062e-02 2.392190e-01 3.924788e-01 2.836384e-01 1.088156e-02 1.916364e-02 1.808973e-01 6.569428e-02 1.119319e-02 -5.849333e-03
<VARIANCE> 39
 2.072661e+01 1.807041e+01 2.749535e+01 1.377827e+01 3.877148e+01 1.339574e+02 4.701242e+01 3.944093e+01 5.850031e+01 2.847551e+01 3.542078e+01 1.527634e+01 1.181411e+01 1.631051e+00 7.853609e-01 1.295358e+00 9.437568e-01 1.736948e+00 3.864320e+00 2.800486e+00 2.236073e+00 1.767732e+00 2.676654e+00 1.771634e+00 1.172387e+00 7.721512e-01 1.520790e-01 9.059460e-02 1.532870e-01 1.566709e-01 1.888069e-01 4.213852e-01 2.884224e-01 3.311890e-01 1.751534e-01 3.255206e-01 2.409711e-01 1.689509e-01 1.328647e-01
<GCONST> 1.010375e+02
<TRANSP> 5
 0.000000e+00 1.000000e+00 0.000000e+00 0.000000e+00 0.000000e+00
 0.000000e+00 8.557851e-01 1.442149e-01 0.000000e+00 0.000000e+00
 0.000000e+00 0.000000e+00 8.349133e-01 1.650867e-01 0.000000e+00
 0.000000e+00 0.000000e+00 0.000000e+00 7.648916e-01 2.351085e-01
 0.000000e+00 0.000000e+00 0.000000e+00 0.000000e+00 0.000000e+00
<ENDHMM>
~h "y"
<BEGINHMM>
<NUMSTATES> 5
<STATE> 2
<NUMMIXES> 2
<MIXTURE> 1 1.000000e+00
<MEAN> 39
 5.385381e+00 -1.335774e+00 1.573487e+01 3.503838e+01 1.838330e+01 -2.074529e+00 -5.427149e+00 1.721395e+01 -2.728347e+00 -1.802114e+01 5.762108e-01 -7.798467e-01 -8.156463e+00 4.113951e-01 -5.666552e-01 -1.053547e-01 3.576967e-01 4.805052e-01 -7.908145e-02 -7.533605e-01 -1.799979e-01 -1.121217e-01 -4.401865e-01 7.840312e-02 -7.720813e-02 -2.199396e-01 2.130937e-02 -5.940335e-02 -9.613673e-02 -1.092518e-01 6.987432e-02 1.062695e-02 -1.564036e-01 -1.999385e-02 -7.644354e-03 -6.010950e-02 6.423189e-02 3.226833e-02 -3.267304e-02
<VARIANCE> 39
 2.346630e+01 8.469565e+01 3.484705e+01 6.028793e+01 4.299984e+01 5.064705e+01 8.142792e+01 7.137023e+01 2.624593e+01 6.297268e+01 3.962823e+01 2.987244e+01 3.633692e+01 9.483929e-01 2.322897e+00 1.506031e+00 2.869013e+00 2.133636e+00 1.911792e+00 3.480081e+00 2.500403e+00 1.055484e+00 3.514797e+00 1.593279e+00 1.422521e+00 1.560613e+00 6.697140e-02 1.723780e-01 1.700606e-01 3.879777e-01 2.121845e-01 2.313749e-01 2.168731e-01 3.243780e-01 1.476173e-01 3.970954e-01 2.162134e-01 1.983835e-01 1.622484e-01
<GCONST> 1.090994e+02
<MIXTURE> 2 0.000000e+00
<MEAN> 39
 1.077002e+01 -1.956420e+01 1.628934e+01 2.477308e+01 -1.067274e+01 -2.976494e-01 -1.631964e+01 -1.125875e+01 8.065402e+00 -1.447605e+01 -1.309809e+01 -1.712498e+00 -8.394070e+00 6.742813e-02 -9.836404e-02 -1.169972e-01 -9.043243e-02 -7.185069e-02 -4.700645e-02 -1.383417e-01 -1.586409e-01 -4.520181e-02 8.582173e-02 1.406730e-01 1.323300e-02 -1.787742e-02 1.718775e-02 -1.453367e-03 -6.490878e-02 -5.673794e-02 8.897717e-03 2.129654e-02 3.349083e-04 -4.583070e-02 -3.346105e-02 4.537795e-02 5.137637e-02 4.648509e-03 -1.070770e-02
<VARIANCE> 39
 4.835891e+00 1.564970e+01 1.978276e+01 2.057377e+01 2.182557e+01 2.436750e+01 2.886898e+01 3.342552e+01 2.415036e+01 3.267395e+01 2.042847e+01 2.264841e+01 1.821476e+01 1.990445e-01 2.737281e-01 3.442593e-01 4.312418e-01 5.640050e-01 5.272828e-01 3.877100e-01 4.964686e-01 5.398856e-01 5.405872e-01 4.196366e-01 3.762387e-01 3.816764e-01 2.946622e-02 3.539984e-02 2.297077e-02 5.282143e-02 8.965132e-02 8.030171e-02 5.395827e-02 6.092423e-02 8.503931e-02 7.202144e-02 5.072999e-02 5.755227e-02 6.090007e-02
<GCONST> 6.119115e+01
<STATE> 3
<NUMMIXES> 2
<MIXTURE> 1 4.862770e-01
<MEAN> 39
 1.205962e+01 -9.821413e+00 6.073093e+00 3.387403e+01 3.368516e+01 3.781398e+00 -2.319570e+01 4.098137e+00 -6.847354e+00 -2.087490e+01 9.041136e+00 -1.251303e-01 -1.806612e+01 1.693249e-01 2.214289e-01 -7.833041e-02 -7.084909e-01 -3.072295e-01 2.038680e-03 -1.637414e-01 -1.939065e-02 4.773773e-05 -6.019509e-01 -2.037033e-01 3.758475e-01 -6.555255e-02 3.308881e-02 5.075129e-02 -1.002740e-02 -1.557260e-01 -1.862822e-01 -1.848107e-03 1.297163e-01 1.698790e-01 2.121029e-02 -7.477272e-02 -6.832067e-02 -1.016843e-02 1.058176e-01
<VARIANCE> 39
 5.330296e+00 1.384732e+01 1.339180e+01 3.541600e+01 2.150208e+01 3.791968e+01 3.473189e+01 3.512653e+01 2.407126e+01 3.173018e+01 2.723910e+01 2.056915e+01 1.683462e+01 2.876726e-01 4.605186e-01 5.462325e-01 1.501548e+00 1.446153e+00 1.182726e+00 1.992293e+00 1.467369e+00 9.734142e-01 1.982857e+00 1.139921e+00 7.169287e-01 9.551827e-01 3.894832e-02 4.796390e-02 6.380100e-02 1.444612e-01 1.631431e-01 1.535507e-01 2.286491e-01 1.904428e-01 1.542174e-01 2.510406e-01 1.728033e-01 1.199614e-01 1.214962e-01
<GCONST> 8.451482e+01
<MIXTURE> 2 5.137218e-01
<MEAN> 39
 1.411464e+01 -1.400961e+01 5.241665e+00 2.760389e+01 3.005804e+01 7.762393e-01 -2.891763e+01 9.214019e+00 -6.652052e+00 -2.557131e+01 9.868231e+00 -3.851635e-01 -1.348471e+01 9.291205e-01 -2.335728e-01 -1.199377e+00 -1.441269e+00 6.580728e-01 -8.497294e-01 -2.265534e+00 6.422185e-01 -4.860692e-01 -1.558412e+00 1.323199e+00 7.470772e-01 -6.821448e-01 -1.702112e-01 1.655060e-01 6.365249e-02 -1.560747e-01 -4.698487e-01 -2.528915e-02 5.614970e-01 -6.293450e-02 7.571787e-02 4.458528e-01 -1.620467e-01 -2.123864e-02 3.667322e-01
<VARIANCE> 39
 1.099415e+01 1.590151e+01 3.323629e+01 5.391363e+01 3.284546e+01 4.671151e+01 5.723706e+01 4.138997e+01 2.144139e+01 3.863350e+01 4.647630e+01 1.519857e+01 3.117618e+01 7.608077e-01 1.128294e+00 1.524596e+00 2.554198e+00 2.041758e+00 1.314738e+00 2.860379e+00 1.876884e+00 9.585288e-01 2.446399e+00 1.645048e+00 8.215106e-01 1.807471e+00 1.012926e-01 1.374963e-01 1.236657e-01 1.931071e-01 1.899571e-01 1.908931e-01 3.367657e-01 3.132063e-01 1.629950e-01 2.907353e-01 2.551558e-01 1.330419e-01 1.647487e-01
<GCONST> 9.996691e+01
<STATE> 4
<NUMMIXES> 2
<MIXTURE> 1 9.486424e-01
<MEAN> 39
 1.773870e+01 -1.097881e+01 -1.518073e+00 1.506718e+01 2.248118e+01 -2.119186e+00 -2.744061e+01 1.076462e+01 -7.940348e+00 -2.538022e+01 1.469805e+01 4.860484e+00 -9.153304e+00 2.339451e-01 4.918843e-01 -5.645038e-01 -1.230837e+00 -1.448851e+00 -3.554983e-01 1.127632e+00 4.852579e-01 2.270230e-01 5.391755e-01 8.248150e-02 3.176367e-01 8.426716e-01 -4.149568e-02 1.187694e-03 7.203981e-02 1.207866e-01 -3.682788e-02 8.804138e-03 1.487753e-01 6.901835e-02 9.527157e-02 1.369058e-01 -7.290839e-02 -1.228555e-01 -2.138491e-02
<VARIANCE> 39
 1.093782e+01 2.688995e+01 3.326257e+01 4.091546e+01 4.142487e+01 3.450476e+01 8.125001e+01 3.846135e+01 2.186327e+01 5.319094e+01 8.414033e+01 1.540560e+01 4.070439e+01 5.744779e-01 5.939749e-01 1.174267e+00 1.063060e+00 9.547544e-01 1.308510e+00 2.038601e+00 2.365384e+00 1.062042e+00 2.198397e+00 2.881692e+00 1.064810e+00 8.561910e-01 7.069565e-02 7.242445e-02 1.051522e-01 1.120041e-01 1.102048e-01 1.349985e-01 2.884347e-01 2.805582e-01 1.324043e-01 2.762635e-01 2.476793e-01 1.340085e-01 1.169947e-01
<GCONST> 9.528005e+01
<MIXTURE> 2 5.135651e-02
<MEAN> 39
 1.607277e+01 -1.190468e+01 5.670810e+00 2.063564e+01 2.579631e+01 -1.286775e+00 -3.237360e+01 1.109285e+01 -7.735242e+00 -2.640958e+01 2.137648e+01 1.216962e+00 -2.242995e+01 2.723231e-01 -2.018135e-01 -4.917399e-01 -9.313248e-01 -3.023414e-01 2.314890e-01 7.813554e-02 3.906349e-01 -3.270470e-01 -2.745585e-01 5.839475e-01 1.271851e-01 1.582143e-01 2.232184e-02 6.383379e-02 -7.778299e-02 9.534413e-02 -4.346882e-02 4.238494e-02 2.373078e-01 -1.353558e-01 -1.104216e-01 8.927837e-02 -9.227757e-02 4.042599e-02 1.366776e-01
<VARIANCE> 39
 3.908508e+00 7.314783e+00 1.431100e+01 2.845160e+01 1.527720e+01 1.174518e+01 1.951996e+01 1.772208e+01 2.263927e+01 2.127728e+01 3.083866e+01 7.540804e+00 1.219601e+01 1.766761e-01 1.952515e-01 4.324844e-01 7.329823e-01 3.119365e-01 5.070842e-01 1.111535e+00 7.537280e-01 5.427667e-01 7.455279e-01 8.115726e-01 3.547248e-01 4.667127e-01 2.660223e-02 3.856367e-02 4.748161e-02 4.706812e-02 4.813391e-02 5.950335e-02 9.890622e-02 1.240816e-01 8.351059e-02 1.006831e-01 1.126449e-01 4.939283e-02 8.142548e-02
<GCONST> 6.103460e+01
<TRANSP> 5
 0.000000e+00 1.000000e+00 0.000000e+00 0.000000e+00 0.000000e+00
 0.000000e+00 8.847616e-01 1.152384e-01 0.000000e+00 0.000000e+00
 0.000000e+00 0.000000e+00 8.735482e-01 1.264517e-01 0.000000e+00
 0.000000e+00 0.000000e+00 0.000000e+00 8.397148e-01 1.602851e-01
 0.000000e+00 0.000000e+00 0.000000e+00 0.000000e+00 0.000000e+00
<ENDHMM>
~h "z"
<BEGINHMM>
<NUMSTATES> 5
<STATE> 2
<NUMMIXES> 2
<MIXTURE> 1 5.668465e-01
<MEAN> 39
 -1.813360e+00 -1.174193e+01 3.853780e+01 3.195442e+00 1.299680e+01 3.884501e+01 -1.374010e+01 -2.825762e+00 -1.456703e+01 -1.406214e+01 5.867805e+00 -2.341458e+00 1.169495e+00 -2.548674e+00 -2.524788e-01 3.380512e+00 -1.623472e+00 -1.178042e+00 1.454209e+00 1.580282e+00 2.025020e+00 5.040123e-01 5.890840e-01 -9.171597e-02 5.517410e-01 1.000448e+00 6.903969e-02 -5.678171e-02 -9.046605e-01 3.251258e-01 1.070520e-01 -7.092354e-01 3.922257e-01 3.976925e-01 3.892363e-01 4.730514e-02 3.059523e-01 2.529776e-01 -3.947783e-01
<VARIANCE> 39
 1.895202e+01 1.376984e+01 3.398749e+01 4.757440e+01 3.443259e+01 2.690874e+01 2.774154e+01 6.170304e+01 4.276784e+01 3.271741e+01 3.401060e+01 2.633677e+01 2.163994e+01 9.510519e-01 7.694110e-01 3.710673e+00 1.401828e+00 1.356575e+00 2.806951e+00 2.178130e+00 1.608832e+00 2.195523e+00 1.844223e+00 1.310490e+00 1.685708e+00 1.573529e+00 3.894069e-02 1.010111e-01 2.349715e-01 1.827706e-01 2.651275e-01 2.358018e-01 2.875694e-01 3.283432e-01 5.108861e-01 2.848770e-01 2.556051e-01 2.929194e-01 2.270700e-01
<GCONST> 1.027744e+02
<MIXTURE> 2 4.331534e-01
<MEAN> 39
 1.020346e+01 -9.376673e+00 1.683472e+01 1.034629e+01 1.703349e+01 2.410605e+01 -1.585154e+01 -2.747016e+00 -1.374540e+01 -1.806555e+01 8.698572e+00 -2.465874e+00 -4.859690e+00 -2.153852e+00 -2.059319e-01 4.576163e+00 -2.140497e+00 -1.399745e+00 3.339827e+00 2.032932e-01 -4.579899e-01 6.432376e-01 9.720128e-01 -1.674056e+00 -1.784444e-01 1.876749e+00 -3.779591e-01 -1.167460e-02 5.635647e-01 -2.421447e-01 -1.598519e-01 1.547105e-01 1.860531e-01 4.304009e-01 -4.425950e-02 2.691661e-02 4.422696e-02 -1.087935e-02 8.147019e-02
<VARIANCE> 39
 1.954270e+01 2.323503e+01 6.512852e+01 7.574834e+01 5.963593e+01 8.987412e+01 2.851734e+01 9.621259e+01 2.734025e+01 2.219544e+01 4.232967e+01 1.573332e+01 3.959535e+01 8.067641e-01 5.415516e-01 2.926008e+00 1.364050e+00 1.821899e+00 1.701886e+00 1.717211e+00 8.143604e-01 1.995722e+00 1.320978e+00 1.818178e+00 8.039978e-01 1.211150e+00 3.435235e-02 7.961027e-02 1.700653e-01 7.564962e-02 8.682273e-02 1.679867e-01 2.564865e-01 2.026810e-01 1.503110e-01 2.033932e-01 1.936362e-01 1.022896e-01 8.432694e-02
<GCONST> 9.563295e+01
<STATE> 3
<NUMMIXES> 2
<MIXTURE> 1 9.642240e-01
<MEAN> 39
 -1.232024e+01 -1.411372e+01 4.396364e+01 -2.057021e+00 6.770426e+00 3.827464e+01 -3.870539e+00 8.531461e+00 -5.121845e+00 -8.990156e+00 7.050679e+00 1.819260e+00 2.463190e+00 -1.663390e+00 -1.366015e+00 7.224676e-02 -1.388657e+00 -1.071937e+00 -2.916204e-01 9.702272e-01 1.551649e+00 1.608523e+00 1.806872e+00 8.709546e-01 6.606259e-01 7.163819e-01 3.197892e-01 -2.207662e-01 -4.155342e-01 -1.158990e-01 1.003896e-01 -1.244231e-01 -5.104308e-01 -3.772852e-01 -3.335829e-01 3.682627e-02 1.165542e-01 -6.805836e-02 2.313763e-01
<VARIANCE> 39
 2.587189e+01 2.332388e+01 3.782664e+01 3.431275e+01 2.108979e+01 3.707061e+01 1.531534e+01 3.508178e+01 3.397439e+01 4.628162e+01 4.285625e+01 1.758680e+01 1.786962e+01 8.090385e-01 8.021458e-01 1.918562e+00 1.752469e+00 1.954377e+00 2.403592e+00 2.031847e+00 2.644427e+00 3.166128e+00 1.342291e+00 1.354192e+00 1.633078e+00 1.678949e+00 8.911284e-02 1.011278e-01 3.087286e-01 2.252038e-01 3.001685e-01 4.029204e-01 2.104327e-01 3.076899e-01 5.416777e-01 2.905715e-01 2.385787e-01 2.423055e-01 2.184761e-01
<GCONST> 1.033867e+02
<MIXTURE> 2 3.577596e-02
<MEAN> 39
 5.614205e-01 -1.031646e+00 3.054697e+01 -1.373701e+00 6.131958e+00 2.822702e+01 -6.657142e+00 1.706296e+01 -6.947106e+00 -2.251350e+01 -3.169981e+00 -1.509630e+01 6.024837e+00 -8.830885e-01 -2.972541e-01 -3.645056e-01 2.469069e+00 1.092309e-01 -2.685338e-01 1.293466e+00 4.760259e-01 1.198668e+00 -1.139092e+00 -4.464777e-01 1.320398e+00 -6.936674e-01 3.685874e-02 -3.427455e-01 -2.204951e-01 -7.968993e-02 -1.985071e-01 -2.240202e-01 1.386893e-02 -5.857373e-01 2.292135e-01 6.725489e-01 5.340142e-01 6.394420e-01 -2.778102e-01
<VARIANCE> 39
 1.978190e+01 5.778662e+01 1.230638e+01 4.370177e+00 6.786977e+00 2.357460e+00 1.184228e+01 8.023587e+01 5.244557e+00 3.095677e+01 1.732346e+01 4.337589e+01 4.184568e-01 4.640939e+00 3.922840e-01 5.382555e+00 7.683693e-02 1.987098e+00 5.125330e+00 6.139453e+00 3.174617e+00 1.582641e+00 4.123071e+00 1.059011e+00 7.533904e-01 9.950969e-02 1.986805e-02 1.419556e-01 1.556622e-01 2.619095e-01 1.867460e-01 3.592931e-01 1.798332e-01 4.171865e-01 2.663432e-01 5.418630e-01 1.195160e-01 2.136214e-01 6.996316e-02
<GCONST> 8.489720e+01
<STATE> 4
<NUMMIXES> 2
<MIXTURE> 1 5.747689e-01
<MEAN> 39
 -1.597391e+01 -2.318861e+01 4.144819e+01 -9.476145e+00 4.295141e+00 3.703093e+01 -5.385107e+00 8.687290e+00 -5.664687e+00 -1.674137e+00 1.140338e+01 3.874908e+00 8.302269e+00 1.319844e+00 -9.038569e-02 -8.962386e-01 1.036150e-01 1.828230e-01 -3.319175e-01 -5.639003e-01 -1.107030e+00 -7.250128e-01 -2.214170e-02 -5.694623e-01 -4.904306e-01 2.501535e-01 7.118089e-01 5.560414e-01 -3.357478e-01 4.735618e-01 8.252351e-02 -3.164321e-01 -1.265510e-01 -3.238958e-01 -8.802167e-02 -4.112977e-01 -4.231642e-01 -2.418031e-01 -2.907283e-01
<VARIANCE> 39
 2.119398e+01 1.862395e+01 1.481988e+01 2.878218e+01 2.399732e+01 3.240691e+01 1.610725e+01 1.942231e+01 3.028669e+01 2.423591e+01 2.145724e+01 1.937727e+01 1.219822e+01 3.165997e+00 2.906446e+00 1.618488e+00 2.830508e+00 1.799843e+00 3.249086e+00 1.413773e+00 1.664215e+00 2.587955e+00 1.719982e+00 1.841362e+00 1.590760e+00 1.406584e+00 1.355785e-01 2.004123e-01 4.056774e-01 2.708857e-01 3.693497e-01 7.994764e-01 2.664188e-01 2.838910e-01 5.239599e-01 3.290755e-01 2.446861e-01 2.804037e-01 2.089305e-01
<GCONST> 1.048968e+02
<MIXTURE> 2 4.252309e-01
<MEAN> 39
 4.353895e+00 -1.482268e+01 2.622500e+01 -9.931366e-01 5.713909e+00 2.634171e+01 -1.103962e+01 1.262494e+00 -8.148424e+00 -1.019028e+01 3.064960e+00 -7.808522e-01 4.941233e+00 4.462939e+00 1.289040e+00 -5.366850e+00 2.075818e+00 5.374791e-01 -4.188039e+00 -1.673387e+00 1.288383e-01 -4.501489e-01 -3.135122e+00 1.856959e-02 1.665995e-01 -1.358644e+00 -1.741595e-01 -3.036322e-01 -5.298610e-01 8.635487e-02 3.470016e-01 -4.510433e-01 -1.191484e-01 8.514159e-01 -1.826580e-01 -5.219841e-01 1.007112e+00 3.160380e-01 -3.544171e-01
<VARIANCE> 39
 5.529517e+01 1.087266e+01 9.344161e+01 2.448753e+01 1.205413e+01 5.932565e+01 1.453403e+01 1.905715e+01 2.090905e+01 4.087529e+01 2.047124e+01 1.002218e+01 1.245627e+01 1.045288e+00 1.224822e+00 2.511936e+00 9.835585e-01 1.160537e+00 1.622582e+00 8.837002e-01 3.141754e+00 1.308548e+00 1.909980e+00 4.466936e+00 1.393781e+00 1.218902e+00 3.464372e-01 1.376462e-01 6.146166e-01 1.971421e-01 1.174872e-01 3.017267e-01 1.804914e-01 1.972677e-01 2.952856e-01 2.986241e-01 3.413817e-01 1.990193e-01 1.135788e-01
<GCONST> 9.923170e+01
<TRANSP> 5
 0.000000e+00 1.000000e+00 0.000000e+00 0.000000e+00 0.000000e+00
 0.000000e+00 8.548462e-01 1.451538e-01 0.000000e+00 0.000000e+00
 0.000000e+00 0.000000e+00 7.996539e-01 2.003461e-01 0.000000e+00
 0.000000e+00 0.000000e+00 0.000000e+00 9.065273e-01 9.347264e-02
 0.000000e+00 0.000000e+00 0.000000e+00 0.000000e+00 0.000000e+00
<ENDHMM>
~h "aa"
<BEGINHMM>
<NUMSTATES> 7
<STATE> 2
<NUMMIXES> 2
<MIXTURE> 1 4.310883e-01
<MEAN> 39
 2.256082e+01 -1.294967e+01 -1.414208e+01 6.910449e+00 1.336299e+01 -9.951397e+00 -2.019033e+01 1.689904e+01 -6.367295e+00 -1.917105e+01 1.632253e+01 6.932462e+00 1.642477e-01 4.888238e-02 -8.752014e-02 -9.729614e-01 -8.095926e-01 -6.376059e-01 -5.997862e-01 4.977548e-01 5.681284e-01 1.056878e+00 8.338737e-01 -3.903257e-01 2.187832e-01 5.264133e-01 -1.567344e-01 8.110072e-02 1.921806e-01 8.631422e-02 -1.041811e-01 1.862421e-01 2.226107e-01 -1.895090e-01 1.335079e-01 2.108009e-01 -3.039983e-01 -1.525780e-01 -2.429287e-02
<VARIANCE> 39
 7.507723e+00 7.909562e+00 2.050899e+01 2.298940e+01 2.154821e+01 1.649453e+01 3.820033e+01 5.466068e+01 2.156112e+01 2.945530e+01 4.051352e+01 1.664660e+01 2.028249e+01 6.314464e-01 3.824683e-01 7.217719e-01 7.087861e-01 5.356067e-01 6.102245e-01 1.444727e+00 2.011513e+00 8.007667e-01 1.070135e+00 1.740949e+00 8.900713e-01 5.730456e-01 1.033487e-01 7.026526e-02 1.066712e-01 9.257899e-02 8.468824e-02 1.133777e-01 1.958431e-01 2.576598e-01 1.057153e-01 1.936656e-01 2.156680e-01 1.185704e-01 8.501055e-02
<GCONST> 8.180093e+01
<MIXTURE> 2 5.689133e-01
<MEAN> 39
 1.701267e+01 -7.022961e+00 -9.184938e+00 5.409559e+00 4.219014e+00 -7.795403e+00 -1.055664e+01 1.605307e+01 -1.407845e+00 -1.258871e+01 7.690391e+00 2.545100e+00 4.575370e-01 1.546990e+00 -8.090215e-01 -2.116620e+00 -3.703904e-01 8.691865e-02 -2.215695e+00 -1.106407e+00 1.570216e+00 1.982881e-01 -1.050082e+00 8.441546e-01 7.287115e-01 -1.773241e-01 -4.906967e-01 -7.300936e-02 2.280376e-01 -9.343166e-02 -1.449418e-02 4.367366e-01 2.924846e-01 -1.101353e-01 2.217299e-01 3.934124e-01 -1.730262e-01 -1.238278e-01 1.252641e-01
<VARIANCE> 39
 1.327901e+02 3.450021e+01 4.181032e+01 4.404720e+01 7.620641e+01 9.206523e+01 6.778685e+01 9.333664e+01 1.002929e+02 6.841134e+01 7.788389e+01 2.150381e+01 2.141586e+01 3.234773e+00 1.614380e+00 3.013798e+00 2.274534e+00 2.668998e+00 3.927390e+00 2.991578e+00 3.639129e+00 2.296975e+00 2.843061e+00 2.581697e+00 1.636360e+00 1.289455e+00 4.002455e-01 3.034752e-01 4.636847e-01 4.234269e-01 3.804687e-01 4.709004e-01 3.985971e-01 5.738221e-01 3.870479e-01 4.709395e-01 4.348934e-01 2.404824e-01 2.042440e-01
<GCONST> 1.239626e+02
<STATE> 3
<NUMMIXES> 2
<MIXTURE> 1 3.561460e-02
<MEAN> 39
 2.201680e+01 -7.287411e+00 -1.251272e+01 6.412236e+00 -6.116586e+00 -2.348478e+01 -2.641770e+00 3.114621e+01 1.033506e+01 -1.465129e+01 -1.366569e+00 5.815260e+00 -3.389647e+00 -2.247186e-02 -6.874360e-01 -4.055935e-01 3.930673e-02 1.276642e-01 3.183781e-01 4.597791e-01 4.148621e-03 -1.748143e-01 1.063801e-01 -9.045945e-02 -3.557143e-01 2.072605e-01 7.334984e-02 2.415522e-02 2.664191e-02 9.251712e-02 1.156033e-01 2.444833e-02 -1.291185e-01 -1.377615e-02 -1.174199e-01 -6.360198e-02 1.088307e-01 -5.568884e-02 -5.950486e-02
<VARIANCE> 39
 1.011192e+01 1.011449e+01 7.748159e+00 5.392982e+00 5.423625e+00 9.723922e+00 1.441807e+01 1.145166e+01 8.647725e+00 7.539935e+00 8.994599e+00 6.758995e+00 2.971987e+00 7.526456e-01 3.206644e-01 3.700337e-01 4.056916e-01 2.709727e-01 2.856671e-01 3.359496e-01 6.507448e-01 2.858049e-01 3.115470e-01 5.254378e-01 2.944373e-01 1.628127e-01 1.206872e-01 3.956220e-02 5.736418e-02 6.771892e-02 5.419795e-02 6.033536e-02 6.198547e-02 1.127281e-01 4.767451e-02 6.487469e-02 9.098182e-02 5.194183e-02 3.180327e-02
<GCONST> 4.882336e+01
<MIXTURE> 2 9.643853e-01
<MEAN> 39
 2.207656e+01 -1.073800e+01 -1.649054e+01 3.251501e+00 6.414141e+00 -1.274048e+01 -1.423291e+01 2.148880e+01 3.660966e+00 -1.304079e+01 7.937719e+00 3.967021e+00 1.716513e+00 -1.160328e-01 -1.253048e-01 -3.518252e-01 -1.577839e-01 -4.483848e-01 -3.730454e-01 4.670055e-01 3.331532e-01 8.057472e-01 5.683716e-01 -5.453686e-01 -1.139667e-01 4.459259e-02 -5.826922e-02 7.011473e-02 1.457812e-01 6.480607e-02 1.769633e-02 1.297233e-01 6.910652e-02 -1.010270e-01 -1.029640e-01 -7.719271e-03 -1.762440e-02 -4.396706e-02 -2.344730e-02
<VARIANCE> 39
 1.188817e+01 1.482067e+01 2.699697e+01 2.100532e+01 3.516026e+01 4.773664e+01 4.049361e+01 7.298932e+01 5.214772e+01 3.753830e+01 6.180107e+01 2.237871e+01 1.881158e+01 9.223291e-01 6.778231e-01 8.988468e-01 7.670102e-01 8.480353e-01 8.780500e-01 1.575672e+00 2.438227e+00 1.028435e+00 1.374904e+00 2.032471e+00 9.500552e-01 6.185759e-01 1.726317e-01 1.020857e-01 1.580862e-01 1.300911e-01 1.332848e-01 1.680264e-01 2.511073e-01 3.838980e-01 1.457733e-01 2.301020e-01 3.066608e-01 1.563485e-01 1.067572e-01
<GCONST> 9.435519e+01
<STATE> 4
<NUMMIXES> 2
<MIXTURE> 1 2.178449e-01
<MEAN> 39
 1.488840e+01 -4.809698e+00 -1.218356e+01 9.709810e-01 -3.912266e+00 -8.111088e+00 2.053437e-01 2.077251e+01 9.702687e+00 -5.321677e-01 5.413127e+00 5.426003e+00 6.612310e+00 -1.509265e-01 1.903692e-01 1.318041e-01 -8.105177e-02 -2.386844e-02 3.121206e-01 4.602149e-01 1.774621e-01 4.130354e-02 1.407044e-01 9.477820e-03 -9.586021e-02 -5.580121e-02 1.306060e-01 -1.034931e-01 -6.504849e-02 3.600562e-02 1.365578e-01 -5.713084e-03 -1.569026e-01 6.375961e-02 -1.288517e-01 -1.625213e-01 1.370983e-01 -2.092122e-02 -7.350722e-02
<VARIANCE> 39
 3.723524e+01 5.159898e+01 2.936980e+01 3.426744e+01 6.450005e+01 6.734283e+01 1.091495e+02 6.852406e+01 3.828994e+01 4.751446e+01 4.857353e+01 5.023869e+01 2.774375e+01 1.208805e+00 1.166634e+00 1.510229e+00 1.377398e+00 1.853981e+00 1.867677e+00 2.913999e+00 2.048948e+00 1.471637e+00 1.851143e+00 1.680677e+00 1.288839e+00 1.061343e+00 1.807610e-01 1.448454e-01 2.000297e-01 2.067121e-01 2.252621e-01 2.653139e-01 3.318631e-01 3.946919e-01 2.438524e-01 2.849532e-01 3.075267e-01 2.382995e-01 1.687917e-01
<GCONST> 1.092798e+02
<MIXTURE> 2 7.821565e-01
<MEAN> 39
 2.284945e+01 -1.162431e+01 -1.870851e+01 4.485423e+00 5.706840e-01 -1.843261e+01 -9.066415e+00 2.433810e+01 1.028126e+01 -9.402902e+00 1.149590e+00 2.011208e+00 4.242216e-01 -9.632636e-03 -1.159335e-01 -4.309952e-02 -3.851897e-02 -3.824636e-02 8.522545e-02 1.665202e-01 4.492301e-03 -7.918571e-02 7.377034e-02 5.687767e-02 -7.521725e-02 -2.692840e-03 1.470928e-03 3.998493e-02 7.439235e-02 3.442986e-03 4.189144e-02 5.292770e-02 -5.336787e-02 9.043244e-03 -1.116445e-01 -6.386159e-02 1.110893e-01 -1.666255e-02 -9.715889e-03
<VARIANCE> 39
 1.070637e+01 1.037686e+01 1.400278e+01 1.023440e+01 2.037442e+01 2.852497e+01 2.279151e+01 3.143681e+01 2.932506e+01 1.828566e+01 2.760043e+01 9.626354e+00 1.068132e+01 9.363596e-01 4.739923e-01 5.101170e-01 4.882688e-01 4.487990e-01 4.996281e-01 6.576430e-01 1.115640e+00 6.884287e-01 6.073920e-01 1.079673e+00 4.324331e-01 3.013521e-01 1.366288e-01 6.128138e-02 6.998187e-02 7.449470e-02 5.314905e-02 6.036567e-02 9.493474e-02 1.473639e-01 6.386764e-02 9.084748e-02 1.417971e-01 6.127257e-02 4.485530e-02
<GCONST> 6.863699e+01
<STATE> 5
<NUMMIXES> 2
<MIXTURE> 1 5.326996e-01
<MEAN> 39
 2.401028e+01 -1.364178e+01 -1.790745e+01 3.799147e+00 6.374010e+00 -1.335746e+01 -1.258327e+01 2.380805e+01 3.466583e-01 -1.333827e+01 1.145899e+01 1.991378e+00 1.669287e-01 -2.904152e-02 6.229394e-02 2.953288e-01 -3.877452e-02 4.109147e-01 4.409413e-01 -3.339726e-01 -3.247311e-01 -7.409062e-01 -1.780558e-01 6.779364e-01 2.062502e-02 4.098387e-02 -2.035186e-01 1.761533e-01 1.417065e-01 -2.052419e-02 -5.640528e-02 1.121906e-01 1.090194e-01 -3.291819e-01 6.865974e-02 1.496624e-01 -2.264036e-01 7.748594e-02 5.513793e-02
<VARIANCE> 39
 5.510430e+00 7.882155e+00 1.619649e+01 1.305506e+01 2.924400e+01 2.135308e+01 3.069615e+01 5.136479e+01 4.255442e+01 2.718697e+01 4.478093e+01 2.281010e+01 1.479197e+01 9.429719e-01 4.933423e-01 5.723814e-01 5.748901e-01 6.876415e-01 5.688674e-01 1.096811e+00 2.146720e+00 9.272316e-01 9.214486e-01 1.858711e+00 8.220891e-01 4.245428e-01 8.049708e-02 5.238384e-02 7.652736e-02 7.635462e-02 5.822005e-02 6.571567e-02 1.096445e-01 1.602831e-01 8.158002e-02 9.470457e-02 1.586139e-01 9.063668e-02 5.584966e-02
<GCONST> 7.652092e+01
<MIXTURE> 2 4.672987e-01
<MEAN> 39
 2.008561e+01 -1.137108e+01 -1.419891e+01 3.172214e+00 9.038620e+00 -1.085316e+01 -1.545732e+01 2.037520e+01 -2.117099e-01 -1.317799e+01 1.123033e+01 3.932074e+00 2.246733e+00 3.564602e-02 -5.381655e-02 3.594227e-01 2.302682e-01 7.540831e-01 4.306562e-01 -6.435180e-01 -2.641748e-01 -1.073032e+00 -4.085631e-01 1.061655e+00 -8.210675e-02 -2.537999e-01 1.332840e-01 -4.507635e-02 -2.499643e-02 7.636552e-02 6.423885e-02 -1.618172e-02 -8.676475e-02 1.128484e-01 -8.483062e-02 -1.157893e-01 1.411402e-01 -6.764786e-02 -1.006491e-01
<VARIANCE> 39
 1.214865e+01 1.231642e+01 2.471434e+01 2.835971e+01 5.173052e+01 3.103169e+01 6.896813e+01 8.409962e+01 7.411514e+01 4.489612e+01 8.834374e+01 3.346279e+01 2.398226e+01 7.249386e-01 4.634155e-01 8.425938e-01 9.569808e-01 1.059133e+00 9.784477e-01 1.852944e+00 2.954147e+00 1.261610e+00 1.421971e+00 2.148078e+00 1.138808e+00 8.148065e-01 1.546501e-01 8.051621e-02 1.251511e-01 1.333925e-01 1.652876e-01 1.628875e-01 3.270215e-01 5.017924e-01 2.105985e-01 2.644946e-01 3.989617e-01 1.965671e-01 1.137311e-01
<GCONST> 9.875920e+01
<STATE> 6
<NUMMIXES> 2
<MIXTURE> 1 4.959404e-01
<MEAN> 39
 2.179625e+01 -8.820826e+00 -1.166596e+01 3.057996e+00 3.809939e+00 -1.046250e+01 -9.349126e+00 2.249692e+01 -1.436851e+00 -1.391629e+01 1.079907e+01 7.395343e-01 -1.760096e+00 -2.221560e-01 6.807270e-01 5.294557e-01 2.404632e-01 8.629979e-02 5.890509e-01 2.623130e-01 -8.087196e-01 -2.946194e-01 9.864394e-02 -1.839902e-01 4.058876e-02 -1.349850e-01 -9.986051e-02 1.194116e-01 5.916861e-02 4.666158e-02 1.565209e-02 1.007557e-01 9.695067e-02 -1.106304e-01 1.203905e-01 1.075591e-01 -1.988979e-01 1.930785e-02 4.430250e-02
<VARIANCE> 39
 6.873789e+00 1.951789e+01 2.560773e+01 2.864424e+01 5.986065e+01 5.494949e+01 6.572882e+01 7.914179e+01 8.572189e+01 4.883023e+01 8.706354e+01 2.822067e+01 2.730904e+01 6.316658e-01 7.077619e-01 7.137263e-01 7.900793e-01 8.632902e-01 1.094170e+00 1.502952e+00 2.062859e+00 9.722118e-01 1.054233e+00 1.838250e+00 8.249406e-01 5.650469e-01 9.759031e-02 7.352599e-02 1.062606e-01 1.111589e-01 9.762388e-02 1.350358e-01 1.854224e-01 2.469712e-01 1.408341e-01 1.690388e-01 2.510882e-01 1.274876e-01 8.457587e-02
<GCONST> 9.241165e+01
<MIXTURE> 2 5.040572e-01
<MEAN> 39
 4.130996e-01 -2.827384e-01 -4.734866e+00 2.023758e+00 3.068707e+00 2.857126e+00 -6.893355e-02 1.126646e+01 3.223273e-01 -4.363592e+00 4.344633e+00 2.826853e+00 3.358006e+00 -1.549273e+00 7.382808e-01 1.013839e+00 4.602773e-02 7.060640e-03 1.023086e+00 5.439177e-01 -7.635719e-01 2.353921e-01 5.151460e-01 -8.177286e-01 -5.172502e-02 3.069113e-01 -7.442793e-02 -8.724412e-02 3.849057e-02 -1.867415e-02 -2.706737e-02 -2.448144e-02 -8.784497e-03 6.177565e-02 -1.241296e-02 -7.735509e-03 4.098418e-02 -4.331188e-03 7.644284e-03
<VARIANCE> 39
 3.113640e+02 5.328773e+01 5.845810e+01 4.701805e+01 6.227989e+01 1.002032e+02 9.349618e+01 8.763926e+01 6.914266e+01 5.503291e+01 5.572851e+01 3.611972e+01 3.322874e+01 2.529925e+00 2.521238e+00 2.150594e+00 1.491165e+00 1.796757e+00 3.483290e+00 3.162020e+00 2.917788e+00 2.345286e+00 2.192664e+00 2.912584e+00 1.535684e+00 1.440293e+00 2.043918e-01 1.830921e-01 2.276337e-01 1.818552e-01 2.342873e-01 3.267456e-01 3.616084e-01 3.455168e-01 3.551767e-01 3.187864e-01 3.724860e-01 2.167809e-01 2.115355e-01
<GCONST> 1.196243e+02
<TRANSP> 7
 0.000000e+00 1.000000e+00 0.000000e+00 0.000000e+00 0.000000e+00 0.000000e+00 0.000000e+00
 0.000000e+00 8.176350e-01 1.823650e-01 0.000000e+00 0.000000e+00 0.000000e+00 0.000000e+00
 0.000000e+00 0.000000e+00 7.976776e-01 2.023223e-01 0.000000e+00 0.000000e+00 0.000000e+00
 0.000000e+00 0.000000e+00 0.000000e+00 8.811360e-01 1.188641e-01 0.000000e+00 0.000000e+00
 0.000000e+00 0.000000e+00 0.000000e+00 0.000000e+00 8.552012e-01 1.447988e-01 0.000000e+00
 0.000000e+00 0.000000e+00 0.000000e+00 0.000000e+00 0.000000e+00 8.492740e-01 1.507260e-01
 0.000000e+00 0.000000e+00 0.000000e+00 0.000000e+00 0.000000e+00 0.000000e+00 0.000000e+00
<ENDHMM>
~h "ax"
<BEGINHMM>
<NUMSTATES> 7
<STATE> 2
<NUMMIXES> 2
<MIXTURE> 1 4.205609e-01
<MEAN> 39
 -8.385473e+00 -3.799070e+00 2.465962e+00 2.584203e+00 -3.242665e+00 2.226480e+00 1.975773e+00 1.499564e+01 4.256527e+00 -2.780048e+00 1.666442e+00 2.552664e+00 6.678937e+00 3.953866e+00 5.094223e-01 1.019792e-01 -2.949845e-01 -1.658196e+00 -1.489673e+00 3.425795e-01 2.368457e+00 2.318033e-01 -1.467061e+00 9.907655e-02 -6.379043e-01 -3.792471e-01 1.918035e-01 -2.218335e-01 -2.789801e-01 -6.064979e-01 -7.239997e-01 -5.722912e-01 -3.476974e-01 2.557087e-02 -2.923798e-01 -3.507432e-01 1.411167e-01 -4.966647e-01 -6.264585e-01
<VARIANCE> 39
 6.771284e+01 1.006507e+02 3.749304e+01 1.952467e+01 4.200549e+01 3.611161e+01 4.867879e+01 3.736358e+01 2.410327e+01 3.779425e+01 2.114565e+01 1.985736e+01 1.552810e+01 1.753885e+00 3.064417e+00 2.384966e+00 5.356423e+00 6.308223e+00 4.601857e+00 2.678509e+00 3.186888e+00 3.157619e+00 2.730746e+00 2.246536e+00 3.422665e+00 4.706015e+00 1.706575e-01 3.538407e-01 3.021534e-01 5.517156e-01 7.409003e-01 5.770548e-01 4.048477e-01 4.653921e-01 4.235383e-01 3.809593e-01 3.352298e-01 4.126518e-01 5.735542e-01
<GCONST> 1.215368e+02
<MIXTURE> 2 5.794395e-01
<MEAN> 39
 1.300375e+01 -4.014223e-01 3.374196e-01 2.239283e-01 -1.182690e+01 -1.098564e+01 -2.518234e+00 2.356833e+01 5.006760e+00 -9.611255e+00 3.276586e+00 -3.370026e+00 -8.694656e-01 2.503792e+00 -9.541076e-02 -4.488194e-01 1.839727e+00 8.567476e-01 -2.387702e+00 -1.731909e+00 7.716741e-02 6.832477e-01 -3.276792e-01 -5.063054e-01 8.888443e-02 -7.091160e-01 -3.754136e-01 -2.187223e-01 -2.795848e-01 4.349970e-01 6.491679e-01 -2.182769e-02 -3.074123e-01 -3.760812e-01 1.157433e-01 2.324971e-01 -5.381768e-02 4.339372e-01 1.545627e-01
<VARIANCE> 39
 3.572414e+01 1.672022e+01 1.533762e+01 7.981184e+01 7.940457e+01 1.238167e+02 9.638723e+01 5.752969e+01 4.598785e+01 5.911253e+01 3.130746e+01 4.544012e+01 1.647432e+01 1.876555e+00 9.144819e-01 2.134779e+00 7.304532e+00 8.855681e+00 5.904495e+00 3.404589e+00 8.004794e+00 2.978435e+00 5.486085e+00 2.828598e+00 2.941057e+00 1.518052e+00 3.357025e-01 1.824659e-01 3.045276e-01 1.575623e+00 1.447449e+00 8.828241e-01 4.515550e-01 1.447989e+00 5.585413e-01 1.117450e+00 6.469416e-01 3.486726e-01 3.122105e-01
<GCONST> 1.300106e+02
<STATE> 3
<NUMMIXES> 2
<MIXTURE> 1 9.357368e-01
<MEAN> 39
 2.272287e+01 -4.820997e+00 -7.992730e+00 1.000465e+01 -6.900879e-01 -2.146155e+01 -1.471379e+01 2.256167e+01 8.470160e+00 -1.240790e+01 1.284157e+00 6.624705e-01 -3.635501e+00 8.034671e-01 -6.827431e-01 -1.676524e+00 -2.653117e-02 4.830680e-01 -1.871758e+00 -1.414567e+00 6.717043e-01 1.072516e+00 -4.478216e-02 3.238031e-01 8.605154e-01 -5.407830e-01 -4.551274e-01 1.022703e-01 2.710002e-01 -4.172170e-01 -2.716040e-01 5.585860e-01 4.850827e-01 -1.069994e-01 7.816923e-02 3.139163e-01 -7.639699e-02 -1.379107e-01 2.082893e-01
<VARIANCE> 39
 9.189343e+00 1.396882e+01 2.585324e+01 8.477086e+00 2.930378e+01 5.630770e+01 3.730522e+01 2.399757e+01 3.177768e+01 2.760130e+01 2.540344e+01 1.328392e+01 1.467238e+01 1.223626e+00 5.180741e-01 1.086190e+00 9.045853e-01 1.408584e+00 2.172161e+00 1.932979e+00 2.025893e+00 6.919856e-01 1.844877e+00 1.309105e+00 1.066726e+00 7.351640e-01 1.880127e-01 8.989868e-02 1.589084e-01 2.821780e-01 2.493670e-01 2.725224e-01 2.787800e-01 4.756371e-01 1.535386e-01 3.009862e-01 2.835628e-01 1.890935e-01 1.426864e-01
<GCONST> 9.385031e+01
<MIXTURE> 2 6.426301e-02
<MEAN> 39
 2.215733e+01 -9.141088e+00 -1.282445e+01 7.482558e+00 7.414017e+00 -1.754242e+01 -1.832494e+01 1.934500e+01 -3.350346e+00 -2.310826e+01 6.778429e+00 6.160671e+00 -2.108151e+00 2.311927e-01 4.324783e-01 -9.213035e-01 -1.997621e-01 -1.337765e+00 -1.235191e+00 9.989591e-01 3.433064e-01 1.910246e+00 1.533537e+00 -1.425470e+00 2.437760e-01 1.987241e-01 5.347846e-02 4.517724e-02 4.783149e-02 1.121280e-02 5.000038e-02 2.338756e-02 -2.324043e-01 1.149039e-01 1.959429e-02 -1.839264e-02 2.035197e-01 -9.368747e-02 -1.337785e-01
<VARIANCE> 39
 8.283577e+00 3.212866e+00 1.211994e+01 2.105057e+00 2.023625e+01 1.586350e+01 7.459919e+00 2.250550e+01 4.323703e+01 1.793396e+01 2.043502e+01 5.145599e+00 3.155543e+00 3.229047e-01 4.816978e-02 2.081512e-01 5.303750e-02 5.397143e-01 2.165408e-01 8.055548e-01 1.179808e+00 2.378828e-01 4.879985e-01 6.565441e-01 3.080581e-01 4.654304e-01 3.068700e-02 1.633799e-02 3.839169e-02 1.207378e-02 8.845758e-02 3.326362e-02 3.997643e-02 1.005402e-01 6.338526e-02 2.111633e-02 9.687798e-02 2.738131e-02 3.988682e-02
<GCONST> 4.377676e+01
<STATE> 4
<NUMMIXES> 2
<MIXTURE> 1 9.050307e-01
<MEAN> 39
 2.266335e+01 -6.406919e+00 -1.293301e+01 7.946364e+00 -1.565699e+00 -2.837548e+01 -2.007781e+01 2.124122e+01 1.563073e+01 -7.432859e+00 -9.330439e-01 3.132610e+00 -1.388374e+00 -2.282902e-02 -1.140903e-01 -2.490781e-01 -2.401671e-01 2.498376e-02 9.686191e-02 3.552455e-02 -2.013467e-02 3.497401e-01 3.462926e-01 -1.047901e-01 -9.887623e-02 5.147938e-02 -1.351344e-02 5.667726e-02 6.339477e-02 1.199534e-04 2.919372e-02 1.670223e-01 7.839171e-02 -1.368329e-03 -1.191638e-01 -7.444172e-02 8.291928e-03 -6.000799e-02 -1.144001e-03
<VARIANCE> 39
 9.745748e+00 7.197847e+00 1.630708e+01 8.885578e+00 1.006867e+01 1.849478e+01 1.948247e+01 1.677880e+01 1.461312e+01 1.481431e+01 1.820584e+01 5.962452e+00 7.728429e+00 1.022865e+00 3.289554e-01 5.156822e-01 5.426742e-01 6.119602e-01 9.588659e-01 8.218259e-01 1.355308e+00 7.383502e-01 1.069554e+00 8.673660e-01 4.174829e-01 4.155469e-01 1.490727e-01 4.528200e-02 7.140747e-02 6.406667e-02 6.384221e-02 5.837547e-02 1.054486e-01 1.649676e-01 4.889894e-02 1.240362e-01 1.173657e-01 4.402584e-02 4.913602e-02
<GCONST> 6.569907e+01
<MIXTURE> 2 9.496909e-02
<MEAN> 39
 2.286433e+01 -6.598986e+00 -1.179847e+01 7.693071e+00 -4.364923e-01 -2.267059e+01 -1.280125e+01 2.108259e+01 9.472759e+00 -9.036271e+00 4.106610e+00 4.907917e+00 -6.388476e+00 -3.717910e-02 -7.469521e-02 -9.574428e-01 -7.173349e-01 -1.571259e-02 -8.548971e-01 -5.311134e-01 1.907726e-01 1.237793e+00 5.923541e-01 -2.927232e-01 5.655470e-01 2.284019e-01 6.263044e-02 -2.933711e-02 1.701838e-01 -2.696541e-02 -3.798679e-02 3.060600e-01 5.015031e-02 2.487401e-01 -2.334323e-01 -2.024416e-01 1.470674e-01 -4.177049e-01 7.463337e-02
<VARIANCE> 39
 7.398206e+00 2.920546e+00 8.637377e+00 1.976390e+00 6.936092e+00 1.410791e+01 1.061398e+01 9.512337e+00 9.881485e+00 6.854680e+00 5.638946e+00 1.217726e+00 1.163376e+00 3.723605e-01 3.246891e-01 1.152003e-01 1.269083e-01 2.413029e-01 3.166360e-01 3.263900e-01 8.409033e-01 2.946385e-01 2.891377e-01 4.655353e-01 5.112060e-01 2.110540e-01 4.793394e-02 3.471132e-02 4.443651e-02 1.933512e-02 2.823748e-02 7.371680e-02 4.612816e-02 7.983641e-02 1.984995e-02 6.462660e-02 6.882332e-02 5.915019e-02 4.595478e-02
<GCONST> 3.694305e+01
<STATE> 5
<NUMMIXES> 2
<MIXTURE> 1 7.449475e-01
<MEAN> 39
 2.437658e+01 -5.151644e+00 -1.374371e+01 5.177139e+00 -4.087062e-01 -2.229796e+01 -1.500050e+01 2.515075e+01 1.282650e+01 -9.617854e+00 4.954950e+00 5.421890e+00 -6.142159e+00 -9.154606e-02 3.934200e-01 3.124735e-01 2.664229e-02 -5.657210e-02 1.315836e-01 1.705553e-01 -1.652403e-01 -1.831370e-01 1.480001e-02 8.006360e-02 2.075866e-01 -3.851737e-02 -1.866435e-01 9.761999e-02 1.895391e-01 4.582691e-02 -8.188870e-03 1.186825e-01 1.596701e-01 -2.514972e-01 -6.856876e-02 1.245617e-01 -1.505729e-01 -4.931148e-02 2.437258e-02
<VARIANCE> 39
 8.049365e+00 1.231360e+01 2.239652e+01 9.384868e+00 1.170320e+01 1.368396e+01 1.594254e+01 2.099264e+01 1.349008e+01 1.844614e+01 2.176817e+01 1.962362e+01 1.376092e+01 9.631259e-01 3.613564e-01 8.086925e-01 7.360176e-01 6.131915e-01 7.893450e-01 8.220685e-01 1.721199e+00 7.533412e-01 1.034997e+00 1.106399e+00 6.757209e-01 3.496682e-01 9.385474e-02 4.384118e-02 7.404920e-02 8.012453e-02 9.316245e-02 1.110707e-01 9.715270e-02 1.664568e-01 6.990169e-02 1.176416e-01 1.391371e-01 1.098484e-01 5.455555e-02
<GCONST> 7.195712e+01
<MIXTURE> 2 2.550522e-01
<MEAN> 39
 2.032239e+01 -4.597302e+00 -1.272644e+01 2.766902e+00 -2.728419e+00 -2.100639e+01 -1.095896e+01 2.065327e+01 1.330628e+01 -6.283277e+00 1.641813e+00 5.820985e+00 -5.280342e+00 1.833483e-01 3.460215e-01 9.574714e-02 -1.753861e-01 -8.285651e-02 8.524131e-02 -4.481266e-02 2.134942e-01 -2.130145e-01 -2.810295e-01 3.514482e-01 3.848670e-01 -1.981653e-01 4.048538e-01 -8.181310e-02 -1.295193e-01 2.239644e-01 2.443761e-01 -9.531368e-02 -3.250848e-01 4.433586e-01 -1.151410e-01 -3.914813e-01 3.470546e-01 3.545510e-02 -1.350455e-01
<VARIANCE> 39
 6.418502e+00 3.694788e+00 8.845493e+00 6.648890e+00 7.040303e+00 6.873711e+00 7.564115e+00 1.147592e+01 5.743090e+00 1.112387e+01 9.143525e+00 7.463572e+00 3.170735e+00 7.756472e-01 2.913045e-01 6.920767e-01 4.806788e-01 4.970098e-01 4.795784e-01 7.402211e-01 1.084743e+00 4.672834e-01 7.514762e-01 8.164792e-01 3.560054e-01 2.382842e-01 9.000237e-02 4.186167e-02 6.042179e-02 7.315052e-02 4.372726e-02 5.001727e-02 6.937876e-02 9.175371e-02 5.101643e-02 6.288417e-02 7.391256e-02 6.242630e-02 3.476104e-02
<GCONST> 5.217204e+01
<STATE> 6
<NUMMIXES> 2
<MIXTURE> 1 6.011695e-01
<MEAN> 39
 1.862399e+01 -3.649084e-01 -3.503708e+00 9.579470e+00 -2.819434e+00 -2.348863e+01 -1.422584e+01 2.418569e+01 1.173835e+01 -1.016328e+01 -3.559565e-01 2.085841e+00 5.248412e-02 -5.530013e-01 5.252756e-01 5.954227e-01 -1.481735e-01 2.826580e-01 1.468977e+00 8.638803e-01 -5.151691e-01 -4.029883e-01 2.198003e-01 -1.686983e-01 -2.499155e-01 6.222840e-02 -8.915353e-02 -8.489259e-03 6.018735e-02 -7.875226e-03 -9.675683e-03 1.417023e-01 1.218017e-01 -3.622538e-02 -6.902867e-02 -1.281659e-02 1.909519e-02 6.247179e-03 -3.394137e-02
<VARIANCE> 39
 3.563914e+01 3.773450e+01 6.754687e+01 3.372087e+01 8.231252e+01 2.323977e+02 5.680149e+01 9.586897e+01 7.144057e+01 6.391789e+01 3.164356e+01 2.324175e+01 1.999445e+01 2.241113e+00 1.983131e+00 1.511852e+00 1.160773e+00 1.209357e+00 2.808352e+00 1.416406e+00 2.771825e+00 1.873381e+00 2.308584e+00 1.932320e+00 7.792225e-01 7.040089e-01 2.935043e-01 2.791342e-01 1.600663e-01 1.290198e-01 1.651799e-01 2.919129e-01 2.006973e-01 3.983839e-01 1.659420e-01 2.401836e-01 2.706589e-01 1.425143e-01 1.210338e-01
<GCONST> 1.087336e+02
<MIXTURE> 2 3.988305e-01
<MEAN> 39
 1.916442e+01 2.600921e+00 -7.162131e-01 1.396843e+01 3.821325e+00 -1.548293e+01 -8.866995e+00 2.183883e+01 3.927848e+00 -1.351887e+01 3.641622e+00 3.330600e+00 -9.214620e+00 -7.099336e-01 3.502192e-01 1.184157e+00 1.800084e+00 1.538335e+00 1.305233e+00 7.866995e-01 -2.264887e-01 -7.638507e-01 -2.896392e-01 -5.997483e-01 -1.051760e+00 -6.089309e-01 1.743416e-02 -8.290588e-02 -9.711678e-02 -2.920700e-02 -4.176617e-02 -1.034299e-01 -6.479482e-02 1.089482e-01 1.291001e-01 9.894550e-03 -2.108444e-02 -1.821250e-02 2.773255e-02
<VARIANCE> 39
 9.356989e+00 1.885982e+01 3.347616e+01 4.758315e+01 3.260956e+01 2.988443e+01 2.088596e+01 3.482482e+01 3.321037e+01 4.746985e+01 5.508809e+01 3.221071e+01 1.949452e+01 3.484962e-01 4.778910e-01 9.436443e-01 1.230712e+00 1.007653e+00 1.400360e+00 1.073239e+00 2.115730e+00 9.942745e-01 1.765719e+00 1.448765e+00 1.125726e+00 5.884439e-01 6.254459e-02 6.511294e-02 9.953029e-02 2.055749e-01 1.759009e-01 2.575223e-01 1.490356e-01 3.868138e-01 1.606312e-01 3.320114e-01 2.287943e-01 2.195085e-01 1.039580e-01
<GCONST> 9.202563e+01
<TRANSP> 7
 0.000000e+00 1.000000e+00 0.000000e+00 0.000000e+00 0.000000e+00 0.000000e+00 0.000000e+00
 0.000000e+00 8.799049e-01 1.200951e-01 0.000000e+00 0.000000e+00 0.000000e+00 0.000000e+00
 0.000000e+00 0.000000e+00 7.721646e-01 2.278355e-01 0.000000e+00 0.000000e+00 0.000000e+00
 0.000000e+00 0.000000e+00 0.000000e+00 8.463829e-01 1.536172e-01 0.000000e+00 0.000000e+00
 0.000000e+00 0.000000e+00 0.000000e+00 0.000000e+00 9.021149e-01 9.788507e-02 0.000000e+00
 0.000000e+00 0.000000e+00 0.000000e+00 0.000000e+00 0.000000e+00 8.831659e-01 1.168341e-01
 0.000000e+00 0.000000e+00 0.000000e+00 0.000000e+00 0.000000e+00 0.000000e+00 0.000000e+00
<ENDHMM>
~h "bh"
<BEGINHMM>
<NUMSTATES> 5
<STATE> 2
<NUMMIXES> 2
<MIXTURE> 1 5.000000e-01
<MEAN> 39
 5.804907e+00 1.580696e+01 1.320507e+01 1.673388e+01 1.304778e+01 1.033392e+01 4.251976e+00 1.116981e+01 1.060674e+00 -6.740692e+00 -5.454542e+00 -4.527237e+00 -3.348272e+00 -2.585890e-01 -1.132554e-01 1.256384e-01 1.859126e-01 3.641907e-01 6.541005e-01 3.180366e-01 -1.783579e-01 -1.996671e-01 2.704813e-01 3.714651e-01 -1.508713e-02 1.535335e-02 1.429404e-01 -3.508936e-01 -3.495453e-01 -7.236743e-02 4.698786e-02 -1.056860e-01 -1.696012e-01 4.591204e-02 -3.288140e-02 -1.583075e-01 9.235990e-02 9.777009e-02 7.376028e-02
<VARIANCE> 39
 2.298177e+01 4.560089e+01 1.939968e+01 1.066664e+01 1.377264e+01 3.532116e+01 1.355378e+01 1.744150e+01 1.275854e+01 3.291788e+01 3.062179e+01 1.784288e+01 1.484612e+01 6.934009e-01 3.516491e+00 3.150480e+00 8.154791e-01 9.894194e-01 1.536521e+00 1.068402e+00 1.409087e+00 1.013900e+00 1.623853e+00 1.221324e+00 1.086537e+00 1.127367e+00 6.411766e-02 1.838851e-01 2.171605e-01 1.481815e-01 1.527920e-01 1.712407e-01 1.429790e-01 2.009473e-01 1.923868e-01 2.348010e-01 1.794233e-01 1.448639e-01 1.566509e-01
<GCONST> 9.055145e+01
<MIXTURE> 2 5.000000e-01
<MEAN> 39
 5.804907e+00 1.580696e+01 1.320507e+01 1.673388e+01 1.304778e+01 1.033392e+01 4.251976e+00 1.116981e+01 1.060674e+00 -6.740692e+00 -5.454542e+00 -4.527237e+00 -3.348272e+00 -2.585890e-01 -1.132554e-01 1.256384e-01 1.859126e-01 3.641907e-01 6.541005e-01 3.180366e-01 -1.783579e-01 -1.996671e-01 2.704813e-01 3.714651e-01 -1.508713e-02 1.535335e-02 1.429404e-01 -3.508936e-01 -3.495453e-01 -7.236743e-02 4.698786e-02 -1.056860e-01 -1.696012e-01 4.591204e-02 -3.288140e-02 -1.583075e-01 9.235990e-02 9.777009e-02 7.376028e-02
<VARIANCE> 39
 2.298177e+01 4.560089e+01 1.939968e+01 1.066664e+01 1.377264e+01 3.532116e+01 1.355378e+01 1.744150e+01 1.275854e+01 3.291788e+01 3.062179e+01 1.784288e+01 1.484612e+01 6.934009e-01 3.516491e+00 3.150480e+00 8.154791e-01 9.894194e-01 1.536521e+00 1.068402e+00 1.409087e+00 1.013900e+00 1.623853e+00 1.221324e+00 1.086537e+00 1.127367e+00 6.411766e-02 1.838851e-01 2.171605e-01 1.481815e-01 1.527920e-01 1.712407e-01 1.429790e-01 2.009473e-01 1.923868e-01 2.348010e-01 1.794233e-01 1.448639e-01 1.566509e-01
<GCONST> 9.055145e+01
<STATE> 3
<NUMMIXES> 2
<MIXTURE> 1 5.000000e-01
<MEAN> 39
 1.080186e+01 6.661742e-01 2.284477e+00 2.007759e+01 2.345678e+01 1.283742e+01 -4.203612e+00 7.680449e+00 -6.031682e+00 -1.539696e+01 1.437095e+00 -7.916527e-02 -2.385575e+00 9.147682e-01 -1.866128e+00 -7.172719e-01 1.004206e+00 1.601373e+00 -3.071418e-01 -2.480213e+00 -7.455537e-01 -5.318809e-01 -1.022779e+00 1.306863e+00 3.134601e-01 -8.735518e-01 -1.734299e-01 3.343635e-01 5.691310e-01 1.725711e-01 -1.575606e-01 -1.414355e-01 -1.009809e-01 4.199070e-03 3.567083e-01 3.685108e-01 -2.788171e-02 -2.275963e-01 -2.448146e-01
<VARIANCE> 39
 1.609082e+01 4.017178e+01 1.981215e+01 3.298668e+01 5.413280e+01 3.071796e+01 7.077561e+01 2.899279e+01 3.058144e+01 6.286267e+01 3.035793e+01 3.044189e+01 2.661222e+01 1.038783e+00 1.927038e+00 3.831570e+00 3.002403e+00 2.399064e+00 1.978377e+00 2.292446e+00 1.786828e+00 3.388930e+00 5.018846e+00 1.639865e+00 1.811901e+00 2.194680e+00 1.661086e-01 1.962798e-01 2.710678e-01 4.692459e-01 5.144411e-01 2.945168e-01 4.820929e-01 3.716387e-01 5.067788e-01 6.721693e-01 3.325955e-01 2.766819e-01 2.824073e-01
<GCONST> 1.143394e+02
<MIXTURE> 2 5.000000e-01
<MEAN> 39
 1.080186e+01 6.661742e-01 2.284477e+00 2.007759e+01 2.345678e+01 1.283742e+01 -4.203612e+00 7.680449e+00 -6.031682e+00 -1.539696e+01 1.437095e+00 -7.916527e-02 -2.385575e+00 9.147682e-01 -1.866128e+00 -7.172719e-01 1.004206e+00 1.601373e+00 -3.071418e-01 -2.480213e+00 -7.455537e-01 -5.318809e-01 -1.022779e+00 1.306863e+00 3.134601e-01 -8.735518e-01 -1.734299e-01 3.343635e-01 5.691310e-01 1.725711e-01 -1.575606e-01 -1.414355e-01 -1.009809e-01 4.199070e-03 3.567083e-01 3.685108e-01 -2.788171e-02 -2.275963e-01 -2.448146e-01
<VARIANCE> 39
 1.609082e+01 4.017178e+01 1.981215e+01 3.298668e+01 5.413280e+01 3.071796e+01 7.077561e+01 2.899279e+01 3.058144e+01 6.286267e+01 3.035793e+01 3.044189e+01 2.661222e+01 1.038783e+00 1.927038e+00 3.831570e+00 3.002403e+00 2.399064e+00 1.978377e+00 2.292446e+00 1.786828e+00 3.388930e+00 5.018846e+00 1.639865e+00 1.811901e+00 2.194680e+00 1.661086e-01 1.962798e-01 2.710678e-01 4.692459e-01 5.144411e-01 2.945168e-01 4.820929e-01 3.716387e-01 5.067788e-01 6.721693e-01 3.325955e-01 2.766819e-01 2.824073e-01
<GCONST> 1.143394e+02
<STATE> 4
<NUMMIXES> 2
<MIXTURE> 1 5.000000e-01
<MEAN> 39
 1.006598e+01 -5.618103e+00 1.193624e+01 3.015921e+01 2.623870e+01 9.288247e+00 -1.694608e+01 5.131676e+00 7.630972e-01 -1.311289e+01 5.814233e+00 -3.917587e+00 -1.122313e+01 -2.958344e-02 -3.475974e-01 7.459266e-01 1.948627e-01 -5.661822e-01 -6.393475e-01 -7.842041e-01 3.247974e-02 6.094709e-01 -7.322390e-02 -6.026177e-02 -1.437846e-01 -3.797734e-01 9.360369e-02 -2.111044e-02 -1.913808e-01 -1.276377e-01 4.877594e-03 -4.523420e-02 4.685883e-04 1.908742e-02 -1.245447e-01 -1.702552e-01 -6.992216e-02 1.212735e-01 8.463376e-02
<VARIANCE> 39
 4.420343e+00 2.145240e+01 2.608810e+01 3.310826e+01 3.506885e+01 2.223274e+01 5.042033e+01 2.022038e+01 2.088504e+01 3.860623e+01 2.735063e+01 2.305245e+01 2.367875e+01 4.614279e-01 8.508570e-01 1.871116e+00 1.303608e+00 1.546290e+00 1.461960e+00 1.864632e+00 1.738053e+00 1.626126e+00 2.221730e+00 1.632296e+00 1.372053e+00 1.433323e+00 3.747404e-02 1.425508e-01 1.386214e-01 1.783563e-01 3.217615e-01 2.102577e-01 3.233956e-01 3.158055e-01 2.225357e-01 3.107046e-01 2.870997e-01 2.117966e-01 2.057701e-01
<GCONST> 9.631935e+01
<MIXTURE> 2 5.000000e-01
<MEAN> 39
 1.006598e+01 -5.618103e+00 1.193624e+01 3.015921e+01 2.623870e+01 9.288247e+00 -1.694608e+01 5.131676e+00 7.630972e-01 -1.311289e+01 5.814233e+00 -3.917587e+00 -1.122313e+01 -2.958344e-02 -3.475974e-01 7.459266e-01 1.948627e-01 -5.661822e-01 -6.393475e-01 -7.842041e-01 3.247974e-02 6.094709e-01 -7.322390e-02 -6.026177e-02 -1.437846e-01 -3.797734e-01 9.360369e-02 -2.111044e-02 -1.913808e-01 -1.276377e-01 4.877594e-03 -4.523420e-02 4.685883e-04 1.908742e-02 -1.245447e-01 -1.702552e-01 -6.992216e-02 1.212735e-01 8.463376e-02
<VARIANCE> 39
 4.420343e+00 2.145240e+01 2.608810e+01 3.310826e+01 3.506885e+01 2.223274e+01 5.042033e+01 2.022038e+01 2.088504e+01 3.860623e+01 2.735063e+01 2.305245e+01 2.367875e+01 4.614279e-01 8.508570e-01 1.871116e+00 1.303608e+00 1.546290e+00 1.461960e+00 1.864632e+00 1.738053e+00 1.626126e+00 2.221730e+00 1.632296e+00 1.372053e+00 1.433323e+00 3.747404e-02 1.425508e-01 1.386214e-01 1.783563e-01 3.217615e-01 2.102577e-01 3.233956e-01 3.158055e-01 2.225357e-01 3.107046e-01 2.870997e-01 2.117966e-01 2.057701e-01
<GCONST> 9.631935e+01
<TRANSP> 5
 0.000000e+00 1.000000e+00 0.000000e+00 0.000000e+00 0.000000e+00
 0.000000e+00 9.162495e-01 8.375050e-02 0.000000e+00 0.000000e+00
 0.000000e+00 0.000000e+00 8.134014e-01 1.865986e-01 0.000000e+00
 0.000000e+00 0.000000e+00 0.000000e+00 8.803149e-01 1.196851e-01
 0.000000e+00 0.000000e+00 0.000000e+00 0.000000e+00 0.000000e+00
<ENDHMM>
~h "ch"
<BEGINHMM>
<NUMSTATES> 5
<STATE> 2
<NUMMIXES> 2
<MIXTURE> 1 4.288510e-01
<MEAN> 39
 7.091068e-01 3.885235e+00 9.731522e+00 1.753288e+01 1.211318e+01 9.723949e+00 7.258884e-01 1.013460e+01 -5.338745e-01 -1.100708e+01 -4.428372e+00 -1.077355e+00 1.933211e+00 -2.941129e+00 -1.479828e+00 1.353675e+00 1.658185e-01 -1.442442e+00 9.940500e-01 -1.651094e-01 -1.590535e+00 1.528399e+00 1.982413e+00 -1.386933e+00 -8.410458e-01 1.166418e+00 -6.478981e-02 -1.584383e+00 -2.320384e-01 -2.750561e-01 -3.682905e-01 -1.666005e-01 -5.107043e-01 2.922294e-01 -1.934723e-01 -8.160219e-01 6.846089e-01 3.070818e-01 -5.974813e-01
<VARIANCE> 39
 4.978446e+01 2.561970e+01 3.827482e+01 3.613357e+01 2.584028e+01 2.387242e+01 4.006755e+01 4.680660e+01 3.224026e+01 4.523417e+01 4.462246e+01 2.478868e+01 2.422227e+01 5.884357e-01 1.465910e+01 1.930933e+00 1.799011e+00 2.233974e+00 2.260706e+00 2.666775e+00 2.581205e+00 2.578016e+00 6.118682e+00 3.977877e+00 2.013577e+00 3.211298e+00 1.046075e-01 8.174132e-01 2.986507e-01 2.984548e-01 3.052335e-01 4.170902e-01 3.050017e-01 4.150638e-01 2.992507e-01 5.927410e-01 6.507245e-01 3.694944e-01 4.074538e-01
<GCONST> 1.173995e+02
<MIXTURE> 2 5.711491e-01
<MEAN> 39
 -1.737384e+01 -2.386822e+01 6.690293e+00 1.053207e+01 -2.430512e+00 5.807617e+00 -7.122754e+00 4.794508e+00 4.700166e+00 -7.216998e+00 -2.326104e+00 8.562024e-01 1.912927e+00 -5.447255e-01 -4.570132e+00 1.322787e+00 -5.261562e-01 -2.061728e+00 -5.037926e-01 -1.448154e+00 2.009653e-01 6.106449e-01 -5.964956e-01 9.856784e-01 1.092554e+00 -3.246771e-01 2.350256e-01 3.317947e-01 4.634880e-01 -5.397351e-02 1.015799e-01 3.321838e-02 -8.115068e-02 -2.470430e-02 -1.718452e-01 7.810214e-02 3.064257e-02 -9.933290e-03 8.934636e-02
<VARIANCE> 39
 4.575637e+01 1.437808e+02 9.508070e+01 5.476978e+01 3.580630e+01 4.982936e+01 2.219198e+01 2.510262e+01 2.903949e+01 3.712467e+01 2.156380e+01 2.282227e+01 1.830071e+01 3.064525e+00 8.844255e+00 4.569718e+00 4.952204e+00 4.528227e+00 2.963723e+00 1.587906e+00 1.636835e+00 1.988122e+00 2.289525e+00 3.469212e+00 2.046303e+00 2.166559e+00 2.780523e-01 7.109120e-01 4.374556e-01 4.317344e-01 5.848740e-01 6.853653e-01 2.577707e-01 3.396023e-01 3.721402e-01 5.167176e-01 4.614239e-01 5.847505e-01 4.224626e-01
<GCONST> 1.226862e+02
<STATE> 3
<NUMMIXES> 2
<MIXTURE> 1 9.877225e-01
<MEAN> 39
 -1.606295e+01 -4.561640e+01 2.156765e+01 8.281187e+00 -8.185327e+00 9.887204e+00 -1.551512e+01 4.047276e+00 4.888864e+00 -7.507623e+00 2.277706e+00 1.552815e+00 8.361025e-01 1.852652e-01 -1.059634e+00 -1.216672e-01 -7.163488e-01 4.358119e-01 8.365373e-01 -6.317695e-01 -7.636052e-01 -6.293507e-01 4.696703e-01 3.411269e-01 -4.279284e-01 -9.345291e-02 2.110216e-01 5.674257e-01 -6.348878e-01 -1.054296e-02 2.133435e-01 4.977566e-02 2.624727e-01 -1.992325e-01 -1.700317e-01 -1.474703e-01 -1.926438e-01 -1.877238e-02 -3.585091e-02
<VARIANCE> 39
 1.613208e+01 6.555785e+01 3.378494e+01 3.187304e+01 2.196205e+01 1.671040e+01 1.957098e+01 2.719991e+01 2.920951e+01 2.019893e+01 2.358185e+01 1.637424e+01 1.048519e+01 1.864960e+00 4.971951e+00 5.259374e+00 9.907316e-01 1.543739e+00 1.414940e+00 1.794592e+00 1.666095e+00 1.489202e+00 1.308961e+00 1.766047e+00 1.261739e+00 1.047266e+00 2.873821e-01 7.449331e-01 5.477366e-01 1.770344e-01 4.425051e-01 2.875790e-01 2.546390e-01 2.541262e-01 2.487215e-01 2.803869e-01 3.312722e-01 2.814996e-01 1.673803e-01
<GCONST> 1.042637e+02
<MIXTURE> 2 1.227750e-02
<MEAN> 39
 -2.560884e+01 -8.382983e+00 -5.717333e+00 -2.253226e+00 -2.172648e+00 8.112723e-01 -4.051126e+00 1.691892e+00 5.286899e-01 1.633917e+00 7.549706e-01 -2.058376e+00 -1.201888e-01 9.229654e-01 -8.106111e-01 -8.218656e-01 4.680025e-01 2.062778e+00 5.373944e-01 -5.888634e-01 -1.898690e-01 -9.169772e-01 -7.753654e-01 1.175526e-01 9.507300e-01 -2.328442e-01 3.286462e-01 -1.438597e-01 -3.293488e-01 3.557478e-01 7.371517e-01 2.641233e-01 -7.369933e-02 1.350697e-01 -2.759023e-01 -3.683387e-01 4.489161e-01 7.546722e-01 6.382961e-01
<VARIANCE> 39
 6.293229e-01 1.780368e+00 4.034301e-01 3.803960e+00 2.876589e+00 1.365255e+00 4.594610e+00 2.131229e+00 1.911224e-01 2.230860e+00 7.009810e-01 1.888955e+00 1.858415e+00 3.772952e-01 5.569840e-01 9.836102e-02 1.527637e+00 2.638601e+00 6.633415e-02 1.066128e+00 4.613264e-02 1.647684e-02 2.635252e-01 7.870653e-01 8.299208e-01 2.403765e+00 4.281599e-02 1.556235e-02 8.396697e-03 1.272086e-01 2.755654e-01 1.963686e-03 3.763413e-02 3.231694e-02 3.368268e-02 3.842179e-02 8.598799e-02 4.989437e-02 5.385364e-02
<GCONST> 1.930593e+01
<STATE> 4
<NUMMIXES> 2
<MIXTURE> 1 6.062208e-01
<MEAN> 39
 -4.052559e+00 -1.746692e+01 1.002158e+00 6.761708e+00 5.834854e-01 1.169288e+01 -2.646372e+00 3.167509e+00 1.075980e+00 -5.055963e+00 1.114229e+00 2.735229e+00 6.255663e+00 5.364567e-01 2.773046e+00 -3.879373e-01 7.687843e-01 1.106442e+00 -6.233860e-01 1.091166e+00 1.241194e+00 5.093502e-01 9.663317e-01 3.870110e-01 -1.185795e-02 1.689497e-01 -3.950480e-02 -5.133484e-02 1.743708e-01 -5.040009e-02 -4.798148e-02 -1.325950e-01 -2.442766e-01 -5.487506e-02 -5.859801e-02 -1.000664e-01 -1.624493e-02 -8.589387e-02 -1.629613e-01
<VARIANCE> 39
 1.080990e+02 2.724426e+02 9.929647e+01 8.603510e+01 9.259356e+01 1.358404e+02 1.137643e+02 8.455245e+01 5.266805e+01 5.954692e+01 7.304721e+01 3.157617e+01 3.564545e+01 2.459307e+00 4.510949e+00 2.403708e+00 3.618028e+00 3.102072e+00 4.037245e+00 4.254642e+00 3.573709e+00 3.274131e+00 3.078620e+00 1.630014e+00 1.684165e+00 2.460638e+00 1.239168e-01 3.472922e-01 2.345010e-01 3.991821e-01 3.673283e-01 4.696540e-01 3.785343e-01 3.772850e-01 3.728741e-01 4.625284e-01 2.937205e-01 2.773229e-01 3.038240e-01
<GCONST> 1.283647e+02
<MIXTURE> 2 3.937797e-01
<MEAN> 39
 -1.004204e+01 -4.459435e+01 1.064879e+01 2.763195e+00 -7.484886e+00 1.425912e+01 -1.641205e+01 -5.891750e+00 -1.594830e+00 -1.133832e+01 6.256127e-01 9.952811e-01 1.239713e-01 1.234950e+00 1.229435e+00 -1.563735e+00 -5.595206e-01 -1.494081e-01 4.569207e-01 5.818806e-01 -6.253023e-01 -6.769531e-01 -7.846845e-01 -3.256112e-01 2.369370e-01 3.595224e-01 4.611380e-02 2.530953e-01 1.067713e-01 3.135954e-01 1.318927e-01 1.937948e-03 2.920510e-01 4.425330e-01 2.834358e-01 2.088743e-01 1.448688e-01 8.534960e-02 1.578667e-01
<VARIANCE> 39
 1.886387e+01 1.748050e+01 3.930313e+01 4.208203e+01 2.961785e+01 3.808022e+01 3.268508e+01 4.048510e+01 3.481155e+01 2.920545e+01 2.355175e+01 1.705691e+01 1.670011e+01 6.808704e-01 1.439810e+00 1.337359e+00 1.957347e+00 1.708706e+00 1.864866e+00 2.293441e+00 2.086520e+00 1.884584e+00 2.165793e+00 1.552417e+00 1.260125e+00 8.990368e-01 1.049858e-01 2.418311e-01 1.615282e-01 2.069757e-01 2.973548e-01 2.357625e-01 2.796690e-01 2.235039e-01 2.608902e-01 3.618209e-01 1.862562e-01 2.111890e-01 1.738454e-01
<GCONST> 1.006284e+02
<TRANSP> 5
 0.000000e+00 1.000000e+00 0.000000e+00 0.000000e+00 0.000000e+00
 0.000000e+00 8.809680e-01 1.190319e-01 0.000000e+00 0.000000e+00
 0.000000e+00 0.000000e+00 8.403927e-01 1.596073e-01 0.000000e+00
 0.000000e+00 0.000000e+00 0.000000e+00 9.217893e-01 7.821074e-02
 0.000000e+00 0.000000e+00 0.000000e+00 0.000000e+00 0.000000e+00
<ENDHMM>
~h "dh"
<BEGINHMM>
<NUMSTATES> 5
<STATE> 2
<NUMMIXES> 2
<MIXTURE> 1 5.000000e-01
<MEAN> 39
 3.189691e+00 1.524000e+01 1.374646e+01 1.736065e+01 1.524090e+01 1.437208e+01 5.355134e+00 8.503098e+00 -1.040072e+00 -5.437767e+00 -3.878420e+00 -3.292403e+00 3.789863e-01 -2.211037e-01 -1.251204e+00 -2.743928e-01 -4.603558e-02 -3.764255e-01 7.591560e-02 -3.045707e-02 3.038394e-01 7.291492e-01 8.904095e-01 7.390863e-01 -3.983781e-01 -2.388576e-01 1.847567e-01 -5.077472e-01 -3.326330e-01 -2.266178e-01 -1.967933e-01 -1.135366e-01 -2.273510e-01 -2.991171e-03 -1.270899e-01 -5.771730e-02 3.763660e-01 3.831526e-02 -4.043423e-02
<VARIANCE> 39
 1.541437e+01 2.518433e+01 1.498944e+01 8.034842e+00 8.458655e+00 9.825421e+00 1.173121e+01 1.177752e+01 2.649399e+01 3.042827e+01 1.703722e+01 1.269162e+01 1.740710e+01 6.122006e-01 5.089698e+00 2.610897e+00 1.485904e+00 1.567798e+00 1.147604e+00 1.560689e+00 7.861481e-01 1.465604e+00 1.538780e+00 2.259201e+00 1.015117e+00 1.536067e+00 9.090806e-02 2.440339e-01 1.924352e-01 3.437500e-01 2.682165e-01 1.559093e-01 1.591671e-01 1.480407e-01 3.649959e-01 3.017004e-01 4.053225e-01 1.842861e-01 2.625375e-01
<GCONST> 9.247601e+01
<MIXTURE> 2 5.000000e-01
<MEAN> 39
 3.189691e+00 1.524000e+01 1.374646e+01 1.736065e+01 1.524090e+01 1.437208e+01 5.355134e+00 8.503098e+00 -1.040072e+00 -5.437767e+00 -3.878420e+00 -3.292403e+00 3.789863e-01 -2.211037e-01 -1.251204e+00 -2.743928e-01 -4.603558e-02 -3.764255e-01 7.591560e-02 -3.045707e-02 3.038394e-01 7.291492e-01 8.904095e-01 7.390863e-01 -3.983781e-01 -2.388576e-01 1.847567e-01 -5.077472e-01 -3.326330e-01 -2.266178e-01 -1.967933e-01 -1.135366e-01 -2.273510e-01 -2.991171e-03 -1.270899e-01 -5.771730e-02 3.763660e-01 3.831526e-02 -4.043423e-02
<VARIANCE> 39
 1.541437e+01 2.518433e+01 1.498944e+01 8.034842e+00 8.458655e+00 9.825421e+00 1.173121e+01 1.177752e+01 2.649399e+01 3.042827e+01 1.703722e+01 1.269162e+01 1.740710e+01 6.122006e-01 5.089698e+00 2.610897e+00 1.485904e+00 1.567798e+00 1.147604e+00 1.560689e+00 7.861481e-01 1.465604e+00 1.538780e+00 2.259201e+00 1.015117e+00 1.536067e+00 9.090806e-02 2.440339e-01 1.924352e-01 3.437500e-01 2.682165e-01 1.559093e-01 1.591671e-01 1.480407e-01 3.649959e-01 3.017004e-01 4.053225e-01 1.842861e-01 2.625375e-01
<GCONST> 9.247601e+01
<STATE> 3
<NUMMIXES> 2
<MIXTURE> 1 5.000000e-01
<MEAN> 39
 8.918328e+00 -7.864852e+00 5.306807e+00 1.290774e+01 9.094158e+00 1.283706e+01 -4.172718e+00 7.175155e+00 -4.345407e+00 -5.722410e+00 1.200827e+01 -5.218633e+00 -3.431855e+00 1.299525e+00 -1.432349e+00 -1.319420e-01 -1.265901e-01 -1.937171e-01 -2.844823e-01 -1.611149e+00 -8.982623e-01 -1.807307e+00 -1.431347e+00 2.100691e+00 6.307685e-01 -7.461334e-01 -1.235698e-01 8.130386e-01 5.221393e-01 5.689427e-01 5.102100e-01 -1.519058e-01 -4.478832e-02 4.510369e-02 2.039432e-01 -1.611542e-01 -5.344379e-01 2.089278e-01 1.095206e-01
<VARIANCE> 39
 1.928932e+01 3.824548e+01 2.980679e+01 6.426022e+01 8.690947e+01 3.534595e+01 5.760881e+01 3.469545e+01 6.965070e+01 4.313026e+01 3.878997e+01 1.949630e+01 3.070099e+01 1.148994e+00 6.618475e+00 4.339342e+00 7.850027e+00 8.012199e+00 3.408280e+00 2.858833e+00 2.732198e+00 3.952740e+00 2.726171e+00 6.514662e+00 2.145707e+00 2.205760e+00 1.795924e-01 5.430472e-01 5.054634e-01 9.343863e-01 9.384006e-01 5.538098e-01 4.926485e-01 5.614065e-01 1.104905e+00 7.587177e-01 6.758900e-01 2.923237e-01 3.314523e-01
<GCONST> 1.283349e+02
<MIXTURE> 2 5.000000e-01
<MEAN> 39
 8.918328e+00 -7.864852e+00 5.306807e+00 1.290774e+01 9.094158e+00 1.283706e+01 -4.172718e+00 7.175155e+00 -4.345407e+00 -5.722410e+00 1.200827e+01 -5.218633e+00 -3.431855e+00 1.299525e+00 -1.432349e+00 -1.319420e-01 -1.265901e-01 -1.937171e-01 -2.844823e-01 -1.611149e+00 -8.982623e-01 -1.807307e+00 -1.431347e+00 2.100691e+00 6.307685e-01 -7.461334e-01 -1.235698e-01 8.130386e-01 5.221393e-01 5.689427e-01 5.102100e-01 -1.519058e-01 -4.478832e-02 4.510369e-02 2.039432e-01 -1.611542e-01 -5.344379e-01 2.089278e-01 1.095206e-01
<VARIANCE> 39
 1.928932e+01 3.824548e+01 2.980679e+01 6.426022e+01 8.690947e+01 3.534595e+01 5.760881e+01 3.469545e+01 6.965070e+01 4.313026e+01 3.878997e+01 1.949630e+01 3.070099e+01 1.148994e+00 6.618475e+00 4.339342e+00 7.850027e+00 8.012199e+00 3.408280e+00 2.858833e+00 2.732198e+00 3.952740e+00 2.726171e+00 6.514662e+00 2.145707e+00 2.205760e+00 1.795924e-01 5.430472e-01 5.054634e-01 9.343863e-01 9.384006e-01 5.538098e-01 4.926485e-01 5.614065e-01 1.104905e+00 7.587177e-01 6.758900e-01 2.923237e-01 3.314523e-01
<GCONST> 1.283349e+02
<STATE> 4
<NUMMIXES> 2
<MIXTURE> 1 5.000000e-01
<MEAN> 39
 1.308280e+01 -4.631962e+00 8.395156e+00 1.668540e+01 1.468693e+01 7.707325e+00 -1.296899e+01 7.548174e+00 -6.167686e+00 -1.378346e+01 1.696945e+01 2.940512e+00 -6.540819e+00 1.179910e-01 3.476504e-01 -1.305793e-01 -1.534382e-01 2.012284e-01 -6.195246e-01 -4.733546e-01 5.118489e-01 2.261067e-01 -3.306538e-01 8.672878e-02 3.650681e-01 -2.278231e-01 -3.246025e-02 -7.847752e-02 -1.116391e-01 -1.448334e-01 -9.261245e-02 6.672445e-02 1.823718e-01 1.109689e-01 4.802044e-03 5.240201e-02 -5.459630e-02 -1.097886e-01 1.021082e-02
<VARIANCE> 39
 1.568711e+01 3.255709e+01 2.584298e+01 3.650325e+01 3.506596e+01 2.335154e+01 8.884122e+01 3.336044e+01 4.114833e+01 5.187986e+01 5.075435e+01 2.209325e+01 3.585023e+01 8.539873e-01 6.596373e-01 1.380132e+00 1.523055e+00 1.363461e+00 1.652685e+00 3.053946e+00 1.354681e+00 2.039075e+00 2.103361e+00 2.038333e+00 1.398369e+00 1.241287e+00 6.153718e-02 1.054704e-01 1.472754e-01 1.533052e-01 1.686683e-01 2.345653e-01 3.284899e-01 2.396270e-01 3.688047e-01 2.918938e-01 3.136384e-01 1.822682e-01 1.725398e-01
<GCONST> 1.014056e+02
<MIXTURE> 2 5.000000e-01
<MEAN> 39
 1.308280e+01 -4.631962e+00 8.395156e+00 1.668540e+01 1.468693e+01 7.707325e+00 -1.296899e+01 7.548174e+00 -6.167686e+00 -1.378346e+01 1.696945e+01 2.940512e+00 -6.540819e+00 1.179910e-01 3.476504e-01 -1.305793e-01 -1.534382e-01 2.012284e-01 -6.195246e-01 -4.733546e-01 5.118489e-01 2.261067e-01 -3.306538e-01 8.672878e-02 3.650681e-01 -2.278231e-01 -3.246025e-02 -7.847752e-02 -1.116391e-01 -1.448334e-01 -9.261245e-02 6.672445e-02 1.823718e-01 1.109689e-01 4.802044e-03 5.240201e-02 -5.459630e-02 -1.097886e-01 1.021082e-02
<VARIANCE> 39
 1.568711e+01 3.255709e+01 2.584298e+01 3.650325e+01 3.506596e+01 2.335154e+01 8.884122e+01 3.336044e+01 4.114833e+01 5.187986e+01 5.075435e+01 2.209325e+01 3.585023e+01 8.539873e-01 6.596373e-01 1.380132e+00 1.523055e+00 1.363461e+00 1.652685e+00 3.053946e+00 1.354681e+00 2.039075e+00 2.103361e+00 2.038333e+00 1.398369e+00 1.241287e+00 6.153718e-02 1.054704e-01 1.472754e-01 1.533052e-01 1.686683e-01 2.345653e-01 3.284899e-01 2.396270e-01 3.688047e-01 2.918938e-01 3.136384e-01 1.822682e-01 1.725398e-01
<GCONST> 1.014056e+02
<TRANSP> 5
 0.000000e+00 1.000000e+00 0.000000e+00 0.000000e+00 0.000000e+00
 0.000000e+00 8.923250e-01 1.076751e-01 0.000000e+00 0.000000e+00
 0.000000e+00 0.000000e+00 8.334636e-01 1.665364e-01 0.000000e+00
 0.000000e+00 0.000000e+00 0.000000e+00 8.935479e-01 1.064521e-01
 0.000000e+00 0.000000e+00 0.000000e+00 0.000000e+00 0.000000e+00
<ENDHMM>
~h "dx"
<BEGINHMM>
<NUMSTATES> 5
<STATE> 2
<NUMMIXES> 2
<MIXTURE> 1 5.000000e-01
<MEAN> 39
 3.157295e+00 1.652790e+01 1.369355e+01 1.728964e+01 1.726889e+01 1.627925e+01 5.565484e+00 6.644827e+00 -2.738301e+00 -5.655559e+00 -3.024201e+00 -3.248723e+00 -2.487518e+00 -5.881600e-01 -5.369917e-01 1.320704e-01 4.467889e-01 -9.112110e-03 -1.250724e-01 2.136259e-01 5.608442e-01 6.029690e-01 4.385066e-01 1.603852e-01 4.436764e-02 2.293811e-01 4.845713e-02 -4.839546e-01 -2.701686e-01 1.510682e-01 1.232385e-01 -1.311926e-01 -1.804897e-01 2.736669e-02 6.586600e-03 -9.611774e-03 1.251930e-01 8.448755e-03 1.230974e-02
<VARIANCE> 39
 1.640322e+01 1.097769e+01 1.171987e+01 1.717698e+01 1.291807e+01 2.145808e+01 2.372090e+01 2.083495e+01 2.888608e+01 2.598480e+01 1.425395e+01 1.250290e+01 1.277379e+01 3.257983e-01 2.267034e+00 1.125430e+00 1.506401e+00 1.425269e+00 1.334532e+00 1.541348e+00 1.028773e+00 1.515328e+00 1.165629e+00 9.250439e-01 9.046443e-01 9.156123e-01 4.436104e-02 2.559867e-01 1.566840e-01 1.527197e-01 1.922223e-01 1.524584e-01 1.518630e-01 1.307394e-01 2.384030e-01 1.788745e-01 2.264435e-01 1.500244e-01 1.350203e-01
<GCONST> 8.578645e+01
<MIXTURE> 2 5.000000e-01
<MEAN> 39
 3.157295e+00 1.652790e+01 1.369355e+01 1.728964e+01 1.726889e+01 1.627925e+01 5.565484e+00 6.644827e+00 -2.738301e+00 -5.655559e+00 -3.024201e+00 -3.248723e+00 -2.487518e+00 -5.881600e-01 -5.369917e-01 1.320704e-01 4.467889e-01 -9.112110e-03 -1.250724e-01 2.136259e-01 5.608442e-01 6.029690e-01 4.385066e-01 1.603852e-01 4.436764e-02 2.293811e-01 4.845713e-02 -4.839546e-01 -2.701686e-01 1.510682e-01 1.232385e-01 -1.311926e-01 -1.804897e-01 2.736669e-02 6.586600e-03 -9.611774e-03 1.251930e-01 8.448755e-03 1.230974e-02
<VARIANCE> 39
 1.640322e+01 1.097769e+01 1.171987e+01 1.717698e+01 1.291807e+01 2.145808e+01 2.372090e+01 2.083495e+01 2.888608e+01 2.598480e+01 1.425395e+01 1.250290e+01 1.277379e+01 3.257983e-01 2.267034e+00 1.125430e+00 1.506401e+00 1.425269e+00 1.334532e+00 1.541348e+00 1.028773e+00 1.515328e+00 1.165629e+00 9.250439e-01 9.046443e-01 9.156123e-01 4.436104e-02 2.559867e-01 1.566840e-01 1.527197e-01 1.922223e-01 1.524584e-01 1.518630e-01 1.307394e-01 2.384030e-01 1.788745e-01 2.264435e-01 1.500244e-01 1.350203e-01
<GCONST> 8.578645e+01
<STATE> 3
<NUMMIXES> 2
<MIXTURE> 1 5.000000e-01
<MEAN> 39
 2.591189e+00 -1.559534e+00 5.987241e+00 2.417338e+01 2.053065e+01 1.221099e+01 1.547272e+00 8.547518e+00 -3.297459e+00 -5.313832e+00 3.272512e+00 -2.894834e+00 -2.325563e+00 9.085243e-01 -4.031562e+00 -1.870416e+00 4.956862e-01 1.198930e-01 -6.974765e-01 -9.184002e-01 4.793417e-02 -1.801289e+00 -9.564222e-01 2.769087e+00 4.182903e-01 -1.010124e+00 3.587781e-01 2.834723e-01 2.116750e-01 -1.950999e-01 -4.313775e-02 -1.072292e-01 -4.032578e-01 -2.388257e-01 -3.637667e-01 -3.807000e-01 1.924688e-01 5.708577e-02 -3.726248e-01
<VARIANCE> 39
 3.209256e+01 9.069472e+01 4.295274e+01 4.173832e+01 5.493534e+01 4.195301e+01 4.266479e+01 3.725263e+01 9.469916e+01 5.637717e+01 8.300825e+01 3.402212e+01 3.371812e+01 1.299817e+00 3.861034e+00 2.398572e+00 2.678481e+00 3.805306e+00 3.155624e+00 2.965170e+00 2.623058e+00 5.862475e+00 4.210901e+00 4.496246e+00 2.392548e+00 2.435478e+00 1.996178e-01 1.123093e+00 6.009215e-01 5.584440e-01 9.194456e-01 4.054790e-01 4.209596e-01 3.914575e-01 1.628374e+00 8.879292e-01 1.399600e+00 3.397264e-01 4.815343e-01
<GCONST> 1.303051e+02
<MIXTURE> 2 5.000000e-01
<MEAN> 39
 2.591189e+00 -1.559534e+00 5.987241e+00 2.417338e+01 2.053065e+01 1.221099e+01 1.547272e+00 8.547518e+00 -3.297459e+00 -5.313832e+00 3.272512e+00 -2.894834e+00 -2.325563e+00 9.085243e-01 -4.031562e+00 -1.870416e+00 4.956862e-01 1.198930e-01 -6.974765e-01 -9.184002e-01 4.793417e-02 -1.801289e+00 -9.564222e-01 2.769087e+00 4.182903e-01 -1.010124e+00 3.587781e-01 2.834723e-01 2.116750e-01 -1.950999e-01 -4.313775e-02 -1.072292e-01 -4.032578e-01 -2.388257e-01 -3.637667e-01 -3.807000e-01 1.924688e-01 5.708577e-02 -3.726248e-01
<VARIANCE> 39
 3.209256e+01 9.069472e+01 4.295274e+01 4.173832e+01 5.493534e+01 4.195301e+01 4.266479e+01 3.725263e+01 9.469916e+01 5.637717e+01 8.300825e+01 3.402212e+01 3.371812e+01 1.299817e+00 3.861034e+00 2.398572e+00 2.678481e+00 3.805306e+00 3.155624e+00 2.965170e+00 2.623058e+00 5.862475e+00 4.210901e+00 4.496246e+00 2.392548e+00 2.435478e+00 1.996178e-01 1.123093e+00 6.009215e-01 5.584440e-01 9.194456e-01 4.054790e-01 4.209596e-01 3.914575e-01 1.628374e+00 8.879292e-01 1.399600e+00 3.397264e-01 4.815343e-01
<GCONST> 1.303051e+02
<STATE> 4
<NUMMIXES> 2
<MIXTURE> 1 5.000000e-01
<MEAN> 39
 7.664853e-01 -1.992344e+00 6.098494e+00 1.917574e+01 1.706100e+01 1.355643e+01 2.384856e+00 7.886240e+00 -4.740176e+00 -4.662778e+00 7.952473e+00 4.601067e-01 -2.702810e+00 -1.334336e-01 5.361363e-02 5.244612e-01 -3.377074e-01 -5.463655e-01 -6.217752e-01 -8.605983e-01 -1.500529e-01 1.683904e-01 -1.789478e-01 3.256691e-02 4.011199e-03 -1.869324e-01 -5.239111e-02 2.110448e-01 1.299373e-01 1.341883e-01 2.718873e-01 4.842680e-03 -2.069586e-01 -6.785168e-02 2.236506e-02 -1.645612e-01 -2.702552e-01 -5.152074e-02 2.692915e-02
<VARIANCE> 39
 6.685596e+01 1.764104e+02 5.703132e+01 7.200285e+01 7.177888e+01 5.914351e+01 7.022180e+01 3.601975e+01 5.890647e+01 5.427198e+01 7.015277e+01 4.336609e+01 4.848431e+01 4.073443e+00 7.414948e+00 2.637650e+00 3.936225e+00 4.512404e+00 2.914827e+00 4.568394e+00 2.358155e+00 7.945472e+00 5.995827e+00 5.123742e+00 1.564233e+00 3.669680e+00 1.500669e-01 7.206445e-01 3.756903e-01 3.337332e-01 6.247936e-01 4.079992e-01 3.750021e-01 2.810966e-01 8.298200e-01 4.618989e-01 7.388524e-01 2.378376e-01 3.501451e-01
<GCONST> 1.318160e+02
<MIXTURE> 2 5.000000e-01
<MEAN> 39
 7.664853e-01 -1.992344e+00 6.098494e+00 1.917574e+01 1.706100e+01 1.355643e+01 2.384856e+00 7.886240e+00 -4.740176e+00 -4.662778e+00 7.952473e+00 4.601067e-01 -2.702810e+00 -1.334336e-01 5.361363e-02 5.244612e-01 -3.377074e-01 -5.463655e-01 -6.217752e-01 -8.605983e-01 -1.500529e-01 1.683904e-01 -1.789478e-01 3.256691e-02 4.011199e-03 -1.869324e-01 -5.239111e-02 2.110448e-01 1.299373e-01 1.341883e-01 2.718873e-01 4.842680e-03 -2.069586e-01 -6.785168e-02 2.236506e-02 -1.645612e-01 -2.702552e-01 -5.152074e-02 2.692915e-02
<VARIANCE> 39
 6.685596e+01 1.764104e+02 5.703132e+01 7.200285e+01 7.177888e+01 5.914351e+01 7.022180e+01 3.601975e+01 5.890647e+01 5.427198e+01 7.015277e+01 4.336609e+01 4.848431e+01 4.073443e+00 7.414948e+00 2.637650e+00 3.936225e+00 4.512404e+00 2.914827e+00 4.568394e+00 2.358155e+00 7.945472e+00 5.995827e+00 5.123742e+00 1.564233e+00 3.669680e+00 1.500669e-01 7.206445e-01 3.756903e-01 3.337332e-01 6.247936e-01 4.079992e-01 3.750021e-01 2.810966e-01 8.298200e-01 4.618989e-01 7.388524e-01 2.378376e-01 3.501451e-01
<GCONST> 1.318160e+02
<TRANSP> 5
 0.000000e+00 1.000000e+00 0.000000e+00 0.000000e+00 0.000000e+00
 0.000000e+00 8.500311e-01 1.499689e-01 0.000000e+00 0.000000e+00
 0.000000e+00 0.000000e+00 7.634536e-01 2.365464e-01 0.000000e+00
 0.000000e+00 0.000000e+00 0.000000e+00 6.819367e-01 3.180633e-01
 0.000000e+00 0.000000e+00 0.000000e+00 0.000000e+00 0.000000e+00
<ENDHMM>
~h "ee"
<BEGINHMM>
<NUMSTATES> 7
<STATE> 2
<NUMMIXES> 2
<MIXTURE> 1 7.359355e-01
<MEAN> 39
 2.659739e+00 -8.056867e+00 4.462521e+00 1.517640e+01 1.491960e+01 5.417062e+00 -1.355807e+01 4.158656e+00 -6.071019e+00 -1.089053e+01 6.282502e+00 -2.128105e+00 -4.280221e+00 2.145907e+00 -2.500011e-01 -7.494943e-01 1.307888e+00 2.077575e+00 -1.158798e+00 -2.376346e+00 6.859946e-01 -6.316774e-01 -2.114264e+00 1.412813e+00 2.868359e-01 -1.658566e+00 -1.441921e-01 -2.211290e-01 -4.391418e-02 -1.651465e-01 2.148653e-02 -1.127189e-01 -2.546713e-01 1.149402e-01 -1.109012e-01 -1.463939e-01 2.567894e-01 7.239696e-03 -1.734267e-01
<VARIANCE> 39
 1.653002e+02 9.055728e+01 6.395046e+01 1.021545e+02 9.483891e+01 7.644324e+01 7.744233e+01 6.292218e+01 7.309484e+01 6.412688e+01 6.595620e+01 2.790092e+01 4.950051e+01 3.949543e+00 4.925531e+00 5.719735e+00 4.282623e+00 4.520654e+00 4.379187e+00 6.586240e+00 4.093893e+00 4.011914e+00 6.605190e+00 4.743777e+00 2.171401e+00 4.270568e+00 4.602264e-01 4.786140e-01 5.799704e-01 5.893642e-01 4.868831e-01 4.173008e-01 5.770079e-01 6.195017e-01 5.996580e-01 6.764857e-01 5.992179e-01 3.028763e-01 4.094409e-01
<GCONST> 1.381250e+02
<MIXTURE> 2 2.640638e-01
<MEAN> 39
 -1.316537e+00 -3.393992e+00 6.332409e-01 1.111668e+01 1.156089e+01 1.372627e-01 -1.349175e+01 2.468987e+00 -7.222309e+00 -1.174468e+01 3.872066e+00 -1.168552e+00 -6.059465e+00 -9.134638e-02 -4.771386e-01 -2.563145e-01 -1.196278e-01 1.738721e-01 -1.183093e-01 -4.653083e-01 2.388451e-02 -2.752496e-02 -1.593857e-01 2.676408e-01 9.034854e-02 -1.363762e-01 1.636436e-04 -4.190616e-02 2.834947e-02 3.536050e-02 4.037619e-02 2.727472e-02 -1.247519e-02 1.183888e-01 5.551992e-02 -1.599168e-02 5.515631e-02 -3.650177e-03 1.034382e-02
<VARIANCE> 39
 3.516174e+02 8.675092e+01 6.595810e+01 1.349727e+02 1.687944e+02 3.682920e+01 1.523194e+02 8.045726e+01 5.670066e+01 1.237736e+02 7.656291e+01 4.133200e+01 5.700023e+01 1.355238e+00 1.032942e+00 1.020934e+00 1.167664e+00 1.144642e+00 9.350007e-01 1.848373e+00 1.832422e+00 1.348687e+00 1.497725e+00 1.975881e+00 1.062963e+00 1.131588e+00 1.134251e-01 1.059905e-01 1.313440e-01 1.593889e-01 1.784105e-01 1.465726e-01 2.223255e-01 3.081813e-01 2.306190e-01 2.837862e-01 2.115853e-01 1.957107e-01 1.819590e-01
<GCONST> 1.113466e+02
<STATE> 3
<NUMMIXES> 2
<MIXTURE> 1 6.091331e-01
<MEAN> 39
 1.619683e+01 -1.204014e+01 7.578355e-01 1.939231e+01 2.676319e+01 7.157034e-01 -2.859590e+01 8.872050e+00 -1.174724e+01 -2.436895e+01 1.784011e+01 -4.065626e-01 -1.449146e+01 5.643771e-01 -8.842070e-01 -4.893503e-01 5.146295e-02 1.355122e+00 -1.130677e+00 -2.625026e+00 9.118928e-01 -3.789252e-01 -1.685045e+00 1.538232e+00 2.177498e-01 -1.398223e+00 -4.756943e-01 2.315642e-01 3.289971e-01 -2.128451e-01 -5.067523e-01 2.555791e-01 6.724318e-01 -2.803172e-01 3.394073e-01 7.731910e-01 -5.964113e-01 -1.629348e-01 5.082928e-01
<VARIANCE> 39
 2.858559e+01 2.001867e+01 4.309847e+01 5.824593e+01 3.762798e+01 2.789234e+01 6.045499e+01 4.340035e+01 3.869902e+01 4.683222e+01 5.105667e+01 2.641102e+01 3.114201e+01 1.153496e+00 1.378232e+00 1.725663e+00 1.326616e+00 1.610076e+00 1.752367e+00 2.794814e+00 2.604840e+00 1.372047e+00 2.919695e+00 2.854238e+00 1.021649e+00 1.572459e+00 1.396803e-01 1.923095e-01 2.741555e-01 2.546588e-01 2.174941e-01 1.963276e-01 3.644116e-01 4.091065e-01 2.324792e-01 3.518330e-01 3.290278e-01 1.912373e-01 2.460275e-01
<GCONST> 1.080485e+02
<MIXTURE> 2 3.908660e-01
<MEAN> 39
 1.327432e+01 -1.294587e+01 9.406763e+00 2.474850e+01 2.936606e+01 -2.183841e+00 -3.627864e+01 5.012627e+00 -2.561142e+00 -2.071066e+01 4.923925e+00 -1.548298e+00 -1.277596e+01 3.873628e-02 -1.209370e-01 -5.912868e-02 -3.041037e-01 -1.494427e-02 -1.658439e-02 -1.487515e-01 -3.196163e-02 6.066024e-02 1.225810e-01 -6.892348e-02 -1.601200e-02 7.807366e-02 -2.601282e-03 1.736658e-02 -1.197105e-02 4.218424e-02 1.052117e-02 1.135861e-02 5.164616e-02 4.214973e-02 -3.720249e-02 1.007279e-02 7.061698e-02 -2.728209e-02 -2.009719e-02
<VARIANCE> 39
 5.017925e+00 1.177696e+01 2.062180e+01 2.062880e+01 1.583430e+01 1.134877e+01 2.134081e+01 2.251062e+01 2.499493e+01 2.095888e+01 1.950892e+01 7.332537e+00 2.028153e+01 3.119065e-01 4.152976e-01 5.690297e-01 8.267286e-01 5.567097e-01 6.333016e-01 1.158765e+00 1.056833e+00 8.723063e-01 9.392739e-01 7.466820e-01 4.604691e-01 7.785004e-01 5.202095e-02 6.259945e-02 7.877340e-02 9.027613e-02 8.823732e-02 9.973296e-02 1.873464e-01 1.727415e-01 1.150463e-01 1.505436e-01 1.028955e-01 7.439391e-02 1.106815e-01
<GCONST> 7.228802e+01
<STATE> 4
<NUMMIXES> 2
<MIXTURE> 1 9.799204e-01
<MEAN> 39
 1.629702e+01 -1.431811e+01 1.183474e+00 1.848041e+01 2.874489e+01 -1.979931e+00 -3.401847e+01 1.114120e+01 -1.040568e+01 -2.595720e+01 1.970002e+01 -6.519750e-01 -1.729957e+01 -1.022688e-01 -2.327833e-02 1.258547e-01 1.332944e-01 1.303516e-01 -2.385963e-02 -1.067437e-01 -1.371654e-03 3.088493e-03 6.888464e-02 9.125063e-02 -1.264083e-01 -1.784729e-01 -6.658627e-03 7.964221e-02 -1.077422e-02 5.121504e-02 -4.904518e-02 7.750528e-02 1.959470e-01 -7.098481e-02 -2.500765e-02 7.341217e-02 -8.328523e-02 4.211451e-04 6.420673e-02
<VARIANCE> 39
 7.991455e+00 8.641384e+00 2.686609e+01 2.745648e+01 2.667668e+01 1.275806e+01 3.373759e+01 3.848561e+01 2.945847e+01 2.572673e+01 4.548025e+01 1.643126e+01 2.626046e+01 4.798237e-01 3.182697e-01 5.942051e-01 6.774567e-01 5.988231e-01 5.653470e-01 1.577812e+00 1.827080e+00 6.233866e-01 1.281498e+00 1.459544e+00 5.257263e-01 7.266330e-01 6.562629e-02 5.394803e-02 7.364886e-02 7.997569e-02 8.534472e-02 8.341785e-02 2.260074e-01 2.503873e-01 8.483910e-02 1.982015e-01 2.026001e-01 7.584516e-02 1.017416e-01
<GCONST> 7.926604e+01
<MIXTURE> 2 2.007946e-02
<MEAN> 39
 -1.937679e+01 -2.409461e+00 1.908589e-01 5.499820e+00 4.864192e+00 4.064186e+00 -3.335532e+00 3.687918e+00 -1.215991e+00 -1.022248e+00 3.817560e+00 1.159399e+00 2.987112e-01 -1.592954e+00 -1.716060e+00 -2.040901e+00 -2.093613e+00 -1.992308e+00 -1.782619e+00 -1.612976e+00 -1.638916e+00 -1.265216e+00 -1.031080e+00 -9.281388e-01 -5.188489e-01 -3.170584e-01 1.270239e-01 2.427279e-01 2.542173e-01 7.817885e-02 6.152140e-04 1.710493e-01 2.855229e-01 1.553475e-01 2.363342e-01 2.342674e-01 -7.924679e-02 -6.135746e-02 6.208086e-02
<VARIANCE> 39
 1.102965e+02 2.291164e+01 2.921971e+01 1.195047e+02 1.520213e+02 2.819386e+01 1.371570e+02 4.016062e+01 6.580531e+01 8.071845e+01 2.603952e+01 1.485695e+01 2.630482e+01 5.681999e-01 8.356610e-01 1.110955e+00 1.493584e+00 1.634532e+00 1.494788e+00 1.936131e+00 1.684685e+00 1.519759e+00 1.513297e+00 1.358753e+00 9.244276e-01 7.338504e-01 1.961807e-01 2.023608e-01 2.435254e-01 5.348914e-01 8.952219e-01 3.655254e-01 6.797428e-01 4.311220e-01 5.638812e-01 5.564838e-01 4.980639e-01 2.661734e-01 1.975780e-01
<GCONST> 1.126310e+02
<STATE> 5
<NUMMIXES> 2
<MIXTURE> 1 5.342993e-01
<MEAN> 39
 1.586036e+01 -1.200465e+01 1.369321e+00 2.166088e+01 3.010954e+01 -4.244744e-01 -3.144940e+01 9.623887e+00 -1.195321e+01 -2.488021e+01 1.942432e+01 -1.389810e+00 -1.752890e+01 -5.130802e-01 1.260368e+00 4.064455e-02 3.762957e-01 -6.661209e-01 5.196751e-01 2.200058e+00 -9.567215e-01 3.326178e-01 1.369419e+00 -1.500278e+00 -1.297301e-01 7.501191e-01 -3.103701e-01 4.678251e-01 1.732509e-01 -1.083664e-01 -4.059658e-01 9.394342e-02 6.261247e-01 -3.201702e-01 3.589762e-01 6.383996e-01 -6.881073e-01 -4.863263e-02 4.543341e-01
<VARIANCE> 39
 1.372721e+01 1.658974e+01 4.656230e+01 5.959633e+01 3.876279e+01 2.310400e+01 6.366501e+01 4.983745e+01 3.922163e+01 4.046477e+01 5.983926e+01 2.925384e+01 3.913454e+01 8.406765e-01 1.386403e+00 1.049898e+00 1.216702e+00 1.634056e+00 1.102394e+00 3.552035e+00 2.785385e+00 1.535076e+00 3.314281e+00 3.256805e+00 9.493178e-01 1.704472e+00 8.020804e-02 1.127097e-01 1.734927e-01 2.077901e-01 1.707622e-01 1.535206e-01 3.073151e-01 3.619876e-01 2.190398e-01 2.971777e-01 2.463260e-01 1.671106e-01 2.122318e-01
<GCONST> 1.036267e+02
<MIXTURE> 2 4.657013e-01
<MEAN> 39
 1.317888e+01 -1.166252e+01 3.111000e+00 2.023017e+01 2.866611e+01 -2.298048e+00 -3.228445e+01 6.335029e+00 -1.128155e+01 -2.048617e+01 1.627629e+01 -2.313325e+00 -1.443720e+01 6.883428e-02 1.980701e-01 -2.904217e-02 2.589181e-01 2.527809e-02 1.176206e-01 2.114172e-01 9.858430e-02 -4.452260e-02 -9.104322e-02 1.805212e-01 1.093092e-02 -1.758355e-01 1.361668e-01 -3.910955e-02 -1.374680e-02 8.252327e-03 1.074941e-01 7.266241e-02 -1.139033e-01 2.604618e-01 -4.863001e-02 -2.242779e-01 2.136951e-01 -2.294285e-03 -1.038288e-01
<VARIANCE> 39
 3.360940e+01 1.454357e+01 6.628809e+01 5.505333e+01 5.552641e+01 2.221362e+01 7.000906e+01 5.021758e+01 3.488424e+01 3.811115e+01 5.838320e+01 2.371766e+01 3.641130e+01 5.136857e-01 5.749050e-01 9.137400e-01 1.057303e+00 1.111480e+00 8.368639e-01 2.076645e+00 2.152372e+00 1.050110e+00 1.668298e+00 1.722878e+00 8.590371e-01 1.014066e+00 7.928745e-02 8.307207e-02 1.149493e-01 1.348465e-01 1.604693e-01 1.356352e-01 2.997722e-01 3.397632e-01 1.592411e-01 2.350034e-01 2.404423e-01 1.226480e-01 1.301944e-01
<GCONST> 9.636296e+01
<STATE> 6
<NUMMIXES> 2
<MIXTURE> 1 4.909173e-01
<MEAN> 39
 3.680041e+00 8.811943e-02 5.661322e+00 2.044687e+01 2.097088e+01 4.265886e+00 -1.388596e+01 3.347645e+00 -4.986411e+00 -9.639908e+00 5.406692e+00 -2.052623e+00 -7.214163e+00 -1.494913e+00 1.390475e+00 6.565707e-01 -6.025637e-01 -1.178953e+00 6.505855e-01 1.832468e+00 -1.960343e-01 8.102258e-01 1.434071e+00 -1.332951e+00 -9.732948e-02 1.196067e+00 -4.458977e-02 -2.056639e-01 2.342407e-02 -5.499890e-02 5.421243e-02 -4.048890e-02 -2.642273e-01 6.202303e-02 -1.433054e-01 -2.246320e-01 2.306111e-01 2.255251e-02 -1.403902e-01
<VARIANCE> 39
 1.205202e+02 8.510380e+01 5.539861e+01 8.963547e+01 8.691651e+01 5.242525e+01 1.259779e+02 6.167474e+01 5.858036e+01 8.463293e+01 7.086810e+01 3.050170e+01 4.936847e+01 1.848981e+00 3.450656e+00 2.091166e+00 2.303213e+00 2.739394e+00 1.801992e+00 4.269756e+00 3.340025e+00 2.873549e+00 3.652251e+00 4.146333e+00 1.385357e+00 2.371176e+00 1.300491e-01 2.205357e-01 2.143784e-01 2.813106e-01 3.740325e-01 2.123770e-01 4.562641e-01 4.237695e-01 4.152588e-01 4.125689e-01 3.822232e-01 2.087060e-01 2.582233e-01
<GCONST> 1.233514e+02
<MIXTURE> 2 5.090814e-01
<MEAN> 39
 -2.583217e+01 -8.413222e+00 -6.629293e+00 -2.302249e+00 -1.984293e+00 1.774629e+00 -3.201045e+00 9.443230e-01 -4.647680e+00 -3.166332e+00 2.216816e+00 2.084007e+00 1.044008e+00 -7.840053e-03 -4.827272e-03 -7.271142e-03 -1.014832e-02 -4.103178e-03 9.238504e-04 1.717967e-03 -1.326895e-03 -2.899281e-03 -3.550911e-03 -2.676211e-03 2.887262e-03 6.342052e-04 1.185763e-02 1.137382e-02 1.458979e-02 1.812657e-02 1.679437e-02 1.202226e-02 6.361720e-03 5.274677e-03 5.751337e-03 4.660181e-03 4.513122e-03 1.978788e-03 -1.174146e-04
<VARIANCE> 39
 1.729506e+00 1.241057e+01 7.902054e+00 6.607653e+00 1.176637e+01 1.020240e+01 8.218693e+00 8.841656e+00 2.570846e+01 2.074519e+01 1.361480e+01 2.484730e+01 6.949412e+00 9.274600e-02 2.727000e-01 3.801179e-01 4.729034e-01 6.726440e-01 9.014260e-01 8.953858e-01 1.028769e+00 1.385909e+00 1.176684e+00 1.088214e+00 1.172162e+00 7.859865e-01 2.228854e-02 4.860410e-02 7.721189e-02 1.035438e-01 1.422792e-01 1.848964e-01 1.911985e-01 2.195417e-01 2.756707e-01 2.359884e-01 2.279121e-01 2.321935e-01 1.673816e-01
<GCONST> 7.040592e+01
<TRANSP> 7
 0.000000e+00 1.000000e+00 0.000000e+00 0.000000e+00 0.000000e+00 0.000000e+00 0.000000e+00
 0.000000e+00 7.484024e-01 2.515976e-01 0.000000e+00 0.000000e+00 0.000000e+00 0.000000e+00
 0.000000e+00 0.000000e+00 7.990431e-01 2.009570e-01 0.000000e+00 0.000000e+00 0.000000e+00
 0.000000e+00 0.000000e+00 0.000000e+00 8.816346e-01 1.183654e-01 0.000000e+00 0.000000e+00
 0.000000e+00 0.000000e+00 0.000000e+00 0.000000e+00 8.458486e-01 1.541515e-01 0.000000e+00
 0.000000e+00 0.000000e+00 0.000000e+00 0.000000e+00 0.000000e+00 8.863328e-01 1.136672e-01
 0.000000e+00 0.000000e+00 0.000000e+00 0.000000e+00 0.000000e+00 0.000000e+00 0.000000e+00
<ENDHMM>
~h "ei"
<BEGINHMM>
<NUMSTATES> 7
<STATE> 2
<NUMMIXES> 2
<MIXTURE> 1 6.331143e-01
<MEAN> 39
 2.051650e+01 -1.345984e+01 -1.360123e+01 8.376710e+00 2.184746e+01 -4.456356e+00 -2.696976e+01 9.750707e+00 -9.907521e+00 -1.473594e+01 2.261940e+01 4.037123e+00 -3.259243e+00 -1.422954e-01 -1.061362e-01 -4.546937e-02 1.589513e-01 3.776748e-01 5.668251e-02 -3.513746e-01 -4.942959e-01 -3.311535e-01 -7.799949e-02 1.149446e-01 1.229782e-01 -3.628340e-05 -1.572185e-01 1.803721e-01 1.960069e-01 1.049031e-01 -1.247705e-01 8.063900e-02 2.191087e-01 -1.642022e-01 6.043100e-02 1.518442e-01 -1.619706e-01 1.441762e-02 -7.883103e-03
<VARIANCE> 39
 1.082000e+01 1.267482e+01 3.083161e+01 2.876381e+01 2.195682e+01 1.511653e+01 3.339824e+01 5.326015e+01 2.553307e+01 4.274514e+01 3.894205e+01 1.911060e+01 2.736683e+01 8.528786e-01 7.089596e-01 1.072506e+00 7.969706e-01 8.939689e-01 7.218323e-01 1.922169e+00 2.620385e+00 8.115060e-01 1.454677e+00 2.345257e+00 8.950523e-01 7.545485e-01 1.174108e-01 8.508395e-02 1.187077e-01 1.059458e-01 1.091246e-01 1.009896e-01 2.315186e-01 3.349443e-01 1.211848e-01 2.114389e-01 3.001849e-01 1.331491e-01 8.758569e-02
<GCONST> 8.936980e+01
<MIXTURE> 2 3.668821e-01
<MEAN> 39
 1.522509e+01 -6.185859e+00 -8.196102e+00 1.089847e+01 1.558849e+01 -8.301251e-01 -1.719229e+01 4.666040e+00 -4.728648e+00 -3.165224e+00 2.096845e+01 5.403687e+00 -4.032879e+00 8.667005e-01 -3.497947e-01 -6.364548e-01 9.461597e-02 1.438193e+00 -4.417419e-01 -1.710992e+00 3.396795e-01 -1.049374e+00 -2.055271e+00 6.815273e-02 -1.957584e-01 -3.190920e-01 1.863532e-02 -2.322339e-01 -2.100295e-01 -1.256541e-01 4.057578e-02 4.458127e-02 -1.067332e-01 3.535920e-02 -5.833343e-03 6.977561e-02 1.336291e-01 -8.492393e-03 1.012857e-01
<VARIANCE> 39
 2.055870e+01 2.359153e+01 4.798449e+01 4.606244e+01 4.647591e+01 1.911128e+01 5.302361e+01 3.987123e+01 2.933821e+01 7.751508e+01 5.014018e+01 2.426517e+01 2.678893e+01 8.305236e-01 1.567271e+00 2.743299e+00 1.864896e+00 1.261220e+00 1.550420e+00 1.956534e+00 2.538844e+00 1.454021e+00 2.299859e+00 2.771691e+00 1.430760e+00 1.008431e+00 1.948220e-01 1.911504e-01 3.473142e-01 2.791539e-01 2.346170e-01 2.782778e-01 3.727749e-01 4.963419e-01 2.636188e-01 4.250092e-01 4.223021e-01 2.522725e-01 1.702070e-01
<GCONST> 1.086528e+02
<STATE> 3
<NUMMIXES> 2
<MIXTURE> 1 9.771802e-01
<MEAN> 39
 1.308290e+01 -4.931498e+00 -8.059937e+00 1.806571e+01 2.686968e+01 -9.557819e-01 -2.918255e+01 -5.852249e+00 -1.236640e+01 -1.025436e+01 1.841502e+01 7.409388e+00 -3.437176e+00 -7.793099e-01 6.360510e-01 5.278920e-01 4.355519e-01 -1.820619e-01 1.019635e-01 1.818230e-01 -1.350861e+00 -1.915858e-01 4.335870e-01 -9.225037e-01 3.147413e-01 5.726320e-01 -2.256066e-01 1.858107e-01 2.547127e-01 -7.484461e-02 -2.951931e-01 4.049027e-02 3.654687e-01 1.470830e-01 2.484391e-01 2.009540e-01 -2.600026e-01 -7.344979e-02 1.209498e-01
<VARIANCE> 39
 1.675740e+01 2.077338e+01 3.234909e+01 3.191417e+01 2.659511e+01 1.941504e+01 5.289972e+01 7.776440e+01 4.153994e+01 4.029590e+01 4.368760e+01 3.334898e+01 3.450947e+01 1.504384e+00 2.089365e+00 3.178924e+00 1.789940e+00 3.998363e+00 1.744037e+00 6.145670e+00 3.239026e+00 3.147265e+00 3.202947e+00 4.574967e+00 1.639531e+00 1.509769e+00 3.268611e-01 3.659080e-01 6.271160e-01 3.051555e-01 7.918638e-01 2.941344e-01 1.304392e+00 6.994290e-01 7.303024e-01 6.441011e-01 9.233292e-01 3.206275e-01 3.142337e-01
<GCONST> 1.213861e+02
<MIXTURE> 2 2.281874e-02
<MEAN> 39
 8.743897e+00 3.617105e+00 5.262054e+00 2.576654e+01 2.043356e+01 -6.739403e+00 -2.186924e+01 5.448722e+00 -1.018090e+00 -4.927654e+00 1.332160e+01 -1.057640e-02 -1.143914e+01 -5.259727e-01 5.566223e-01 -2.080444e-02 -4.530171e-01 3.237593e-02 8.704483e-01 3.794207e-01 -1.590585e+00 -6.461107e-01 2.733240e-01 -8.188398e-01 4.827448e-01 1.051152e+00 -2.439801e-01 1.736544e-01 2.074557e-02 -3.098252e-01 -6.923921e-02 5.623559e-01 5.283573e-01 -1.860195e-01 -4.846366e-02 1.246668e-01 -2.477049e-01 1.021491e-01 3.828256e-01
<VARIANCE> 39
 5.332779e+00 1.015475e+01 1.313755e+01 1.645985e+01 2.821141e+01 1.718862e+01 4.018029e+01 3.872659e+01 5.313323e+01 3.659681e+01 2.094989e+01 2.589497e+01 1.289714e+01 3.086236e-01 3.955417e-01 4.206954e-01 9.858878e-01 1.058746e+00 1.901518e+00 2.214167e+00 2.099356e+00 1.473607e+00 1.699755e+00 1.710295e+00 1.133867e+00 1.414625e+00 5.394861e-02 9.034830e-02 1.198173e-01 1.330671e-01 2.136934e-01 3.034109e-01 4.428150e-01 2.797664e-01 3.261798e-01 3.254729e-01 2.959772e-01 2.791831e-01 1.637522e-01
<GCONST> 9.135334e+01
<STATE> 4
<NUMMIXES> 2
<MIXTURE> 1 1.000000e+00
<MEAN> 39
 1.524484e+00 3.713404e+00 3.178470e+00 1.981876e+01 2.011667e+01 1.088418e+00 -1.944051e+01 -7.336493e+00 -9.126659e+00 -4.331366e+00 1.134917e+01 7.332143e+00 2.707154e-01 -1.379118e+00 6.727920e-01 1.223389e+00 1.498843e-01 -4.495690e-01 8.105724e-01 1.735297e+00 9.008844e-01 8.642976e-01 6.920636e-01 -5.103539e-01 -1.524177e-01 2.461421e-01 4.533354e-02 -1.560564e-01 -9.245753e-02 2.954483e-03 1.415153e-01 9.651142e-02 3.366818e-02 2.350007e-01 5.275898e-02 -2.311772e-02 2.019510e-01 -1.747023e-02 -1.138852e-01
<VARIANCE> 39
 4.201970e+01 2.670909e+01 3.992216e+01 2.765307e+01 3.597331e+01 4.326205e+01 6.122734e+01 6.388910e+01 4.250999e+01 3.365641e+01 4.109695e+01 3.197325e+01 2.720736e+01 1.357565e+00 1.632656e+00 2.049176e+00 2.125551e+00 2.859813e+00 2.748924e+00 4.812498e+00 5.289591e+00 3.902997e+00 2.525524e+00 3.478661e+00 1.997034e+00 1.702948e+00 1.618556e-01 1.496970e-01 2.337671e-01 3.802718e-01 4.810458e-01 3.739766e-01 6.877632e-01 6.355532e-01 5.988336e-01 4.054351e-01 5.792002e-01 3.472179e-01 2.514653e-01
<GCONST> 1.183209e+02
<MIXTURE> 2 0.000000e+00
<MEAN> 39
 2.451241e-05 -3.945827e-05 -6.578863e-06 -7.152557e-07 -2.774596e-05 1.187921e-04 -1.449883e-05 1.633167e-05 -6.984919e-06 -4.756451e-05 -2.284069e-07 1.892447e-05 7.908791e-06 -7.654307e-09 2.645538e-08 3.352761e-08 1.137960e-07 9.124051e-09 1.990702e-07 1.084991e-07 -6.868504e-08 -1.708395e-08 1.569279e-07 2.568122e-07 2.303568e-08 -8.591451e-08 -1.363271e-02 1.440285e-03 -1.899552e-03 5.156639e-04 -4.873953e-04 -4.111854e-04 -4.649502e-04 -8.853489e-04 -2.279049e-04 -6.240061e-04 -1.173968e-04 -5.409846e-04 -2.049126e-04
<VARIANCE> 39
 9.626150e-06 2.426654e-05 3.815629e-06 1.000000e-30 1.000000e-30 1.000000e-30 2.935529e-06 1.000000e-30 1.143431e-06 1.000000e-30 1.000000e-30 1.000000e-30 1.000000e-30 1.686828e-11 1.000000e-30 1.923581e-10 1.000000e-30 1.000000e-30 2.846718e-10 1.000000e-30 1.000000e-30 2.116707e-11 1.000000e-30 1.000000e-30 1.000000e-30 8.787993e-11 8.329379e-03 3.102372e-04 3.842243e-04 2.258328e-04 2.910108e-04 3.261111e-04 3.767133e-04 3.033899e-04 2.445394e-04 2.236361e-04 1.965368e-04 1.861692e-04 1.587977e-04
<GCONST> -1.600000e+11
<STATE> 5
<NUMMIXES> 2
<MIXTURE> 1 1.000000e+00
<MEAN> 39
 -2.096422e+01 -3.544623e+00 -1.426567e+00 3.523578e+00 3.315358e+00 4.071153e+00 -3.133555e+00 3.028725e+00 -2.349196e-01 6.831365e-01 3.590341e+00 7.219100e-01 4.852455e-01 -5.708446e-01 -1.938067e-01 -1.604002e-01 -5.384406e-01 -6.015374e-01 -3.841325e-02 3.351605e-01 1.119163e-01 6.302967e-02 -6.024046e-03 -2.941960e-01 -1.753109e-01 -1.228193e-02 5.001934e-02 -9.071009e-03 -1.403978e-02 1.725893e-02 1.231732e-02 -6.961211e-02 -1.131505e-01 -7.774930e-02 -9.656142e-02 -7.837614e-02 2.523541e-02 2.106815e-02 -1.420299e-03
<VARIANCE> 39
 9.384472e+01 2.831228e+01 3.726373e+01 9.616895e+01 1.111811e+02 3.971416e+01 2.690015e+01 2.845662e+01 2.939133e+01 2.995408e+01 2.928216e+01 1.473933e+01 8.529328e+00 8.697630e-01 6.582795e-01 1.314881e+00 1.895217e+00 2.277797e+00 2.077424e+00 2.319538e+00 2.225089e+00 1.987195e+00 1.818294e+00 1.600551e+00 1.196308e+00 8.703819e-01 6.048333e-02 9.001566e-02 1.273352e-01 1.973739e-01 2.769752e-01 2.747933e-01 2.927107e-01 3.089366e-01 3.039051e-01 2.968636e-01 2.525193e-01 2.199038e-01 1.686341e-01
<GCONST> 1.021654e+02
<MIXTURE> 2 0.000000e+00
<MEAN> 39
 -1.609325e-06 -8.135103e-07 4.749745e-07 -6.807968e-07 -4.202593e-08 -3.618188e-07 2.407432e-09 2.424931e-07 1.277658e-07 -1.313165e-07 1.412118e-07 2.625166e-07 -2.114102e-07 1.533401e-01 -5.503851e-03 3.785035e-02 1.390424e-03 1.759262e-02 1.390478e-02 1.895499e-02 1.250848e-02 7.013478e-03 6.770252e-03 6.135121e-03 5.650446e-03 4.476010e-03 -1.806013e-01 2.015203e-02 -3.495460e-02 2.499425e-02 1.963463e-02 -3.039902e-02 -3.971753e-02 -2.047334e-02 -8.192796e-04 8.419420e-03 5.635804e-03 4.006127e-03 -1.858771e-03
<VARIANCE> 39
 1.000000e-30 1.000000e-30 1.000000e-30 1.000000e-30 4.588401e-10 1.000000e-30 9.299506e-14 1.000000e-30 1.959961e-10 7.395329e-10 9.354153e-10 1.000000e-30 1.000000e-30 5.519691e-01 1.833294e-02 3.783517e-02 1.655615e-02 2.303718e-02 2.295028e-02 2.466567e-02 1.928537e-02 1.440313e-02 1.338319e-02 1.233723e-02 1.081821e-02 9.576578e-03 1.242094e-01 1.541650e-02 1.599239e-02 1.925049e-02 2.621124e-02 3.162269e-02 3.145853e-02 1.910103e-02 1.752691e-02 1.237346e-02 1.492543e-02 9.388872e-03 1.088586e-02
<GCONST> -8.000000e+10
<STATE> 6
<NUMMIXES> 2
<MIXTURE> 1 1.000000e+00
<MEAN> 39
 -9.171433e+00 2.245603e+00 7.987007e+00 1.603174e+01 1.657332e+01 1.128631e+01 -1.246124e+00 8.293340e+00 2.091146e+00 2.163531e+00 9.935443e+00 3.909544e+00 -3.355279e-01 -7.810708e-01 -8.172605e-02 2.759218e-01 -2.888616e-01 -3.564772e-01 4.914804e-01 9.593183e-01 5.413775e-01 3.292729e-01 1.784835e-01 -2.738480e-01 -1.716115e-01 4.381166e-02 7.691404e-02 -6.661884e-02 -1.403693e-01 -7.559124e-02 -8.513363e-02 -2.519836e-01 -3.386737e-01 -2.714860e-01 -2.569984e-01 -2.360655e-01 -9.842794e-02 -3.017075e-02 3.111701e-02
<VARIANCE> 39
 9.838613e+01 6.295838e+01 6.117676e+01 1.009653e+02 7.712971e+01 5.714490e+01 7.458858e+01 6.711637e+01 6.481265e+01 6.942574e+01 3.616957e+01 2.376218e+01 1.986870e+01 1.435881e+00 8.930788e-01 1.732547e+00 2.306452e+00 2.411943e+00 2.258759e+00 2.287272e+00 2.497444e+00 1.863030e+00 1.920642e+00 2.040935e+00 1.275097e+00 9.236199e-01 7.866424e-02 1.200100e-01 1.405666e-01 1.923527e-01 2.866496e-01 2.667590e-01 2.975440e-01 3.725685e-01 2.687370e-01 2.353904e-01 2.775320e-01 1.842376e-01 1.335723e-01
<GCONST> 1.106369e+02
<MIXTURE> 2 0.000000e+00
<MEAN> 39
 0.000000e+00 0.000000e+00 0.000000e+00 0.000000e+00 0.000000e+00 0.000000e+00 0.000000e+00 0.000000e+00 0.000000e+00 0.000000e+00 0.000000e+00 0.000000e+00 0.000000e+00 4.237878e-23 -3.786909e-23 1.582470e-23 -1.329638e-24 3.023070e-24 -8.363062e-24 6.443591e-24 -1.243620e-24 4.356885e-25 -2.915257e-24 3.233656e-24 -1.075627e-24 3.332135e-26 -1.259776e-01 9.946360e-03 -3.100975e-02 6.726459e-03 -2.000426e-04 -2.277133e-02 -2.668727e-02 -1.526267e-02 -5.181108e-03 1.760355e-04 -1.211648e-03 -1.074032e-03 -3.869191e-03
<VARIANCE> 39
 1.000000e-30 1.000000e-30 1.000000e-30 1.000000e-30 1.000000e-30 1.000000e-30 1.000000e-30 1.000000e-30 1.000000e-30 1.000000e-30 1.000000e-30 1.000000e-30 1.000000e-30 5.779452e-23 4.550961e-23 7.666999e-24 4.672506e-26 3.242006e-25 2.289604e-24 1.269824e-24 4.119810e-26 1.051707e-26 3.016532e-25 3.258485e-25 3.081342e-26 3.416759e-28 8.857191e-02 9.054033e-03 1.131149e-02 9.210194e-03 1.184606e-02 1.578277e-02 1.645681e-02 1.080695e-02 9.119515e-03 6.624663e-03 7.254379e-03 5.319290e-03 5.618778e-03
<GCONST> -1.300000e+11
<TRANSP> 7
 0.000000e+00 1.000000e+00 0.000000e+00 0.000000e+00 0.000000e+00 0.000000e+00 0.000000e+00
 0.000000e+00 9.166461e-01 8.335385e-02 0.000000e+00 0.000000e+00 0.000000e+00 0.000000e+00
 0.000000e+00 0.000000e+00 8.562471e-01 1.437528e-01 0.000000e+00 0.000000e+00 0.000000e+00
 0.000000e+00 0.000000e+00 0.000000e+00 8.866556e-01 1.133444e-01 0.000000e+00 0.000000e+00
 0.000000e+00 0.000000e+00 0.000000e+00 0.000000e+00 8.642504e-01 1.357496e-01 0.000000e+00
 0.000000e+00 0.000000e+00 0.000000e+00 0.000000e+00 0.000000e+00 6.054917e-01 3.945083e-01
 0.000000e+00 0.000000e+00 0.000000e+00 0.000000e+00 0.000000e+00 0.000000e+00 0.000000e+00
<ENDHMM>
~h "ii"
<BEGINHMM>
<NUMSTATES> 7
<STATE> 2
<NUMMIXES> 2
<MIXTURE> 1 3.592590e-01
<MEAN> 39
 2.626664e+00 -1.634436e+01 1.858716e+01 2.627507e+01 1.507950e+01 1.297507e+01 -1.005334e+01 2.484501e+00 -1.632927e+00 -3.831226e+00 6.122520e+00 -7.028929e+00 -3.879771e+00 3.178505e+00 2.584238e+00 1.692531e-01 2.990038e+00 2.986260e+00 -1.252310e+00 -3.051850e+00 -9.843786e-01 8.997059e-01 -2.026363e+00 -1.697077e+00 -3.033858e-01 -2.065923e+00 -2.112756e-01 -6.238720e-01 -7.611353e-01 -3.174969e-01 3.342063e-01 -4.455037e-01 -9.929026e-01 -4.836986e-02 -2.284899e-01 -8.383508e-01 4.080839e-03 1.795413e-01 -4.420766e-01
<VARIANCE> 39
 2.295922e+01 5.785266e+01 9.180553e+01 8.343627e+01 3.017805e+01 1.213690e+02 3.911582e+01 9.071667e+01 4.165681e+01 5.188631e+01 2.559818e+01 2.295234e+01 1.834355e+01 1.425453e+00 3.408327e+00 3.534377e+00 4.577132e+00 2.796278e+00 3.114956e+00 3.841425e+00 2.832181e+00 3.272063e+00 3.998355e+00 2.516377e+00 2.050834e+00 1.891734e+00 2.580445e-01 3.950351e-01 3.792205e-01 4.827740e-01 4.182262e-01 3.772445e-01 4.906250e-01 5.116760e-01 5.795982e-01 5.571108e-01 4.300000e-01 3.446260e-01 2.471755e-01
<GCONST> 1.232748e+02
<MIXTURE> 2 6.407400e-01
<MEAN> 39
 1.068713e+01 -1.173721e+01 1.257943e+01 3.264547e+01 2.565200e+01 5.272866e+00 -2.263952e+01 2.162368e+00 -1.668918e+00 -1.560200e+01 4.229857e+00 -5.005514e+00 -1.234225e+01 1.108980e+00 -3.506275e-01 -9.009007e-01 1.127813e+00 2.490707e+00 -1.387837e+00 -3.520481e+00 2.457180e-01 3.220025e-01 -2.481237e+00 1.261525e-01 6.006380e-01 -2.005193e+00 -4.257576e-01 -2.513660e-01 3.814086e-02 -4.642758e-01 -3.744176e-01 9.831592e-02 3.343174e-01 3.517941e-01 1.031401e-01 2.278129e-01 1.811883e-01 8.972184e-02 2.308379e-01
<VARIANCE> 39
 1.074679e+01 2.712186e+01 6.628937e+01 4.612844e+01 3.549592e+01 5.149205e+01 4.168784e+01 5.490577e+01 4.123921e+01 3.873927e+01 4.381994e+01 2.047832e+01 2.079590e+01 7.024661e-01 2.011220e+00 2.095347e+00 2.147181e+00 2.295685e+00 2.323352e+00 3.245168e+00 2.926138e+00 2.434860e+00 2.562780e+00 2.444695e+00 1.629299e+00 1.719970e+00 1.259142e-01 2.779484e-01 2.801089e-01 3.484860e-01 3.401127e-01 2.177799e-01 3.949365e-01 3.250499e-01 2.946427e-01 3.427456e-01 3.252004e-01 2.314045e-01 2.368334e-01
<GCONST> 1.107096e+02
<STATE> 3
<NUMMIXES> 2
<MIXTURE> 1 1.000000e+00
<MEAN> 39
 1.340641e+01 -1.246983e+01 8.308924e+00 3.069449e+01 3.030994e+01 4.512350e-01 -3.074035e+01 6.980775e+00 -3.657196e+00 -2.304873e+01 9.486687e+00 -2.236848e+00 -1.687074e+01 -2.152345e-02 -4.789742e-01 1.913329e-01 2.172105e-01 8.516167e-01 -4.546784e-01 -1.568305e+00 4.325782e-01 5.909642e-01 -7.568132e-01 -3.893387e-02 3.551882e-02 -8.666801e-01 -2.187693e-01 1.778144e-01 1.707657e-01 -1.580118e-01 -4.060961e-01 1.591749e-01 6.055670e-01 -1.189534e-01 6.268635e-02 4.475401e-01 -2.663479e-01 -1.328745e-01 3.445409e-01
<VARIANCE> 39
 1.006493e+01 1.806389e+01 5.579208e+01 5.276969e+01 3.720837e+01 2.970908e+01 3.758183e+01 3.914989e+01 5.908856e+01 3.382257e+01 7.330167e+01 1.404157e+01 2.463926e+01 4.980833e-01 8.415727e-01 1.419539e+00 1.164082e+00 1.009974e+00 1.156340e+00 1.988627e+00 1.645007e+00 9.759021e-01 1.695218e+00 1.485498e+00 1.018495e+00 9.329215e-01 7.058577e-02 1.127478e-01 1.169596e-01 1.680729e-01 2.042180e-01 1.389964e-01 3.310411e-01 2.785267e-01 1.736065e-01 3.057075e-01 2.473311e-01 1.537224e-01 1.777410e-01
<GCONST> 9.609040e+01
<MIXTURE> 2 0.000000e+00
<MEAN> 39
 -2.208270e+00 -4.924166e+00 1.908871e+01 1.414313e+01 1.305121e+01 -2.550124e+01 -8.712596e+00 3.256981e+00 -1.020494e+01 -1.600216e+01 -1.043865e+01 -7.724840e+00 -3.884650e+00 -3.069684e-02 5.741307e-02 2.626543e-02 -1.140945e-02 -5.099841e-03 1.462645e-03 -7.175154e-02 2.450622e-02 1.508959e-02 -8.209687e-02 -2.880517e-02 4.053793e-02 1.540386e-02 4.400872e-03 3.426807e-02 -3.873229e-02 -2.918413e-02 4.017396e-02 7.009056e-02 -1.632413e-02 -6.592760e-02 5.973514e-02 5.484207e-02 -7.151864e-03 -6.910361e-03 -2.705606e-03
<VARIANCE> 39
 5.265318e+00 3.126786e+01 2.337614e+01 3.727947e+01 3.152877e+01 2.943056e+01 3.225301e+01 2.729765e+01 2.195340e+01 2.848150e+01 2.092086e+01 3.419135e+01 3.785925e+01 6.421357e-02 2.003726e-01 3.487247e-01 3.611105e-01 4.247755e-01 4.733264e-01 5.225756e-01 5.518345e-01 5.403954e-01 5.455791e-01 4.727846e-01 4.464683e-01 3.817663e-01 9.004888e-03 2.605502e-02 4.109941e-02 5.433235e-02 6.215053e-02 8.339533e-02 8.227700e-02 8.697993e-02 9.257926e-02 8.818587e-02 8.279812e-02 7.263009e-02 6.514387e-02
<GCONST> 6.347967e+01
<STATE> 4
<NUMMIXES> 2
<MIXTURE> 1 6.456329e-01
<MEAN> 39
 1.147989e+01 -1.351496e+01 1.235180e+01 3.238395e+01 3.055624e+01 3.620241e-01 -3.412729e+01 5.851778e+00 2.415609e+00 -2.310660e+01 3.961420e+00 -2.027477e+00 -1.675704e+01 -6.076923e-02 9.202666e-02 5.955580e-02 8.609964e-02 4.890234e-02 -1.218114e-01 -5.515841e-02 -2.725614e-02 1.468409e-01 6.872976e-02 -2.163857e-01 -1.139740e-01 -2.979715e-02 1.169269e-02 7.508136e-02 -4.893886e-02 4.879398e-02 -5.048297e-02 2.402745e-02 2.100348e-01 -3.909395e-02 -1.047872e-01 1.216862e-01 5.279209e-03 -6.615396e-02 7.613040e-02
<VARIANCE> 39
 4.750824e+00 1.178846e+01 2.304342e+01 2.230469e+01 2.282249e+01 1.954914e+01 2.134843e+01 2.104895e+01 2.795681e+01 2.118691e+01 2.398973e+01 8.884530e+00 1.799462e+01 3.322879e-01 3.688542e-01 6.621317e-01 7.313012e-01 7.106577e-01 7.633492e-01 1.230549e+00 9.676669e-01 8.709781e-01 1.052275e+00 9.648438e-01 5.646284e-01 7.224926e-01 5.239738e-02 6.615280e-02 7.381301e-02 9.953573e-02 1.080205e-01 1.127224e-01 2.041940e-01 1.421399e-01 1.096700e-01 1.865755e-01 1.315433e-01 9.884263e-02 1.060856e-01
<GCONST> 7.550706e+01
<MIXTURE> 2 3.543634e-01
<MEAN> 39
 1.030439e+01 -9.592705e+00 1.621186e+01 3.455016e+01 2.460117e+01 6.831403e-01 -2.710532e+01 3.738637e+00 8.681431e+00 -1.666689e+01 -6.667698e+00 -6.062481e+00 -1.252493e+01 -2.810039e-02 2.667136e-01 -1.054506e-01 3.602732e-02 1.467250e-02 -2.457079e-01 1.407494e-01 7.569963e-02 -7.721145e-03 7.574046e-02 -2.315786e-01 -1.637231e-01 8.355074e-02 2.295241e-02 -1.910412e-02 -2.520308e-02 -5.271668e-03 5.994213e-02 6.232113e-02 -2.324614e-02 2.460487e-02 -1.081644e-01 -3.751428e-02 1.555173e-01 -6.082274e-03 -2.830378e-02
<VARIANCE> 39
 3.404691e+00 1.483854e+01 1.542301e+01 1.928356e+01 1.216484e+01 3.184725e+01 4.580024e+01 3.957896e+01 1.645163e+01 2.666545e+01 2.533763e+01 1.679153e+01 2.060430e+01 1.928760e-01 4.622598e-01 5.022606e-01 9.659155e-01 6.850604e-01 1.071943e+00 1.451102e+00 1.239785e+00 8.987943e-01 1.176823e+00 9.645688e-01 8.822591e-01 7.609385e-01 3.557863e-02 6.832594e-02 7.828475e-02 1.430885e-01 1.164385e-01 1.411868e-01 2.014090e-01 1.560714e-01 1.456519e-01 1.877701e-01 1.294944e-01 1.366232e-01 1.366534e-01
<GCONST> 7.897553e+01
<STATE> 5
<NUMMIXES> 2
<MIXTURE> 1 5.214171e-01
<MEAN> 39
 1.222926e+01 -1.329603e+01 8.567846e+00 3.272551e+01 3.552977e+01 3.613494e-03 -3.390430e+01 1.027114e+01 -4.898291e+00 -2.551101e+01 1.192388e+01 -4.581654e+00 -2.056337e+01 -1.132934e-01 4.002252e-01 -4.646481e-02 3.187512e-01 -3.880507e-02 1.559803e-01 7.041064e-01 -3.574526e-01 -8.280184e-02 4.752475e-01 -3.009099e-01 -1.007043e-01 1.141705e-01 -7.020615e-02 2.153866e-01 -6.819193e-02 -8.732978e-02 -2.742281e-01 -7.384534e-03 4.594759e-01 -1.991003e-01 4.575646e-02 3.582224e-01 -2.439709e-01 3.301697e-02 2.439840e-01
<VARIANCE> 39
 5.982059e+00 1.181490e+01 2.253436e+01 4.573186e+01 2.849065e+01 2.645373e+01 3.009904e+01 3.123680e+01 4.300541e+01 2.220074e+01 4.318017e+01 1.353978e+01 2.269162e+01 3.918320e-01 5.148069e-01 8.288365e-01 1.023208e+00 1.296896e+00 9.680529e-01 2.499769e+00 1.759467e+00 1.175690e+00 1.869658e+00 1.667721e+00 8.060828e-01 9.140251e-01 5.770361e-02 8.605562e-02 9.424537e-02 1.580635e-01 2.038685e-01 1.275436e-01 3.276356e-01 2.387003e-01 1.792938e-01 2.759115e-01 2.243682e-01 1.230394e-01 1.493829e-01
<GCONST> 8.942820e+01
<MIXTURE> 2 4.785826e-01
<MEAN> 39
 1.171927e+01 -8.277401e+00 8.945699e+00 3.619062e+01 2.932757e+01 -3.937301e+00 -2.469658e+01 4.774194e+00 1.336254e+00 -1.577610e+01 -1.521439e+00 -6.727126e+00 -1.480376e+01 7.459942e-02 2.575030e-01 -2.441192e-01 1.225459e-01 4.728026e-02 -1.213881e-01 2.967590e-01 2.095179e-02 -2.873836e-01 1.496014e-01 1.414073e-02 -1.624219e-01 3.602316e-02 3.134734e-02 -1.076685e-02 3.107154e-02 -4.952088e-02 1.956049e-02 1.260692e-01 -7.751992e-02 4.634579e-02 -6.394019e-02 -9.930769e-02 1.489843e-01 4.161293e-02 -2.094373e-02
<VARIANCE> 39
 4.973654e+00 1.532171e+01 1.334167e+01 2.281959e+01 1.922864e+01 2.270346e+01 2.878029e+01 2.401143e+01 2.739505e+01 2.148456e+01 5.734301e+01 1.847040e+01 3.426165e+01 2.406540e-01 3.815902e-01 5.997777e-01 9.075056e-01 7.863358e-01 6.677081e-01 1.263906e+00 9.254340e-01 7.810051e-01 9.264956e-01 9.627686e-01 7.339839e-01 5.889539e-01 4.597626e-02 5.249364e-02 6.740360e-02 1.261975e-01 1.138031e-01 9.397400e-02 1.868756e-01 1.440413e-01 8.786451e-02 1.484901e-01 1.388737e-01 9.642525e-02 9.242544e-02
<GCONST> 7.655909e+01
<STATE> 6
<NUMMIXES> 2
<MIXTURE> 1 4.807599e-01
<MEAN> 39
 -7.293219e+00 2.598621e+00 8.911039e+00 1.590980e+01 1.243756e+01 6.255652e+00 -5.419391e+00 4.423834e+00 6.756794e-01 -2.309892e+00 -8.179221e-01 -4.138337e+00 -2.917622e+00 -1.506626e+00 5.138007e-01 2.048029e-01 -1.385863e+00 -1.097516e+00 7.330844e-01 1.307840e+00 2.078223e-01 8.919373e-02 7.343387e-01 1.711391e-01 3.677452e-01 6.462019e-01 3.095245e-02 -2.767317e-01 -6.489210e-02 1.080484e-01 1.095665e-01 -9.679890e-02 -2.296165e-01 -2.310119e-02 -9.525939e-02 -1.890635e-01 1.198481e-01 6.491982e-03 -1.827025e-01
<VARIANCE> 39
 1.567807e+02 9.705509e+01 1.019675e+02 1.704701e+02 1.223462e+02 7.487244e+01 4.587283e+01 4.951021e+01 5.151657e+01 3.533566e+01 3.330927e+01 2.949772e+01 2.529331e+01 1.283024e+00 2.804538e+00 1.921202e+00 2.375807e+00 2.042722e+00 1.636179e+00 2.393319e+00 1.710162e+00 1.826514e+00 1.891210e+00 1.674523e+00 1.370780e+00 1.564244e+00 8.411715e-02 1.822128e-01 1.764323e-01 2.417570e-01 2.548574e-01 1.707394e-01 2.404402e-01 2.433986e-01 2.609340e-01 2.884454e-01 2.448737e-01 1.827163e-01 2.157370e-01
<GCONST> 1.129483e+02
<MIXTURE> 2 5.192385e-01
<MEAN> 39
 1.018973e+01 -5.505283e+00 9.439420e+00 3.383212e+01 2.808239e+01 1.292041e-01 -2.176741e+01 4.174959e+00 -5.976977e-01 -1.395146e+01 1.004204e+00 -6.708142e+00 -1.358809e+01 -6.555374e-01 1.707356e+00 9.269148e-02 -1.054058e+00 -1.315499e+00 7.483705e-01 2.370105e+00 -2.501759e-01 1.309895e-01 1.754963e+00 -7.577202e-01 -1.667629e-01 1.374314e+00 -1.822482e-01 1.743758e-01 1.815159e-01 -2.614236e-01 -1.807522e-01 1.740649e-01 1.499186e-01 1.190855e-01 1.447531e-01 6.923985e-02 -6.507611e-02 6.357986e-02 1.781239e-01
<VARIANCE> 39
 1.212176e+01 3.571087e+01 3.037551e+01 3.705243e+01 3.406411e+01 5.282266e+01 4.569524e+01 5.294607e+01 3.870754e+01 4.082904e+01 4.063401e+01 2.792296e+01 2.571212e+01 5.627807e-01 1.711849e+00 1.105055e+00 1.789796e+00 1.828540e+00 1.493590e+00 2.862806e+00 1.970465e+00 1.884240e+00 2.159338e+00 1.755020e+00 9.870716e-01 1.406570e+00 6.115706e-02 1.496439e-01 1.461113e-01 2.549794e-01 2.661810e-01 1.753850e-01 3.046640e-01 2.494578e-01 2.220876e-01 2.745738e-01 1.953920e-01 1.624676e-01 1.724206e-01
<GCONST> 1.017498e+02
<TRANSP> 7
 0.000000e+00 1.000000e+00 0.000000e+00 0.000000e+00 0.000000e+00 0.000000e+00 0.000000e+00
 0.000000e+00 7.271217e-01 2.728783e-01 0.000000e+00 0.000000e+00 0.000000e+00 0.000000e+00
 0.000000e+00 0.000000e+00 6.520683e-01 3.479318e-01 0.000000e+00 0.000000e+00 0.000000e+00
 0.000000e+00 0.000000e+00 0.000000e+00 8.771223e-01 1.228777e-01 0.000000e+00 0.000000e+00
 0.000000e+00 0.000000e+00 0.000000e+00 0.000000e+00 8.423108e-01 1.576892e-01 0.000000e+00
 0.000000e+00 0.000000e+00 0.000000e+00 0.000000e+00 0.000000e+00 8.576904e-01 1.423096e-01
 0.000000e+00 0.000000e+00 0.000000e+00 0.000000e+00 0.000000e+00 0.000000e+00 0.000000e+00
<ENDHMM>
~h "jh"
<BEGINHMM>
<NUMSTATES> 5
<STATE> 2
<NUMMIXES> 2
<MIXTURE> 1 4.439927e-01
<MEAN> 39
 1.076779e+01 2.387833e+00 6.882355e+00 2.061911e+01 1.310649e+01 6.795632e+00 2.717811e+00 9.329173e+00 -1.274442e+01 -1.689005e+01 1.680111e+00 8.670189e-02 -3.757797e-01 -1.961840e+00 1.710842e+00 2.884617e+00 4.447530e-01 -1.305771e+00 2.201280e+00 1.832923e+00 -1.462832e+00 1.486858e+00 1.638092e+00 -2.402202e+00 -1.925586e-01 1.402631e+00 -2.801483e-01 -6.077868e-01 6.196507e-01 -6.581167e-02 -3.445743e-01 2.602395e-01 -4.115034e-01 -1.989020e-01 4.487323e-01 2.038217e-01 3.247616e-01 -5.006170e-02 -2.351221e-01
<VARIANCE> 39
 1.435653e+01 5.801209e+01 3.267647e+01 2.325504e+01 1.036571e+01 1.701048e+01 2.650190e+01 1.979186e+01 6.916395e+01 3.575719e+01 1.016829e+02 1.139009e+01 2.595871e+01 6.194336e-01 2.254628e+00 2.122168e+00 1.077971e+00 1.486657e+00 1.772869e+00 2.283364e+00 1.603843e+00 4.605990e+00 3.904451e+00 3.866671e+00 5.509925e-01 1.548959e+00 3.510667e-02 9.801543e-01 1.465554e-01 2.134174e-01 1.796210e-01 2.149605e-01 4.440441e-01 3.719872e-01 9.387433e-01 5.954495e-01 7.131388e-01 9.504732e-02 4.942760e-01
<GCONST> 1.062396e+02
<MIXTURE> 2 5.560076e-01
<MEAN> 39
 2.456560e-01 -5.688092e-01 2.455755e+01 2.331141e+01 5.731473e+00 1.748512e+01 4.441547e+00 3.196008e+00 -2.555576e+00 -1.038873e+01 -3.770103e+00 -1.565101e+00 3.832594e-01 -2.731409e+00 -4.965621e+00 3.593808e+00 5.664328e-01 -2.358746e+00 1.221116e+00 -5.030385e-01 9.536224e-01 2.187950e+00 -3.840282e-01 1.541859e+00 7.779208e-01 -1.074356e+00 -9.883527e-03 -1.438206e+00 -3.545064e-01 -1.605159e-01 -2.781698e-01 -6.520302e-01 -3.626564e-01 7.523932e-01 -3.680121e-02 -4.509118e-01 7.324423e-01 5.000896e-01 -3.747615e-02
<VARIANCE> 39
 1.700240e+01 6.714034e+01 3.878786e+01 1.953956e+01 1.288384e+01 2.009234e+01 1.336223e+01 1.212101e+01 4.208518e+01 2.879000e+01 2.438071e+01 1.347601e+01 1.797212e+01 8.076878e-01 6.364647e+00 1.942075e+00 1.319104e+00 1.036006e+00 4.176610e+00 1.794343e+00 3.332128e+00 1.428274e+00 3.124359e+00 2.091293e+00 1.622005e+00 1.145042e+00 1.258627e-01 4.874697e-01 3.081973e-01 3.669307e-01 1.223745e-01 6.455729e-01 3.162090e-01 3.780274e-01 2.845314e-01 2.603630e-01 2.749070e-01 2.049375e-01 3.322852e-01
<GCONST> 1.042446e+02
<STATE> 3
<NUMMIXES> 2
<MIXTURE> 1 2.981960e-01
<MEAN> 39
 -8.428655e+00 -2.522670e+01 3.286047e+01 2.202874e+01 -5.561660e+00 1.585346e+01 1.892776e+00 1.131663e+01 4.201603e+00 -1.285305e+01 5.497878e+00 4.649147e+00 -2.252062e+00 -1.821724e+00 -6.709418e+00 1.497212e+00 -1.134398e+00 -2.938005e+00 -7.059008e-01 -1.717030e+00 1.501094e+00 8.626329e-01 -9.297177e-01 2.178642e+00 1.851234e+00 2.842821e-01 5.350813e-01 9.631143e-01 -6.627028e-01 -2.387368e-01 6.681672e-01 1.692313e-01 -3.525013e-01 -8.329253e-01 -8.325600e-01 2.590634e-01 -3.382692e-01 -3.881785e-01 4.753828e-01
<VARIANCE> 39
 1.856563e+01 6.632793e+01 1.766460e+01 3.610873e+01 2.407374e+01 3.846413e+01 1.222801e+01 9.106009e+00 2.270210e+01 3.695502e+01 1.156168e+01 1.078142e+01 8.216822e+00 9.957885e-01 1.292590e+00 1.449770e+00 2.909251e+00 1.321001e+00 2.603569e+00 9.817424e-01 1.737414e+00 2.993555e+00 3.079791e+00 1.767739e+00 1.528295e+00 7.369280e-01 1.044118e-01 3.744274e-01 4.287877e-01 4.068583e-01 3.262439e-01 6.104823e-01 1.549586e-01 1.983697e-01 2.139946e-01 5.319138e-01 1.813434e-01 2.034866e-01 7.284146e-02
<GCONST> 9.865373e+01
<MIXTURE> 2 7.018039e-01
<MEAN> 39
 -1.327026e+01 -3.958311e+01 3.106181e+01 1.459090e+01 -8.671358e+00 1.383444e+01 -6.813835e+00 8.288362e+00 2.119512e-01 -1.129382e+01 9.363783e+00 6.292973e+00 1.041472e+00 -3.880662e-02 -1.083705e+00 -2.205981e-01 -3.180387e-01 5.896991e-02 3.482793e-03 -7.894768e-01 -6.031936e-01 -6.305301e-01 2.246053e-01 2.282308e-01 -1.478460e-01 1.968451e-01 4.012017e-01 8.697800e-01 -2.873178e-01 1.188088e-01 3.731899e-01 1.703341e-03 2.526665e-01 -1.719536e-01 -7.216904e-02 1.062747e-01 -4.082663e-01 -2.695532e-01 -9.352626e-02
<VARIANCE> 39
 2.920819e+01 1.024864e+02 3.214408e+01 6.397249e+01 1.429582e+01 2.315240e+01 2.303527e+01 1.050371e+01 2.919465e+01 4.468644e+01 1.416044e+01 1.138995e+01 1.168513e+01 1.195385e+00 4.041801e+00 1.735517e+00 2.675348e+00 1.157716e+00 1.896563e+00 2.673876e+00 1.440372e+00 1.429129e+00 3.198886e+00 1.981654e+00 1.081993e+00 6.452244e-01 1.476398e-01 5.703269e-01 4.764165e-01 2.548425e-01 3.939007e-01 2.744664e-01 1.450038e-01 3.401993e-01 2.677721e-01 5.811395e-01 3.768943e-01 2.442487e-01 1.117647e-01
<GCONST> 1.041520e+02
<STATE> 4
<NUMMIXES> 2
<MIXTURE> 1 9.425584e-01
<MEAN> 39
 1.623200e+00 -2.442689e+01 2.358859e+01 2.216309e+01 2.350303e+00 1.835637e+01 -5.552835e+00 2.294615e+00 -2.634541e-01 -1.290811e+01 6.406500e+00 4.434257e+00 -2.003523e+00 1.769069e+00 2.601811e+00 -2.102611e+00 2.002932e-02 1.564711e+00 -5.905740e-01 -3.526407e-01 -2.072837e-01 -2.145354e-01 3.755297e-01 -8.223407e-03 1.670010e-03 1.081225e-01 -1.703704e-02 1.283798e-01 -1.428084e-01 -8.636100e-02 -1.949355e-02 -3.019099e-01 -1.008965e-01 2.629131e-01 4.228746e-02 -1.399809e-02 1.448935e-01 3.716315e-02 2.275790e-02
<VARIANCE> 39
 5.262019e+01 1.191376e+02 6.749852e+01 5.868685e+01 8.288183e+01 4.301308e+01 2.536299e+01 4.517726e+01 2.700398e+01 3.506942e+01 1.192932e+01 2.724612e+01 3.003585e+01 7.376225e-01 2.443989e+00 3.478187e+00 3.458925e+00 2.475924e+00 2.876021e+00 1.884478e+00 2.165517e+00 1.792053e+00 2.380570e+00 1.562918e+00 1.382281e+00 1.647199e+00 7.909388e-02 4.150917e-01 1.886110e-01 2.806854e-01 1.547091e-01 2.291382e-01 1.897182e-01 2.267316e-01 2.960561e-01 3.026455e-01 1.817480e-01 1.789307e-01 1.234121e-01
<GCONST> 1.083622e+02
<MIXTURE> 2 5.744155e-02
<MEAN> 39
 -1.027250e+01 -4.749699e+01 2.460014e+01 8.897943e+00 -7.896670e+00 1.196729e+01 -1.391085e+01 -2.208713e+00 1.596858e+00 -5.419078e+00 5.168362e+00 -1.796392e-01 -4.523703e-02 1.539983e+00 -1.889878e-01 -1.570911e+00 -4.227018e-01 1.339400e+00 4.176123e-01 -5.006240e-01 -9.315919e-01 -1.512765e+00 -1.668567e-01 7.680149e-01 -1.132650e+00 -2.316601e-01 1.312068e-01 7.112408e-01 3.351559e-01 8.048996e-01 7.172806e-01 8.666921e-01 7.160521e-01 5.732755e-01 2.954035e-01 1.380308e-01 5.701957e-01 3.927575e-01 -1.128505e-01
<VARIANCE> 39
 2.799866e+00 4.245181e+00 3.185116e+00 2.677320e+00 3.951324e+00 4.452056e+00 1.100474e+00 7.650637e-02 3.918183e+00 9.268267e+00 2.374366e+01 2.479414e+00 7.710903e+00 2.866782e-01 3.903814e-01 4.504162e-01 1.707829e+00 1.096611e+00 1.393210e+00 1.036560e+00 3.334705e-01 1.922969e-01 3.415961e-01 8.947918e-01 7.090271e-01 5.390996e-04 2.018957e-02 1.703870e-02 6.711178e-02 3.987603e-02 7.690731e-02 4.792008e-02 1.897420e-03 2.276346e-02 2.142768e-02 1.341599e-01 2.196654e-01 4.581377e-03 6.287451e-02
<GCONST> 2.753323e+01
<TRANSP> 5
 0.000000e+00 1.000000e+00 0.000000e+00 0.000000e+00 0.000000e+00
 0.000000e+00 8.464519e-01 1.535480e-01 0.000000e+00 0.000000e+00
 0.000000e+00 0.000000e+00 8.623960e-01 1.376040e-01 0.000000e+00
 0.000000e+00 0.000000e+00 0.000000e+00 8.276763e-01 1.723237e-01
 0.000000e+00 0.000000e+00 0.000000e+00 0.000000e+00 0.000000e+00
<ENDHMM>
~h "kh"
<BEGINHMM>
<NUMSTATES> 5
<STATE> 2
<NUMMIXES> 2
<MIXTURE> 1 3.728518e-01
<MEAN> 39
 -2.638117e+01 -6.559729e+00 -5.165055e+00 -2.768818e+00 -3.206215e+00 1.158621e+00 -3.533381e+00 1.425902e+00 -1.345171e+00 -5.738197e-01 3.278160e-01 -1.374929e+00 -4.801895e-02 1.346808e-01 -2.968360e-01 -2.588610e-01 1.005665e-01 1.636484e-01 -6.549922e-02 -1.232785e-01 -1.604205e-03 -1.365917e-01 -3.616127e-01 -1.522302e-01 1.855180e-01 1.830055e-01 2.139529e-01 -3.402961e-02 -4.257773e-02 5.649400e-02 7.446901e-02 2.727040e-02 3.079627e-02 1.773074e-01 1.299416e-02 -8.323059e-02 -7.297644e-03 6.609629e-02 1.233628e-01
<VARIANCE> 39
 8.193401e-01 2.126403e+00 2.033454e+00 3.349636e+00 4.666563e+00 7.544590e+00 7.005202e+00 6.503436e+00 1.358075e+01 1.184838e+01 7.822994e+00 8.605595e+00 7.031260e+00 3.090464e-01 4.935043e-01 4.528268e-01 5.948049e-01 1.017714e+00 1.199559e+00 1.066057e+00 1.415510e+00 1.509788e+00 1.823519e+00 1.428835e+00 9.966772e-01 1.032767e+00 1.001604e-01 1.242358e-01 1.283464e-01 1.243301e-01 2.041741e-01 2.867158e-01 1.912657e-01 3.034847e-01 3.050550e-01 3.653733e-01 3.187698e-01 2.292404e-01 2.363432e-01
<GCONST> 7.112733e+01
<MIXTURE> 2 6.271484e-01
<MEAN> 39
 -4.165566e+00 4.138334e+00 5.505863e+00 1.769306e+01 1.730975e+01 7.181815e+00 -6.636374e+00 3.355063e+00 -3.544684e-01 -2.449936e+00 4.949084e-01 -2.066187e+00 -9.504963e-01 -2.396902e+00 -8.016847e-01 -6.711516e-01 -1.727886e+00 -1.405718e+00 9.930442e-01 1.452468e+00 -5.941566e-01 -6.047989e-01 -2.945569e-02 -8.231959e-01 1.547018e-01 1.225681e+00 1.380899e-01 -9.839206e-01 -6.590583e-01 -3.846448e-01 -2.277635e-01 -4.848015e-02 -1.741851e-01 -2.828422e-02 -3.411910e-01 -3.507810e-01 2.918947e-01 -1.336016e-01 -2.160030e-01
<VARIANCE> 39
 5.078579e+01 2.430171e+01 1.930198e+01 4.894436e+01 7.154825e+01 2.575017e+01 3.648738e+01 3.047211e+01 2.999278e+01 3.218402e+01 2.759023e+01 2.401101e+01 2.190059e+01 1.229130e+00 3.635454e+00 1.743220e+00 1.718433e+00 2.334126e+00 2.664410e+00 3.773251e+00 2.082562e+00 2.424897e+00 2.522130e+00 2.045035e+00 1.210935e+00 2.195464e+00 1.370217e-01 3.450458e-01 2.588877e-01 3.317560e-01 4.424571e-01 3.171268e-01 3.104143e-01 3.500027e-01 4.566633e-01 3.550036e-01 3.584260e-01 2.062453e-01 3.400713e-01
<GCONST> 1.114285e+02
<STATE> 3
<NUMMIXES> 2
<MIXTURE> 1 3.971885e-01
<MEAN> 39
 -1.188312e+01 -5.366477e+00 -2.536457e+00 9.033163e+00 1.099478e+01 9.397947e+00 -1.789355e+00 4.119072e+00 -1.676343e+00 -4.000651e+00 -1.753098e+00 -2.247827e+00 2.803603e+00 8.393002e-02 -3.672645e+00 -3.126269e+00 -2.833324e+00 -2.567377e+00 -6.491048e-01 -2.158736e-01 -1.068587e-01 -6.311358e-01 -1.390406e-01 7.040393e-01 -3.130627e-01 6.413622e-01 9.438834e-01 -2.677159e-01 -5.573995e-02 -1.465128e-01 -3.185400e-01 -4.124455e-01 -8.033472e-01 -3.559315e-01 -4.663544e-01 -9.273443e-02 8.187984e-01 -1.586186e-01 -4.986886e-01
<VARIANCE> 39
 4.487848e+01 4.461822e+01 3.798139e+01 5.098204e+01 5.569536e+01 5.165918e+01 3.447495e+01 4.192052e+01 3.881232e+01 3.096707e+01 4.206511e+01 2.855651e+01 2.713478e+01 3.950111e+00 4.686931e+00 3.013891e+00 4.460238e+00 4.877537e+00 5.072673e+00 5.171806e+00 3.797220e+00 4.315440e+00 3.085152e+00 5.250441e+00 2.638211e+00 2.818042e+00 1.683790e-01 3.882923e-01 5.326078e-01 3.701744e-01 5.211003e-01 4.283951e-01 5.265929e-01 4.367179e-01 6.210474e-01 5.649126e-01 6.019974e-01 3.540606e-01 4.818018e-01
<GCONST> 1.268842e+02
<MIXTURE> 2 6.028106e-01
<MEAN> 39
 -4.563287e+00 -1.959828e+01 -1.143304e+01 -1.130969e+00 -1.823030e+00 2.610940e+00 -9.871753e+00 4.257588e-01 -1.000462e+01 -8.474998e+00 6.330587e+00 -5.638905e+00 -1.436569e-01 2.263374e+00 -2.283493e+00 2.622992e-02 -1.015567e+00 -1.916754e+00 -2.460732e-01 -1.551690e+00 -1.065805e+00 -2.465275e+00 -1.442885e+00 2.538575e+00 -1.865051e-01 -8.183900e-01 -2.281266e-01 5.536178e-01 9.715165e-01 7.609467e-01 4.265358e-01 3.188132e-01 2.931195e-01 1.198266e-01 3.643277e-01 1.658280e-01 -2.597256e-01 3.172887e-01 2.512350e-01
<VARIANCE> 39
 5.526904e+01 6.196221e+01 2.190235e+01 4.129323e+01 8.018513e+01 1.409602e+02 8.977804e+01 7.225690e+01 7.058779e+01 7.007401e+01 1.017834e+02 4.434478e+01 2.390936e+01 1.846609e+00 2.783928e+00 4.015027e+00 3.562631e+00 2.224869e+00 3.526031e+00 2.873656e+00 2.827060e+00 3.743237e+00 3.231644e+00 4.123067e+00 2.408931e+00 2.508107e+00 4.737931e-01 3.442852e-01 3.886807e-01 4.793011e-01 3.685585e-01 4.784248e-01 4.572139e-01 4.128218e-01 1.062243e+00 8.545977e-01 1.004280e+00 3.182566e-01 5.363399e-01
<GCONST> 1.302330e+02
<STATE> 4
<NUMMIXES> 2
<MIXTURE> 1 5.037447e-01
<MEAN> 39
 -2.644187e+00 -2.954521e+01 1.440006e+00 1.018965e+01 4.276790e-01 8.295979e+00 -1.419822e+01 -5.368306e+00 -1.193538e+01 -7.129836e+00 1.259304e+01 -4.378268e+00 -2.262552e-01 2.603376e-02 3.255047e-01 1.380696e+00 1.419132e+00 1.181383e+00 1.281756e+00 8.387904e-01 3.338230e-01 6.974988e-01 8.724912e-01 6.005083e-01 7.544639e-01 3.786083e-01 -6.100798e-03 3.931609e-01 -1.801668e-01 -1.095136e-03 1.712822e-01 -1.211193e-01 1.560211e-01 2.643304e-01 2.592222e-01 1.128604e-01 -1.238720e-01 -1.769556e-02 -2.526529e-02
<VARIANCE> 39
 2.446276e+01 5.716225e+01 4.973658e+01 8.700850e+01 1.011363e+02 2.688281e+02 7.984312e+01 5.382359e+01 3.906742e+01 5.156359e+01 4.271393e+01 5.001593e+01 2.786575e+01 8.572471e-01 3.743176e+00 2.467265e+00 1.440291e+00 2.575552e+00 3.157182e+00 2.095017e+00 3.063936e+00 2.370015e+00 1.971608e+00 1.897651e+00 1.234997e+00 1.334294e+00 1.396724e-01 2.528940e-01 3.687775e-01 2.444473e-01 3.353910e-01 5.608993e-01 3.907347e-01 4.029451e-01 4.258195e-01 4.445350e-01 3.366353e-01 2.011988e-01 2.131509e-01
<GCONST> 1.183710e+02
<MIXTURE> 2 4.962540e-01
<MEAN> 39
 3.751078e+00 -1.654043e+01 -8.645199e+00 -3.306603e+00 -1.065963e+01 4.264011e+00 4.637865e+00 1.037164e+01 -3.240372e+00 -1.764313e+00 1.100821e+01 4.002885e+00 7.248032e+00 5.308028e-01 8.432494e-01 -3.416347e-01 4.358093e-01 1.515660e-02 -1.009020e+00 3.851102e-01 7.715183e-01 1.179401e+00 6.963076e-01 -5.714923e-01 -5.979386e-03 6.499034e-02 8.547561e-02 5.072915e-02 -3.359329e-02 1.412565e-02 1.155704e-01 -8.620743e-02 -1.933287e-01 -5.731935e-02 -1.215004e-01 -1.895507e-01 -1.997528e-02 -7.543264e-02 -1.607572e-01
<VARIANCE> 39
 9.468639e+01 5.657674e+01 7.209605e+01 1.019647e+02 2.500475e+02 1.959959e+02 5.499610e+01 7.168878e+01 6.931915e+01 9.496533e+01 7.586656e+01 3.181888e+01 1.948339e+01 1.242373e+00 2.799626e+00 2.014297e+00 2.510040e+00 4.150956e+00 4.099285e+00 2.346753e+00 1.860849e+00 2.237546e+00 2.287313e+00 2.025682e+00 1.389028e+00 1.602882e+00 6.377274e-02 1.930159e-01 2.910993e-01 3.467717e-01 4.015591e-01 6.168135e-01 4.255066e-01 3.068094e-01 3.312422e-01 3.117381e-01 3.143068e-01 2.382869e-01 1.857196e-01
<GCONST> 1.214427e+02
<TRANSP> 5
 0.000000e+00 1.000000e+00 0.000000e+00 0.000000e+00 0.000000e+00
 0.000000e+00 7.190574e-01 2.809426e-01 0.000000e+00 0.000000e+00
 0.000000e+00 0.000000e+00 8.205232e-01 1.794768e-01 0.000000e+00
 0.000000e+00 0.000000e+00 0.000000e+00 9.101165e-01 8.988348e-02
 0.000000e+00 0.000000e+00 0.000000e+00 0.000000e+00 0.000000e+00
<ENDHMM>
~h "mq"
<BEGINHMM>
<NUMSTATES> 5
<STATE> 2
<NUMMIXES> 2
<MIXTURE> 1 1.000000e+00
<MEAN> 39
 2.185262e+01 -5.753835e+00 -9.549784e+00 -4.439754e+00 2.415434e+00 -1.521862e+00 -2.564876e+00 2.504131e+01 -6.447194e+00 -1.882610e+01 1.354491e+01 -1.847608e+00 -7.842311e+00 -5.533069e-02 9.558812e-02 6.786601e-01 3.665966e-01 4.298508e-01 6.273194e-01 -2.432246e-01 -6.197813e-01 -8.910050e-01 -8.376250e-02 7.788202e-01 -2.317926e-01 -5.517765e-02 -2.912912e-02 6.123538e-02 1.070280e-02 1.488096e-01 4.236635e-02 -3.703583e-02 4.866834e-02 -8.679117e-02 6.825891e-02 5.850330e-02 -1.768901e-01 2.453366e-02 4.008462e-02
<VARIANCE> 39
 6.085656e+00 1.514486e+01 3.096000e+01 3.343314e+01 2.341888e+01 3.481031e+01 3.193694e+01 4.639368e+01 2.908750e+01 2.827084e+01 4.631733e+01 1.026982e+01 7.613613e+00 4.487409e-01 5.230081e-01 4.597610e-01 9.330230e-01 7.272384e-01 6.980591e-01 1.612997e+00 2.191413e+00 4.991598e-01 1.050728e+00 1.344700e+00 5.838150e-01 3.008910e-01 7.802847e-02 9.828925e-02 6.667252e-02 1.037720e-01 8.605324e-02 1.107397e-01 2.670574e-01 2.897085e-01 7.633694e-02 1.564679e-01 2.930837e-01 9.561601e-02 5.135184e-02
<GCONST> 8.022688e+01
<MIXTURE> 2 0.000000e+00
<MEAN> 39
 -9.685755e-07 -6.519258e-07 -1.657754e-07 6.034970e-07 1.440640e-09 1.266599e-07 -8.195639e-08 7.823110e-08 2.533197e-07 1.257285e-08 1.639128e-07 7.078052e-07 2.328306e-08 3.019522e-10 -4.656613e-09 -1.216540e-08 1.164153e-10 1.781154e-08 1.982698e-10 -3.026798e-09 5.587935e-09 -1.746230e-09 4.097819e-08 2.363231e-08 1.315493e-08 -2.043089e-08 -3.744487e-03 2.978991e-04 -4.746468e-04 6.844162e-05 -1.603577e-04 -3.450464e-05 5.754238e-05 -8.061554e-05 1.271995e-04 -1.902887e-04 4.669849e-05 -1.564687e-04 -6.364408e-05
<VARIANCE> 39
 1.000000e-30 1.000000e-30 1.000000e-30 1.000000e-30 1.000000e-30 9.313226e-09 1.000000e-30 3.492460e-10 1.000000e-30 1.473381e-10 1.781154e-08 1.000000e-30 1.000000e-30 1.000000e-30 1.000000e-30 1.000000e-30 2.110312e-12 1.000000e-30 1.000000e-30 1.409717e-11 1.000000e-30 1.318767e-11 3.419700e-10 1.000000e-30 1.000000e-30 1.000000e-30 1.827128e-03 6.024704e-05 5.945166e-05 2.794358e-05 3.412523e-05 3.360989e-05 3.020229e-05 3.188291e-05 2.277736e-05 2.193036e-05 1.852728e-05 2.304439e-05 1.544051e-05
<GCONST> -1.800000e+11
<STATE> 3
<NUMMIXES> 2
<MIXTURE> 1 1.000000e+00
<MEAN> 39
 1.781913e+01 3.226717e-01 -1.047459e+00 7.077125e+00 1.037305e+01 5.224012e+00 -2.691192e+00 1.206177e+01 -1.058951e+01 -1.574943e+01 9.134001e+00 -2.529964e+00 -4.860126e+00 -1.532742e+00 2.738106e+00 1.620750e+00 1.897930e+00 8.909258e-01 1.044152e+00 1.181428e+00 -1.815322e+00 8.760762e-01 9.006438e-01 -4.003432e+00 -2.431769e-01 9.269793e-01 -2.458340e-01 1.467450e-01 2.304650e-01 -6.842846e-02 -1.557201e-01 7.095082e-02 -5.388541e-02 1.002214e-01 2.054043e-01 -3.854173e-02 -3.518398e-01 -7.573584e-02 2.060001e-01
<VARIANCE> 39
 1.196531e+01 2.979890e+01 3.358323e+01 1.968982e+01 3.755579e+01 3.985168e+01 2.701496e+01 5.136605e+01 2.800038e+01 1.984523e+01 7.788702e+01 1.611516e+01 1.307588e+01 6.735793e-01 1.011946e+00 1.267811e+00 7.144521e-01 7.086342e-01 1.326265e+00 2.168907e+00 9.750960e-01 2.246528e+00 8.669139e-01 2.473384e+00 8.743010e-01 4.283944e-01 8.463707e-02 2.529900e-01 1.693735e-01 1.680680e-01 2.191473e-01 1.193051e-01 2.895898e-01 1.632072e-01 3.524519e-01 1.700611e-01 7.815931e-01 1.144832e-01 5.286832e-02
<GCONST> 9.314794e+01
<MIXTURE> 2 0.000000e+00
<MEAN> 39
 1.769513e-08 2.514571e-08 -9.313226e-09 1.443550e-08 7.078052e-08 3.911555e-08 -6.798655e-08 3.725290e-09 -1.192093e-07 4.773028e-08 -2.095476e-08 3.818423e-08 3.492460e-09 -1.477929e-11 -3.783498e-10 1.746230e-10 1.011358e-09 1.149601e-09 4.911271e-10 2.779416e-09 1.760782e-09 3.929017e-10 5.966285e-10 -5.209586e-09 2.590241e-09 4.249159e-09 -2.047057e-02 1.739704e-03 -2.860196e-03 4.944406e-04 -9.179143e-04 -4.275220e-04 -1.494129e-04 -1.110907e-03 -5.215620e-04 -1.377407e-03 -4.617415e-04 -8.713729e-04 -4.312473e-04
<VARIANCE> 39
 1.000000e-30 1.964509e-09 1.000000e-30 3.888090e-11 1.000000e-30 1.000000e-30 1.000000e-30 1.000000e-30 1.804437e-09 3.074092e-10 3.783498e-10 1.000000e-30 3.836931e-13 1.000000e-30 2.060574e-13 1.000000e-30 1.962874e-13 1.108447e-12 1.085798e-13 1.000000e-30 8.490986e-13 1.000000e-30 1.000000e-30 4.021672e-12 1.000000e-30 1.989520e-13 1.418590e-02 4.708500e-04 6.059122e-04 2.832045e-04 2.438255e-04 1.964814e-04 2.386844e-04 2.203498e-04 2.247814e-04 1.830704e-04 2.037936e-04 1.436218e-04 1.237932e-04
<GCONST> -1.300000e+11
<STATE> 4
<NUMMIXES> 2
<MIXTURE> 1 1.000000e+00
<MEAN> 39
 9.300639e+00 1.061227e+01 8.619325e+00 1.357584e+01 1.000448e+01 9.270440e+00 1.377589e+00 5.902863e+00 -6.517298e+00 -1.233042e+01 -5.962782e+00 -3.799904e+00 5.548519e-01 -2.526054e+00 -4.557301e-01 2.853472e+00 1.067871e+00 -1.760469e+00 1.033766e+00 8.601390e-01 -1.017188e+00 3.606560e-01 6.628153e-01 -1.005786e+00 1.234922e-01 1.194267e+00 -2.950924e-01 -1.606124e+00 2.619974e-01 3.376081e-02 -5.765159e-01 -5.037841e-02 -2.433677e-01 4.185955e-01 4.214893e-02 -1.822749e-01 9.402117e-01 1.308729e-01 -1.551980e-01
<VARIANCE> 39
 3.391243e+01 3.059509e+01 5.959142e+01 7.196372e+00 3.608156e+01 6.146313e+01 2.178044e+01 5.706501e+01 1.464438e+01 1.921963e+01 2.854599e+01 1.011751e+01 1.502322e+01 1.217751e+00 6.155222e+00 2.127404e+00 6.213856e-01 2.716584e+00 6.589142e-01 8.277957e-01 1.571889e+00 1.523646e+00 2.017936e+00 3.181506e+00 4.287252e-01 9.937947e-01 7.254781e-02 4.631350e-01 2.311672e-01 1.088967e-01 2.894977e-01 1.113187e-01 2.933097e-01 1.774948e-01 3.274386e-01 3.631686e-01 3.897600e-01 1.137587e-01 1.475263e-01
<GCONST> 9.746947e+01
<MIXTURE> 2 0.000000e+00
<MEAN> 39
 0.000000e+00 0.000000e+00 0.000000e+00 0.000000e+00 0.000000e+00 0.000000e+00 0.000000e+00 0.000000e+00 0.000000e+00 0.000000e+00 0.000000e+00 0.000000e+00 0.000000e+00 0.000000e+00 0.000000e+00 0.000000e+00 0.000000e+00 0.000000e+00 0.000000e+00 0.000000e+00 0.000000e+00 0.000000e+00 0.000000e+00 0.000000e+00 0.000000e+00 0.000000e+00 -7.323198e-02 1.123042e-02 -1.038370e-02 1.682460e-03 -2.594927e-03 -1.410091e-03 -1.503533e-03 -3.022441e-03 -2.858302e-03 -3.888699e-03 -2.411382e-03 -1.670942e-03 -2.166644e-03
<VARIANCE> 39
 1.000000e-30 1.000000e-30 1.000000e-30 1.000000e-30 1.000000e-30 1.000000e-30 1.000000e-30 1.000000e-30 1.000000e-30 1.000000e-30 1.000000e-30 1.000000e-30 1.000000e-30 1.000000e-30 1.000000e-30 1.000000e-30 1.000000e-30 1.000000e-30 1.000000e-30 1.000000e-30 1.000000e-30 1.000000e-30 1.000000e-30 1.000000e-30 1.000000e-30 1.000000e-30 6.110287e-02 6.616157e-03 5.196090e-03 3.621858e-03 3.050250e-03 4.287072e-03 4.344802e-03 3.931833e-03 3.373807e-03 2.996578e-03 2.947920e-03 2.834462e-03 2.042745e-03
<GCONST> -2.600001e+11
<TRANSP> 5
 0.000000e+00 1.000000e+00 0.000000e+00 0.000000e+00 0.000000e+00
 0.000000e+00 9.194106e-01 8.058937e-02 0.000000e+00 0.000000e+00
 0.000000e+00 0.000000e+00 7.459498e-01 2.540502e-01 0.000000e+00
 0.000000e+00 0.000000e+00 0.000000e+00 6.772152e-01 3.227848e-01
 0.000000e+00 0.000000e+00 0.000000e+00 0.000000e+00 0.000000e+00
<ENDHMM>
~h "nj"
<BEGINHMM>
<NUMSTATES> 5
<STATE> 2
<NUMMIXES> 2
<MIXTURE> 1 6.448376e-01
<MEAN> 39
 2.500529e+00 4.883284e+00 9.640644e+00 7.663284e+00 8.983262e+00 1.102280e+00 -1.110930e+01 -4.794134e+00 -1.288087e+00 -5.336167e+00 -8.651181e+00 -5.994543e+00 -4.689224e+00 -8.037093e-03 3.616399e-01 2.282659e-01 1.904264e-01 -7.341486e-02 2.493188e-01 -1.645973e-01 1.039757e-01 1.836264e-01 -2.358938e-02 -1.693905e-01 -2.100465e-01 6.134257e-02 -2.933799e-02 -8.245458e-02 -2.934181e-02 -2.555616e-02 -3.167558e-02 -6.560107e-02 9.943750e-02 4.022849e-02 -2.891495e-02 -3.393753e-02 8.488162e-02 6.642201e-02 -4.307508e-02
<VARIANCE> 39
 2.984620e+01 6.743415e+01 3.440329e+01 6.486826e+01 9.630917e+01 1.111856e+02 7.206052e+01 3.914428e+01 4.361893e+01 6.400179e+01 5.133936e+01 4.753320e+01 6.246100e+01 3.205257e-01 9.356377e-01 8.799419e-01 1.011097e+00 1.131665e+00 1.602336e+00 1.676275e+00 1.622988e+00 1.393007e+00 1.544790e+00 1.534638e+00 1.262773e+00 1.005133e+00 5.129976e-02 1.324087e-01 1.310566e-01 1.649362e-01 1.886846e-01 2.602298e-01 2.799097e-01 2.472048e-01 2.361487e-01 2.447439e-01 2.395605e-01 1.899032e-01 1.721881e-01
<GCONST> 1.035840e+02
<MIXTURE> 2 3.551624e-01
<MEAN> 39
 2.709807e+00 8.928315e+00 1.147999e+01 -1.502002e+00 5.525277e+00 -1.202266e+01 -1.337622e+01 -2.554715e-01 -4.602529e+00 -1.768139e+01 -1.319073e+01 -1.517253e+01 -1.372431e+01 -3.641024e-02 1.717343e-01 7.861748e-02 2.967181e-02 -1.046537e-01 -5.441139e-03 -2.671677e-02 6.079637e-02 1.669364e-01 -1.932618e-01 -2.864245e-01 5.561825e-02 9.325963e-02 -4.810160e-02 -6.521460e-02 -1.482642e-02 1.193514e-02 -1.650132e-02 -1.109369e-02 1.465435e-01 -1.707742e-01 -4.778483e-02 1.308504e-01 6.270327e-02 7.036697e-02 2.437993e-02
<VARIANCE> 39
 2.806140e+00 1.555293e+01 1.314208e+01 1.840736e+01 2.262506e+01 2.127437e+01 3.199649e+01 3.318005e+01 3.093358e+01 4.198512e+01 4.848846e+01 2.774301e+01 2.260729e+01 5.275457e-02 2.340834e-01 2.735551e-01 3.459295e-01 4.041417e-01 4.254854e-01 6.606404e-01 7.842113e-01 6.592637e-01 7.675110e-01 6.076438e-01 6.638942e-01 4.363255e-01 1.427971e-02 5.345663e-02 5.262011e-02 7.491710e-02 9.308103e-02 1.030196e-01 1.470128e-01 1.566586e-01 1.284100e-01 1.334793e-01 1.117656e-01 1.170488e-01 9.097067e-02
<GCONST> 6.805726e+01
<STATE> 3
<NUMMIXES> 2
<MIXTURE> 1 5.768365e-01
<MEAN> 39
 -1.650130e+00 4.293084e+00 1.251531e+01 7.997261e+00 8.073728e+00 -5.246037e-01 -5.022378e+00 -3.656913e+00 -1.169887e+00 -5.260289e+00 -6.472120e+00 -5.230941e+00 -5.362416e+00 -2.457572e-01 -1.055694e+00 5.425199e-02 6.005565e-02 -8.472940e-02 -6.629400e-01 5.229853e-01 -3.181231e-01 -3.388248e-01 -7.298808e-02 3.639769e-01 1.593710e-01 -1.386185e-01 1.520792e-02 -1.310300e-01 -6.702862e-02 -3.907461e-02 5.318189e-02 -1.073812e-01 -1.160357e-01 4.202005e-03 -2.860112e-02 -1.644950e-02 3.863433e-02 3.098836e-02 1.592401e-03
<VARIANCE> 39
 3.918433e+01 6.900724e+01 3.661243e+01 5.426512e+01 7.157546e+01 9.625215e+01 7.617765e+01 5.381805e+01 4.801081e+01 6.558137e+01 4.535140e+01 4.882023e+01 3.880204e+01 1.803826e+00 4.185937e+00 2.995981e+00 3.165112e+00 2.961892e+00 4.166068e+00 5.236826e+00 3.490489e+00 2.493116e+00 2.927037e+00 2.647161e+00 2.256471e+00 1.742612e+00 2.675167e-01 6.951686e-01 5.092847e-01 5.361979e-01 4.958111e-01 6.914724e-01 8.867679e-01 5.816731e-01 4.441610e-01 4.559211e-01 3.934963e-01 3.435938e-01 2.966835e-01
<GCONST> 1.282403e+02
<MIXTURE> 2 4.231635e-01
<MEAN> 39
 1.295004e+01 -1.990565e+00 1.135198e+01 1.051720e+01 -6.057696e+00 5.887888e+00 -1.010513e+01 -1.137384e+01 1.444680e+00 -1.270348e+01 -1.434898e+01 -7.786644e+00 -1.003824e+01 -9.293678e-02 2.690157e-01 1.644063e-01 -4.434790e-02 4.908991e-03 -1.315278e-02 2.359147e-02 2.516896e-02 3.590895e-02 -1.700219e-02 -1.722138e-01 -5.740685e-02 3.323376e-02 -9.219238e-03 -9.527378e-02 1.038478e-02 5.471010e-02 -4.705711e-02 -1.766123e-03 5.385786e-02 9.632568e-03 -1.593223e-02 1.461344e-02 6.699349e-02 4.784431e-02 -4.166522e-02
<VARIANCE> 39
 3.856699e+00 2.329041e+01 2.029645e+01 2.178050e+01 2.279533e+01 2.924805e+01 4.529770e+01 3.117255e+01 4.292793e+01 9.096780e+01 3.922691e+01 2.936979e+01 2.970384e+01 1.036110e-01 3.492112e-01 2.670597e-01 3.809765e-01 4.285590e-01 5.403163e-01 4.986794e-01 4.888597e-01 5.781164e-01 5.797477e-01 5.508767e-01 4.750876e-01 4.293715e-01 1.962212e-02 7.488119e-02 4.759888e-02 7.101423e-02 9.162906e-02 9.864736e-02 9.496345e-02 9.101720e-02 1.042438e-01 1.084253e-01 8.732623e-02 8.894771e-02 7.543494e-02
<GCONST> 6.937938e+01
<STATE> 4
<NUMMIXES> 2
<MIXTURE> 1 6.193125e-01
<MEAN> 39
 1.028075e+01 -1.288878e+01 1.373863e+01 1.291313e+01 -1.063704e+01 3.015265e+00 -1.051210e+01 -9.272548e+00 1.731557e+00 -1.466234e+01 -7.812191e+00 -3.781766e+00 -1.403609e+01 -1.313824e-01 -1.218131e+00 -2.753857e-02 8.111192e-02 -5.507110e-01 -1.762661e-01 1.277021e-02 -2.771645e-02 9.013085e-02 -2.377615e-02 5.405732e-01 4.540587e-01 -2.427453e-01 1.725942e-02 3.638613e-02 -6.293325e-02 -6.635727e-02 3.109851e-02 -2.954077e-03 -4.337660e-02 -9.599536e-03 -1.934156e-02 8.019480e-03 4.517408e-03 -5.125827e-03 2.411142e-02
<VARIANCE> 39
 5.360118e+01 1.147594e+02 5.651950e+01 4.958639e+01 6.452203e+01 8.099206e+01 6.030843e+01 4.255379e+01 4.687903e+01 6.013705e+01 5.901341e+01 4.074115e+01 4.006900e+01 1.196394e+00 4.081296e+00 2.274762e+00 1.764822e+00 2.229019e+00 2.915065e+00 2.342601e+00 1.784886e+00 1.712513e+00 1.735224e+00 1.473653e+00 1.255965e+00 1.251955e+00 1.512755e-01 5.907288e-01 2.923045e-01 2.467913e-01 3.750200e-01 4.103101e-01 3.571459e-01 2.759851e-01 2.797883e-01 2.719341e-01 2.224235e-01 2.094979e-01 1.860853e-01
<GCONST> 1.158219e+02
<MIXTURE> 2 3.806876e-01
<MEAN> 39
 7.986883e-01 -2.793469e+00 4.055068e+00 2.384333e+00 1.088714e+01 -1.595118e+01 -9.973896e+00 -5.408926e+00 -6.926043e+00 -7.952407e+00 -2.742266e+00 -4.678221e+00 -8.477713e+00 1.703769e-01 -3.709843e-01 -7.981473e-01 -6.735662e-01 5.414159e-02 -6.422171e-01 -1.553994e-01 1.988008e-01 -1.845535e-01 -3.992972e-03 4.756051e-01 5.521997e-01 5.975723e-02 -9.899956e-03 9.672721e-02 2.898581e-02 -8.035121e-02 -5.190688e-02 1.995320e-01 1.440018e-01 3.425548e-02 4.790647e-02 -3.596259e-02 -8.568133e-02 2.389571e-02 3.080674e-02
<VARIANCE> 39
 9.078952e+00 3.836557e+01 4.360814e+01 6.360629e+01 1.041817e+02 1.081912e+02 7.833575e+01 4.377275e+01 4.398346e+01 6.020568e+01 4.762598e+01 8.173207e+01 5.883461e+01 1.580081e-01 6.745912e-01 6.551996e-01 1.306109e+00 1.275327e+00 2.599120e+00 1.752467e+00 1.489350e+00 1.622001e+00 1.614136e+00 1.536328e+00 1.120704e+00 1.123707e+00 2.352860e-02 7.751360e-02 8.667944e-02 1.638183e-01 1.665535e-01 2.938957e-01 2.637431e-01 2.522829e-01 2.238973e-01 2.590835e-01 2.209582e-01 1.880653e-01 1.505378e-01
<GCONST> 1.003273e+02
<TRANSP> 5
 0.000000e+00 1.000000e+00 0.000000e+00 0.000000e+00 0.000000e+00
 0.000000e+00 8.560609e-01 1.439391e-01 0.000000e+00 0.000000e+00
 0.000000e+00 0.000000e+00 8.582612e-01 1.417388e-01 0.000000e+00
 0.000000e+00 0.000000e+00 0.000000e+00 8.322633e-01 1.677367e-01
 0.000000e+00 0.000000e+00 0.000000e+00 0.000000e+00 0.000000e+00
<ENDHMM>
~h "nx"
<BEGINHMM>
<NUMSTATES> 5
<STATE> 2
<NUMMIXES> 2
<MIXTURE> 1 1.000000e+00
<MEAN> 39
 2.272471e+01 9.020269e-01 -1.325269e+01 -7.666718e+00 1.520118e+01 1.177352e+01 -1.492252e+01 4.200837e+00 -6.304934e+00 -1.563166e+01 8.103216e+00 -1.162364e+00 -3.592152e+00 -1.383317e-01 3.074045e-01 2.939932e-01 2.998725e-01 -2.789883e-02 1.701321e-01 7.938595e-01 1.405668e-01 -2.154824e-01 -2.200369e-01 -4.116491e-01 -6.292661e-03 -1.069543e-01 -6.302797e-02 1.484803e-02 1.201616e-01 2.258952e-01 7.923676e-03 -6.809848e-02 8.254375e-02 1.268440e-02 -6.693436e-03 -1.420048e-02 -1.112307e-01 -6.183167e-03 7.382140e-03
<VARIANCE> 39
 1.354830e+01 1.082859e+01 2.037363e+01 3.057904e+01 1.686613e+01 1.714660e+01 5.383974e+01 4.010560e+01 1.596117e+01 2.460670e+01 2.534789e+01 8.748138e+00 9.854264e+00 4.088016e-01 3.290867e-01 8.188063e-01 2.005974e+00 6.107638e-01 8.753448e-01 2.563811e+00 1.635515e+00 6.623623e-01 1.372711e+00 1.783944e+00 6.277655e-01 4.194687e-01 6.287474e-02 4.875052e-02 1.322137e-01 1.432992e-01 1.042639e-01 1.266120e-01 3.022992e-01 2.626915e-01 8.495688e-02 2.393830e-01 1.773782e-01 1.260848e-01 6.332993e-02
<GCONST> 8.148497e+01
<MIXTURE> 2 0.000000e+00
<MEAN> 39
 1.361686e+01 -1.383072e+00 7.618060e+00 1.232223e+01 -2.383529e+00 8.959254e+00 -1.035662e+01 -1.021862e+01 8.851387e+00 -8.332142e+00 -1.389112e+01 -1.311377e+00 -7.191798e+00 -1.457334e-01 3.850303e-01 1.832990e-01 7.829956e-02 1.980715e-01 -5.036991e-02 -1.340757e-01 -1.179461e-01 -3.900307e-02 1.584407e-01 2.003755e-02 -8.778737e-02 -5.617338e-02 -8.385319e-04 -4.167615e-02 -5.001837e-02 5.873689e-03 7.726591e-03 -9.950018e-03 4.415042e-02 -3.027088e-03 -5.418176e-02 3.586245e-02 5.732016e-02 -7.334471e-04 -7.240163e-03
<VARIANCE> 39
 2.374427e+00 2.125168e+01 1.217588e+01 1.771664e+01 1.535122e+01 2.714209e+01 2.611153e+01 3.003095e+01 4.948417e+01 3.589555e+01 2.532868e+01 2.865796e+01 2.461707e+01 5.158678e-02 1.692707e-01 2.307495e-01 3.434558e-01 3.976840e-01 4.632231e-01 5.185775e-01 4.969022e-01 5.959083e-01 6.742363e-01 5.816705e-01 4.702742e-01 4.794611e-01 8.847732e-03 2.771878e-02 3.858319e-02 5.424614e-02 6.815128e-02 7.742334e-02 8.735045e-02 8.348746e-02 1.017274e-01 9.737392e-02 8.988705e-02 7.854709e-02 8.157872e-02
<GCONST> 6.095366e+01
<STATE> 3
<NUMMIXES> 2
<MIXTURE> 1 2.429467e-01
<MEAN> 39
 1.476599e+01 8.999953e+00 5.935784e+00 2.183147e+01 2.443725e+01 6.315099e+00 -1.586211e+01 -1.082580e+01 -7.578015e+00 -6.509036e+00 -3.173259e+00 -5.393661e+00 -3.545543e+00 -1.157961e-01 3.591163e-01 2.770984e-01 -2.563947e-01 -4.291176e-01 1.847714e-01 5.050319e-01 -1.352049e-01 -7.588483e-02 3.181605e-01 -2.538291e-01 -3.384350e-01 1.378810e-01 -9.183688e-03 -1.860272e-01 -9.037120e-02 -1.217401e-01 -1.336216e-02 7.267964e-02 9.805183e-02 3.859903e-01 4.900599e-02 -2.134176e-01 9.602157e-02 2.210080e-02 -5.962542e-02
<VARIANCE> 39
 2.404635e+00 1.219042e+01 1.244228e+01 8.285495e+00 1.328294e+01 7.620129e+00 1.340009e+01 1.968414e+01 1.354089e+01 2.654124e+01 1.204331e+01 1.688996e+01 4.793283e+00 1.025942e-01 3.741937e-01 2.724766e-01 6.517563e-01 7.602388e-01 3.191005e-01 6.384301e-01 9.693544e-01 4.283700e-01 8.799711e-01 6.094516e-01 8.161839e-01 3.157948e-01 2.338548e-02 8.681607e-02 4.221621e-02 1.871264e-01 1.318205e-01 8.968449e-02 1.484156e-01 1.957665e-01 8.471621e-02 1.882841e-01 1.099641e-01 1.537890e-01 5.336379e-02
<GCONST> 6.277345e+01
<MIXTURE> 2 7.570533e-01
<MEAN> 39
 1.827492e+01 4.371883e+00 -3.641757e+00 9.277146e+00 1.681151e+01 8.527597e+00 -4.695274e+00 4.229610e+00 -8.590503e+00 -1.732411e+01 -3.336987e+00 -3.242888e+00 -4.222657e+00 -1.448886e-01 -4.179388e-01 5.796511e-01 8.446497e-01 6.477885e-03 -6.455182e-01 -3.459029e-01 1.999955e-01 -6.726927e-02 -2.991476e-02 3.487901e-01 -2.776945e-01 -4.150008e-01 2.066716e-01 -2.580546e-01 -3.417155e-01 -5.330024e-01 -1.145104e-01 4.144081e-02 -2.852211e-01 1.047184e-01 -1.529262e-01 -8.497389e-02 6.810121e-01 1.552288e-01 -1.037855e-01
<VARIANCE> 39
 1.876991e+01 1.265771e+01 2.067632e+01 3.883082e+01 2.437492e+01 1.820671e+01 2.776318e+01 4.084624e+01 1.290523e+01 2.102008e+01 2.059281e+01 1.031580e+01 1.422914e+01 7.360463e-01 8.955111e-01 2.367830e+00 5.614069e+00 1.535351e+00 1.199625e+00 2.253731e+00 2.921528e+00 9.485859e-01 2.092998e+00 4.147298e+00 1.162653e+00 6.338106e-01 5.591684e-02 8.852566e-02 1.534060e-01 3.280964e-01 2.060647e-01 1.545398e-01 3.596661e-01 3.681972e-01 1.541237e-01 3.768167e-01 2.573507e-01 1.732344e-01 1.136215e-01
<GCONST> 9.515332e+01
<STATE> 4
<NUMMIXES> 2
<MIXTURE> 1 4.371540e-01
<MEAN> 39
 7.888555e+00 1.462711e+01 1.169710e+01 1.586084e+01 1.371469e+01 8.286635e+00 -3.962937e+00 -2.972020e+00 -1.140661e+01 -9.447574e+00 -2.559352e-01 -4.057876e+00 -5.098973e+00 -1.638952e+00 1.069610e+00 9.499738e-01 -8.771920e-02 -6.321113e-01 3.684245e-01 9.477662e-01 5.407832e-01 1.196514e+00 5.590445e-01 -1.510570e+00 -1.237129e-01 1.229619e+00 2.799157e-02 -3.534504e-01 -2.408136e-01 -1.899222e-01 -9.578472e-03 -3.683250e-03 -4.387794e-02 2.933602e-01 -4.543950e-02 -1.492004e-01 4.524353e-01 1.358297e-01 -1.584416e-01
<VARIANCE> 39
 4.219197e+01 2.056667e+01 1.552292e+01 1.290559e+01 1.763468e+01 1.158918e+01 2.044459e+01 2.120642e+01 2.977859e+01 1.500782e+01 2.839403e+01 1.040447e+01 1.886522e+01 5.046543e-01 1.841310e+00 1.375152e+00 1.371253e+00 1.002960e+00 5.952823e-01 7.693662e-01 1.578328e+00 1.407501e+00 1.423579e+00 4.118017e+00 1.207041e+00 9.888466e-01 6.277844e-02 1.042492e-01 1.343581e-01 2.156168e-01 1.835850e-01 1.014426e-01 1.363722e-01 3.367156e-01 2.574157e-01 2.507932e-01 1.984791e-01 1.116602e-01 1.236922e-01
<GCONST> 8.811539e+01
<MIXTURE> 2 5.628459e-01
<MEAN> 39
 2.001912e+01 -7.560346e-01 -3.178684e+00 7.282027e+00 1.483368e+01 6.356441e+00 -8.551435e+00 6.774005e+00 -1.622821e+01 -1.923542e+01 1.566855e+01 -6.690939e-01 -1.253434e+01 -3.592981e-01 2.363491e-01 8.868406e-01 5.753872e-01 7.723308e-02 -1.019048e-01 -4.308411e-01 -6.910355e-01 -7.803131e-01 3.431107e-01 1.165779e+00 1.337107e-01 -4.021139e-01 -2.311093e-01 3.939312e-01 3.288303e-01 2.690374e-01 2.660575e-02 2.781602e-02 1.628968e-01 -2.195515e-01 2.254578e-01 1.960410e-01 -6.986539e-01 -1.436243e-01 2.667043e-01
<VARIANCE> 39
 6.135885e+00 1.271326e+01 2.870873e+01 2.606584e+01 1.320788e+01 1.849541e+01 1.786440e+01 4.159796e+01 2.525036e+01 1.821296e+01 5.967983e+01 1.572886e+01 2.329114e+01 7.741750e-01 2.782337e+00 2.071788e+00 2.815539e+00 9.866478e-01 1.062692e+00 1.400194e+00 3.682140e+00 1.331831e+00 2.201706e+00 9.243022e+00 1.126379e+00 1.729404e+00 4.682402e-02 1.096356e-01 1.672621e-01 2.891412e-01 1.385605e-01 1.700909e-01 1.923941e-01 3.395817e-01 2.023877e-01 2.368025e-01 5.577422e-01 1.445816e-01 2.184751e-01
<GCONST> 9.721534e+01
<TRANSP> 5
 0.000000e+00 1.000000e+00 0.000000e+00 0.000000e+00 0.000000e+00
 0.000000e+00 9.231918e-01 7.680815e-02 0.000000e+00 0.000000e+00
 0.000000e+00 0.000000e+00 8.721106e-01 1.278894e-01 0.000000e+00
 0.000000e+00 0.000000e+00 0.000000e+00 8.907679e-01 1.092321e-01
 0.000000e+00 0.000000e+00 0.000000e+00 0.000000e+00 0.000000e+00
<ENDHMM>
~h "ou"
<BEGINHMM>
<NUMSTATES> 7
<STATE> 2
<NUMMIXES> 2
<MIXTURE> 1 0.000000e+00
<MEAN> 39
 2.950430e-05 -1.596659e-05 2.567470e-05 -3.993511e-06 -5.960464e-07 1.929002e-07 -1.204014e-05 8.247793e-06 -1.933426e-06 2.965331e-06 -1.872890e-06 -3.390014e-05 -2.196059e-06 2.152519e-07 -1.188600e-07 -1.470326e-07 2.579764e-07 1.881272e-07 -7.177005e-08 7.529743e-07 5.150214e-07 -5.541369e-08 5.667098e-07 8.731149e-08 2.587331e-08 -1.939479e-07 -6.008020e-02 6.977572e-03 -1.033811e-02 -1.313004e-03 -2.156086e-03 -2.000537e-03 2.022802e-04 5.487027e-04 1.507605e-03 -2.313650e-03 -2.747252e-04 -8.833668e-04 -1.887041e-04
<VARIANCE> 39
 1.000000e-30 1.000000e-30 1.000000e-30 1.138542e-07 1.933426e-06 1.000000e-30 1.000000e-30 4.717149e-07 1.000000e-30 1.000000e-30 1.000000e-30 1.000000e-30 1.194421e-07 1.000000e-30 5.235279e-10 2.760316e-10 1.000000e-30 1.000000e-30 3.660716e-11 1.359149e-08 8.079951e-09 2.454215e-11 1.000000e-30 1.000000e-30 1.390887e-11 1.000000e-30 5.130608e-02 3.996924e-03 4.374815e-03 3.314181e-03 3.503656e-03 3.531398e-03 3.649473e-03 3.541191e-03 3.137489e-03 2.687086e-03 2.360017e-03 1.943796e-03 1.500225e-03
<GCONST> -1.500000e+11
<MIXTURE> 2 1.000000e+00
<MEAN> 39
 -1.667062e+00 -7.646700e-01 -2.249939e+00 1.200753e+00 -3.821373e+00 -7.295140e+00 -6.621175e+00 1.218337e+01 1.214712e+00 -8.599016e+00 -6.304846e-01 -7.626748e-01 2.332501e-03 -7.107679e-01 -3.553567e-01 -6.056143e-01 -2.812278e-01 -3.210233e-01 -7.549359e-01 -2.477441e-01 1.420933e-01 3.262268e-01 2.255479e-01 1.390603e-01 1.784138e-01 -1.311524e-02 -2.836268e-02 -2.154539e-02 1.306483e-01 8.907389e-02 2.025020e-02 1.035440e-01 4.983498e-02 -7.239880e-02 8.002207e-02 1.355969e-01 -3.145597e-02 -1.119173e-02 -1.228211e-02
<VARIANCE> 39
 3.378637e+02 8.870444e+01 5.945328e+01 7.848075e+01 8.484936e+01 1.568688e+02 9.403924e+01 1.579014e+02 1.149185e+02 1.115118e+02 2.910013e+01 4.073217e+01 3.896964e+01 4.201035e+00 2.424964e+00 2.284660e+00 2.411417e+00 2.766346e+00 4.213674e+00 2.359630e+00 4.513706e+00 3.218807e+00 2.866219e+00 2.237818e+00 1.913487e+00 1.914530e+00 2.531131e-01 2.022210e-01 2.820543e-01 2.899326e-01 3.399064e-01 3.577636e-01 3.278221e-01 5.091279e-01 3.854249e-01 4.125057e-01 3.367189e-01 2.778877e-01 2.673596e-01
<GCONST> 1.280086e+02
<STATE> 3
<NUMMIXES> 2
<MIXTURE> 1 0.000000e+00
<MEAN> 39
 0.000000e+00 0.000000e+00 0.000000e+00 0.000000e+00 0.000000e+00 0.000000e+00 0.000000e+00 0.000000e+00 0.000000e+00 0.000000e+00 0.000000e+00 0.000000e+00 0.000000e+00 6.126449e-30 -5.464483e-30 2.270194e-30 -1.821515e-31 4.406674e-31 -1.213802e-30 9.256382e-31 -1.708705e-31 6.429896e-32 -4.287194e-31 4.667875e-31 -1.477681e-31 3.115776e-33 -5.948948e-02 7.116884e-03 -1.043719e-02 -1.810754e-03 -2.071288e-03 -1.224210e-03 1.069486e-03 9.119928e-04 2.393554e-03 -1.654138e-03 -8.557731e-05 -5.460818e-04 -2.131514e-04
<VARIANCE> 39
 1.000000e-30 1.000000e-30 1.000000e-30 1.000000e-30 1.000000e-30 1.000000e-30 1.000000e-30 1.000000e-30 1.000000e-30 1.000000e-30 1.000000e-30 1.000000e-30 1.000000e-30 7.215268e-30 5.740278e-30 1.000000e-30 1.000000e-30 1.000000e-30 1.000000e-30 1.000000e-30 1.000000e-30 1.000000e-30 1.000000e-30 1.000000e-30 1.000000e-30 1.000000e-30 5.242730e-02 4.308010e-03 4.828463e-03 3.723914e-03 3.905280e-03 3.459802e-03 3.704401e-03 3.736516e-03 3.287535e-03 2.844681e-03 2.523395e-03 2.245883e-03 1.678810e-03
<GCONST> -1.300000e+11
<MIXTURE> 2 1.000000e+00
<MEAN> 39
 -2.506757e+01 -6.284968e+00 -5.069409e+00 -2.430282e+00 -3.584243e+00 -8.607090e-02 -4.013546e+00 1.801854e+00 -1.323130e+00 -1.159415e+00 2.871417e-01 -7.570429e-01 4.252769e-01 2.061188e-02 1.006241e-02 1.953346e-02 4.454650e-02 -1.215024e-02 -5.223711e-02 -1.812067e-02 2.831420e-02 6.070132e-02 2.942948e-02 -1.870462e-03 9.396844e-03 2.295183e-02 9.355456e-02 7.554750e-02 6.539560e-02 4.542581e-02 8.614884e-03 -1.804947e-02 -3.216706e-03 4.668991e-02 3.284222e-02 1.529036e-02 2.984676e-02 2.563595e-02 7.066242e-03
<VARIANCE> 39
 6.297559e+01 4.767388e+00 3.991220e+00 7.313112e+00 5.451173e+00 1.989653e+01 9.875409e+00 1.708974e+01 1.353321e+01 1.491168e+01 7.139027e+00 8.317472e+00 6.059971e+00 2.461450e-01 2.513972e-01 3.388697e-01 5.096636e-01 6.832172e-01 9.282267e-01 9.348219e-01 1.089939e+00 1.367020e+00 1.153721e+00 9.323951e-01 9.173426e-01 8.146838e-01 6.861577e-02 7.845140e-02 9.274757e-02 1.198114e-01 1.425576e-01 1.783077e-01 2.110709e-01 2.340789e-01 2.930509e-01 2.408639e-01 2.068136e-01 1.930109e-01 1.839716e-01
<GCONST> 7.291338e+01
<STATE> 4
<NUMMIXES> 2
<MIXTURE> 1 1.000000e+00
<MEAN> 39
 -1.674024e+01 -2.909346e+00 -2.727249e+00 8.623779e-01 -2.494437e+00 -3.189302e+00 -5.260936e+00 5.931067e+00 1.712464e+00 -1.499502e+00 1.346503e+00 4.992611e-01 8.813440e-01 2.469595e+00 1.941809e+00 1.736535e+00 1.334133e+00 1.586658e-01 -1.007040e+00 -4.517636e-01 1.266058e+00 1.523946e+00 8.678897e-01 6.936088e-01 7.992327e-01 2.369104e-01 7.080489e-01 3.173120e-01 2.601247e-01 3.151160e-01 -6.904770e-02 -5.576863e-01 -3.289862e-01 4.815140e-01 4.415643e-01 -4.999046e-02 -7.255729e-02 7.575953e-02 4.076805e-02
<VARIANCE> 39
 2.609033e+02 2.154733e+01 2.302717e+01 2.192004e+01 1.658164e+01 9.507392e+01 3.516497e+01 7.102079e+01 2.508455e+01 4.369038e+01 1.178234e+01 9.764930e+00 7.939494e+00 2.431188e+00 1.885514e+00 1.819308e+00 1.394652e+00 1.689149e+00 2.412999e+00 1.654673e+00 1.816038e+00 1.640092e+00 1.634560e+00 1.706342e+00 1.298180e+00 1.104549e+00 2.517259e-01 2.501965e-01 2.783726e-01 2.281001e-01 2.631963e-01 3.627253e-01 2.757807e-01 2.966774e-01 2.886763e-01 3.123689e-01 3.457485e-01 2.443767e-01 1.919116e-01
<GCONST> 1.054765e+02
<MIXTURE> 2 0.000000e+00
<MEAN> 39
 1.208484e-05 -8.553267e-06 -2.384186e-07 -1.952052e-06 -1.340359e-05 -3.114343e-05 -5.429611e-07 -6.236136e-06 2.693385e-06 -4.857779e-06 -7.867813e-06 4.526228e-07 9.596348e-06 -5.797483e-08 -3.934838e-07 1.234002e-08 -5.355105e-09 2.961606e-07 -4.060566e-07 -2.242159e-07 7.650815e-07 -7.157214e-07 2.267188e-08 -1.420267e-08 1.264270e-07 -1.518056e-07 -1.733069e-02 2.135032e-03 -2.558388e-03 2.833310e-04 -6.236576e-04 -1.803544e-04 -3.749149e-05 -4.109075e-04 1.268192e-04 -8.433932e-04 1.034832e-04 -7.428668e-04 1.402625e-04
<VARIANCE> 39
 3.943220e-06 1.306646e-06 2.658926e-07 1.000000e-30 4.642643e-06 1.331419e-05 1.000000e-30 1.000000e-30 1.000000e-30 4.651025e-06 1.906883e-06 1.000000e-30 1.000000e-30 1.000000e-30 1.000000e-30 1.000000e-30 1.000000e-30 2.783054e-10 4.038156e-10 1.000000e-30 1.731314e-08 1.000000e-30 3.075229e-11 7.235030e-10 1.000000e-30 6.684786e-10 1.100459e-02 5.213512e-04 5.872871e-04 3.387984e-04 4.089739e-04 3.906928e-04 4.339819e-04 3.915064e-04 3.306664e-04 3.511715e-04 2.671561e-04 2.600339e-04 1.677476e-04
<GCONST> -1.300000e+11
<STATE> 5
<NUMMIXES> 2
<MIXTURE> 1 3.603780e-01
<MEAN> 39
 -2.763940e+00 5.336306e+00 2.939971e+00 7.310782e+00 -3.390353e+00 -1.286799e+01 -9.695543e+00 1.435900e+01 1.095477e+01 2.433341e-01 8.220503e-01 3.508420e+00 3.054139e+00 4.232764e+00 5.263911e-01 -3.310159e-01 1.061115e+00 -7.085479e-01 -3.508799e+00 -1.311851e+00 2.444550e+00 1.625659e+00 -9.163567e-01 -5.096037e-01 4.842007e-01 8.362327e-03 4.670540e-03 -4.002343e-01 -3.909292e-01 -1.518981e-01 -1.978076e-01 -2.498152e-01 1.521927e-02 1.431519e-02 -2.097709e-01 -2.431654e-01 -2.139216e-02 -4.041337e-02 -1.635335e-01
<VARIANCE> 39
 9.167639e+01 1.499243e+01 1.404092e+01 1.704645e+01 2.696056e+01 7.055273e+01 2.614093e+01 4.444583e+01 2.729009e+01 1.793600e+01 2.130957e+01 1.370803e+01 1.504962e+01 9.477508e-01 1.533092e+00 1.818396e+00 1.202460e+00 2.460954e+00 2.521334e+00 1.899062e+00 1.840248e+00 1.818429e+00 1.540939e+00 1.935555e+00 1.210171e+00 1.737568e+00 2.117470e-01 1.651074e-01 2.822790e-01 1.884652e-01 4.019102e-01 4.457435e-01 3.771305e-01 3.554726e-01 2.880470e-01 3.186655e-01 4.898207e-01 2.629492e-01 2.922942e-01
<GCONST> 1.045538e+02
<MIXTURE> 2 6.396240e-01
<MEAN> 39
 1.986139e+01 -3.008154e-01 -4.169283e+00 1.109951e+01 -7.949196e+00 -3.365413e+01 -1.690434e+01 2.750797e+01 1.587794e+01 -9.703444e+00 -1.339266e+00 4.709819e+00 2.245207e-01 7.677916e-01 -6.568736e-01 -5.170707e-01 1.831986e-01 -8.667055e-02 -8.300383e-01 -2.908811e-01 4.991583e-01 2.379401e-01 -3.101419e-01 -1.944109e-02 -2.910117e-02 -1.471705e-01 -2.840444e-01 -4.217011e-02 3.713846e-02 -8.928031e-02 2.184621e-01 4.667171e-01 1.086871e-01 -2.344636e-01 -1.369528e-01 7.572419e-02 2.326065e-02 -1.052283e-01 3.839688e-02
<VARIANCE> 39
 1.391852e+01 3.140838e+01 3.190887e+01 1.062755e+01 2.534573e+01 2.535598e+01 1.993810e+01 2.980346e+01 1.607915e+01 2.608350e+01 1.491847e+01 1.731837e+01 8.316767e+00 2.389425e+00 1.043650e+00 7.979196e-01 7.368129e-01 1.371636e+00 3.280941e+00 1.324244e+00 2.491156e+00 9.907249e-01 1.576140e+00 9.801851e-01 7.851736e-01 5.438429e-01 3.613527e-01 1.435436e-01 1.022694e-01 1.209296e-01 2.060176e-01 3.992890e-01 2.059046e-01 4.086246e-01 1.319695e-01 2.165900e-01 1.787589e-01 1.287898e-01 9.717254e-02
<GCONST> 9.082085e+01
<STATE> 6
<NUMMIXES> 2
<MIXTURE> 1 3.985003e-01
<MEAN> 39
 2.254831e+01 -4.061709e+00 -9.040787e+00 2.629483e+00 1.129089e+00 -1.546748e+01 -1.417459e+01 2.153456e+01 5.258619e+00 -1.249985e+01 4.668369e+00 -2.701694e+00 -2.968556e+00 1.300163e-01 5.502915e-01 -3.104948e-01 -1.060287e+00 1.084229e+00 2.689476e+00 3.603768e-01 -1.975351e+00 -1.287525e+00 3.501385e-01 1.419923e-01 -6.403383e-01 1.376844e-01 -7.178903e-02 2.181826e-01 -2.395896e-02 -2.344405e-02 2.176897e-02 2.023540e-01 1.918331e-01 -3.114343e-01 5.467802e-02 1.599020e-01 -3.069125e-01 1.281307e-01 1.632254e-01
<VARIANCE> 39
 1.493836e+01 1.825441e+01 3.414079e+01 2.296569e+01 2.466420e+01 7.120402e+01 3.098892e+01 8.754234e+01 3.172028e+01 3.888008e+01 3.266939e+01 1.513229e+01 1.886618e+01 8.040805e-01 7.443878e-01 7.337030e-01 9.075535e-01 8.804676e-01 1.616768e+00 1.578974e+00 3.203745e+00 9.044582e-01 1.522038e+00 1.938227e+00 9.508219e-01 5.753630e-01 1.490138e-01 8.546075e-02 1.156150e-01 1.380959e-01 1.185989e-01 1.492824e-01 3.027211e-01 4.189764e-01 1.374038e-01 2.453431e-01 3.053621e-01 1.780276e-01 9.806301e-02
<GCONST> 9.379363e+01
<MIXTURE> 2 6.014974e-01
<MEAN> 39
 2.221826e+01 -5.416727e+00 -9.108278e+00 9.599277e+00 -4.742007e+00 -3.014265e+01 -1.576772e+01 2.577025e+01 1.411437e+01 -1.017085e+01 -1.072241e+00 2.827362e+00 -5.896517e-01 7.245956e-02 -2.697481e-01 -2.397785e-01 -4.463798e-01 4.245268e-01 9.844096e-01 3.166806e-01 -2.248666e-01 -6.602156e-01 -3.134389e-01 2.623107e-01 -4.193554e-01 -1.927554e-01 -1.159682e-02 7.697768e-02 3.888177e-02 -5.432914e-02 3.436608e-02 1.401655e-01 1.773307e-02 -3.274752e-02 -1.286976e-01 -4.539333e-02 7.004325e-02 -4.490516e-02 -7.331941e-03
<VARIANCE> 39
 8.250529e+00 9.761905e+00 1.703516e+01 1.106649e+01 1.341304e+01 2.396266e+01 1.631499e+01 2.215181e+01 1.921861e+01 2.286352e+01 1.486343e+01 6.812624e+00 7.141052e+00 7.184279e-01 4.215936e-01 5.795097e-01 5.726488e-01 4.509254e-01 8.372083e-01 5.028101e-01 9.708096e-01 7.068856e-01 6.620051e-01 7.661658e-01 3.543892e-01 2.933137e-01 1.101217e-01 5.243606e-02 6.848138e-02 6.588209e-02 4.356514e-02 6.431792e-02 7.431490e-02 1.332719e-01 5.561495e-02 8.727018e-02 1.015094e-01 4.814154e-02 3.984259e-02
<GCONST> 6.343879e+01
<TRANSP> 7
 0.000000e+00 1.000000e+00 0.000000e+00 0.000000e+00 0.000000e+00 0.000000e+00 0.000000e+00
 0.000000e+00 8.280893e-01 1.719107e-01 0.000000e+00 0.000000e+00 0.000000e+00 0.000000e+00
 0.000000e+00 0.000000e+00 9.044706e-01 9.552940e-02 0.000000e+00 0.000000e+00 0.000000e+00
 0.000000e+00 0.000000e+00 0.000000e+00 5.625111e-01 4.374889e-01 0.000000e+00 0.000000e+00
 0.000000e+00 0.000000e+00 0.000000e+00 0.000000e+00 9.216899e-01 7.831012e-02 0.000000e+00
 0.000000e+00 0.000000e+00 0.000000e+00 0.000000e+00 0.000000e+00 9.360144e-01 6.398562e-02
 0.000000e+00 0.000000e+00 0.000000e+00 0.000000e+00 0.000000e+00 0.000000e+00 0.000000e+00
<ENDHMM>
~h "ph"
<BEGINHMM>
<NUMSTATES> 5
<STATE> 2
<NUMMIXES> 2
<MIXTURE> 1 3.647424e-01
<MEAN> 39
 -2.663962e+01 -6.191755e+00 -4.923934e+00 -2.818441e+00 -3.591036e+00 6.857497e-01 -3.623614e+00 1.146596e+00 -1.569554e+00 -4.913853e-01 5.742855e-01 -9.026435e-01 3.482104e-01 -5.927564e-02 -7.029548e-02 -7.654049e-02 -7.975203e-02 -8.346120e-02 -5.918168e-02 -9.156016e-02 -5.130712e-02 1.504305e-02 1.816296e-02 1.443381e-02 2.650262e-02 3.290257e-02 1.263950e-01 1.064704e-01 1.140429e-01 1.317341e-01 1.255511e-01 8.859120e-02 6.270873e-02 4.904009e-02 -4.615721e-03 -4.404423e-02 -1.441465e-02 3.541804e-03 1.437349e-02
<VARIANCE> 39
 5.153345e-01 1.006236e+00 1.687011e+00 2.597843e+00 3.679551e+00 4.389468e+00 5.784271e+00 6.622436e+00 6.843277e+00 6.115021e+00 6.568799e+00 6.004651e+00 5.029947e+00 1.100866e-01 1.995536e-01 3.064325e-01 4.717513e-01 6.078116e-01 7.080827e-01 9.674462e-01 1.028512e+00 1.021243e+00 1.009708e+00 1.059383e+00 9.060055e-01 7.064744e-01 5.778698e-02 7.606048e-02 1.084577e-01 1.328216e-01 1.542397e-01 1.826774e-01 2.482010e-01 2.759764e-01 2.684611e-01 2.704922e-01 2.615609e-01 2.197068e-01 1.745757e-01
<GCONST> 5.784982e+01
<MIXTURE> 2 6.352547e-01
<MEAN> 39
 -9.894705e+00 -6.108825e-02 3.044934e+00 8.130766e+00 6.644017e+00 6.253388e+00 -4.375597e+00 1.189718e+00 -7.577832e+00 -9.090706e+00 -1.616703e+00 -2.813443e+00 1.059497e+00 -1.448852e+00 -1.301925e+00 -9.973590e-01 -1.018741e+00 -8.993722e-01 -3.306483e-01 -1.359675e-01 -2.843039e-01 -9.077704e-03 3.602704e-01 2.556365e-01 2.027250e-02 6.995577e-02 1.125521e-01 -9.596509e-02 -1.203415e-01 -4.801759e-02 -9.327970e-03 -3.345446e-02 -9.312426e-03 9.639277e-02 7.218124e-02 2.253492e-02 5.750377e-02 1.665098e-02 -1.963618e-02
<VARIANCE> 39
 1.068802e+02 1.111048e+02 5.903116e+01 7.096072e+01 5.447024e+01 5.168153e+01 7.659743e+01 7.714797e+01 8.510229e+01 7.024989e+01 4.494236e+01 3.670623e+01 2.877333e+01 3.790626e+00 5.288014e+00 3.573943e+00 3.362479e+00 2.693313e+00 3.192291e+00 3.252549e+00 4.042414e+00 4.856069e+00 4.120476e+00 3.556096e+00 2.082515e+00 1.907497e+00 3.262174e-01 5.023388e-01 4.594086e-01 4.365166e-01 3.746838e-01 4.104983e-01 4.343789e-01 5.341839e-01 7.321053e-01 6.661720e-01 5.544505e-01 3.183143e-01 3.127769e-01
<GCONST> 1.309835e+02
<STATE> 3
<NUMMIXES> 2
<MIXTURE> 1 7.004662e-01
<MEAN> 39
 -1.020432e+01 -1.918561e+00 6.900871e-01 9.323289e+00 9.599010e+00 9.591724e+00 1.724382e+00 8.611284e+00 -8.922181e-02 -2.945086e+00 3.818519e+00 4.637997e+00 7.307391e+00 3.278958e+00 -8.218621e-02 -8.399611e-02 8.661122e-01 1.009189e+00 3.817062e-01 -2.996058e-01 5.913370e-01 -6.854600e-01 -1.065539e+00 9.771900e-01 7.659429e-01 7.299498e-01 3.831084e-02 -1.919523e-01 -3.370161e-01 -4.126043e-01 -4.122641e-01 -3.245189e-01 -2.710427e-01 -2.042536e-01 -1.967512e-01 -4.815114e-02 1.864634e-01 -1.311395e-03 -1.515099e-01
<VARIANCE> 39
 8.129344e+01 2.096460e+01 1.502520e+01 2.190257e+01 2.514799e+01 2.606581e+01 3.103988e+01 2.344715e+01 3.227563e+01 3.440699e+01 2.070558e+01 2.597767e+01 2.138414e+01 1.157961e+00 1.842731e+00 2.365213e+00 3.633885e+00 4.317076e+00 3.939945e+00 3.841732e+00 2.963762e+00 3.125750e+00 2.588898e+00 2.489808e+00 2.200952e+00 2.272609e+00 3.145647e-01 1.438257e-01 2.357982e-01 2.627481e-01 3.890001e-01 5.269746e-01 6.900197e-01 4.720608e-01 6.004330e-01 6.172336e-01 3.398850e-01 3.947539e-01 3.757322e-01
<GCONST> 1.145772e+02
<MIXTURE> 2 2.995341e-01
<MEAN> 39
 -2.640069e+01 -6.037715e+00 -4.657699e+00 -2.432370e+00 -3.421796e+00 7.756512e-01 -3.402800e+00 1.489185e+00 -1.220265e+00 -1.304093e-01 1.037487e+00 -4.842862e-01 8.621997e-01 6.987355e-01 3.933939e-01 6.657075e-01 1.028084e+00 1.169095e+00 9.667401e-01 8.848841e-01 9.888791e-01 5.522041e-01 2.374387e-01 4.464704e-01 5.145401e-01 5.231407e-01 7.115535e-01 4.162320e-01 5.715117e-01 8.240312e-01 9.453371e-01 7.428771e-01 5.314773e-01 5.489790e-01 2.025616e-01 -7.076983e-02 6.856149e-02 2.709086e-01 3.232093e-01
<VARIANCE> 39
 8.675494e-01 1.800103e+00 2.213525e+00 4.120845e+00 5.111497e+00 5.892263e+00 6.033323e+00 6.249250e+00 6.875350e+00 6.820801e+00 6.096852e+00 5.369915e+00 4.799860e+00 1.439277e+00 1.213786e+00 1.760196e+00 2.696164e+00 3.439508e+00 3.086539e+00 2.632818e+00 2.183776e+00 1.829724e+00 1.536175e+00 1.161447e+00 1.350790e+00 1.214483e+00 1.395661e-01 1.307242e-01 1.603041e-01 2.560739e-01 2.549036e-01 2.740682e-01 2.992778e-01 2.717300e-01 3.087726e-01 3.096398e-01 2.411014e-01 2.652982e-01 2.463722e-01
<GCONST> 7.931307e+01
<STATE> 4
<NUMMIXES> 2
<MIXTURE> 1 1.000000e+00
<MEAN> 39
 5.053799e+00 -1.037653e+01 -1.045228e+01 2.664959e+00 3.804063e+00 6.099567e+00 1.337972e-01 1.151589e+01 4.167896e-02 -4.945794e-01 1.416258e+01 8.737576e+00 7.686625e+00 7.727467e-01 -1.647513e-01 -5.032162e-01 -1.891822e-01 -4.241842e-01 -4.489444e-01 1.572643e-01 3.141843e-01 6.837813e-01 9.154047e-01 4.973973e-01 1.283405e-03 -3.790378e-01 -9.491379e-02 2.167181e-01 2.496847e-01 1.850697e-01 1.194609e-01 -6.735387e-02 -7.008626e-02 -4.098991e-02 6.635763e-03 -8.502834e-02 -2.327976e-01 -1.794528e-01 -1.347749e-01
<VARIANCE> 39
 7.026645e+01 7.931870e+01 6.544670e+01 5.579770e+01 1.080644e+02 1.130373e+02 6.579487e+01 9.551146e+01 1.113240e+02 1.333596e+02 7.489307e+01 7.497386e+01 3.263725e+01 1.019850e+00 3.088693e+00 3.689383e+00 2.829173e+00 3.267366e+00 3.178733e+00 2.518994e+00 3.263076e+00 4.698838e+00 5.335216e+00 3.020530e+00 3.667512e+00 2.268468e+00 1.462952e-01 2.887618e-01 3.640517e-01 2.780610e-01 3.652037e-01 5.005585e-01 4.367238e-01 4.588277e-01 8.514991e-01 1.007608e+00 3.462264e-01 4.414139e-01 3.002846e-01
<GCONST> 1.307757e+02
<MIXTURE> 2 0.000000e+00
<MEAN> 39
 5.007752e+00 -2.283543e+01 4.224558e+00 7.395911e+00 -1.496770e+01 1.634329e+01 -3.899620e-01 -7.362168e+00 1.045351e+01 -8.315866e+00 -4.072007e+00 7.575201e+00 -7.643221e+00 4.026023e-01 -7.765181e-02 -8.578298e-02 -6.968217e-02 -1.323925e-01 -1.894298e-01 -1.235157e-01 -2.788639e-02 -4.998827e-02 -1.253398e-01 -5.394829e-02 -4.789721e-02 -1.341058e-01 -2.680980e-02 2.108817e-01 -1.997906e-02 -1.188034e-02 7.128937e-02 -1.880370e-01 -1.090263e-02 7.185538e-02 -9.433557e-02 3.775261e-02 -1.023603e-02 -9.081265e-02 7.448491e-03
<VARIANCE> 39
 4.348479e+01 6.712718e+01 3.071273e+01 2.897330e+01 3.015086e+01 3.144908e+01 3.685800e+01 4.986613e+01 2.770036e+01 2.634098e+01 2.861377e+01 1.982357e+01 1.831832e+01 2.071848e+00 4.567060e+00 1.638904e+00 1.625862e+00 2.427497e+00 3.893136e+00 2.698308e+00 2.704647e+00 2.611578e+00 1.984589e+00 1.565095e+00 1.808744e+00 1.519972e+00 2.321895e-01 5.215378e-01 2.863469e-01 2.859152e-01 3.921969e-01 5.372592e-01 4.658649e-01 5.187892e-01 4.154823e-01 3.823926e-01 2.791561e-01 2.746449e-01 2.874104e-01
<GCONST> 1.139793e+02
<TRANSP> 5
 0.000000e+00 1.000000e+00 0.000000e+00 0.000000e+00 0.000000e+00
 0.000000e+00 9.358627e-01 6.413732e-02 0.000000e+00 0.000000e+00
 0.000000e+00 0.000000e+00 8.625861e-01 1.374138e-01 0.000000e+00
 0.000000e+00 0.000000e+00 0.000000e+00 8.918899e-01 1.081101e-01
 0.000000e+00 0.000000e+00 0.000000e+00 0.000000e+00 0.000000e+00
<ENDHMM>
~h "rq"
<BEGINHMM>
<NUMSTATES> 7
<STATE> 2
<NUMMIXES> 2
<MIXTURE> 1 4.025789e-01
<MEAN> 39
 2.612244e+00 -1.673002e+01 1.093884e+01 3.448500e+00 1.876190e+00 2.117198e+01 -1.955112e+00 8.688236e+00 -8.866281e+00 -1.386056e+01 8.376528e+00 2.150323e+00 3.911038e+00 1.946860e+00 9.184189e-01 1.829193e+00 2.211081e+00 -9.797039e-02 -4.413267e-01 8.664075e-01 -5.695876e-01 -6.658329e-01 -1.607505e+00 -6.450061e-01 5.564260e-01 1.553175e-01 1.965511e-01 8.800541e-01 -4.105553e-01 7.586948e-01 3.350129e-01 -9.151250e-01 2.736346e-01 -3.346322e-01 2.673145e-01 2.953486e-01 -9.845023e-01 -5.645072e-01 1.591962e-01
<VARIANCE> 39
 6.591378e+00 9.225726e+00 7.915801e+00 7.448700e+01 3.258489e+00 4.473000e+00 1.398467e+01 2.412948e+00 7.276954e+00 6.201375e+00 2.804731e+01 4.669217e+00 1.284087e+01 1.035560e+00 3.442556e+00 4.259403e-01 2.724733e+00 2.717075e-01 2.439069e+00 2.815256e+00 7.325099e-01 5.854679e-01 1.439874e+00 6.046682e+00 1.057222e+00 1.806586e+00 2.415307e-01 1.704653e-01 2.635984e-01 4.394478e-01 1.903950e-01 1.056097e-01 1.658642e-01 3.376766e-02 1.871896e-01 1.988737e-01 3.336716e-01 2.199658e-01 2.917186e-01
<GCONST> 8.203622e+01
<MIXTURE> 2 5.974211e-01
<MEAN> 39
 9.860911e+00 -1.462162e+01 1.339543e+01 1.088160e+01 7.419309e-01 1.966334e+01 -2.006441e+00 5.150855e+00 -6.052692e+00 -2.132779e+01 2.171795e+00 1.050587e+00 2.886959e-01 2.273260e+00 1.748667e+00 -1.177590e+00 1.922424e+00 1.499780e+00 -2.086904e+00 1.586772e-01 2.461569e-01 -7.610242e-01 -5.639520e-01 -1.366698e+00 -1.182526e+00 -2.847181e-01 -9.689274e-02 -1.430379e-02 -7.475106e-01 -5.016713e-01 1.568035e-01 -4.144623e-01 -4.739871e-01 -7.342576e-02 -2.259902e-01 3.349518e-01 2.839955e-01 -1.040153e-01 -1.562538e-02
<VARIANCE> 39
 2.447683e+01 5.067466e+01 1.316635e+01 3.235878e+01 1.108881e+01 4.853448e+01 3.256804e+01 6.331014e+00 3.231741e+01 6.656447e+00 7.617125e+00 8.064360e+00 8.209228e+00 1.035775e+00 1.597488e+00 3.737498e+00 2.746353e+00 1.969671e+00 3.988007e+00 2.813592e+00 2.029810e+00 9.582480e-01 2.604142e-01 1.242108e+00 1.496600e+00 5.380152e-01 3.515462e-01 6.358195e-01 2.983182e-01 3.942492e-01 3.557122e-01 4.305225e-01 7.803141e-01 1.684152e-01 1.130518e-01 7.694335e-02 2.089657e-01 1.357857e-01 6.817878e-02
<GCONST> 9.477717e+01
<STATE> 3
<NUMMIXES> 2
<MIXTURE> 1 0.000000e+00
<MEAN> 39
 4.792265e+00 -1.912126e+01 8.256557e+00 2.451213e+01 1.160292e+01 1.819415e+01 7.673485e+00 3.453903e+00 4.996493e+00 -4.574647e+00 -3.024233e+00 4.534252e+00 1.549923e+00 -2.303306e+00 -4.620656e+00 1.031160e+00 -1.352414e+00 -1.113822e+00 3.745343e+00 -7.456693e-01 -1.206692e+00 4.268679e+00 -2.608063e-01 -2.248156e+00 2.545908e-02 2.149880e-01 4.363273e-01 -5.970409e-01 -4.939691e-01 -4.104499e-01 4.786224e-01 7.117655e-02 -2.241323e+00 -1.253818e+00 -7.737113e-01 -4.610961e-01 5.581028e-01 -7.018080e-01 -7.416869e-01
<VARIANCE> 39
 1.000000e-30 1.000000e-30 1.000000e-30 1.000000e-30 1.000000e-30 1.000000e-30 1.192093e-07 1.490116e-08 4.768372e-07 1.000000e-30 1.000000e-30 1.000000e-30 1.000000e-30 1.000000e-30 1.000000e-30 1.490116e-08 1.000000e-30 1.000000e-30 1.000000e-30 1.000000e-30 1.000000e-30 1.000000e-30 1.000000e-30 1.000000e-30 1.000000e-30 1.000000e-30 1.862645e-09 1.000000e-30 1.000000e-30 1.000000e-30 1.000000e-30 1.000000e-30 1.000000e-30 1.000000e-30 4.656613e-10 1.000000e-30 1.000000e-30 1.000000e-30 1.000000e-30
<GCONST> -3.300001e+11
<MIXTURE> 2 1.000000e+00
<MEAN> 39
 1.756982e+01 -7.382607e+00 4.968905e+00 1.438797e+01 6.628255e+00 6.181911e+00 -4.656266e+00 4.624332e+00 -1.302007e+01 -2.073498e+01 1.318665e+00 -3.467173e+00 6.617746e-01 9.791222e-01 8.559798e-01 -2.293556e+00 4.666215e-01 2.621185e+00 -2.714810e+00 -2.055813e+00 -1.542722e-01 -1.883041e+00 -8.275928e-01 5.467214e-01 -8.682709e-02 -5.963966e-01 -4.334525e-01 -1.005696e-01 1.191327e-01 -2.673159e-01 2.323683e-01 4.668311e-01 -3.595417e-02 3.526065e-01 7.153692e-02 -4.597626e-01 3.580131e-01 7.372807e-01 -2.199395e-01
<VARIANCE> 39
 3.941559e+00 7.286028e+00 1.111348e+01 9.902213e+00 1.346880e+01 1.887024e+01 3.043352e+01 5.531981e+00 1.749346e+01 7.130610e+00 3.300230e+00 9.838730e+00 1.080374e+00 7.785009e-02 9.496780e-01 9.070868e-02 2.352981e-01 2.519616e-01 1.854005e+00 1.970596e-01 7.301441e-01 6.961592e-01 1.575749e+00 1.658655e+00 1.709104e+00 1.066383e+00 1.507396e-02 1.013052e-01 5.146836e-02 1.034414e-01 1.554068e-01 1.065455e-01 1.145695e-01 3.082534e-02 9.471437e-02 1.240107e-01 3.146275e-02 1.144336e-01 6.673791e-02
<GCONST> 5.658605e+01
<STATE> 4
<NUMMIXES> 2
<MIXTURE> 1 7.419543e-01
<MEAN> 39
 2.007743e+01 -7.176466e+00 -3.644122e+00 1.091756e+01 1.561366e+01 -3.093240e+00 -1.620721e+01 1.131688e+01 -1.907227e+01 -2.921046e+01 1.200157e+01 -3.657623e-01 -6.857350e+00 -1.198535e-01 8.654198e-02 -1.588076e-01 -4.280699e-01 5.140410e-01 1.899500e-01 -4.256359e-01 3.752927e-01 -4.435601e-01 -1.694126e-01 8.641265e-01 -4.892561e-01 -2.761507e-01 -1.339100e-01 -1.018364e-02 2.297756e-01 -1.643029e-02 -1.308301e-01 2.932072e-01 1.771617e-01 -1.482762e-02 1.793131e-01 2.151653e-01 -8.938235e-02 -1.003967e-01 1.379193e-01
<VARIANCE> 39
 7.203026e+00 9.126575e+00 1.590123e+01 8.950631e+00 3.489561e+00 2.972227e+01 2.451661e+01 2.794818e+01 1.314048e+01 1.277584e+01 4.325348e+01 1.550911e+01 1.271023e+01 2.328535e-01 3.838577e-01 7.550114e-01 5.179258e-01 1.067150e+00 2.240433e+00 2.629749e+00 1.492349e+00 3.178750e-01 1.080050e+00 1.880506e+00 1.151885e+00 1.217317e+00 8.118669e-02 1.310352e-01 1.336081e-01 7.835934e-02 8.606464e-02 2.050892e-01 1.695368e-01 3.160648e-01 1.123934e-01 2.088225e-01 2.220723e-01 1.700474e-01 8.276383e-02
<GCONST> 7.936592e+01
<MIXTURE> 2 2.580457e-01
<MEAN> 39
 1.830071e+01 -4.999859e+00 -3.699995e-01 8.713782e+00 1.934976e+01 -1.482519e+00 -1.750512e+01 1.119079e+01 -2.482852e+01 -3.013348e+01 1.522899e+01 1.473176e-01 -7.303812e+00 -3.589223e-02 -2.830833e-01 6.308444e-01 -2.950270e-01 1.039901e+00 -8.197044e-01 -1.634829e+00 1.882624e+00 -1.158832e+00 -9.570372e-01 2.265675e+00 -6.819003e-01 -6.831654e-01 -9.006404e-02 9.373127e-02 3.225100e-01 1.085666e-01 -5.470122e-01 3.265184e-01 4.567255e-01 -2.065226e-01 1.795873e-01 3.280933e-01 -1.152858e-01 -3.294718e-01 5.759996e-02
<VARIANCE> 39
 5.554842e-01 8.664463e-01 7.773686e+00 7.404027e+00 1.647396e+01 6.819511e+00 4.439023e+01 3.063172e+01 2.686820e+01 3.727929e+00 5.652983e+01 1.188217e+01 3.233909e+00 2.906819e-01 5.537178e-01 1.528740e+00 1.500503e-01 2.134148e+00 6.768993e-01 1.158837e+00 6.619039e-01 2.838167e-01 8.148551e-01 3.951230e-01 1.221110e+00 5.808856e-01 3.037911e-02 8.286948e-02 1.085894e-01 1.156199e-01 8.588475e-02 5.591779e-01 1.597037e-01 5.784712e-01 2.120441e-02 7.530617e-02 8.807706e-02 4.589566e-02 5.041808e-02
<GCONST> 6.257506e+01
<STATE> 5
<NUMMIXES> 2
<MIXTURE> 1 4.999999e-01
<MEAN> 39
 1.648311e+01 -8.716845e+00 1.986850e+00 1.490420e+01 1.554052e+01 7.689414e+00 -9.538660e+00 9.317981e+00 -1.512879e+01 -2.395198e+01 5.671817e+00 -7.715473e+00 2.415707e-01 -1.391384e+00 1.747127e+00 5.475765e-01 6.423442e-02 7.018294e-01 1.092762e+00 5.753473e-01 -1.926640e-01 1.005263e+00 9.508843e-01 -1.738835e+00 -1.717544e-01 9.037476e-01 -4.739072e-01 4.447121e-01 3.280790e-01 -1.171053e-01 -4.596630e-01 1.191215e-01 5.410848e-01 -3.841059e-01 6.566612e-01 9.446481e-01 -5.466913e-01 4.013507e-01 -1.198203e-01
<VARIANCE> 39
 4.659817e+00 1.269095e-01 3.219355e+01 5.281556e+01 5.873570e-01 4.019551e+01 1.882051e+01 8.178323e+01 2.090745e+01 3.449270e+01 1.031012e+02 4.923664e-02 1.482097e+01 1.639186e+00 2.142903e-02 2.885228e+00 1.183960e-02 3.465733e-01 3.173444e+00 1.223919e+00 1.006498e-02 1.381541e+00 7.254425e-01 6.514583e-02 5.526662e-01 1.486127e-01 1.923541e-02 3.655278e-02 5.306710e-02 1.433225e-01 3.861380e-02 2.256573e-01 6.444654e-02 5.564119e-01 1.588893e-04 1.258508e-01 3.159105e-01 7.754368e-02 5.251167e-03
<GCONST> 4.374894e+01
<MIXTURE> 2 5.000001e-01
<MEAN> 39
 1.748334e+01 -4.912407e+00 6.519381e+00 7.172497e+00 1.876625e+01 2.960281e+00 -1.890985e+01 1.331033e+01 -3.220710e+01 -2.887740e+01 2.771542e+01 -9.329806e+00 -1.071295e+01 6.647688e-01 -3.381927e-01 3.525430e-01 6.915750e-01 -3.196233e-01 1.935851e+00 1.045099e+00 -1.640531e+00 4.245627e-01 2.374650e+00 5.452879e-01 -1.946172e+00 -1.427778e+00 -1.598011e-01 3.043729e-01 -2.685203e-01 1.269881e-01 1.659334e-01 -1.655996e-01 5.790511e-01 -1.808861e-02 1.157945e+00 6.222216e-01 -1.445170e+00 3.042874e-01 5.446976e-01
<VARIANCE> 39
 1.422229e+00 3.023719e-01 2.461566e-01 4.064647e-01 2.195065e+00 3.879410e+00 5.447816e+00 1.945909e+01 6.212687e+00 6.674847e+00 6.240867e+00 4.603499e-04 8.652864e-01 4.369710e-03 1.781983e-03 1.034947e-02 1.283658e-02 1.614247e-01 5.547156e-01 1.595090e-04 1.202204e-01 1.646672e-01 6.196649e-02 4.493979e-01 1.122476e-02 1.183712e-02 4.694442e-02 4.750057e-02 1.907628e-02 2.191946e-02 7.276127e-03 3.455763e-02 1.179594e-02 1.824279e-01 2.320286e-02 2.791244e-02 4.022332e-02 2.537120e-02 1.728746e-01
<GCONST> -1.951064e+01
<STATE> 6
<NUMMIXES> 2
<MIXTURE> 1 6.318128e-01
<MEAN> 39
 2.608186e+00 5.327147e+00 9.135029e+00 1.481465e+01 1.412784e+01 1.174483e+01 -2.219676e+00 3.498382e+00 -9.638296e+00 -1.490504e+01 -5.881939e+00 -5.823871e+00 2.078205e+00 -2.016446e+00 8.798532e-01 -1.370183e-01 1.092411e-01 -3.815912e-01 -5.417646e-01 3.848734e-01 -9.861407e-01 1.013877e+00 9.305387e-01 -1.949729e+00 3.464453e-01 2.175266e-01 1.779024e-01 -7.125857e-01 -4.352295e-01 -1.976332e-01 -1.326961e-02 -2.450120e-01 -3.657039e-01 2.832048e-01 1.693554e-01 4.293354e-02 5.495286e-01 -4.733035e-02 -9.990422e-02
<VARIANCE> 39
 7.664731e+01 4.582588e+01 8.769231e+00 1.944157e+01 5.301855e+00 4.040063e+00 3.910041e+00 1.223137e+01 8.883698e+00 5.331666e+00 3.017948e+01 5.976627e+00 2.954639e+00 9.664111e-01 4.340203e+00 2.019469e+00 1.051211e+00 1.106794e+00 1.092158e+00 4.743483e-01 1.845438e+00 6.101570e-01 1.414809e+00 4.268381e+00 7.864267e-01 1.138452e+00 1.123838e-01 1.202676e-01 1.005241e-01 1.100491e-01 1.664491e-01 2.812291e-01 1.701300e-01 1.688318e-01 3.556735e-01 5.663089e-01 3.876246e-01 4.283003e-02 3.835202e-01
<GCONST> 8.340604e+01
<MIXTURE> 2 3.681872e-01
<MEAN> 39
 1.378916e+01 -1.852327e+00 5.348828e+00 9.224025e+00 1.674720e+01 7.932290e+00 -1.021504e+01 1.258591e+01 -1.808366e+01 -2.093132e+01 1.426290e+01 -9.968132e+00 -5.139670e+00 -2.202280e+00 2.729695e+00 1.458412e+00 3.970014e-01 -1.021253e+00 2.474123e+00 3.391387e+00 -1.365021e+00 3.072382e+00 2.777488e+00 -4.311570e+00 6.205512e-01 2.134911e+00 -3.126275e-01 5.520499e-01 1.401180e-02 8.138285e-02 -1.303968e-01 -2.967512e-01 4.782119e-02 -3.006880e-01 -1.243128e-01 -2.472527e-01 -6.638406e-01 6.354232e-01 3.637113e-01
<VARIANCE> 39
 1.091394e+01 9.384335e+00 7.016879e+00 1.762190e+00 6.214040e+00 1.334931e+01 2.918617e+01 8.837706e+00 4.824357e+01 1.147835e+01 6.044630e+01 6.493147e+00 3.112879e+01 4.734623e-01 6.735101e-01 9.124923e-01 1.547310e-01 1.476757e-01 9.322984e-01 5.379324e-01 5.469061e-01 8.004593e-01 8.379112e-01 9.425663e-01 1.003203e+00 1.608832e+00 1.408323e-01 1.160206e-01 6.995384e-02 4.403301e-02 7.080319e-02 3.910053e-01 4.710645e-01 1.563715e-01 5.084038e-01 3.597363e-01 4.799570e-01 1.248379e-01 5.332236e-01
<GCONST> 7.699820e+01
<TRANSP> 7
 0.000000e+00 1.000000e+00 0.000000e+00 0.000000e+00 0.000000e+00 0.000000e+00 0.000000e+00
 0.000000e+00 8.502758e-01 1.497242e-01 0.000000e+00 0.000000e+00 0.000000e+00 0.000000e+00
 0.000000e+00 0.000000e+00 5.714762e-01 4.285238e-01 0.000000e+00 0.000000e+00 0.000000e+00
 0.000000e+00 0.000000e+00 0.000000e+00 8.888889e-01 1.111111e-01 0.000000e+00 0.000000e+00
 0.000000e+00 0.000000e+00 0.000000e+00 0.000000e+00 2.500000e-01 7.500000e-01 0.000000e+00
 0.000000e+00 0.000000e+00 0.000000e+00 0.000000e+00 0.000000e+00 8.422053e-01 1.577947e-01
 0.000000e+00 0.000000e+00 0.000000e+00 0.000000e+00 0.000000e+00 0.000000e+00 0.000000e+00
<ENDHMM>
~h "sh"
<BEGINHMM>
<NUMSTATES> 5
<STATE> 2
<NUMMIXES> 2
<MIXTURE> 1 5.723638e-01
<MEAN> 39
 3.971353e+00 -2.062466e+01 4.099450e+00 1.817415e+01 1.018044e+01 1.552847e+01 -4.821785e+00 -1.360306e+00 -2.111705e+00 -9.378113e+00 -1.408305e+00 -1.727203e-01 1.185132e+00 -1.461252e+00 -3.539772e+00 1.185559e+00 1.752088e-01 -1.073629e+00 1.994767e+00 8.383548e-01 -1.934247e-01 1.254867e+00 6.613488e-01 2.857970e-01 7.363069e-01 5.322267e-01 -1.517847e-01 -3.537432e-01 -1.425840e-01 -1.893687e-01 7.189009e-02 -4.645171e-02 -1.708152e-01 2.433375e-01 9.267516e-02 -4.856637e-02 2.201448e-01 5.798949e-02 -2.741859e-02
<VARIANCE> 39
 8.591316e+01 1.415260e+02 1.525079e+02 1.900453e+02 1.286490e+02 9.936832e+01 1.154479e+02 4.881712e+01 5.867225e+01 5.460713e+01 8.672163e+01 3.949850e+01 8.152559e+01 2.426980e+00 5.671608e+00 4.315170e+00 3.667032e+00 2.548717e+00 3.733966e+00 4.037168e+00 3.286649e+00 3.709459e+00 3.039287e+00 3.257795e+00 2.449925e+00 2.056249e+00 1.412439e-01 5.718789e-01 5.690902e-01 4.017113e-01 3.397408e-01 5.013542e-01 4.176823e-01 4.510152e-01 4.489752e-01 4.993563e-01 4.242519e-01 3.482353e-01 2.856242e-01
<GCONST> 1.334132e+02
<MIXTURE> 2 4.276352e-01
<MEAN> 39
 -6.669483e+00 -4.481715e+01 1.109020e+01 1.787713e+01 5.727611e+00 2.683763e+01 -2.828551e+00 6.198356e-01 8.811126e+00 -4.219795e+00 2.463221e+00 4.277932e+00 4.398735e+00 -1.675206e+00 -2.727070e+00 -9.021772e-01 -2.222857e+00 -1.817867e+00 -1.172525e+00 -1.616157e+00 -5.053151e-01 -8.754551e-02 5.163419e-02 -6.573144e-02 -3.827343e-01 1.817365e-01 2.709452e-01 6.513305e-01 -3.615998e-02 1.787284e-02 8.530589e-03 -5.189323e-01 -3.460127e-01 -3.676033e-01 -5.015085e-01 -2.212514e-01 -3.095970e-01 -2.950501e-01 -1.760127e-01
<VARIANCE> 39
 1.801203e+01 3.380344e+01 3.981374e+01 4.087807e+01 3.448611e+01 3.458260e+01 1.115998e+02 2.714739e+01 2.636221e+01 1.692217e+01 2.711828e+01 2.023469e+01 3.360955e+01 8.275633e-01 3.113430e+00 8.132436e-01 1.124341e+00 1.251749e+00 3.490870e+00 1.986469e+00 2.034686e+00 2.017686e+00 1.694151e+00 1.991747e+00 1.822257e+00 1.218390e+00 1.164406e-01 3.424628e-01 1.846996e-01 2.764359e-01 2.959109e-01 5.945827e-01 4.130951e-01 2.568235e-01 2.134440e-01 2.522153e-01 2.644516e-01 2.609936e-01 1.727212e-01
<GCONST> 1.054217e+02
<STATE> 3
<NUMMIXES> 2
<MIXTURE> 1 4.511482e-01
<MEAN> 39
 -1.002087e+01 -5.164882e+01 2.716212e+00 7.135405e+00 -2.430146e+00 2.167522e+01 -1.646602e+00 -3.755107e+00 -1.263365e+00 -7.549165e+00 -5.640970e+00 -1.447339e+00 7.249385e+00 -2.877313e-03 -3.629462e-02 -2.653691e-02 -1.467443e-01 2.043191e-02 -4.567559e-02 -8.572927e-02 9.458305e-03 -1.681133e-01 -8.391325e-02 -3.605163e-02 -4.856453e-02 -5.961896e-03 9.907384e-02 1.768882e-01 1.191498e-02 7.489558e-02 4.503418e-02 3.813667e-02 1.010506e-01 8.087520e-02 1.083290e-01 7.845381e-02 9.362841e-02 1.192504e-01 4.143632e-02
<VARIANCE> 39
 1.048841e+01 1.319113e+01 2.259610e+01 1.407602e+01 7.501395e+00 1.334937e+01 2.939164e+01 1.793673e+01 1.825601e+01 1.769221e+01 1.556568e+01 1.549934e+01 9.733076e+00 7.715314e-01 1.443767e+00 1.175286e+00 5.946941e-01 4.763022e-01 1.113837e+00 1.451202e+00 1.299254e+00 1.344746e+00 1.573872e+00 1.694356e+00 1.423505e+00 7.490545e-01 1.396768e-01 2.990163e-01 2.052280e-01 1.085435e-01 9.222132e-02 1.899080e-01 2.226226e-01 2.201962e-01 2.212464e-01 2.729456e-01 2.966077e-01 2.439862e-01 1.413901e-01
<GCONST> 8.644421e+01
<MIXTURE> 2 5.488507e-01
<MEAN> 39
 -1.210638e+01 -4.995898e+01 1.024460e+01 1.155527e+01 8.292118e-01 1.812802e+01 -1.593276e+01 -6.713450e+00 5.707005e+00 -3.227168e+00 1.639585e+00 1.214838e+00 2.052883e+00 4.145843e-04 -6.255865e-02 -8.716510e-02 -2.091908e-01 5.383527e-02 8.130947e-02 -2.502673e-02 -1.068969e-01 -2.412091e-01 -5.117360e-02 -9.888041e-02 -1.153997e-03 6.221522e-02 7.807924e-02 1.132167e-01 -1.187787e-02 7.503789e-02 1.010955e-01 1.616157e-01 1.873388e-01 8.673739e-02 4.801405e-03 -7.545492e-02 -3.526547e-02 2.628965e-02 6.117801e-03
<VARIANCE> 39
 1.139635e+01 1.667255e+01 1.856638e+01 1.344181e+01 1.108208e+01 1.457069e+01 2.935858e+01 2.632976e+01 1.876134e+01 2.291737e+01 2.268435e+01 1.774706e+01 1.535294e+01 9.570378e-01 1.572299e+00 1.002676e+00 5.280299e-01 6.376033e-01 1.364936e+00 1.263817e+00 1.186293e+00 1.442860e+00 1.723205e+00 1.962153e+00 1.569765e+00 9.441273e-01 1.613478e-01 2.900705e-01 1.753323e-01 1.036407e-01 1.231432e-01 2.015492e-01 1.908784e-01 2.006650e-01 2.673126e-01 3.410497e-01 3.898179e-01 3.147163e-01 1.821318e-01
<GCONST> 9.076419e+01
<STATE> 4
<NUMMIXES> 2
<MIXTURE> 1 4.376274e-01
<MEAN> 39
 7.065738e+00 -1.829416e+01 8.228841e+00 1.532237e+01 6.622191e+00 1.793720e+01 -4.816347e+00 -1.665131e+00 2.826697e+00 -6.836574e+00 -1.391319e+00 3.474090e+00 4.277296e+00 4.153104e+00 5.394258e+00 -1.827784e+00 3.339136e-02 1.607193e+00 -3.510485e+00 -1.734851e+00 1.249725e+00 -9.131363e-01 -1.348132e+00 2.256359e-01 -7.009298e-01 -1.056809e+00 -2.201057e-01 -1.048529e+00 -1.102905e+00 -6.203256e-01 2.999792e-01 -7.205873e-01 -7.748692e-01 5.851132e-01 -3.751709e-01 -7.209643e-01 3.350298e-01 -1.056884e-01 -2.897553e-01
<VARIANCE> 39
 7.565955e+01 8.200595e+01 5.711808e+01 4.473769e+01 2.439747e+01 5.215668e+01 5.809871e+01 3.181868e+01 2.088940e+01 1.846118e+01 2.966754e+01 1.534368e+01 2.019103e+01 2.109757e+00 5.807817e+00 6.477858e+00 3.135139e+00 1.641071e+00 3.452391e+00 3.412096e+00 2.583658e+00 2.060217e+00 2.974088e+00 1.658075e+00 1.042088e+00 1.214054e+00 3.948818e-01 7.136974e-01 4.608302e-01 2.535455e-01 2.055630e-01 5.624948e-01 3.816495e-01 2.940688e-01 3.006828e-01 3.109646e-01 2.469793e-01 2.350923e-01 1.921415e-01
<GCONST> 1.153659e+02
<MIXTURE> 2 5.623721e-01
<MEAN> 39
 -7.866849e+00 -4.366388e+01 5.551475e+00 9.152155e+00 2.168287e+00 2.344438e+01 -4.777090e+00 -2.168283e+00 2.687493e+00 -6.999356e+00 -1.627728e+00 3.103947e+00 5.914674e+00 1.864118e+00 3.975340e+00 4.296506e-01 1.206660e+00 7.935184e-01 1.583450e-01 1.175550e+00 3.913708e-01 3.923035e-01 5.691642e-02 -6.797480e-02 5.987133e-01 2.381715e-01 5.767531e-01 1.027728e+00 2.183673e-01 2.647705e-01 1.442473e-01 -4.864216e-01 -2.526079e-01 -2.083020e-02 1.832498e-03 1.415647e-01 1.670855e-02 -1.480989e-01 -1.147321e-01
<VARIANCE> 39
 2.042851e+01 6.230185e+01 4.799258e+01 4.204533e+01 2.956684e+01 4.208410e+01 8.499667e+01 3.772638e+01 2.541241e+01 2.089591e+01 2.998109e+01 2.027504e+01 2.063978e+01 2.613806e+00 4.611140e+00 1.915130e+00 1.573487e+00 1.232639e+00 2.126560e+00 1.751432e+00 1.573282e+00 1.358635e+00 1.695257e+00 1.343058e+00 1.261082e+00 9.292615e-01 2.315196e-01 4.665570e-01 2.685119e-01 1.910895e-01 1.912467e-01 4.270557e-01 3.723255e-01 2.809758e-01 2.660619e-01 2.582071e-01 2.013908e-01 2.381652e-01 1.667421e-01
<GCONST> 1.067402e+02
<TRANSP> 5
 0.000000e+00 1.000000e+00 0.000000e+00 0.000000e+00 0.000000e+00
 0.000000e+00 8.927779e-01 1.072221e-01 0.000000e+00 0.000000e+00
 0.000000e+00 0.000000e+00 9.448875e-01 5.511247e-02 0.000000e+00
 0.000000e+00 0.000000e+00 0.000000e+00 8.529661e-01 1.470339e-01
 0.000000e+00 0.000000e+00 0.000000e+00 0.000000e+00 0.000000e+00
<ENDHMM>
~h "sp"
<BEGINHMM>
<NUMSTATES> 5
<STATE> 2
<NUMMIXES> 2
<MIXTURE> 1 5.000000e-01
<MEAN> 39
 5.098849e+00 -6.514025e+00 2.430083e+00 1.092778e+01 1.083864e+01 1.500667e+00 -1.140838e+01 9.359310e+00 -3.377835e+00 -1.113024e+01 6.044074e+00 -4.088247e-01 -3.646332e+00 -1.380477e-02 1.475701e-03 -1.072459e-03 -5.524765e-03 -3.099398e-03 2.005852e-03 8.190720e-04 -5.087083e-03 2.488556e-03 5.650900e-03 -1.806995e-03 5.936168e-04 1.443354e-03 -1.213556e-03 -1.404243e-04 -1.926630e-04 -5.029775e-04 -4.298560e-04 2.249404e-04 5.535607e-04 -2.933974e-04 7.204357e-05 8.173331e-04 -1.603794e-04 -1.434907e-04 3.551734e-04
<VARIANCE> 39
 2.696502e+02 1.642264e+02 1.776205e+02 1.699619e+02 1.712323e+02 1.501611e+02 1.653076e+02 1.112998e+02 8.102897e+01 1.132308e+02 1.038732e+02 3.576029e+01 7.139818e+01 2.864393e+00 3.049235e+00 2.950589e+00 2.442850e+00 2.488132e+00 2.882445e+00 3.574063e+00 2.837703e+00 2.254665e+00 3.083899e+00 2.848865e+00 1.410452e+00 1.706605e+00 2.059384e-01 2.861855e-01 3.165202e-01 2.798763e-01 2.958655e-01 3.292713e-01 4.082396e-01 3.875320e-01 3.475762e-01 4.161765e-01 3.917231e-01 2.236369e-01 2.362328e-01
<GCONST> 1.313330e+02
<MIXTURE> 2 5.000000e-01
<MEAN> 39
 5.098849e+00 -6.514025e+00 2.430083e+00 1.092778e+01 1.083864e+01 1.500667e+00 -1.140838e+01 9.359310e+00 -3.377835e+00 -1.113024e+01 6.044074e+00 -4.088247e-01 -3.646332e+00 -1.380477e-02 1.475701e-03 -1.072459e-03 -5.524765e-03 -3.099398e-03 2.005852e-03 8.190720e-04 -5.087083e-03 2.488556e-03 5.650900e-03 -1.806995e-03 5.936168e-04 1.443354e-03 -1.213556e-03 -1.404243e-04 -1.926630e-04 -5.029775e-04 -4.298560e-04 2.249404e-04 5.535607e-04 -2.933974e-04 7.204357e-05 8.173331e-04 -1.603794e-04 -1.434907e-04 3.551734e-04
<VARIANCE> 39
 2.696502e+02 1.642264e+02 1.776205e+02 1.699619e+02 1.712323e+02 1.501611e+02 1.653076e+02 1.112998e+02 8.102897e+01 1.132308e+02 1.038732e+02 3.576029e+01 7.139818e+01 2.864393e+00 3.049235e+00 2.950589e+00 2.442850e+00 2.488132e+00 2.882445e+00 3.574063e+00 2.837703e+00 2.254665e+00 3.083899e+00 2.848865e+00 1.410452e+00 1.706605e+00 2.059384e-01 2.861855e-01 3.165202e-01 2.798763e-01 2.958655e-01 3.292713e-01 4.082396e-01 3.875320e-01 3.475762e-01 4.161765e-01 3.917231e-01 2.236369e-01 2.362328e-01
<GCONST> 1.313330e+02
<STATE> 3
<NUMMIXES> 2
<MIXTURE> 1 5.000000e-01
<MEAN> 39
 5.098849e+00 -6.514025e+00 2.430083e+00 1.092778e+01 1.083864e+01 1.500667e+00 -1.140838e+01 9.359310e+00 -3.377835e+00 -1.113024e+01 6.044074e+00 -4.088247e-01 -3.646332e+00 -1.380477e-02 1.475701e-03 -1.072459e-03 -5.524765e-03 -3.099398e-03 2.005852e-03 8.190720e-04 -5.087083e-03 2.488556e-03 5.650900e-03 -1.806995e-03 5.936168e-04 1.443354e-03 -1.213556e-03 -1.404243e-04 -1.926630e-04 -5.029775e-04 -4.298560e-04 2.249404e-04 5.535607e-04 -2.933974e-04 7.204357e-05 8.173331e-04 -1.603794e-04 -1.434907e-04 3.551734e-04
<VARIANCE> 39
 2.696502e+02 1.642264e+02 1.776205e+02 1.699619e+02 1.712323e+02 1.501611e+02 1.653076e+02 1.112998e+02 8.102897e+01 1.132308e+02 1.038732e+02 3.576029e+01 7.139818e+01 2.864393e+00 3.049235e+00 2.950589e+00 2.442850e+00 2.488132e+00 2.882445e+00 3.574063e+00 2.837703e+00 2.254665e+00 3.083899e+00 2.848865e+00 1.410452e+00 1.706605e+00 2.059384e-01 2.861855e-01 3.165202e-01 2.798763e-01 2.958655e-01 3.292713e-01 4.082396e-01 3.875320e-01 3.475762e-01 4.161765e-01 3.917231e-01 2.236369e-01 2.362328e-01
<GCONST> 1.313330e+02
<MIXTURE> 2 5.000000e-01
<MEAN> 39
 5.098849e+00 -6.514025e+00 2.430083e+00 1.092778e+01 1.083864e+01 1.500667e+00 -1.140838e+01 9.359310e+00 -3.377835e+00 -1.113024e+01 6.044074e+00 -4.088247e-01 -3.646332e+00 -1.380477e-02 1.475701e-03 -1.072459e-03 -5.524765e-03 -3.099398e-03 2.005852e-03 8.190720e-04 -5.087083e-03 2.488556e-03 5.650900e-03 -1.806995e-03 5.936168e-04 1.443354e-03 -1.213556e-03 -1.404243e-04 -1.926630e-04 -5.029775e-04 -4.298560e-04 2.249404e-04 5.535607e-04 -2.933974e-04 7.204357e-05 8.173331e-04 -1.603794e-04 -1.434907e-04 3.551734e-04
<VARIANCE> 39
 2.696502e+02 1.642264e+02 1.776205e+02 1.699619e+02 1.712323e+02 1.501611e+02 1.653076e+02 1.112998e+02 8.102897e+01 1.132308e+02 1.038732e+02 3.576029e+01 7.139818e+01 2.864393e+00 3.049235e+00 2.950589e+00 2.442850e+00 2.488132e+00 2.882445e+00 3.574063e+00 2.837703e+00 2.254665e+00 3.083899e+00 2.848865e+00 1.410452e+00 1.706605e+00 2.059384e-01 2.861855e-01 3.165202e-01 2.798763e-01 2.958655e-01 3.292713e-01 4.082396e-01 3.875320e-01 3.475762e-01 4.161765e-01 3.917231e-01 2.236369e-01 2.362328e-01
<GCONST> 1.313330e+02
<STATE> 4
<NUMMIXES> 2
<MIXTURE> 1 5.000000e-01
<MEAN> 39
 5.098849e+00 -6.514025e+00 2.430083e+00 1.092778e+01 1.083864e+01 1.500667e+00 -1.140838e+01 9.359310e+00 -3.377835e+00 -1.113024e+01 6.044074e+00 -4.088247e-01 -3.646332e+00 -1.380477e-02 1.475701e-03 -1.072459e-03 -5.524765e-03 -3.099398e-03 2.005852e-03 8.190720e-04 -5.087083e-03 2.488556e-03 5.650900e-03 -1.806995e-03 5.936168e-04 1.443354e-03 -1.213556e-03 -1.404243e-04 -1.926630e-04 -5.029775e-04 -4.298560e-04 2.249404e-04 5.535607e-04 -2.933974e-04 7.204357e-05 8.173331e-04 -1.603794e-04 -1.434907e-04 3.551734e-04
<VARIANCE> 39
 2.696502e+02 1.642264e+02 1.776205e+02 1.699619e+02 1.712323e+02 1.501611e+02 1.653076e+02 1.112998e+02 8.102897e+01 1.132308e+02 1.038732e+02 3.576029e+01 7.139818e+01 2.864393e+00 3.049235e+00 2.950589e+00 2.442850e+00 2.488132e+00 2.882445e+00 3.574063e+00 2.837703e+00 2.254665e+00 3.083899e+00 2.848865e+00 1.410452e+00 1.706605e+00 2.059384e-01 2.861855e-01 3.165202e-01 2.798763e-01 2.958655e-01 3.292713e-01 4.082396e-01 3.875320e-01 3.475762e-01 4.161765e-01 3.917231e-01 2.236369e-01 2.362328e-01
<GCONST> 1.313330e+02
<MIXTURE> 2 5.000000e-01
<MEAN> 39
 5.098849e+00 -6.514025e+00 2.430083e+00 1.092778e+01 1.083864e+01 1.500667e+00 -1.140838e+01 9.359310e+00 -3.377835e+00 -1.113024e+01 6.044074e+00 -4.088247e-01 -3.646332e+00 -1.380477e-02 1.475701e-03 -1.072459e-03 -5.524765e-03 -3.099398e-03 2.005852e-03 8.190720e-04 -5.087083e-03 2.488556e-03 5.650900e-03 -1.806995e-03 5.936168e-04 1.443354e-03 -1.213556e-03 -1.404243e-04 -1.926630e-04 -5.029775e-04 -4.298560e-04 2.249404e-04 5.535607e-04 -2.933974e-04 7.204357e-05 8.173331e-04 -1.603794e-04 -1.434907e-04 3.551734e-04
<VARIANCE> 39
 2.696502e+02 1.642264e+02 1.776205e+02 1.699619e+02 1.712323e+02 1.501611e+02 1.653076e+02 1.112998e+02 8.102897e+01 1.132308e+02 1.038732e+02 3.576029e+01 7.139818e+01 2.864393e+00 3.049235e+00 2.950589e+00 2.442850e+00 2.488132e+00 2.882445e+00 3.574063e+00 2.837703e+00 2.254665e+00 3.083899e+00 2.848865e+00 1.410452e+00 1.706605e+00 2.059384e-01 2.861855e-01 3.165202e-01 2.798763e-01 2.958655e-01 3.292713e-01 4.082396e-01 3.875320e-01 3.475762e-01 4.161765e-01 3.917231e-01 2.236369e-01 2.362328e-01
<GCONST> 1.313330e+02
<TRANSP> 5
 0.000000e+00 1.000000e+00 0.000000e+00 0.000000e+00 0.000000e+00
 0.000000e+00 6.000000e-01 4.000000e-01 0.000000e+00 0.000000e+00
 0.000000e+00 0.000000e+00 6.000000e-01 4.000000e-01 0.000000e+00
 0.000000e+00 0.000000e+00 0.000000e+00 6.000000e-01 4.000000e-01
 0.000000e+00 0.000000e+00 0.000000e+00 0.000000e+00 0.000000e+00
<ENDHMM>
~h "sx"
<BEGINHMM>
<NUMSTATES> 5
<STATE> 2
<NUMMIXES> 2
<MIXTURE> 1 6.442088e-01
<MEAN> 39
 9.509895e-01 -1.979903e+01 -4.738595e+00 8.616484e+00 7.323128e+00 1.369250e+01 -4.683402e+00 1.685651e-01 5.580153e-01 -7.153629e+00 -1.291391e+00 2.382552e+00 4.657269e+00 -6.669483e-01 -3.570048e+00 1.119088e+00 5.761891e-01 -8.698352e-01 2.116995e+00 8.377137e-01 -4.894477e-01 8.812097e-01 2.981848e-01 -2.550130e-01 2.459403e-01 2.329412e-01 -1.450629e-01 -3.113214e-01 3.760537e-02 -1.137363e-01 1.029267e-01 -2.817611e-02 -1.860912e-01 2.668491e-01 3.829015e-02 -5.373970e-02 2.716697e-01 -1.455152e-02 -1.488460e-01
<VARIANCE> 39
 1.634849e+02 1.441538e+02 2.269181e+02 2.250306e+02 1.062711e+02 9.593609e+01 7.909718e+01 6.678430e+01 2.855467e+01 3.340291e+01 7.123248e+01 2.810535e+01 4.060593e+01 3.932890e+00 4.218525e+00 6.818904e+00 4.332389e+00 2.518886e+00 4.492532e+00 4.433350e+00 3.616754e+00 2.856173e+00 2.612659e+00 2.330191e+00 1.279062e+00 2.465535e+00 2.193014e-01 5.022762e-01 7.759532e-01 5.005155e-01 3.755672e-01 5.860729e-01 4.755522e-01 6.004273e-01 3.862334e-01 4.527356e-01 3.460972e-01 1.897629e-01 3.935595e-01
<GCONST> 1.326357e+02
<MIXTURE> 2 3.557900e-01
<MEAN> 39
 -4.681627e+00 -4.346204e+01 1.065377e+01 1.698206e+01 7.455220e+00 2.872373e+01 -1.972940e+00 3.454741e-01 7.721944e+00 -3.306133e+00 3.196568e+00 4.667521e+00 3.957060e+00 -1.932864e+00 -3.017677e+00 -7.938718e-01 -2.320036e+00 -1.529969e+00 -7.950075e-01 -1.241943e+00 -1.197032e-02 -1.057181e-02 3.056259e-01 6.424259e-02 -2.552022e-01 4.176782e-01 2.427551e-01 6.114317e-01 -7.298589e-02 -1.071618e-01 -6.878064e-02 -5.928367e-01 -3.858500e-01 -3.493542e-01 -4.751180e-01 -1.926417e-01 -2.425942e-01 -2.381299e-01 -3.976531e-02
<VARIANCE> 39
 2.276639e+01 4.275298e+01 4.115060e+01 3.234930e+01 2.884871e+01 2.161794e+01 9.814577e+01 2.553314e+01 2.111147e+01 1.777435e+01 2.076495e+01 1.866718e+01 2.264350e+01 6.736078e-01 2.242482e+00 8.377682e-01 7.868066e-01 9.132751e-01 2.412975e+00 1.533075e+00 1.858263e+00 2.056510e+00 1.737409e+00 1.519515e+00 1.287539e+00 9.197417e-01 1.065257e-01 1.559565e-01 2.429374e-01 2.610852e-01 2.069956e-01 3.454920e-01 3.413313e-01 2.168644e-01 2.294104e-01 2.471374e-01 1.578458e-01 1.731905e-01 1.793317e-01
<GCONST> 9.843015e+01
<STATE> 3
<NUMMIXES> 2
<MIXTURE> 1 0.000000e+00
<MEAN> 39
 -2.460413e+01 -2.528620e+01 9.476417e+00 1.453254e+00 8.121964e+00 -6.020190e+00 2.558741e+00 -3.683615e+00 2.657288e+00 -4.109238e+00 2.908855e+00 4.739001e-02 -7.405792e-01 -1.435858e-01 -1.183302e-01 4.800704e-04 -1.259827e-01 -1.603135e-01 -9.897383e-02 -2.412239e-02 1.340315e-02 5.059737e-02 6.779682e-02 8.571308e-02 1.051517e-01 4.385307e-02 1.701642e-01 1.138292e-01 -9.650642e-03 3.541986e-02 8.229297e-02 5.383232e-02 -1.378253e-02 7.141295e-03 -2.082125e-02 2.484192e-02 -1.483140e-02 1.512020e-02 -1.248819e-02
<VARIANCE> 39
 1.287360e+01 1.845261e+01 3.968744e+01 2.419895e+01 2.596645e+01 2.354561e+01 2.662227e+01 3.145501e+01 2.725155e+01 2.397213e+01 2.824627e+01 2.035361e+01 2.221501e+01 5.440961e-01 4.177724e-01 5.778142e-01 6.248232e-01 8.203446e-01 8.965421e-01 1.009574e+00 1.112690e+00 1.137437e+00 1.150113e+00 1.086122e+00 9.778180e-01 8.340899e-01 5.372016e-02 7.531175e-02 9.407701e-02 1.193896e-01 1.523911e-01 1.770679e-01 2.031044e-01 2.243394e-01 2.324814e-01 2.318604e-01 2.228285e-01 1.993412e-01 1.736224e-01
<GCONST> 8.606846e+01
<MIXTURE> 2 1.000000e+00
<MEAN> 39
 -1.109070e+01 -5.121804e+01 7.426157e+00 6.451465e+00 3.906066e-01 2.102509e+01 -1.016620e+01 -3.056319e+00 2.566761e+00 -5.006909e+00 -9.380325e-01 6.207388e-01 5.463297e+00 -1.474559e-01 -7.951013e-02 2.143480e-01 -1.649479e-01 -1.046794e-01 -1.295213e-01 -2.829660e-01 -5.687487e-02 -2.270388e-01 -1.723433e-01 -1.631090e-01 -9.730630e-02 7.003547e-02 1.029726e-01 2.202895e-01 -5.047546e-02 9.711473e-02 4.640568e-02 4.473806e-02 1.367499e-01 5.591166e-02 8.019558e-02 1.095560e-03 1.732462e-02 8.629661e-02 1.985319e-02
<VARIANCE> 39
 1.064103e+01 1.520177e+01 3.706345e+01 1.216239e+01 1.215454e+01 1.623757e+01 6.872614e+01 2.153109e+01 2.100276e+01 2.085505e+01 2.664514e+01 1.881280e+01 1.711129e+01 8.647704e-01 1.861913e+00 1.460123e+00 7.028607e-01 6.143181e-01 1.442253e+00 1.345823e+00 1.250162e+00 1.332090e+00 1.588597e+00 1.485305e+00 1.265285e+00 7.576355e-01 1.349971e-01 3.551288e-01 2.094776e-01 1.257378e-01 1.088525e-01 2.436439e-01 1.891860e-01 2.286481e-01 2.595732e-01 3.157668e-01 3.019916e-01 2.394830e-01 1.392795e-01
<GCONST> 9.205831e+01
<STATE> 4
<NUMMIXES> 2
<MIXTURE> 1 4.183983e-01
<MEAN> 39
 -8.018560e-01 -2.078558e+01 3.239570e+00 1.191256e+01 5.761695e+00 1.731135e+01 -2.142813e+00 2.035947e+00 4.067155e+00 -4.320773e+00 4.319057e-01 5.159811e+00 7.123572e+00 2.174135e+00 5.277122e+00 -1.281084e+00 -7.569272e-03 1.284648e+00 -2.451508e+00 -6.023862e-01 7.813299e-01 -7.678903e-01 -3.689153e-01 3.736065e-01 -2.841904e-01 -5.072706e-01 -8.495611e-02 -5.916268e-01 -5.811462e-01 -5.662872e-01 5.754426e-02 -5.388961e-01 -7.273241e-01 2.128680e-01 -2.469307e-01 -4.493462e-01 1.958427e-01 -1.236036e-01 -2.914788e-01
<VARIANCE> 39
 1.772783e+02 1.299215e+02 5.757149e+01 3.679823e+01 4.207173e+01 8.334786e+01 4.453509e+01 3.038416e+01 5.018568e+01 4.156125e+01 2.118898e+01 1.348993e+01 1.703236e+01 8.844950e+00 5.795777e+00 4.223447e+00 4.030102e+00 3.049767e+00 3.100332e+00 6.037179e+00 2.165089e+00 1.967842e+00 2.674876e+00 1.222095e+00 1.189463e+00 1.775237e+00 3.628810e-01 1.051245e+00 7.117599e-01 3.522033e-01 3.915117e-01 6.015520e-01 5.294548e-01 4.221087e-01 2.517820e-01 3.662970e-01 2.214296e-01 2.225299e-01 2.405989e-01
<GCONST> 1.229735e+02
<MIXTURE> 2 5.816022e-01
<MEAN> 39
 -1.318059e+01 -4.026260e+01 6.109055e+00 8.001936e+00 -1.461085e+00 1.477733e+01 -9.357580e+00 -4.593596e-01 3.797383e+00 -7.408691e+00 -2.843900e+00 2.812937e+00 6.098581e+00 4.781588e-01 3.149233e+00 -6.548315e-01 5.888390e-01 6.237755e-02 -7.385568e-01 1.114372e+00 3.898582e-01 4.622251e-01 1.274120e-01 -1.101713e-01 5.812528e-01 2.016789e-01 2.039695e-01 6.125189e-01 1.868836e-02 1.319468e-01 2.148796e-01 -1.217621e-01 5.974078e-02 4.798338e-02 -4.923542e-02 1.143195e-01 8.925756e-03 -3.401155e-02 1.589643e-02
<VARIANCE> 39
 4.993955e+01 1.398297e+02 8.776704e+01 2.766574e+01 1.381198e+01 1.001288e+02 6.424770e+01 2.555525e+01 3.900418e+01 2.659700e+01 2.605752e+01 2.700709e+01 1.346074e+01 3.514700e+00 3.229487e+00 2.768341e+00 1.428810e+00 1.155969e+00 2.639671e+00 1.626850e+00 1.235522e+00 2.048423e+00 1.366140e+00 1.399846e+00 1.319079e+00 1.156749e+00 3.829260e-01 7.173530e-01 3.155330e-01 1.744162e-01 1.524972e-01 2.932175e-01 2.109777e-01 1.897331e-01 2.832914e-01 1.532295e-01 2.150821e-01 2.425208e-01 1.981098e-01
<GCONST> 1.082387e+02
<TRANSP> 5
 0.000000e+00 1.000000e+00 0.000000e+00 0.000000e+00 0.000000e+00
 0.000000e+00 9.087597e-01 9.124033e-02 0.000000e+00 0.000000e+00
 0.000000e+00 0.000000e+00 9.357299e-01 6.427010e-02 0.000000e+00
 0.000000e+00 0.000000e+00 0.000000e+00 8.788012e-01 1.211988e-01
 0.000000e+00 0.000000e+00 0.000000e+00 0.000000e+00 0.000000e+00
<ENDHMM>
~h "th"
<BEGINHMM>
<NUMSTATES> 5
<STATE> 2
<NUMMIXES> 2
<MIXTURE> 1 0.000000e+00
<MEAN> 39
 -3.886223e-05 -1.931190e-05 5.215406e-07 8.761883e-06 -2.145767e-06 5.111098e-06 8.314848e-06 2.488494e-06 -7.539988e-06 1.132488e-06 -3.003515e-07 5.424023e-06 -4.022149e-08 1.873821e-06 -4.437752e-07 5.909242e-07 1.825392e-07 -4.018657e-07 -3.222376e-07 3.189780e-07 -5.820766e-11 -6.482005e-07 -5.755574e-07 -2.846355e-08 6.949995e-08 9.033829e-08 -3.673423e-02 3.657988e-03 -6.203171e-03 1.457151e-03 -7.559096e-04 -1.241736e-03 -9.468020e-04 -1.675523e-03 -7.280131e-04 -1.245679e-03 7.821736e-05 -6.539826e-04 -5.843351e-06
<VARIANCE> 39
 6.791949e-05 1.000000e-30 1.187436e-07 1.545995e-06 3.539026e-07 4.889444e-07 7.301569e-06 3.557652e-07 1.000000e-30 1.000000e-30 1.000000e-30 3.034249e-06 1.224976e-10 1.000000e-30 1.000000e-30 8.043571e-09 1.000000e-30 1.000000e-30 1.000000e-30 2.622983e-09 1.563194e-12 1.000000e-30 1.000000e-30 1.000000e-30 1.000000e-30 1.000000e-30 2.939744e-02 1.510691e-03 1.924523e-03 1.205781e-03 1.539571e-03 1.394400e-03 1.598690e-03 1.480532e-03 1.398113e-03 1.215753e-03 1.174650e-03 9.854551e-04 6.629324e-04
<GCONST> -1.400000e+11
<MIXTURE> 2 1.000000e+00
<MEAN> 39
 -1.143554e+01 2.381674e+00 2.454850e+00 6.206623e+00 6.293650e+00 7.297610e+00 -1.152987e+00 4.253158e+00 -1.486671e+00 -2.638183e+00 8.018324e-01 7.344198e-01 4.012264e+00 -9.338052e-01 -8.182718e-01 -3.670739e-01 1.084599e-01 -1.953493e-01 2.733862e-01 7.086632e-01 3.372293e-01 7.746153e-01 6.776217e-01 -3.989500e-01 2.210533e-01 1.001867e+00 4.076363e-01 -4.229555e-01 -1.423648e-01 7.340896e-02 6.383637e-02 6.141005e-02 -2.735077e-02 3.069979e-01 2.424908e-01 9.112699e-02 1.399015e-01 -5.420256e-02 1.241528e-01
<VARIANCE> 39
 1.499660e+02 6.922710e+01 4.795394e+01 6.330024e+01 6.228865e+01 3.513487e+01 2.791284e+01 2.127817e+01 1.792634e+01 2.165762e+01 2.394756e+01 1.966631e+01 3.464311e+01 3.925403e+00 3.521158e+00 1.994444e+00 2.100128e+00 2.551070e+00 1.713992e+00 1.949784e+00 2.414846e+00 2.239909e+00 1.402458e+00 2.108813e+00 1.352175e+00 2.133435e+00 2.892436e-01 2.459952e-01 2.731877e-01 2.965472e-01 3.672116e-01 2.943432e-01 2.890804e-01 3.071702e-01 2.858709e-01 2.813026e-01 3.246781e-01 2.571259e-01 3.421694e-01
<GCONST> 1.128375e+02
<STATE> 3
<NUMMIXES> 2
<MIXTURE> 1 0.000000e+00
<MEAN> 39
 0.000000e+00 0.000000e+00 0.000000e+00 0.000000e+00 0.000000e+00 0.000000e+00 0.000000e+00 0.000000e+00 0.000000e+00 0.000000e+00 0.000000e+00 0.000000e+00 0.000000e+00 7.602786e-28 -6.781300e-28 2.817260e-28 -2.260459e-29 5.468585e-29 -1.506301e-28 1.148696e-28 -2.120465e-29 7.979356e-30 -5.320312e-29 5.792728e-29 -1.833769e-29 3.866608e-31 -4.988265e-02 4.965165e-03 -7.294576e-03 2.466788e-03 2.788171e-04 -1.618284e-03 -9.823618e-04 -1.922494e-03 -5.035132e-04 -1.812430e-03 -3.375670e-05 -6.368760e-04 -8.684045e-05
<VARIANCE> 39
 1.000000e-30 1.000000e-30 1.000000e-30 1.000000e-30 1.000000e-30 1.000000e-30 1.000000e-30 1.000000e-30 1.000000e-30 1.000000e-30 1.000000e-30 1.000000e-30 1.000000e-30 8.953985e-28 7.123556e-28 1.229489e-28 1.000000e-30 4.632556e-30 3.514752e-29 2.044002e-29 1.000000e-30 1.000000e-30 4.384753e-30 5.198011e-30 1.000000e-30 1.000000e-30 4.486060e-02 3.359458e-03 3.289693e-03 2.491937e-03 2.905590e-03 2.327311e-03 2.783720e-03 2.963404e-03 2.648251e-03 2.054753e-03 2.260878e-03 1.761504e-03 1.385205e-03
<GCONST> -1.300000e+11
<MIXTURE> 2 1.000000e+00
<MEAN> 39
 -8.172867e+00 -7.136398e+00 -1.927985e-01 7.134835e+00 4.925109e+00 8.711190e+00 2.092031e-01 9.042607e+00 5.559790e+00 2.852190e+00 1.548970e+00 -9.469242e-01 8.835246e+00 2.894974e+00 -2.311739e+00 -1.421522e-01 -1.060877e+00 -1.592353e+00 -3.534858e-02 -1.037102e+00 2.649718e-01 -2.239022e-01 4.804647e-01 1.803394e+00 -8.974138e-01 -2.155665e-01 4.969325e-01 -2.767547e-02 3.368571e-01 -5.194730e-01 -4.218054e-01 4.802649e-02 -5.032122e-01 -4.978699e-01 -1.178847e+00 -6.594691e-01 7.353556e-01 -2.451123e-02 -5.100893e-01
<VARIANCE> 39
 4.577367e+01 3.116726e+01 1.599240e+01 2.233251e+01 2.811549e+01 2.004108e+01 2.733280e+01 2.184541e+01 2.502320e+01 1.929182e+01 1.996795e+01 2.571108e+01 2.052402e+01 3.035515e+00 2.495148e+00 2.046238e+00 3.678602e+00 2.814667e+00 2.118539e+00 3.070748e+00 3.582564e+00 8.069266e+00 4.186122e+00 3.773627e+00 2.353678e+00 4.272907e+00 3.447829e-01 2.164063e-01 2.278892e-01 3.314088e-01 4.408386e-01 4.168214e-01 3.712723e-01 4.557605e-01 6.557546e-01 5.824474e-01 3.414383e-01 5.492483e-01 6.791641e-01
<GCONST> 1.166970e+02
<STATE> 4
<NUMMIXES> 2
<MIXTURE> 1 3.888982e-01
<MEAN> 39
 8.987257e+00 -1.638605e+01 4.927381e-01 3.139292e-01 -7.856368e-01 7.057327e+00 -1.031572e+01 8.277028e+00 -8.614663e+00 -8.547491e+00 1.628871e+01 -1.231724e+00 3.458183e+00 1.244248e+00 -7.294260e-01 2.320895e-01 -5.909077e-01 -5.698902e-01 4.727890e-01 -1.952941e-01 -3.476056e-01 -1.624106e+00 -8.098326e-01 1.790028e+00 8.080851e-01 1.294231e-01 -6.968520e-01 5.674914e-01 -2.588955e-01 5.522076e-01 4.480936e-01 -6.975027e-02 7.293920e-01 1.314853e-01 8.267118e-01 6.210493e-01 -6.314077e-01 2.818106e-01 2.265512e-01
<VARIANCE> 39
 5.893171e+01 2.332993e+01 3.755785e+01 4.609657e+01 6.546389e+01 1.126904e+02 8.897012e+01 1.148071e+02 3.251532e+01 1.629081e+02 3.383303e+01 2.297137e+01 4.086232e+01 2.793161e+00 1.970900e+00 1.331711e+00 2.680746e+00 1.986350e+00 3.230118e+00 5.100612e+00 3.214411e+00 6.971639e+00 5.845572e+00 4.950930e+00 1.353252e+00 1.486378e+00 2.563655e-01 2.166007e-01 2.688521e-01 4.218494e-01 3.206474e-01 4.089908e-01 5.650676e-01 5.046278e-01 7.643911e-01 6.705337e-01 4.757220e-01 3.118037e-01 3.645229e-01
<GCONST> 1.251389e+02
<MIXTURE> 2 6.111017e-01
<MEAN> 39
 6.740680e+00 -1.277244e+01 -3.622479e+00 6.070087e-01 -5.496110e+00 7.892367e+00 2.472143e+00 6.465623e+00 -3.988682e+00 2.977832e+00 1.577018e+01 2.818084e+00 6.615760e+00 6.053800e-01 1.421546e+00 -3.365691e-01 8.288055e-01 6.887541e-01 -7.710806e-01 6.715028e-01 6.640901e-01 5.693461e-01 -9.717973e-03 -4.916064e-01 1.164686e-02 -6.436864e-01 2.013267e-01 1.179976e-01 1.116267e-01 -2.434755e-02 8.199199e-02 -2.549585e-01 -4.182160e-01 1.653816e-01 -9.452227e-02 -3.589229e-01 -2.306540e-02 -1.934750e-01 -2.079358e-01
<VARIANCE> 39
 7.000053e+01 6.205094e+01 6.326990e+01 5.169348e+01 1.129038e+02 9.702502e+01 6.589268e+01 7.026517e+01 4.597920e+01 5.933407e+01 5.821433e+01 2.764707e+01 2.355805e+01 1.605040e+00 3.052707e+00 2.406654e+00 2.693726e+00 4.061656e+00 2.997551e+00 4.059564e+00 2.521362e+00 2.372848e+00 3.348139e+00 2.566962e+00 2.250666e+00 1.711365e+00 1.280196e-01 3.483042e-01 3.591722e-01 2.813342e-01 4.350640e-01 5.161670e-01 5.519547e-01 4.200707e-01 3.973879e-01 4.181696e-01 3.706792e-01 3.604993e-01 2.633707e-01
<GCONST> 1.234909e+02
<TRANSP> 5
 0.000000e+00 1.000000e+00 0.000000e+00 0.000000e+00 0.000000e+00
 0.000000e+00 7.576686e-01 2.423315e-01 0.000000e+00 0.000000e+00
 0.000000e+00 0.000000e+00 7.532929e-01 2.467072e-01 0.000000e+00
 0.000000e+00 0.000000e+00 0.000000e+00 9.133891e-01 8.661086e-02
 0.000000e+00 0.000000e+00 0.000000e+00 0.000000e+00 0.000000e+00
<ENDHMM>
~h "tx"
<BEGINHMM>
<NUMSTATES> 5
<STATE> 2
<NUMMIXES> 2
<MIXTURE> 1 5.806211e-01
<MEAN> 39
 -2.050180e+01 -1.030840e+01 7.408974e+00 2.747153e+00 -9.786530e-01 6.917467e+00 -3.706011e+00 5.684199e+00 -1.089341e+00 -4.030614e+00 3.042056e-01 -1.015247e+00 3.772878e+00 1.323488e-01 9.890713e-03 -2.369504e+00 1.243451e+00 1.318470e+00 1.481906e-01 4.873750e-01 1.078462e-01 1.338932e+00 4.020156e-01 -7.603959e-01 2.332771e-01 1.173016e+00 5.053529e-01 -4.023757e-01 2.161211e-01 -5.888766e-02 -2.189719e-02 9.718157e-02 -1.395523e-02 2.186922e-01 9.065984e-02 1.691940e-01 6.482428e-02 -1.258655e-01 8.921519e-02
<VARIANCE> 39
 7.879403e+01 1.309349e+02 1.299101e+02 7.848901e+01 9.729039e+01 2.185836e+01 2.765551e+01 2.061263e+01 2.795703e+01 1.643325e+01 3.123458e+01 1.456545e+01 1.479569e+01 4.229193e+00 6.695404e+00 7.317027e+00 3.308211e+00 3.928344e+00 3.157803e+00 2.240223e+00 3.208976e+00 2.223263e+00 1.704037e+00 1.603307e+00 1.199589e+00 2.911919e+00 3.529896e-01 4.085317e-01 6.648600e-01 3.541286e-01 4.693963e-01 3.471889e-01 3.068692e-01 3.015590e-01 3.613621e-01 2.447643e-01 3.034178e-01 2.427790e-01 3.296974e-01
<GCONST> 1.194563e+02
<MIXTURE> 2 4.193780e-01
<MEAN> 39
 -2.665924e+01 -6.499621e+00 -5.065267e+00 -2.663017e+00 -3.540989e+00 7.204724e-01 -3.713675e+00 1.078219e+00 -1.477441e+00 -5.811082e-01 4.427634e-01 -1.018155e+00 7.610580e-01 2.195563e-01 -1.375108e-01 -8.862421e-02 4.454555e-01 5.152303e-01 1.984765e-01 1.591434e-01 2.143582e-01 1.243727e-01 -8.387250e-02 -1.555729e-01 2.071464e-01 3.936087e-01 2.564145e-01 -1.541602e-01 1.831336e-01 3.507743e-01 3.076916e-01 2.940279e-01 1.475644e-01 2.172883e-01 1.703053e-01 -3.374396e-03 -3.523570e-02 7.283919e-02 2.890964e-01
<VARIANCE> 39
 5.024095e-01 1.385085e+00 1.956685e+00 2.714481e+00 3.800678e+00 4.526599e+00 5.411189e+00 5.750111e+00 6.966427e+00 6.986967e+00 6.704637e+00 5.665535e+00 5.058640e+00 2.506901e-01 5.186742e-01 5.605636e-01 9.715188e-01 1.317335e+00 1.092610e+00 1.050216e+00 1.153748e+00 1.171387e+00 1.065762e+00 1.071974e+00 9.943538e-01 1.188141e+00 1.186494e-01 1.069276e-01 1.829801e-01 2.467903e-01 3.096009e-01 2.444435e-01 2.029397e-01 2.488015e-01 2.439947e-01 2.093688e-01 1.998101e-01 1.697390e-01 2.702791e-01
<GCONST> 6.607893e+01
<STATE> 3
<NUMMIXES> 2
<MIXTURE> 1 6.039731e-01
<MEAN> 39
 -1.090203e+01 -1.259135e+01 2.050348e+00 1.026671e+01 5.313430e+00 9.646991e+00 -1.200038e+00 7.979050e+00 6.066705e+00 2.945350e-01 -2.459676e+00 -2.536202e+00 8.621638e+00 2.417620e+00 -3.327395e+00 6.227589e-01 -3.214173e-02 -1.376200e+00 5.854532e-01 -6.520260e-01 9.435535e-02 1.458430e-01 -1.689199e-01 1.443567e+00 -1.477540e-01 -9.063155e-01 1.653544e-01 -4.717275e-01 5.991092e-01 -4.215627e-01 -5.127007e-01 1.940304e-01 -2.620718e-01 -2.258026e-01 -9.252667e-01 -7.771717e-01 7.519365e-01 2.904249e-01 -8.070033e-01
<VARIANCE> 39
 3.579079e+01 4.637269e+01 4.320888e+01 4.177187e+01 4.964377e+01 2.326399e+01 2.858324e+01 2.488858e+01 3.838168e+01 2.357932e+01 3.670859e+01 2.419259e+01 3.113581e+01 3.014183e+00 4.137591e+00 3.654184e+00 3.760281e+00 3.895434e+00 2.394687e+00 2.354017e+00 2.462677e+00 5.382329e+00 3.864725e+00 4.708333e+00 3.058789e+00 5.732678e+00 3.233045e-01 3.360914e-01 4.774745e-01 4.226757e-01 7.811822e-01 6.078848e-01 4.284858e-01 4.122257e-01 6.026186e-01 6.487840e-01 4.389561e-01 5.534533e-01 7.645631e-01
<GCONST> 1.249062e+02
<MIXTURE> 2 3.960232e-01
<MEAN> 39
 -1.813926e+00 -3.048798e+01 1.062004e+01 7.082196e+00 -2.672702e+00 1.581841e+01 -5.315896e+00 7.083231e+00 -1.669365e+00 -9.232209e+00 8.005685e+00 1.434431e+00 1.080799e+00 1.538757e+00 -3.477108e+00 3.651659e+00 4.371360e-02 -6.859709e-01 3.010505e+00 -1.024307e+00 -1.567149e-02 -2.688563e+00 -2.913789e+00 2.455599e+00 1.101130e+00 -4.044944e-01 -3.623129e-01 1.427418e+00 -1.146545e-01 5.290549e-01 8.542061e-01 -1.017417e-01 1.725455e-01 -1.577828e-01 3.614742e-01 5.130185e-01 -7.770907e-01 -2.672702e-01 6.686319e-01
<VARIANCE> 39
 2.501797e+01 4.005577e+01 8.159413e+01 5.800787e+01 5.593767e+01 6.229846e+01 4.403863e+01 3.558892e+01 6.705449e+01 5.046460e+01 7.598006e+01 3.572222e+01 4.121674e+01 2.182812e+00 4.553269e+00 2.916424e+00 2.215991e+00 2.071971e+00 3.103096e+00 2.112811e+00 2.473674e+00 3.459545e+00 4.004588e+00 2.907500e+00 2.470302e+00 2.899093e+00 1.663749e-01 1.037390e+00 1.056959e+00 3.015026e-01 3.412842e-01 1.112602e+00 5.204123e-01 5.646091e-01 7.070156e-01 8.707067e-01 6.606035e-01 3.902127e-01 3.602518e-01
<GCONST> 1.277010e+02
<STATE> 4
<NUMMIXES> 2
<MIXTURE> 1 6.631860e-01
<MEAN> 39
 -3.966229e-01 -2.911539e+01 1.601522e+01 9.764991e+00 8.207795e-01 2.188327e+01 -4.294439e+00 5.488613e+00 -4.557709e+00 -1.179709e+01 8.546355e+00 3.607027e+00 3.869674e+00 1.335836e+00 3.382336e+00 -1.316611e+00 1.079858e+00 2.019471e+00 -1.114241e+00 1.865558e-01 -1.057913e+00 -2.091966e-01 2.120304e-01 -7.405885e-01 1.779021e-01 -5.928014e-02 1.569992e-01 9.000860e-01 -1.258420e+00 -9.173229e-02 4.177673e-01 -1.116190e+00 -3.025993e-01 1.026761e-01 2.624745e-01 1.034765e-01 -3.165045e-01 -1.431675e-01 -2.010235e-01
<VARIANCE> 39
 7.017326e+01 1.055751e+02 1.010008e+02 5.649776e+01 5.576639e+01 7.824068e+01 6.718983e+01 6.675270e+01 8.121600e+01 5.173682e+01 7.745600e+01 4.589064e+01 5.106805e+01 4.254932e+00 5.585943e+00 7.722498e+00 2.521818e+00 3.554175e+00 5.705044e+00 5.959888e+00 4.102371e+00 4.010866e+00 4.728440e+00 2.489595e+00 2.101114e+00 1.909110e+00 3.028785e-01 1.438771e+00 1.374505e+00 3.594197e-01 6.419205e-01 8.152604e-01 8.107663e-01 8.085319e-01 6.492885e-01 1.031189e+00 6.747856e-01 3.480333e-01 2.938662e-01
<GCONST> 1.383859e+02
<MIXTURE> 2 3.368105e-01
<MEAN> 39
 -1.087357e+01 -1.132707e+01 1.863768e+00 7.242053e+00 4.699614e+00 1.077416e+01 -7.058049e-01 5.472992e+00 -2.089195e+00 -4.609493e+00 3.708958e+00 4.014311e+00 8.144257e+00 -1.291212e+00 1.833665e+00 -7.949772e-01 -1.239454e-01 8.893321e-02 -1.111466e+00 2.431012e-01 7.493957e-02 4.298756e-01 8.427613e-01 -4.244592e-01 -2.283000e-01 -6.497759e-02 -5.741546e-02 -4.504912e-01 2.802622e-01 -8.001048e-02 -7.789028e-02 2.382598e-01 5.298480e-03 8.133428e-02 -1.454545e-01 -1.778785e-01 1.659226e-01 1.067789e-01 -1.308056e-01
<VARIANCE> 39
 1.080044e+02 1.011371e+02 1.043145e+02 6.887530e+01 7.307106e+01 1.305121e+02 1.407589e+02 1.076569e+02 9.700000e+01 5.042760e+01 7.238733e+01 4.221356e+01 6.922547e+01 1.911719e+00 4.498127e+00 1.906191e+00 1.720444e+00 1.862783e+00 3.357126e+00 2.030469e+00 1.937420e+00 2.938624e+00 2.208507e+00 2.070442e+00 1.656931e+00 2.124531e+00 1.656005e-01 2.457233e-01 1.980967e-01 1.537534e-01 2.349990e-01 3.215618e-01 3.138431e-01 2.362307e-01 3.803905e-01 3.546174e-01 2.213259e-01 2.463007e-01 2.647951e-01
<GCONST> 1.216815e+02
<TRANSP> 5
 0.000000e+00 1.000000e+00 0.000000e+00 0.000000e+00 0.000000e+00
 0.000000e+00 8.057556e-01 1.942444e-01 0.000000e+00 0.000000e+00
 0.000000e+00 0.000000e+00 8.425299e-01 1.574701e-01 0.000000e+00
 0.000000e+00 0.000000e+00 0.000000e+00 7.828535e-01 2.171465e-01
 0.000000e+00 0.000000e+00 0.000000e+00 0.000000e+00 0.000000e+00
<ENDHMM>
~h "uu"
<BEGINHMM>
<NUMSTATES> 7
<STATE> 2
<NUMMIXES> 2
<MIXTURE> 1 6.365080e-01
<MEAN> 39
 1.782918e+01 6.678241e+00 3.112849e+00 1.080659e+01 8.541749e+00 -2.298642e+00 -9.018324e+00 1.440318e+01 4.879256e+00 -1.469813e+01 -7.263473e+00 -9.619244e+00 -1.249027e+01 9.626235e-02 4.121564e-01 5.195122e-01 3.518671e-01 -5.933274e-01 -2.109783e+00 -1.121958e+00 1.112201e+00 1.323847e+00 6.227688e-02 -7.757694e-02 -1.973519e-02 -7.394981e-01 -1.265258e-01 -8.232737e-02 1.095521e-01 5.455951e-02 -6.152925e-02 1.308942e-01 1.745491e-01 -6.643691e-02 -1.309111e-01 1.038908e-02 9.118836e-02 1.687731e-01 1.767356e-01
<VARIANCE> 39
 4.038212e+00 3.794543e+01 1.502421e+01 5.690305e+01 3.398617e+01 6.286897e+01 5.057647e+01 3.625249e+01 5.195416e+01 1.033934e+02 2.514530e+01 5.348748e+01 1.551843e+01 2.814190e-01 6.516213e-01 5.611684e-01 1.157177e+00 1.266991e+00 9.015087e-01 2.605889e+00 1.607497e+00 1.085641e+00 1.562455e+00 1.603298e+00 1.253474e+00 1.168999e+00 4.147798e-02 6.253479e-02 9.444039e-02 9.926787e-02 8.696974e-02 2.195888e-01 1.890939e-01 2.390140e-01 1.286656e-01 2.552594e-01 1.366303e-01 1.094599e-01 1.230842e-01
<GCONST> 9.060336e+01
<MIXTURE> 2 3.634926e-01
<MEAN> 39
 1.202134e+01 5.520157e+00 4.099563e+00 6.465751e+00 5.154030e+00 9.574069e+00 4.690722e+00 1.294929e+01 -1.604575e+00 -1.384075e+01 -9.531021e+00 -8.602424e+00 -1.995951e+00 1.104779e+00 5.320994e-01 -2.657665e-01 -3.927012e-02 -3.106701e-01 -1.727431e+00 -1.067074e+00 5.071383e-01 3.095096e-01 -3.559816e-01 2.340269e-02 -4.259748e-01 -1.259927e+00 -6.248300e-02 -2.320564e-01 -5.840084e-02 7.556250e-02 9.649260e-02 -2.587430e-01 -4.640945e-01 -2.080191e-02 3.156611e-01 2.312317e-01 1.964519e-01 1.509150e-02 -2.140778e-01
<VARIANCE> 39
 6.407232e+01 1.134347e+02 7.581187e+01 5.200449e+01 3.468251e+01 9.020934e+01 6.702586e+01 2.531376e+01 3.054561e+01 3.507600e+01 6.145679e+01 4.686557e+01 2.029522e+01 1.047485e+00 3.593460e+00 2.510407e+00 2.633543e+00 1.462538e+00 8.713076e+00 4.857326e+00 3.117490e+00 2.805324e+00 2.816611e+00 3.279051e+00 1.838368e+00 1.872912e+00 2.569795e-01 5.965701e-01 4.351770e-01 2.901580e-01 1.822394e-01 6.453380e-01 5.242527e-01 3.437089e-01 4.144106e-01 4.203135e-01 4.089735e-01 2.712096e-01 2.062390e-01
<GCONST> 1.219292e+02
<STATE> 3
<NUMMIXES> 2
<MIXTURE> 1 5.178992e-01
<MEAN> 39
 1.654305e+01 1.095006e+01 1.087513e+01 1.491365e+01 -4.718395e-01 -1.682962e+01 -1.074220e+01 1.664974e+01 5.753360e+00 -1.315181e+01 -3.614537e+00 -1.034053e+00 -1.106372e+01 -4.331821e-02 2.159268e-01 2.335757e-01 -3.216284e-02 -4.026597e-01 -2.868810e-01 7.570329e-02 -1.798977e-01 -3.705198e-01 -4.865390e-02 3.424003e-01 6.136745e-01 2.326087e-01 9.015471e-03 -8.016930e-03 -8.016705e-02 -6.748439e-02 4.205937e-02 1.266661e-01 3.496504e-02 1.499277e-02 -8.883282e-03 -2.143813e-02 -4.180031e-02 -8.951110e-02 7.792324e-03
<VARIANCE> 39
 1.534171e+00 1.074134e+01 8.630951e+00 1.051124e+01 1.263800e+01 1.602341e+01 2.533488e+01 2.673813e+01 2.309248e+01 1.204162e+01 1.809708e+01 2.872659e+01 1.317961e+01 9.474492e-02 3.411333e-01 3.193870e-01 4.961266e-01 3.298079e-01 8.459232e-01 6.965831e-01 9.664214e-01 4.892125e-01 8.235283e-01 5.380850e-01 7.416651e-01 2.963465e-01 1.506850e-02 3.873431e-02 3.268538e-02 5.872391e-02 5.327137e-02 9.737728e-02 9.680255e-02 1.206988e-01 6.793447e-02 1.073643e-01 6.344970e-02 7.044995e-02 4.326829e-02
<GCONST> 5.840129e+01
<MIXTURE> 2 4.820987e-01
<MEAN> 39
 1.668266e+01 4.000162e+00 6.521894e+00 1.504886e+01 8.694033e+00 -6.523391e+00 -9.886684e+00 1.903843e+01 2.195917e+00 -2.557290e+01 -7.165762e+00 -3.762671e+00 -1.436648e+01 7.434421e-02 8.236961e-01 2.114137e-01 -4.740311e-01 -1.289886e+00 -1.183726e+00 4.424669e-01 7.915477e-01 8.953815e-01 9.662511e-01 -5.111895e-01 -7.140861e-01 -2.078249e-02 -1.218337e-02 -6.727669e-02 -3.018470e-02 8.444788e-02 1.941932e-01 1.719042e-01 -8.267351e-02 -2.779627e-01 -1.490210e-01 1.294394e-01 1.846540e-01 1.045407e-01 3.050373e-02
<VARIANCE> 39
 4.680837e+00 1.500442e+01 8.631108e+00 1.744526e+01 3.042043e+01 3.234929e+01 2.335255e+01 2.418169e+01 2.770341e+01 3.479363e+01 1.376620e+01 1.626675e+01 9.209656e+00 1.543487e-01 2.585314e-01 4.174891e-01 4.558451e-01 6.533397e-01 7.368314e-01 9.121979e-01 1.139590e+00 5.868587e-01 1.111495e+00 1.046330e+00 8.005468e-01 3.990936e-01 2.209333e-02 3.341013e-02 5.387860e-02 5.903526e-02 6.385618e-02 9.615090e-02 1.322264e-01 1.370527e-01 8.278438e-02 1.754969e-01 8.769879e-02 8.568045e-02 5.923988e-02
<GCONST> 6.756403e+01
<STATE> 4
<NUMMIXES> 2
<MIXTURE> 1 1.000000e+00
<MEAN> 39
 1.677065e+01 9.422683e+00 9.803760e+00 1.433401e+01 1.004222e+00 -1.549841e+01 -1.243793e+01 1.766586e+01 5.787007e+00 -1.474662e+01 -1.583488e+00 -9.188062e-01 -1.199069e+01 -2.581753e-03 1.958621e-01 -1.025871e-01 -2.544090e-01 -8.873814e-02 3.210764e-01 2.868302e-01 -3.074583e-01 -1.036650e-01 4.373042e-01 1.791156e-02 -1.752592e-01 1.361606e-01 -1.882019e-02 -2.767714e-02 -8.336428e-02 -5.214574e-02 1.228087e-01 2.664614e-01 1.048399e-01 -1.260736e-01 -6.295558e-02 4.025420e-02 -8.587097e-02 -1.004877e-01 8.056611e-02
<VARIANCE> 39
 4.860540e+00 1.572184e+01 1.257473e+01 1.828267e+01 3.076548e+01 4.449723e+01 4.983993e+01 4.056185e+01 1.685684e+01 3.781532e+01 3.879391e+01 3.627121e+01 1.851155e+01 1.892637e-01 4.390230e-01 4.573760e-01 5.606739e-01 5.325678e-01 9.464046e-01 1.144473e+00 1.584757e+00 7.261848e-01 1.440014e+00 8.923774e-01 1.086289e+00 6.069884e-01 2.588521e-02 4.385279e-02 4.486101e-02 7.731239e-02 8.129501e-02 1.517135e-01 1.616827e-01 1.997258e-01 1.029540e-01 1.578927e-01 9.238353e-02 1.111235e-01 9.089211e-02
<GCONST> 7.711583e+01
<MIXTURE> 2 0.000000e+00
<MEAN> 39
 3.167866e+00 9.785287e+00 1.015721e+01 -1.126460e+01 -1.722803e+00 -2.314090e+01 -2.866014e+00 2.988645e+00 -1.257189e+01 -1.059196e+01 -8.080223e+00 -1.134586e+01 -1.309345e+01 -3.083741e-02 -3.272692e-02 -7.965064e-02 -1.481605e-01 -3.861562e-02 -1.373337e-03 8.863221e-04 1.868999e-02 -7.847838e-02 -1.271299e-01 -1.509936e-01 -7.997945e-02 -7.696240e-02 2.445563e-03 -3.155375e-02 -4.496285e-02 1.969696e-02 5.441263e-02 8.198876e-02 8.278470e-03 -1.894769e-02 -7.840006e-03 -4.695274e-02 -3.333806e-02 3.981774e-02 6.458335e-02
<VARIANCE> 39
 5.315660e+00 3.426040e+01 2.038534e+01 3.630614e+01 3.740158e+01 4.321970e+01 4.220889e+01 4.777325e+01 3.740923e+01 6.335217e+01 4.306703e+01 4.340738e+01 4.843743e+01 6.627245e-02 3.302242e-01 3.574037e-01 4.860166e-01 6.125762e-01 7.172378e-01 7.481684e-01 9.198427e-01 8.672596e-01 1.041075e+00 8.651084e-01 8.226215e-01 8.630548e-01 9.753287e-03 3.193334e-02 4.821209e-02 7.355566e-02 8.457156e-02 1.072942e-01 1.135506e-01 1.351915e-01 1.306799e-01 1.277171e-01 1.218774e-01 1.199830e-01 1.098237e-01
<GCONST> 7.718999e+01
<STATE> 5
<NUMMIXES> 2
<MIXTURE> 1 5.031440e-01
<MEAN> 39
 1.729264e+01 1.091317e+01 5.597074e+00 9.200256e+00 3.900550e+00 -5.469167e+00 -8.066570e+00 1.204431e+01 5.045739e+00 -1.112857e+01 -8.184177e+00 -8.665791e+00 -1.058675e+01 -1.849402e-01 2.015500e-01 -7.594267e-01 -9.000930e-01 6.319567e-01 2.380011e+00 1.356545e+00 -9.302521e-01 -6.123892e-01 5.629600e-01 -6.263850e-01 -8.269929e-01 8.382514e-01 -2.328868e-01 1.490421e-02 9.446135e-02 7.824442e-02 7.722732e-02 2.394165e-01 3.272789e-01 1.638396e-01 -2.794004e-02 -2.822839e-02 7.650389e-03 1.085387e-01 1.482090e-01
<VARIANCE> 39
 4.421371e+00 1.358141e+01 1.902206e+01 1.326572e+01 4.244759e+01 4.991241e+01 3.264387e+01 2.634134e+01 1.982584e+01 3.444844e+01 4.038031e+01 5.993913e+01 1.839563e+01 3.786774e-01 4.122342e-01 6.053112e-01 8.046462e-01 6.021689e-01 1.045497e+00 1.773593e+00 1.705299e+00 7.131478e-01 1.379957e+00 9.281080e-01 9.770494e-01 6.277394e-01 6.084968e-02 5.793128e-02 1.236499e-01 1.706422e-01 1.367080e-01 1.749752e-01 2.372124e-01 2.528493e-01 1.284274e-01 2.150801e-01 1.261649e-01 1.872702e-01 9.973068e-02
<GCONST> 8.474377e+01
<MIXTURE> 2 4.968562e-01
<MEAN> 39
 1.661128e+01 3.264995e+00 5.757341e+00 1.620399e+01 9.796814e+00 -5.738670e+00 -8.227221e+00 1.976249e+01 8.954870e-01 -2.571623e+01 -8.256865e+00 -4.320550e+00 -1.088816e+01 -5.269866e-02 -3.943019e-01 -1.596905e-01 2.159786e-01 6.408779e-01 8.854991e-01 9.199073e-02 -3.510533e-01 -2.654850e-01 -8.380642e-02 -2.001289e-01 -1.783825e-01 4.741865e-01 -7.752050e-02 1.281345e-03 8.300275e-02 1.125549e-02 6.351517e-03 1.830233e-01 8.623412e-02 -1.501950e-01 -8.059792e-02 1.098170e-01 6.103248e-02 3.116471e-02 8.342774e-02
<VARIANCE> 39
 5.584220e+00 1.566295e+01 1.699059e+01 1.782461e+01 4.476828e+01 3.792453e+01 3.033821e+01 3.824504e+01 2.411492e+01 3.347694e+01 1.773706e+01 2.218091e+01 1.330224e+01 1.759308e-01 4.382263e-01 6.246536e-01 8.162375e-01 5.293582e-01 9.388948e-01 1.159898e+00 1.172025e+00 6.105086e-01 1.463348e+00 8.676081e-01 9.019107e-01 5.279483e-01 2.870015e-02 6.180147e-02 8.769183e-02 1.036262e-01 9.155238e-02 1.434903e-01 2.122327e-01 1.674833e-01 9.838067e-02 1.996044e-01 1.037405e-01 8.912111e-02 8.253233e-02
<GCONST> 7.717322e+01
<STATE> 6
<NUMMIXES> 2
<MIXTURE> 1 4.478656e-01
<MEAN> 39
 7.223906e+00 1.819544e+01 1.372302e+01 1.285738e+01 5.188870e+00 -2.041906e-03 -4.800858e+00 6.053823e+00 4.911200e-01 -2.327586e+00 2.066665e+00 4.135624e-01 -2.253856e+00 -1.120329e+00 1.341140e-01 4.182527e-01 2.601925e-01 7.319299e-01 1.261817e+00 4.222780e-01 -5.481200e-01 -2.046497e-01 4.202012e-01 -3.076175e-02 -3.574725e-01 2.018597e-01 -2.007040e-02 -1.120299e-01 -5.401572e-02 -3.128645e-02 -5.959221e-02 -1.158424e-01 -2.744659e-02 7.994714e-02 1.320100e-02 -1.185460e-01 -4.757081e-02 -1.564290e-02 -5.960409e-02
<VARIANCE> 39
 3.719781e+01 1.058731e+01 2.160742e+01 2.413623e+01 2.680778e+01 6.981004e+01 7.495241e+01 5.972746e+01 2.047570e+01 2.278066e+01 1.723814e+01 1.533702e+01 2.049515e+01 1.556352e+00 7.488528e-01 1.021477e+00 9.976581e-01 1.375993e+00 3.433450e+00 2.008919e+00 1.456542e+00 9.263503e-01 1.310589e+00 7.495583e-01 8.903852e-01 5.416146e-01 5.830242e-02 8.320894e-02 1.248369e-01 1.196652e-01 1.209446e-01 2.101745e-01 1.733211e-01 1.508707e-01 1.239919e-01 1.644236e-01 1.173455e-01 1.262740e-01 8.622627e-02
<GCONST> 8.916451e+01
<MIXTURE> 2 5.521335e-01
<MEAN> 39
 9.619033e+00 8.424846e+00 5.543014e+00 1.055101e+01 8.486262e+00 5.979717e+00 4.847630e-01 1.169720e+01 4.287272e-01 -1.293992e+01 -1.017308e+01 -8.524659e+00 -4.419662e+00 -1.834219e+00 4.264216e-01 1.076394e+00 5.806117e-01 3.518484e-01 1.527029e+00 1.321422e+00 -3.626755e-01 -2.660487e-02 1.264070e+00 1.216457e-01 2.833148e-01 1.328623e+00 -1.966076e-01 -1.160503e-01 2.634502e-01 2.412454e-01 6.546403e-02 -1.427591e-01 -3.116171e-01 -8.697844e-02 8.985161e-02 2.764601e-02 8.627979e-02 1.056847e-01 -8.277882e-03
<VARIANCE> 39
 8.729300e+01 4.440180e+01 3.244625e+01 5.497565e+01 7.539028e+01 7.876565e+01 6.562144e+01 5.992178e+01 3.249442e+01 6.300781e+01 3.442068e+01 4.758130e+01 2.729122e+01 8.534200e-01 2.615958e+00 1.947949e+00 2.176958e+00 1.446955e+00 2.580184e+00 2.619447e+00 2.041606e+00 1.497277e+00 3.540519e+00 1.533473e+00 1.693387e+00 1.301624e+00 1.229715e-01 4.204191e-01 3.121414e-01 3.208386e-01 1.894714e-01 2.757569e-01 3.895117e-01 3.326735e-01 2.666202e-01 4.938763e-01 2.915466e-01 2.522299e-01 1.867120e-01
<GCONST> 1.142778e+02
<TRANSP> 7
 0.000000e+00 1.000000e+00 0.000000e+00 0.000000e+00 0.000000e+00 0.000000e+00 0.000000e+00
 0.000000e+00 8.153326e-01 1.846674e-01 0.000000e+00 0.000000e+00 0.000000e+00 0.000000e+00
 0.000000e+00 0.000000e+00 8.924409e-01 1.075591e-01 0.000000e+00 0.000000e+00 0.000000e+00
 0.000000e+00 0.000000e+00 0.000000e+00 7.704300e-01 2.295700e-01 0.000000e+00 0.000000e+00
 0.000000e+00 0.000000e+00 0.000000e+00 0.000000e+00 7.942950e-01 2.057050e-01 0.000000e+00
 0.000000e+00 0.000000e+00 0.000000e+00 0.000000e+00 0.000000e+00 8.436682e-01 1.563318e-01
 0.000000e+00 0.000000e+00 0.000000e+00 0.000000e+00 0.000000e+00 0.000000e+00 0.000000e+00
<ENDHMM>
~h "SIL"
<BEGINHMM>
<NUMSTATES> 5
<STATE> 2
<NUMMIXES> 2
<MIXTURE> 1 6.343535e-01
<MEAN> 39
 -9.558927e+00 -2.955737e+00 -2.506285e+00 4.132630e+00 -4.022208e-01 3.377083e+00 4.130420e+00 3.240064e-02 1.627516e+00 6.109094e-01 -1.318923e-01 4.498853e+00 -8.942712e-01 -6.928948e-02 3.829870e-02 -6.734582e-04 6.790166e-03 1.340300e-02 1.375837e-02 2.232590e-02 1.784532e-02 1.971374e-02 1.640245e-02 -5.062588e-03 -1.623879e-03 2.044486e-02 -2.696889e-03 4.180977e-03 1.697672e-02 -6.120666e-03 -4.228717e-03 6.320278e-04 -1.656370e-03 -2.444819e-03 6.286830e-03 -8.582719e-03 -1.216181e-02 -5.073556e-03 -4.548995e-03
<VARIANCE> 39
 4.186462e+01 7.402940e+01 3.099679e+01 3.340697e+01 4.645889e+01 4.345008e+01 2.968412e+01 3.228226e+01 3.052909e+01 2.290461e+01 1.840874e+01 1.938979e+01 2.506889e+01 1.440693e-01 3.649671e-01 4.392949e-01 5.817301e-01 7.149680e-01 8.990549e-01 1.019488e+00 1.134216e+00 1.207672e+00 1.148922e+00 1.105158e+00 1.056239e+00 9.328530e-01 2.465242e-02 5.432563e-02 8.521398e-02 1.176557e-01 1.502030e-01 1.916525e-01 2.139053e-01 2.402989e-01 2.571377e-01 2.458468e-01 2.369102e-01 2.262610e-01 2.008634e-01
<GCONST> 8.756295e+01
<MIXTURE> 2 3.656465e-01
<MEAN> 39
 -1.142323e+01 1.189757e+00 -1.150043e+00 2.073591e+00 1.984568e+00 1.458758e+00 4.666055e+00 1.247311e+00 2.303590e+00 6.847165e-01 -4.941858e-01 4.576219e+00 -1.241537e+00 -2.383977e-01 3.311241e-02 -1.279305e-02 2.437228e-02 2.793390e-02 1.407799e-01 9.608070e-02 8.677866e-02 1.114440e-01 1.082627e-01 3.608481e-02 3.226501e-02 6.382274e-02 1.940947e-02 3.630415e-03 8.181022e-03 2.361297e-02 2.753633e-02 -1.779759e-02 -3.005121e-02 -1.506858e-02 -2.992165e-02 -1.730591e-02 -1.236073e-02 -2.410082e-02 -2.872620e-03
<VARIANCE> 39
 4.480489e+01 6.668343e+01 4.001367e+01 5.130425e+01 5.788618e+01 6.144305e+01 5.531167e+01 4.810794e+01 4.128096e+01 3.064755e+01 2.747056e+01 2.852841e+01 3.160432e+01 1.514161e+00 2.485977e+00 2.332164e+00 2.129232e+00 2.084023e+00 2.247124e+00 2.255863e+00 2.281002e+00 2.357451e+00 2.077529e+00 1.851172e+00 1.746888e+00 1.433622e+00 2.191909e-01 3.888186e-01 4.058700e-01 3.762366e-01 3.878883e-01 4.263409e-01 4.298833e-01 4.452224e-01 4.540788e-01 4.104838e-01 3.682645e-01 3.519675e-01 2.906989e-01
<GCONST> 1.171093e+02
<STATE> 3
<NUMMIXES> 2
<MIXTURE> 1 6.952365e-01
<MEAN> 39
 -4.614826e-36 4.088473e-39 7.546833e-41 -2.003180e-38 -1.016468e-37 1.405099e-39 -7.973388e-43 7.664946e-39 -1.286953e-38 1.415171e-41 6.993320e-41 6.165994e-41 1.993908e-41 5.552645e-41 1.641061e-40 1.461414e-41 6.268008e-42 1.373272e-43 -2.054304e-42 1.018744e-41 -2.522337e-44 -2.642154e-39 1.558244e-42 1.841306e-42 3.833953e-42 -1.401298e-45 -1.041492e-02 1.165869e-03 -4.681267e-04 1.067939e-03 -3.674125e-04 -4.449329e-04 -4.800549e-04 -8.346118e-04 -4.919678e-04 -6.385805e-04 -4.974747e-04 3.757836e-04 -7.628010e-04
<VARIANCE> 39
 1.000000e-02 1.000000e-02 1.000000e-02 1.000000e-02 1.000000e-02 1.000000e-02 1.000000e-02 1.000000e-02 1.000000e-02 1.000000e-02 1.000000e-02 1.000000e-02 1.000000e-02 1.000000e-02 1.000000e-02 1.000000e-02 1.000000e-02 1.000000e-02 1.000000e-02 1.000000e-02 1.000000e-02 1.000000e-02 1.000000e-02 1.000000e-02 1.000000e-02 1.000000e-02 1.000000e-02 1.000000e-02 1.000000e-02 1.000000e-02 1.000000e-02 1.000000e-02 1.000000e-02 1.000000e-02 1.000000e-02 1.000000e-02 1.000000e-02 1.000000e-02 1.000000e-02
<GCONST> -1.079245e+02
<MIXTURE> 2 3.047635e-01
<MEAN> 39
 -3.073403e+01 1.425273e+01 -6.347635e+00 2.336389e+00 -7.483404e-01 1.066642e+01 -1.116233e+01 5.172227e+00 2.572465e-01 4.570226e-01 -1.853601e+00 4.806254e-01 3.082728e+00 -1.703352e-02 1.551152e-02 3.685159e-02 3.168634e-02 1.600667e-02 2.196852e-03 1.066339e-02 1.046215e-02 6.194680e-03 -2.002487e-03 -2.168891e-02 -2.960364e-02 -1.420306e-02 6.402527e-02 -2.888847e-02 1.946194e-02 2.577228e-02 -3.223030e-03 -2.393205e-02 1.966219e-02 7.751088e-04 -1.281637e-02 -3.375708e-03 5.767592e-03 -3.608371e-03 -2.195551e-02
<VARIANCE> 39
 7.722108e+01 3.633752e+01 1.621295e+01 8.805264e+00 1.116743e+01 2.184221e+01 5.614600e+01 9.989722e+00 7.891666e+00 5.587424e+00 5.826734e+00 7.160335e+00 7.011834e+00 2.358004e-01 2.073665e-01 2.922952e-01 2.998027e-01 3.982294e-01 4.320155e-01 5.057585e-01 5.343324e-01 5.329021e-01 5.498871e-01 5.658979e-01 5.152957e-01 4.229449e-01 9.825453e-02 6.422583e-02 7.037972e-02 7.732156e-02 9.463117e-02 1.049519e-01 1.273331e-01 1.155301e-01 1.163909e-01 1.174336e-01 1.189772e-01 1.076718e-01 9.144803e-02
<GCONST> 6.387524e+01
<STATE> 4
<NUMMIXES> 2
<MIXTURE> 1 5.103472e-01
<MEAN> 39
 -1.256804e+01 6.479373e+00 2.038786e+00 8.567524e+00 2.427899e+00 5.176943e+00 4.114543e-01 4.024741e+00 1.021508e+00 1.262775e+00 -1.256009e+00 9.477930e-01 3.137723e-02 -8.586787e-02 3.690922e-02 2.457621e-01 1.594240e-01 1.689443e-01 5.045222e-02 3.103973e-02 6.963865e-02 1.091670e-01 7.266748e-02 3.943156e-02 6.249414e-03 -1.648775e-02 1.051229e-02 -3.655927e-02 1.203187e-02 -3.837839e-02 1.769672e-03 -1.438639e-02 9.163395e-03 8.845959e-03 -7.347676e-03 -3.171584e-02 -5.209196e-03 1.373672e-02 -1.236865e-02
<VARIANCE> 39
 7.612381e+01 6.791934e+01 3.206618e+01 5.097443e+01 4.710615e+01 4.857334e+01 4.886001e+01 4.522910e+01 3.813118e+01 2.496777e+01 2.466132e+01 2.227277e+01 1.953887e+01 6.615518e-01 8.886617e-01 9.175950e-01 1.017072e+00 1.108420e+00 1.194592e+00 1.274129e+00 1.362965e+00 1.347271e+00 1.241394e+00 1.154082e+00 1.094268e+00 9.258087e-01 1.785030e-01 2.040161e-01 1.926394e-01 2.249779e-01 2.455316e-01 2.707347e-01 2.889727e-01 3.002017e-01 2.985176e-01 2.784478e-01 2.593574e-01 2.391664e-01 2.035334e-01
<GCONST> 1.016392e+02
<MIXTURE> 2 4.896528e-01
<MEAN> 39
 -1.020193e+01 3.199551e+00 2.373005e+00 5.452412e+00 2.385052e+00 2.486034e+00 1.580645e+00 3.328131e+00 1.332066e+00 -7.191740e-01 -2.476467e+00 1.183569e+00 -1.171889e+00 1.273982e+00 -3.833585e-01 4.658445e-01 1.614458e-01 4.792918e-02 -5.415885e-01 -1.025224e-01 -1.463170e-02 -2.565329e-01 -5.430909e-01 -4.399176e-01 -3.804746e-01 -3.820809e-01 6.029564e-02 -8.747855e-02 5.094163e-03 -3.020878e-02 5.573182e-03 -8.083791e-02 -5.798243e-02 -1.463480e-02 1.865065e-03 -3.867018e-02 -9.503978e-03 -1.724554e-02 6.533443e-03
<VARIANCE> 39
 9.643607e+01 9.792954e+01 6.559746e+01 7.856171e+01 8.060581e+01 7.181393e+01 7.312693e+01 5.997856e+01 4.726611e+01 4.559750e+01 3.356037e+01 3.527980e+01 2.955104e+01 5.178400e+00 5.150322e+00 3.770604e+00 3.737880e+00 3.884596e+00 3.836053e+00 4.076818e+00 3.454412e+00 3.297246e+00 2.993804e+00 2.481349e+00 2.278534e+00 1.766467e+00 7.921278e-01 8.026540e-01 6.029379e-01 5.582282e-01 6.184182e-01 6.333398e-01 6.467891e-01 5.800772e-01 5.622950e-01 5.424428e-01 4.485731e-01 3.958752e-01 3.163141e-01
<GCONST> 1.329065e+02
<TRANSP> 5
 0.000000e+00 1.000000e+00 0.000000e+00 0.000000e+00 0.000000e+00
 0.000000e+00 9.535479e-01 4.645211e-02 0.000000e+00 0.000000e+00
 0.000000e+00 0.000000e+00 9.280416e-01 7.195845e-02 0.000000e+00
 0.000000e+00 0.000000e+00 0.000000e+00 9.013939e-01 9.860607e-02
 0.000000e+00 0.000000e+00 0.000000e+00 0.000000e+00 0.000000e+00
<ENDHMM>
~h "dxhq"
<BEGINHMM>
<NUMSTATES> 5
<STATE> 2
<NUMMIXES> 2
<MIXTURE> 1 5.000000e-01
<MEAN> 39
 2.422659e+01 -4.055797e+00 -2.225815e+01 -5.450942e+00 8.597072e+00 -5.519735e+00 -1.833669e+01 9.764053e+00 1.170131e+01 -4.602155e+00 -1.223103e+00 3.764828e-01 2.848051e+00 5.798314e-02 3.731250e-01 -1.001216e-01 -3.226165e-01 2.464943e-01 1.176633e+00 5.844861e-01 -6.405914e-01 -6.808811e-01 2.280935e-02 2.980427e-02 -2.659283e-01 1.329769e-01 -4.775251e-02 1.056274e-01 1.543913e-01 7.602453e-02 -1.212412e-02 2.926192e-02 3.337210e-02 -1.675307e-01 -5.133753e-02 1.287800e-01 -1.600219e-02 -1.178925e-01 -1.090561e-01
<VARIANCE> 39
 8.931652e+00 4.129041e+00 8.889360e+00 6.826712e+00 1.196827e+01 2.995551e+01 1.801567e+01 3.030289e+01 1.321792e+01 1.510341e+01 1.067962e+01 3.036527e+00 7.942284e+00 5.419973e-01 5.330868e-01 7.023252e-01 3.516446e-01 6.083236e-01 4.762940e-01 7.912612e-01 1.693953e+00 2.703885e-01 1.120376e+00 5.730470e-01 5.459310e-01 3.918593e-01 5.958967e-02 3.400224e-02 6.761446e-02 5.208797e-02 6.576459e-02 7.699163e-02 9.307104e-02 2.023647e-01 3.423532e-02 1.263305e-01 8.126555e-02 4.962833e-02 4.597382e-02
<GCONST> 6.039931e+01
<MIXTURE> 2 5.000000e-01
<MEAN> 39
 2.422659e+01 -4.055797e+00 -2.225815e+01 -5.450942e+00 8.597072e+00 -5.519735e+00 -1.833669e+01 9.764053e+00 1.170131e+01 -4.602155e+00 -1.223103e+00 3.764828e-01 2.848051e+00 5.798314e-02 3.731250e-01 -1.001216e-01 -3.226165e-01 2.464943e-01 1.176633e+00 5.844861e-01 -6.405914e-01 -6.808811e-01 2.280935e-02 2.980427e-02 -2.659283e-01 1.329769e-01 -4.775251e-02 1.056274e-01 1.543913e-01 7.602453e-02 -1.212412e-02 2.926192e-02 3.337210e-02 -1.675307e-01 -5.133753e-02 1.287800e-01 -1.600219e-02 -1.178925e-01 -1.090561e-01
<VARIANCE> 39
 8.931652e+00 4.129041e+00 8.889360e+00 6.826712e+00 1.196827e+01 2.995551e+01 1.801567e+01 3.030289e+01 1.321792e+01 1.510341e+01 1.067962e+01 3.036527e+00 7.942284e+00 5.419973e-01 5.330868e-01 7.023252e-01 3.516446e-01 6.083236e-01 4.762940e-01 7.912612e-01 1.693953e+00 2.703885e-01 1.120376e+00 5.730470e-01 5.459310e-01 3.918593e-01 5.958967e-02 3.400224e-02 6.761446e-02 5.208797e-02 6.576459e-02 7.699163e-02 9.307104e-02 2.023647e-01 3.423532e-02 1.263305e-01 8.126555e-02 4.962833e-02 4.597382e-02
<GCONST> 6.039931e+01
<STATE> 3
<NUMMIXES> 2
<MIXTURE> 1 5.000000e-01
<MEAN> 39
 2.203792e+01 1.857410e+00 -1.438175e+01 -2.724897e+00 5.574249e+00 -7.748610e-02 -9.890161e+00 6.268077e+00 5.611106e+00 -3.200490e-01 2.802288e-01 -7.019938e+00 -9.873700e-01 -2.536849e-01 4.830587e-03 1.042281e+00 1.066848e+00 -1.447742e+00 -6.068531e-01 1.907194e+00 8.584018e-01 -7.574291e-01 4.785649e-01 6.480090e-01 -3.623714e-01 -4.585850e-01 -5.797580e-02 -3.313806e-01 -4.981091e-02 1.019976e-01 -2.060426e-01 -5.977465e-02 3.168657e-01 3.890399e-01 5.421392e-02 -7.402863e-02 1.047668e-01 2.540038e-01 2.999116e-01
<VARIANCE> 39
 4.729680e+00 3.712514e+00 1.570698e+01 1.095904e+01 3.061539e+01 2.377791e+01 2.597321e+01 3.515242e+01 9.423384e+00 1.159993e+01 1.372208e+01 5.950337e+00 1.373438e+01 3.231890e-01 1.435317e+00 9.419629e-01 4.088648e-01 1.485984e+00 1.647364e+00 2.257417e+00 3.624639e+00 4.661576e-01 1.711363e+00 8.484843e-01 1.457275e+00 1.297043e+00 4.211502e-02 8.668666e-02 1.327142e-01 6.583756e-02 2.427416e-01 4.767749e-01 1.990552e-01 3.396187e-01 8.639382e-02 2.564532e-01 1.605663e-01 1.465603e-01 1.346923e-01
<GCONST> 8.156869e+01
<MIXTURE> 2 5.000000e-01
<MEAN> 39
 2.203792e+01 1.857410e+00 -1.438175e+01 -2.724897e+00 5.574249e+00 -7.748610e-02 -9.890161e+00 6.268077e+00 5.611106e+00 -3.200490e-01 2.802288e-01 -7.019938e+00 -9.873700e-01 -2.536849e-01 4.830587e-03 1.042281e+00 1.066848e+00 -1.447742e+00 -6.068531e-01 1.907194e+00 8.584018e-01 -7.574291e-01 4.785649e-01 6.480090e-01 -3.623714e-01 -4.585850e-01 -5.797580e-02 -3.313806e-01 -4.981091e-02 1.019976e-01 -2.060426e-01 -5.977465e-02 3.168657e-01 3.890399e-01 5.421392e-02 -7.402863e-02 1.047668e-01 2.540038e-01 2.999116e-01
<VARIANCE> 39
 4.729680e+00 3.712514e+00 1.570698e+01 1.095904e+01 3.061539e+01 2.377791e+01 2.597321e+01 3.515242e+01 9.423384e+00 1.159993e+01 1.372208e+01 5.950337e+00 1.373438e+01 3.231890e-01 1.435317e+00 9.419629e-01 4.088648e-01 1.485984e+00 1.647364e+00 2.257417e+00 3.624639e+00 4.661576e-01 1.711363e+00 8.484843e-01 1.457275e+00 1.297043e+00 4.211502e-02 8.668666e-02 1.327142e-01 6.583756e-02 2.427416e-01 4.767749e-01 1.990552e-01 3.396187e-01 8.639382e-02 2.564532e-01 1.605663e-01 1.465603e-01 1.346923e-01
<GCONST> 8.156869e+01
<STATE> 4
<NUMMIXES> 2
<MIXTURE> 1 5.000000e-01
<MEAN> 39
 1.674959e+01 -1.259197e+01 -7.534254e+00 5.375981e+00 -1.019857e+01 2.159100e+00 1.398387e+01 1.636389e+01 7.352116e+00 9.765294e+00 6.078049e+00 -5.279246e+00 5.065471e+00 5.312745e-02 -2.426315e-01 9.349868e-02 5.603039e-02 -1.591357e-01 -2.023048e-02 1.169146e-01 1.020311e-02 -8.925476e-02 -1.245988e-01 7.883400e-03 1.307757e-01 1.991158e-01 4.708817e-02 5.635306e-02 -8.352088e-02 -6.673138e-02 1.099894e-01 -6.940024e-02 -2.020876e-01 -7.429931e-02 -1.426500e-02 -1.074833e-01 -4.255740e-02 2.628670e-02 -6.139854e-02
<VARIANCE> 39
 1.105640e+01 3.686102e+01 1.184962e+01 8.436011e+00 2.343551e+01 2.313611e+01 4.731224e+01 1.557841e+01 2.099363e+01 2.780590e+01 7.245554e+00 7.763418e+00 8.383764e+00 6.317940e-01 2.317707e+00 1.037748e+00 8.753682e-01 9.723830e-01 2.020333e+00 2.993950e+00 7.709985e-01 1.647924e+00 2.226542e+00 8.701950e-01 9.458075e-01 1.055657e+00 3.128960e-02 1.550604e-01 1.422679e-01 1.339320e-01 1.198567e-01 2.229345e-01 1.256128e-01 1.142800e-01 2.463289e-01 2.002082e-01 1.903872e-01 1.602758e-01 1.262798e-01
<GCONST> 8.494938e+01
<MIXTURE> 2 5.000000e-01
<MEAN> 39
 1.674959e+01 -1.259197e+01 -7.534254e+00 5.375981e+00 -1.019857e+01 2.159100e+00 1.398387e+01 1.636389e+01 7.352116e+00 9.765294e+00 6.078049e+00 -5.279246e+00 5.065471e+00 5.312745e-02 -2.426315e-01 9.349868e-02 5.603039e-02 -1.591357e-01 -2.023048e-02 1.169146e-01 1.020311e-02 -8.925476e-02 -1.245988e-01 7.883400e-03 1.307757e-01 1.991158e-01 4.708817e-02 5.635306e-02 -8.352088e-02 -6.673138e-02 1.099894e-01 -6.940024e-02 -2.020876e-01 -7.429931e-02 -1.426500e-02 -1.074833e-01 -4.255740e-02 2.628670e-02 -6.139854e-02
<VARIANCE> 39
 1.105640e+01 3.686102e+01 1.184962e+01 8.436011e+00 2.343551e+01 2.313611e+01 4.731224e+01 1.557841e+01 2.099363e+01 2.780590e+01 7.245554e+00 7.763418e+00 8.383764e+00 6.317940e-01 2.317707e+00 1.037748e+00 8.753682e-01 9.723830e-01 2.020333e+00 2.993950e+00 7.709985e-01 1.647924e+00 2.226542e+00 8.701950e-01 9.458075e-01 1.055657e+00 3.128960e-02 1.550604e-01 1.422679e-01 1.339320e-01 1.198567e-01 2.229345e-01 1.256128e-01 1.142800e-01 2.463289e-01 2.002082e-01 1.903872e-01 1.602758e-01 1.262798e-01
<GCONST> 8.494938e+01
<TRANSP> 5
 0.000000e+00 1.000000e+00 0.000000e+00 0.000000e+00 0.000000e+00
 0.000000e+00 9.180056e-01 8.199434e-02 0.000000e+00 0.000000e+00
 0.000000e+00 0.000000e+00 8.386925e-01 1.613074e-01 0.000000e+00
 0.000000e+00 0.000000e+00 0.000000e+00 9.350020e-01 6.499797e-02
 0.000000e+00 0.000000e+00 0.000000e+00 0.000000e+00 0.000000e+00
<ENDHMM>
~h "dxh"
<BEGINHMM>
<NUMSTATES> 5
<STATE> 2
<NUMMIXES> 2
<MIXTURE> 1 5.000000e-01
<MEAN> 39
 5.098849e+00 -6.514025e+00 2.430083e+00 1.092778e+01 1.083864e+01 1.500667e+00 -1.140838e+01 9.359310e+00 -3.377835e+00 -1.113024e+01 6.044074e+00 -4.088247e-01 -3.646332e+00 -1.380477e-02 1.475701e-03 -1.072459e-03 -5.524765e-03 -3.099398e-03 2.005852e-03 8.190720e-04 -5.087083e-03 2.488556e-03 5.650900e-03 -1.806995e-03 5.936168e-04 1.443354e-03 -1.213556e-03 -1.404243e-04 -1.926630e-04 -5.029775e-04 -4.298560e-04 2.249404e-04 5.535607e-04 -2.933974e-04 7.204357e-05 8.173331e-04 -1.603794e-04 -1.434907e-04 3.551734e-04
<VARIANCE> 39
 2.696502e+02 1.642264e+02 1.776205e+02 1.699619e+02 1.712323e+02 1.501611e+02 1.653076e+02 1.112998e+02 8.102897e+01 1.132308e+02 1.038732e+02 3.576029e+01 7.139818e+01 2.864393e+00 3.049235e+00 2.950589e+00 2.442850e+00 2.488132e+00 2.882445e+00 3.574063e+00 2.837703e+00 2.254665e+00 3.083899e+00 2.848865e+00 1.410452e+00 1.706605e+00 2.059384e-01 2.861855e-01 3.165202e-01 2.798763e-01 2.958655e-01 3.292713e-01 4.082396e-01 3.875320e-01 3.475762e-01 4.161765e-01 3.917231e-01 2.236369e-01 2.362328e-01
<GCONST> 1.313330e+02
<MIXTURE> 2 5.000000e-01
<MEAN> 39
 5.098849e+00 -6.514025e+00 2.430083e+00 1.092778e+01 1.083864e+01 1.500667e+00 -1.140838e+01 9.359310e+00 -3.377835e+00 -1.113024e+01 6.044074e+00 -4.088247e-01 -3.646332e+00 -1.380477e-02 1.475701e-03 -1.072459e-03 -5.524765e-03 -3.099398e-03 2.005852e-03 8.190720e-04 -5.087083e-03 2.488556e-03 5.650900e-03 -1.806995e-03 5.936168e-04 1.443354e-03 -1.213556e-03 -1.404243e-04 -1.926630e-04 -5.029775e-04 -4.298560e-04 2.249404e-04 5.535607e-04 -2.933974e-04 7.204357e-05 8.173331e-04 -1.603794e-04 -1.434907e-04 3.551734e-04
<VARIANCE> 39
 2.696502e+02 1.642264e+02 1.776205e+02 1.699619e+02 1.712323e+02 1.501611e+02 1.653076e+02 1.112998e+02 8.102897e+01 1.132308e+02 1.038732e+02 3.576029e+01 7.139818e+01 2.864393e+00 3.049235e+00 2.950589e+00 2.442850e+00 2.488132e+00 2.882445e+00 3.574063e+00 2.837703e+00 2.254665e+00 3.083899e+00 2.848865e+00 1.410452e+00 1.706605e+00 2.059384e-01 2.861855e-01 3.165202e-01 2.798763e-01 2.958655e-01 3.292713e-01 4.082396e-01 3.875320e-01 3.475762e-01 4.161765e-01 3.917231e-01 2.236369e-01 2.362328e-01
<GCONST> 1.313330e+02
<STATE> 3
<NUMMIXES> 2
<MIXTURE> 1 5.000000e-01
<MEAN> 39
 5.098849e+00 -6.514025e+00 2.430083e+00 1.092778e+01 1.083864e+01 1.500667e+00 -1.140838e+01 9.359310e+00 -3.377835e+00 -1.113024e+01 6.044074e+00 -4.088247e-01 -3.646332e+00 -1.380477e-02 1.475701e-03 -1.072459e-03 -5.524765e-03 -3.099398e-03 2.005852e-03 8.190720e-04 -5.087083e-03 2.488556e-03 5.650900e-03 -1.806995e-03 5.936168e-04 1.443354e-03 -1.213556e-03 -1.404243e-04 -1.926630e-04 -5.029775e-04 -4.298560e-04 2.249404e-04 5.535607e-04 -2.933974e-04 7.204357e-05 8.173331e-04 -1.603794e-04 -1.434907e-04 3.551734e-04
<VARIANCE> 39
 2.696502e+02 1.642264e+02 1.776205e+02 1.699619e+02 1.712323e+02 1.501611e+02 1.653076e+02 1.112998e+02 8.102897e+01 1.132308e+02 1.038732e+02 3.576029e+01 7.139818e+01 2.864393e+00 3.049235e+00 2.950589e+00 2.442850e+00 2.488132e+00 2.882445e+00 3.574063e+00 2.837703e+00 2.254665e+00 3.083899e+00 2.848865e+00 1.410452e+00 1.706605e+00 2.059384e-01 2.861855e-01 3.165202e-01 2.798763e-01 2.958655e-01 3.292713e-01 4.082396e-01 3.875320e-01 3.475762e-01 4.161765e-01 3.917231e-01 2.236369e-01 2.362328e-01
<GCONST> 1.313330e+02
<MIXTURE> 2 5.000000e-01
<MEAN> 39
 5.098849e+00 -6.514025e+00 2.430083e+00 1.092778e+01 1.083864e+01 1.500667e+00 -1.140838e+01 9.359310e+00 -3.377835e+00 -1.113024e+01 6.044074e+00 -4.088247e-01 -3.646332e+00 -1.380477e-02 1.475701e-03 -1.072459e-03 -5.524765e-03 -3.099398e-03 2.005852e-03 8.190720e-04 -5.087083e-03 2.488556e-03 5.650900e-03 -1.806995e-03 5.936168e-04 1.443354e-03 -1.213556e-03 -1.404243e-04 -1.926630e-04 -5.029775e-04 -4.298560e-04 2.249404e-04 5.535607e-04 -2.933974e-04 7.204357e-05 8.173331e-04 -1.603794e-04 -1.434907e-04 3.551734e-04
<VARIANCE> 39
 2.696502e+02 1.642264e+02 1.776205e+02 1.699619e+02 1.712323e+02 1.501611e+02 1.653076e+02 1.112998e+02 8.102897e+01 1.132308e+02 1.038732e+02 3.576029e+01 7.139818e+01 2.864393e+00 3.049235e+00 2.950589e+00 2.442850e+00 2.488132e+00 2.882445e+00 3.574063e+00 2.837703e+00 2.254665e+00 3.083899e+00 2.848865e+00 1.410452e+00 1.706605e+00 2.059384e-01 2.861855e-01 3.165202e-01 2.798763e-01 2.958655e-01 3.292713e-01 4.082396e-01 3.875320e-01 3.475762e-01 4.161765e-01 3.917231e-01 2.236369e-01 2.362328e-01
<GCONST> 1.313330e+02
<STATE> 4
<NUMMIXES> 2
<MIXTURE> 1 5.000000e-01
<MEAN> 39
 5.098849e+00 -6.514025e+00 2.430083e+00 1.092778e+01 1.083864e+01 1.500667e+00 -1.140838e+01 9.359310e+00 -3.377835e+00 -1.113024e+01 6.044074e+00 -4.088247e-01 -3.646332e+00 -1.380477e-02 1.475701e-03 -1.072459e-03 -5.524765e-03 -3.099398e-03 2.005852e-03 8.190720e-04 -5.087083e-03 2.488556e-03 5.650900e-03 -1.806995e-03 5.936168e-04 1.443354e-03 -1.213556e-03 -1.404243e-04 -1.926630e-04 -5.029775e-04 -4.298560e-04 2.249404e-04 5.535607e-04 -2.933974e-04 7.204357e-05 8.173331e-04 -1.603794e-04 -1.434907e-04 3.551734e-04
<VARIANCE> 39
 2.696502e+02 1.642264e+02 1.776205e+02 1.699619e+02 1.712323e+02 1.501611e+02 1.653076e+02 1.112998e+02 8.102897e+01 1.132308e+02 1.038732e+02 3.576029e+01 7.139818e+01 2.864393e+00 3.049235e+00 2.950589e+00 2.442850e+00 2.488132e+00 2.882445e+00 3.574063e+00 2.837703e+00 2.254665e+00 3.083899e+00 2.848865e+00 1.410452e+00 1.706605e+00 2.059384e-01 2.861855e-01 3.165202e-01 2.798763e-01 2.958655e-01 3.292713e-01 4.082396e-01 3.875320e-01 3.475762e-01 4.161765e-01 3.917231e-01 2.236369e-01 2.362328e-01
<GCONST> 1.313330e+02
<MIXTURE> 2 5.000000e-01
<MEAN> 39
 5.098849e+00 -6.514025e+00 2.430083e+00 1.092778e+01 1.083864e+01 1.500667e+00 -1.140838e+01 9.359310e+00 -3.377835e+00 -1.113024e+01 6.044074e+00 -4.088247e-01 -3.646332e+00 -1.380477e-02 1.475701e-03 -1.072459e-03 -5.524765e-03 -3.099398e-03 2.005852e-03 8.190720e-04 -5.087083e-03 2.488556e-03 5.650900e-03 -1.806995e-03 5.936168e-04 1.443354e-03 -1.213556e-03 -1.404243e-04 -1.926630e-04 -5.029775e-04 -4.298560e-04 2.249404e-04 5.535607e-04 -2.933974e-04 7.204357e-05 8.173331e-04 -1.603794e-04 -1.434907e-04 3.551734e-04
<VARIANCE> 39
 2.696502e+02 1.642264e+02 1.776205e+02 1.699619e+02 1.712323e+02 1.501611e+02 1.653076e+02 1.112998e+02 8.102897e+01 1.132308e+02 1.038732e+02 3.576029e+01 7.139818e+01 2.864393e+00 3.049235e+00 2.950589e+00 2.442850e+00 2.488132e+00 2.882445e+00 3.574063e+00 2.837703e+00 2.254665e+00 3.083899e+00 2.848865e+00 1.410452e+00 1.706605e+00 2.059384e-01 2.861855e-01 3.165202e-01 2.798763e-01 2.958655e-01 3.292713e-01 4.082396e-01 3.875320e-01 3.475762e-01 4.161765e-01 3.917231e-01 2.236369e-01 2.362328e-01
<GCONST> 1.313330e+02
<TRANSP> 5
 0.000000e+00 1.000000e+00 0.000000e+00 0.000000e+00 0.000000e+00
 0.000000e+00 6.000000e-01 4.000000e-01 0.000000e+00 0.000000e+00
 0.000000e+00 0.000000e+00 6.000000e-01 4.000000e-01 0.000000e+00
 0.000000e+00 0.000000e+00 0.000000e+00 6.000000e-01 4.000000e-01
 0.000000e+00 0.000000e+00 0.000000e+00 0.000000e+00 0.000000e+00
<ENDHMM>
~h "dxq"
<BEGINHMM>
<NUMSTATES> 5
<STATE> 2
<NUMMIXES> 2
<MIXTURE> 1 5.000000e-01
<MEAN> 39
 2.173911e+01 7.701638e+00 -5.941673e+00 2.678791e-01 6.743336e+00 -5.605407e+00 -2.218235e+01 4.341665e-01 8.720337e+00 1.140185e+00 -7.281711e-01 -1.043760e+01 -8.648412e+00 1.799453e-01 2.259695e-01 -4.475414e-01 -9.848778e-01 -8.021683e-02 1.438625e+00 1.241739e+00 -3.797541e-01 -1.155415e+00 -5.019919e-01 1.704903e-01 7.376143e-02 -7.515057e-02 -3.837924e-02 1.345014e-02 2.563332e-02 1.301913e-03 -7.991267e-02 6.078807e-02 2.841440e-01 1.355521e-01 -8.468579e-02 -1.602876e-01 -1.319319e-01 5.135605e-02 7.671478e-02
<VARIANCE> 39
 5.828820e+00 3.638737e+01 6.958903e+01 5.591047e+01 2.925266e+01 7.128702e+01 5.933624e+01 2.528869e+01 4.596196e+01 3.330700e+01 1.679809e+01 3.010960e+01 3.142410e+01 3.502856e-01 2.655612e-01 6.643007e-01 8.431691e-01 7.313129e-01 9.725997e-01 3.240969e+00 1.620051e+00 7.109544e-01 2.093119e+00 9.604652e-01 7.542125e-01 7.705924e-01 5.048671e-02 3.491337e-02 9.678838e-02 8.623251e-02 9.354584e-02 8.421338e-02 2.119702e-01 1.813602e-01 7.599629e-02 1.572560e-01 1.238842e-01 7.403880e-02 9.335652e-02
<GCONST> 8.472274e+01
<MIXTURE> 2 5.000000e-01
<MEAN> 39
 2.173911e+01 7.701638e+00 -5.941673e+00 2.678791e-01 6.743336e+00 -5.605407e+00 -2.218235e+01 4.341665e-01 8.720337e+00 1.140185e+00 -7.281711e-01 -1.043760e+01 -8.648412e+00 1.799453e-01 2.259695e-01 -4.475414e-01 -9.848778e-01 -8.021683e-02 1.438625e+00 1.241739e+00 -3.797541e-01 -1.155415e+00 -5.019919e-01 1.704903e-01 7.376143e-02 -7.515057e-02 -3.837924e-02 1.345014e-02 2.563332e-02 1.301913e-03 -7.991267e-02 6.078807e-02 2.841440e-01 1.355521e-01 -8.468579e-02 -1.602876e-01 -1.319319e-01 5.135605e-02 7.671478e-02
<VARIANCE> 39
 5.828820e+00 3.638737e+01 6.958903e+01 5.591047e+01 2.925266e+01 7.128702e+01 5.933624e+01 2.528869e+01 4.596196e+01 3.330700e+01 1.679809e+01 3.010960e+01 3.142410e+01 3.502856e-01 2.655612e-01 6.643007e-01 8.431691e-01 7.313129e-01 9.725997e-01 3.240969e+00 1.620051e+00 7.109544e-01 2.093119e+00 9.604652e-01 7.542125e-01 7.705924e-01 5.048671e-02 3.491337e-02 9.678838e-02 8.623251e-02 9.354584e-02 8.421338e-02 2.119702e-01 1.813602e-01 7.599629e-02 1.572560e-01 1.238842e-01 7.403880e-02 9.335652e-02
<GCONST> 8.472274e+01
<STATE> 3
<NUMMIXES> 2
<MIXTURE> 1 5.000000e-01
<MEAN> 39
 2.142846e+01 6.255991e+00 -9.869228e+00 -3.989036e+00 7.037913e+00 6.711370e+00 -3.914933e+00 5.105761e+00 -3.979147e+00 -1.157135e+01 -4.264194e+00 -5.785405e+00 -2.275025e+00 -3.350900e-01 -7.886992e-01 5.963234e-01 1.635089e+00 1.340892e-01 -7.178369e-01 4.398815e-01 1.259570e+00 -1.465201e-01 -1.036337e+00 -4.907716e-01 5.164835e-02 4.539731e-01 5.053318e-02 -4.267183e-01 -3.680885e-03 3.152338e-01 1.147479e-01 -5.322663e-01 -7.017687e-01 1.100147e-01 1.804787e-01 3.834778e-02 3.960330e-01 1.186243e-02 -1.259002e-01
<VARIANCE> 39
 9.329319e+00 4.701479e+01 3.863674e+01 4.660166e+01 6.356581e+01 3.347004e+01 8.752617e+01 3.466270e+01 2.764504e+01 2.539968e+01 4.723836e+01 1.855971e+01 1.436488e+01 6.731702e-01 2.026138e+00 1.714125e+00 1.732688e+00 1.665523e+00 2.699319e+00 6.990174e+00 1.945500e+00 1.683880e+00 1.872591e+00 2.749868e+00 1.335943e+00 1.854330e+00 1.304423e-01 1.586239e-01 2.773366e-01 2.969687e-01 2.119120e-01 1.482246e-01 5.712408e-01 3.317369e-01 2.384636e-01 2.593768e-01 3.991759e-01 1.802530e-01 1.839232e-01
<GCONST> 1.069047e+02
<MIXTURE> 2 5.000000e-01
<MEAN> 39
 2.142846e+01 6.255991e+00 -9.869228e+00 -3.989036e+00 7.037913e+00 6.711370e+00 -3.914933e+00 5.105761e+00 -3.979147e+00 -1.157135e+01 -4.264194e+00 -5.785405e+00 -2.275025e+00 -3.350900e-01 -7.886992e-01 5.963234e-01 1.635089e+00 1.340892e-01 -7.178369e-01 4.398815e-01 1.259570e+00 -1.465201e-01 -1.036337e+00 -4.907716e-01 5.164835e-02 4.539731e-01 5.053318e-02 -4.267183e-01 -3.680885e-03 3.152338e-01 1.147479e-01 -5.322663e-01 -7.017687e-01 1.100147e-01 1.804787e-01 3.834778e-02 3.960330e-01 1.186243e-02 -1.259002e-01
<VARIANCE> 39
 9.329319e+00 4.701479e+01 3.863674e+01 4.660166e+01 6.356581e+01 3.347004e+01 8.752617e+01 3.466270e+01 2.764504e+01 2.539968e+01 4.723836e+01 1.855971e+01 1.436488e+01 6.731702e-01 2.026138e+00 1.714125e+00 1.732688e+00 1.665523e+00 2.699319e+00 6.990174e+00 1.945500e+00 1.683880e+00 1.872591e+00 2.749868e+00 1.335943e+00 1.854330e+00 1.304423e-01 1.586239e-01 2.773366e-01 2.969687e-01 2.119120e-01 1.482246e-01 5.712408e-01 3.317369e-01 2.384636e-01 2.593768e-01 3.991759e-01 1.802530e-01 1.839232e-01
<GCONST> 1.069047e+02
<STATE> 4
<NUMMIXES> 2
<MIXTURE> 1 5.000000e-01
<MEAN> 39
 1.554364e+01 -3.070498e-01 -3.373805e+00 9.207220e+00 7.040249e+00 -2.426374e+00 -6.141041e+00 1.459328e+01 -2.157916e+00 -1.537969e+01 -3.198195e+00 -6.323304e+00 -4.636032e-01 -1.140860e+00 -7.279203e-01 6.287465e-01 8.444950e-01 7.475003e-02 -8.306643e-01 -6.806731e-01 4.160591e-01 4.827329e-02 -4.604876e-02 9.122672e-01 4.522040e-01 8.831618e-02 -1.267330e-01 1.875493e-01 -1.072558e-04 -3.123433e-01 -1.571535e-01 1.862302e-01 2.345805e-01 -1.312311e-01 -4.838205e-03 1.478553e-01 -4.139251e-02 5.388267e-02 -4.731249e-03
<VARIANCE> 39
 8.989208e+01 3.187733e+01 6.497071e+01 2.850232e+01 2.852875e+01 4.599078e+01 6.469013e+01 3.687407e+01 2.088973e+01 3.676106e+01 4.419434e+01 2.023080e+01 2.061303e+01 2.906449e+00 4.349620e+00 1.459599e+00 1.902506e+00 1.355744e+00 5.201787e+00 3.471721e+00 4.496482e+00 2.197107e+00 3.438552e+00 3.212095e+00 1.003242e+00 1.484004e+00 2.214335e-01 3.376670e-01 1.991225e-01 1.379477e-01 1.292217e-01 4.842580e-01 4.690537e-01 3.738139e-01 2.960240e-01 5.052018e-01 3.705225e-01 2.014055e-01 2.358597e-01
<GCONST> 1.137899e+02
<MIXTURE> 2 5.000000e-01
<MEAN> 39
 1.554364e+01 -3.070498e-01 -3.373805e+00 9.207220e+00 7.040249e+00 -2.426374e+00 -6.141041e+00 1.459328e+01 -2.157916e+00 -1.537969e+01 -3.198195e+00 -6.323304e+00 -4.636032e-01 -1.140860e+00 -7.279203e-01 6.287465e-01 8.444950e-01 7.475003e-02 -8.306643e-01 -6.806731e-01 4.160591e-01 4.827329e-02 -4.604876e-02 9.122672e-01 4.522040e-01 8.831618e-02 -1.267330e-01 1.875493e-01 -1.072558e-04 -3.123433e-01 -1.571535e-01 1.862302e-01 2.345805e-01 -1.312311e-01 -4.838205e-03 1.478553e-01 -4.139251e-02 5.388267e-02 -4.731249e-03
<VARIANCE> 39
 8.989208e+01 3.187733e+01 6.497071e+01 2.850232e+01 2.852875e+01 4.599078e+01 6.469013e+01 3.687407e+01 2.088973e+01 3.676106e+01 4.419434e+01 2.023080e+01 2.061303e+01 2.906449e+00 4.349620e+00 1.459599e+00 1.902506e+00 1.355744e+00 5.201787e+00 3.471721e+00 4.496482e+00 2.197107e+00 3.438552e+00 3.212095e+00 1.003242e+00 1.484004e+00 2.214335e-01 3.376670e-01 1.991225e-01 1.379477e-01 1.292217e-01 4.842580e-01 4.690537e-01 3.738139e-01 2.960240e-01 5.052018e-01 3.705225e-01 2.014055e-01 2.358597e-01
<GCONST> 1.137899e+02
<TRANSP> 5
 0.000000e+00 1.000000e+00 0.000000e+00 0.000000e+00 0.000000e+00
 0.000000e+00 8.999474e-01 1.000526e-01 0.000000e+00 0.000000e+00
 0.000000e+00 0.000000e+00 8.491380e-01 1.508620e-01 0.000000e+00
 0.000000e+00 0.000000e+00 0.000000e+00 7.250245e-01 2.749755e-01
 0.000000e+00 0.000000e+00 0.000000e+00 0.000000e+00 0.000000e+00
<ENDHMM>
~h "khq"
<BEGINHMM>
<NUMSTATES> 5
<STATE> 2
<NUMMIXES> 2
<MIXTURE> 1 5.000000e-01
<MEAN> 39
 5.098849e+00 -6.514025e+00 2.430083e+00 1.092778e+01 1.083864e+01 1.500667e+00 -1.140838e+01 9.359310e+00 -3.377835e+00 -1.113024e+01 6.044074e+00 -4.088247e-01 -3.646332e+00 -1.380477e-02 1.475701e-03 -1.072459e-03 -5.524765e-03 -3.099398e-03 2.005852e-03 8.190720e-04 -5.087083e-03 2.488556e-03 5.650900e-03 -1.806995e-03 5.936168e-04 1.443354e-03 -1.213556e-03 -1.404243e-04 -1.926630e-04 -5.029775e-04 -4.298560e-04 2.249404e-04 5.535607e-04 -2.933974e-04 7.204357e-05 8.173331e-04 -1.603794e-04 -1.434907e-04 3.551734e-04
<VARIANCE> 39
 2.696502e+02 1.642264e+02 1.776205e+02 1.699619e+02 1.712323e+02 1.501611e+02 1.653076e+02 1.112998e+02 8.102897e+01 1.132308e+02 1.038732e+02 3.576029e+01 7.139818e+01 2.864393e+00 3.049235e+00 2.950589e+00 2.442850e+00 2.488132e+00 2.882445e+00 3.574063e+00 2.837703e+00 2.254665e+00 3.083899e+00 2.848865e+00 1.410452e+00 1.706605e+00 2.059384e-01 2.861855e-01 3.165202e-01 2.798763e-01 2.958655e-01 3.292713e-01 4.082396e-01 3.875320e-01 3.475762e-01 4.161765e-01 3.917231e-01 2.236369e-01 2.362328e-01
<GCONST> 1.313330e+02
<MIXTURE> 2 5.000000e-01
<MEAN> 39
 5.098849e+00 -6.514025e+00 2.430083e+00 1.092778e+01 1.083864e+01 1.500667e+00 -1.140838e+01 9.359310e+00 -3.377835e+00 -1.113024e+01 6.044074e+00 -4.088247e-01 -3.646332e+00 -1.380477e-02 1.475701e-03 -1.072459e-03 -5.524765e-03 -3.099398e-03 2.005852e-03 8.190720e-04 -5.087083e-03 2.488556e-03 5.650900e-03 -1.806995e-03 5.936168e-04 1.443354e-03 -1.213556e-03 -1.404243e-04 -1.926630e-04 -5.029775e-04 -4.298560e-04 2.249404e-04 5.535607e-04 -2.933974e-04 7.204357e-05 8.173331e-04 -1.603794e-04 -1.434907e-04 3.551734e-04
<VARIANCE> 39
 2.696502e+02 1.642264e+02 1.776205e+02 1.699619e+02 1.712323e+02 1.501611e+02 1.653076e+02 1.112998e+02 8.102897e+01 1.132308e+02 1.038732e+02 3.576029e+01 7.139818e+01 2.864393e+00 3.049235e+00 2.950589e+00 2.442850e+00 2.488132e+00 2.882445e+00 3.574063e+00 2.837703e+00 2.254665e+00 3.083899e+00 2.848865e+00 1.410452e+00 1.706605e+00 2.059384e-01 2.861855e-01 3.165202e-01 2.798763e-01 2.958655e-01 3.292713e-01 4.082396e-01 3.875320e-01 3.475762e-01 4.161765e-01 3.917231e-01 2.236369e-01 2.362328e-01
<GCONST> 1.313330e+02
<STATE> 3
<NUMMIXES> 2
<MIXTURE> 1 5.000000e-01
<MEAN> 39
 5.098849e+00 -6.514025e+00 2.430083e+00 1.092778e+01 1.083864e+01 1.500667e+00 -1.140838e+01 9.359310e+00 -3.377835e+00 -1.113024e+01 6.044074e+00 -4.088247e-01 -3.646332e+00 -1.380477e-02 1.475701e-03 -1.072459e-03 -5.524765e-03 -3.099398e-03 2.005852e-03 8.190720e-04 -5.087083e-03 2.488556e-03 5.650900e-03 -1.806995e-03 5.936168e-04 1.443354e-03 -1.213556e-03 -1.404243e-04 -1.926630e-04 -5.029775e-04 -4.298560e-04 2.249404e-04 5.535607e-04 -2.933974e-04 7.204357e-05 8.173331e-04 -1.603794e-04 -1.434907e-04 3.551734e-04
<VARIANCE> 39
 2.696502e+02 1.642264e+02 1.776205e+02 1.699619e+02 1.712323e+02 1.501611e+02 1.653076e+02 1.112998e+02 8.102897e+01 1.132308e+02 1.038732e+02 3.576029e+01 7.139818e+01 2.864393e+00 3.049235e+00 2.950589e+00 2.442850e+00 2.488132e+00 2.882445e+00 3.574063e+00 2.837703e+00 2.254665e+00 3.083899e+00 2.848865e+00 1.410452e+00 1.706605e+00 2.059384e-01 2.861855e-01 3.165202e-01 2.798763e-01 2.958655e-01 3.292713e-01 4.082396e-01 3.875320e-01 3.475762e-01 4.161765e-01 3.917231e-01 2.236369e-01 2.362328e-01
<GCONST> 1.313330e+02
<MIXTURE> 2 5.000000e-01
<MEAN> 39
 5.098849e+00 -6.514025e+00 2.430083e+00 1.092778e+01 1.083864e+01 1.500667e+00 -1.140838e+01 9.359310e+00 -3.377835e+00 -1.113024e+01 6.044074e+00 -4.088247e-01 -3.646332e+00 -1.380477e-02 1.475701e-03 -1.072459e-03 -5.524765e-03 -3.099398e-03 2.005852e-03 8.190720e-04 -5.087083e-03 2.488556e-03 5.650900e-03 -1.806995e-03 5.936168e-04 1.443354e-03 -1.213556e-03 -1.404243e-04 -1.926630e-04 -5.029775e-04 -4.298560e-04 2.249404e-04 5.535607e-04 -2.933974e-04 7.204357e-05 8.173331e-04 -1.603794e-04 -1.434907e-04 3.551734e-04
<VARIANCE> 39
 2.696502e+02 1.642264e+02 1.776205e+02 1.699619e+02 1.712323e+02 1.501611e+02 1.653076e+02 1.112998e+02 8.102897e+01 1.132308e+02 1.038732e+02 3.576029e+01 7.139818e+01 2.864393e+00 3.049235e+00 2.950589e+00 2.442850e+00 2.488132e+00 2.882445e+00 3.574063e+00 2.837703e+00 2.254665e+00 3.083899e+00 2.848865e+00 1.410452e+00 1.706605e+00 2.059384e-01 2.861855e-01 3.165202e-01 2.798763e-01 2.958655e-01 3.292713e-01 4.082396e-01 3.875320e-01 3.475762e-01 4.161765e-01 3.917231e-01 2.236369e-01 2.362328e-01
<GCONST> 1.313330e+02
<STATE> 4
<NUMMIXES> 2
<MIXTURE> 1 5.000000e-01
<MEAN> 39
 5.098849e+00 -6.514025e+00 2.430083e+00 1.092778e+01 1.083864e+01 1.500667e+00 -1.140838e+01 9.359310e+00 -3.377835e+00 -1.113024e+01 6.044074e+00 -4.088247e-01 -3.646332e+00 -1.380477e-02 1.475701e-03 -1.072459e-03 -5.524765e-03 -3.099398e-03 2.005852e-03 8.190720e-04 -5.087083e-03 2.488556e-03 5.650900e-03 -1.806995e-03 5.936168e-04 1.443354e-03 -1.213556e-03 -1.404243e-04 -1.926630e-04 -5.029775e-04 -4.298560e-04 2.249404e-04 5.535607e-04 -2.933974e-04 7.204357e-05 8.173331e-04 -1.603794e-04 -1.434907e-04 3.551734e-04
<VARIANCE> 39
 2.696502e+02 1.642264e+02 1.776205e+02 1.699619e+02 1.712323e+02 1.501611e+02 1.653076e+02 1.112998e+02 8.102897e+01 1.132308e+02 1.038732e+02 3.576029e+01 7.139818e+01 2.864393e+00 3.049235e+00 2.950589e+00 2.442850e+00 2.488132e+00 2.882445e+00 3.574063e+00 2.837703e+00 2.254665e+00 3.083899e+00 2.848865e+00 1.410452e+00 1.706605e+00 2.059384e-01 2.861855e-01 3.165202e-01 2.798763e-01 2.958655e-01 3.292713e-01 4.082396e-01 3.875320e-01 3.475762e-01 4.161765e-01 3.917231e-01 2.236369e-01 2.362328e-01
<GCONST> 1.313330e+02
<MIXTURE> 2 5.000000e-01
<MEAN> 39
 5.098849e+00 -6.514025e+00 2.430083e+00 1.092778e+01 1.083864e+01 1.500667e+00 -1.140838e+01 9.359310e+00 -3.377835e+00 -1.113024e+01 6.044074e+00 -4.088247e-01 -3.646332e+00 -1.380477e-02 1.475701e-03 -1.072459e-03 -5.524765e-03 -3.099398e-03 2.005852e-03 8.190720e-04 -5.087083e-03 2.488556e-03 5.650900e-03 -1.806995e-03 5.936168e-04 1.443354e-03 -1.213556e-03 -1.404243e-04 -1.926630e-04 -5.029775e-04 -4.298560e-04 2.249404e-04 5.535607e-04 -2.933974e-04 7.204357e-05 8.173331e-04 -1.603794e-04 -1.434907e-04 3.551734e-04
<VARIANCE> 39
 2.696502e+02 1.642264e+02 1.776205e+02 1.699619e+02 1.712323e+02 1.501611e+02 1.653076e+02 1.112998e+02 8.102897e+01 1.132308e+02 1.038732e+02 3.576029e+01 7.139818e+01 2.864393e+00 3.049235e+00 2.950589e+00 2.442850e+00 2.488132e+00 2.882445e+00 3.574063e+00 2.837703e+00 2.254665e+00 3.083899e+00 2.848865e+00 1.410452e+00 1.706605e+00 2.059384e-01 2.861855e-01 3.165202e-01 2.798763e-01 2.958655e-01 3.292713e-01 4.082396e-01 3.875320e-01 3.475762e-01 4.161765e-01 3.917231e-01 2.236369e-01 2.362328e-01
<GCONST> 1.313330e+02
<TRANSP> 5
 0.000000e+00 1.000000e+00 0.000000e+00 0.000000e+00 0.000000e+00
 0.000000e+00 6.000000e-01 4.000000e-01 0.000000e+00 0.000000e+00
 0.000000e+00 0.000000e+00 6.000000e-01 4.000000e-01 0.000000e+00
 0.000000e+00 0.000000e+00 0.000000e+00 6.000000e-01 4.000000e-01
 0.000000e+00 0.000000e+00 0.000000e+00 0.000000e+00 0.000000e+00
<ENDHMM>
~h "txh"
<BEGINHMM>
<NUMSTATES> 5
<STATE> 2
<NUMMIXES> 2
<MIXTURE> 1 6.518478e-01
<MEAN> 39
 6.982259e+00 3.542967e+00 -5.529063e+00 6.105442e+00 1.592007e+01 1.249830e+01 -4.084882e+00 2.269221e+00 -3.590604e+00 -2.970988e+00 8.213582e+00 7.177523e+00 4.221036e+00 -2.905140e+00 3.775336e-01 1.606272e+00 6.711196e-01 -8.969595e-01 5.331975e-01 1.774379e+00 6.545422e-02 4.705572e-01 1.115517e+00 -8.965614e-01 -1.094282e-01 1.082223e+00 -1.628080e-01 -4.986773e-01 -1.553368e-02 -6.673441e-02 -1.794216e-01 -2.071576e-01 -2.148156e-01 2.249199e-01 1.138380e-01 -1.707016e-01 1.037574e-02 -1.674714e-01 2.531995e-02
<VARIANCE> 39
 1.014922e+02 1.839910e+01 5.797544e+01 3.557262e+01 1.961023e+01 3.649736e+01 7.023493e+01 4.910962e+01 3.441898e+01 4.246680e+01 3.130522e+01 1.216669e+01 1.791802e+01 1.365855e+00 2.914801e+00 2.291143e+00 1.235624e+00 2.032440e+00 2.441936e+00 1.624086e+00 1.817524e+00 1.871514e+00 2.043066e+00 1.734982e+00 9.214326e-01 1.495673e+00 1.393944e-01 5.297934e-01 2.968031e-01 1.422340e-01 2.823549e-01 3.961620e-01 2.642686e-01 3.179418e-01 3.759512e-01 3.035226e-01 2.988962e-01 1.985631e-01 2.329906e-01
<GCONST> 1.081060e+02
<MIXTURE> 2 3.481520e-01
<MEAN> 39
 -2.650094e+01 -6.229178e+00 -4.923599e+00 -2.845139e+00 -3.383899e+00 1.034099e+00 -3.473472e+00 1.298124e+00 -1.309330e+00 -3.603753e-01 7.052242e-01 -1.138496e+00 2.495480e-01 1.654534e-01 2.123067e-02 1.893167e-01 3.991868e-01 3.594567e-01 1.104441e-01 -7.350013e-02 4.904857e-02 3.507997e-02 -6.038534e-02 -4.981148e-02 5.633426e-02 2.362217e-01 1.942472e-01 1.171456e-02 1.059547e-01 3.194008e-01 3.318008e-01 2.041028e-01 1.834449e-01 2.502725e-01 1.900705e-01 9.773695e-02 6.073193e-02 1.069431e-01 1.474639e-01
<VARIANCE> 39
 6.178824e-01 1.640707e+00 2.884955e+00 3.066397e+00 2.474537e+00 4.180031e+00 6.040285e+00 6.153128e+00 8.693906e+00 1.042200e+01 6.669195e+00 6.457404e+00 3.678535e+00 3.479303e-01 4.025200e-01 4.400815e-01 1.133275e+00 1.293986e+00 1.155731e+00 1.293524e+00 1.677808e+00 1.785166e+00 1.307639e+00 1.090150e+00 1.220705e+00 1.036246e+00 8.780663e-02 6.200148e-02 6.970206e-02 1.811430e-01 2.383113e-01 2.869844e-01 2.733676e-01 3.888977e-01 4.007326e-01 2.982642e-01 2.126584e-01 1.978460e-01 2.019123e-01
<GCONST> 6.767783e+01
<STATE> 3
<NUMMIXES> 2
<MIXTURE> 1 6.520692e-01
<MEAN> 39
 -1.267291e+01 -6.843344e+00 3.822827e-01 1.029993e+01 8.761939e+00 1.111876e+01 2.565176e+00 8.220276e+00 3.563389e+00 9.971184e-01 1.408069e+00 2.041815e+00 9.516157e+00 8.602303e-01 -3.039314e+00 5.651230e-01 1.091443e+00 -5.554542e-01 3.265491e-01 7.875737e-02 1.042475e+00 1.267161e+00 6.110011e-01 2.394941e-01 -1.062556e+00 1.097474e-02 7.629194e-01 -5.233836e-01 -1.551934e-02 -3.515424e-01 -3.882503e-01 -6.038315e-02 -3.900424e-01 -2.258339e-01 -5.178033e-01 -2.979584e-01 7.113669e-01 1.435597e-01 -7.479064e-01
<VARIANCE> 39
 5.356273e+01 3.607652e+01 1.660933e+01 2.170128e+01 2.203500e+01 2.629526e+01 1.897959e+01 2.956715e+01 3.307824e+01 1.743719e+01 1.888864e+01 2.024870e+01 2.459288e+01 7.002226e+00 4.244181e+00 1.743294e+00 3.079730e+00 5.954854e+00 3.655733e+00 2.836633e+00 3.560831e+00 3.105150e+00 2.309171e+00 3.738813e+00 2.658254e+00 4.944751e+00 3.403356e-01 2.678846e-01 2.941467e-01 3.710390e-01 6.734368e-01 6.144410e-01 3.892966e-01 6.267991e-01 8.567546e-01 4.403571e-01 6.175711e-01 7.095709e-01 6.841747e-01
<GCONST> 1.205774e+02
<MIXTURE> 2 3.479309e-01
<MEAN> 39
 -4.312557e+00 -2.224470e+01 5.763448e+00 1.095390e+01 1.925400e+00 1.304852e+01 -7.137910e-01 6.976057e+00 1.932631e+00 -1.186363e-01 7.935758e+00 -1.724262e-01 2.401143e+00 2.046019e+00 -5.082520e+00 2.338409e+00 -2.783810e-01 -1.462579e+00 1.648020e+00 -9.365540e-01 -4.422659e-01 -3.373942e+00 -2.287681e+00 4.081802e+00 1.703432e+00 -2.125592e+00 -3.352967e-01 1.783239e-01 4.519280e-01 2.671969e-02 5.215445e-01 8.212597e-01 1.470014e-01 -7.453555e-03 -7.185647e-01 -3.916878e-01 3.554620e-01 5.263376e-01 7.298884e-01
<VARIANCE> 39
 1.046926e+01 3.596394e+01 2.396555e+01 1.741939e+01 1.695145e+01 2.742889e+01 2.075386e+01 3.227815e+01 3.984393e+01 3.412055e+01 3.166815e+01 3.616525e+01 1.961877e+01 1.111394e+00 8.971108e-01 2.309984e+00 1.130292e+00 1.403261e+00 3.391085e+00 1.415822e+00 3.248754e+00 2.917079e+00 2.902019e+00 2.075160e+00 2.232049e+00 2.588785e+00 3.658839e-01 3.938402e-01 2.838355e-01 1.431669e-01 1.734698e-01 3.560983e-01 2.664328e-01 5.112669e-01 1.024736e+00 6.890231e-01 4.760823e-01 5.943385e-01 3.837216e-01
<GCONST> 1.097025e+02
<STATE> 4
<NUMMIXES> 2
<MIXTURE> 1 3.935842e-01
<MEAN> 39
 -6.883069e+00 -1.460434e+01 -3.860787e+00 8.437547e+00 8.443198e+00 1.727307e+01 8.817594e+00 9.570230e+00 -2.737307e+00 -1.112786e+00 1.269724e+01 1.033645e+01 9.379435e+00 -1.121820e+00 2.309708e+00 -7.978434e-01 -5.282865e-01 -1.771258e-01 -1.501041e+00 -1.160122e-01 -4.466002e-02 6.736431e-01 2.482383e-01 -1.378571e+00 -1.334465e-01 3.865342e-01 -8.609411e-02 -3.474963e-01 3.082720e-01 -1.170083e-01 -2.223956e-01 4.236011e-03 -2.231576e-01 5.461112e-02 -1.050520e-01 -1.644876e-01 6.951039e-02 -9.417123e-02 -1.491577e-01
<VARIANCE> 39
 7.627087e+01 9.135760e+01 5.603539e+01 4.403306e+01 4.250273e+01 6.932185e+01 3.484892e+01 4.430806e+01 3.941217e+01 6.808569e+01 8.350636e+01 2.573151e+01 2.063081e+01 1.604734e+00 3.573202e+00 3.091389e+00 1.890026e+00 2.985305e+00 2.389645e+00 1.892436e+00 1.923820e+00 3.098219e+00 2.796702e+00 2.135715e+00 1.909812e+00 2.309046e+00 1.709067e-01 2.612893e-01 2.667826e-01 1.797678e-01 2.883952e-01 4.430008e-01 2.485457e-01 3.139568e-01 4.082031e-01 4.406048e-01 3.502675e-01 2.565431e-01 2.656132e-01
<GCONST> 1.172273e+02
<MIXTURE> 2 6.064153e-01
<MEAN> 39
 -4.442624e+00 -3.633765e+01 1.192673e+01 1.110928e+01 3.162622e+00 2.403873e+01 -4.453911e-01 5.587304e+00 -7.380274e+00 -3.978662e+00 1.898432e+01 4.417330e+00 2.598023e+00 -9.801113e-02 1.242612e-01 -7.163168e-01 3.818220e-01 9.098187e-01 7.367927e-01 7.845281e-01 -2.189737e-02 -1.533006e-01 4.344725e-01 7.610137e-01 5.530310e-01 4.745438e-01 -1.136072e-01 1.023624e+00 -6.004602e-01 1.032416e-01 2.347731e-01 -5.298621e-01 1.859471e-01 1.060342e-02 5.682551e-01 3.543311e-01 -6.931661e-01 -1.796466e-01 1.432989e-01
<VARIANCE> 39
 2.730946e+01 4.320811e+01 7.739214e+01 4.450463e+01 3.525503e+01 5.603433e+01 4.041706e+01 6.299757e+01 3.726689e+01 4.938236e+01 5.827404e+01 4.981437e+01 2.845601e+01 1.472843e+00 7.268438e+00 7.638123e+00 1.696035e+00 2.085399e+00 4.977999e+00 2.378396e+00 2.501390e+00 4.292618e+00 3.503993e+00 4.435408e+00 2.149893e+00 1.233119e+00 3.143981e-01 4.082354e-01 1.018114e+00 2.126086e-01 3.252943e-01 6.000513e-01 3.983888e-01 4.956252e-01 7.930826e-01 7.990975e-01 4.456975e-01 3.991918e-01 3.334858e-01
<GCONST> 1.252761e+02
<TRANSP> 5
 0.000000e+00 1.000000e+00 0.000000e+00 0.000000e+00 0.000000e+00
 0.000000e+00 8.807232e-01 1.192768e-01 0.000000e+00 0.000000e+00
 0.000000e+00 0.000000e+00 8.503981e-01 1.496020e-01 0.000000e+00
 0.000000e+00 0.000000e+00 0.000000e+00 9.002894e-01 9.971061e-02
 0.000000e+00 0.000000e+00 0.000000e+00 0.000000e+00 0.000000e+00
<ENDHMM>
