~o
<STREAMINFO> 1 39
<VECSIZE> 39<NULLD><MFCC_D_A><DIAGC>
~h "a"
<BEGINHMM>
<NUMSTATES> 7
<STATE> 2
<NUMMIXES> 2
<MIXTURE> 1 5.410207e-01
<MEAN> 39
 1.113830e+01 -3.716788e+00 -4.975827e+00 4.218666e+00 -2.795915e-01 -7.199175e+00 -6.173701e+00 1.661127e+01 1.321044e+00 -1.068887e+01 3.787152e+00 1.780742e+00 2.111745e-01 1.934492e+00 -5.507697e-01 -1.524009e+00 6.172801e-02 2.567850e-01 -1.975393e+00 -1.205789e+00 1.306849e+00 -2.036392e-02 -1.360407e+00 6.515175e-01 2.414649e-01 -6.764663e-01 -2.576565e-01 -2.227367e-01 -1.728249e-02 -5.649744e-02 1.779914e-01 2.221444e-01 3.850766e-02 1.324240e-01 -7.345372e-02 -5.118104e-02 1.464441e-01 6.234576e-04 2.072363e-02
<VARIANCE> 39
 2.181849e+02 2.914399e+01 4.689177e+01 5.059874e+01 6.624982e+01 1.026763e+02 9.724626e+01 1.547896e+02 7.234494e+01 4.949862e+01 4.912299e+01 2.456878e+01 2.545952e+01 3.893035e+00 1.832999e+00 3.952260e+00 2.637487e+00 3.339290e+00 5.148805e+00 3.916085e+00 3.489199e+00 2.423908e+00 3.709015e+00 2.617460e+00 1.575904e+00 1.750167e+00 4.083817e-01 2.978346e-01 4.199671e-01 4.181636e-01 3.646698e-01 5.613133e-01 3.872989e-01 5.524705e-01 3.385384e-01 3.927779e-01 4.097656e-01 2.369990e-01 2.259776e-01
<GCONST> 1.262975e+02
<MIXTURE> 2 4.589796e-01
<MEAN> 39
 2.128728e+01 -1.101878e+01 -6.980551e+00 8.579404e+00 1.365937e+01 -2.730983e+00 -1.755691e+01 1.418311e+01 -1.133295e+01 -2.271602e+01 1.490541e+01 2.742416e+00 -3.484260e+00 1.295043e+00 -5.938783e-01 -2.154546e+00 -1.792013e-01 1.137384e+00 -2.437251e+00 -2.082733e+00 1.861453e+00 -7.335888e-01 -2.033825e+00 1.960201e+00 6.071395e-01 -7.084128e-01 -6.603940e-01 7.034603e-02 5.362282e-01 -3.420466e-01 -3.960073e-01 6.049334e-01 4.869783e-01 -3.170104e-01 3.523969e-01 7.243366e-01 -3.962375e-01 -1.089968e-01 3.914815e-01
<VARIANCE> 39
 8.257739e+00 1.528257e+01 3.473239e+01 3.267047e+01 3.840567e+01 4.003101e+01 3.736393e+01 5.199867e+01 4.007979e+01 2.883486e+01 5.473343e+01 1.649508e+01 2.367603e+01 1.224528e+00 1.828698e+00 2.346119e+00 1.685443e+00 1.325503e+00 1.992653e+00 2.561898e+00 2.123720e+00 1.509959e+00 2.427384e+00 2.302086e+00 1.035530e+00 1.178072e+00 1.651993e-01 2.289728e-01 3.988833e-01 3.964566e-01 2.007603e-01 2.089635e-01 2.967102e-01 3.987738e-01 2.028349e-01 3.297869e-01 3.694603e-01 1.682437e-01 1.549151e-01
<GCONST> 1.048869e+02
<STATE> 3
<NUMMIXES> 2
<MIXTURE> 1 5.114262e-01
<MEAN> 39
 2.251501e+01 -8.795702e+00 -1.191445e+01 4.689038e+00 5.564296e+00 -1.404237e+01 -1.366208e+01 2.310536e+01 -8.034692e-01 -2.002840e+01 8.270423e+00 3.579226e+00 -2.106706e+00 -7.384649e-02 -3.609933e-02 1.713576e-02 -5.456990e-02 1.427605e-01 -1.016090e-01 -2.827199e-01 -1.555389e-01 -1.162595e-01 -1.377713e-01 -9.475145e-03 7.167580e-02 9.294362e-02 -2.559150e-02 1.347214e-01 1.656940e-01 4.078281e-02 1.762533e-02 1.624253e-01 2.657589e-02 -5.273927e-02 -5.856990e-02 2.204994e-02 9.310017e-03 -9.966236e-02 -4.410638e-02
<VARIANCE> 39
 7.792088e+00 1.433518e+01 2.599609e+01 1.316643e+01 3.385680e+01 3.217137e+01 5.066534e+01 6.089386e+01 7.143335e+01 3.484725e+01 6.213231e+01 1.152094e+01 1.561225e+01 5.730062e-01 6.017886e-01 6.557900e-01 5.866551e-01 7.355568e-01 1.110789e+00 1.279011e+00 1.729521e+00 1.025542e+00 9.536847e-01 1.936271e+00 5.304540e-01 4.351790e-01 8.653532e-02 5.732892e-02 8.790109e-02 7.246499e-02 7.178208e-02 7.974815e-02 1.310315e-01 1.862247e-01 6.194907e-02 1.205481e-01 1.583043e-01 7.525243e-02 5.496418e-02
<GCONST> 8.067511e+01
<MIXTURE> 2 4.885740e-01
<MEAN> 39
 1.995088e+01 -7.627453e+00 -4.574442e+00 5.436263e+00 7.113015e+00 -5.511619e+00 -1.272941e+01 2.067369e+01 -5.640691e+00 -1.814051e+01 1.694367e+01 2.625096e+00 -2.825930e+00 1.703528e-01 -2.054101e-01 -3.405544e-01 -2.271708e-01 1.325765e-01 -3.723499e-01 -3.699903e-01 3.831561e-01 -1.383660e-01 -3.340568e-01 2.823151e-01 -5.141960e-02 -8.900727e-02 -6.601429e-02 3.337305e-02 5.398420e-02 5.038533e-02 -5.912864e-03 1.007085e-01 1.024785e-01 -1.418923e-01 2.282355e-02 9.240305e-02 -1.581596e-01 -1.178853e-02 4.115412e-02
<VARIANCE> 39
 1.247782e+01 2.150581e+01 3.792601e+01 3.422656e+01 5.873307e+01 5.256841e+01 1.118578e+02 7.247727e+01 5.075441e+01 7.011442e+01 6.934063e+01 2.033065e+01 2.285548e+01 4.785158e-01 7.360104e-01 1.147730e+00 1.134495e+00 1.226616e+00 1.553811e+00 2.648509e+00 2.210905e+00 1.421130e+00 1.983562e+00 2.172617e+00 1.070352e+00 8.675344e-01 1.139503e-01 1.261365e-01 1.725986e-01 1.942170e-01 1.862537e-01 2.557148e-01 3.795838e-01 4.345616e-01 2.150395e-01 3.651375e-01 3.839387e-01 1.960919e-01 1.496090e-01
<GCONST> 1.038872e+02
<STATE> 4
<NUMMIXES> 2
<MIXTURE> 1 1.296297e-01
<MEAN> 39
 -1.482362e+00 -1.173508e+01 9.676315e+00 6.159884e+00 3.643625e+00 6.859818e+00 -5.009905e+00 9.239537e+00 -5.751452e+00 -9.454720e+00 5.042752e+00 -6.089553e-02 9.133165e-01 -3.938251e-02 5.931750e-02 -3.142766e-01 2.162202e-01 3.106278e-01 -2.877026e-01 -1.331858e-01 1.457472e-01 -5.768439e-02 -2.565815e-01 -2.633508e-02 1.445997e-02 -1.554866e-01 4.390104e-03 1.581710e-03 4.168795e-02 -7.653642e-02 5.856343e-03 9.231088e-03 -1.053952e-01 1.942854e-02 4.508464e-02 5.623859e-02 6.933738e-02 -3.482619e-02 -3.993683e-02
<VARIANCE> 39
 2.547908e+02 1.831705e+02 3.569020e+02 3.160356e+02 1.410894e+02 2.278969e+02 9.827465e+01 1.015819e+02 1.187123e+02 8.081730e+01 6.261728e+01 3.194826e+01 3.764601e+01 5.252454e+00 4.241648e+00 5.768712e+00 4.778588e+00 3.695452e+00 5.018022e+00 3.965691e+00 3.917523e+00 3.568500e+00 4.507335e+00 3.010737e+00 1.442961e+00 1.535189e+00 4.140692e-01 4.380552e-01 4.641524e-01 5.219679e-01 4.525013e-01 5.766189e-01 5.379249e-01 6.620569e-01 5.429432e-01 6.713607e-01 4.998317e-01 2.639142e-01 2.459355e-01
<GCONST> 1.408672e+02
<MIXTURE> 2 8.703702e-01
<MEAN> 39
 2.294409e+01 -1.033896e+01 -9.682030e+00 5.045098e+00 1.234228e+01 -8.893776e+00 -2.012808e+01 2.208334e+01 -9.491683e+00 -2.495186e+01 1.776132e+01 2.117952e+00 -4.074525e+00 8.859772e-03 4.045931e-01 4.951377e-02 8.880479e-02 2.956990e-01 3.505693e-01 -3.651951e-03 -4.755761e-01 -1.428005e-01 7.742408e-02 -2.937981e-01 -1.171595e-01 2.435219e-03 -3.046771e-01 3.481791e-01 2.222314e-01 1.448855e-01 -1.600217e-01 3.329217e-01 5.743539e-01 -6.604707e-01 2.714958e-01 5.513840e-01 -7.240559e-01 3.047549e-02 1.613216e-01
<VARIANCE> 39
 5.807242e+00 1.669526e+01 2.883704e+01 2.064182e+01 4.768016e+01 4.608342e+01 5.145034e+01 5.171794e+01 8.443732e+01 3.147513e+01 8.913545e+01 1.785783e+01 2.476204e+01 5.284238e-01 6.432673e-01 8.457541e-01 9.851136e-01 9.086677e-01 1.527171e+00 1.939794e+00 2.497427e+00 1.228135e+00 1.363503e+00 2.528317e+00 8.711680e-01 8.163806e-01 7.472511e-02 6.788566e-02 1.577903e-01 1.097092e-01 1.131724e-01 1.479980e-01 1.872407e-01 2.041993e-01 1.372555e-01 1.613194e-01 2.005015e-01 1.388259e-01 1.053340e-01
<GCONST> 9.209909e+01
<STATE> 5
<NUMMIXES> 2
<MIXTURE> 1 6.027908e-01
<MEAN> 39
 2.146944e+01 -1.095677e+01 -1.232251e+01 4.930838e+00 1.653389e+01 -5.587508e+00 -2.242954e+01 1.230114e+01 -1.068250e+01 -2.063721e+01 1.712239e+01 5.513484e+00 -3.413565e-01 3.401589e-02 3.661844e-01 -2.750929e-01 -4.818889e-02 1.884551e-01 4.398335e-01 2.459292e-01 -6.536810e-01 2.477117e-01 4.547258e-01 -6.048124e-01 3.172307e-02 2.062543e-01 -1.556238e-02 9.873960e-02 8.524040e-02 1.320561e-01 4.561697e-02 1.330221e-01 1.297246e-01 6.459309e-03 -8.141593e-03 -2.335654e-02 -1.169590e-01 -9.683979e-02 -8.664709e-02
<VARIANCE> 39
 8.448204e+00 1.241915e+01 2.587809e+01 2.122287e+01 2.151370e+01 1.596405e+01 3.100580e+01 3.922211e+01 3.518767e+01 3.321357e+01 6.493054e+01 1.557102e+01 2.737856e+01 5.695333e-01 3.756178e-01 6.557328e-01 7.808630e-01 8.118063e-01 8.627349e-01 1.468823e+00 2.473362e+00 8.434318e-01 1.291811e+00 2.236471e+00 7.827377e-01 7.498294e-01 9.693811e-02 5.278587e-02 9.740996e-02 8.848952e-02 8.990151e-02 8.179250e-02 2.238692e-01 2.824919e-01 9.096487e-02 1.703262e-01 2.351724e-01 1.011066e-01 7.939465e-02
<GCONST> 8.381172e+01
<MIXTURE> 2 3.972093e-01
<MEAN> 39
 2.148521e+01 -6.007875e+00 -9.772166e+00 7.401738e+00 1.060850e+01 -8.391199e+00 -1.435500e+01 1.778001e+01 -5.162735e+00 -2.119956e+01 7.657738e+00 2.884173e+00 -2.795226e+00 -1.153932e+00 1.779988e+00 1.229303e+00 9.072788e-01 5.200118e-02 1.481380e+00 1.874334e+00 -1.744875e+00 8.071921e-01 1.584433e+00 -2.494204e+00 -4.215616e-01 2.306769e-01 -4.780613e-01 3.852300e-01 5.489556e-01 1.738471e-01 3.745393e-04 4.874518e-01 4.348627e-01 -3.159311e-01 2.336036e-01 5.519674e-01 -3.658100e-01 -1.843970e-01 1.702524e-01
<VARIANCE> 39
 1.873124e+01 1.904618e+01 4.236246e+01 3.890379e+01 7.007812e+01 9.208151e+01 4.671549e+01 8.411920e+01 1.083009e+02 3.178110e+01 9.034020e+01 2.054228e+01 2.371177e+01 8.891748e-01 7.757910e-01 1.612721e+00 1.015820e+00 1.354278e+00 2.000730e+00 2.517740e+00 2.743657e+00 1.414737e+00 1.863995e+00 2.236235e+00 1.148775e+00 1.140702e+00 1.013623e-01 1.220580e-01 1.799532e-01 1.731950e-01 2.501272e-01 2.787797e-01 3.241129e-01 3.271059e-01 2.636167e-01 2.448808e-01 3.364059e-01 2.032154e-01 2.061265e-01
<GCONST> 1.061722e+02
<STATE> 6
<NUMMIXES> 2
<MIXTURE> 1 5.907938e-01
<MEAN> 39
 1.546489e+01 1.476147e+00 -3.725493e+00 1.017342e+01 1.131995e+01 -9.225658e-01 -6.813592e+00 1.128876e+01 -2.971647e+00 -1.437168e+01 1.151366e-01 1.340887e+00 -4.291363e-01 -2.056235e+00 2.593646e+00 2.386694e+00 1.088881e+00 2.893265e-01 2.156067e+00 1.891582e+00 -1.570804e+00 8.458991e-01 1.780949e+00 -2.384094e+00 -5.774919e-01 7.847103e-01 -3.274513e-02 -1.749924e-01 1.122817e-01 -3.111425e-02 2.858708e-02 -1.053633e-01 -3.108524e-01 1.747896e-01 -3.390214e-01 -3.204925e-01 4.734476e-01 -1.157080e-02 -9.787839e-02
<VARIANCE> 39
 2.194068e+01 2.864453e+01 3.453036e+01 2.245166e+01 4.883144e+01 8.718225e+01 3.155482e+01 8.612608e+01 8.448469e+01 3.198666e+01 5.730728e+01 2.437647e+01 3.073391e+01 8.489959e-01 1.383850e+00 1.364037e+00 1.790034e+00 2.006895e+00 1.955888e+00 2.526636e+00 2.698085e+00 1.991655e+00 2.409773e+00 2.515285e+00 1.971745e+00 2.064927e+00 1.019522e-01 2.234773e-01 2.369208e-01 2.015765e-01 2.541764e-01 2.713125e-01 3.111143e-01 3.558875e-01 2.658974e-01 2.519012e-01 2.525734e-01 2.005414e-01 1.916444e-01
<GCONST> 1.088060e+02
<MIXTURE> 2 4.092059e-01
<MEAN> 39
 1.704519e+01 -6.224825e+00 -1.856313e+00 1.359651e+01 1.845946e+01 -2.054307e+00 -2.060162e+01 1.087446e+01 -6.807302e+00 -1.605933e+01 1.413166e+01 -1.023822e+00 -7.974206e+00 -2.775970e-01 4.660749e-01 5.212312e-01 6.706660e-01 1.039994e-01 4.090598e-01 4.439422e-01 -5.966238e-01 9.220624e-02 5.719415e-01 -3.397236e-01 -2.344072e-01 -1.394928e-01 -8.147398e-02 2.798885e-02 6.642216e-02 3.446259e-02 -8.080532e-02 6.757276e-02 1.977699e-01 -3.023466e-02 3.372239e-02 5.492852e-02 -1.518507e-01 2.539513e-02 7.505067e-02
<VARIANCE> 39
 3.883598e+01 5.647983e+01 9.477232e+01 1.370394e+02 8.088882e+01 6.806504e+01 1.165633e+02 7.145228e+01 6.536885e+01 7.320150e+01 1.867408e+02 2.528420e+01 5.899552e+01 6.154299e-01 8.793689e-01 1.613598e+00 1.878176e+00 1.476753e+00 1.714348e+00 2.716078e+00 2.760657e+00 1.344212e+00 2.312964e+00 2.463405e+00 1.098296e+00 1.022040e+00 9.094606e-02 1.106463e-01 1.855152e-01 2.313292e-01 2.077055e-01 2.125697e-01 3.543052e-01 3.517525e-01 2.037339e-01 2.960465e-01 3.171445e-01 1.693759e-01 1.617148e-01
<GCONST> 1.125795e+02
<TRANSP> 7
 0.000000e+00 1.000000e+00 0.000000e+00 0.000000e+00 0.000000e+00 0.000000e+00 0.000000e+00
 0.000000e+00 7.102681e-01 2.897319e-01 0.000000e+00 0.000000e+00 0.000000e+00 0.000000e+00
 0.000000e+00 0.000000e+00 8.656207e-01 1.343793e-01 0.000000e+00 0.000000e+00 0.000000e+00
 0.000000e+00 0.000000e+00 0.000000e+00 5.054705e-01 4.945295e-01 0.000000e+00 0.000000e+00
 0.000000e+00 0.000000e+00 0.000000e+00 0.000000e+00 7.773653e-01 2.226347e-01 0.000000e+00
 0.000000e+00 0.000000e+00 0.000000e+00 0.000000e+00 0.000000e+00 6.292613e-01 3.707387e-01
 0.000000e+00 0.000000e+00 0.000000e+00 0.000000e+00 0.000000e+00 0.000000e+00 0.000000e+00
<ENDHMM>
~h "b"
<BEGINHMM>
<NUMSTATES> 5
<STATE> 2
<NUMMIXES> 2
<MIXTURE> 1 5.000000e-01
<MEAN> 39
 8.283474e+00 1.539326e+01 1.031475e+01 1.439907e+01 9.454763e+00 4.689881e+00 2.652292e+00 1.464748e+01 3.611463e+00 -8.261374e+00 -7.362496e+00 -5.500557e+00 -4.041732e+00 -1.114534e+00 1.342596e+00 1.558624e+00 1.409201e-01 9.042355e-02 1.497544e+00 1.081896e+00 -6.054348e-01 -3.494142e-01 9.582339e-01 4.323017e-01 -2.985747e-01 -2.249951e-01 7.820980e-02 -4.701684e-01 -3.182234e-01 -5.797432e-02 2.213329e-02 -2.073953e-01 -2.486409e-01 -3.804883e-02 -9.766436e-02 -1.020731e-01 2.323807e-01 1.638858e-01 9.238084e-03
<VARIANCE> 39
 2.315218e+01 1.259961e+01 1.861888e+01 1.469981e+01 2.070174e+01 4.455708e+01 2.216610e+01 3.643691e+01 2.692495e+01 2.649971e+01 1.754870e+01 1.937489e+01 2.737129e+01 1.257874e+00 1.916934e+00 1.879348e+00 9.662807e-01 1.238892e+00 2.799962e+00 1.610111e+00 2.065023e+00 1.338104e+00 1.862322e+00 1.443306e+00 1.281906e+00 1.177207e+00 7.198789e-02 1.450524e-01 1.584779e-01 1.599846e-01 1.967085e-01 2.326044e-01 2.215650e-01 2.896982e-01 2.677353e-01 2.753619e-01 2.263143e-01 1.769710e-01 2.039535e-01
<GCONST> 9.632626e+01
<MIXTURE> 2 5.000000e-01
<MEAN> 39
 8.283474e+00 1.539326e+01 1.031475e+01 1.439907e+01 9.454763e+00 4.689881e+00 2.652292e+00 1.464748e+01 3.611463e+00 -8.261374e+00 -7.362496e+00 -5.500557e+00 -4.041732e+00 -1.114534e+00 1.342596e+00 1.558624e+00 1.409201e-01 9.042355e-02 1.497544e+00 1.081896e+00 -6.054348e-01 -3.494142e-01 9.582339e-01 4.323017e-01 -2.985747e-01 -2.249951e-01 7.820980e-02 -4.701684e-01 -3.182234e-01 -5.797432e-02 2.213329e-02 -2.073953e-01 -2.486409e-01 -3.804883e-02 -9.766436e-02 -1.020731e-01 2.323807e-01 1.638858e-01 9.238084e-03
<VARIANCE> 39
 2.315218e+01 1.259961e+01 1.861888e+01 1.469981e+01 2.070174e+01 4.455708e+01 2.216610e+01 3.643691e+01 2.692495e+01 2.649971e+01 1.754870e+01 1.937489e+01 2.737129e+01 1.257874e+00 1.916934e+00 1.879348e+00 9.662807e-01 1.238892e+00 2.799962e+00 1.610111e+00 2.065023e+00 1.338104e+00 1.862322e+00 1.443306e+00 1.281906e+00 1.177207e+00 7.198789e-02 1.450524e-01 1.584779e-01 1.599846e-01 1.967085e-01 2.326044e-01 2.215650e-01 2.896982e-01 2.677353e-01 2.753619e-01 2.263143e-01 1.769710e-01 2.039535e-01
<GCONST> 9.632626e+01
<STATE> 3
<NUMMIXES> 2
<MIXTURE> 1 5.000000e-01
<MEAN> 39
 3.528150e+00 1.923173e+01 1.614238e+01 1.606734e+01 1.284912e+01 1.269342e+01 5.696342e+00 9.563115e+00 1.462384e+00 -2.692081e+00 -3.443462e+00 -5.883092e+00 -5.206659e+00 -3.171815e-01 -1.994536e-01 -7.113756e-02 1.091376e-01 2.723006e-01 2.206915e-01 5.846104e-02 1.482621e-01 3.051395e-01 3.009706e-01 8.581864e-02 8.740371e-02 2.662049e-01 8.865966e-02 -2.955509e-01 -2.731887e-01 2.848164e-02 4.795476e-02 -2.121020e-01 -2.099547e-01 1.288941e-01 1.232718e-01 -1.459902e-01 -9.033397e-02 7.115672e-02 1.572177e-01
<VARIANCE> 39
 1.471803e+01 4.976436e+00 8.541001e+00 6.276647e+00 6.747539e+00 1.241483e+01 8.688708e+00 9.983708e+00 1.148439e+01 1.379688e+01 1.050324e+01 1.115929e+01 1.208066e+01 4.713702e-01 7.686144e-01 8.806874e-01 5.889398e-01 5.175225e-01 7.393443e-01 7.090712e-01 6.925170e-01 6.986547e-01 7.571812e-01 7.560152e-01 7.196654e-01 9.442904e-01 4.571277e-02 1.364434e-01 1.689450e-01 9.582935e-02 8.175348e-02 1.339009e-01 1.321187e-01 1.159841e-01 1.159565e-01 1.211184e-01 1.252097e-01 1.151851e-01 1.224264e-01
<GCONST> 6.801993e+01
<MIXTURE> 2 5.000000e-01
<MEAN> 39
 3.528150e+00 1.923173e+01 1.614238e+01 1.606734e+01 1.284912e+01 1.269342e+01 5.696342e+00 9.563115e+00 1.462384e+00 -2.692081e+00 -3.443462e+00 -5.883092e+00 -5.206659e+00 -3.171815e-01 -1.994536e-01 -7.113756e-02 1.091376e-01 2.723006e-01 2.206915e-01 5.846104e-02 1.482621e-01 3.051395e-01 3.009706e-01 8.581864e-02 8.740371e-02 2.662049e-01 8.865966e-02 -2.955509e-01 -2.731887e-01 2.848164e-02 4.795476e-02 -2.121020e-01 -2.099547e-01 1.288941e-01 1.232718e-01 -1.459902e-01 -9.033397e-02 7.115672e-02 1.572177e-01
<VARIANCE> 39
 1.471803e+01 4.976436e+00 8.541001e+00 6.276647e+00 6.747539e+00 1.241483e+01 8.688708e+00 9.983708e+00 1.148439e+01 1.379688e+01 1.050324e+01 1.115929e+01 1.208066e+01 4.713702e-01 7.686144e-01 8.806874e-01 5.889398e-01 5.175225e-01 7.393443e-01 7.090712e-01 6.925170e-01 6.986547e-01 7.571812e-01 7.560152e-01 7.196654e-01 9.442904e-01 4.571277e-02 1.364434e-01 1.689450e-01 9.582935e-02 8.175348e-02 1.339009e-01 1.321187e-01 1.159841e-01 1.159565e-01 1.211184e-01 1.252097e-01 1.151851e-01 1.224264e-01
<GCONST> 6.801993e+01
<STATE> 4
<NUMMIXES> 2
<MIXTURE> 1 5.000000e-01
<MEAN> 39
 5.388597e+00 1.025969e+01 7.896965e+00 1.618972e+01 1.387275e+01 6.544733e+00 -3.801590e-01 1.388907e+01 6.413133e+00 -4.970586e+00 -5.044044e+00 -4.328157e+00 -6.309378e-01 1.379846e+00 -2.777444e+00 -2.759884e+00 -1.013719e+00 -8.039265e-01 -2.544887e+00 -2.301665e+00 7.515181e-01 2.812498e-01 -1.372379e+00 5.147565e-01 8.403253e-01 7.747845e-01 5.593221e-01 -1.698724e-01 -2.849050e-01 -4.421961e-01 -6.113255e-01 -7.034624e-01 -3.300741e-01 8.719485e-02 -3.049753e-01 -4.374273e-01 2.535822e-01 8.950041e-02 -3.222127e-01
<VARIANCE> 39
 3.064125e+01 2.660704e+01 2.612318e+01 1.588118e+01 2.150957e+01 5.413285e+01 3.811660e+01 1.916885e+01 2.573404e+01 2.099687e+01 2.003846e+01 1.830149e+01 1.595913e+01 2.329520e+00 9.644777e-01 1.230705e+00 2.353068e+00 3.490957e+00 5.070672e+00 2.242575e+00 2.092465e+00 2.423997e+00 2.216328e+00 2.026252e+00 1.210232e+00 1.381395e+00 7.562505e-02 3.035083e-01 2.498984e-01 3.055062e-01 3.552824e-01 3.505855e-01 2.735608e-01 3.489244e-01 3.098438e-01 2.910373e-01 2.924320e-01 2.164701e-01 2.314461e-01
<GCONST> 1.048150e+02
<MIXTURE> 2 5.000000e-01
<MEAN> 39
 5.388597e+00 1.025969e+01 7.896965e+00 1.618972e+01 1.387275e+01 6.544733e+00 -3.801590e-01 1.388907e+01 6.413133e+00 -4.970586e+00 -5.044044e+00 -4.328157e+00 -6.309378e-01 1.379846e+00 -2.777444e+00 -2.759884e+00 -1.013719e+00 -8.039265e-01 -2.544887e+00 -2.301665e+00 7.515181e-01 2.812498e-01 -1.372379e+00 5.147565e-01 8.403253e-01 7.747845e-01 5.593221e-01 -1.698724e-01 -2.849050e-01 -4.421961e-01 -6.113255e-01 -7.034624e-01 -3.300741e-01 8.719485e-02 -3.049753e-01 -4.374273e-01 2.535822e-01 8.950041e-02 -3.222127e-01
<VARIANCE> 39
 3.064125e+01 2.660704e+01 2.612318e+01 1.588118e+01 2.150957e+01 5.413285e+01 3.811660e+01 1.916885e+01 2.573404e+01 2.099687e+01 2.003846e+01 1.830149e+01 1.595913e+01 2.329520e+00 9.644777e-01 1.230705e+00 2.353068e+00 3.490957e+00 5.070672e+00 2.242575e+00 2.092465e+00 2.423997e+00 2.216328e+00 2.026252e+00 1.210232e+00 1.381395e+00 7.562505e-02 3.035083e-01 2.498984e-01 3.055062e-01 3.552824e-01 3.505855e-01 2.735608e-01 3.489244e-01 3.098438e-01 2.910373e-01 2.924320e-01 2.164701e-01 2.314461e-01
<GCONST> 1.048150e+02
<TRANSP> 5
 0.000000e+00 1.000000e+00 0.000000e+00 0.000000e+00 0.000000e+00
 0.000000e+00 7.887085e-01 2.112915e-01 0.000000e+00 0.000000e+00
 0.000000e+00 0.000000e+00 8.614303e-01 1.385697e-01 0.000000e+00
 0.000000e+00 0.000000e+00 0.000000e+00 7.542127e-01 2.457873e-01
 0.000000e+00 0.000000e+00 0.000000e+00 0.000000e+00 0.000000e+00
<ENDHMM>
~h "c"
<BEGINHMM>
<NUMSTATES> 5
<STATE> 2
<NUMMIXES> 2
<MIXTURE> 1 6.385720e-01
<MEAN> 39
 -1.349508e+01 -3.623606e+00 6.709805e+00 1.098415e+01 5.449172e+00 9.646429e+00 1.142848e+00 5.438893e+00 -6.965005e-01 -4.055413e+00 -6.886227e-01 7.678024e-01 4.915592e+00 -2.192438e+00 -2.836938e+00 -3.037893e-01 -1.017815e+00 -1.848111e+00 -3.628620e-01 -4.606210e-01 -2.953167e-01 3.210479e-01 1.515526e-01 1.887860e-01 -5.274831e-02 -1.511766e-01 2.762123e-01 -4.103489e-01 -1.809337e-03 -1.921968e-01 -2.831249e-01 -2.119237e-01 -2.544101e-01 5.134534e-02 -5.426183e-02 -2.106204e-01 1.733826e-01 2.593375e-03 -2.709901e-01
<VARIANCE> 39
 7.918639e+01 1.643906e+02 9.511001e+01 6.127741e+01 4.341911e+01 5.490225e+01 4.433606e+01 3.535345e+01 3.899853e+01 3.565154e+01 2.746420e+01 2.333677e+01 2.433297e+01 2.519644e+00 1.143576e+01 4.351579e+00 3.628415e+00 3.094082e+00 3.528463e+00 3.175125e+00 2.792447e+00 2.718045e+00 2.846565e+00 2.526466e+00 1.893968e+00 2.497739e+00 2.140322e-01 8.249119e-01 5.827572e-01 5.011377e-01 3.843776e-01 5.458269e-01 4.025495e-01 4.429538e-01 4.881427e-01 4.167460e-01 4.233980e-01 3.584399e-01 3.891899e-01
<GCONST> 1.263948e+02
<MIXTURE> 2 3.614279e-01
<MEAN> 39
 -1.646285e+01 -3.825386e+01 2.216403e+01 8.457551e+00 -1.414581e+01 7.752352e+00 -7.073493e+00 7.943084e+00 1.114727e+00 -1.144046e+01 4.871038e+00 2.454316e+00 3.537259e-01 8.778454e-02 -2.624624e+00 2.380668e+00 -3.274517e-01 -8.906819e-01 9.557595e-03 -1.380684e+00 1.751392e-01 -2.527983e-01 -2.396086e-01 1.121168e+00 3.785712e-01 -3.328172e-01 1.296667e-01 7.653756e-01 -4.109456e-01 2.974525e-01 8.398648e-01 2.924648e-01 1.632993e-01 -2.035647e-01 -3.022509e-02 3.728013e-01 -1.962492e-01 -9.524129e-02 2.909043e-01
<VARIANCE> 39
 1.607383e+01 5.274444e+01 9.228774e+01 2.438379e+01 2.612802e+01 2.233791e+01 2.779634e+01 2.066327e+01 2.846625e+01 1.884178e+01 3.027393e+01 1.561896e+01 9.501649e+00 2.054387e+00 5.960769e+00 6.328529e+00 2.251912e+00 5.472946e+00 3.049826e+00 1.781474e+00 2.024413e+00 1.762601e+00 2.782758e+00 1.552315e+00 2.004933e+00 1.583960e+00 4.307975e-01 7.287277e-01 1.230258e+00 2.920887e-01 2.855924e-01 4.700128e-01 3.175591e-01 3.638503e-01 3.043152e-01 3.272707e-01 2.262554e-01 3.614189e-01 1.958956e-01
<GCONST> 1.132125e+02
<STATE> 3
<NUMMIXES> 2
<MIXTURE> 1 6.472594e-01
<MEAN> 39
 -1.576277e+01 -3.914191e+01 1.337561e+01 1.070270e+01 -3.718558e+00 9.877235e+00 -1.238890e+01 9.133708e-01 3.573050e+00 -5.565266e+00 1.410594e+00 2.726155e+00 3.225984e+00 1.093842e+00 -3.031611e-01 4.628702e-01 6.944553e-01 6.239156e-01 1.088503e+00 9.989529e-02 -4.267206e-01 2.372335e-01 1.684433e-01 2.152388e-01 2.507314e-01 2.386976e-02 2.365524e-01 5.585265e-01 -2.912663e-02 2.876493e-02 3.546546e-02 -4.681514e-03 1.826354e-01 2.242129e-02 -5.136946e-03 -3.203726e-02 -2.242575e-02 -1.935525e-02 -9.235065e-02
<VARIANCE> 39
 2.878048e+01 1.292543e+02 1.385269e+02 3.632652e+01 3.580438e+01 6.110751e+01 4.380047e+01 3.192950e+01 4.601921e+01 2.780519e+01 5.108230e+01 2.223102e+01 1.835791e+01 2.398604e+00 1.012282e+01 5.585021e+00 2.195491e+00 2.787366e+00 1.882240e+00 3.108311e+00 1.734121e+00 2.179689e+00 2.248730e+00 1.858156e+00 1.584287e+00 1.589993e+00 3.754062e-01 6.840385e-01 5.592959e-01 2.705421e-01 3.199754e-01 3.833816e-01 3.663489e-01 2.862209e-01 3.160579e-01 3.844081e-01 3.365070e-01 2.925678e-01 2.803470e-01
<GCONST> 1.193277e+02
<MIXTURE> 2 3.527406e-01
<MEAN> 39
 -2.657944e+01 -6.556215e+00 -5.215177e+00 -2.603364e+00 -3.424707e+00 5.589423e-01 -3.577933e+00 1.556080e+00 -1.310426e+00 -6.585846e-01 3.558745e-01 -8.259248e-01 6.209579e-01 4.885276e-03 -3.484265e-01 -1.208282e-01 1.876959e-01 7.671926e-02 -1.870939e-01 -1.675803e-01 3.099361e-02 1.946274e-02 -1.295755e-01 -1.733760e-01 5.944551e-02 1.800452e-01 1.331049e-01 -1.630889e-01 4.685649e-02 2.564734e-01 1.729587e-01 8.081375e-02 2.153604e-02 8.500969e-02 7.223714e-02 -6.312925e-02 -8.278833e-02 6.630875e-02 1.637238e-01
<VARIANCE> 39
 5.969158e-01 1.787799e+00 1.698957e+00 3.656561e+00 4.324439e+00 5.309438e+00 6.262791e+00 6.087439e+00 7.397005e+00 7.577901e+00 7.038003e+00 6.298974e+00 5.743425e+00 1.959925e-01 9.154104e-01 4.224980e-01 1.115814e+00 9.387609e-01 9.364395e-01 1.104671e+00 1.086014e+00 1.281392e+00 1.328773e+00 1.222360e+00 9.916040e-01 1.218771e+00 5.390560e-02 2.078838e-01 1.286987e-01 2.224420e-01 2.127854e-01 2.247940e-01 2.340353e-01 2.524785e-01 2.688451e-01 2.823509e-01 2.569800e-01 2.051017e-01 2.113060e-01
<GCONST> 6.742590e+01
<STATE> 4
<NUMMIXES> 2
<MIXTURE> 1 9.965379e-01
<MEAN> 39
 4.601219e+00 -2.109462e+01 1.347400e+01 1.623502e+01 4.019998e+00 1.427512e+01 -7.840229e+00 1.196003e+00 2.428676e+00 -8.284906e+00 2.781585e+00 4.311062e+00 1.850849e+00 4.206884e+00 4.177746e+00 -3.207630e+00 5.976227e-01 1.846948e+00 -2.727073e+00 -8.917954e-01 7.537957e-01 -8.219531e-01 -1.730093e+00 -4.833764e-01 -1.566390e-01 -4.657189e-01 -2.717977e-01 -7.127175e-01 -6.044450e-01 -3.410932e-01 2.261907e-02 -9.369117e-01 -6.762282e-01 5.155782e-01 -3.209570e-01 -4.502542e-01 2.554035e-01 -6.615635e-02 -9.147800e-02
<VARIANCE> 39
 1.045903e+02 9.624615e+01 7.063078e+01 2.678357e+01 4.378926e+01 7.382473e+01 4.448627e+01 3.617944e+01 2.352931e+01 3.774069e+01 3.760930e+01 1.644205e+01 1.297693e+01 4.169837e+00 5.558411e+00 8.253504e+00 1.837538e+00 2.020986e+00 6.037446e+00 3.880661e+00 3.905118e+00 2.140668e+00 3.776020e+00 2.176166e+00 1.150093e+00 1.381175e+00 5.868965e-01 5.871802e-01 6.309282e-01 1.545894e-01 1.998808e-01 6.700258e-01 5.988120e-01 4.195270e-01 2.950285e-01 4.239354e-01 3.491487e-01 2.284767e-01 1.448728e-01
<GCONST> 1.207716e+02
<MIXTURE> 2 3.462150e-03
<MEAN> 39
 -1.209897e+01 -4.169722e+01 1.154459e+01 4.205656e+00 -1.738037e+01 4.752168e+00 -1.617877e+01 -8.469489e+00 3.080506e+00 -7.874886e+00 7.277630e-01 4.369623e+00 1.268426e+00 1.461387e+00 1.779153e+00 -3.060936e+00 -1.933902e+00 -2.377351e+00 -2.659541e+00 3.404090e-01 -2.701688e+00 -1.109947e+00 -9.490104e-01 -8.266192e-01 1.372049e+00 -3.049830e-01 5.870696e-01 -2.836612e-01 2.036864e-01 -7.915638e-02 -5.369177e-03 2.452287e-01 -5.254534e-02 8.627700e-01 -1.986894e-02 -3.312969e-01 1.903525e-01 -6.472344e-01 -3.660180e-01
<VARIANCE> 39
 7.727998e+00 4.205399e+00 1.837072e-01 8.433471e+00 9.174490e+00 4.719291e-01 7.200521e+00 2.866564e-01 1.106849e+00 6.630652e-01 1.040959e-02 1.804324e+00 1.466974e+00 5.931337e-01 5.151355e-02 4.636735e-01 4.557953e-02 2.783623e-01 1.441653e-03 2.755065e-01 5.821671e-01 3.155592e-02 1.266232e-03 3.123829e-04 2.346994e-01 1.559483e-01 7.716619e-04 2.382507e-03 6.601119e-04 9.015241e-03 5.908640e-02 8.105269e-02 3.000028e-02 5.936959e-02 5.326727e-03 8.817402e-03 2.682656e-02 1.280898e-03 5.191004e-02
<GCONST> -2.473060e+01
<TRANSP> 5
 0.000000e+00 1.000000e+00 0.000000e+00 0.000000e+00 0.000000e+00
 0.000000e+00 9.019732e-01 9.802672e-02 0.000000e+00 0.000000e+00
 0.000000e+00 0.000000e+00 9.396333e-01 6.036662e-02 0.000000e+00
 0.000000e+00 0.000000e+00 0.000000e+00 7.351442e-01 2.648558e-01
 0.000000e+00 0.000000e+00 0.000000e+00 0.000000e+00 0.000000e+00
<ENDHMM>
~h "d"
<BEGINHMM>
<NUMSTATES> 5
<STATE> 2
<NUMMIXES> 2
<MIXTURE> 1 5.000000e-01
<MEAN> 39
 7.079123e+00 1.327605e+01 1.027384e+01 1.764281e+01 1.371242e+01 7.102162e+00 1.895845e+00 1.121231e+01 -2.125264e+00 -1.167632e+01 -6.615261e+00 -3.161290e+00 2.122293e-01 -1.252168e+00 2.131759e+00 1.862436e+00 9.129258e-02 2.422034e-01 1.958422e+00 1.185229e+00 -1.024663e+00 3.876598e-02 1.140358e+00 -3.166502e-01 -6.421630e-02 1.356572e-01 2.145538e-01 -6.536201e-01 -3.246571e-01 -6.421140e-02 -1.061726e-01 -3.587556e-01 -2.775290e-01 1.662214e-01 -9.937501e-02 -1.081397e-01 4.507105e-01 -3.060641e-02 -2.206811e-01
<VARIANCE> 39
 2.245713e+01 2.386115e+01 2.516488e+01 1.625460e+01 3.286594e+01 5.445358e+01 1.499711e+01 5.185387e+01 3.219543e+01 3.027247e+01 2.185233e+01 1.833790e+01 1.868185e+01 7.090263e-01 2.047517e+00 1.025965e+00 8.227265e-01 1.722983e+00 2.245571e+00 1.350878e+00 2.442883e+00 1.786330e+00 1.723571e+00 2.138333e+00 9.977608e-01 1.359881e+00 4.183131e-02 2.327945e-01 1.725773e-01 1.465501e-01 2.066357e-01 1.879766e-01 2.265519e-01 2.617614e-01 4.077021e-01 3.352412e-01 2.377338e-01 1.671140e-01 2.347345e-01
<GCONST> 9.781637e+01
<MIXTURE> 2 5.000000e-01
<MEAN> 39
 7.079123e+00 1.327605e+01 1.027384e+01 1.764281e+01 1.371242e+01 7.102162e+00 1.895845e+00 1.121231e+01 -2.125264e+00 -1.167632e+01 -6.615261e+00 -3.161290e+00 2.122293e-01 -1.252168e+00 2.131759e+00 1.862436e+00 9.129258e-02 2.422034e-01 1.958422e+00 1.185229e+00 -1.024663e+00 3.876598e-02 1.140358e+00 -3.166502e-01 -6.421630e-02 1.356572e-01 2.145538e-01 -6.536201e-01 -3.246571e-01 -6.421140e-02 -1.061726e-01 -3.587556e-01 -2.775290e-01 1.662214e-01 -9.937501e-02 -1.081397e-01 4.507105e-01 -3.060641e-02 -2.206811e-01
<VARIANCE> 39
 2.245713e+01 2.386115e+01 2.516488e+01 1.625460e+01 3.286594e+01 5.445358e+01 1.499711e+01 5.185387e+01 3.219543e+01 3.027247e+01 2.185233e+01 1.833790e+01 1.868185e+01 7.090263e-01 2.047517e+00 1.025965e+00 8.227265e-01 1.722983e+00 2.245571e+00 1.350878e+00 2.442883e+00 1.786330e+00 1.723571e+00 2.138333e+00 9.977608e-01 1.359881e+00 4.183131e-02 2.327945e-01 1.725773e-01 1.465501e-01 2.066357e-01 1.879766e-01 2.265519e-01 2.617614e-01 4.077021e-01 3.352412e-01 2.377338e-01 1.671140e-01 2.347345e-01
<GCONST> 9.781637e+01
<STATE> 3
<NUMMIXES> 2
<MIXTURE> 1 5.000000e-01
<MEAN> 39
 7.776548e-01 1.795045e+01 1.642631e+01 1.720890e+01 1.447277e+01 1.470359e+01 6.717510e+00 9.357550e+00 6.752825e-01 -2.831749e+00 -1.889886e+00 -3.398331e+00 -2.645861e+00 -3.099786e-01 -5.195655e-01 -1.579570e-01 1.871098e-01 1.974678e-01 1.805147e-01 1.159034e-01 2.744440e-01 5.017373e-01 4.254990e-01 6.896234e-02 2.892280e-02 3.139546e-01 6.380910e-02 -4.423768e-01 -3.041056e-01 4.159132e-02 6.340904e-02 -1.312089e-01 -1.909334e-01 5.302424e-02 1.519039e-02 -8.696163e-02 3.064886e-02 3.488501e-02 1.416156e-01
<VARIANCE> 39
 1.615199e+01 6.067114e+00 1.010836e+01 9.007069e+00 6.998248e+00 9.354290e+00 8.464557e+00 9.111814e+00 1.468775e+01 2.071590e+01 1.249445e+01 9.693237e+00 9.850202e+00 5.911712e-01 1.722765e+00 1.270587e+00 9.566396e-01 8.312799e-01 7.509697e-01 8.101663e-01 7.270309e-01 8.315130e-01 1.240987e+00 8.353939e-01 8.751957e-01 1.239436e+00 6.372263e-02 2.166687e-01 2.171618e-01 1.639692e-01 1.605967e-01 1.247428e-01 1.574019e-01 1.188529e-01 1.279466e-01 1.652472e-01 1.735870e-01 1.324375e-01 1.374209e-01
<GCONST> 7.612755e+01
<MIXTURE> 2 5.000000e-01
<MEAN> 39
 7.776548e-01 1.795045e+01 1.642631e+01 1.720890e+01 1.447277e+01 1.470359e+01 6.717510e+00 9.357550e+00 6.752825e-01 -2.831749e+00 -1.889886e+00 -3.398331e+00 -2.645861e+00 -3.099786e-01 -5.195655e-01 -1.579570e-01 1.871098e-01 1.974678e-01 1.805147e-01 1.159034e-01 2.744440e-01 5.017373e-01 4.254990e-01 6.896234e-02 2.892280e-02 3.139546e-01 6.380910e-02 -4.423768e-01 -3.041056e-01 4.159132e-02 6.340904e-02 -1.312089e-01 -1.909334e-01 5.302424e-02 1.519039e-02 -8.696163e-02 3.064886e-02 3.488501e-02 1.416156e-01
<VARIANCE> 39
 1.615199e+01 6.067114e+00 1.010836e+01 9.007069e+00 6.998248e+00 9.354290e+00 8.464557e+00 9.111814e+00 1.468775e+01 2.071590e+01 1.249445e+01 9.693237e+00 9.850202e+00 5.911712e-01 1.722765e+00 1.270587e+00 9.566396e-01 8.312799e-01 7.509697e-01 8.101663e-01 7.270309e-01 8.315130e-01 1.240987e+00 8.353939e-01 8.751957e-01 1.239436e+00 6.372263e-02 2.166687e-01 2.171618e-01 1.639692e-01 1.605967e-01 1.247428e-01 1.574019e-01 1.188529e-01 1.279466e-01 1.652472e-01 1.735870e-01 1.324375e-01 1.374209e-01
<GCONST> 7.612755e+01
<STATE> 4
<NUMMIXES> 2
<MIXTURE> 1 5.000000e-01
<MEAN> 39
 3.545632e+00 -5.432968e-01 5.722666e+00 1.724532e+01 1.279142e+01 1.021834e+01 2.634909e+00 1.145205e+01 -4.084181e-01 -4.579489e+00 1.281576e+00 -3.645955e+00 2.490165e+00 1.781162e+00 -3.232532e+00 -1.903584e+00 -8.115491e-01 -9.169325e-01 -1.331948e+00 -1.516383e+00 1.824462e-01 -1.432374e+00 -1.392293e+00 1.594181e+00 -1.855675e-01 -3.063428e-01 4.152401e-01 3.424295e-01 1.934819e-01 -8.467858e-02 5.639396e-03 -3.075517e-01 -4.192947e-01 -5.502384e-02 -3.724566e-01 -5.978020e-01 4.439962e-02 5.020541e-02 -3.759488e-01
<VARIANCE> 39
 3.579885e+01 8.370781e+01 2.905979e+01 2.595115e+01 4.833308e+01 3.396873e+01 3.672142e+01 3.331828e+01 5.987733e+01 5.027452e+01 5.060685e+01 2.647314e+01 2.733556e+01 1.941628e+00 4.569294e+00 2.296461e+00 2.075502e+00 3.142281e+00 2.318637e+00 3.446478e+00 1.912856e+00 6.333520e+00 5.696474e+00 5.791169e+00 1.922065e+00 2.461708e+00 2.189539e-01 7.817878e-01 4.624029e-01 5.383491e-01 7.620713e-01 3.765410e-01 4.064029e-01 3.841773e-01 1.384971e+00 7.465163e-01 1.176229e+00 3.679965e-01 3.631397e-01
<GCONST> 1.257738e+02
<MIXTURE> 2 5.000000e-01
<MEAN> 39
 3.545632e+00 -5.432968e-01 5.722666e+00 1.724532e+01 1.279142e+01 1.021834e+01 2.634909e+00 1.145205e+01 -4.084181e-01 -4.579489e+00 1.281576e+00 -3.645955e+00 2.490165e+00 1.781162e+00 -3.232532e+00 -1.903584e+00 -8.115491e-01 -9.169325e-01 -1.331948e+00 -1.516383e+00 1.824462e-01 -1.432374e+00 -1.392293e+00 1.594181e+00 -1.855675e-01 -3.063428e-01 4.152401e-01 3.424295e-01 1.934819e-01 -8.467858e-02 5.639396e-03 -3.075517e-01 -4.192947e-01 -5.502384e-02 -3.724566e-01 -5.978020e-01 4.439962e-02 5.020541e-02 -3.759488e-01
<VARIANCE> 39
 3.579885e+01 8.370781e+01 2.905979e+01 2.595115e+01 4.833308e+01 3.396873e+01 3.672142e+01 3.331828e+01 5.987733e+01 5.027452e+01 5.060685e+01 2.647314e+01 2.733556e+01 1.941628e+00 4.569294e+00 2.296461e+00 2.075502e+00 3.142281e+00 2.318637e+00 3.446478e+00 1.912856e+00 6.333520e+00 5.696474e+00 5.791169e+00 1.922065e+00 2.461708e+00 2.189539e-01 7.817878e-01 4.624029e-01 5.383491e-01 7.620713e-01 3.765410e-01 4.064029e-01 3.841773e-01 1.384971e+00 7.465163e-01 1.176229e+00 3.679965e-01 3.631397e-01
<GCONST> 1.257738e+02
<TRANSP> 5
 0.000000e+00 1.000000e+00 0.000000e+00 0.000000e+00 0.000000e+00
 0.000000e+00 6.974690e-01 3.025310e-01 0.000000e+00 0.000000e+00
 0.000000e+00 0.000000e+00 8.735150e-01 1.264850e-01 0.000000e+00
 0.000000e+00 0.000000e+00 0.000000e+00 8.210709e-01 1.789291e-01
 0.000000e+00 0.000000e+00 0.000000e+00 0.000000e+00 0.000000e+00
<ENDHMM>
~h "f"
<BEGINHMM>
<NUMSTATES> 5
<STATE> 2
<NUMMIXES> 2
<MIXTURE> 1 1.000000e+00
<MEAN> 39
 2.378755e+01 -4.706610e+00 -1.187197e+01 1.002695e+01 -1.105440e+00 -2.965821e+01 -1.962927e+01 2.699721e+01 1.180468e+01 -1.283550e+01 3.925829e+00 5.922162e+00 -4.834613e-01 -1.248698e+00 8.758497e-01 3.382013e-01 -6.607287e-01 -3.548661e-01 3.355139e-01 3.836997e-01 -6.589171e-01 5.210164e-01 6.765416e-01 -8.183858e-01 1.841211e-01 2.926092e-01 6.607310e-02 -8.079046e-02 4.119034e-02 -8.165886e-02 1.742080e-01 1.975000e-01 -6.284645e-02 4.944273e-02 6.609178e-02 -2.286602e-01 -1.108540e-01 -7.743044e-02 -5.312523e-02
<VARIANCE> 39
 2.608384e+00 1.223520e+01 4.587201e+01 8.106363e+00 1.123937e+02 6.445993e+01 1.540062e+01 1.813381e+00 6.708227e+01 7.478957e+01 5.403281e+01 1.018973e+01 2.887764e+00 2.421026e-01 2.547584e-01 2.213545e-01 1.717348e-01 5.573739e-01 2.859907e-01 3.445444e-01 1.936933e-01 7.946525e-01 8.180912e-01 1.658218e-02 4.807177e-01 2.232109e-02 3.168748e-02 4.741772e-02 1.045085e-02 1.539214e-02 2.399102e-02 3.421127e-02 4.946961e-02 1.378652e-01 2.323227e-03 6.159716e-02 2.077109e-02 9.350557e-03 1.223646e-02
<GCONST> 4.037428e+01
<MIXTURE> 2 0.000000e+00
<MEAN> 39
 -1.585175e+01 -1.551351e+00 7.729309e+00 -7.243529e+00 1.722945e+01 -4.595492e+00 8.562895e+00 -3.340965e+00 3.503048e+00 -4.349793e+00 2.257324e+00 -9.441703e-01 1.405435e+00 -2.463601e+00 -8.618322e-01 -7.031665e-01 -4.471729e-01 2.791805e-01 3.659815e-01 -1.137626e-01 -3.731829e-01 -3.769362e-02 -3.910118e-02 3.242532e-01 -1.921992e-02 3.981748e-01 4.077158e-01 -1.006740e-01 -2.800901e-01 -9.457918e-02 -3.625076e-01 -3.459834e-01 -2.940953e-01 2.188951e-02 -1.688870e-01 -1.846896e-01 -1.475902e-01 -2.191112e-03 -1.261082e-01
<VARIANCE> 39
 3.794474e+01 3.006912e+01 3.696891e+01 3.629724e+01 4.906600e+01 3.866109e+01 4.917469e+01 3.866268e+01 3.933981e+01 3.216502e+01 2.111969e+01 2.085070e+01 1.584314e+01 1.946436e+00 1.199190e+00 1.955029e+00 2.033741e+00 2.686450e+00 2.348367e+00 2.500819e+00 2.211571e+00 1.997479e+00 1.933216e+00 1.770481e+00 1.567442e+00 1.408696e+00 2.019766e-01 2.254066e-01 2.903521e-01 2.933460e-01 3.599655e-01 3.714276e-01 4.149454e-01 4.019520e-01 3.977194e-01 3.726283e-01 3.362232e-01 2.893453e-01 2.591272e-01
<GCONST> 1.105595e+02
<STATE> 3
<NUMMIXES> 2
<MIXTURE> 1 1.000000e+00
<MEAN> 39
 1.688154e+01 -3.665669e+00 -7.740559e+00 6.940185e+00 -4.681307e+00 -2.603188e+01 -1.432868e+01 1.894756e+01 1.245939e+01 -7.783206e+00 -1.570472e+00 6.477608e+00 1.396310e+00 5.702177e-01 5.298597e-01 -4.522912e-01 -1.918122e-01 4.709513e-01 6.096056e-02 -4.587426e-01 1.620502e+00 -2.246153e-02 -1.079898e+00 7.444314e-01 -4.374836e-01 -6.238492e-01 6.766950e-01 -2.364682e-01 -1.533382e-01 1.857937e-01 2.085902e-01 -1.707960e-01 -3.005871e-01 7.461860e-01 3.652518e-02 -5.425445e-01 3.503673e-01 -1.796052e-01 -2.464055e-01
<VARIANCE> 39
 1.995631e+00 1.667521e+01 2.269435e+01 2.740404e+00 4.400490e+01 5.886309e+01 5.141662e-01 1.279562e+01 3.643816e+01 1.900583e+01 1.092246e+01 8.566049e+00 7.094568e+00 7.640667e-02 5.822893e-01 4.050258e-02 1.985636e-01 5.132369e-02 2.586369e-01 4.204429e-01 1.013508e+00 7.202463e-01 4.002492e-02 5.000973e-01 3.780165e-01 2.703578e-01 7.608419e-02 3.911256e-03 4.295866e-02 2.702966e-03 8.768109e-02 4.312230e-03 8.557589e-02 3.529009e-02 1.707141e-02 5.399869e-02 1.175652e-02 1.044559e-01 3.089404e-03
<GCONST> 3.212853e+01
<MIXTURE> 2 0.000000e+00
<MEAN> 39
 3.639828e+00 2.334219e+01 2.275135e+01 1.852283e+01 1.423527e+01 1.180350e+01 1.503383e+00 3.615908e+00 -5.643132e+00 -7.883940e+00 -4.223375e+00 -8.214487e+00 -1.385839e+00 7.378227e-01 3.235949e-01 3.322033e-01 2.980543e-01 5.087882e-01 -9.404181e-01 -6.376179e-01 -4.802291e-01 -1.009100e+00 -7.107889e-01 -4.104046e-01 7.652082e-02 7.022230e-01 8.588254e-02 -5.611768e-01 -7.325470e-01 -3.333505e-01 -7.526119e-02 1.938971e-01 3.722913e-01 3.623554e-01 5.790925e-01 5.305554e-01 -6.042129e-02 1.178928e-01 -2.853412e-01
<VARIANCE> 39
 -6.103516e-05 6.103516e-05 6.103516e-05 -6.103516e-05 0.000000e+00 0.000000e+00 -4.768372e-07 0.000000e+00 0.000000e+00 0.000000e+00 -3.814697e-06 3.814697e-06 0.000000e+00 5.960464e-08 0.000000e+00 0.000000e+00 2.980232e-08 5.960464e-08 5.960464e-08 -2.980232e-08 1.490116e-08 0.000000e+00 0.000000e+00 2.980232e-08 0.000000e+00 0.000000e+00 1.862645e-09 5.960464e-08 5.960464e-08 -1.490116e-08 -1.862645e-09 3.725290e-09 0.000000e+00 0.000000e+00 0.000000e+00 -2.980232e-08 9.313226e-10 -9.313226e-10 0.000000e+00
<GCONST> -2.500001e+11
<STATE> 4
<NUMMIXES> 2
<MIXTURE> 1 1.000000e+00
<MEAN> 39
 2.128861e+01 -3.312491e+00 -1.009441e+01 7.311942e+00 -3.446364e+00 -2.770361e+01 -1.752439e+01 2.378363e+01 1.351200e+01 -1.086654e+01 6.414481e-01 6.666214e+00 1.082256e+00 3.590081e-01 -5.318761e-02 3.037547e-01 -4.072649e-01 -4.199881e-01 -2.523075e-02 3.159484e-01 7.841749e-01 1.574946e-01 -4.626261e-01 2.700200e-03 -3.309718e-01 -4.663009e-01 2.417025e-01 -1.662380e-01 1.581512e-01 1.467975e-01 -7.702018e-02 1.488818e-02 1.724619e-01 2.227079e-01 -7.965101e-02 -1.029324e-01 4.333347e-02 -2.757991e-01 -1.238656e-01
<VARIANCE> 39
 1.323210e+00 2.510384e+01 3.355074e+01 4.630541e+00 6.061668e+01 5.332669e+01 3.569238e+00 5.416268e+00 3.601724e+01 1.934161e+01 1.896725e+01 1.029099e+01 5.818052e+00 3.170085e-01 2.935798e-01 8.914704e-02 1.169161e-01 1.893818e-01 2.159620e-02 3.732308e-02 2.700956e-01 8.288189e-01 6.971743e-01 1.660659e-01 6.107330e-02 2.564473e-02 1.593201e-02 4.372571e-02 5.808850e-02 9.819579e-02 6.473504e-03 6.985039e-02 2.518777e-02 1.448426e-01 6.000658e-03 3.431988e-03 5.504062e-02 2.261111e-02 5.068273e-03
<GCONST> 3.049748e+01
<MIXTURE> 2 0.000000e+00
<MEAN> 39
 -1.919306e+01 -9.236015e+00 3.689552e+00 -1.223476e+01 1.489335e+01 -6.318414e+00 7.143879e+00 -6.103525e+00 3.174531e+00 -6.095226e+00 4.311400e+00 -2.684157e-01 3.222131e+00 2.403928e+00 6.682029e-01 1.196788e+00 8.050752e-01 2.333375e-01 1.086554e-01 -3.363338e-03 2.492941e-01 -2.023524e-01 1.609932e-01 -2.533848e-01 3.826904e-02 -4.694991e-01 5.983038e-01 5.120639e-01 1.572707e-01 3.195376e-01 -1.208165e-01 -2.085501e-01 -3.490097e-01 1.940116e-01 -1.673514e-01 -7.740311e-02 -3.054772e-01 -1.087985e-01 -3.564875e-01
<VARIANCE> 39
 3.042087e+01 2.921870e+01 3.283026e+01 3.405130e+01 4.104346e+01 3.583276e+01 4.287782e+01 3.903381e+01 3.163493e+01 3.066770e+01 2.307189e+01 1.659729e+01 1.461290e+01 2.254787e+00 2.112019e+00 1.727328e+00 2.238523e+00 2.263419e+00 2.361685e+00 2.342651e+00 2.605778e+00 2.095444e+00 2.131377e+00 2.099487e+00 1.836933e+00 1.663770e+00 2.622992e-01 2.496722e-01 3.391603e-01 3.445290e-01 4.448123e-01 5.514072e-01 5.425829e-01 4.482497e-01 4.572209e-01 4.257733e-01 3.892074e-01 3.408262e-01 2.868415e-01
<GCONST> 1.128664e+02
<TRANSP> 5
 0.000000e+00 1.000000e+00 0.000000e+00 0.000000e+00 0.000000e+00
 0.000000e+00 0.000000e+00 1.000000e+00 0.000000e+00 0.000000e+00
 0.000000e+00 0.000000e+00 0.000000e+00 1.000000e+00 0.000000e+00
 0.000000e+00 0.000000e+00 0.000000e+00 0.000000e+00 1.000000e+00
 0.000000e+00 0.000000e+00 0.000000e+00 0.000000e+00 0.000000e+00
<ENDHMM>
~h "g"
<BEGINHMM>
<NUMSTATES> 5
<STATE> 2
<NUMMIXES> 2
<MIXTURE> 1 5.000000e-01
<MEAN> 39
 7.143781e+00 1.723108e+01 1.313084e+01 1.645440e+01 1.260817e+01 7.613517e+00 -5.883064e-01 5.682267e+00 -3.376542e+00 -7.667804e+00 -4.061574e+00 -4.883300e+00 -4.866991e+00 -1.257494e+00 1.104753e+00 1.432659e+00 1.774988e-01 6.601834e-01 2.113198e+00 1.185402e+00 -7.079654e-01 -4.771951e-01 1.862335e-01 -8.189105e-01 -9.486011e-01 -1.612951e-02 1.578133e-01 -6.243101e-01 -4.585089e-01 -1.288828e-01 -1.081074e-01 -3.476192e-01 -1.822050e-01 3.607966e-01 1.263240e-01 -3.692526e-02 4.226058e-01 1.248806e-01 -1.291240e-01
<VARIANCE> 39
 1.076732e+01 1.652519e+01 2.052770e+01 1.156709e+01 3.397602e+01 3.552695e+01 2.728659e+01 3.598150e+01 3.680719e+01 3.394732e+01 2.523800e+01 2.588359e+01 1.808789e+01 4.585651e-01 2.074515e+00 2.128191e+00 1.058844e+00 1.780179e+00 2.480176e+00 1.775379e+00 2.230948e+00 1.487041e+00 1.525198e+00 2.192219e+00 2.016398e+00 1.120109e+00 3.856399e-02 1.662863e-01 1.941218e-01 1.346641e-01 1.476115e-01 2.195396e-01 2.151836e-01 2.358948e-01 2.440614e-01 2.262112e-01 2.605239e-01 2.035753e-01 1.891851e-01
<GCONST> 9.626199e+01
<MIXTURE> 2 5.000000e-01
<MEAN> 39
 7.143781e+00 1.723108e+01 1.313084e+01 1.645440e+01 1.260817e+01 7.613517e+00 -5.883064e-01 5.682267e+00 -3.376542e+00 -7.667804e+00 -4.061574e+00 -4.883300e+00 -4.866991e+00 -1.257494e+00 1.104753e+00 1.432659e+00 1.774988e-01 6.601834e-01 2.113198e+00 1.185402e+00 -7.079654e-01 -4.771951e-01 1.862335e-01 -8.189105e-01 -9.486011e-01 -1.612951e-02 1.578133e-01 -6.243101e-01 -4.585089e-01 -1.288828e-01 -1.081074e-01 -3.476192e-01 -1.822050e-01 3.607966e-01 1.263240e-01 -3.692526e-02 4.226058e-01 1.248806e-01 -1.291240e-01
<VARIANCE> 39
 1.076732e+01 1.652519e+01 2.052770e+01 1.156709e+01 3.397602e+01 3.552695e+01 2.728659e+01 3.598150e+01 3.680719e+01 3.394732e+01 2.523800e+01 2.588359e+01 1.808789e+01 4.585651e-01 2.074515e+00 2.128191e+00 1.058844e+00 1.780179e+00 2.480176e+00 1.775379e+00 2.230948e+00 1.487041e+00 1.525198e+00 2.192219e+00 2.016398e+00 1.120109e+00 3.856399e-02 1.662863e-01 1.941218e-01 1.346641e-01 1.476115e-01 2.195396e-01 2.151836e-01 2.358948e-01 2.440614e-01 2.262112e-01 2.605239e-01 2.035753e-01 1.891851e-01
<GCONST> 9.626199e+01
<STATE> 3
<NUMMIXES> 2
<MIXTURE> 1 5.000000e-01
<MEAN> 39
 2.595137e+00 1.878632e+01 1.641918e+01 1.678225e+01 1.423179e+01 1.355196e+01 3.782361e+00 6.164834e+00 -1.752653e+00 -4.562312e+00 -4.392134e+00 -7.317963e+00 -5.777086e+00 -5.567216e-01 -5.425040e-01 -3.472072e-01 -4.866930e-01 -3.363477e-01 2.192882e-01 5.750170e-01 8.344465e-01 5.292343e-01 2.611012e-01 4.174876e-01 2.156918e-01 1.906453e-01 1.640445e-01 -3.853201e-01 -4.546562e-01 -2.944771e-01 -2.588939e-01 -3.273179e-01 -1.456433e-01 3.019454e-01 1.244578e-01 -8.902163e-02 2.188012e-01 1.631132e-01 5.570868e-02
<VARIANCE> 39
 1.497881e+01 9.138249e+00 1.129096e+01 9.339521e+00 9.598948e+00 9.611716e+00 1.858105e+01 1.703833e+01 1.482252e+01 1.431169e+01 8.945281e+00 1.059575e+01 8.609498e+00 5.011176e-01 1.288568e+00 1.563205e+00 1.604955e+00 1.483626e+00 1.551523e+00 1.099677e+00 1.429201e+00 1.000611e+00 1.105274e+00 1.044935e+00 1.165206e+00 9.244998e-01 6.838339e-02 1.887651e-01 2.531997e-01 2.868923e-01 3.064260e-01 2.187329e-01 1.505014e-01 2.022276e-01 1.658270e-01 1.507635e-01 2.106654e-01 1.540613e-01 1.246069e-01
<GCONST> 8.321957e+01
<MIXTURE> 2 5.000000e-01
<MEAN> 39
 2.595137e+00 1.878632e+01 1.641918e+01 1.678225e+01 1.423179e+01 1.355196e+01 3.782361e+00 6.164834e+00 -1.752653e+00 -4.562312e+00 -4.392134e+00 -7.317963e+00 -5.777086e+00 -5.567216e-01 -5.425040e-01 -3.472072e-01 -4.866930e-01 -3.363477e-01 2.192882e-01 5.750170e-01 8.344465e-01 5.292343e-01 2.611012e-01 4.174876e-01 2.156918e-01 1.906453e-01 1.640445e-01 -3.853201e-01 -4.546562e-01 -2.944771e-01 -2.588939e-01 -3.273179e-01 -1.456433e-01 3.019454e-01 1.244578e-01 -8.902163e-02 2.188012e-01 1.631132e-01 5.570868e-02
<VARIANCE> 39
 1.497881e+01 9.138249e+00 1.129096e+01 9.339521e+00 9.598948e+00 9.611716e+00 1.858105e+01 1.703833e+01 1.482252e+01 1.431169e+01 8.945281e+00 1.059575e+01 8.609498e+00 5.011176e-01 1.288568e+00 1.563205e+00 1.604955e+00 1.483626e+00 1.551523e+00 1.099677e+00 1.429201e+00 1.000611e+00 1.105274e+00 1.044935e+00 1.165206e+00 9.244998e-01 6.838339e-02 1.887651e-01 2.531997e-01 2.868923e-01 3.064260e-01 2.187329e-01 1.505014e-01 2.022276e-01 1.658270e-01 1.507635e-01 2.106654e-01 1.540613e-01 1.246069e-01
<GCONST> 8.321957e+01
<STATE> 4
<NUMMIXES> 2
<MIXTURE> 1 5.000000e-01
<MEAN> 39
 5.385218e+00 7.232012e+00 2.702886e+00 5.168861e+00 7.956852e+00 1.091999e+01 3.288283e+00 1.356463e+01 -1.287776e+00 -8.804203e+00 1.461649e+00 -3.839612e+00 -3.424734e+00 1.117034e+00 -1.975453e+00 -1.851229e+00 -1.136458e+00 -6.012812e-01 -1.083835e+00 -1.264342e+00 5.622092e-01 -5.202021e-01 -9.963802e-01 1.371896e+00 5.534359e-01 -3.348650e-02 2.167616e-01 8.181027e-02 2.280608e-01 3.935707e-01 2.582877e-01 -2.711622e-01 -4.937725e-01 -3.738661e-01 -2.544923e-01 -1.036071e-01 6.302766e-02 -1.344828e-02 -1.848656e-01
<VARIANCE> 39
 5.908010e+01 7.735088e+01 6.582382e+01 1.319463e+02 1.146102e+02 7.433479e+01 6.865225e+01 8.911843e+01 9.137241e+01 7.840980e+01 4.848603e+01 3.257024e+01 2.638547e+01 2.143882e+00 3.036551e+00 3.856999e+00 1.168440e+01 1.016636e+01 6.529513e+00 4.095882e+00 7.458948e+00 5.743747e+00 4.126389e+00 3.756441e+00 1.798815e+00 2.037192e+00 2.255099e-01 3.691655e-01 6.208834e-01 1.458512e+00 1.096004e+00 7.281914e-01 5.038187e-01 8.131575e-01 7.964530e-01 6.180173e-01 5.372220e-01 3.311793e-01 3.435008e-01
<GCONST> 1.383345e+02
<MIXTURE> 2 5.000000e-01
<MEAN> 39
 5.385218e+00 7.232012e+00 2.702886e+00 5.168861e+00 7.956852e+00 1.091999e+01 3.288283e+00 1.356463e+01 -1.287776e+00 -8.804203e+00 1.461649e+00 -3.839612e+00 -3.424734e+00 1.117034e+00 -1.975453e+00 -1.851229e+00 -1.136458e+00 -6.012812e-01 -1.083835e+00 -1.264342e+00 5.622092e-01 -5.202021e-01 -9.963802e-01 1.371896e+00 5.534359e-01 -3.348650e-02 2.167616e-01 8.181027e-02 2.280608e-01 3.935707e-01 2.582877e-01 -2.711622e-01 -4.937725e-01 -3.738661e-01 -2.544923e-01 -1.036071e-01 6.302766e-02 -1.344828e-02 -1.848656e-01
<VARIANCE> 39
 5.908010e+01 7.735088e+01 6.582382e+01 1.319463e+02 1.146102e+02 7.433479e+01 6.865225e+01 8.911843e+01 9.137241e+01 7.840980e+01 4.848603e+01 3.257024e+01 2.638547e+01 2.143882e+00 3.036551e+00 3.856999e+00 1.168440e+01 1.016636e+01 6.529513e+00 4.095882e+00 7.458948e+00 5.743747e+00 4.126389e+00 3.756441e+00 1.798815e+00 2.037192e+00 2.255099e-01 3.691655e-01 6.208834e-01 1.458512e+00 1.096004e+00 7.281914e-01 5.038187e-01 8.131575e-01 7.964530e-01 6.180173e-01 5.372220e-01 3.311793e-01 3.435008e-01
<GCONST> 1.383345e+02
<TRANSP> 5
 0.000000e+00 1.000000e+00 0.000000e+00 0.000000e+00 0.000000e+00
 0.000000e+00 6.553252e-01 3.446747e-01 0.000000e+00 0.000000e+00
 0.000000e+00 0.000000e+00 7.992311e-01 2.007689e-01 0.000000e+00
 0.000000e+00 0.000000e+00 0.000000e+00 8.027485e-01 1.972516e-01
 0.000000e+00 0.000000e+00 0.000000e+00 0.000000e+00 0.000000e+00
<ENDHMM>
~h "h"
<BEGINHMM>
<NUMSTATES> 5
<STATE> 2
<NUMMIXES> 2
<MIXTURE> 1 5.859423e-01
<MEAN> 39
 1.364758e+01 -7.170884e+00 -7.431189e+00 9.054426e+00 8.844439e+00 5.248280e+00 -4.686537e+00 6.320086e+00 -3.138417e-01 8.565718e+00 2.564302e+01 5.991308e+00 -3.277857e+00 -2.955904e-01 1.865500e-01 2.469277e-01 3.618504e-01 3.070450e-01 2.343097e-01 -2.745316e-02 -2.390819e-01 1.743213e-01 4.942190e-01 2.440930e-01 1.271540e-01 -1.008632e-01 3.168378e-02 1.909643e-02 3.868286e-02 3.798295e-02 7.594244e-02 -1.155381e-01 -1.712524e-01 6.261238e-02 -1.028688e-01 -3.218703e-01 -1.387076e-01 -5.007870e-02 -1.246355e-02
<VARIANCE> 39
 7.589562e+00 1.904621e+01 3.775758e+01 3.637240e+01 4.773404e+01 2.080951e+01 5.898523e+01 4.991898e+01 3.414563e+01 9.024896e+01 3.623273e+01 2.722941e+01 3.060405e+01 2.806724e-01 8.975694e-01 1.101509e+00 1.343962e+00 1.735152e+00 1.442897e+00 3.300132e+00 1.855917e+00 1.933180e+00 3.652447e+00 2.532971e+00 1.182323e+00 1.364587e+00 2.897097e-02 1.110460e-01 1.258130e-01 1.579143e-01 1.678138e-01 2.164529e-01 2.825238e-01 2.850671e-01 2.583240e-01 2.787356e-01 3.246028e-01 2.114809e-01 2.111180e-01
<GCONST> 9.986187e+01
<MIXTURE> 2 4.140575e-01
<MEAN> 39
 -1.087532e+01 -3.873803e+00 -3.362841e+00 2.798353e+00 1.612180e+00 2.469082e+00 -2.534955e+00 4.996222e+00 -3.087295e+00 -3.799052e+00 4.564651e+00 2.100079e+00 1.224257e+00 -3.911620e-01 -4.036523e-02 -1.874191e-01 -3.221512e-01 -5.134915e-01 -6.571545e-02 5.629159e-01 3.957438e-01 4.225827e-01 2.920574e-01 -2.923714e-01 -5.556060e-02 9.004976e-02 8.010669e-02 -6.541598e-02 -2.757698e-02 -8.831580e-03 -9.326559e-03 -5.588011e-02 -3.715235e-02 1.228497e-01 3.405958e-02 -4.064154e-02 6.087261e-02 -3.033908e-02 -8.529471e-02
<VARIANCE> 39
 3.052408e+02 5.519211e+01 5.427216e+01 1.244386e+02 9.722150e+01 6.020325e+01 7.230593e+01 9.005251e+01 5.575117e+01 5.236383e+01 5.337953e+01 3.648971e+01 3.271929e+01 1.807677e+00 1.392650e+00 1.776937e+00 1.712394e+00 1.913399e+00 2.275221e+00 2.765784e+00 3.210057e+00 2.315596e+00 2.411379e+00 1.983279e+00 1.469035e+00 1.405204e+00 8.578893e-02 1.353880e-01 1.776638e-01 2.063733e-01 2.463296e-01 3.058960e-01 3.528685e-01 3.774524e-01 3.622550e-01 3.446308e-01 2.979075e-01 2.526101e-01 2.339512e-01
<GCONST> 1.170613e+02
<STATE> 3
<NUMMIXES> 2
<MIXTURE> 1 4.881508e-01
<MEAN> 39
 6.516685e+00 -1.085849e-01 8.054778e+00 2.473561e+01 1.835438e+01 1.907238e+00 -1.164616e+01 9.822749e+00 3.511553e+00 6.015403e-01 1.351160e+01 -4.905965e+00 -1.142739e+01 -1.497932e-02 1.659778e-01 6.787428e-02 -9.981730e-02 -8.722797e-02 -1.493521e-01 -1.112239e-01 2.475732e-01 1.827878e-01 -1.645071e-01 -5.884176e-03 1.512922e-01 -5.197937e-02 1.055421e-01 -6.354049e-02 -7.296625e-02 -5.633681e-02 4.710374e-02 -6.489149e-02 -1.982530e-01 -3.149404e-02 -1.402724e-01 -1.994882e-01 8.828232e-02 5.198454e-02 -3.471982e-02
<VARIANCE> 39
 1.157975e+01 3.096430e+01 3.869895e+01 4.363440e+01 2.319973e+01 2.961594e+01 2.946973e+01 3.529928e+01 4.486427e+01 5.897507e+01 5.096784e+01 2.791123e+01 2.965355e+01 4.292290e-01 5.850450e-01 1.086981e+00 1.655372e+00 1.437076e+00 1.292227e+00 2.338593e+00 1.853952e+00 2.462714e+00 3.289340e+00 2.323104e+00 1.304866e+00 1.471364e+00 2.744922e-02 9.817930e-02 1.280298e-01 1.966734e-01 1.957377e-01 2.056205e-01 2.779511e-01 2.895739e-01 2.720598e-01 3.031252e-01 3.209517e-01 2.072551e-01 2.458334e-01
<GCONST> 9.994064e+01
<MIXTURE> 2 5.118490e-01
<MEAN> 39
 1.350900e+01 -1.853400e-01 -1.907136e+00 4.950219e+00 -6.315576e+00 -1.960363e+00 1.138378e+01 2.629406e+01 6.244467e+00 -5.659876e+00 3.621123e+00 3.009290e+00 2.379300e+00 5.876060e-02 1.350367e-01 4.018151e-02 -1.469022e-01 -3.087671e-01 -2.270108e-01 1.287550e-01 1.283611e-01 -1.350011e-01 -1.777366e-01 -5.105634e-02 5.912264e-03 -7.853047e-02 6.078568e-02 -3.727166e-02 -4.821616e-02 1.172274e-02 1.047194e-01 -9.013633e-02 -2.411321e-01 -8.542106e-02 -5.408305e-02 -6.850623e-02 6.011466e-02 -9.053845e-03 -7.825155e-02
<VARIANCE> 39
 4.550124e+01 7.152759e+01 5.607007e+01 2.257981e+01 7.193768e+01 7.851695e+01 7.545261e+01 7.090897e+01 4.392556e+01 6.440178e+01 3.729909e+01 2.158090e+01 2.297099e+01 8.222522e-01 9.468755e-01 1.101243e+00 9.184573e-01 1.505502e+00 2.128893e+00 3.186592e+00 2.359577e+00 1.452094e+00 1.773697e+00 1.475940e+00 1.049525e+00 1.143404e+00 4.122240e-02 1.008855e-01 1.241720e-01 1.344478e-01 1.627099e-01 2.125454e-01 2.346388e-01 2.781972e-01 2.160135e-01 2.304228e-01 2.165271e-01 1.875955e-01 1.670866e-01
<GCONST> 1.027046e+02
<STATE> 4
<NUMMIXES> 2
<MIXTURE> 1 5.479291e-01
<MEAN> 39
 1.231148e+01 -2.526594e+00 1.051248e+00 1.869632e+01 1.949183e+01 -3.713259e-01 -2.009956e+01 6.749662e+00 -3.772654e+00 -5.013426e+00 2.218556e+01 1.347536e+00 -1.072631e+01 7.531339e-01 -4.497075e-01 -9.081832e-01 -2.951342e-01 7.853350e-01 -4.613494e-01 -1.426902e+00 -7.325980e-02 -9.428928e-01 -1.701686e+00 -6.704765e-02 1.099135e-01 -5.330983e-02 1.021621e-02 -1.688214e-01 -3.206740e-01 -1.155690e-01 9.547054e-02 1.321494e-01 5.790136e-02 -1.333595e-01 3.766390e-02 1.520827e-01 -7.207575e-02 5.873442e-02 1.265506e-01
<VARIANCE> 39
 9.486116e+00 1.584453e+01 3.833979e+01 2.804170e+01 1.882602e+01 1.940670e+01 3.120293e+01 3.665648e+01 3.116113e+01 4.199941e+01 4.084328e+01 2.886979e+01 2.720815e+01 3.422266e-01 8.162233e-01 1.653263e+00 1.564968e+00 1.177201e+00 1.491537e+00 2.214058e+00 2.118364e+00 1.368064e+00 2.270653e+00 2.187598e+00 1.201072e+00 1.119029e+00 4.921665e-02 1.051873e-01 1.867711e-01 2.355581e-01 2.023673e-01 2.450687e-01 3.601586e-01 3.416234e-01 2.593025e-01 3.169189e-01 3.530448e-01 2.022462e-01 1.862587e-01
<GCONST> 9.785628e+01
<MIXTURE> 2 4.520710e-01
<MEAN> 39
 4.299634e+00 -8.091980e+00 -1.262703e+01 -5.961181e+00 -1.347750e+01 -6.260746e+00 7.465173e+00 2.119191e+01 8.005652e-01 -8.771586e+00 1.824521e+00 2.632784e+00 2.331551e+00 1.406625e+00 4.604239e-01 5.102786e-01 7.618791e-01 3.443157e-01 -2.653152e-01 -1.022067e-01 3.908209e-01 3.133615e-01 1.163655e-01 2.965414e-01 6.206201e-02 -5.905338e-02 1.026196e-02 2.501002e-02 1.389845e-01 1.966877e-01 2.548010e-01 3.673803e-02 -1.804053e-01 -7.589809e-02 -1.948675e-02 -2.251617e-02 6.478923e-02 -2.176769e-02 -7.001384e-02
<VARIANCE> 39
 1.188788e+02 7.726342e+01 9.706018e+01 9.911819e+01 1.204984e+02 6.672760e+01 1.019817e+02 1.342269e+02 4.587808e+01 8.544472e+01 9.182941e+01 2.229888e+01 2.565606e+01 2.073530e+00 1.898333e+00 3.191927e+00 3.149084e+00 4.683295e+00 3.491898e+00 3.171804e+00 2.799953e+00 2.197887e+00 2.658799e+00 2.115067e+00 1.461143e+00 1.521747e+00 1.021371e-01 2.000110e-01 3.607696e-01 3.784274e-01 4.060766e-01 4.652255e-01 5.000385e-01 4.690999e-01 3.809887e-01 4.205360e-01 3.233479e-01 2.564340e-01 2.550528e-01
<GCONST> 1.249178e+02
<TRANSP> 5
 0.000000e+00 1.000000e+00 0.000000e+00 0.000000e+00 0.000000e+00
 0.000000e+00 8.530315e-01 1.469685e-01 0.000000e+00 0.000000e+00
 0.000000e+00 0.000000e+00 8.811406e-01 1.188594e-01 0.000000e+00
 0.000000e+00 0.000000e+00 0.000000e+00 7.761592e-01 2.238408e-01
 0.000000e+00 0.000000e+00 0.000000e+00 0.000000e+00 0.000000e+00
<ENDHMM>
~h "i"
<BEGINHMM>
<NUMSTATES> 7
<STATE> 2
<NUMMIXES> 2
<MIXTURE> 1 5.169132e-01
<MEAN> 39
 -3.769594e+00 -6.053946e+00 3.981766e+00 1.045158e+01 8.304795e+00 2.961677e+00 -7.046700e+00 7.005345e+00 -4.660891e+00 -8.524536e+00 3.649667e+00 -9.246258e-01 -1.894767e+00 7.754694e-01 -1.629316e-01 2.688445e-01 5.857934e-01 6.922446e-01 -1.402840e-01 -7.951773e-01 1.763881e-01 -2.321904e-01 -5.713906e-01 5.553430e-01 -6.181487e-02 -6.134737e-01 1.238384e-01 -6.056771e-02 -2.190615e-02 6.739804e-02 1.551334e-01 -2.497989e-02 -2.238325e-01 2.657438e-02 -5.246256e-02 -1.412445e-01 1.727032e-01 -1.920588e-02 -1.907038e-01
<VARIANCE> 39
 2.815171e+02 1.454213e+02 1.325369e+02 1.804254e+02 1.119109e+02 9.345695e+01 8.949448e+01 8.709856e+01 8.325568e+01 8.626299e+01 7.577087e+01 4.086182e+01 4.531420e+01 4.592713e+00 3.574219e+00 2.983786e+00 3.519603e+00 3.558129e+00 2.656271e+00 3.737411e+00 2.716553e+00 2.378971e+00 2.984201e+00 3.419138e+00 2.034658e+00 2.651822e+00 2.725688e-01 3.469817e-01 4.015164e-01 4.019785e-01 3.755969e-01 3.264058e-01 3.919949e-01 4.627891e-01 3.598800e-01 4.649710e-01 4.293707e-01 2.969526e-01 3.069389e-01
<GCONST> 1.328986e+02
<MIXTURE> 2 4.830868e-01
<MEAN> 39
 1.145057e+01 -9.718903e+00 7.892807e+00 2.799283e+01 2.376246e+01 3.939699e+00 -1.789224e+01 4.003219e+00 -7.613527e+00 -1.583638e+01 8.246724e+00 -3.127991e+00 -1.120668e+01 1.621999e+00 -7.467588e-01 -7.545964e-01 8.686797e-01 2.786745e+00 -1.045614e+00 -3.976979e+00 -1.054374e-01 -8.521342e-01 -2.810578e+00 1.168174e+00 4.699192e-01 -2.391827e+00 -4.116604e-01 -1.598221e-01 4.249731e-02 -3.242410e-01 -2.627935e-01 -4.045304e-02 1.133997e-01 4.808056e-01 2.404116e-01 -1.372063e-03 -5.158612e-02 2.413322e-02 1.549913e-01
<VARIANCE> 39
 1.514970e+01 2.783071e+01 4.754768e+01 9.485126e+01 3.258721e+01 3.550508e+01 4.288933e+01 3.681776e+01 3.720480e+01 3.387492e+01 4.326762e+01 1.996636e+01 2.558236e+01 1.078287e+00 2.089373e+00 2.762267e+00 2.306492e+00 2.318607e+00 2.304715e+00 2.654372e+00 3.549985e+00 2.271858e+00 3.146752e+00 3.869438e+00 1.427879e+00 1.794106e+00 1.394429e-01 3.358604e-01 4.153624e-01 4.136195e-01 3.389728e-01 2.850407e-01 3.888812e-01 4.560536e-01 3.500938e-01 4.161267e-01 4.440404e-01 1.962601e-01 2.393103e-01
<GCONST> 1.138543e+02
<STATE> 3
<NUMMIXES> 2
<MIXTURE> 1 3.995672e-01
<MEAN> 39
 1.628203e+01 -1.083998e+01 2.317876e+00 2.167780e+01 2.684909e+01 1.904841e+00 -2.552824e+01 8.167258e+00 -1.143320e+01 -2.492286e+01 1.508979e+01 6.856748e-01 -1.476570e+01 4.672160e-01 -8.628532e-01 -2.190311e-02 -1.382275e-01 1.253403e+00 -4.628041e-01 -2.509273e+00 8.861600e-01 -1.728331e-01 -1.564918e+00 1.425925e+00 5.452163e-02 -1.540460e+00 -3.387980e-01 2.397775e-01 2.444857e-01 -1.657901e-01 -4.215325e-01 1.743100e-01 6.424118e-01 -8.435547e-02 2.816670e-01 6.043028e-01 -4.338951e-01 -1.796206e-01 3.806895e-01
<VARIANCE> 39
 1.326843e+01 1.985610e+01 4.970713e+01 9.294907e+01 3.185435e+01 2.341376e+01 5.475326e+01 4.165508e+01 3.714791e+01 4.212968e+01 6.656014e+01 2.126117e+01 3.060995e+01 5.599363e-01 9.686527e-01 1.343861e+00 1.214861e+00 1.028849e+00 1.327838e+00 1.827647e+00 1.968102e+00 1.264555e+00 1.734125e+00 2.116500e+00 1.077868e+00 1.047476e+00 9.824248e-02 1.454536e-01 2.149592e-01 2.180499e-01 2.234531e-01 1.695461e-01 3.338226e-01 3.870824e-01 2.110861e-01 3.632851e-01 2.902454e-01 1.829223e-01 2.030516e-01
<GCONST> 1.014688e+02
<MIXTURE> 2 6.004329e-01
<MEAN> 39
 1.718834e+01 -1.193781e+01 2.932647e-01 1.615845e+01 2.630905e+01 1.052212e+00 -2.884270e+01 8.997880e+00 -1.309030e+01 -2.685369e+01 1.994590e+01 1.464544e+00 -1.722551e+01 -2.344392e-01 -5.742504e-02 5.166930e-01 1.550616e-01 1.634901e-01 2.262948e-01 -1.758398e-01 -2.012179e-01 -1.111738e-01 3.174146e-02 2.190314e-01 -3.413307e-01 -6.259458e-01 5.730910e-03 6.327794e-02 -3.243783e-02 4.239491e-02 -5.301327e-02 1.069800e-01 2.349278e-01 -3.255900e-02 -1.263497e-02 8.622602e-02 -1.099838e-01 -3.459903e-03 1.320647e-01
<VARIANCE> 39
 6.781977e+00 1.185585e+01 2.670461e+01 2.308283e+01 1.895700e+01 1.769060e+01 3.377718e+01 3.758465e+01 2.411956e+01 2.459803e+01 4.157946e+01 1.225092e+01 3.172095e+01 3.856224e-01 3.939959e-01 6.984413e-01 9.369588e-01 5.634999e-01 6.851807e-01 1.371189e+00 1.436866e+00 6.108853e-01 1.172048e+00 1.318211e+00 5.500001e-01 9.948641e-01 5.586873e-02 5.916664e-02 8.066192e-02 7.848498e-02 7.539203e-02 9.358232e-02 1.936754e-01 2.120833e-01 8.586862e-02 1.811915e-01 1.870454e-01 8.044503e-02 1.019556e-01
<GCONST> 7.871931e+01
<STATE> 4
<NUMMIXES> 2
<MIXTURE> 1 4.324344e-01
<MEAN> 39
 1.543582e+01 -1.400603e+01 3.991067e+00 2.352082e+01 3.294711e+01 6.907351e-01 -3.419347e+01 1.019479e+01 -1.042041e+01 -2.671889e+01 1.691251e+01 -1.187905e+00 -1.838894e+01 -2.154667e-02 2.546302e-01 -1.623945e-01 4.886606e-02 -1.065562e-01 2.145608e-01 5.093970e-01 -3.957605e-01 -1.855250e-01 2.502098e-01 -6.129136e-02 6.190512e-02 9.258343e-02 -1.689756e-01 2.539111e-01 5.308311e-03 5.658847e-02 -3.237653e-01 7.420093e-02 6.195034e-01 -4.089195e-01 1.160938e-01 4.813448e-01 -4.493269e-01 1.161726e-02 3.313075e-01
<VARIANCE> 39
 7.811944e+00 1.118848e+01 4.081632e+01 5.101530e+01 2.954888e+01 2.181188e+01 4.063821e+01 2.924610e+01 3.711412e+01 1.937913e+01 4.098518e+01 1.355399e+01 2.635295e+01 5.137127e-01 5.796464e-01 7.122856e-01 1.127299e+00 9.835086e-01 9.247940e-01 2.224969e+00 2.041749e+00 8.960040e-01 1.655153e+00 1.615469e+00 6.629841e-01 8.259330e-01 5.223753e-02 9.290838e-02 1.247674e-01 1.376784e-01 1.383316e-01 1.409525e-01 2.408125e-01 2.374476e-01 1.528765e-01 2.349259e-01 2.006682e-01 1.064909e-01 1.726374e-01
<GCONST> 8.864672e+01
<MIXTURE> 2 5.675650e-01
<MEAN> 39
 1.125011e+01 -1.291679e+01 8.749591e+00 3.285315e+01 3.177671e+01 5.882656e-02 -2.876368e+01 5.648118e+00 -2.632310e+00 -2.009704e+01 5.468746e+00 -3.372735e+00 -1.587063e+01 7.012042e-02 -6.021164e-02 -1.083619e-01 -3.343628e-01 1.210371e-01 2.664355e-02 -3.770208e-01 1.675970e-01 1.290409e-02 -2.892744e-01 1.543571e-01 1.002671e-01 -8.285897e-02 6.422394e-02 -1.692386e-02 -6.713103e-03 -2.525562e-02 -7.542637e-04 4.900701e-02 -1.075552e-02 1.080506e-01 -9.299634e-02 -7.521001e-02 1.413667e-01 -3.169207e-04 5.370922e-03
<VARIANCE> 39
 6.965414e+00 1.138886e+01 3.394327e+01 4.810563e+01 2.571973e+01 1.679613e+01 4.022390e+01 2.483303e+01 3.166078e+01 2.840217e+01 2.940982e+01 1.510413e+01 1.839753e+01 3.520822e-01 4.101067e-01 6.226524e-01 9.309588e-01 8.455809e-01 7.629187e-01 1.629544e+00 1.283741e+00 1.041823e+00 1.214663e+00 1.088805e+00 6.398514e-01 7.712532e-01 5.881603e-02 6.725769e-02 8.379571e-02 1.267051e-01 1.467224e-01 1.094316e-01 2.542548e-01 2.051951e-01 1.328676e-01 1.911967e-01 1.639316e-01 1.002254e-01 1.188703e-01
<GCONST> 8.259353e+01
<STATE> 5
<NUMMIXES> 2
<MIXTURE> 1 6.451848e-01
<MEAN> 39
 1.494032e+01 -9.774774e+00 3.587419e+00 2.154782e+01 2.725050e+01 6.011884e+00 -2.365175e+01 4.112615e+00 -1.245394e+01 -2.234268e+01 1.565538e+01 -5.302939e-01 -1.654781e+01 -8.817640e-01 1.425175e+00 9.765349e-01 -2.456367e-01 -1.697462e+00 1.636080e+00 3.033477e+00 -1.755569e+00 8.392340e-01 2.641815e+00 -2.406768e+00 -3.569480e-01 2.060407e+00 -3.510593e-01 3.383531e-01 5.352018e-01 -2.833714e-01 -4.350101e-01 2.795611e-01 4.028193e-01 -1.423745e-01 3.299183e-01 6.070018e-01 -5.514893e-01 -1.492006e-01 5.398826e-01
<VARIANCE> 39
 9.673720e+00 2.261438e+01 4.162007e+01 5.197502e+01 3.877371e+01 4.630133e+01 5.304697e+01 4.934023e+01 3.321282e+01 4.094330e+01 5.578337e+01 1.949792e+01 3.008751e+01 6.333722e-01 2.920295e+00 1.891898e+00 1.419906e+00 1.463351e+00 2.544728e+00 2.122011e+00 3.262835e+00 1.861162e+00 2.593615e+00 2.033673e+00 9.918486e-01 1.409324e+00 8.062930e-02 2.167292e-01 2.225848e-01 1.824504e-01 1.851783e-01 2.377556e-01 3.234229e-01 3.904472e-01 3.272840e-01 3.436382e-01 2.936486e-01 1.924407e-01 2.107896e-01
<GCONST> 1.061321e+02
<MIXTURE> 2 3.548150e-01
<MEAN> 39
 1.169547e+01 -6.665423e+00 7.690697e+00 2.878692e+01 2.621610e+01 4.965340e-01 -2.262454e+01 3.279423e+00 -6.030488e+00 -1.680209e+01 6.745338e+00 -1.945185e+00 -1.265549e+01 -1.355292e-01 8.385790e-01 -9.934523e-02 -1.968406e-01 -6.127440e-01 1.848655e-01 1.222597e+00 -2.123886e-01 -7.955802e-02 6.766807e-01 -3.464366e-01 1.445947e-01 6.707978e-01 2.352838e-02 -3.212643e-02 -4.122452e-02 -1.116807e-01 -6.309021e-03 6.737866e-02 6.130333e-04 1.884335e-01 2.641442e-02 -8.615129e-02 6.157783e-02 2.394140e-02 3.645262e-02
<VARIANCE> 39
 1.123199e+01 2.461574e+01 4.920822e+01 6.814718e+01 3.839952e+01 3.429668e+01 7.190456e+01 5.332316e+01 6.107570e+01 4.548635e+01 7.882141e+01 3.500327e+01 2.256277e+01 4.152424e-01 1.282952e+00 1.186269e+00 1.821728e+00 1.596539e+00 1.375648e+00 2.840869e+00 2.256510e+00 1.489486e+00 2.480983e+00 2.191393e+00 1.204342e+00 1.322487e+00 5.305727e-02 1.254253e-01 1.366377e-01 1.997842e-01 2.141464e-01 2.052855e-01 3.124915e-01 3.340116e-01 2.448949e-01 3.085259e-01 2.195595e-01 1.690226e-01 1.536746e-01
<GCONST> 1.034158e+02
<STATE> 6
<NUMMIXES> 2
<MIXTURE> 1 8.690482e-01
<MEAN> 39
 5.972737e+00 2.301255e+00 7.915168e+00 1.967721e+01 1.968500e+01 9.402794e+00 -8.251874e+00 3.770593e+00 -3.905085e+00 -8.564581e+00 4.143114e+00 -1.534276e+00 -5.782067e+00 -1.863546e+00 1.577857e+00 1.438684e+00 -1.106839e+00 -1.884940e+00 1.228068e+00 2.427606e+00 -3.661014e-01 1.044507e+00 2.187216e+00 -1.758256e+00 -3.395974e-01 1.810294e+00 -1.308578e-01 -4.157693e-01 7.720682e-02 -1.170792e-01 7.610531e-02 -8.304235e-02 -3.872840e-01 1.472120e-01 -3.176971e-01 -3.555382e-01 4.404642e-01 5.267431e-02 -2.577170e-01
<VARIANCE> 39
 6.948292e+01 7.519840e+01 3.692276e+01 4.252950e+01 4.326471e+01 5.873191e+01 8.017078e+01 7.451567e+01 5.265817e+01 7.971293e+01 5.040582e+01 1.976405e+01 2.874587e+01 9.730632e-01 4.117674e+00 3.350880e+00 1.813941e+00 1.667969e+00 2.836443e+00 2.518511e+00 3.556629e+00 2.907371e+00 3.006258e+00 3.008701e+00 1.374323e+00 2.203198e+00 1.104331e-01 2.234815e-01 2.917709e-01 2.319013e-01 2.750102e-01 2.199181e-01 2.940570e-01 4.776458e-01 2.897635e-01 3.152721e-01 2.715129e-01 1.876297e-01 1.950458e-01
<GCONST> 1.158864e+02
<MIXTURE> 2 1.309517e-01
<MEAN> 39
 -1.351257e+01 -9.340211e+00 -2.908049e+00 6.683567e+00 7.672708e+00 1.307705e+00 -1.049494e+01 2.009218e+00 -5.554584e+00 -8.738868e+00 3.666156e+00 1.699149e+00 -3.037038e+00 5.756527e-02 -1.901440e-02 -2.473784e-01 -2.726603e-01 -1.653559e-01 -1.087465e-01 2.059480e-02 4.806684e-02 -1.854223e-01 -1.058470e-01 9.813055e-02 1.180814e-01 1.268401e-01 4.278630e-02 5.967605e-03 4.055277e-02 1.320501e-02 4.746058e-02 2.323042e-02 -6.895748e-02 7.726091e-02 1.734653e-02 -6.556989e-02 7.943492e-02 9.031228e-04 -5.015458e-02
<VARIANCE> 39
 3.230415e+02 1.867036e+01 6.622485e+01 2.096137e+02 2.057504e+02 3.155989e+01 1.878923e+02 2.952929e+01 4.226437e+01 9.306541e+01 3.017281e+01 3.339402e+01 5.063403e+01 1.913794e-01 3.604594e-01 6.941373e-01 8.852696e-01 8.598500e-01 1.066688e+00 1.119551e+00 1.223866e+00 1.454728e+00 1.190274e+00 1.200795e+00 1.317422e+00 9.317625e-01 4.030544e-02 5.340393e-02 7.810700e-02 1.191506e-01 1.676603e-01 2.058961e-01 2.567249e-01 2.645551e-01 2.467053e-01 2.208659e-01 2.440982e-01 2.591980e-01 1.815013e-01
<GCONST> 1.001915e+02
<TRANSP> 7
 0.000000e+00 1.000000e+00 0.000000e+00 0.000000e+00 0.000000e+00 0.000000e+00 0.000000e+00
 0.000000e+00 7.158853e-01 2.841147e-01 0.000000e+00 0.000000e+00 0.000000e+00 0.000000e+00
 0.000000e+00 0.000000e+00 8.214524e-01 1.785475e-01 0.000000e+00 0.000000e+00 0.000000e+00
 0.000000e+00 0.000000e+00 0.000000e+00 8.917454e-01 1.082545e-01 0.000000e+00 0.000000e+00
 0.000000e+00 0.000000e+00 0.000000e+00 0.000000e+00 7.391235e-01 2.608765e-01 0.000000e+00
 0.000000e+00 0.000000e+00 0.000000e+00 0.000000e+00 0.000000e+00 6.942347e-01 3.057653e-01
 0.000000e+00 0.000000e+00 0.000000e+00 0.000000e+00 0.000000e+00 0.000000e+00 0.000000e+00
<ENDHMM>
~h "j"
<BEGINHMM>
<NUMSTATES> 5
<STATE> 2
<NUMMIXES> 2
<MIXTURE> 1 6.885709e-01
<MEAN> 39
 2.512150e+00 1.933202e+01 1.772957e+01 1.814288e+01 1.472510e+01 1.350688e+01 4.552506e+00 7.622495e+00 -4.793525e-01 -4.542935e+00 -4.583748e+00 -5.631111e+00 -3.616285e+00 -2.247950e-01 -2.239401e-01 1.101925e-01 2.097065e-01 -1.515961e-02 1.531790e-01 2.586216e-01 2.268830e-01 3.511558e-01 2.376972e-01 -9.732123e-02 4.916825e-02 2.344707e-01 -1.309926e-01 -4.007331e-01 -6.161950e-02 1.183287e-01 -5.686426e-02 -6.259926e-02 -7.975753e-02 1.740380e-02 1.531732e-01 7.224096e-02 3.412737e-02 1.062374e-01 1.844525e-01
<VARIANCE> 39
 9.862601e+00 5.594880e+00 1.111680e+01 8.441436e+00 4.337915e+00 7.144308e+00 8.056982e+00 1.280095e+01 1.374017e+01 1.248193e+01 9.498796e+00 7.815426e+00 5.607647e+00 7.775733e-01 1.195011e+00 1.252399e+00 1.198371e+00 6.360143e-01 5.734374e-01 6.480855e-01 5.961188e-01 8.782040e-01 1.022880e+00 8.741932e-01 7.075288e-01 8.255513e-01 5.820619e-02 2.294129e-01 2.413456e-01 2.183853e-01 1.047816e-01 9.338464e-02 1.042549e-01 9.394573e-02 1.303503e-01 1.284161e-01 1.356014e-01 1.093390e-01 1.352455e-01
<GCONST> 7.025484e+01
<MIXTURE> 2 3.114294e-01
<MEAN> 39
 -1.008123e+01 8.580633e+00 1.002350e+01 1.151938e+01 9.437001e+00 1.123638e+01 3.989593e+00 8.006935e+00 2.203324e+00 5.435724e-01 1.378463e+00 -1.090681e+00 3.798307e-02 1.812722e+00 2.242532e+00 2.110989e+00 1.374691e+00 9.480978e-01 1.090175e+00 7.750615e-01 2.156615e-01 2.949562e-02 -1.044691e-01 -4.935727e-01 -4.608729e-01 -3.036062e-01 1.202287e-02 -2.015401e-01 -3.336468e-02 -3.205355e-02 -1.110688e-01 -1.154948e-01 -1.888542e-01 -1.424949e-01 -1.990092e-01 -2.327811e-01 -9.027856e-02 -1.119751e-01 -1.211539e-01
<VARIANCE> 39
 9.264330e+01 4.810427e+01 3.656133e+01 3.747882e+01 2.946110e+01 1.815952e+01 1.477080e+01 1.298478e+01 1.372839e+01 2.221067e+01 1.492387e+01 1.160302e+01 9.516694e+00 3.427561e+00 1.168539e+00 1.957700e+00 2.369864e+00 3.360770e+00 1.976618e+00 2.119393e+00 1.634680e+00 1.644596e+00 1.955862e+00 1.427191e+00 1.178578e+00 9.556276e-01 2.506770e-01 4.088969e-01 2.979699e-01 4.108380e-01 4.049845e-01 2.781788e-01 2.700877e-01 2.285918e-01 2.334444e-01 2.170549e-01 2.637887e-01 1.619074e-01 1.237070e-01
<GCONST> 1.020974e+02
<STATE> 3
<NUMMIXES> 2
<MIXTURE> 1 5.123907e-01
<MEAN> 39
 -2.381006e+00 3.549202e+00 1.983977e+01 2.451920e+01 1.137215e+01 1.500777e+01 4.679173e+00 8.725175e+00 6.230194e+00 -1.885598e+00 -4.706129e+00 -2.026713e+00 3.400331e+00 -1.588173e+00 -5.372174e+00 1.290400e+00 9.157789e-01 -1.570523e+00 1.194696e+00 -2.794538e-01 2.056001e-01 1.577433e+00 -1.409360e-01 8.571316e-01 1.152266e+00 7.176856e-01 -6.854568e-02 -9.497531e-01 1.031640e-01 -3.845315e-01 -3.465246e-01 2.398541e-02 -3.109784e-01 1.502188e-01 -9.540885e-02 -4.989106e-01 5.608093e-01 3.657214e-01 -3.798396e-01
<VARIANCE> 39
 1.826504e+01 7.522200e+01 2.737155e+01 2.188237e+01 2.959130e+01 2.112096e+01 2.040062e+01 2.096592e+01 4.730974e+01 3.019735e+01 2.683398e+01 1.993443e+01 1.851658e+01 6.518474e-01 3.890863e+00 3.008782e+00 2.197875e+00 2.091768e+00 1.990375e+00 2.192527e+00 1.562202e+00 1.842018e+00 2.503564e+00 2.939366e+00 2.034799e+00 2.184124e+00 7.581495e-02 4.730623e-01 2.348537e-01 4.083901e-01 2.607599e-01 3.935288e-01 2.682659e-01 2.406641e-01 2.881663e-01 3.339055e-01 3.084452e-01 2.547262e-01 2.745704e-01
<GCONST> 1.069682e+02
<MIXTURE> 2 4.876093e-01
<MEAN> 39
 -9.895791e+00 -2.633820e+01 2.744225e+01 2.161868e+01 -7.488157e-01 1.781440e+01 -2.506608e-01 1.091846e+01 1.085954e+01 -7.208651e+00 3.749901e+00 6.017010e+00 2.399074e+00 -8.439685e-01 -4.936751e+00 2.662873e+00 -7.433986e-01 -2.165417e+00 4.570260e-01 -2.119250e+00 -1.491906e-01 1.751905e-01 -1.088490e+00 1.477302e+00 5.574721e-01 -6.890976e-01 5.527089e-01 1.049312e+00 -3.653028e-02 2.897608e-01 7.569635e-01 9.295523e-02 -3.203526e-01 -4.672436e-01 -4.333211e-01 1.515467e-01 -4.013300e-01 -6.480384e-01 -4.809589e-02
<VARIANCE> 39
 2.116626e+01 7.870683e+01 6.590387e+01 4.739730e+01 5.956535e+01 3.925998e+01 5.113926e+01 2.968068e+01 7.391505e+01 3.245310e+01 3.555468e+01 2.643301e+01 2.134356e+01 1.565080e+00 3.295587e+00 2.690035e+00 4.039373e+00 4.532485e+00 3.759208e+00 2.303065e+00 2.178403e+00 2.450991e+00 2.739011e+00 1.931039e+00 3.434215e+00 1.328645e+00 2.172496e-01 4.319163e-01 9.168303e-01 7.377305e-01 8.931112e-01 7.668381e-01 4.944728e-01 3.184847e-01 3.625913e-01 4.305081e-01 3.026754e-01 3.656089e-01 2.396126e-01
<GCONST> 1.219967e+02
<STATE> 4
<NUMMIXES> 2
<MIXTURE> 1 5.102356e-01
<MEAN> 39
 -6.163799e+00 -3.378447e+01 3.214413e+01 2.247260e+01 2.311385e+00 2.310476e+01 -8.813987e+00 3.442722e+00 6.355848e+00 -9.392923e+00 4.903485e+00 2.823051e+00 -8.333216e-01 2.311946e+00 1.640365e+00 -1.640568e+00 2.067770e-01 1.905780e+00 2.664327e-01 -9.253525e-01 -2.306388e+00 -1.509443e+00 -4.563361e-01 -9.627442e-01 -7.588141e-01 -5.217597e-01 4.414698e-01 8.265249e-01 -1.087028e+00 -1.832518e-01 2.785276e-01 -5.290875e-01 1.486520e-01 -6.658082e-02 -4.850039e-02 -2.650126e-02 -3.234850e-01 1.297487e-01 7.624541e-02
<VARIANCE> 39
 3.629999e+01 5.856360e+01 8.186556e+01 5.876262e+01 4.557844e+01 3.529045e+01 5.044897e+01 5.129527e+01 7.031050e+01 2.929751e+01 3.556514e+01 2.814796e+01 2.464166e+01 2.055385e+00 4.004677e+00 4.696212e+00 1.843879e+00 1.606346e+00 3.706026e+00 3.685581e+00 3.013746e+00 2.204991e+00 1.544928e+00 1.839087e+00 1.401982e+00 1.028769e+00 2.533280e-01 7.306229e-01 6.869026e-01 2.522192e-01 4.612280e-01 4.079571e-01 4.775481e-01 6.251748e-01 3.919956e-01 3.022879e-01 3.689662e-01 2.669682e-01 1.566471e-01
<GCONST> 1.188388e+02
<MIXTURE> 2 4.897643e-01
<MEAN> 39
 1.177786e+01 -2.025198e+01 1.386166e+01 2.219946e+01 1.339575e+01 1.483165e+01 -1.721139e+01 -3.285814e+00 -3.731847e-02 -1.641946e+01 -1.388925e+00 2.887408e-01 -3.977198e+00 2.431376e+00 2.007745e+00 -4.497168e+00 -6.126558e-01 2.006907e+00 -3.177587e+00 -1.433717e+00 1.546337e+00 -6.161643e-01 -1.537384e+00 -2.297020e-02 6.525388e-02 -3.174188e-01 -4.226603e-01 -1.144570e-01 2.388161e-01 -1.042536e-01 -1.637185e-01 -3.296402e-01 1.019260e-01 8.579524e-01 1.558059e-01 -8.150539e-02 4.049537e-01 2.731817e-02 -5.599700e-03
<VARIANCE> 39
 2.705557e+01 2.772959e+01 8.660624e+01 3.338120e+01 3.265044e+01 6.776348e+01 3.552776e+01 3.722100e+01 3.152719e+01 2.370948e+01 3.491193e+01 1.311038e+01 1.606717e+01 1.662794e+00 8.363089e-01 2.517974e+00 7.375259e-01 1.668194e+00 2.299457e+00 2.188647e+00 4.781028e+00 1.101359e+00 1.551948e+00 1.796718e+00 1.471160e+00 7.121123e-01 1.072188e-01 1.230105e-01 3.492510e-01 1.146100e-01 1.652009e-01 3.952498e-01 2.189586e-01 5.602406e-01 1.999361e-01 2.453442e-01 2.060510e-01 1.640451e-01 9.821688e-02
<GCONST> 1.013891e+02
<TRANSP> 5
 0.000000e+00 1.000000e+00 0.000000e+00 0.000000e+00 0.000000e+00
 0.000000e+00 9.057777e-01 9.422233e-02 0.000000e+00 0.000000e+00
 0.000000e+00 0.000000e+00 8.890932e-01 1.109068e-01 0.000000e+00
 0.000000e+00 0.000000e+00 0.000000e+00 9.027665e-01 9.723343e-02
 0.000000e+00 0.000000e+00 0.000000e+00 0.000000e+00 0.000000e+00
<ENDHMM>
~h "k"
<BEGINHMM>
<NUMSTATES> 5
<STATE> 2
<NUMMIXES> 2
<MIXTURE> 1 4.540655e-01
<MEAN> 39
 -2.658860e+01 -6.364187e+00 -5.087130e+00 -2.866302e+00 -3.599675e+00 8.605395e-01 -3.468831e+00 1.137551e+00 -1.791086e+00 -7.951325e-01 6.912612e-01 -7.172896e-01 5.397800e-01 -8.195184e-03 -9.186404e-02 -9.723395e-02 -2.176134e-02 9.998487e-04 -6.935164e-02 -7.750261e-02 -2.921033e-04 2.687404e-02 -2.690000e-02 -5.308686e-02 -2.043045e-03 5.142577e-02 1.407001e-01 3.930703e-03 4.038047e-02 1.262548e-01 1.550692e-01 1.197608e-01 7.777492e-02 9.541701e-02 2.850119e-02 -2.755409e-02 8.102183e-04 6.189103e-02 1.003822e-01
<VARIANCE> 39
 5.662112e-01 1.404962e+00 2.043754e+00 2.815208e+00 3.914891e+00 5.571383e+00 6.254285e+00 6.665658e+00 9.316279e+00 8.329163e+00 6.572230e+00 7.514518e+00 5.983400e+00 1.538627e-01 2.756065e-01 3.734052e-01 5.339705e-01 7.481778e-01 8.900583e-01 1.047435e+00 1.046474e+00 1.213776e+00 1.112366e+00 1.005228e+00 1.001750e+00 9.259401e-01 7.898714e-02 8.519498e-02 1.094999e-01 1.552797e-01 2.169259e-01 2.411907e-01 2.542974e-01 2.531317e-01 2.670165e-01 2.464978e-01 2.343141e-01 2.259830e-01 2.264429e-01
<GCONST> 6.327996e+01
<MIXTURE> 2 5.459343e-01
<MEAN> 39
 -1.099806e+01 5.749741e+00 7.340892e+00 1.132482e+01 1.062932e+01 1.114740e+01 1.850020e+00 4.989770e+00 -1.953427e+00 -3.217946e+00 -9.645350e-03 -6.196269e-02 1.942201e+00 -2.559610e+00 -1.796522e+00 -1.531788e+00 -1.632057e+00 -1.339570e+00 -4.853746e-01 2.046797e-01 1.258630e-01 1.906967e-01 2.128443e-01 -5.975349e-02 2.066226e-01 4.688589e-01 2.755329e-01 -6.405471e-01 -6.714028e-01 -3.122289e-01 -2.259461e-01 -4.089806e-01 -3.926692e-01 2.721719e-02 -2.759622e-02 -1.513961e-01 5.803901e-02 -9.615853e-02 -1.124969e-01
<VARIANCE> 39
 5.383404e+01 4.826901e+01 3.399346e+01 3.715076e+01 3.293969e+01 2.679530e+01 3.329126e+01 3.155957e+01 4.609213e+01 3.965982e+01 2.968661e+01 4.157673e+01 3.866185e+01 8.165537e-01 4.602274e+00 4.372217e+00 2.548825e+00 2.585139e+00 3.246422e+00 3.121082e+00 2.490651e+00 2.575818e+00 2.218505e+00 1.871238e+00 1.869825e+00 2.450883e+00 1.706232e-01 2.691994e-01 3.265584e-01 3.039285e-01 3.863996e-01 3.710582e-01 3.777842e-01 3.996803e-01 4.386030e-01 4.062160e-01 4.114584e-01 3.287757e-01 3.573623e-01
<GCONST> 1.165320e+02
<STATE> 3
<NUMMIXES> 2
<MIXTURE> 1 6.335653e-01
<MEAN> 39
 -2.031558e+01 -7.803541e+00 -5.948304e+00 7.754785e-01 1.982417e+00 4.285185e+00 -1.861566e+00 5.101618e+00 -6.805933e-01 -3.348536e+00 -8.406186e-01 5.167009e-01 4.466351e+00 1.372509e+00 -1.940200e+00 -2.067368e+00 -9.338993e-01 -7.907259e-01 -1.309420e+00 -1.056742e+00 4.989535e-01 4.976327e-02 -5.533997e-01 -6.721798e-02 -3.775338e-01 2.696274e-01 9.838349e-01 2.070300e-01 4.609534e-01 2.537200e-01 8.879083e-02 1.778544e-01 -1.193112e-02 1.810066e-01 -1.841943e-01 -9.001052e-02 4.153895e-01 -3.155959e-01 -3.927897e-01
<VARIANCE> 39
 2.848142e+01 2.571102e+01 2.321537e+01 3.243357e+01 3.646817e+01 3.233404e+01 3.283511e+01 2.478827e+01 2.527202e+01 2.282655e+01 2.031147e+01 1.733996e+01 1.843336e+01 4.567493e+00 4.487237e+00 4.523127e+00 5.711672e+00 6.067603e+00 4.835625e+00 4.023546e+00 3.839458e+00 3.074863e+00 3.213336e+00 3.289687e+00 2.845988e+00 3.123114e+00 2.261887e-01 3.556504e-01 3.502522e-01 4.688282e-01 5.969587e-01 5.972609e-01 6.092282e-01 6.102105e-01 6.655324e-01 5.040521e-01 5.681646e-01 4.339223e-01 6.967049e-01
<GCONST> 1.226608e+02
<MIXTURE> 2 3.664346e-01
<MEAN> 39
 -7.607199e+00 -1.492611e+01 -1.073656e+01 6.840184e-01 1.799120e+00 1.943466e+00 -5.800188e+00 8.405317e+00 -1.461776e+00 -5.222649e+00 2.278098e+00 -5.258121e+00 1.068220e+00 3.728209e+00 -2.174625e+00 -7.935739e-01 -1.119425e+00 -7.412875e-01 2.702600e-01 -8.887922e-01 6.111235e-01 -2.665318e+00 -1.946814e+00 3.073295e+00 -1.369430e+00 -2.147571e+00 -1.537591e-02 3.228486e-01 6.685555e-01 2.187210e-01 2.930745e-01 5.633880e-01 2.042525e-01 -6.897146e-02 -7.928929e-01 -6.838756e-01 3.251267e-01 2.594047e-01 -1.515815e-02
<VARIANCE> 39
 3.244145e+01 4.804821e+01 2.780368e+01 6.158564e+01 5.303337e+01 5.539435e+01 5.708843e+01 4.135057e+01 3.614664e+01 3.513670e+01 4.344013e+01 2.899405e+01 2.453545e+01 1.337125e+00 2.169250e+00 2.608340e+00 5.087578e+00 3.480461e+00 4.061273e+00 3.590322e+00 3.896171e+00 4.591789e+00 4.341720e+00 3.333400e+00 2.026050e+00 2.034129e+00 2.933855e-01 3.667604e-01 4.416171e-01 5.296467e-01 4.098005e-01 4.555178e-01 4.106135e-01 4.151313e-01 7.207130e-01 4.904037e-01 7.433074e-01 2.722494e-01 4.521685e-01
<GCONST> 1.237007e+02
<STATE> 4
<NUMMIXES> 2
<MIXTURE> 1 5.431527e-01
<MEAN> 39
 -1.158786e-02 -1.403235e+01 3.206248e+00 1.459950e+01 7.390665e+00 4.572413e+00 -5.939951e+00 1.000970e+01 -5.095581e+00 -9.138525e+00 8.368578e+00 -3.940281e+00 -7.935246e-01 1.635318e+00 1.607716e+00 2.238761e+00 3.108541e+00 2.199531e+00 -3.606237e-01 -8.828702e-01 -8.464096e-02 1.058404e+00 1.833275e-01 -1.029529e-01 6.492987e-01 -5.949739e-01 3.532193e-01 -1.199792e-01 -6.547431e-01 -3.782878e-01 2.191436e-01 -3.420177e-01 -7.135509e-01 -1.253696e-01 -3.483866e-01 -6.149005e-01 6.441822e-02 -1.925008e-02 -4.735013e-01
<VARIANCE> 39
 1.062474e+02 1.169622e+02 7.921159e+01 1.666669e+02 7.271744e+01 6.226779e+01 5.353278e+01 5.600829e+01 5.121488e+01 4.116382e+01 3.713866e+01 3.759587e+01 2.560567e+01 2.885272e+00 2.978513e+00 4.734714e+00 5.233264e+00 5.216748e+00 6.188472e+00 5.999869e+00 4.428298e+00 4.030406e+00 4.508029e+00 3.327960e+00 2.389508e+00 3.203140e+00 1.985809e-01 5.206630e-01 5.461730e-01 6.230077e-01 6.160623e-01 5.082929e-01 6.173765e-01 5.409738e-01 6.653960e-01 7.583815e-01 4.770780e-01 3.154310e-01 3.577516e-01
<GCONST> 1.341966e+02
<MIXTURE> 2 4.568474e-01
<MEAN> 39
 1.142480e+00 -1.872490e+01 -1.099036e+01 -2.424300e+00 8.897331e-01 4.993837e+00 -7.217271e+00 9.061275e+00 -1.350773e+01 -1.598180e+01 9.816651e+00 -5.966426e+00 -2.673900e+00 1.524777e+00 3.272091e-02 1.806926e+00 1.331700e+00 4.254507e-01 4.194822e-01 -5.630661e-02 2.575743e-01 -9.344996e-01 -8.047008e-01 8.846987e-01 4.379379e-02 -5.977579e-02 -6.395095e-01 8.140165e-01 9.476405e-01 1.218574e+00 6.020401e-01 -1.787276e-01 1.743323e-01 -1.154882e-01 1.251929e+00 1.039946e+00 -7.154546e-01 4.007257e-01 4.438960e-01
<VARIANCE> 39
 6.290361e+01 8.970325e+01 5.934904e+01 1.740454e+02 1.283919e+02 1.250228e+02 1.158602e+02 1.240241e+02 7.748466e+01 7.008001e+01 8.596384e+01 6.383326e+01 4.551508e+01 2.832356e+00 3.727220e+00 4.640147e+00 6.144559e+00 3.671888e+00 3.357344e+00 3.308954e+00 3.622631e+00 7.770004e+00 6.775962e+00 4.165351e+00 1.868790e+00 2.063581e+00 1.873698e-01 4.338781e-01 5.310286e-01 8.204472e-01 7.942328e-01 1.023595e+00 9.357579e-01 9.124164e-01 8.383268e-01 7.200638e-01 8.646315e-01 4.464108e-01 5.094281e-01
<GCONST> 1.414486e+02
<TRANSP> 5
 0.000000e+00 1.000000e+00 0.000000e+00 0.000000e+00 0.000000e+00
 0.000000e+00 8.763739e-01 1.236260e-01 0.000000e+00 0.000000e+00
 0.000000e+00 0.000000e+00 8.152234e-01 1.847766e-01 0.000000e+00
 0.000000e+00 0.000000e+00 0.000000e+00 8.247042e-01 1.752958e-01
 0.000000e+00 0.000000e+00 0.000000e+00 0.000000e+00 0.000000e+00
<ENDHMM>
~h "l"
<BEGINHMM>
<NUMSTATES> 5
<STATE> 2
<NUMMIXES> 2
<MIXTURE> 1 9.694389e-01
<MEAN> 39
 1.342838e+01 -5.741934e+00 4.428149e+00 3.168144e+01 2.037496e+01 -5.157486e+00 -4.374314e+00 2.046784e+01 -9.768806e+00 -3.174389e+01 -6.017190e+00 2.284189e-01 -2.948467e+00 -1.621594e-01 -4.515206e-02 4.398767e-01 9.310892e-01 1.228156e-01 -4.582724e-01 2.976344e-01 6.146808e-01 -3.922991e-02 -6.045696e-01 -4.264765e-01 2.487464e-03 -1.191679e-01 2.727990e-02 -1.162316e-02 -1.085856e-01 -3.089948e-01 -4.821233e-02 1.228208e-01 -2.180306e-01 -2.900749e-01 7.930565e-02 3.865215e-01 2.614159e-01 -3.332264e-02 -2.007331e-02
<VARIANCE> 39
 1.550580e+01 2.289628e+01 3.649920e+01 7.718984e+01 5.155750e+01 4.566315e+01 3.716820e+01 5.690600e+01 4.125312e+01 6.959443e+01 5.615650e+01 3.031274e+01 2.206333e+01 4.510805e-01 6.328907e-01 1.066614e+00 2.291534e+00 1.046540e+00 1.639164e+00 1.792633e+00 3.007066e+00 1.281891e+00 3.964253e+00 2.437211e+00 1.052171e+00 8.865781e-01 5.813287e-02 9.307025e-02 1.279154e-01 2.165698e-01 1.565620e-01 2.114841e-01 2.608159e-01 3.483061e-01 2.045078e-01 4.310543e-01 2.568450e-01 1.625725e-01 1.290615e-01
<GCONST> 1.014571e+02
<MIXTURE> 2 3.056118e-02
<MEAN> 39
 1.469756e+01 -1.143170e+01 3.614296e+00 3.260205e+01 2.753979e+01 -3.836066e+00 -1.988994e+01 9.112062e+00 -1.035724e+01 -2.146568e+01 9.737484e+00 -2.591789e+00 -1.387628e+01 -1.288179e-01 2.485097e-01 1.013864e-01 2.228021e-01 -1.216035e-01 -3.745942e-01 1.242175e-01 2.109808e-01 2.865682e-01 2.323063e-01 -8.058046e-02 1.887158e-01 -1.866879e-01 -9.400460e-02 1.019007e-01 1.609249e-01 -1.124577e-01 -2.533242e-01 2.245857e-01 3.450852e-01 -1.083440e-01 5.198260e-02 5.699416e-02 -3.786665e-01 -3.729384e-02 2.499067e-01
<VARIANCE> 39
 8.322300e+00 9.352140e+00 1.917569e+01 1.147278e+02 1.523539e+01 1.729778e+01 5.499437e+01 3.643867e+01 3.077335e+01 4.455527e+01 1.046433e+02 9.805347e+00 1.762259e+01 5.395364e-01 8.793395e-01 1.086840e+00 2.110643e+00 7.020544e-01 1.055250e+00 2.780476e+00 2.146601e+00 5.623223e-01 1.578320e+00 3.015896e+00 5.889659e-01 8.307542e-01 5.592330e-02 9.041704e-02 1.187415e-01 1.997252e-01 1.162388e-01 2.172808e-01 2.610459e-01 3.257695e-01 1.069878e-01 2.625239e-01 2.259985e-01 8.889697e-02 8.607904e-02
<GCONST> 9.066755e+01
<STATE> 3
<NUMMIXES> 2
<MIXTURE> 1 2.218093e-01
<MEAN> 39
 1.151785e+01 1.878538e+00 1.400386e+00 1.764971e+01 1.486883e+01 2.089978e+00 -2.601870e+00 1.485469e+01 -1.759821e+00 -1.763683e+01 -8.067043e+00 -6.301881e+00 -4.795264e+00 -4.406983e-01 8.576461e-01 1.240325e-01 -9.869729e-01 -3.431408e-01 1.113064e+00 7.948999e-01 -3.699347e-01 3.941229e-01 1.151495e+00 3.700074e-02 -9.465582e-02 1.760818e-01 -1.392502e-01 2.050497e-02 1.507564e-01 2.481766e-02 -7.027332e-02 -1.002616e-01 -7.421065e-02 1.149865e-02 -1.841675e-02 1.273168e-02 1.351399e-01 1.430966e-01 8.984265e-02
<VARIANCE> 39
 7.727931e+01 4.196507e+01 4.843002e+01 1.138938e+02 8.792957e+01 1.039110e+02 9.445448e+01 8.791663e+01 9.141112e+01 1.085717e+02 6.245235e+01 8.243314e+01 5.202781e+01 2.211151e+00 1.934242e+00 2.500444e+00 4.421010e+00 2.461046e+00 3.303227e+00 4.614823e+00 4.714576e+00 2.870972e+00 6.144600e+00 2.448413e+00 1.809542e+00 1.559447e+00 1.190967e-01 1.181797e-01 3.449375e-01 5.771306e-01 3.470194e-01 3.127189e-01 6.214322e-01 7.576294e-01 4.496224e-01 5.783215e-01 3.371866e-01 2.184937e-01 2.199105e-01
<GCONST> 1.277358e+02
<MIXTURE> 2 7.781909e-01
<MEAN> 39
 9.768010e+00 -6.755494e+00 1.086245e+01 4.180184e+01 2.336391e+01 -6.344993e+00 -6.718028e+00 1.595638e+01 -5.993024e+00 -2.158401e+01 -2.655406e+00 -8.932687e-01 -7.113610e+00 -9.762882e-02 1.825308e-01 1.012358e-01 -2.453986e-01 -1.527874e-01 3.673257e-01 3.019159e-02 -5.257696e-01 2.188545e-01 8.070427e-01 1.200493e-01 -1.567477e-01 -3.772753e-02 5.779955e-02 -5.867608e-02 -1.454013e-01 -2.219398e-01 8.342417e-02 2.206212e-01 -1.399763e-01 -2.367771e-01 -1.177915e-01 5.264558e-02 1.688675e-01 -2.239682e-02 -3.900234e-02
<VARIANCE> 39
 5.088362e+00 1.125544e+01 1.355705e+01 1.447986e+01 2.143433e+01 1.587834e+01 3.562397e+01 4.730478e+01 2.443600e+01 6.432111e+01 2.067566e+01 2.672618e+01 2.339463e+01 2.112696e-01 4.044319e-01 6.347009e-01 1.378894e+00 1.063022e+00 1.268936e+00 1.225592e+00 2.055060e+00 1.200551e+00 1.890931e+00 1.266629e+00 9.272872e-01 8.405709e-01 3.654494e-02 7.524431e-02 1.056105e-01 2.614458e-01 1.778203e-01 1.975017e-01 2.179554e-01 2.837788e-01 1.898193e-01 2.736750e-01 2.195092e-01 1.473700e-01 1.434466e-01
<GCONST> 8.657993e+01
<STATE> 4
<NUMMIXES> 2
<MIXTURE> 1 6.170031e-03
<MEAN> 39
 -2.651696e+01 -6.822381e+00 -5.610331e+00 -2.499182e+00 -2.993126e+00 1.967174e+00 -4.278697e+00 -3.000026e-01 -3.076270e+00 -2.640519e+00 -6.729457e-01 -1.587415e+00 6.649916e-01 -3.255745e-01 -5.717496e-01 -5.203186e-01 3.302182e-01 4.626990e-01 5.088211e-01 1.322118e+00 1.078691e+00 1.943521e-01 1.970702e-01 2.307608e-01 3.124425e-01 -2.526932e-01 5.989474e-01 3.446750e-01 2.153786e-01 2.701718e-02 -3.498379e-01 -4.904228e-01 -1.405836e-01 9.344815e-02 -2.451416e-01 -2.244631e-01 8.744106e-02 3.205105e-01 6.893785e-02
<VARIANCE> 39
 5.733502e-01 8.272953e-01 3.564922e+00 4.102774e-01 1.952921e+00 2.427939e+00 7.272087e+00 3.440704e+00 1.192272e+01 9.751541e+00 2.618500e+00 5.223049e+00 8.040560e+00 2.489663e-01 5.972844e-02 1.920979e-01 2.141647e-01 4.920448e-01 5.999006e-01 6.526610e-01 8.808329e-01 1.022790e+00 2.468688e+00 9.744846e-01 1.240209e+00 7.986068e-01 1.508710e-01 1.445497e-01 6.831765e-02 9.423298e-02 1.199392e-01 1.511267e-01 4.604209e-01 6.126990e-01 2.108857e-01 9.980701e-02 3.360850e-01 5.477910e-01 1.768241e-01
<GCONST> 5.582885e+01
<MIXTURE> 2 9.938298e-01
<MEAN> 39
 1.131122e+01 -4.540028e+00 6.610011e+00 3.027114e+01 2.061755e+01 -3.869517e-01 -6.792194e+00 1.102989e+01 -7.512499e+00 -1.889705e+01 -7.066149e-01 -1.613660e+00 -5.591795e+00 6.489524e-01 -8.298947e-01 -1.392562e+00 -1.934977e+00 5.250697e-01 1.020899e+00 -2.217177e+00 -2.257746e+00 -6.057341e-01 1.291542e+00 2.449279e+00 4.340594e-03 -7.647182e-01 2.258945e-01 -3.829013e-01 -2.521800e-01 7.220931e-02 3.191985e-01 -2.480123e-01 -6.525852e-01 1.428529e-01 -1.501653e-01 -4.741202e-01 3.603372e-01 1.268126e-01 -2.221389e-01
<VARIANCE> 39
 1.542727e+01 3.528819e+01 3.160370e+01 8.278812e+01 3.422736e+01 4.069396e+01 4.118670e+01 5.439698e+01 3.386221e+01 7.196976e+01 4.264623e+01 2.225796e+01 2.425091e+01 9.329127e-01 1.450084e+00 2.094651e+00 3.004427e+00 1.797087e+00 1.735777e+00 3.182508e+00 2.494870e+00 2.085785e+00 3.087533e+00 2.998341e+00 1.391124e+00 1.449884e+00 6.289213e-02 1.294530e-01 1.839956e-01 3.961679e-01 1.933860e-01 2.545350e-01 2.661663e-01 4.557789e-01 2.620437e-01 3.856377e-01 3.633394e-01 1.969626e-01 1.605967e-01
<GCONST> 1.083476e+02
<TRANSP> 5
 0.000000e+00 1.000000e+00 0.000000e+00 0.000000e+00 0.000000e+00
 0.000000e+00 8.719079e-01 1.280921e-01 0.000000e+00 0.000000e+00
 0.000000e+00 0.000000e+00 8.592548e-01 1.407452e-01 0.000000e+00
 0.000000e+00 0.000000e+00 0.000000e+00 5.873035e-01 4.126965e-01
 0.000000e+00 0.000000e+00 0.000000e+00 0.000000e+00 0.000000e+00
<ENDHMM>
~h "m"
<BEGINHMM>
<NUMSTATES> 5
<STATE> 2
<NUMMIXES> 2
<MIXTURE> 1 3.486967e-01
<MEAN> 39
 1.602645e+01 5.851307e+00 2.103252e+00 1.615018e+01 1.204308e+01 -3.734736e+00 -6.090892e+00 1.500819e+01 3.383134e+00 -1.290639e+01 -5.926727e+00 -5.489585e+00 -9.169084e+00 -5.666221e-01 1.062172e+00 1.482927e+00 1.794281e+00 1.800058e+00 1.437968e+00 -1.929758e-01 -1.985850e+00 -6.235420e-01 8.721358e-01 -6.887076e-01 -1.641397e+00 -1.083882e+00 1.861746e-01 -3.932971e-01 -3.098629e-01 -1.866250e-01 -1.131648e-01 -3.747616e-01 -3.807909e-01 1.233882e-01 -1.520939e-01 -2.707068e-01 4.268439e-01 2.930433e-01 1.033204e-02
<VARIANCE> 39
 1.678649e+01 2.259986e+01 3.211184e+01 2.525365e+01 3.967968e+01 4.678277e+01 2.080439e+01 6.811250e+01 3.149020e+01 2.786925e+01 2.467863e+01 1.911641e+01 1.490406e+01 9.666064e-01 1.165311e+00 1.306084e+00 1.585449e+00 2.064421e+00 2.163579e+00 1.869409e+00 2.344967e+00 1.044230e+00 2.094868e+00 1.584326e+00 1.392331e+00 9.038953e-01 8.370663e-02 1.137701e-01 1.397211e-01 1.890523e-01 3.214885e-01 2.416324e-01 2.965576e-01 3.253420e-01 1.822922e-01 2.598513e-01 2.271407e-01 1.970922e-01 1.563318e-01
<GCONST> 9.883300e+01
<MIXTURE> 2 6.513034e-01
<MEAN> 39
 1.553141e+01 5.838767e+00 5.066431e+00 2.221985e+01 1.741154e+01 -2.670645e+00 -9.495434e+00 8.579958e+00 2.408717e-01 -1.111517e+01 -4.682846e+00 -8.029505e+00 -1.282503e+01 -1.778866e-01 3.230115e-01 4.607244e-01 1.214586e-01 7.818197e-02 2.230934e-01 -1.964415e-01 -7.135993e-01 -2.959399e-01 3.193280e-01 1.693338e-01 -3.306705e-02 1.075749e-01 5.050350e-03 4.239016e-02 -2.953957e-02 -1.858473e-01 -1.800433e-01 -1.382049e-02 8.312742e-02 9.069715e-02 4.481916e-02 -1.802536e-02 -1.744148e-02 9.679554e-02 1.557079e-01
<VARIANCE> 39
 3.209050e+00 1.243168e+01 2.280097e+01 1.160588e+01 2.374010e+01 2.625391e+01 2.712409e+01 6.870547e+01 2.961010e+01 2.685114e+01 2.261245e+01 1.748509e+01 1.426266e+01 1.286311e-01 3.575770e-01 4.603701e-01 5.943664e-01 5.817525e-01 5.497576e-01 7.126393e-01 1.121208e+00 5.135530e-01 7.458489e-01 5.786410e-01 5.388150e-01 5.483050e-01 2.145309e-02 4.084441e-02 6.326586e-02 1.196122e-01 1.216145e-01 8.901214e-02 1.163911e-01 1.561415e-01 8.004290e-02 1.315030e-01 9.821552e-02 9.626763e-02 8.162699e-02
<GCONST> 6.957915e+01
<STATE> 3
<NUMMIXES> 2
<MIXTURE> 1 2.912935e-02
<MEAN> 39
 -2.646759e+01 -6.035718e+00 -5.049310e+00 -3.158649e+00 -3.619398e+00 9.849799e-01 -3.960361e+00 5.758017e-01 -2.068423e+00 -3.853497e-01 5.506913e-01 -9.628635e-01 2.621898e-01 -4.583150e-02 -6.663608e-02 -1.135354e-02 5.843146e-02 8.719608e-02 6.288168e-03 7.724212e-03 5.961319e-02 8.209753e-02 3.234354e-02 7.390631e-02 4.041104e-02 -2.021747e-03 1.745141e-01 1.479966e-01 1.797915e-01 1.995150e-01 1.506704e-01 5.277098e-02 2.392754e-02 7.681666e-02 6.066207e-02 -2.935282e-02 -4.809655e-02 -3.807426e-02 -1.694706e-02
<VARIANCE> 39
 6.685477e-01 1.565077e+00 2.074131e+00 2.798415e+00 3.369533e+00 4.186028e+00 3.634445e+00 4.639722e+00 5.757653e+00 6.748525e+00 7.036434e+00 6.128633e+00 5.805106e+00 6.476015e-01 7.302650e-01 9.858451e-01 1.287120e+00 1.343068e+00 7.864625e-01 7.879022e-01 9.338345e-01 1.088902e+00 1.039455e+00 1.119424e+00 1.115372e+00 9.674023e-01 1.268428e-01 1.214509e-01 1.928367e-01 2.296151e-01 2.230172e-01 1.570745e-01 1.788162e-01 2.052699e-01 2.503540e-01 2.063351e-01 2.564608e-01 2.246708e-01 1.873662e-01
<GCONST> 6.624696e+01
<MIXTURE> 2 9.708707e-01
<MEAN> 39
 1.191242e+01 1.341572e+01 1.161569e+01 1.958630e+01 1.552719e+01 3.680579e+00 -7.600604e+00 4.939356e-01 -3.444366e+00 -7.090822e+00 -4.873473e+00 -8.681360e+00 -8.812869e+00 -2.750555e-01 2.290057e-01 1.383440e-01 -3.028089e-01 -2.367178e-01 3.141691e-01 3.272507e-01 -8.191153e-02 -1.194544e-01 4.709901e-02 -7.580247e-02 6.128052e-02 1.770732e-01 -5.264730e-02 -1.446021e-01 -1.104703e-01 -8.553533e-02 -7.724310e-02 -3.572591e-02 7.066721e-02 2.224628e-01 4.892385e-02 -1.383406e-01 3.122428e-02 1.359666e-01 9.189070e-02
<VARIANCE> 39
 1.021518e+01 1.288085e+01 1.627226e+01 1.181784e+01 1.851346e+01 1.994613e+01 3.410517e+01 4.143172e+01 2.119250e+01 1.914929e+01 1.346356e+01 1.620800e+01 1.764359e+01 6.587836e-01 5.817555e-01 7.122846e-01 7.770141e-01 9.116972e-01 7.795955e-01 1.561830e+00 1.392961e+00 7.336488e-01 1.030978e+00 6.557584e-01 8.478996e-01 8.090523e-01 4.440459e-02 8.659867e-02 1.003456e-01 1.244406e-01 1.397680e-01 1.086683e-01 1.812138e-01 1.849170e-01 1.087663e-01 1.904781e-01 1.044888e-01 1.305139e-01 1.074223e-01
<GCONST> 7.912006e+01
<STATE> 4
<NUMMIXES> 2
<MIXTURE> 1 0.000000e+00
<MEAN> 39
 -3.465476e+01 1.675967e+01 -7.743439e+00 1.826633e+00 -1.155705e+00 1.236522e+01 -1.445375e+01 5.846484e+00 -1.598039e-01 2.253834e-01 -2.058068e+00 -9.824362e-02 3.765816e+00 -1.362455e-01 8.215038e-02 1.575990e-02 -2.231550e-02 5.907191e-02 6.852118e-02 -5.401044e-02 8.545254e-03 3.942942e-02 2.500927e-04 -6.214541e-04 1.159003e-02 3.031951e-02 2.616155e-01 -1.072249e-01 2.894851e-02 8.718687e-02 -5.242795e-02 -9.323000e-02 1.351443e-01 9.685402e-03 -5.067167e-02 2.049104e-02 2.124489e-02 -7.652363e-03 -4.976257e-02
<VARIANCE> 39
 4.483082e-01 6.496472e-01 1.372011e+00 1.126045e+00 1.920628e+00 1.941905e+00 2.517905e+00 2.499093e+00 2.399876e+00 2.720778e+00 3.064659e+00 2.732042e+00 2.229308e+00 1.086354e+00 3.270376e-01 2.173789e-01 2.914865e-01 3.910311e-01 4.624964e-01 5.924420e-01 3.902425e-01 4.446459e-01 4.080288e-01 4.378160e-01 3.926591e-01 3.533571e-01 2.683040e-01 8.656988e-02 6.370471e-02 7.948849e-02 7.781372e-02 1.027722e-01 1.615612e-01 9.150107e-02 9.617190e-02 9.459340e-02 9.706742e-02 8.784577e-02 8.113205e-02
<GCONST> 3.729400e+01
<MIXTURE> 2 1.000000e+00
<MEAN> 39
 1.388123e+01 8.164538e+00 5.552705e+00 1.680708e+01 1.407858e+01 1.374159e+00 -6.577274e+00 6.794733e+00 -1.982254e+00 -1.180505e+01 -4.799527e+00 -5.119875e+00 -8.024102e+00 4.884813e-01 -1.517917e+00 -1.368857e+00 -1.364617e+00 -9.833317e-01 -7.655583e-01 -2.077746e-01 1.792502e+00 -2.419243e-01 -2.141683e+00 8.326526e-01 1.770611e+00 9.534627e-01 1.322711e-01 -4.897865e-01 -2.475248e-01 -7.197404e-02 7.292978e-03 -2.863043e-01 -3.971188e-01 3.330504e-01 -1.371054e-01 -4.512015e-01 5.142673e-01 3.656679e-01 -1.086848e-01
<VARIANCE> 39
 2.831444e+01 2.943238e+01 4.815938e+01 1.983874e+01 3.622960e+01 5.822618e+01 2.475051e+01 6.290719e+01 4.277026e+01 3.647038e+01 1.630142e+01 2.103200e+01 1.804623e+01 1.428016e+00 2.103829e+00 3.079789e+00 1.844522e+00 3.156361e+00 3.139238e+00 2.417254e+00 3.088081e+00 1.540681e+00 4.872519e+00 1.955236e+00 1.915850e+00 1.049118e+00 1.129822e-01 1.779575e-01 3.260046e-01 2.991594e-01 3.382197e-01 2.617804e-01 3.390286e-01 4.258663e-01 2.228230e-01 4.916718e-01 2.805910e-01 2.290224e-01 1.967980e-01
<GCONST> 1.097016e+02
<TRANSP> 5
 0.000000e+00 1.000000e+00 0.000000e+00 0.000000e+00 0.000000e+00
 0.000000e+00 8.936598e-01 1.063402e-01 0.000000e+00 0.000000e+00
 0.000000e+00 0.000000e+00 8.571019e-01 1.428982e-01 0.000000e+00
 0.000000e+00 0.000000e+00 0.000000e+00 6.536338e-01 3.463661e-01
 0.000000e+00 0.000000e+00 0.000000e+00 0.000000e+00 0.000000e+00
<ENDHMM>
~h "n"
<BEGINHMM>
<NUMSTATES> 5
<STATE> 2
<NUMMIXES> 2
<MIXTURE> 1 5.094594e-01
<MEAN> 39
 1.232413e+01 9.159374e+00 5.202157e+00 1.715708e+01 1.940345e+01 8.475099e+00 -7.572688e+00 -3.641619e-01 -6.112180e+00 -1.057024e+01 -4.215949e+00 -4.757102e+00 -2.429342e+00 1.230123e-01 1.480050e+00 1.148353e+00 9.036930e-01 5.658770e-01 -1.098890e-03 -8.245562e-01 -1.935157e+00 -2.223524e-01 7.529660e-01 -1.139329e+00 -1.063506e+00 -8.455838e-02 2.387458e-01 -6.219666e-01 -4.588488e-01 -1.391932e-01 1.396365e-01 -1.818336e-01 -5.066114e-01 8.688223e-02 -1.009171e-01 -2.111521e-01 5.487048e-01 2.166863e-01 -1.362635e-01
<VARIANCE> 39
 2.317262e+01 2.269113e+01 2.829008e+01 2.154255e+01 2.410798e+01 2.471393e+01 4.710588e+01 3.880560e+01 1.838085e+01 2.935158e+01 2.790316e+01 1.674626e+01 1.321694e+01 1.437785e+00 2.085628e+00 2.502787e+00 2.281198e+00 2.112649e+00 1.340742e+00 2.978735e+00 2.037827e+00 1.497495e+00 2.475633e+00 2.260437e+00 1.262731e+00 1.414011e+00 1.204778e-01 1.798232e-01 2.055576e-01 1.999063e-01 2.768179e-01 2.192009e-01 4.544719e-01 3.971499e-01 2.462897e-01 2.990842e-01 2.984425e-01 1.853747e-01 2.176755e-01
<GCONST> 1.030992e+02
<MIXTURE> 2 4.905406e-01
<MEAN> 39
 1.323979e+01 1.307223e+01 1.091660e+01 1.891970e+01 1.715729e+01 4.586069e+00 -1.059399e+01 -4.457217e+00 -4.707493e+00 -7.491101e+00 -7.127749e+00 -8.804633e+00 -4.149745e+00 1.954611e-02 1.140831e-01 8.439165e-02 6.033552e-02 1.217869e-01 6.636542e-02 -2.061129e-01 -3.869518e-01 -2.476322e-02 2.782786e-01 -5.148590e-03 -1.554179e-01 2.560949e-02 1.471806e-03 -9.886053e-02 -1.200796e-01 -4.354607e-02 3.227771e-02 5.303861e-02 5.434260e-02 1.589410e-01 -3.109848e-02 -1.503107e-01 7.645971e-02 1.195312e-01 1.820533e-02
<VARIANCE> 39
 2.037851e+00 6.532493e+00 5.188533e+00 8.730905e+00 1.392189e+01 1.634205e+01 2.012413e+01 2.076727e+01 1.111092e+01 2.045895e+01 9.070664e+00 1.228268e+01 1.003300e+01 1.626597e-01 3.852408e-01 3.769314e-01 5.892718e-01 8.827596e-01 5.274505e-01 1.349560e+00 8.718476e-01 5.933363e-01 9.729337e-01 4.817960e-01 6.823935e-01 4.804966e-01 1.955784e-02 6.938644e-02 6.500454e-02 9.514881e-02 1.242357e-01 7.861036e-02 1.814389e-01 1.001215e-01 9.223220e-02 1.447636e-01 9.043144e-02 1.092577e-01 7.323427e-02
<GCONST> 6.284365e+01
<STATE> 3
<NUMMIXES> 2
<MIXTURE> 1 7.880561e-01
<MEAN> 39
 1.510806e+01 9.377609e+00 5.026693e+00 2.029770e+01 2.409920e+01 7.220058e+00 -1.525772e+01 -8.732861e+00 -7.294055e+00 -8.176192e+00 -4.515213e+00 -6.267572e+00 -2.689679e+00 9.233803e-03 -8.383477e-03 2.915863e-02 -1.338154e-02 -3.395855e-02 -5.565093e-02 -6.792787e-02 -4.578097e-02 5.495755e-03 3.594618e-02 4.212425e-02 -8.931062e-03 -1.863082e-02 -4.037219e-02 -8.485575e-02 -1.034674e-02 -1.145791e-01 -1.685985e-01 -3.018568e-02 1.891975e-01 3.551916e-01 3.993132e-02 -1.668009e-01 7.173730e-02 5.934015e-02 -7.171286e-02
<VARIANCE> 39
 2.753857e+00 9.926743e+00 1.599995e+01 1.248257e+01 1.659383e+01 2.580625e+01 2.134587e+01 2.837992e+01 1.629941e+01 3.190498e+01 1.845281e+01 1.513835e+01 1.235046e+01 1.515965e-01 4.523763e-01 5.005345e-01 5.626353e-01 1.005724e+00 5.553883e-01 1.250358e+00 1.173691e+00 6.182655e-01 1.216695e+00 6.383084e-01 6.485491e-01 4.800075e-01 2.268620e-02 6.955347e-02 7.335281e-02 1.115350e-01 1.736019e-01 9.874264e-02 1.813488e-01 1.818439e-01 1.120267e-01 2.225478e-01 1.086415e-01 1.041343e-01 8.494893e-02
<GCONST> 7.172736e+01
<MIXTURE> 2 2.119441e-01
<MEAN> 39
 1.461486e+01 1.001427e+01 4.844723e+00 1.538970e+01 1.649189e+01 6.193971e+00 -5.780754e+00 3.178769e+00 -5.651494e+00 -1.404588e+01 -8.231153e+00 -8.440153e+00 -5.755904e+00 -2.308662e-01 9.853818e-02 -1.986834e-02 -2.818342e-01 -2.387374e-01 4.878751e-01 9.045212e-01 5.834936e-01 -4.657857e-01 -8.744084e-01 -3.263762e-01 3.377754e-01 4.014834e-01 -1.346977e-01 2.081496e-02 1.482639e-01 2.950968e-02 -3.456321e-02 -7.616306e-02 -2.116704e-01 -1.582756e-01 8.028071e-02 2.500478e-01 2.389036e-01 1.552320e-01 9.074223e-02
<VARIANCE> 39
 1.019202e+01 1.953726e+01 2.881075e+01 3.642517e+01 3.408000e+01 2.851415e+01 4.579327e+01 6.261951e+01 2.923482e+01 4.623691e+01 3.706818e+01 2.664551e+01 2.047693e+01 1.005669e+00 1.191149e+00 3.139501e+00 3.283175e+00 1.963358e+00 1.317144e+00 4.452015e+00 5.561579e+00 1.408182e+00 4.329639e+00 1.631946e+00 1.186198e+00 9.556981e-01 1.101251e-01 2.108457e-01 4.984811e-01 5.101911e-01 2.468214e-01 2.371220e-01 5.864571e-01 8.200602e-01 2.576708e-01 7.396911e-01 2.811255e-01 2.274128e-01 1.598286e-01
<GCONST> 1.100437e+02
<STATE> 4
<NUMMIXES> 2
<MIXTURE> 1 5.111465e-01
<MEAN> 39
 1.536248e+01 5.020667e+00 2.648112e+00 1.752684e+01 2.195568e+01 6.386760e+00 -1.296357e+01 -3.258734e-01 -7.408751e+00 -1.374409e+01 -9.615682e-01 -3.442551e+00 -3.657602e+00 5.908391e-01 -2.519155e+00 -1.402796e+00 -9.857990e-01 -5.654918e-01 -1.116565e+00 -5.509759e-01 3.161520e+00 -3.408909e-01 -2.383063e+00 2.778149e+00 1.546046e+00 -1.042367e+00 1.797122e-01 -5.672729e-01 -3.102865e-01 -1.728839e-01 2.759431e-02 -2.460019e-01 -4.191771e-01 4.602376e-01 -1.495914e-01 -4.216798e-01 7.284102e-01 2.563023e-01 -2.948520e-01
<VARIANCE> 39
 7.161577e+00 2.316303e+01 2.776041e+01 2.634348e+01 2.418975e+01 1.659308e+01 3.075706e+01 5.415713e+01 2.191522e+01 3.498300e+01 5.186058e+01 2.035690e+01 1.492276e+01 6.446100e-01 1.943282e+00 2.034014e+00 2.591429e+00 1.974733e+00 1.312070e+00 2.593940e+00 2.893867e+00 1.867466e+00 2.898719e+00 3.356264e+00 1.696079e+00 1.682919e+00 5.567239e-02 2.018954e-01 2.118701e-01 2.280306e-01 2.745961e-01 1.623238e-01 3.547137e-01 4.362678e-01 2.430487e-01 4.297734e-01 3.029565e-01 2.455800e-01 2.126838e-01
<GCONST> 1.030069e+02
<MIXTURE> 2 4.888534e-01
<MEAN> 39
 6.458422e+00 1.653939e+01 1.407767e+01 1.670891e+01 1.336468e+01 8.243140e+00 -2.998617e+00 4.151168e-01 -5.984076e+00 -8.351701e+00 -5.620841e+00 -6.774154e+00 -4.142653e+00 -1.625030e+00 1.481781e-01 5.646725e-01 -4.020634e-01 -6.049705e-01 5.179788e-01 8.609020e-01 5.302436e-01 3.261843e-01 5.519130e-01 3.964527e-01 3.443766e-01 1.603572e-01 -1.696941e-01 -3.152850e-01 -1.665349e-01 -4.901278e-02 5.726531e-02 2.523472e-02 -7.195979e-02 5.717761e-02 7.385024e-02 -2.645933e-02 1.006155e-02 1.810364e-02 4.893672e-02
<VARIANCE> 39
 3.119973e+01 7.685813e+00 9.957722e+00 1.217388e+01 1.266331e+01 1.229872e+01 2.275943e+01 1.702021e+01 1.333893e+01 1.731631e+01 9.427775e+00 1.104315e+01 7.852017e+00 9.164702e-01 9.247320e-01 1.065834e+00 1.020039e+00 9.792417e-01 8.283986e-01 1.252346e+00 1.019565e+00 9.572954e-01 1.634005e+00 8.241049e-01 7.500170e-01 6.154525e-01 4.395325e-02 1.394022e-01 1.970964e-01 1.743587e-01 1.548599e-01 1.308899e-01 1.675549e-01 1.518462e-01 1.614617e-01 2.106874e-01 1.270208e-01 1.185918e-01 1.049824e-01
<GCONST> 7.867896e+01
<TRANSP> 5
 0.000000e+00 1.000000e+00 0.000000e+00 0.000000e+00 0.000000e+00
 0.000000e+00 8.308114e-01 1.691886e-01 0.000000e+00 0.000000e+00
 0.000000e+00 0.000000e+00 8.790581e-01 1.209419e-01 0.000000e+00
 0.000000e+00 0.000000e+00 0.000000e+00 7.871894e-01 2.128106e-01
 0.000000e+00 0.000000e+00 0.000000e+00 0.000000e+00 0.000000e+00
<ENDHMM>
~h "o"
<BEGINHMM>
<NUMSTATES> 7
<STATE> 2
<NUMMIXES> 2
<MIXTURE> 1 5.152397e-01
<MEAN> 39
 4.375521e+00 7.920146e+00 3.041462e+00 -3.673016e+00 -1.256652e+01 -1.078335e+01 -5.838917e+00 1.800536e+01 4.714570e+00 -4.814394e+00 7.630074e+00 -2.365547e-01 -4.348579e+00 2.423454e+00 8.395578e-01 7.797796e-01 1.516940e+00 9.327332e-01 -6.671886e-01 -5.450512e-01 6.124486e-01 2.656561e-01 -7.223327e-01 -3.035443e-01 -2.879091e-01 -8.559123e-01 -1.712100e-01 -2.093090e-01 4.543529e-02 6.701978e-01 6.546257e-01 1.199268e-01 -7.060577e-02 -3.022162e-01 -1.372427e-01 -1.885998e-01 -4.186213e-01 7.476675e-03 2.022968e-02
<VARIANCE> 39
 4.945969e+01 2.921756e+01 3.479242e+01 9.234063e+01 1.166392e+02 6.579710e+01 5.544952e+01 7.498273e+01 3.342264e+01 5.210497e+01 4.252403e+01 3.162341e+01 3.367419e+01 2.491406e+00 1.782866e+00 1.516728e+00 1.033559e+01 1.321253e+01 7.857240e+00 4.819563e+00 5.419778e+00 2.114973e+00 3.492523e+00 4.710095e+00 1.912985e+00 2.045134e+00 3.248450e-01 2.369787e-01 2.913617e-01 1.323470e+00 1.938903e+00 1.701151e+00 9.438596e-01 8.134323e-01 4.053958e-01 8.047830e-01 6.466374e-01 3.451796e-01 3.909002e-01
<GCONST> 1.334047e+02
<MIXTURE> 2 4.847605e-01
<MEAN> 39
 1.659724e+01 4.162001e+00 5.410559e+00 1.299180e+01 2.325974e+00 -1.100988e+01 -1.009675e+01 1.762604e+01 2.021962e+00 -1.507184e+01 -4.360629e-01 -2.549330e+00 -6.395545e+00 1.655662e+00 1.070069e-01 -3.657622e-01 9.297145e-01 3.694769e-01 -3.432474e+00 -2.696014e+00 1.733097e+00 8.606128e-01 -2.457291e+00 -1.041807e+00 -1.157219e-01 -1.308060e+00 -3.968312e-01 -3.357333e-01 -1.724510e-01 -4.679679e-01 -3.142822e-01 9.177831e-02 2.571408e-02 2.108981e-01 2.172084e-01 2.457679e-01 3.508556e-01 -1.651813e-03 3.048931e-03
<VARIANCE> 39
 1.340306e+01 9.677245e+01 3.001165e+01 2.814397e+01 5.159783e+01 7.059812e+01 4.015421e+01 4.293296e+01 4.584875e+01 6.640928e+01 3.110863e+01 3.105540e+01 2.507794e+01 8.284374e-01 2.039187e+00 1.326204e+00 2.783739e+00 1.873026e+00 1.753870e+00 2.398839e+00 2.783410e+00 2.528960e+00 2.390101e+00 3.013377e+00 1.104444e+00 9.193509e-01 1.243135e-01 1.547618e-01 2.551993e-01 3.984716e-01 4.210499e-01 6.294822e-01 3.982631e-01 4.475034e-01 3.019336e-01 3.929676e-01 3.567875e-01 1.613648e-01 1.534263e-01
<GCONST> 1.110392e+02
<STATE> 3
<NUMMIXES> 2
<MIXTURE> 1 1.000000e+00
<MEAN> 39
 2.000117e+01 -1.448807e+00 -4.907365e-01 1.053164e+01 7.428145e+00 -1.373199e+01 -1.867091e+01 2.263386e+01 5.528103e+00 -2.246110e+01 -2.383154e+00 -5.281857e+00 -9.597683e+00 7.548095e-02 4.222512e-01 2.771538e-01 -5.377011e-02 -7.007003e-01 -1.627527e+00 -7.134227e-01 9.703976e-01 1.044899e+00 1.532551e-01 3.134885e-02 -1.020236e-01 -5.085982e-01 -1.484145e-01 -1.539655e-02 1.491062e-01 6.895117e-02 -8.254127e-02 2.642114e-01 2.396045e-01 -3.131441e-01 -7.591453e-02 3.126048e-01 5.894352e-02 7.120448e-02 1.335063e-01
<VARIANCE> 39
 1.283810e+01 3.832941e+01 3.702475e+01 3.563330e+01 4.357917e+01 6.299102e+01 4.057568e+01 5.894930e+01 3.401071e+01 5.445843e+01 4.238513e+01 2.092050e+01 1.630280e+01 5.264919e-01 8.105295e-01 7.200698e-01 9.810967e-01 9.172576e-01 9.231995e-01 1.865746e+00 1.919977e+00 7.772863e-01 1.896306e+00 1.147530e+00 7.055497e-01 5.750248e-01 9.738749e-02 6.391082e-02 1.139010e-01 1.289974e-01 1.222795e-01 1.694952e-01 2.497837e-01 2.668938e-01 1.166573e-01 2.501988e-01 2.136477e-01 9.841505e-02 7.777413e-02
<GCONST> 9.156106e+01
<MIXTURE> 2 0.000000e+00
<MEAN> 39
 2.053493e+01 -1.293648e+01 -2.003549e+01 5.413818e+00 3.407337e+00 -1.218152e+01 -8.150859e+00 1.543847e+01 -1.538217e-01 -7.834913e+00 1.010392e+01 5.555103e+00 -1.096917e-01 -1.596474e-01 -6.584548e-01 7.967833e-01 -5.153264e-01 5.315405e-01 2.146320e-01 8.254738e-02 1.298883e-01 -6.072966e-01 5.288538e-01 5.167323e-01 -3.581259e-01 4.330588e-01 1.113991e-01 -1.392816e-01 2.348052e-01 -2.920718e-01 2.698408e-01 4.800510e-02 -7.561634e-02 1.628003e-01 -1.398900e-01 -3.354345e-02 4.109193e-01 -1.860107e-01 -5.932641e-02
<VARIANCE> 39
 0.000000e+00 3.725290e-09 0.000000e+00 2.910383e-11 0.000000e+00 -4.656613e-10 0.000000e+00 0.000000e+00 0.000000e+00 0.000000e+00 0.000000e+00 0.000000e+00 0.000000e+00 0.000000e+00 0.000000e+00 0.000000e+00 0.000000e+00 0.000000e+00 9.094947e-13 0.000000e+00 0.000000e+00 0.000000e+00 -1.818989e-12 1.455192e-11 0.000000e+00 0.000000e+00 0.000000e+00 0.000000e+00 0.000000e+00 0.000000e+00 -4.547474e-13 0.000000e+00 -3.552714e-15 0.000000e+00 -1.818989e-12 0.000000e+00 0.000000e+00 0.000000e+00 0.000000e+00
<GCONST> -3.500002e+11
<STATE> 4
<NUMMIXES> 2
<MIXTURE> 1 2.272331e-01
<MEAN> 39
 1.626793e+01 9.455187e+00 9.208808e+00 1.163293e+01 -3.280585e+00 -1.945589e+01 -1.386567e+01 1.959733e+01 6.070385e+00 -1.366744e+01 1.939417e+00 1.233027e+00 -9.196317e+00 1.464639e-01 -9.273545e-02 -3.630945e-02 1.412713e-01 2.117503e-02 -2.761349e-01 -1.935268e-01 1.206656e-01 -1.896161e-02 -1.110234e-01 1.449541e-01 -2.246997e-02 -2.444256e-01 4.533446e-03 -6.062048e-02 -9.054679e-02 2.787821e-02 1.496593e-01 1.279597e-01 -2.101135e-03 3.301498e-03 2.207666e-02 1.679939e-02 -4.609743e-02 -9.042499e-02 3.543853e-02
<VARIANCE> 39
 1.483963e+01 3.515002e+01 2.890843e+01 3.725869e+01 4.450319e+01 7.096653e+01 5.327456e+01 4.979655e+01 3.289444e+01 5.388264e+01 3.685468e+01 3.976506e+01 2.906524e+01 4.644495e-01 8.393239e-01 7.908641e-01 9.048062e-01 8.324438e-01 1.655259e+00 1.813579e+00 2.201955e+00 1.130154e+00 1.778274e+00 1.101741e+00 1.225740e+00 5.701576e-01 5.748994e-02 6.665462e-02 7.649012e-02 1.369814e-01 1.203723e-01 2.198082e-01 2.379839e-01 3.651665e-01 1.753841e-01 2.425531e-01 1.663598e-01 1.557386e-01 9.400105e-02
<GCONST> 9.448911e+01
<MIXTURE> 2 7.727666e-01
<MEAN> 39
 1.898886e+01 4.001685e+00 6.626217e+00 1.530262e+01 -1.741355e+00 -2.711580e+01 -1.996717e+01 2.466936e+01 9.827492e+00 -1.779859e+01 -6.893747e-01 -1.742691e+00 -1.158992e+01 -3.669342e-02 1.870733e-02 7.210398e-02 2.581963e-02 -1.126772e-01 -1.086643e-01 1.784632e-02 8.241888e-03 -6.280755e-02 -2.488382e-03 1.024148e-01 3.908980e-02 -7.284409e-02 -2.733356e-02 3.919632e-02 -8.203238e-03 -6.218906e-02 2.588148e-02 1.814490e-01 1.209403e-01 -5.210652e-02 -1.032021e-01 1.060201e-02 2.993169e-02 -7.463463e-03 3.542216e-02
<VARIANCE> 39
 3.219479e+00 1.445254e+01 1.787075e+01 1.049550e+01 1.045166e+01 1.806066e+01 2.012560e+01 2.318874e+01 1.177777e+01 1.770306e+01 2.464616e+01 1.753900e+01 1.163983e+01 2.440360e-01 4.874972e-01 6.338757e-01 5.236337e-01 4.569044e-01 8.842481e-01 1.007365e+00 1.240270e+00 5.183450e-01 9.371395e-01 8.521836e-01 6.746653e-01 3.227375e-01 3.913578e-02 3.942971e-02 6.348301e-02 6.149062e-02 5.504257e-02 9.550093e-02 1.316152e-01 1.769609e-01 6.279010e-02 1.238182e-01 1.034359e-01 6.937976e-02 4.883612e-02
<GCONST> 6.583823e+01
<STATE> 5
<NUMMIXES> 2
<MIXTURE> 1 4.487655e-01
<MEAN> 39
 1.998366e+01 -2.622421e+00 -1.424663e-01 1.074435e+01 7.019482e+00 -1.442441e+01 -1.727182e+01 2.623645e+01 1.567014e+00 -2.829729e+01 -1.102729e+00 -5.231064e+00 -1.091470e+01 4.112507e-02 -5.334067e-01 -4.789380e-01 6.000765e-03 1.125956e+00 1.429333e+00 3.434865e-01 -4.470977e-01 -1.297841e+00 -7.624280e-01 3.359745e-01 5.656385e-02 2.384990e-01 -1.090685e-01 1.439563e-01 1.200122e-01 1.133857e-01 -1.477147e-03 1.403316e-01 1.867808e-01 -2.881292e-01 -1.222329e-02 3.168675e-01 -6.041244e-02 5.973550e-02 1.011903e-01
<VARIANCE> 39
 5.045669e+00 2.119845e+01 2.149206e+01 2.279686e+01 4.452882e+01 4.801691e+01 3.351315e+01 3.590310e+01 6.010825e+01 4.060104e+01 5.067669e+01 1.875004e+01 2.061800e+01 3.451042e-01 4.527135e-01 7.109967e-01 9.784614e-01 7.361214e-01 1.126484e+00 1.645593e+00 2.328240e+00 8.327118e-01 1.714233e+00 1.420625e+00 1.143719e+00 5.930944e-01 7.132518e-02 7.219980e-02 1.057248e-01 8.327331e-02 1.134171e-01 1.258475e-01 2.710946e-01 3.032681e-01 1.481945e-01 2.510826e-01 2.506204e-01 1.194384e-01 1.019474e-01
<GCONST> 8.841032e+01
<MIXTURE> 2 5.512344e-01
<MEAN> 39
 1.695772e+01 6.169554e+00 6.482765e+00 1.412347e+01 2.248070e-01 -1.883738e+01 -1.370484e+01 2.201174e+01 5.344695e+00 -1.576811e+01 1.445606e+00 -1.212268e+00 -1.020656e+01 -9.103391e-01 1.032840e+00 5.248948e-01 -2.734159e-01 1.564407e-01 2.435581e+00 1.931848e+00 -1.689687e+00 -2.798565e-01 1.823645e+00 -4.788448e-01 -4.829170e-02 8.991848e-01 -2.772153e-01 1.306503e-01 1.639841e-01 -1.292284e-01 1.700935e-01 6.628252e-01 2.579152e-01 -3.302454e-01 2.631127e-02 2.891873e-01 -2.180973e-01 -1.177472e-01 2.523529e-01
<VARIANCE> 39
 1.584558e+01 5.344868e+01 5.062336e+01 3.034045e+01 4.949851e+01 6.790673e+01 5.236816e+01 5.518324e+01 4.068218e+01 7.880424e+01 5.067456e+01 4.242029e+01 2.315495e+01 7.986746e-01 1.177566e+00 1.572608e+00 1.196292e+00 1.408900e+00 3.045722e+00 2.074986e+00 2.090670e+00 1.363346e+00 2.173014e+00 1.546574e+00 1.451738e+00 7.824903e-01 7.308036e-02 1.507033e-01 2.157332e-01 1.493397e-01 1.861328e-01 2.507119e-01 2.564715e-01 3.537630e-01 2.282343e-01 3.827489e-01 2.185069e-01 2.173483e-01 1.295390e-01
<GCONST> 1.049397e+02
<STATE> 6
<NUMMIXES> 2
<MIXTURE> 1 6.823103e-01
<MEAN> 39
 5.104174e+00 9.300279e+00 7.268013e+00 1.033812e+01 5.124714e+00 4.996547e-01 -2.390674e+00 1.240074e+01 2.567737e+00 -7.268266e+00 -1.848413e+00 -3.172058e+00 -4.209564e+00 -1.803977e+00 3.001562e-01 7.317423e-01 -2.749284e-02 5.964723e-01 2.396465e+00 1.491814e+00 -1.030666e+00 -3.901854e-01 9.449894e-01 -4.397667e-01 -1.005392e-01 9.430992e-01 -9.981596e-02 -2.503020e-01 7.583262e-02 8.845584e-02 -4.108706e-02 -2.538072e-01 -2.112611e-01 1.682086e-01 -7.632594e-02 -2.494249e-01 1.431562e-01 5.952759e-02 -1.181466e-01
<VARIANCE> 39
 1.639951e+02 7.418074e+01 6.662978e+01 4.859946e+01 6.476962e+01 7.564813e+01 5.832158e+01 5.188556e+01 3.693689e+01 1.031656e+02 6.382057e+01 3.847775e+01 2.322159e+01 1.516734e+00 3.080339e+00 3.362499e+00 1.718644e+00 2.068996e+00 4.432410e+00 3.246921e+00 2.711168e+00 2.232457e+00 2.845166e+00 2.077368e+00 1.229472e+00 1.309434e+00 1.197371e-01 2.018641e-01 2.640390e-01 2.076372e-01 2.011701e-01 2.675733e-01 3.439927e-01 3.602125e-01 2.964018e-01 3.184496e-01 2.966125e-01 1.899334e-01 1.728688e-01
<GCONST> 1.169896e+02
<MIXTURE> 2 3.176898e-01
<MEAN> 39
 1.806630e+01 8.059326e+00 5.295772e+00 1.282238e+01 6.076315e+00 -1.272172e+01 -1.933894e+01 9.009312e+00 6.907282e+00 -6.108006e+00 1.864206e+00 -4.837711e+00 -1.154446e+01 -2.027320e-01 4.190268e-01 1.100685e-01 4.312803e-01 8.054266e-01 8.625847e-01 7.770048e-02 -1.481861e+00 -5.048634e-01 1.069506e+00 -1.438253e-01 -5.639911e-01 3.044220e-01 -3.930211e-02 1.085115e-02 5.192682e-02 -3.957189e-02 1.121402e-03 1.521757e-01 1.454337e-01 9.682757e-02 -1.050045e-01 -2.261131e-01 -6.357609e-02 3.247514e-02 2.479940e-02
<VARIANCE> 39
 5.274537e+00 2.133154e+01 2.289025e+01 3.507762e+01 3.467774e+01 4.085785e+01 6.490372e+01 5.055326e+01 4.892782e+01 4.736215e+01 8.380652e+01 5.746513e+01 2.371481e+01 2.294119e-01 4.608566e-01 6.995884e-01 1.273903e+00 8.706214e-01 1.399861e+00 1.559620e+00 1.458397e+00 7.114992e-01 1.672503e+00 1.302003e+00 7.919728e-01 7.702821e-01 3.074940e-02 4.832397e-02 7.811621e-02 1.262020e-01 1.104725e-01 1.113176e-01 2.169548e-01 1.745318e-01 9.816817e-02 1.611272e-01 1.538064e-01 1.153389e-01 8.783483e-02
<GCONST> 8.702168e+01
<TRANSP> 7
 0.000000e+00 1.000000e+00 0.000000e+00 0.000000e+00 0.000000e+00 0.000000e+00 0.000000e+00
 0.000000e+00 7.784460e-01 2.215540e-01 0.000000e+00 0.000000e+00 0.000000e+00 0.000000e+00
 0.000000e+00 0.000000e+00 7.714223e-01 2.285777e-01 0.000000e+00 0.000000e+00 0.000000e+00
 0.000000e+00 0.000000e+00 0.000000e+00 9.102327e-01 8.976722e-02 0.000000e+00 0.000000e+00
 0.000000e+00 0.000000e+00 0.000000e+00 0.000000e+00 7.876318e-01 2.123682e-01 0.000000e+00
 0.000000e+00 0.000000e+00 0.000000e+00 0.000000e+00 0.000000e+00 7.864478e-01 2.135522e-01
 0.000000e+00 0.000000e+00 0.000000e+00 0.000000e+00 0.000000e+00 0.000000e+00 0.000000e+00
<ENDHMM>
~h "p"
<BEGINHMM>
<NUMSTATES> 5
<STATE> 2
<NUMMIXES> 2
<MIXTURE> 1 1.262241e-01
<MEAN> 39
 -2.453684e+01 -1.052027e+01 -9.271996e+00 -4.403462e+00 -1.233469e+00 5.764243e+00 3.708362e-01 4.397561e-01 -9.198569e+00 -6.384871e+00 3.819084e+00 5.435215e+00 3.034852e+00 -1.391645e-01 1.814024e-01 -1.317800e-01 -1.571247e-01 -4.267061e-02 -2.083100e-01 -1.580142e-01 -1.921916e-01 -3.730404e-02 8.098365e-02 -1.241690e-03 -2.126194e-02 -8.228006e-02 6.414250e-02 4.085070e-03 1.008223e-01 4.375001e-02 2.714843e-02 7.372911e-02 2.421537e-02 5.852145e-02 2.902864e-02 8.288362e-03 -5.315199e-04 -2.507200e-02 -9.459415e-03
<VARIANCE> 39
 2.450041e+00 1.166623e+01 1.542520e+01 1.714798e+01 1.739603e+01 2.363093e+01 1.714674e+01 1.958743e+01 4.627786e+01 2.187889e+01 1.811935e+01 2.777390e+01 1.225605e+01 3.185229e-01 1.399030e+00 1.443862e+00 1.117569e+00 1.090455e+00 1.962935e+00 1.762663e+00 1.646699e+00 2.258657e+00 1.741615e+00 1.457205e+00 1.459246e+00 1.052404e+00 5.868693e-02 1.224528e-01 1.714463e-01 1.365752e-01 1.705640e-01 3.027278e-01 3.156578e-01 2.757255e-01 3.394569e-01 2.356493e-01 2.551189e-01 2.325951e-01 1.651353e-01
<GCONST> 9.051634e+01
<MIXTURE> 2 8.737758e-01
<MEAN> 39
 -5.194615e+00 1.192778e+01 1.088413e+01 1.192456e+01 8.667880e+00 8.107535e+00 1.727505e+00 8.025947e+00 4.345199e-01 -3.217739e+00 -1.115611e+00 -1.336484e+00 -2.156065e-01 -2.890819e+00 -1.317190e+00 -3.077874e-01 -7.273256e-01 -6.187702e-01 4.860714e-01 4.149770e-01 -4.820102e-01 -8.005320e-02 7.814412e-01 5.152018e-01 1.858319e-01 4.153920e-01 4.717729e-02 -6.208639e-01 -6.107489e-01 -2.162101e-01 -1.025290e-01 -2.484767e-01 -1.667007e-01 6.404458e-02 9.466452e-03 -1.495432e-01 2.028944e-03 3.358363e-02 -1.446653e-02
<VARIANCE> 39
 5.638342e+01 2.154549e+01 2.830707e+01 2.883539e+01 3.648252e+01 4.217229e+01 2.245426e+01 3.573883e+01 4.928289e+01 3.594218e+01 1.967337e+01 1.756435e+01 1.677854e+01 4.602553e-01 3.001034e+00 3.285807e+00 1.404951e+00 1.632951e+00 1.860745e+00 1.280656e+00 1.475814e+00 1.487410e+00 1.516938e+00 1.278751e+00 1.079497e+00 1.159401e+00 8.858001e-02 1.425739e-01 1.699267e-01 2.295453e-01 3.052472e-01 2.785720e-01 2.219717e-01 2.651520e-01 2.684582e-01 2.650794e-01 2.542707e-01 2.081442e-01 2.006860e-01
<GCONST> 1.004390e+02
<STATE> 3
<NUMMIXES> 2
<MIXTURE> 1 5.245588e-01
<MEAN> 39
 -2.002239e+01 -2.742993e+00 -4.819318e-01 2.857639e+00 1.969900e+00 5.736333e+00 7.244860e-01 5.716376e+00 5.513367e-01 -6.927166e-01 7.551223e-01 -1.537937e-01 2.020340e+00 -3.259060e-01 -1.934279e+00 -1.466570e+00 -6.546116e-01 -1.077023e-01 1.342432e-01 -3.974763e-02 1.934396e-01 -5.829781e-02 -3.988475e-01 -1.463576e-01 1.012442e-01 5.635291e-01 8.715075e-01 3.562006e-01 4.159888e-01 3.827603e-01 3.268640e-01 1.755511e-01 -5.635112e-03 2.258304e-01 -3.823448e-02 -2.519768e-01 -7.890595e-02 -8.497971e-02 -1.544641e-03
<VARIANCE> 39
 3.577419e+01 3.099120e+01 2.423788e+01 3.337356e+01 4.231219e+01 3.953669e+01 2.650793e+01 3.406288e+01 3.330309e+01 3.324804e+01 1.992926e+01 1.522326e+01 1.623348e+01 5.304107e+00 5.550093e+00 4.954669e+00 5.164455e+00 5.873442e+00 4.829624e+00 3.863090e+00 4.443300e+00 3.471343e+00 3.043526e+00 2.497952e+00 2.271081e+00 2.453871e+00 2.611115e-01 2.765875e-01 4.317774e-01 4.686579e-01 5.136455e-01 4.714453e-01 4.824631e-01 4.731484e-01 4.570257e-01 4.447446e-01 4.467993e-01 3.703072e-01 4.193561e-01
<GCONST> 1.215444e+02
<MIXTURE> 2 4.754412e-01
<MEAN> 39
 -2.663204e+01 -6.111411e+00 -5.031004e+00 -2.980494e+00 -3.789814e+00 5.638418e-01 -3.605250e+00 9.435670e-01 -1.611089e+00 -5.240530e-01 3.541082e-01 -1.014314e+00 4.150063e-01 8.023663e-03 -2.283862e-03 -1.463276e-02 3.007246e-02 4.651189e-02 1.095005e-02 -1.105596e-02 3.972537e-02 3.910950e-02 6.628785e-03 -1.668829e-02 2.366827e-02 4.247726e-02 1.875405e-01 8.142995e-02 1.232355e-01 1.645635e-01 1.885935e-01 1.836387e-01 1.432040e-01 1.471024e-01 5.890426e-02 -2.122720e-03 2.022207e-02 4.736738e-02 7.651318e-02
<VARIANCE> 39
 4.542109e-01 1.021956e+00 1.766743e+00 2.627796e+00 3.397858e+00 5.003476e+00 5.100939e+00 5.740909e+00 6.290488e+00 6.788510e+00 6.175657e+00 5.921281e+00 4.973318e+00 1.399424e-01 2.249158e-01 3.396854e-01 4.809528e-01 6.607046e-01 8.521227e-01 8.765034e-01 1.017146e+00 9.959425e-01 1.010468e+00 9.709547e-01 9.370179e-01 8.413407e-01 1.174894e-01 9.478930e-02 1.364841e-01 1.842934e-01 2.204916e-01 2.599933e-01 2.570423e-01 2.815343e-01 2.519848e-01 2.328262e-01 2.263628e-01 2.270417e-01 1.996018e-01
<GCONST> 6.031155e+01
<STATE> 4
<NUMMIXES> 2
<MIXTURE> 1 4.920008e-01
<MEAN> 39
 -7.998763e+00 -3.039739e+00 -1.884604e+00 7.922215e+00 8.988966e+00 8.520282e+00 9.380350e-01 1.009378e+01 2.700679e+00 -2.973667e+00 -4.346260e-01 2.820293e-01 5.671203e+00 3.910491e+00 -4.158981e-01 -6.538163e-01 5.376821e-01 7.181387e-01 -2.642752e-01 -8.321347e-01 9.716218e-01 1.042082e-02 -1.072073e+00 2.834487e-01 -5.585083e-01 -3.200460e-01 3.145341e-01 -3.847009e-02 -1.275088e-01 -3.824001e-01 -4.538021e-01 -4.954855e-01 -4.061326e-01 -9.162202e-02 -3.288001e-01 -3.080432e-01 2.746287e-01 -1.550289e-01 -5.110492e-01
<VARIANCE> 39
 6.674790e+01 1.678317e+01 1.434151e+01 2.010215e+01 3.043566e+01 4.353762e+01 3.826671e+01 2.417604e+01 2.640869e+01 2.328208e+01 1.930343e+01 1.795362e+01 1.448107e+01 1.039261e+00 1.235022e+00 1.043298e+00 2.180799e+00 3.094990e+00 4.541699e+00 2.858461e+00 2.239802e+00 2.437251e+00 2.244570e+00 2.411583e+00 1.823454e+00 2.556743e+00 1.938430e-01 2.170944e-01 2.585726e-01 2.690702e-01 4.130147e-01 5.087835e-01 4.189755e-01 3.918642e-01 4.278501e-01 4.150181e-01 3.993284e-01 3.662044e-01 3.079813e-01
<GCONST> 1.089856e+02
<MIXTURE> 2 5.079989e-01
<MEAN> 39
 -7.464404e-01 -9.466955e+00 -2.520812e+00 5.963830e+00 9.125833e+00 1.375963e+01 1.656601e+00 1.230819e+01 -3.471578e+00 -9.685297e+00 3.315254e+00 -3.622426e+00 1.004191e+00 2.079221e+00 3.559047e-01 7.507018e-01 4.289294e-01 2.454281e-01 -4.329216e-01 -7.685632e-01 9.161641e-02 -5.131893e-01 -7.155182e-01 6.122780e-01 3.182454e-01 -5.257704e-01 -2.768679e-01 4.559568e-01 2.333871e-01 3.102289e-01 1.493837e-02 -5.837429e-01 -2.520119e-01 -2.452869e-01 3.126590e-01 3.194374e-01 -2.339631e-01 2.567238e-01 -1.054252e-02
<VARIANCE> 39
 9.593230e+01 1.078455e+02 7.574744e+01 9.751429e+01 1.234721e+02 1.141222e+02 7.826820e+01 7.922966e+01 6.682279e+01 6.231444e+01 5.067156e+01 3.678354e+01 2.676312e+01 3.944731e+00 4.626780e+00 3.768077e+00 4.068754e+00 3.227555e+00 6.713660e+00 4.233593e+00 4.376870e+00 4.905400e+00 5.133332e+00 3.843817e+00 2.129596e+00 1.982019e+00 2.061146e-01 4.315937e-01 5.797570e-01 4.863681e-01 3.861623e-01 8.375185e-01 6.924716e-01 5.822760e-01 7.501947e-01 8.332086e-01 6.889341e-01 4.157523e-01 3.892089e-01
<GCONST> 1.365220e+02
<TRANSP> 5
 0.000000e+00 1.000000e+00 0.000000e+00 0.000000e+00 0.000000e+00
 0.000000e+00 8.524406e-01 1.475594e-01 0.000000e+00 0.000000e+00
 0.000000e+00 0.000000e+00 8.788626e-01 1.211374e-01 0.000000e+00
 0.000000e+00 0.000000e+00 0.000000e+00 8.606784e-01 1.393216e-01
 0.000000e+00 0.000000e+00 0.000000e+00 0.000000e+00 0.000000e+00
<ENDHMM>
~h "q"
<BEGINHMM>
<NUMSTATES> 5
<STATE> 2
<NUMMIXES> 2
<MIXTURE> 1 4.773685e-01
<MEAN> 39
 3.414778e+00 3.850796e+00 3.823565e+00 1.437183e+01 1.290545e+01 2.425628e+00 -8.736015e+00 3.663608e+00 -3.111396e+00 -7.870545e+00 8.900428e-01 -1.995944e+00 -4.009314e+00 -9.701044e-01 4.316196e-01 3.780677e-01 -2.001751e-01 -4.946584e-01 2.127100e-01 1.989956e-01 -1.176346e+00 -4.132817e-01 2.776825e-01 -1.090162e+00 -5.103151e-01 3.384434e-01 1.034359e-01 -2.524188e-01 -1.210577e-02 -1.432832e-02 8.178587e-02 2.770332e-02 8.962685e-04 4.172814e-01 8.720507e-02 -1.239329e-01 3.702866e-01 1.120278e-01 -1.203665e-01
<VARIANCE> 39
 2.706067e+02 5.946331e+01 5.232824e+01 1.026743e+02 1.244143e+02 6.473598e+01 9.914256e+01 9.788388e+01 4.125691e+01 6.552462e+01 6.240201e+01 3.069100e+01 3.212685e+01 1.318524e+00 2.215950e+00 3.056104e+00 3.639493e+00 3.700315e+00 3.315106e+00 4.301389e+00 2.494144e+00 1.490571e+00 2.476377e+00 1.654109e+00 1.125081e+00 1.627662e+00 1.273629e-01 2.951589e-01 3.284853e-01 3.911246e-01 4.111364e-01 3.621775e-01 4.207257e-01 3.150815e-01 2.600412e-01 3.300226e-01 2.940744e-01 2.032054e-01 1.905332e-01
<GCONST> 1.216423e+02
<MIXTURE> 2 5.226313e-01
<MEAN> 39
 1.469449e+01 6.396074e+00 6.517801e+00 2.293495e+01 1.421646e+01 -6.344680e+00 -7.821551e+00 1.608617e+01 5.922469e+00 -1.103317e+01 -7.690336e+00 -1.004384e+01 -1.376232e+01 -2.065569e-01 3.809520e-01 5.239334e-01 7.235571e-02 -1.338137e-02 2.990523e-01 8.495022e-02 -4.091150e-01 -2.320774e-01 2.228215e-01 4.830258e-02 -1.976898e-01 -8.310116e-02 8.344061e-03 2.160503e-02 -4.230881e-02 -1.432688e-01 -1.058447e-01 2.204885e-02 5.518306e-02 -2.050676e-03 -8.922121e-03 6.646810e-03 2.081349e-02 8.055295e-02 1.066166e-01
<VARIANCE> 39
 3.460591e+00 1.547611e+01 2.433140e+01 1.197205e+01 1.827629e+01 1.970659e+01 1.440893e+01 2.621148e+01 2.133410e+01 1.579326e+01 1.727694e+01 1.514743e+01 9.708772e+00 1.069939e-01 3.750730e-01 3.823207e-01 9.131684e-01 7.835494e-01 8.402834e-01 8.014066e-01 9.849099e-01 7.225230e-01 6.030549e-01 5.165852e-01 6.610314e-01 7.369653e-01 1.803544e-02 5.072062e-02 5.944940e-02 1.181131e-01 1.148358e-01 1.209544e-01 1.216175e-01 1.440133e-01 1.113825e-01 1.079804e-01 8.656614e-02 1.179875e-01 1.029096e-01
<GCONST> 6.812466e+01
<STATE> 3
<NUMMIXES> 2
<MIXTURE> 1 4.337677e-01
<MEAN> 39
 -5.131539e-01 1.215594e+01 1.219352e+01 1.505622e+01 1.084007e+01 6.777962e+00 -2.703258e+00 2.910364e+00 -4.242647e+00 -6.072115e+00 -1.519719e+00 -3.942518e+00 -3.571936e+00 -1.495807e+00 -1.818101e-01 1.276095e-01 -6.541830e-01 -6.735404e-01 5.128862e-01 8.103606e-01 2.106352e-01 1.006109e-01 2.053114e-01 -2.021388e-01 1.221519e-01 4.519387e-01 -4.028261e-02 -3.076642e-01 -1.224185e-01 4.208452e-02 1.150993e-01 -9.007776e-03 -1.109362e-01 1.096227e-01 1.504137e-01 5.987904e-02 1.526969e-01 7.482083e-02 3.840039e-02
<VARIANCE> 39
 1.288657e+02 7.720818e+01 5.419493e+01 5.816750e+01 4.492913e+01 3.254808e+01 3.355474e+01 3.198186e+01 2.665032e+01 3.346575e+01 3.238137e+01 2.070487e+01 1.700450e+01 1.118032e+00 1.352135e+00 2.087974e+00 1.458809e+00 1.474759e+00 1.758000e+00 2.120127e+00 1.695109e+00 1.302308e+00 1.573922e+00 1.292517e+00 1.003487e+00 9.730445e-01 1.083971e-01 2.592759e-01 3.084803e-01 3.101710e-01 2.841079e-01 2.192350e-01 2.604581e-01 2.901646e-01 2.210412e-01 2.535219e-01 2.399771e-01 1.697311e-01 1.673680e-01
<GCONST> 1.049015e+02
<MIXTURE> 2 5.662323e-01
<MEAN> 39
 1.329864e+01 1.162359e+01 9.558063e+00 2.137526e+01 1.998941e+01 4.062348e+00 -1.346872e+01 -5.389051e+00 -5.486890e+00 -7.162008e+00 -4.328201e+00 -7.401114e+00 -5.335023e+00 -4.394194e-01 6.768112e-01 6.287515e-01 -2.700920e-01 -5.230216e-01 4.435904e-01 8.414660e-01 1.076971e-01 -1.192960e-01 8.525345e-02 -3.246708e-01 -2.628914e-01 7.145903e-02 -7.315597e-02 -5.815858e-02 -1.674720e-02 -3.684856e-02 -5.305313e-02 9.736462e-03 9.759653e-02 2.162759e-01 1.747892e-02 -9.680084e-02 7.640716e-02 7.812729e-02 -2.311797e-02
<VARIANCE> 39
 5.418576e+00 2.082586e+01 2.108114e+01 1.546021e+01 3.010564e+01 2.534916e+01 4.516211e+01 4.229129e+01 1.597809e+01 2.862625e+01 2.680506e+01 2.003304e+01 1.649519e+01 2.290488e-01 4.171714e-01 4.250753e-01 6.629181e-01 9.358146e-01 5.906198e-01 1.510492e+00 1.197643e+00 5.986108e-01 9.681530e-01 7.412480e-01 7.759880e-01 5.160415e-01 1.866964e-02 7.001965e-02 5.499009e-02 1.111118e-01 1.527576e-01 7.970291e-02 1.789459e-01 1.301937e-01 9.918363e-02 1.427824e-01 9.916372e-02 1.153230e-01 8.600733e-02
<GCONST> 7.513487e+01
<STATE> 4
<NUMMIXES> 2
<MIXTURE> 1 7.799589e-01
<MEAN> 39
 -2.662692e+01 -6.329183e+00 -5.136458e+00 -2.954309e+00 -3.713114e+00 7.466760e-01 -3.500037e+00 1.076916e+00 -1.738336e+00 -6.616981e-01 5.879669e-01 -8.089790e-01 5.167856e-01 -3.559993e-03 -6.613168e-03 -3.577912e-03 3.812323e-03 1.154017e-04 -3.733731e-03 2.417628e-03 4.513572e-03 2.071033e-03 7.781576e-03 1.122492e-03 1.915806e-04 8.051033e-04 2.865455e-02 1.866842e-02 2.516148e-02 3.512662e-02 3.888008e-02 3.126163e-02 2.578340e-02 2.254836e-02 4.329454e-03 -2.901132e-05 1.630000e-02 1.733382e-02 4.728428e-03
<VARIANCE> 39
 5.485346e-01 1.253626e+00 1.805676e+00 2.637066e+00 3.687908e+00 4.955396e+00 5.575796e+00 6.408094e+00 8.432037e+00 8.010058e+00 6.557103e+00 6.793243e+00 5.391264e+00 7.479262e-02 1.609792e-01 2.574702e-01 3.939244e-01 5.477648e-01 7.195628e-01 8.274737e-01 9.282104e-01 1.088712e+00 1.062945e+00 9.630437e-01 9.463603e-01 7.946287e-01 2.556676e-02 4.201338e-02 6.822614e-02 1.011280e-01 1.314173e-01 1.674126e-01 1.949572e-01 2.123350e-01 2.342629e-01 2.284876e-01 2.132722e-01 2.012149e-01 1.754741e-01
<GCONST> 5.432922e+01
<MIXTURE> 2 2.200415e-01
<MEAN> 39
 -1.209310e+01 7.818117e-01 2.766010e+00 6.665495e+00 5.596063e+00 6.330863e+00 -1.262608e+00 3.858818e+00 -4.207892e+00 -5.031881e+00 1.463798e+00 3.984411e-01 -2.225605e-01 -5.172500e-01 -4.481992e-01 -3.768054e-02 -2.026032e-01 -2.197759e-01 2.393743e-01 4.857280e-01 5.049320e-01 3.642641e-01 1.770284e-01 -2.607560e-03 1.433459e-01 3.186820e-01 1.646396e-01 -1.064532e-01 -1.527532e-02 1.338793e-01 1.156313e-01 -9.988624e-02 -1.371009e-01 1.114112e-01 7.941648e-02 -4.048325e-02 3.879769e-02 -1.887960e-02 -3.560201e-02
<VARIANCE> 39
 1.916331e+02 1.112020e+02 1.087236e+02 1.033392e+02 7.046221e+01 5.191080e+01 5.109051e+01 5.535215e+01 5.890701e+01 5.255607e+01 4.681393e+01 4.994159e+01 2.816936e+01 4.408130e+00 3.084169e+00 4.044888e+00 3.980544e+00 3.412964e+00 2.849952e+00 2.731081e+00 2.938064e+00 2.574950e+00 2.767082e+00 1.887171e+00 1.622944e+00 1.449577e+00 2.607107e-01 3.674667e-01 4.006064e-01 3.806311e-01 3.697724e-01 3.846819e-01 3.502408e-01 4.123568e-01 3.757092e-01 3.750425e-01 3.339099e-01 2.790848e-01 2.421137e-01
<GCONST> 1.255937e+02
<TRANSP> 5
 0.000000e+00 1.000000e+00 0.000000e+00 0.000000e+00 0.000000e+00
 0.000000e+00 6.251057e-01 3.748943e-01 0.000000e+00 0.000000e+00
 0.000000e+00 0.000000e+00 8.155483e-01 1.844518e-01 0.000000e+00
 0.000000e+00 0.000000e+00 0.000000e+00 8.950633e-01 1.049367e-01
 0.000000e+00 0.000000e+00 0.000000e+00 0.000000e+00 0.000000e+00
<ENDHMM>
~h "r"
<BEGINHMM>
<NUMSTATES> 5
<STATE> 2
<NUMMIXES> 2
<MIXTURE> 1 7.793248e-01
<MEAN> 39
 2.083022e+01 -1.567086e+00 -1.256303e+01 2.640295e+00 1.411328e+01 3.558093e+00 -1.234316e+01 4.353468e+00 -4.526084e+00 -1.246798e+01 2.010394e+00 4.208204e-01 2.188800e+00 -1.235375e+00 1.821647e+00 1.132210e+00 4.566413e-01 -3.296498e-02 2.013568e+00 2.418548e+00 -1.340751e+00 1.407279e-01 1.057751e+00 -2.086488e+00 -1.459107e-01 6.638523e-01 -2.746367e-01 -7.349582e-02 5.210464e-01 2.499022e-01 -3.475154e-01 -2.661601e-01 2.447770e-01 6.100466e-01 -5.614409e-02 -1.998888e-01 2.840271e-01 3.119618e-02 -1.373323e-01
<VARIANCE> 39
 1.670767e+01 2.251780e+01 3.660801e+01 3.818516e+01 4.202253e+01 2.911170e+01 5.252996e+01 3.090759e+01 2.376730e+01 3.293937e+01 3.846794e+01 3.286076e+01 1.890506e+01 1.620327e+00 1.124703e+00 2.795016e+00 1.415220e+00 1.947364e+00 1.894220e+00 3.697708e+00 2.781788e+00 1.813339e+00 2.198882e+00 1.826171e+00 1.351839e+00 1.139077e+00 2.307634e-01 2.349432e-01 3.288635e-01 2.264602e-01 1.746595e-01 2.193382e-01 6.222361e-01 3.769175e-01 2.524796e-01 4.192023e-01 5.007455e-01 2.187676e-01 1.931509e-01
<GCONST> 1.077989e+02
<MIXTURE> 2 2.206755e-01
<MEAN> 39
 1.879807e+01 -8.357157e+00 -3.423182e+00 1.251759e+01 1.775700e+01 -1.154101e+00 -1.894665e+01 1.043449e+01 -1.319662e+01 -2.371405e+01 1.392837e+01 1.005932e-01 -8.833923e+00 2.157966e-01 -4.579285e-02 -3.352315e-01 -6.394849e-02 3.748783e-01 1.261849e-01 -2.812090e-01 -8.569174e-02 -1.760120e-01 -3.633572e-01 -7.529216e-02 3.269245e-02 1.410289e-02 -1.844932e-01 1.399459e-01 1.619456e-01 -5.332487e-02 -1.143887e-01 3.274951e-01 2.750465e-01 -2.553516e-01 2.048986e-01 2.989224e-01 -3.830092e-01 1.213823e-02 2.489179e-01
<VARIANCE> 39
 1.298649e+01 3.178347e+01 2.959226e+01 6.708421e+01 7.997191e+01 2.893506e+01 1.109263e+02 5.656461e+01 2.763739e+01 4.656205e+01 8.255896e+01 2.312029e+01 3.973853e+01 6.754209e-01 1.026487e+00 1.344293e+00 8.289071e-01 1.261750e+00 1.723278e+00 2.746797e+00 2.076668e+00 1.066376e+00 1.821045e+00 2.931095e+00 8.777497e-01 1.057497e+00 1.201572e-01 1.282358e-01 1.813466e-01 1.406736e-01 1.409691e-01 1.972165e-01 3.141463e-01 3.215631e-01 1.555497e-01 2.880232e-01 3.307881e-01 1.175558e-01 1.365226e-01
<GCONST> 1.020449e+02
<STATE> 3
<NUMMIXES> 2
<MIXTURE> 1 7.539667e-01
<MEAN> 39
 1.481100e+01 3.841954e+00 -5.194983e+00 6.714236e+00 1.246747e+01 7.307470e+00 -3.896053e+00 4.273502e+00 -4.668582e+00 -1.070484e+01 -2.303476e+00 2.137765e-01 3.287386e+00 -1.526221e-01 9.091525e-02 5.984212e-01 5.528932e-01 -6.976808e-02 3.743422e-01 5.553282e-01 3.967124e-01 -1.185927e+00 -1.068160e+00 7.344583e-01 2.662340e-01 -6.501498e-01 7.254312e-01 -9.166048e-01 -7.479228e-01 -1.641275e-01 3.676254e-01 -5.033347e-01 -1.117899e+00 2.101216e-01 -6.048875e-01 -8.628126e-01 1.009484e+00 2.438249e-01 -3.885746e-01
<VARIANCE> 39
 8.843883e+00 1.326045e+01 1.780375e+01 3.038958e+01 2.563176e+01 1.619737e+01 3.050166e+01 2.303915e+01 2.109253e+01 2.303424e+01 2.624940e+01 1.760950e+01 1.375606e+01 2.181781e+00 3.214340e+00 3.896239e+00 1.954503e+00 2.498640e+00 2.191034e+00 5.010309e+00 2.482805e+00 2.328332e+00 3.386582e+00 3.749515e+00 1.860117e+00 1.732067e+00 1.796090e-01 2.493182e-01 3.146802e-01 2.352734e-01 2.315523e-01 2.362389e-01 3.970375e-01 4.559025e-01 3.395343e-01 4.165428e-01 4.408954e-01 2.296837e-01 2.406917e-01
<GCONST> 1.070234e+02
<MIXTURE> 2 2.460332e-01
<MEAN> 39
 1.513884e+01 -4.928307e+00 5.177011e-01 1.535436e+01 1.507694e+01 4.880570e+00 -9.169949e+00 6.073383e+00 -1.574577e+01 -2.014459e+01 8.927820e+00 -3.008417e-01 -4.178787e+00 -7.174492e-01 -5.340051e-02 1.238978e+00 2.426786e-01 -5.863744e-01 9.551141e-01 7.457592e-01 -6.135703e-01 2.548905e-01 7.435711e-01 -6.159906e-01 -1.116640e-01 3.796966e-01 -3.707186e-01 2.640992e-01 3.211478e-01 -3.445894e-01 -6.921032e-02 3.126372e-01 8.673558e-02 -7.550814e-02 5.044069e-01 5.234576e-01 -3.327915e-01 -5.327785e-03 2.101470e-01
<VARIANCE> 39
 2.534658e+01 3.261915e+01 4.248239e+01 1.008865e+02 1.402581e+02 4.961062e+01 1.152138e+02 6.494750e+01 4.635176e+01 4.431066e+01 7.505927e+01 3.021481e+01 6.770121e+01 1.700391e+00 3.506333e+00 3.890484e+00 2.337159e+00 3.879506e+00 4.831989e+00 4.721818e+00 3.814815e+00 4.405307e+00 5.109608e+00 5.629080e+00 1.314554e+00 2.596745e+00 1.824861e-01 3.689575e-01 4.076030e-01 2.890378e-01 4.297286e-01 3.600661e-01 5.342395e-01 5.596462e-01 6.218171e-01 6.743371e-01 5.333400e-01 2.494224e-01 2.433961e-01
<GCONST> 1.277700e+02
<STATE> 4
<NUMMIXES> 2
<MIXTURE> 1 4.452806e-01
<MEAN> 39
 7.222728e+00 4.894226e+00 -1.102275e+00 6.674074e+00 1.033493e+01 9.964627e+00 3.679877e-01 5.867483e+00 -5.858502e+00 -1.041162e+01 -8.767080e-01 3.388013e-01 2.207814e+00 -2.175679e+00 8.153806e-01 1.914069e+00 5.032886e-01 -3.265707e-01 7.206689e-01 1.135602e+00 2.005989e-01 1.013664e+00 1.222995e+00 -7.806706e-01 -3.554046e-01 2.438329e-01 -1.320764e-01 -1.177250e-01 7.440829e-02 8.268343e-03 3.129312e-02 -6.960220e-02 -1.712772e-01 5.718293e-02 -1.517772e-01 -1.632963e-01 1.898222e-01 5.427995e-02 -6.257959e-02
<VARIANCE> 39
 1.498135e+02 5.634397e+01 5.135048e+01 6.171136e+01 6.828452e+01 5.103143e+01 6.176544e+01 4.992460e+01 4.539763e+01 4.186606e+01 4.278332e+01 3.773369e+01 3.757013e+01 2.350185e+00 3.314103e+00 3.643620e+00 2.295974e+00 1.971712e+00 2.199789e+00 2.641609e+00 1.996164e+00 2.641248e+00 3.162906e+00 2.211823e+00 1.703992e+00 1.549798e+00 2.078778e-01 2.843027e-01 3.245815e-01 2.435351e-01 2.259284e-01 2.326521e-01 3.210428e-01 3.436539e-01 4.127395e-01 4.244503e-01 3.166838e-01 2.277036e-01 2.124083e-01
<GCONST> 1.182894e+02
<MIXTURE> 2 5.547196e-01
<MEAN> 39
 2.024630e+01 -6.800852e-01 -1.081598e+01 4.611532e+00 1.610697e+01 6.953643e+00 -1.046488e+01 5.391648e+00 -1.100559e+01 -1.882081e+01 5.644241e+00 2.559979e+00 -1.134642e+00 5.700966e-01 -7.752972e-01 -5.742091e-01 -1.268866e-03 6.935396e-01 -4.582624e-01 -1.299096e+00 2.420270e-01 -4.716731e-01 -7.737193e-01 1.163420e+00 3.138112e-01 -5.325769e-01 -4.098974e-01 1.867582e-01 4.062954e-01 1.077014e-01 -1.152980e-01 -2.099384e-03 2.370243e-01 1.003912e-01 5.291308e-01 5.409876e-01 -2.973523e-01 -1.899776e-01 1.317994e-01
<VARIANCE> 39
 1.129182e+01 2.361201e+01 2.364323e+01 5.059090e+01 4.237210e+01 3.489745e+01 6.098497e+01 3.213396e+01 2.233674e+01 3.035662e+01 5.328574e+01 1.908428e+01 2.079434e+01 1.613146e+00 1.683192e+00 1.940471e+00 1.274019e+00 1.527923e+00 1.666274e+00 3.799819e+00 2.254374e+00 2.668515e+00 3.783225e+00 3.285606e+00 1.318285e+00 1.378804e+00 2.826436e-01 2.627319e-01 3.600290e-01 1.873792e-01 2.185401e-01 2.720194e-01 5.113348e-01 3.776185e-01 3.197559e-01 4.786250e-01 4.439491e-01 2.138266e-01 1.834037e-01
<GCONST> 1.091020e+02
<TRANSP> 5
 0.000000e+00 1.000000e+00 0.000000e+00 0.000000e+00 0.000000e+00
 0.000000e+00 6.568516e-01 3.431483e-01 0.000000e+00 0.000000e+00
 0.000000e+00 0.000000e+00 6.900427e-01 3.099573e-01 0.000000e+00
 0.000000e+00 0.000000e+00 0.000000e+00 8.038884e-01 1.961116e-01
 0.000000e+00 0.000000e+00 0.000000e+00 0.000000e+00 0.000000e+00
<ENDHMM>
~h "s"
<BEGINHMM>
<NUMSTATES> 5
<STATE> 2
<NUMMIXES> 2
<MIXTURE> 1 5.634665e-01
<MEAN> 39
 -2.561475e+00 -1.694463e+01 3.157131e+01 3.149034e+00 4.316180e+00 2.679349e+01 -4.140680e+00 2.293411e+00 -1.237676e+01 -7.165776e+00 8.073804e+00 -1.571306e+00 1.720383e+00 -3.630890e+00 -2.368155e+00 3.731826e+00 -1.894779e+00 -5.958683e-01 1.871448e+00 1.127041e+00 1.498829e+00 -4.882116e-01 1.381314e+00 9.805897e-01 7.182647e-01 1.346631e+00 -2.803728e-02 -8.671488e-02 -7.029273e-01 -1.491021e-01 7.663897e-02 -6.649718e-01 -3.039993e-01 3.480226e-01 1.401446e-01 -9.383541e-02 2.437694e-01 7.587066e-02 -1.897119e-01
<VARIANCE> 39
 9.008595e+01 8.388412e+01 1.376926e+02 9.256049e+01 6.078491e+01 7.103587e+01 6.330527e+01 1.126183e+02 4.375678e+01 5.362228e+01 4.165492e+01 2.747420e+01 3.234183e+01 1.664922e+00 2.831929e+00 6.464359e+00 2.331011e+00 2.193846e+00 3.546787e+00 2.541642e+00 3.419804e+00 2.567087e+00 2.500981e+00 2.703386e+00 1.638485e+00 1.484569e+00 3.082376e-01 3.846764e-01 6.853152e-01 2.874210e-01 4.308993e-01 3.422678e-01 3.410786e-01 7.435365e-01 3.874084e-01 4.488264e-01 4.640193e-01 3.288486e-01 2.152454e-01
<GCONST> 1.255944e+02
<MIXTURE> 2 4.365331e-01
<MEAN> 39
 -1.960006e+01 -2.915808e+01 3.852078e+01 -9.996761e+00 -1.413173e+00 2.630422e+01 -4.006452e+00 9.978034e+00 -1.260851e+01 -7.849692e-01 1.369380e+01 1.863832e+00 6.549440e+00 -1.759922e+00 -1.000716e+00 -4.415691e-01 -2.456327e+00 -1.987544e+00 -1.883387e+00 -1.286970e+00 3.946896e-02 -1.532635e-01 1.389668e-01 -2.761083e-01 -3.715654e-01 1.138239e-01 4.545282e-01 4.026677e-01 -2.202306e-01 2.046064e-01 -3.000978e-02 -1.886006e-01 -1.639728e-01 -3.939447e-01 -1.524511e-01 -3.458912e-01 -3.816367e-01 -2.944607e-01 -2.424742e-01
<VARIANCE> 39
 1.706091e+01 3.160165e+01 3.731520e+01 5.069264e+01 4.950404e+01 5.719271e+01 3.811241e+01 4.856186e+01 3.361304e+01 3.036145e+01 2.122532e+01 1.818364e+01 1.520256e+01 1.409970e+00 1.929309e+00 2.743490e+00 1.865903e+00 1.488740e+00 1.966831e+00 1.369411e+00 2.330447e+00 2.198162e+00 2.183658e+00 2.043725e+00 1.823251e+00 1.243614e+00 1.421856e-01 2.051768e-01 4.120322e-01 2.751167e-01 3.667288e-01 5.135703e-01 3.219285e-01 3.299039e-01 3.206176e-01 2.956243e-01 2.819436e-01 2.780384e-01 1.854580e-01
<GCONST> 1.083493e+02
<STATE> 3
<NUMMIXES> 2
<MIXTURE> 1 7.022664e-02
<MEAN> 39
 -2.517387e+01 -9.640061e+00 -3.464966e+00 -3.324383e+00 -3.331975e+00 4.900229e+00 -2.070771e+00 9.872128e-01 -5.215480e+00 -3.486798e+00 2.475331e+00 1.394483e+00 2.015493e+00 -5.280853e-02 -1.121383e-01 1.809958e-01 -4.992224e-02 -1.538202e-01 9.872947e-03 -1.511933e-01 -4.082775e-02 4.397489e-03 -6.263863e-02 9.551952e-03 -1.303919e-03 -2.628400e-02 5.668006e-02 1.025220e-02 1.606238e-01 -4.432421e-03 3.550476e-02 4.456567e-02 -7.352035e-03 6.462976e-02 -4.223620e-03 2.328956e-02 1.149705e-02 -2.504270e-03 2.195260e-02
<VARIANCE> 39
 1.611923e+01 4.950261e+01 4.901499e+01 1.343232e+01 1.393891e+01 4.920074e+01 1.672875e+01 1.548813e+01 4.072277e+01 2.495144e+01 1.903525e+01 1.999206e+01 1.093801e+01 6.724037e-01 2.021650e+00 4.189582e+00 1.299014e+00 1.418522e+00 2.476836e+00 1.422486e+00 1.484805e+00 1.966275e+00 1.506592e+00 1.407719e+00 1.397496e+00 1.012415e+00 8.205879e-02 1.415402e-01 2.298161e-01 1.571328e-01 1.999205e-01 2.805615e-01 2.392482e-01 2.774173e-01 2.969083e-01 2.546079e-01 2.465944e-01 2.529047e-01 1.945826e-01
<GCONST> 9.761099e+01
<MIXTURE> 2 9.297732e-01
<MEAN> 39
 -2.390817e+01 -2.995351e+01 3.693098e+01 -1.790169e+01 -7.937379e+00 1.902569e+01 -9.684304e+00 8.239886e+00 -1.444697e+01 -2.522513e+00 1.009748e+01 -1.629225e+00 5.564044e+00 -1.883963e-02 -1.715598e-01 -1.532407e-01 -1.508216e-01 7.589997e-02 -2.516419e-02 -1.121524e-01 -1.219056e-01 -1.879872e-01 5.070163e-02 -8.069651e-03 -8.913875e-02 1.009594e-02 9.338791e-02 -9.654673e-03 -9.631662e-02 1.511488e-01 1.475720e-01 1.390847e-01 1.073947e-01 -1.383532e-02 2.853189e-02 3.965326e-02 7.013442e-02 8.647998e-02 3.544009e-02
<VARIANCE> 39
 1.092514e+01 2.859019e+01 1.503194e+01 3.117718e+01 2.411041e+01 2.869054e+01 3.089677e+01 2.524965e+01 3.728996e+01 2.505986e+01 2.458127e+01 2.034440e+01 1.148243e+01 1.137517e+00 1.482809e+00 1.245494e+00 7.651533e-01 6.821070e-01 1.007944e+00 6.852380e-01 1.053080e+00 1.692905e+00 1.651504e+00 1.909436e+00 1.693448e+00 9.661121e-01 2.148405e-01 2.282022e-01 1.992220e-01 1.325895e-01 1.134275e-01 1.660703e-01 1.318182e-01 1.847096e-01 2.960304e-01 3.061248e-01 3.555567e-01 3.268704e-01 1.844615e-01
<GCONST> 9.362632e+01
<STATE> 4
<NUMMIXES> 2
<MIXTURE> 1 5.476423e-01
<MEAN> 39
 -8.448690e+00 -1.751395e+01 1.723737e+01 -7.627081e-01 1.394011e+00 1.824623e+01 -4.895544e+00 4.189015e+00 -7.346272e+00 -3.765775e+00 6.296990e+00 -1.532231e+00 3.775000e+00 2.701518e+00 2.736263e+00 -2.647847e+00 2.687713e+00 1.109355e+00 -1.654461e+00 -4.909515e-01 3.403214e-02 1.252126e+00 -9.836487e-01 -6.712323e-01 -2.982364e-01 -8.774750e-01 -1.229401e-01 -3.264373e-01 -2.825655e-01 -1.452502e-01 1.939527e-02 -5.183187e-01 -3.855593e-01 1.345679e-01 -3.413463e-01 -4.018051e-01 2.143604e-01 5.576890e-02 -2.013780e-01
<VARIANCE> 39
 1.359443e+02 9.998914e+01 1.130518e+02 1.280452e+02 7.488711e+01 9.021596e+01 1.021920e+02 9.793574e+01 8.390790e+01 6.067200e+01 3.868974e+01 2.909882e+01 2.880761e+01 9.838002e+00 4.494335e+00 7.142404e+00 4.307998e+00 2.468201e+00 5.529488e+00 4.797751e+00 3.659566e+00 4.556496e+00 5.382495e+00 2.273277e+00 1.814553e+00 2.012563e+00 5.872211e-01 6.551419e-01 8.170601e-01 4.641084e-01 3.345860e-01 8.614937e-01 8.469999e-01 5.721266e-01 6.528853e-01 7.736863e-01 4.761499e-01 3.247781e-01 3.297303e-01
<GCONST> 1.381847e+02
<MIXTURE> 2 4.523573e-01
<MEAN> 39
 -2.041447e+01 -3.339643e+01 3.043510e+01 -1.480648e+01 -3.397842e+00 2.263218e+01 -7.639923e+00 4.464602e+00 -1.712652e+01 -1.218556e+00 1.221073e+01 -2.941006e-01 6.113867e+00 1.770797e+00 1.321599e+00 -1.780946e+00 1.803567e+00 1.047819e+00 3.608608e-01 8.990198e-01 -6.960425e-01 7.235199e-01 1.770620e-01 -1.650372e-01 2.496901e-01 -1.216868e-01 6.164797e-01 8.478114e-01 -2.955990e-01 5.571934e-01 1.136231e-01 -2.473782e-01 1.653656e-02 5.035659e-02 4.970836e-01 -8.113491e-02 -2.827182e-01 -1.617934e-01 -1.891751e-01
<VARIANCE> 39
 2.743058e+01 3.829394e+01 3.870302e+01 4.371318e+01 4.237075e+01 4.768050e+01 5.543389e+01 6.785168e+01 3.868020e+01 4.400145e+01 2.070776e+01 1.665078e+01 1.531176e+01 3.174109e+00 3.967818e+00 2.331774e+00 2.571993e+00 1.683986e+00 2.313755e+00 2.077559e+00 2.104483e+00 3.213233e+00 1.658587e+00 1.608904e+00 1.470782e+00 1.138700e+00 3.652008e-01 3.686250e-01 3.781917e-01 2.395200e-01 1.924480e-01 3.819294e-01 3.850910e-01 3.745070e-01 3.867299e-01 3.470996e-01 2.561488e-01 2.575876e-01 1.981840e-01
<GCONST> 1.124480e+02
<TRANSP> 5
 0.000000e+00 1.000000e+00 0.000000e+00 0.000000e+00 0.000000e+00
 0.000000e+00 9.000902e-01 9.990980e-02 0.000000e+00 0.000000e+00
 0.000000e+00 0.000000e+00 9.289624e-01 7.103756e-02 0.000000e+00
 0.000000e+00 0.000000e+00 0.000000e+00 8.903227e-01 1.096773e-01
 0.000000e+00 0.000000e+00 0.000000e+00 0.000000e+00 0.000000e+00
<ENDHMM>
~h "t"
<BEGINHMM>
<NUMSTATES> 5
<STATE> 2
<NUMMIXES> 2
<MIXTURE> 1 4.896980e-01
<MEAN> 39
 -2.660555e+01 -6.311744e+00 -5.087035e+00 -2.943804e+00 -3.664516e+00 7.351503e-01 -3.591560e+00 1.088442e+00 -1.567648e+00 -5.572615e-01 6.320060e-01 -7.616563e-01 5.619618e-01 -2.964354e-02 -3.549504e-02 -7.187986e-02 -2.578174e-02 -2.897015e-02 -7.277848e-02 -6.371950e-02 -4.729038e-02 2.087588e-02 2.775168e-02 -4.564403e-02 -2.054089e-02 1.261255e-02 1.791139e-01 8.110466e-02 1.199061e-01 1.494604e-01 1.986363e-01 2.102396e-01 1.354527e-01 1.052781e-01 6.988893e-03 -2.269436e-02 2.831133e-02 7.084745e-02 9.693699e-02
<VARIANCE> 39
 5.231432e-01 1.284509e+00 1.920682e+00 2.796851e+00 3.702459e+00 5.043095e+00 5.884674e+00 6.805351e+00 8.205875e+00 7.167982e+00 6.443402e+00 6.373639e+00 5.574703e+00 2.047530e-01 3.148857e-01 4.400442e-01 6.025928e-01 8.175579e-01 1.083616e+00 1.115341e+00 1.062977e+00 1.168915e+00 1.082370e+00 1.014644e+00 9.725267e-01 8.753551e-01 1.069525e-01 8.530461e-02 1.265506e-01 1.763293e-01 2.323499e-01 2.700271e-01 2.535689e-01 2.518063e-01 2.638423e-01 2.496121e-01 2.305953e-01 2.275028e-01 2.152242e-01
<GCONST> 6.393151e+01
<MIXTURE> 2 5.103020e-01
<MEAN> 39
 1.050056e+01 4.014288e+00 7.543792e+00 1.288681e+01 1.988080e+00 -1.206360e+01 -1.028812e+01 1.963959e+01 3.265605e+00 -1.301775e+01 3.889103e+00 -1.969249e+00 -7.784138e+00 -8.347313e-01 2.332513e-01 1.341803e-02 -2.632860e-01 -9.803956e-02 3.616882e-02 -2.299232e-02 -2.230087e-01 1.922954e-01 2.061352e-01 -2.020427e-01 1.398186e-01 8.263553e-02 -4.476903e-02 -1.280046e-01 -8.493357e-02 -5.429963e-02 -4.803186e-02 -4.134171e-02 -3.226556e-02 -1.749840e-02 -4.921912e-02 -2.049876e-02 3.415833e-02 -1.682954e-02 -1.609193e-02
<VARIANCE> 39
 1.616589e+02 8.141361e+01 3.855129e+01 2.144805e+01 3.787619e+01 2.828792e+02 1.338111e+02 9.232746e+01 4.927451e+01 1.122418e+02 3.212749e+01 2.603986e+01 6.720547e+01 2.390269e+00 1.780504e+00 1.617673e+00 1.102178e+00 1.506693e+00 3.650237e+00 2.676794e+00 2.251061e+00 1.510538e+00 2.445008e+00 1.627012e+00 8.058656e-01 1.167694e+00 8.107311e-02 1.311054e-01 1.574247e-01 1.377964e-01 1.546495e-01 2.530656e-01 2.603212e-01 3.028395e-01 2.012253e-01 2.626040e-01 2.110485e-01 1.203577e-01 1.183391e-01
<GCONST> 1.104923e+02
<STATE> 3
<NUMMIXES> 2
<MIXTURE> 1 4.095543e-01
<MEAN> 39
 -9.040439e+00 4.875426e+00 6.564535e+00 8.770167e+00 7.707470e+00 9.746045e+00 1.446190e+00 5.291762e+00 -2.985614e+00 -3.981766e+00 8.491551e-01 1.837730e+00 5.482969e+00 -2.487070e+00 -1.321386e+00 -6.132142e-01 -8.401186e-01 -8.005897e-01 -1.616156e-01 6.530815e-02 -2.150830e-01 3.373843e-01 6.593378e-01 7.883520e-02 -7.905103e-02 -4.291811e-02 2.559092e-01 -5.424736e-01 -5.337134e-01 -2.057862e-01 -1.884756e-01 -3.339940e-01 -2.535680e-01 8.736693e-02 7.395992e-02 -3.246434e-03 8.898518e-02 -1.613105e-01 -1.686365e-01
<VARIANCE> 39
 6.277853e+01 6.994789e+01 3.749646e+01 3.803080e+01 3.898285e+01 3.598789e+01 3.568415e+01 4.415156e+01 5.944757e+01 4.966213e+01 4.451469e+01 3.196191e+01 3.675105e+01 3.349044e+00 3.790858e+00 3.103283e+00 1.848645e+00 2.175833e+00 2.942722e+00 2.120304e+00 2.699344e+00 3.262803e+00 2.522156e+00 2.457152e+00 1.835253e+00 2.292896e+00 1.979297e-01 2.429197e-01 2.453163e-01 2.762842e-01 3.387175e-01 4.150659e-01 3.910472e-01 4.734787e-01 6.127549e-01 5.065107e-01 4.863846e-01 3.434362e-01 3.752411e-01
<GCONST> 1.198093e+02
<MIXTURE> 2 5.904456e-01
<MEAN> 39
 -1.943000e+01 -4.625824e+00 -2.456705e+00 3.079929e+00 3.211173e+00 5.901209e+00 -8.708210e-01 3.986053e+00 -3.702162e-01 -1.284951e+00 6.353545e-02 6.530156e-01 4.520319e+00 2.066005e+00 -7.890118e-01 -2.239839e-01 8.005412e-01 7.589083e-01 3.249167e-01 -2.811537e-01 4.811415e-01 4.172083e-01 1.197947e-01 4.885404e-02 -2.091838e-01 6.585116e-01 7.864940e-01 -1.515696e-02 2.169054e-01 1.303188e-01 8.045962e-03 5.625457e-02 -1.467258e-01 8.720806e-02 -7.612397e-02 1.807323e-02 3.136678e-01 -1.947058e-01 -1.178322e-01
<VARIANCE> 39
 3.836786e+01 1.076891e+01 1.168590e+01 2.835812e+01 3.448952e+01 2.416217e+01 1.852648e+01 1.897931e+01 1.658461e+01 1.436694e+01 1.237465e+01 1.191932e+01 2.188674e+01 5.667173e+00 2.625398e+00 2.944527e+00 4.348409e+00 5.496548e+00 4.298570e+00 3.349214e+00 3.083609e+00 2.812729e+00 2.859586e+00 2.222347e+00 2.351319e+00 2.918749e+00 3.828641e-01 3.237639e-01 3.478971e-01 7.483962e-01 1.023474e+00 7.140211e-01 5.490093e-01 4.685519e-01 5.221014e-01 4.662225e-01 4.455568e-01 4.278578e-01 6.725653e-01
<GCONST> 1.166300e+02
<STATE> 4
<NUMMIXES> 2
<MIXTURE> 1 4.162768e-01
<MEAN> 39
 -2.954904e+00 -1.062636e+01 -2.822009e+00 5.990528e+00 3.820034e+00 6.878365e+00 -3.706989e+00 6.873263e+00 1.125225e+00 9.097203e-01 5.011922e+00 -3.852958e+00 5.056717e+00 3.952337e+00 -2.192021e+00 -4.882760e-02 -7.093840e-01 -7.486415e-01 5.524098e-01 -1.120928e+00 1.773594e-01 -2.242679e+00 -1.118763e+00 3.220885e+00 -1.191733e+00 -1.313920e+00 1.469472e-02 2.586681e-01 2.992107e-01 7.720575e-02 4.287444e-01 3.309945e-01 5.193254e-03 -1.896836e-01 -9.540028e-01 -9.236459e-01 2.355427e-01 3.575820e-01 -1.081478e-01
<VARIANCE> 39
 2.280906e+01 1.794821e+01 1.197220e+01 2.054651e+01 3.009312e+01 2.716811e+01 2.781616e+01 3.101194e+01 3.851981e+01 2.874112e+01 3.063471e+01 2.051859e+01 2.247459e+01 5.057673e-01 8.967305e-01 1.071891e+00 1.436890e+00 2.125998e+00 2.555971e+00 2.233460e+00 2.197156e+00 4.670626e+00 4.039984e+00 1.999025e+00 1.643060e+00 1.790838e+00 1.379008e-01 3.450789e-01 1.852598e-01 4.172548e-01 4.669164e-01 3.867735e-01 3.643462e-01 3.908325e-01 7.296305e-01 4.368606e-01 6.555071e-01 3.146180e-01 4.328940e-01
<GCONST> 1.080376e+02
<MIXTURE> 2 5.837234e-01
<MEAN> 39
 7.838920e+00 -1.320127e+01 6.112803e-01 7.391978e+00 6.895435e+00 1.061106e+01 -5.873030e+00 6.896142e+00 -9.486429e+00 -7.878573e+00 1.255349e+01 -3.914889e+00 2.367075e+00 2.399521e+00 9.176146e-01 6.031795e-01 1.515023e+00 1.808776e+00 -5.961317e-01 -9.274696e-01 2.190993e-01 -9.418657e-01 -1.765630e+00 3.223278e-01 3.638397e-01 -8.802690e-01 -3.784000e-01 4.509012e-01 -2.553087e-01 3.147819e-01 3.798956e-01 -7.931021e-01 -3.985566e-01 1.248827e-01 5.255049e-01 -9.949923e-02 -5.794886e-01 1.865944e-01 -2.204387e-01
<VARIANCE> 39
 5.306102e+01 4.579649e+01 3.899366e+01 5.232439e+01 6.316751e+01 8.826197e+01 6.659248e+01 6.307346e+01 4.700612e+01 6.190109e+01 5.334260e+01 2.994349e+01 4.336004e+01 3.145272e+00 2.900271e+00 2.958995e+00 3.437703e+00 3.478561e+00 6.027351e+00 5.023064e+00 3.502410e+00 5.794025e+00 4.861872e+00 5.291848e+00 1.973919e+00 2.666786e+00 2.048708e-01 6.117123e-01 4.966726e-01 5.925272e-01 4.991304e-01 6.257620e-01 7.396536e-01 4.940881e-01 7.958384e-01 7.530937e-01 8.080518e-01 3.659017e-01 4.690726e-01
<GCONST> 1.323324e+02
<TRANSP> 5
 0.000000e+00 1.000000e+00 0.000000e+00 0.000000e+00 0.000000e+00
 0.000000e+00 9.088442e-01 9.115580e-02 0.000000e+00 0.000000e+00
 0.000000e+00 0.000000e+00 8.779509e-01 1.220491e-01 0.000000e+00
 0.000000e+00 0.000000e+00 0.000000e+00 8.354882e-01 1.645118e-01
 0.000000e+00 0.000000e+00 0.000000e+00 0.000000e+00 0.000000e+00
<ENDHMM>
~h "u"
<BEGINHMM>
<NUMSTATES> 7
<STATE> 2
<NUMMIXES> 2
<MIXTURE> 1 5.937523e-01
<MEAN> 39
 3.885224e+00 5.564210e+00 4.689330e+00 4.159371e+00 -5.404772e+00 -8.266319e+00 -6.333098e+00 1.347104e+01 5.324671e-01 -9.492805e+00 1.717520e+00 -1.691072e+00 -5.048719e+00 1.891380e+00 3.668868e-01 2.327546e-01 8.911272e-01 3.448699e-01 -1.483845e+00 -1.067403e+00 9.761150e-01 2.369438e-01 -1.280428e+00 -1.753124e-01 -8.794873e-02 -9.507976e-01 -1.727152e-01 -2.618690e-01 -6.557352e-02 5.436795e-02 1.763349e-01 7.315874e-02 -8.450666e-02 5.781774e-02 -7.339634e-03 -1.720521e-01 -1.907453e-02 -2.111075e-02 -7.666903e-02
<VARIANCE> 39
 1.792758e+02 5.266947e+01 3.978170e+01 9.324224e+01 1.078704e+02 1.137566e+02 5.533964e+01 1.119316e+02 4.632747e+01 6.097278e+01 6.429977e+01 4.101888e+01 2.722020e+01 4.445918e+00 2.310605e+00 2.745977e+00 4.492054e+00 7.097576e+00 7.888104e+00 3.921104e+00 4.313296e+00 2.194807e+00 4.451961e+00 3.616439e+00 1.959452e+00 1.822016e+00 3.091023e-01 2.428759e-01 3.229477e-01 7.521195e-01 1.048543e+00 1.027873e+00 5.599490e-01 5.505204e-01 3.363517e-01 5.382326e-01 5.864288e-01 3.104002e-01 2.435102e-01
<GCONST> 1.329240e+02
<MIXTURE> 2 4.062478e-01
<MEAN> 39
 1.933535e+01 4.311036e+00 3.875304e+00 1.318143e+01 -5.478862e+00 -2.812001e+01 -1.565698e+01 2.509266e+01 8.546457e+00 -1.514795e+01 1.317144e+00 1.975116e+00 -8.132534e+00 9.738540e-03 3.113234e-02 2.949212e-01 1.082654e-01 1.114438e-01 -5.983780e-02 -2.707488e-01 2.836601e-01 2.885012e-01 -3.245355e-01 -2.938785e-01 -3.999644e-01 -3.698297e-01 -9.954198e-02 -2.162003e-02 -6.466574e-02 -8.686417e-02 1.570892e-01 3.410062e-01 9.895975e-02 -1.118596e-01 -7.906722e-02 6.117213e-02 1.323284e-02 -8.193782e-02 7.013703e-02
<VARIANCE> 39
 5.901517e+00 4.360574e+01 6.052948e+01 1.798860e+01 1.716692e+01 3.953623e+01 2.902198e+01 3.988770e+01 3.892397e+01 1.732633e+01 3.249294e+01 1.582617e+01 2.047882e+01 5.202634e-01 9.974543e-01 1.169208e+00 8.080956e-01 7.774646e-01 1.459092e+00 9.690332e-01 2.585621e+00 8.053741e-01 1.285708e+00 1.050939e+00 9.897478e-01 4.483706e-01 9.779094e-02 5.611392e-02 1.053347e-01 1.072898e-01 1.114965e-01 2.479879e-01 1.572537e-01 2.686132e-01 9.168607e-02 1.833760e-01 1.519036e-01 9.809062e-02 6.710319e-02
<GCONST> 8.574059e+01
<STATE> 3
<NUMMIXES> 2
<MIXTURE> 1 8.537166e-01
<MEAN> 39
 1.898904e+01 4.766779e+00 4.069027e+00 1.016831e+01 2.442113e+00 -1.429166e+01 -1.493930e+01 2.151658e+01 6.716731e+00 -1.815767e+01 -2.718511e+00 -6.756759e+00 -1.271028e+01 1.844056e-01 -3.468652e-01 -3.679872e-01 -2.447137e-01 5.133926e-01 3.801766e-01 -3.141442e-01 1.136536e-01 -1.437188e-01 -4.983220e-01 1.020249e-01 -3.270614e-01 -3.560662e-01 -8.976849e-02 2.248965e-02 -1.294851e-02 -4.803107e-02 2.106414e-02 2.999483e-01 2.676590e-01 -1.901145e-01 -2.214244e-01 1.123124e-01 9.841534e-02 1.077128e-01 1.822810e-01
<VARIANCE> 39
 4.739185e+00 2.423748e+01 2.811497e+01 2.864367e+01 3.279005e+01 6.268684e+01 4.067293e+01 6.741757e+01 2.609512e+01 6.754574e+01 3.109206e+01 2.015370e+01 1.881586e+01 3.413634e-01 1.106611e+00 8.982040e-01 1.001446e+00 1.171673e+00 2.517801e+00 2.145122e+00 2.507237e+00 1.320806e+00 3.095881e+00 1.168766e+00 1.054487e+00 7.198287e-01 6.057595e-02 4.594110e-02 9.120448e-02 1.384841e-01 1.116516e-01 1.750668e-01 2.117227e-01 2.695958e-01 1.163988e-01 2.484175e-01 1.877767e-01 1.172701e-01 9.925076e-02
<GCONST> 9.175648e+01
<MIXTURE> 2 1.462836e-01
<MEAN> 39
 1.779390e+01 -6.696481e+00 -8.984597e-01 1.837093e+01 2.284743e+01 1.644556e+00 -1.906942e+01 1.166480e+01 -4.527189e+00 -2.662970e+01 2.174604e+00 -1.406070e+00 -1.158018e+01 3.252430e-01 4.679526e-01 -5.225357e-01 -6.512408e-01 -4.301986e-02 -1.180625e+00 -7.775934e-01 1.107252e+00 6.138076e-01 -6.769143e-01 -3.454721e-01 -4.389298e-01 -5.559117e-01 -1.821677e-01 1.910264e-02 2.038937e-01 -2.454323e-02 -2.821601e-01 3.657037e-01 4.001960e-01 -4.151827e-01 1.437581e-01 5.850393e-01 -2.154779e-01 -4.695909e-02 2.899077e-01
<VARIANCE> 39
 2.161448e+01 1.315289e+01 1.893240e+01 6.302042e+01 7.409839e+01 4.350249e+01 3.102824e+01 4.421104e+01 1.746711e+01 2.689112e+01 3.814937e+01 1.708720e+01 3.542582e+01 2.922825e-01 2.930114e-01 8.543134e-01 6.650262e-01 1.697080e+00 2.641298e+00 2.512908e+00 3.233309e+00 7.896566e-01 3.464339e+00 1.773366e+00 8.076726e-01 2.027523e+00 1.123774e-01 7.425096e-02 1.760409e-01 1.112936e-01 1.870135e-01 3.057773e-01 2.554453e-01 3.663185e-01 1.530985e-01 3.128216e-01 2.584839e-01 1.301850e-01 1.931663e-01
<GCONST> 9.653365e+01
<STATE> 4
<NUMMIXES> 2
<MIXTURE> 1 1.000000e+00
<MEAN> 39
 1.972964e+01 -2.208817e+00 9.763135e-01 1.030446e+01 6.962584e+00 -9.676753e+00 -1.322596e+01 2.478714e+01 -2.046624e+00 -2.925574e+01 2.382685e+00 -3.045284e+00 -1.185161e+01 -8.381684e-02 -3.628711e-01 -4.035904e-01 5.033870e-01 9.818597e-01 1.115811e+00 8.016939e-01 -5.881019e-01 -1.402542e+00 -5.519405e-01 2.034948e-01 3.425687e-01 4.222681e-01 -1.966829e-01 2.724710e-01 1.565505e-01 1.224921e-01 -1.264895e-01 1.461321e-01 4.253410e-01 -2.535441e-01 1.325139e-01 5.297599e-01 -2.534155e-01 -3.609759e-03 2.180589e-01
<VARIANCE> 39
 8.678971e+00 2.623575e+01 2.297538e+01 2.485053e+01 5.711612e+01 9.538782e+01 2.901419e+01 6.088968e+01 3.860503e+01 9.319366e+01 3.498018e+01 2.941092e+01 2.791383e+01 3.658139e-01 8.099999e-01 7.255813e-01 9.446787e-01 6.876963e-01 9.825959e-01 1.726993e+00 1.697221e+00 8.310162e-01 1.892052e+00 1.355554e+00 1.082778e+00 5.810705e-01 8.706561e-02 1.005817e-01 1.319822e-01 1.140015e-01 8.168889e-02 2.089185e-01 1.861154e-01 3.551087e-01 2.300103e-01 3.452581e-01 2.434805e-01 1.236870e-01 1.466085e-01
<GCONST> 9.369084e+01
<MIXTURE> 2 0.000000e+00
<MEAN> 39
 3.417223e+00 7.293330e+00 8.330730e+00 -9.710498e+00 -1.625434e-01 -2.035127e+01 -9.064593e-01 1.561739e+00 -1.227357e+01 -1.039749e+01 -7.147142e+00 -1.017353e+01 -1.074242e+01 -2.990634e-02 2.168149e-01 1.001392e-02 -4.689300e-02 -1.589202e-01 -7.911995e-03 6.217949e-02 3.558638e-02 5.552286e-02 3.114433e-03 -1.407267e-01 -1.060831e-01 -1.548424e-01 -5.462008e-03 -1.843423e-02 -2.657526e-02 6.268177e-02 6.855920e-02 9.713328e-02 -2.289386e-02 -5.790818e-02 2.742950e-02 2.240322e-02 1.946409e-02 5.355634e-02 3.129942e-02
<VARIANCE> 39
 6.075173e+00 4.578182e+01 2.743917e+01 3.471677e+01 5.041447e+01 4.296664e+01 3.941714e+01 4.597451e+01 8.174229e+01 6.164312e+01 4.850667e+01 5.474281e+01 4.559898e+01 9.210440e-02 5.496898e-01 4.708762e-01 6.562652e-01 8.952708e-01 9.710230e-01 9.655681e-01 1.150128e+00 1.134475e+00 1.179296e+00 1.051585e+00 1.147964e+00 1.009993e+00 1.406629e-02 4.912791e-02 6.224088e-02 9.069604e-02 1.023018e-01 1.395229e-01 1.419330e-01 1.569344e-01 1.592698e-01 1.563243e-01 1.508348e-01 1.450534e-01 1.304802e-01
<GCONST> 8.581348e+01
<STATE> 5
<NUMMIXES> 2
<MIXTURE> 1 2.741362e-01
<MEAN> 39
 -3.770620e+00 -1.557201e+01 9.934079e+00 9.730605e+00 -2.526097e-01 4.555096e+00 -1.139584e+01 -7.335585e-01 -4.008588e+00 -1.130573e+01 -2.491444e+00 1.974276e+00 4.213335e+00 -8.273453e-01 -2.025354e-01 -2.686733e-01 -4.985611e-01 -4.616106e-01 -2.255495e-01 -1.321843e-01 -3.563824e-01 4.347949e-04 3.718697e-01 1.535815e-01 2.289527e-02 3.830494e-02 2.526589e-02 -5.550695e-02 -7.279310e-02 -1.775840e-02 2.864203e-02 -2.339640e-02 1.594800e-02 1.260989e-01 1.628362e-04 -6.356750e-02 8.309544e-02 3.577649e-02 -8.666768e-02
<VARIANCE> 39
 1.499786e+02 4.162039e+02 1.140836e+02 5.794037e+01 6.866116e+01 9.120995e+01 6.892587e+01 7.226573e+01 6.769951e+01 3.117998e+01 2.423223e+01 2.667680e+01 2.416304e+01 6.708669e+00 1.470867e+01 6.180765e+00 3.739487e+00 3.953463e+00 5.022439e+00 4.147691e+00 3.462977e+00 3.852243e+00 2.950665e+00 2.106167e+00 2.739044e+00 2.983361e+00 3.553146e-01 1.178362e+00 1.056876e+00 5.414175e-01 3.652034e-01 7.075347e-01 5.959936e-01 5.410982e-01 6.266315e-01 5.175834e-01 3.523803e-01 5.198469e-01 5.806468e-01
<GCONST> 1.374631e+02
<MIXTURE> 2 7.258637e-01
<MEAN> 39
 1.784104e+01 1.122042e+00 1.733694e+00 1.330509e+01 7.842903e+00 -7.031685e+00 -8.481667e+00 1.961183e+01 -2.693642e+00 -2.308103e+01 -5.129988e-01 -3.132655e+00 -8.986243e+00 -1.348820e+00 1.406319e+00 6.719820e-01 4.885551e-02 2.409920e-01 2.440926e+00 2.356835e+00 -1.943236e+00 4.388721e-01 2.711877e+00 -1.694084e+00 -4.617931e-01 1.657005e+00 -4.286093e-01 3.715100e-01 4.391793e-01 -5.343755e-02 -2.338497e-02 4.260942e-01 1.516071e-01 -2.402594e-01 3.863283e-01 5.159586e-01 -3.425978e-01 -1.369780e-01 2.852174e-01
<VARIANCE> 39
 1.132741e+01 4.224854e+01 4.147493e+01 3.921199e+01 7.622984e+01 1.188198e+02 4.273714e+01 6.208585e+01 6.144466e+01 9.787774e+01 3.999503e+01 4.668167e+01 1.954530e+01 9.797888e-01 1.658587e+00 1.792714e+00 1.435077e+00 1.452359e+00 2.806478e+00 1.825598e+00 2.205680e+00 2.444646e+00 4.064988e+00 2.003119e+00 1.474532e+00 1.321633e+00 6.304254e-02 2.306141e-01 1.692278e-01 1.853223e-01 2.309667e-01 3.597263e-01 3.058430e-01 4.149114e-01 4.043174e-01 6.706022e-01 3.205132e-01 2.607828e-01 1.527727e-01
<GCONST> 1.114193e+02
<STATE> 6
<NUMMIXES> 2
<MIXTURE> 1 2.096212e-01
<MEAN> 39
 -2.592456e+01 -7.580962e+00 -6.375658e+00 -3.680784e+00 -3.705136e+00 1.692744e+00 -1.989375e+00 1.647003e+00 -4.083622e+00 -2.799520e+00 7.006378e-01 1.173650e+00 1.632312e+00 -5.301626e-02 -7.346381e-02 -9.407724e-02 -2.262300e-02 1.486227e-02 4.778478e-02 9.787591e-02 1.151060e-01 5.005316e-02 4.613086e-02 -2.354694e-02 -6.790082e-02 -1.893964e-03 7.073846e-02 5.175737e-02 4.424376e-02 5.798084e-02 7.621890e-02 2.999069e-02 -3.385961e-02 -4.466743e-02 -4.740383e-02 -5.581523e-02 1.856998e-02 3.768065e-02 3.090659e-02
<VARIANCE> 39
 1.592984e+00 3.966603e+00 5.660416e+00 3.305865e+00 3.474847e+00 1.062741e+01 1.113966e+01 4.972649e+00 2.203728e+01 3.048201e+01 9.212427e+00 1.768365e+01 8.185804e+00 1.008849e-01 1.813497e-01 3.562191e-01 4.486268e-01 5.790846e-01 7.600728e-01 7.371431e-01 8.318053e-01 1.151188e+00 1.480874e+00 1.222739e+00 8.814055e-01 6.762065e-01 4.761573e-02 4.226169e-02 8.696206e-02 1.065806e-01 1.637192e-01 1.857661e-01 1.904556e-01 1.972523e-01 2.398742e-01 2.706407e-01 2.741911e-01 1.770811e-01 1.455228e-01
<GCONST> 6.550003e+01
<MIXTURE> 2 7.903788e-01
<MEAN> 39
 1.118931e+01 8.932413e+00 5.253487e+00 1.033338e+01 6.901530e+00 2.799378e+00 3.051814e-01 1.351554e+01 1.217855e+00 -1.124059e+01 -6.319175e+00 -6.340260e+00 -4.279090e+00 -2.039148e+00 1.027621e+00 1.408803e+00 4.802227e-01 5.946161e-01 2.421014e+00 1.623555e+00 -1.178306e+00 3.413455e-02 1.400462e+00 -9.664780e-01 -1.050973e-01 1.300331e+00 -1.226633e-01 -3.585168e-01 1.566313e-01 1.766211e-01 -1.425746e-02 -2.838275e-01 -4.614142e-01 9.682303e-02 -1.194574e-01 -3.243998e-01 3.078637e-01 1.305217e-01 -1.407997e-01
<VARIANCE> 39
 5.223791e+01 4.302521e+01 5.744773e+01 4.997659e+01 4.511858e+01 6.909011e+01 4.947316e+01 3.405015e+01 3.031830e+01 5.250476e+01 4.043940e+01 3.763182e+01 2.010737e+01 8.266041e-01 3.392164e+00 1.860309e+00 2.172168e+00 2.468433e+00 4.190133e+00 3.897726e+00 3.194018e+00 2.569612e+00 4.654522e+00 2.388168e+00 1.622961e+00 1.434121e+00 8.133768e-02 3.298699e-01 2.525835e-01 2.410858e-01 2.094680e-01 2.874172e-01 3.593532e-01 3.407118e-01 2.918459e-01 3.791248e-01 2.456697e-01 1.770856e-01 2.025759e-01
<GCONST> 1.137551e+02
<TRANSP> 7
 0.000000e+00 1.000000e+00 0.000000e+00 0.000000e+00 0.000000e+00 0.000000e+00 0.000000e+00
 0.000000e+00 8.875109e-01 1.124891e-01 0.000000e+00 0.000000e+00 0.000000e+00 0.000000e+00
 0.000000e+00 0.000000e+00 8.354804e-01 1.645196e-01 0.000000e+00 0.000000e+00 0.000000e+00
 0.000000e+00 0.000000e+00 0.000000e+00 7.071460e-01 2.928540e-01 0.000000e+00 0.000000e+00
 0.000000e+00 0.000000e+00 0.000000e+00 0.000000e+00 7.119038e-01 2.880963e-01 0.000000e+00
 0.000000e+00 0.000000e+00 0.000000e+00 0.000000e+00 0.000000e+00 7.230226e-01 2.769773e-01
 0.000000e+00 0.000000e+00 0.000000e+00 0.000000e+00 0.000000e+00 0.000000e+00 0.000000e+00
<ENDHMM>
~h "w"
<BEGINHMM>
<NUMSTATES> 5
<STATE> 2
<NUMMIXES> 2
<MIXTURE> 1 1.000000e+00
<MEAN> 39
 6.545709e+00 1.530015e+01 1.065637e+01 1.413178e+01 1.074285e+01 7.502354e+00 4.417214e+00 1.654053e+01 4.549323e+00 -7.627040e+00 -6.339452e+00 -6.237029e+00 -6.586314e+00 -5.650644e-01 5.411026e-01 8.481038e-01 2.163183e-01 8.435590e-02 6.030110e-01 3.798294e-01 -1.402649e-01 1.770746e-01 5.720916e-01 5.463691e-02 -3.156381e-01 -4.014818e-02 1.030968e-01 -4.117016e-01 -3.134235e-01 2.031868e-02 1.060453e-01 -1.292567e-01 -2.600916e-01 -1.182296e-02 -7.028154e-02 -1.768852e-01 9.778891e-02 1.376627e-01 1.535078e-01
<VARIANCE> 39
 2.168462e+01 1.394301e+01 2.803042e+01 1.623052e+01 2.109276e+01 3.850103e+01 1.752923e+01 4.310443e+01 2.992005e+01 3.850818e+01 1.938536e+01 1.663385e+01 1.391788e+01 1.107400e+00 1.508301e+00 1.614502e+00 7.638565e-01 8.456264e-01 1.699531e+00 1.367793e+00 1.784837e+00 1.210675e+00 1.972746e+00 1.382271e+00 1.176133e+00 1.308906e+00 8.038529e-02 1.356984e-01 1.916328e-01 1.309094e-01 1.281731e-01 2.242866e-01 2.116869e-01 3.145827e-01 2.036919e-01 2.561643e-01 2.116693e-01 1.753225e-01 1.729372e-01
<GCONST> 9.343441e+01
<MIXTURE> 2 0.000000e+00
<MEAN> 39
 1.378911e+01 -5.882964e+00 5.711132e+00 9.465131e+00 -1.243303e+01 8.746708e+00 5.601330e-01 -7.174479e+00 2.589908e+00 -1.117520e+01 -1.118331e+01 1.178023e-01 -6.158607e+00 -1.288440e-01 1.712742e-02 2.953843e-01 2.247112e-02 -1.709286e-01 2.319557e-01 7.940844e-02 2.872613e-02 2.858532e-01 -3.339471e-02 -1.537790e-01 2.861512e-02 -6.112367e-02 4.143821e-02 -1.702908e-01 -5.036233e-02 -1.903104e-02 -4.757323e-02 -1.118162e-01 -1.095709e-01 -5.744234e-02 -1.100288e-01 -7.373928e-02 7.590093e-02 2.229727e-02 -1.457045e-03
<VARIANCE> 39
 5.693203e+00 3.076212e+01 1.764848e+01 2.169621e+01 3.926045e+01 3.001332e+01 2.751151e+01 3.213239e+01 3.717189e+01 2.692718e+01 1.927668e+01 1.926764e+01 1.896693e+01 1.228157e-01 5.694669e-01 4.044106e-01 4.887558e-01 7.384183e-01 9.813445e-01 7.732689e-01 8.090994e-01 9.743630e-01 8.385676e-01 6.937302e-01 6.511840e-01 6.163760e-01 1.787036e-02 5.931752e-02 6.642151e-02 7.853088e-02 1.136717e-01 1.498673e-01 1.329894e-01 1.448491e-01 1.629503e-01 1.434017e-01 1.325567e-01 1.232411e-01 1.184856e-01
<GCONST> 7.573148e+01
<STATE> 3
<NUMMIXES> 2
<MIXTURE> 1 9.071597e-01
<MEAN> 39
 5.557217e+00 8.818711e+00 7.859719e+00 1.503426e+01 1.338808e+01 8.791846e+00 1.393390e+00 1.658230e+01 5.351173e+00 -7.826008e+00 -4.808958e+00 -5.630001e+00 -1.877212e+00 1.458210e+00 -2.507256e+00 -2.313783e+00 -6.674786e-01 -1.859469e-01 -1.709066e+00 -2.154543e+00 5.647178e-01 -1.163959e-01 -1.477952e+00 5.201801e-01 5.013256e-01 7.084672e-01 5.412818e-01 -2.242822e-01 -4.194014e-01 -2.180411e-01 -2.412214e-01 -6.689245e-01 -5.080128e-01 -3.299753e-02 -2.513514e-01 -4.198073e-01 1.853665e-01 2.206221e-01 -1.694168e-01
<VARIANCE> 39
 1.618434e+01 3.162170e+01 2.504153e+01 1.694304e+01 2.712648e+01 4.967256e+01 2.622895e+01 2.494316e+01 3.566168e+01 3.062107e+01 2.795109e+01 1.386543e+01 1.153809e+01 1.244341e+00 1.013295e+00 1.271257e+00 1.300430e+00 1.659670e+00 3.355308e+00 2.018831e+00 1.920399e+00 2.402824e+00 2.158685e+00 2.389382e+00 1.210339e+00 1.077859e+00 7.268422e-02 2.316560e-01 2.317415e-01 2.316594e-01 2.205132e-01 2.376761e-01 2.417698e-01 3.379283e-01 2.805911e-01 3.259892e-01 3.467967e-01 2.068498e-01 1.831802e-01
<GCONST> 1.004601e+02
<MIXTURE> 2 9.284022e-02
<MEAN> 39
 1.622353e+01 9.170135e+00 3.246652e+00 1.185318e+01 8.472642e+00 -2.375704e+00 -7.050125e+00 1.182309e+01 -1.465812e+00 -1.441704e+01 -2.231116e+00 -4.471072e+00 -9.728718e+00 5.811173e-01 -1.043019e+00 -9.477397e-01 -2.703987e-03 7.726228e-01 -1.826225e-01 -8.467672e-01 3.621735e-02 -5.440761e-01 -1.114724e+00 3.140174e-01 3.728241e-01 -1.480576e-01 -6.010817e-02 -1.174438e-01 -2.549971e-02 -2.531738e-03 1.243386e-01 1.157450e-01 -2.732079e-02 -1.396422e-02 -1.029744e-01 -7.322218e-02 1.383474e-01 1.036718e-01 8.607670e-02
<VARIANCE> 39
 1.251923e+01 3.504976e+01 3.547337e+01 3.603298e+01 6.434330e+01 6.690695e+01 2.770668e+01 1.402629e+02 2.863096e+01 7.672830e+01 1.322386e+01 1.974767e+01 1.987581e+01 2.270007e-01 6.002082e-01 3.685049e-01 4.291327e-01 5.794176e-01 1.165103e+00 1.049661e+00 1.851814e+00 7.872779e-01 1.920071e+00 7.398106e-01 4.731498e-01 6.978619e-01 2.653780e-02 6.812212e-02 5.490825e-02 7.816356e-02 1.036026e-01 1.286371e-01 1.415659e-01 1.982690e-01 8.373308e-02 1.831309e-01 1.470756e-01 7.422692e-02 7.520912e-02
<GCONST> 8.229404e+01
<STATE> 4
<NUMMIXES> 2
<MIXTURE> 1 0.000000e+00
<MEAN> 39
 1.883199e+01 -7.001300e+00 -1.800085e+00 7.613077e+00 4.525700e+00 -6.993447e+00 -1.184967e+01 1.523451e+01 -9.600030e+00 -2.765470e+01 9.438578e+00 3.366591e+00 -8.420697e+00 -2.649488e-01 -1.113522e-01 -5.765734e-02 -2.314895e-01 1.876235e-01 3.040232e-01 -2.620974e-02 -6.262864e-01 -1.918356e+00 -4.364128e-02 2.249173e+00 4.445328e-01 -1.567626e-01 3.064628e-01 -2.403390e-01 2.766851e-01 -1.412306e-01 2.970545e-01 6.027837e-02 -3.513275e-01 4.939724e-01 4.594464e-02 2.586159e-02 3.198166e-01 -4.293582e-01 -8.306079e-02
<VARIANCE> 39
 1.164153e-10 0.000000e+00 0.000000e+00 0.000000e+00 0.000000e+00 0.000000e+00 0.000000e+00 0.000000e+00 2.328306e-10 0.000000e+00 0.000000e+00 0.000000e+00 0.000000e+00 0.000000e+00 5.820766e-11 0.000000e+00 0.000000e+00 1.455192e-11 0.000000e+00 0.000000e+00 0.000000e+00 0.000000e+00 0.000000e+00 0.000000e+00 -1.455192e-11 -7.275958e-12 0.000000e+00 2.273737e-13 0.000000e+00 1.421085e-14 0.000000e+00 0.000000e+00 0.000000e+00 0.000000e+00 7.275958e-12 0.000000e+00 -7.275958e-12 0.000000e+00 0.000000e+00
<GCONST> -3.200001e+11
<MIXTURE> 2 1.000000e+00
<MEAN> 39
 1.766408e+01 9.503892e-02 -3.861336e+00 1.070336e+01 5.910401e+00 -1.234383e+01 -1.324442e+01 2.127700e+01 7.263196e+00 -1.649675e+01 -5.167367e+00 -2.482005e+00 -1.537876e+00 1.658601e+00 -1.476360e+00 -1.792150e+00 -4.584941e-01 -3.983675e-01 -2.516477e+00 -2.054324e+00 2.127118e-01 -2.902941e-01 -1.229573e+00 5.379905e-01 9.149862e-01 2.007869e-01 -2.164966e-01 1.582757e-01 1.642355e-01 6.225810e-02 2.217721e-01 3.508682e-01 2.418042e-01 -9.109640e-03 9.466542e-04 1.661539e-01 8.102363e-02 2.476700e-02 1.169615e-02
<VARIANCE> 39
 1.762059e+01 1.802432e+01 2.529808e+01 1.569386e+01 3.485083e+01 1.271903e+02 4.654049e+01 3.942910e+01 5.586560e+01 3.167156e+01 4.177841e+01 1.436351e+01 1.463631e+01 1.664417e+00 9.578793e-01 1.502710e+00 8.986710e-01 1.657893e+00 3.517212e+00 2.406293e+00 2.325493e+00 1.937831e+00 2.802632e+00 1.764530e+00 1.156197e+00 7.732524e-01 1.320726e-01 1.059158e-01 1.580112e-01 1.585001e-01 1.832669e-01 3.867250e-01 2.776125e-01 3.348907e-01 1.754955e-01 3.046000e-01 2.608040e-01 1.602708e-01 1.330768e-01
<GCONST> 1.011931e+02
<TRANSP> 5
 0.000000e+00 1.000000e+00 0.000000e+00 0.000000e+00 0.000000e+00
 0.000000e+00 8.769181e-01 1.230818e-01 0.000000e+00 0.000000e+00
 0.000000e+00 0.000000e+00 7.656803e-01 2.343196e-01 0.000000e+00
 0.000000e+00 0.000000e+00 0.000000e+00 7.791638e-01 2.208361e-01
 0.000000e+00 0.000000e+00 0.000000e+00 0.000000e+00 0.000000e+00
<ENDHMM>
~h "y"
<BEGINHMM>
<NUMSTATES> 5
<STATE> 2
<NUMMIXES> 2
<MIXTURE> 1 1.000000e+00
<MEAN> 39
 5.156047e+00 -8.115414e-01 1.605088e+01 3.520528e+01 1.793826e+01 -2.402831e+00 -4.704358e+00 1.779321e+01 -2.641953e+00 -1.800805e+01 3.916162e-01 -7.165646e-01 -8.015247e+00 3.948374e-01 -5.609199e-01 -3.942905e-03 4.532936e-01 4.398381e-01 -5.835281e-02 -6.788548e-01 -2.505241e-01 -8.508190e-02 -3.188857e-01 3.249560e-02 -1.324339e-01 -1.768204e-01 1.115141e-02 -1.107493e-01 -1.252898e-01 -1.202345e-01 8.860730e-02 3.285513e-02 -1.848613e-01 -3.828727e-02 -2.386679e-02 -8.284874e-02 7.547392e-02 3.016760e-02 -4.219611e-02
<VARIANCE> 39
 2.211451e+01 7.756334e+01 3.435371e+01 5.816955e+01 3.926935e+01 4.902841e+01 7.526976e+01 6.657228e+01 2.673430e+01 6.335479e+01 4.003950e+01 3.023682e+01 3.583954e+01 1.071991e+00 2.652611e+00 1.523871e+00 2.973658e+00 2.302713e+00 2.221070e+00 3.530500e+00 2.685362e+00 1.157096e+00 3.489483e+00 1.661189e+00 1.467056e+00 1.741906e+00 8.101653e-02 2.036572e-01 1.932255e-01 3.894806e-01 2.211515e-01 2.489582e-01 2.435882e-01 3.468262e-01 1.713039e-01 4.568546e-01 2.382694e-01 2.253256e-01 1.867089e-01
<GCONST> 1.109861e+02
<MIXTURE> 2 0.000000e+00
<MEAN> 39
 1.077002e+01 -1.956420e+01 1.628934e+01 2.477308e+01 -1.067274e+01 -2.976494e-01 -1.631964e+01 -1.125875e+01 8.065402e+00 -1.447605e+01 -1.309809e+01 -1.712498e+00 -8.394070e+00 6.742813e-02 -9.836404e-02 -1.169972e-01 -9.043243e-02 -7.185069e-02 -4.700645e-02 -1.383417e-01 -1.586409e-01 -4.520181e-02 8.582173e-02 1.406730e-01 1.323300e-02 -1.787742e-02 1.718775e-02 -1.453367e-03 -6.490878e-02 -5.673794e-02 8.897717e-03 2.129654e-02 3.349083e-04 -4.583070e-02 -3.346105e-02 4.537795e-02 5.137637e-02 4.648509e-03 -1.070770e-02
<VARIANCE> 39
 4.835891e+00 1.564970e+01 1.978276e+01 2.057377e+01 2.182557e+01 2.436750e+01 2.886898e+01 3.342552e+01 2.415036e+01 3.267395e+01 2.042847e+01 2.264841e+01 1.821476e+01 1.990445e-01 2.737281e-01 3.442593e-01 4.312418e-01 5.640050e-01 5.272828e-01 3.877100e-01 4.964686e-01 5.398856e-01 5.405872e-01 4.196366e-01 3.762387e-01 3.816764e-01 2.946622e-02 3.539984e-02 2.297077e-02 5.282143e-02 8.965132e-02 8.030171e-02 5.395827e-02 6.092423e-02 8.503931e-02 7.202144e-02 5.072999e-02 5.755227e-02 6.090007e-02
<GCONST> 6.119115e+01
<STATE> 3
<NUMMIXES> 2
<MIXTURE> 1 6.800133e-01
<MEAN> 39
 1.276669e+01 -1.167759e+01 5.966537e+00 3.194666e+01 3.298998e+01 2.048508e+00 -2.655072e+01 6.727513e+00 -6.556676e+00 -2.365556e+01 9.719034e+00 -1.145803e-01 -1.734597e+01 3.410099e-01 7.085096e-02 -4.242252e-01 -1.093212e+00 -2.047968e-01 -1.972116e-01 -5.889705e-01 1.086333e-01 -1.798304e-01 -6.399820e-01 2.362174e-01 4.530545e-01 -3.711606e-02 -5.920761e-03 1.004986e-01 -5.100614e-03 -1.291493e-01 -2.680296e-01 -2.472068e-02 2.900585e-01 6.992923e-02 5.813389e-03 1.073453e-01 -1.050614e-01 -1.855547e-02 2.006696e-01
<VARIANCE> 39
 6.743104e+00 1.469720e+01 1.676384e+01 4.292735e+01 2.272550e+01 3.761313e+01 4.438983e+01 4.178569e+01 2.339131e+01 3.492001e+01 3.491414e+01 1.628325e+01 2.255481e+01 4.512098e-01 5.065082e-01 9.356866e-01 1.793996e+00 1.363386e+00 1.151388e+00 2.351726e+00 1.518889e+00 9.195833e-01 1.791295e+00 1.462053e+00 6.591666e-01 8.746951e-01 4.844178e-02 5.562809e-02 7.315686e-02 1.401705e-01 1.526214e-01 1.496046e-01 2.501066e-01 2.148066e-01 1.415237e-01 2.708121e-01 1.945010e-01 1.089258e-01 1.290302e-01
<GCONST> 8.802354e+01
<MIXTURE> 2 3.199867e-01
<MEAN> 39
 1.239745e+01 -1.267871e+01 7.012627e+00 2.891324e+01 2.745036e+01 4.581886e+00 -2.225926e+01 5.865360e+00 -6.089469e+00 -2.018893e+01 7.942091e+00 -1.526507e+00 -1.116751e+01 1.281080e+00 -3.007736e-01 -1.320613e+00 -7.517884e-01 1.722332e+00 -1.169240e+00 -3.380095e+00 6.020988e-01 -5.266544e-01 -2.475719e+00 1.375582e+00 8.608314e-01 -1.675208e+00 -2.413771e-01 8.154176e-04 -1.217593e-02 -3.932595e-01 -4.738695e-01 2.300255e-02 4.167314e-01 2.395958e-01 9.065932e-02 2.004337e-01 -1.329584e-02 2.313485e-02 3.266536e-01
<VARIANCE> 39
 1.497191e+01 2.694918e+01 4.564300e+01 6.631088e+01 4.283994e+01 6.013883e+01 6.096663e+01 4.522937e+01 2.399557e+01 5.438230e+01 4.613904e+01 2.062266e+01 3.355068e+01 8.820931e-01 1.958533e+00 2.187966e+00 3.853962e+00 2.346440e+00 1.840181e+00 2.993713e+00 2.331218e+00 1.338129e+00 2.559565e+00 2.059996e+00 1.161534e+00 1.969884e+00 1.625981e-01 3.325779e-01 2.416988e-01 3.007160e-01 3.463937e-01 3.027296e-01 5.377563e-01 3.902664e-01 2.509937e-01 5.893111e-01 3.224140e-01 1.989343e-01 2.679006e-01
<GCONST> 1.125494e+02
<STATE> 4
<NUMMIXES> 2
<MIXTURE> 1 1.000000e+00
<MEAN> 39
 1.856569e+01 -1.289044e+01 -3.253160e+00 1.435792e+01 2.343912e+01 -3.893028e+00 -3.040961e+01 1.156071e+01 -8.875757e+00 -2.547664e+01 1.738120e+01 4.879832e+00 -8.371516e+00 2.811776e-01 4.022495e-01 -6.993838e-01 -1.229159e+00 -1.227911e+00 -2.245332e-01 9.715077e-01 2.858668e-01 5.302063e-02 6.838722e-01 5.179962e-01 5.024575e-01 8.469182e-01 -9.374502e-02 4.997906e-02 1.169952e-01 1.475130e-01 -8.912607e-02 6.757233e-02 2.750334e-01 6.877997e-03 1.189575e-01 1.829054e-01 -1.791310e-01 -9.901728e-02 4.019289e-02
<VARIANCE> 39
 8.917285e+00 1.293043e+01 3.021571e+01 4.286434e+01 3.387534e+01 2.356697e+01 4.561327e+01 3.770299e+01 1.868071e+01 3.921029e+01 5.867384e+01 1.620624e+01 3.948515e+01 6.241034e-01 6.451788e-01 1.163302e+00 1.234444e+00 9.280950e-01 1.060478e+00 2.545275e+00 2.178230e+00 9.940472e-01 2.140715e+00 2.743210e+00 9.107857e-01 8.481414e-01 9.004315e-02 7.987666e-02 1.228352e-01 1.259648e-01 1.184414e-01 1.306710e-01 3.136314e-01 3.187687e-01 1.348914e-01 2.944800e-01 2.696731e-01 1.373566e-01 1.361251e-01
<GCONST> 9.341824e+01
<MIXTURE> 2 0.000000e+00
<MEAN> 39
 1.834593e+01 7.934944e+00 7.932682e+00 1.503719e+01 1.803111e+00 -2.037606e+01 -1.644926e+01 2.184258e+01 1.260148e+01 -1.503142e+01 -6.399386e+00 -2.764359e+00 -1.201426e+01 -1.433372e-01 3.626778e-01 3.765360e-01 1.642747e-01 -9.144862e-01 -4.275381e-01 1.047767e+00 -6.491117e-01 -9.508583e-01 8.822717e-02 1.451628e-01 1.063848e+00 6.089023e-01 1.985392e-02 -2.290012e-03 -9.664199e-02 -1.148163e-01 1.024915e-01 1.975246e-01 -2.949605e-02 -5.193375e-02 -2.115059e-02 1.766418e-02 8.069424e-02 -5.974209e-02 -1.925800e-02
<VARIANCE> 39
 2.187982e+00 3.667252e+00 5.720903e+00 3.864647e+00 1.667177e+01 5.763923e+00 2.584094e+01 1.628677e+01 2.029194e+01 2.039786e+00 3.877239e+00 2.346906e+01 9.470806e+00 1.590848e-01 5.457012e-02 3.687519e-01 6.536990e-01 2.725386e-01 8.634763e-01 3.062788e-01 5.284209e-01 1.873871e-01 1.812601e-01 4.500642e-01 3.207888e-01 1.490624e-01 2.418954e-02 1.140214e-02 8.152611e-02 1.984748e-02 2.653353e-02 2.705498e-02 8.348361e-02 1.094728e-01 4.964291e-02 3.034215e-02 2.737052e-02 7.228445e-02 3.352412e-02
<GCONST> 3.861128e+01
<TRANSP> 5
 0.000000e+00 1.000000e+00 0.000000e+00 0.000000e+00 0.000000e+00
 0.000000e+00 8.720149e-01 1.279850e-01 0.000000e+00 0.000000e+00
 0.000000e+00 0.000000e+00 8.751127e-01 1.248874e-01 0.000000e+00
 0.000000e+00 0.000000e+00 0.000000e+00 8.400102e-01 1.599898e-01
 0.000000e+00 0.000000e+00 0.000000e+00 0.000000e+00 0.000000e+00
<ENDHMM>
~h "z"
<BEGINHMM>
<NUMSTATES> 5
<STATE> 2
<NUMMIXES> 2
<MIXTURE> 1 6.497657e-01
<MEAN> 39
 -1.528124e+00 -1.146867e+01 3.838611e+01 3.626060e+00 1.127520e+01 3.727789e+01 -1.262287e+01 -9.171811e-01 -1.324064e+01 -1.502082e+01 4.867483e+00 -3.254150e+00 1.081615e+00 -2.630970e+00 -2.593480e-01 3.270560e+00 -1.366605e+00 -9.676242e-01 1.411350e+00 1.487388e+00 1.777400e+00 3.886198e-01 6.400313e-01 -7.118496e-02 6.032256e-01 9.629172e-01 8.418510e-02 -7.402983e-02 -8.947251e-01 2.992859e-01 1.891401e-01 -6.534061e-01 2.972463e-01 3.753377e-01 3.349669e-01 6.818187e-02 3.300006e-01 2.452687e-01 -3.666714e-01
<VARIANCE> 39
 1.985172e+01 2.868992e+01 3.828437e+01 5.977532e+01 4.402554e+01 4.467081e+01 3.576016e+01 9.510915e+01 4.699140e+01 3.135803e+01 4.623792e+01 3.372644e+01 2.492163e+01 4.045185e-01 8.666418e-01 3.843341e+00 2.020573e+00 1.619238e+00 2.667472e+00 2.443831e+00 1.933443e+00 2.089075e+00 1.686694e+00 1.447142e+00 1.702883e+00 1.603876e+00 3.423815e-02 1.093806e-01 2.456897e-01 2.179790e-01 2.872912e-01 3.288356e-01 3.144210e-01 3.910755e-01 4.633703e-01 3.044787e-01 2.944106e-01 2.927359e-01 2.420433e-01
<GCONST> 1.071902e+02
<MIXTURE> 2 3.502340e-01
<MEAN> 39
 8.530090e+00 -1.193647e+01 1.929445e+01 1.493920e+01 2.030161e+01 2.802490e+01 -1.753045e+01 -8.087514e+00 -1.413934e+01 -1.696732e+01 9.637049e+00 -2.071978e+00 -7.746455e+00 -2.447917e+00 -3.161981e-01 5.641380e+00 -2.822759e+00 -2.541387e+00 4.662148e+00 9.108559e-01 -1.418257e+00 6.881205e-01 1.476998e+00 -2.252851e+00 -9.808441e-02 2.736545e+00 -2.674057e-01 -5.280033e-02 2.786373e-01 -2.922568e-01 6.542587e-02 -4.532584e-01 -1.175348e-01 1.060735e+00 -3.155802e-01 -2.209119e-01 7.055819e-01 -4.309145e-02 -1.650192e-01
<VARIANCE> 39
 6.516397e+00 1.949216e+01 3.253891e+01 2.901700e+01 1.702125e+01 4.000639e+01 2.163328e+01 1.389244e+01 2.619539e+01 2.090722e+01 1.898271e+01 1.336865e+01 1.603552e+01 6.158866e-01 5.488411e-01 1.413091e+00 9.853617e-01 1.356030e+00 1.590943e+00 1.585715e+00 1.719606e+00 2.307675e+00 1.028610e+00 2.125625e+00 1.303534e+00 1.135755e+00 3.853398e-02 1.631013e-01 2.488328e-01 1.888715e-01 1.434816e-01 3.467946e-01 3.150503e-01 2.107758e-01 2.437502e-01 1.498831e-01 2.605340e-01 1.928002e-01 1.318222e-01
<GCONST> 9.108041e+01
<STATE> 3
<NUMMIXES> 2
<MIXTURE> 1 1.000000e+00
<MEAN> 39
 -1.334092e+01 -1.565324e+01 4.419247e+01 -2.346745e+00 6.240214e+00 3.817063e+01 -3.451139e+00 8.681511e+00 -5.009884e+00 -7.561947e+00 8.076867e+00 2.275996e+00 3.119666e+00 -1.520026e+00 -1.414815e+00 -1.070630e-01 -1.480487e+00 -1.039051e+00 -2.816233e-01 7.481257e-01 1.392671e+00 1.458848e+00 1.646809e+00 9.601627e-01 7.703246e-01 8.748019e-01 3.607655e-01 -1.628324e-01 -3.145921e-01 -4.661275e-02 1.063497e-01 -5.873317e-02 -4.593880e-01 -3.754457e-01 -3.823477e-01 -8.623595e-02 3.075181e-02 -1.211310e-01 1.461646e-01
<VARIANCE> 39
 1.725018e+01 2.300575e+01 1.745664e+01 4.291894e+01 2.644912e+01 2.951007e+01 1.953756e+01 3.543884e+01 3.334818e+01 4.007384e+01 3.274104e+01 1.699344e+01 1.658104e+01 7.858217e-01 8.682852e-01 1.790454e+00 1.584452e+00 1.888180e+00 2.387650e+00 2.146767e+00 2.612502e+00 3.246944e+00 1.554997e+00 1.278378e+00 1.545165e+00 1.593297e+00 8.992599e-02 1.183194e-01 3.290143e-01 2.312195e-01 3.378807e-01 4.241532e-01 2.276620e-01 3.362667e-01 5.609253e-01 3.230785e-01 2.611435e-01 2.479250e-01 2.287285e-01
<GCONST> 1.029115e+02
<MIXTURE> 2 0.000000e+00
<MEAN> 39
 9.548405e+00 2.757985e+00 1.587493e+00 2.546423e+01 2.516029e+01 -1.532878e+00 -2.210041e+01 2.676743e-01 -3.253519e+00 -5.463100e+00 8.693054e+00 -2.583130e+00 -1.410593e+01 1.165624e+00 -1.204195e+00 -1.929883e+00 -1.209229e+00 -1.199724e+00 -1.876355e+00 -1.184111e+00 -1.165375e+00 -1.026490e+00 -1.079515e+00 1.903820e-03 1.041484e+00 2.377080e-01 1.381469e-01 -5.691695e-01 -3.220993e-01 2.302902e-01 -1.282913e-01 -4.383549e-01 2.209661e-01 1.049928e+00 -1.342033e-01 -4.240417e-01 3.025464e-01 2.700545e-02 -1.260652e-01
<VARIANCE> 39
 0.000000e+00 0.000000e+00 -2.273737e-13 0.000000e+00 -2.842171e-14 5.684342e-14 -4.547474e-13 0.000000e+00 0.000000e+00 -3.637979e-12 0.000000e+00 0.000000e+00 -5.684342e-14 -1.421085e-14 1.136868e-13 0.000000e+00 0.000000e+00 0.000000e+00 0.000000e+00 0.000000e+00 0.000000e+00 2.842171e-14 0.000000e+00 0.000000e+00 0.000000e+00 0.000000e+00 0.000000e+00 0.000000e+00 0.000000e+00 -3.552714e-15 0.000000e+00 0.000000e+00 0.000000e+00 0.000000e+00 -7.105427e-15 -7.105427e-15 0.000000e+00 -8.881784e-16 0.000000e+00
<GCONST> -3.600002e+11
<STATE> 4
<NUMMIXES> 2
<MIXTURE> 1 5.877816e-01
<MEAN> 39
 -1.419100e+01 -2.313674e+01 4.049020e+01 -8.136231e+00 4.087764e+00 3.645930e+01 -5.229734e+00 7.720065e+00 -6.700225e+00 -2.227603e+00 1.077511e+01 3.077521e+00 8.230734e+00 2.025293e+00 4.970306e-01 -1.226125e+00 4.290453e-01 1.529408e-01 -6.851772e-01 -7.126303e-01 -1.400141e+00 -7.703916e-01 -3.519071e-01 -9.455550e-01 -7.557871e-01 -7.200008e-02 7.220856e-01 5.408590e-01 -5.129694e-01 4.505394e-01 4.663850e-02 -4.895976e-01 -1.569774e-01 -1.964567e-01 3.614151e-02 -4.224825e-01 -3.427134e-01 -1.496603e-01 -2.907319e-01
<VARIANCE> 39
 3.430317e+01 1.900501e+01 1.586427e+01 4.911610e+01 2.608864e+01 3.124360e+01 2.410716e+01 2.369343e+01 2.992431e+01 2.887240e+01 2.394613e+01 2.056764e+01 1.178690e+01 3.241261e+00 2.858814e+00 2.180474e+00 2.440725e+00 1.712636e+00 3.834409e+00 1.424378e+00 1.449025e+00 2.519395e+00 1.778326e+00 1.521480e+00 1.181091e+00 1.153967e+00 1.164979e-01 1.992754e-01 4.386548e-01 2.591729e-01 3.369226e-01 7.464967e-01 2.749107e-01 3.411365e-01 4.670201e-01 3.531609e-01 2.669431e-01 3.083901e-01 1.996798e-01
<GCONST> 1.064338e+02
<MIXTURE> 2 4.122185e-01
<MEAN> 39
 7.852324e+00 -1.388289e+01 2.187273e+01 9.644977e-01 5.453193e+00 2.282817e+01 -1.189769e+01 1.534138e+00 -8.294331e+00 -1.275321e+01 3.179537e+00 -5.093373e-01 3.792074e+00 4.240308e+00 1.003087e+00 -5.790022e+00 2.101877e+00 9.470210e-01 -4.522208e+00 -1.742595e+00 9.103860e-01 -6.102530e-01 -3.513188e+00 8.354818e-01 3.975201e-01 -1.621508e+00 -4.288311e-01 -3.418286e-01 -1.973646e-01 -4.086678e-02 4.086312e-01 -2.521940e-01 -6.485760e-02 8.603703e-01 -2.718935e-01 -3.488953e-01 1.101139e+00 2.401502e-01 -2.987697e-01
<VARIANCE> 39
 4.637074e+01 7.307024e+00 9.351334e+01 2.762138e+01 1.687194e+01 5.492300e+01 1.676258e+01 1.925646e+01 1.738632e+01 4.269409e+01 1.997880e+01 8.720905e+00 1.332798e+01 1.225264e+00 1.053550e+00 1.379763e+00 8.149921e-01 1.266575e+00 1.346613e+00 8.020368e-01 3.024617e+00 1.354878e+00 1.398297e+00 4.983640e+00 1.065804e+00 1.063743e+00 2.822193e-01 1.218060e-01 7.177658e-01 2.351713e-01 1.285481e-01 2.569544e-01 1.632843e-01 2.060444e-01 2.093560e-01 3.903901e-01 2.360426e-01 2.068354e-01 1.385744e-01
<GCONST> 9.703947e+01
<TRANSP> 5
 0.000000e+00 1.000000e+00 0.000000e+00 0.000000e+00 0.000000e+00
 0.000000e+00 8.638430e-01 1.361570e-01 0.000000e+00 0.000000e+00
 0.000000e+00 0.000000e+00 8.289679e-01 1.710321e-01 0.000000e+00
 0.000000e+00 0.000000e+00 0.000000e+00 9.111203e-01 8.887970e-02
 0.000000e+00 0.000000e+00 0.000000e+00 0.000000e+00 0.000000e+00
<ENDHMM>
~h "aa"
<BEGINHMM>
<NUMSTATES> 7
<STATE> 2
<NUMMIXES> 2
<MIXTURE> 1 5.784926e-01
<MEAN> 39
 2.264430e+01 -1.288863e+01 -1.514556e+01 4.810495e+00 1.196838e+01 -1.012126e+01 -1.876396e+01 1.895654e+01 -4.842166e+00 -1.820521e+01 1.573503e+01 5.998231e+00 2.159671e-01 -5.608080e-04 -8.596870e-02 -7.300096e-01 -5.682545e-01 -6.038333e-01 -5.018838e-01 5.029213e-01 4.703237e-01 1.009632e+00 7.658286e-01 -5.032532e-01 4.289951e-02 3.210310e-01 -1.167181e-01 9.069645e-02 1.625737e-01 1.014968e-01 -7.002012e-02 1.400681e-01 1.665306e-01 -1.896620e-01 6.510860e-02 1.375272e-01 -2.409414e-01 -1.001095e-01 -3.232160e-02
<VARIANCE> 39
 8.100774e+00 7.575424e+00 2.101672e+01 2.674298e+01 2.185834e+01 2.034950e+01 3.467883e+01 6.452204e+01 2.713568e+01 3.066888e+01 4.133923e+01 1.913075e+01 1.917820e+01 6.517332e-01 3.602368e-01 6.926842e-01 7.158810e-01 5.468916e-01 5.660514e-01 1.306724e+00 2.173602e+00 8.288218e-01 1.057166e+00 1.724436e+00 8.700882e-01 5.851052e-01 1.065285e-01 6.710336e-02 9.386355e-02 8.773576e-02 8.703146e-02 9.699798e-02 1.989757e-01 2.807518e-01 1.042186e-01 1.840188e-01 2.333052e-01 1.267919e-01 8.051702e-02
<GCONST> 8.235231e+01
<MIXTURE> 2 4.215074e-01
<MEAN> 39
 2.116580e+01 -7.803129e+00 -9.633681e+00 7.190219e+00 6.551207e+00 -8.592402e+00 -1.264405e+01 1.689495e+01 -2.554632e+00 -1.534490e+01 8.491634e+00 2.809510e+00 -7.085560e-02 1.617861e+00 -9.555022e-01 -2.426348e+00 -5.814461e-01 3.273032e-02 -2.579103e+00 -1.374096e+00 1.861421e+00 1.971412e-01 -1.228577e+00 1.070807e+00 9.181831e-01 -1.206337e-01 -6.376790e-01 -2.026153e-02 3.385881e-01 -1.123499e-01 -5.030333e-02 5.805402e-01 4.058809e-01 -1.985433e-01 3.107427e-01 5.488588e-01 -2.636848e-01 -1.655249e-01 1.730986e-01
<VARIANCE> 39
 1.726672e+01 3.059676e+01 3.710910e+01 3.350953e+01 5.865610e+01 8.064693e+01 5.623619e+01 6.906867e+01 9.359576e+01 5.331828e+01 8.394512e+01 1.905500e+01 2.143258e+01 1.944370e+00 1.352649e+00 2.197485e+00 2.017581e+00 2.716314e+00 3.237433e+00 2.505636e+00 2.949960e+00 1.874498e+00 2.517993e+00 2.246335e+00 1.410924e+00 1.138114e+00 2.467284e-01 2.683567e-01 4.101642e-01 4.039222e-01 3.878233e-01 3.871482e-01 3.516135e-01 5.196372e-01 2.922524e-01 3.785242e-01 3.915241e-01 2.148709e-01 1.698818e-01
<GCONST> 1.156637e+02
<STATE> 3
<NUMMIXES> 2
<MIXTURE> 1 1.737211e-03
<MEAN> 39
 2.251027e+01 -1.020821e+01 -1.105797e+01 7.723082e+00 -7.784116e+00 -1.974905e+01 2.970661e+00 3.087534e+01 4.596018e+00 -1.703555e+01 9.013081e-01 5.129733e+00 -4.137028e+00 1.762175e-02 -3.855681e-01 -1.168724e-01 2.221661e-02 2.318738e-01 2.494200e-01 2.755701e-01 -1.818181e-01 -2.359339e-01 1.426912e-01 2.223611e-02 -2.191338e-01 -1.507146e-02 -3.691195e-02 4.713047e-02 7.509338e-03 -3.819289e-02 1.092430e-01 -1.043364e-01 -1.284189e-01 7.492943e-02 1.655033e-02 -1.568447e-02 2.621293e-02 3.951315e-02 -3.554864e-02
<VARIANCE> 39
 9.819471e+00 4.637754e+00 1.119752e+00 3.451887e+00 1.371669e+00 1.351321e+00 1.629271e+00 4.260245e+00 2.165287e+00 1.116590e+00 4.372156e+00 2.817784e+00 1.306306e-01 6.131955e-01 2.085919e-01 1.168426e-01 2.282449e-01 1.138466e-01 2.389081e-01 9.196961e-02 2.783907e-01 8.463440e-02 1.001296e-01 3.022206e-01 2.024907e-01 2.882045e-02 7.434143e-02 3.364927e-02 1.727214e-02 2.839729e-02 1.189095e-02 2.210627e-02 4.179073e-02 3.442486e-02 3.833998e-03 1.837475e-02 4.333274e-02 2.651769e-02 1.396228e-02
<GCONST> 7.699984e+00
<MIXTURE> 2 9.982628e-01
<MEAN> 39
 2.119645e+01 -9.719775e+00 -1.628155e+01 3.783995e+00 4.809062e+00 -1.327998e+01 -1.248617e+01 2.090772e+01 5.848336e+00 -1.101218e+01 5.471153e+00 3.929997e+00 2.461098e+00 -1.803584e-01 -8.266929e-03 -1.852046e-01 -1.466820e-01 -4.266497e-01 -2.271789e-01 4.881533e-01 2.243749e-01 6.230305e-01 5.225564e-01 -4.375064e-01 -7.023177e-02 6.957144e-02 -9.309996e-03 2.602034e-02 1.158413e-01 3.610615e-02 6.042295e-02 1.229222e-01 9.553616e-03 -1.537984e-02 -1.540407e-01 -6.567848e-02 9.087086e-02 -4.744931e-02 -3.164212e-02
<VARIANCE> 39
 1.429395e+01 1.784677e+01 3.139826e+01 1.737436e+01 3.173895e+01 4.711965e+01 4.217375e+01 7.330517e+01 4.374912e+01 3.936061e+01 5.268417e+01 2.475893e+01 1.939223e+01 1.093306e+00 8.752893e-01 1.147513e+00 8.680062e-01 9.748123e-01 1.084620e+00 1.737595e+00 2.485063e+00 1.223164e+00 1.558243e+00 2.156500e+00 1.023141e+00 7.180112e-01 2.121747e-01 1.292123e-01 1.956445e-01 1.490666e-01 1.511894e-01 2.114971e-01 2.903440e-01 4.157787e-01 1.660374e-01 2.649061e-01 3.293571e-01 1.734491e-01 1.230501e-01
<GCONST> 9.826249e+01
<STATE> 4
<NUMMIXES> 2
<MIXTURE> 1 3.271544e-01
<MEAN> 39
 -8.758150e-01 -3.008596e+00 -8.722100e+00 -1.332255e+00 -2.432442e+00 -1.876041e+00 1.205116e+00 1.544389e+01 5.523690e+00 -1.515828e+00 4.317384e+00 4.634861e+00 4.678741e+00 -4.078895e-01 -9.975330e-02 7.046353e-02 -5.189119e-02 1.888868e-02 1.931218e-01 1.334778e-01 -5.763463e-02 -1.453948e-01 1.722083e-02 2.177960e-03 -1.808756e-01 -1.284028e-01 9.036114e-02 -7.234599e-02 -2.806831e-02 4.365183e-02 7.544346e-02 -3.251603e-02 -1.112302e-01 3.942858e-02 -7.053989e-02 -9.285422e-02 8.171282e-02 -1.888542e-02 -4.569896e-02
<VARIANCE> 39
 3.269872e+02 3.836612e+01 3.682205e+01 3.463200e+01 6.786685e+01 1.253308e+02 1.108171e+02 1.457198e+02 6.895882e+01 4.402660e+01 4.319182e+01 4.746033e+01 3.344609e+01 2.820896e+00 1.099360e+00 1.311432e+00 1.430305e+00 2.036926e+00 2.704602e+00 3.321448e+00 3.221256e+00 2.028708e+00 1.943968e+00 1.806572e+00 1.496439e+00 1.217232e+00 1.895894e-01 1.299051e-01 1.716534e-01 2.117110e-01 2.705415e-01 3.257074e-01 3.883792e-01 4.359169e-01 3.094856e-01 3.208878e-01 3.153596e-01 2.493139e-01 1.999086e-01
<GCONST> 1.168713e+02
<MIXTURE> 2 6.728458e-01
<MEAN> 39
 2.282920e+01 -1.118231e+01 -1.782507e+01 4.699216e+00 -3.302912e-01 -1.914276e+01 -8.474174e+00 2.570676e+01 1.047163e+01 -9.989018e+00 9.834870e-01 1.763218e+00 -4.396468e-02 1.194261e-03 -1.090135e-01 -2.126164e-02 -3.986518e-02 1.716935e-03 1.175469e-01 1.313276e-01 -1.696520e-02 -1.519602e-01 3.203328e-02 1.097471e-01 -6.767260e-02 8.877080e-03 -2.112952e-02 5.440708e-02 7.847165e-02 -3.236470e-03 3.586676e-02 6.371478e-02 -3.756155e-02 -2.785044e-02 -9.465464e-02 -3.337396e-02 7.701892e-02 -1.195710e-02 1.951909e-03
<VARIANCE> 39
 1.073098e+01 1.167682e+01 1.636467e+01 1.072047e+01 1.888606e+01 2.571611e+01 2.644072e+01 3.147027e+01 2.755143e+01 2.195117e+01 2.813419e+01 1.041883e+01 1.133944e+01 9.594068e-01 5.282484e-01 5.743852e-01 5.299430e-01 5.022656e-01 5.536593e-01 7.351472e-01 1.238206e+00 7.000176e-01 6.610039e-01 1.174559e+00 4.705431e-01 3.256498e-01 1.438350e-01 6.505058e-02 7.707702e-02 8.266988e-02 6.174872e-02 7.045940e-02 1.074804e-01 1.725797e-01 7.126958e-02 1.051809e-01 1.592224e-01 6.873678e-02 5.062660e-02
<GCONST> 7.182614e+01
<STATE> 5
<NUMMIXES> 2
<MIXTURE> 1 8.901305e-01
<MEAN> 39
 2.287677e+01 -1.281535e+01 -1.724589e+01 3.234910e+00 6.397661e+00 -1.167179e+01 -1.190860e+01 2.066342e+01 1.487182e-02 -1.176166e+01 1.060443e+01 2.677383e+00 1.268646e+00 8.983304e-03 1.144424e-01 3.444164e-01 1.613930e-02 4.929088e-01 5.196855e-01 -3.880160e-01 -3.472472e-01 -8.496475e-01 -2.191402e-01 7.816732e-01 -3.985822e-04 1.557093e-03 -7.305913e-02 1.177769e-01 1.035778e-01 4.276766e-02 2.179366e-02 8.458530e-02 5.421727e-03 -1.309827e-01 6.646203e-03 3.190954e-02 -5.890517e-02 1.199530e-04 -1.766454e-02
<VARIANCE> 39
 8.074308e+00 1.064400e+01 1.987096e+01 1.501907e+01 2.973477e+01 2.077394e+01 3.397321e+01 5.953893e+01 3.894804e+01 3.039593e+01 4.129527e+01 2.782093e+01 1.623039e+01 7.095492e-01 5.145026e-01 5.900207e-01 6.292112e-01 7.864845e-01 6.282341e-01 1.249624e+00 1.955430e+00 9.439951e-01 9.256974e-01 1.803413e+00 8.298676e-01 4.671531e-01 1.041856e-01 6.132625e-02 8.610271e-02 9.085921e-02 7.565718e-02 8.947356e-02 1.472940e-01 2.288663e-01 1.045625e-01 1.269524e-01 2.158816e-01 1.159395e-01 6.654096e-02
<GCONST> 8.146612e+01
<MIXTURE> 2 1.098696e-01
<MEAN> 39
 4.651320e+00 -6.396260e+00 -8.494982e-02 1.118231e+01 1.349844e+01 4.257651e+00 -1.174113e+01 6.018074e+00 -4.833450e+00 -9.445354e+00 8.720565e+00 1.089491e+00 -2.294963e+00 3.979782e-02 5.519379e-02 2.359222e-01 1.838554e-01 8.844307e-02 -6.294253e-02 -1.232330e-01 1.079818e-01 -1.677245e-01 -1.554312e-01 3.849658e-02 -1.446863e-01 -1.361890e-01 7.241061e-02 -3.357791e-02 -4.082826e-03 3.438635e-03 3.581277e-02 -3.392298e-03 -2.380209e-02 8.693915e-02 -5.089184e-04 -3.356292e-02 3.790332e-02 -1.996778e-02 -1.416422e-02
<VARIANCE> 39
 2.370529e+02 1.531955e+02 1.453697e+02 1.812283e+02 1.489073e+02 1.058948e+02 1.501684e+02 8.865614e+01 6.455716e+01 9.947015e+01 9.531760e+01 4.253906e+01 6.902652e+01 3.964816e+00 3.846307e+00 3.504532e+00 2.704088e+00 2.715828e+00 3.223201e+00 4.448341e+00 3.459188e+00 2.758093e+00 3.763571e+00 4.130790e+00 1.658354e+00 1.920951e+00 4.210650e-01 4.471489e-01 4.409667e-01 3.322355e-01 3.455849e-01 3.785741e-01 6.060019e-01 5.342256e-01 4.675176e-01 5.869188e-01 6.104475e-01 2.983792e-01 2.462176e-01
<GCONST> 1.364716e+02
<STATE> 6
<NUMMIXES> 2
<MIXTURE> 1 6.021202e-01
<MEAN> 39
 2.113961e+01 -1.110379e+01 -1.106608e+01 4.309925e+00 1.240744e+01 -7.770210e+00 -1.834263e+01 1.976800e+01 -7.080806e+00 -1.693832e+01 1.815616e+01 2.391506e+00 -1.501448e+00 -2.004919e-01 4.369983e-01 6.170492e-01 6.351156e-01 6.672224e-01 6.846825e-01 -2.937309e-01 -9.717965e-01 -6.797172e-01 -2.216984e-01 2.582427e-01 -8.860889e-02 -5.611928e-01 -1.038267e-01 1.348657e-01 7.010558e-02 1.246942e-01 -1.132541e-02 1.055298e-01 1.972112e-01 -1.663891e-01 1.676553e-01 1.094430e-01 -3.256232e-01 -2.611118e-03 -3.381515e-02
<VARIANCE> 39
 8.070137e+00 1.578743e+01 2.495754e+01 4.784993e+01 6.498956e+01 2.769253e+01 8.410873e+01 9.532938e+01 5.419340e+01 4.110345e+01 5.645528e+01 3.550464e+01 3.690814e+01 6.182557e-01 6.747851e-01 9.249878e-01 1.029363e+00 1.213473e+00 1.166726e+00 2.269343e+00 2.967377e+00 1.343337e+00 1.504504e+00 2.897911e+00 1.109685e+00 1.011127e+00 1.117480e-01 8.825256e-02 1.415589e-01 1.415374e-01 1.401799e-01 1.649455e-01 3.067812e-01 4.285685e-01 2.078113e-01 2.586423e-01 3.712425e-01 1.848740e-01 1.365785e-01
<GCONST> 1.003108e+02
<MIXTURE> 2 3.978798e-01
<MEAN> 39
 1.702286e+01 -1.243321e+00 -7.354209e+00 6.392092e+00 6.158645e+00 -3.845898e+00 -6.192188e+00 1.413249e+01 -3.926385e-01 -9.653117e+00 4.512328e+00 1.249524e+00 5.028193e-01 -1.845990e+00 2.116633e+00 2.130580e+00 5.185761e-01 1.860482e-01 2.065715e+00 1.469179e+00 -1.241486e+00 7.536786e-01 1.222970e+00 -1.812469e+00 -2.158785e-01 5.040825e-01 -2.824570e-01 -2.800164e-02 2.500668e-01 -4.106963e-02 -1.611936e-02 1.660243e-01 1.028792e-01 9.464781e-02 7.059352e-03 8.774073e-02 5.410831e-02 -4.493723e-02 6.263464e-02
<VARIANCE> 39
 5.785474e+01 4.089394e+01 4.494171e+01 2.923507e+01 6.261079e+01 8.798135e+01 4.611428e+01 7.791154e+01 8.387774e+01 4.832042e+01 7.888309e+01 2.309149e+01 2.818985e+01 1.213595e+00 1.176625e+00 1.674991e+00 1.891763e+00 1.370826e+00 2.059551e+00 2.150791e+00 2.490278e+00 1.705987e+00 1.927875e+00 2.839029e+00 1.390218e+00 1.212056e+00 1.725361e-01 2.271674e-01 2.996234e-01 2.050317e-01 2.358308e-01 3.385572e-01 3.146272e-01 3.314285e-01 3.436921e-01 3.157495e-01 4.132979e-01 2.013022e-01 1.880997e-01
<GCONST> 1.123671e+02
<TRANSP> 7
 0.000000e+00 1.000000e+00 0.000000e+00 0.000000e+00 0.000000e+00 0.000000e+00 0.000000e+00
 0.000000e+00 8.395318e-01 1.604681e-01 0.000000e+00 0.000000e+00 0.000000e+00 0.000000e+00
 0.000000e+00 0.000000e+00 7.851801e-01 2.148199e-01 0.000000e+00 0.000000e+00 0.000000e+00
 0.000000e+00 0.000000e+00 0.000000e+00 9.104199e-01 8.958006e-02 0.000000e+00 0.000000e+00
 0.000000e+00 0.000000e+00 0.000000e+00 0.000000e+00 8.343259e-01 1.656741e-01 0.000000e+00
 0.000000e+00 0.000000e+00 0.000000e+00 0.000000e+00 0.000000e+00 8.483145e-01 1.516855e-01
 0.000000e+00 0.000000e+00 0.000000e+00 0.000000e+00 0.000000e+00 0.000000e+00 0.000000e+00
<ENDHMM>
~h "ax"
<BEGINHMM>
<NUMSTATES> 7
<STATE> 2
<NUMMIXES> 2
<MIXTURE> 1 6.384549e-01
<MEAN> 39
 5.495015e-01 -2.133024e-02 1.003077e+00 3.824805e+00 -4.485482e+00 -3.814464e+00 4.308747e-02 1.731118e+01 6.414892e+00 -2.990327e+00 1.751806e+00 7.940584e-01 3.921416e+00 3.678743e+00 1.707423e-01 -4.023461e-01 8.294387e-01 -5.160452e-01 -2.379831e+00 -9.439781e-01 1.238603e+00 4.283601e-01 -1.009931e+00 -1.542676e-01 -9.316785e-02 -5.625337e-01 1.378470e-01 -3.520380e-01 -4.276136e-01 -6.918566e-01 -6.769747e-01 -5.338011e-01 -3.532509e-01 2.017764e-01 -3.529607e-01 -5.030034e-01 2.661328e-01 -2.674428e-01 -5.534933e-01
<VARIANCE> 39
 1.437136e+02 9.508875e+00 1.191773e+01 1.815740e+01 4.659159e+01 1.127226e+02 7.186961e+01 3.178156e+01 2.366920e+01 3.434072e+01 1.591045e+01 3.140859e+01 2.413054e+01 1.376746e+00 9.632116e-01 1.995998e+00 7.700062e+00 1.023411e+01 5.130549e+00 4.505706e+00 6.460290e+00 2.810953e+00 3.371041e+00 2.574948e+00 3.811719e+00 3.247130e+00 1.165708e-01 1.330880e-01 2.159459e-01 4.490568e-01 6.524019e-01 5.483549e-01 3.805560e-01 5.435473e-01 2.983057e-01 4.255822e-01 4.164388e-01 4.817698e-01 4.676076e-01
<GCONST> 1.191961e+02
<MIXTURE> 2 3.615452e-01
<MEAN> 39
 1.113655e+01 -2.362065e+00 -6.030607e-01 -7.473941e+00 -1.621157e+01 -4.278430e+00 3.780468e+00 2.787095e+01 7.668791e-01 -1.337761e+01 6.825133e+00 -6.056065e+00 -2.250113e+00 2.514359e+00 4.945311e-02 4.244326e-01 7.692240e-01 3.104758e-02 -1.051939e+00 -6.814453e-01 5.038536e-01 3.765129e-01 -4.370092e-01 -3.999794e-01 -9.478382e-01 -9.539787e-01 -6.150843e-01 6.851603e-02 -3.323120e-02 1.480841e+00 1.554008e+00 3.616698e-04 -5.129851e-01 -1.179386e+00 5.082125e-01 8.747072e-01 -6.111752e-01 6.497710e-01 4.591248e-01
<VARIANCE> 39
 2.646902e+01 1.556644e+01 1.320242e+01 3.483125e+01 7.973771e+01 3.960078e+01 5.502771e+01 5.220495e+01 3.984350e+01 6.596546e+01 2.941855e+01 2.591647e+01 1.598402e+01 2.684375e+00 6.475110e-01 8.159917e-01 1.075977e+01 1.127764e+01 2.214871e+00 2.118898e+00 9.223414e+00 4.315073e+00 8.336478e+00 3.878291e+00 2.242482e+00 2.215114e+00 3.031018e-01 1.209414e-01 2.728187e-01 6.887307e-01 7.358063e-01 6.343828e-01 4.206203e-01 7.729445e-01 6.098117e-01 8.539685e-01 4.992573e-01 3.572609e-01 2.630428e-01
<GCONST> 1.220137e+02
<STATE> 3
<NUMMIXES> 2
<MIXTURE> 1 8.951600e-01
<MEAN> 39
 2.091040e+01 -1.897172e+00 -3.852421e+00 1.095240e+01 -4.528540e+00 -2.518353e+01 -1.482508e+01 2.263446e+01 1.068691e+01 -1.040420e+01 -7.766567e-02 1.975658e+00 -1.338921e+00 1.174720e+00 -7.678636e-01 -1.527263e+00 4.358181e-01 5.779229e-01 -2.172634e+00 -1.655359e+00 8.118080e-01 8.202178e-01 -5.090042e-01 2.682211e-01 7.137457e-01 -5.679523e-01 -4.233099e-01 -4.993033e-02 8.088136e-02 -4.617212e-01 -1.564317e-01 5.603043e-01 3.622671e-01 3.901212e-02 -1.380688e-02 1.699319e-01 1.191941e-01 -1.042437e-01 1.070059e-01
<VARIANCE> 39
 9.601954e+00 2.071032e+01 2.891055e+01 9.457984e+00 3.924896e+01 1.122171e+02 4.330552e+01 3.272688e+01 5.008382e+01 3.047734e+01 1.867381e+01 2.639652e+01 1.924117e+01 1.567244e+00 5.457615e-01 1.498131e+00 1.240635e+00 1.587055e+00 4.793356e+00 2.270859e+00 2.569176e+00 9.029124e-01 2.025794e+00 1.361920e+00 1.357562e+00 1.013842e+00 2.248228e-01 1.604468e-01 1.821189e-01 3.146846e-01 3.763635e-01 5.582933e-01 2.942620e-01 6.128401e-01 2.242383e-01 4.147356e-01 2.471885e-01 2.015841e-01 1.794791e-01
<GCONST> 1.036579e+02
<MIXTURE> 2 1.048401e-01
<MEAN> 39
 2.144629e+01 -9.678340e+00 -1.126317e+01 6.678950e+00 7.067383e+00 -1.746236e+01 -1.980273e+01 2.086200e+01 -6.934147e-01 -2.323100e+01 5.151876e+00 3.000629e+00 -1.742857e+00 1.535694e-01 3.806151e-01 -9.082350e-01 -6.433007e-01 -1.629899e+00 -1.377893e+00 1.058455e+00 2.956164e-01 2.028038e+00 1.655898e+00 -1.568944e+00 2.696420e-02 6.651185e-02 8.703054e-02 1.690329e-02 9.667873e-02 2.289988e-01 1.021108e-01 -3.338514e-02 -2.066261e-01 -3.764031e-02 -6.264096e-02 1.112251e-02 1.459595e-01 3.929838e-02 -4.216527e-02
<VARIANCE> 39
 9.415427e+00 2.787310e+00 1.345944e+01 5.476189e+00 1.692177e+01 1.154872e+01 2.246441e+01 3.111766e+01 3.929908e+01 2.356243e+01 3.723328e+01 1.395166e+01 3.418873e+00 6.489707e-01 1.511007e-01 2.580871e-01 6.469616e-01 6.460040e-01 2.146230e-01 8.754190e-01 2.255544e+00 2.536540e-01 1.110328e+00 1.053802e+00 3.931804e-01 3.044586e-01 1.086847e-01 3.305295e-02 3.557970e-02 9.544580e-02 1.584466e-01 6.376784e-02 1.664257e-01 3.535287e-01 5.573564e-02 2.613504e-01 2.344391e-01 6.236494e-02 7.232613e-02
<GCONST> 6.681467e+01
<STATE> 4
<NUMMIXES> 2
<MIXTURE> 1 6.004124e-01
<MEAN> 39
 2.174352e+01 -6.259486e+00 -1.261434e+01 7.005922e+00 -1.782267e+00 -2.670387e+01 -1.763116e+01 2.079280e+01 1.534394e+01 -7.014098e+00 -9.547816e-01 3.760090e+00 -2.219182e+00 -3.868875e-02 -6.354802e-02 -2.948737e-01 -3.072782e-01 -1.844103e-02 -2.376908e-02 -3.004000e-02 2.408000e-02 3.800882e-01 3.286964e-01 -6.386145e-02 2.143944e-02 -1.494171e-02 1.483834e-01 -1.015767e-02 -1.118546e-02 7.186497e-02 9.011534e-02 1.209235e-01 -1.644497e-02 1.620398e-01 -1.748288e-01 -1.918486e-01 1.574359e-01 -9.606746e-02 -6.666446e-02
<VARIANCE> 39
 7.470398e+00 4.759281e+00 9.430729e+00 6.683923e+00 6.854841e+00 2.175216e+01 2.523623e+01 1.179403e+01 1.594860e+01 9.696994e+00 1.542130e+01 3.940758e+00 9.138122e+00 8.709422e-01 2.783564e-01 5.752272e-01 4.103185e-01 5.099458e-01 8.337193e-01 8.265295e-01 1.254862e+00 6.801655e-01 8.796070e-01 8.288020e-01 3.499766e-01 3.326799e-01 1.144121e-01 3.811331e-02 5.797609e-02 4.886691e-02 5.832928e-02 5.235083e-02 8.318006e-02 1.003579e-01 4.051002e-02 9.059300e-02 7.041939e-02 5.117078e-02 3.719839e-02
<GCONST> 5.851797e+01
<MIXTURE> 2 3.995876e-01
<MEAN> 39
 2.574613e+01 -7.218748e+00 -1.417794e+01 8.702305e+00 8.100174e-01 -2.491638e+01 -1.806692e+01 2.588860e+01 1.178284e+01 -1.161194e+01 4.359351e+00 2.913974e+00 -5.184920e+00 2.493326e-02 -5.656068e-02 -5.548528e-01 -3.814204e-01 -2.751560e-02 -4.246864e-01 -2.161765e-01 2.251367e-01 6.952993e-01 3.825321e-01 -3.135749e-02 2.163971e-01 4.274467e-02 -4.258465e-01 2.153179e-01 3.279390e-01 -1.774734e-01 -2.024262e-01 3.171868e-01 3.988566e-01 -4.498340e-01 2.473145e-02 3.019015e-01 -3.666371e-01 -3.235348e-02 1.987911e-01
<VARIANCE> 39
 4.508538e+00 5.163020e+00 2.163536e+01 9.273952e+00 1.312468e+01 3.166280e+01 2.503054e+01 1.697207e+01 1.880000e+01 1.323962e+01 1.761941e+01 7.851859e+00 1.013771e+01 1.118322e+00 3.804227e-01 6.184490e-01 4.706789e-01 4.949557e-01 8.841073e-01 9.276679e-01 1.326219e+00 7.266526e-01 9.896784e-01 1.032493e+00 5.331576e-01 3.399071e-01 7.179872e-02 3.350915e-02 6.978475e-02 7.037528e-02 6.396865e-02 7.264891e-02 9.955181e-02 9.507509e-02 6.721476e-02 8.951446e-02 9.468894e-02 8.638101e-02 5.035517e-02
<GCONST> 6.597121e+01
<STATE> 5
<NUMMIXES> 2
<MIXTURE> 1 1.000000e+00
<MEAN> 39
 2.293674e+01 -4.519796e+00 -1.331208e+01 3.870875e+00 -1.497257e+00 -2.181526e+01 -1.372980e+01 2.351071e+01 1.343265e+01 -7.990942e+00 3.763370e+00 5.755851e+00 -5.694857e+00 -2.319877e-02 4.760020e-01 3.676357e-01 4.986649e-02 -1.512205e-01 1.304140e-01 1.577383e-01 -1.173449e-01 -3.604389e-01 -1.619280e-01 2.556211e-01 3.982311e-01 -9.962600e-02 1.066100e-02 3.576118e-02 8.925030e-02 1.154095e-01 6.671836e-02 2.185423e-02 -1.311699e-02 -1.913312e-02 -9.037129e-02 -4.475522e-02 3.386750e-02 -1.471951e-02 -2.068891e-02
<VARIANCE> 39
 1.037374e+01 8.562519e+00 1.892013e+01 1.009190e+01 1.067276e+01 1.439896e+01 1.604139e+01 2.325325e+01 9.265848e+00 1.971252e+01 2.091944e+01 1.647606e+01 1.249215e+01 8.553158e-01 3.283581e-01 6.454366e-01 6.500506e-01 6.152851e-01 5.809691e-01 7.964859e-01 1.386371e+00 4.628176e-01 9.339690e-01 9.172183e-01 5.959964e-01 3.495089e-01 1.391967e-01 4.719285e-02 9.093605e-02 8.336940e-02 8.754592e-02 9.984614e-02 1.318541e-01 2.585282e-01 6.384849e-02 1.577124e-01 1.643409e-01 9.618673e-02 5.695410e-02
<GCONST> 7.074863e+01
<MIXTURE> 2 0.000000e+00
<MEAN> 39
 1.119059e+01 -4.808588e+00 6.214535e+00 4.253802e+01 2.260891e+01 -6.490248e+00 2.908465e+00 2.406875e+01 -1.033914e+01 -3.074433e+01 -5.919907e+00 6.651780e+00 -6.246915e-01 4.878255e-01 -1.567278e-01 -7.306920e-01 1.380102e+00 1.263041e-01 2.232395e-01 -4.475294e-01 -5.557755e-01 -1.904007e+00 -1.556017e+00 -7.721537e-01 8.257344e-01 1.931070e+00 -4.282951e-02 -5.212294e-01 2.761172e-01 -9.230186e-02 4.349045e-01 2.158295e-01 -5.826901e-01 6.262137e-02 -1.602444e-02 -8.146049e-02 3.025547e-01 -2.047906e-01 -2.837473e-01
<VARIANCE> 39
 0.000000e+00 1.907349e-06 0.000000e+00 0.000000e+00 0.000000e+00 -9.313226e-10 -1.525879e-05 1.907349e-06 0.000000e+00 1.907349e-06 0.000000e+00 0.000000e+00 0.000000e+00 -7.450581e-09 -1.490116e-08 -4.656613e-10 -5.960464e-08 -5.960464e-08 0.000000e+00 -3.725290e-09 0.000000e+00 -2.384186e-07 2.980232e-08 0.000000e+00 -2.980232e-08 0.000000e+00 0.000000e+00 0.000000e+00 -9.313226e-10 -5.820766e-11 0.000000e+00 0.000000e+00 0.000000e+00 -1.862645e-09 -2.328306e-10 0.000000e+00 -3.725290e-09 9.313226e-10 0.000000e+00
<GCONST> -3.400001e+11
<STATE> 6
<NUMMIXES> 2
<MIXTURE> 1 5.385976e-01
<MEAN> 39
 2.150469e+01 -2.067984e+00 -7.347204e+00 7.264869e+00 -2.459173e+00 -2.377904e+01 -1.496898e+01 2.494436e+01 1.110654e+01 -1.141573e+01 2.162297e+00 3.600900e+00 -2.863429e+00 -4.422132e-01 5.291857e-01 8.003568e-01 1.750337e-01 8.654443e-01 1.801088e+00 7.918657e-01 -6.047114e-01 -9.270353e-01 -1.344601e-01 -6.990093e-02 -5.308388e-01 -1.484723e-01 -1.588375e-01 2.171225e-02 1.403925e-01 1.398888e-01 1.941964e-01 3.007814e-01 1.455347e-01 -7.048047e-02 -6.860074e-02 -1.675208e-02 -9.383782e-02 -1.104182e-01 -5.122892e-02
<VARIANCE> 39
 1.281184e+01 2.795393e+01 4.277233e+01 1.989892e+01 4.721804e+01 8.698499e+01 3.074890e+01 7.447739e+01 3.188511e+01 5.118885e+01 3.715480e+01 3.343560e+01 3.012580e+01 1.705131e+00 1.142717e+00 1.486257e+00 1.749142e+00 1.327342e+00 2.251819e+00 1.242235e+00 2.732764e+00 1.160794e+00 2.106970e+00 1.724505e+00 9.830103e-01 5.022059e-01 2.493347e-01 1.860865e-01 1.447938e-01 1.559522e-01 1.589582e-01 2.176888e-01 1.914676e-01 3.807679e-01 1.130356e-01 2.374427e-01 2.552893e-01 2.070450e-01 9.380000e-02
<GCONST> 1.011941e+02
<MIXTURE> 2 4.614025e-01
<MEAN> 39
 1.746025e+01 2.358161e+00 8.439934e-01 1.803616e+01 8.367945e+00 -1.173011e+01 -7.455666e+00 2.075532e+01 2.257940e+00 -1.475825e+01 1.185275e+00 2.814555e-01 -9.747561e+00 -6.796929e-01 2.193221e-01 1.002178e+00 1.678434e+00 1.427225e+00 9.999309e-01 5.903047e-01 -5.217809e-02 -5.494513e-01 -6.326591e-01 -6.778265e-01 -8.181295e-01 -5.446891e-01 9.183765e-02 -4.924071e-02 -1.151138e-01 -2.046137e-01 -1.882671e-01 -2.109059e-01 -1.554835e-01 3.627528e-02 1.228674e-01 3.249256e-02 7.236341e-02 1.376957e-01 1.044749e-01
<VARIANCE> 39
 7.984007e+00 1.799746e+01 3.683478e+01 5.476195e+01 3.490111e+01 3.859436e+01 1.757572e+01 3.991779e+01 3.703034e+01 4.619621e+01 5.669099e+01 2.220704e+01 2.986572e+01 4.426842e-01 1.038351e+00 9.255081e-01 1.606704e+00 1.151835e+00 1.496744e+00 1.392705e+00 2.281788e+00 1.607029e+00 2.484940e+00 1.858202e+00 1.595425e+00 1.030138e+00 5.392577e-02 1.064617e-01 1.153895e-01 2.032954e-01 1.729686e-01 2.361389e-01 1.888155e-01 3.395266e-01 2.432505e-01 3.569195e-01 2.768513e-01 1.747425e-01 1.612489e-01
<GCONST> 9.765885e+01
<TRANSP> 7
 0.000000e+00 1.000000e+00 0.000000e+00 0.000000e+00 0.000000e+00 0.000000e+00 0.000000e+00
 0.000000e+00 8.555094e-01 1.444906e-01 0.000000e+00 0.000000e+00 0.000000e+00 0.000000e+00
 0.000000e+00 0.000000e+00 8.018941e-01 1.981058e-01 0.000000e+00 0.000000e+00 0.000000e+00
 0.000000e+00 0.000000e+00 0.000000e+00 9.003861e-01 9.961392e-02 0.000000e+00 0.000000e+00
 0.000000e+00 0.000000e+00 0.000000e+00 0.000000e+00 8.567252e-01 1.432749e-01 0.000000e+00
 0.000000e+00 0.000000e+00 0.000000e+00 0.000000e+00 0.000000e+00 9.055116e-01 9.448840e-02
 0.000000e+00 0.000000e+00 0.000000e+00 0.000000e+00 0.000000e+00 0.000000e+00 0.000000e+00
<ENDHMM>
~h "bh"
<BEGINHMM>
<NUMSTATES> 5
<STATE> 2
<NUMMIXES> 2
<MIXTURE> 1 5.000000e-01
<MEAN> 39
 9.466149e+00 1.535976e+01 1.001013e+01 1.583403e+01 1.094207e+01 4.491289e+00 1.767127e+00 1.382011e+01 1.965264e+00 -1.115367e+01 -9.068578e+00 -4.208745e+00 -2.507461e+00 -1.161148e+00 1.859966e+00 2.190156e+00 3.921245e-01 2.041330e-01 1.861518e+00 1.214695e+00 -9.726707e-01 -6.527321e-01 9.857757e-01 3.345362e-01 -5.643122e-01 -4.832398e-01 1.789616e-01 -5.716818e-01 -4.230957e-01 -8.176804e-02 5.754409e-02 -1.938584e-01 -2.554331e-01 -6.098413e-02 -1.015959e-01 -6.073805e-02 3.073455e-01 1.392468e-01 -1.000289e-01
<VARIANCE> 39
 1.185234e+01 1.290043e+01 1.941592e+01 1.139616e+01 9.694658e+00 2.289620e+01 1.463685e+01 2.174700e+01 1.428033e+01 2.837196e+01 1.489763e+01 1.235517e+01 1.686028e+01 4.217052e-01 1.436666e+00 1.310165e+00 7.543691e-01 8.727143e-01 1.067753e+00 7.402219e-01 1.580316e+00 9.946874e-01 1.438574e+00 1.240998e+00 8.600151e-01 1.142048e+00 2.892060e-02 8.483123e-02 1.287846e-01 1.015513e-01 1.500451e-01 1.416020e-01 1.253974e-01 2.960300e-01 2.881824e-01 2.340456e-01 2.179015e-01 1.810134e-01 2.286749e-01
<GCONST> 8.254913e+01
<MIXTURE> 2 5.000000e-01
<MEAN> 39
 9.466149e+00 1.535976e+01 1.001013e+01 1.583403e+01 1.094207e+01 4.491289e+00 1.767127e+00 1.382011e+01 1.965264e+00 -1.115367e+01 -9.068578e+00 -4.208745e+00 -2.507461e+00 -1.161148e+00 1.859966e+00 2.190156e+00 3.921245e-01 2.041330e-01 1.861518e+00 1.214695e+00 -9.726707e-01 -6.527321e-01 9.857757e-01 3.345362e-01 -5.643122e-01 -4.832398e-01 1.789616e-01 -5.716818e-01 -4.230957e-01 -8.176804e-02 5.754409e-02 -1.938584e-01 -2.554331e-01 -6.098413e-02 -1.015959e-01 -6.073805e-02 3.073455e-01 1.392468e-01 -1.000289e-01
<VARIANCE> 39
 1.185234e+01 1.290043e+01 1.941592e+01 1.139616e+01 9.694658e+00 2.289620e+01 1.463685e+01 2.174700e+01 1.428033e+01 2.837196e+01 1.489763e+01 1.235517e+01 1.686028e+01 4.217052e-01 1.436666e+00 1.310165e+00 7.543691e-01 8.727143e-01 1.067753e+00 7.402219e-01 1.580316e+00 9.946874e-01 1.438574e+00 1.240998e+00 8.600151e-01 1.142048e+00 2.892060e-02 8.483123e-02 1.287846e-01 1.015513e-01 1.500451e-01 1.416020e-01 1.253974e-01 2.960300e-01 2.881824e-01 2.340456e-01 2.179015e-01 1.810134e-01 2.286749e-01
<GCONST> 8.254913e+01
<STATE> 3
<NUMMIXES> 2
<MIXTURE> 1 5.000000e-01
<MEAN> 39
 4.717468e+00 1.780879e+01 1.512290e+01 1.706016e+01 1.378063e+01 1.243331e+01 5.476015e+00 9.803880e+00 7.516611e-01 -4.590861e+00 -4.833017e+00 -5.637753e+00 -4.390797e+00 -9.811924e-03 -8.344851e-01 -6.144932e-01 1.365212e-01 4.553601e-01 2.625588e-01 -1.640176e-02 1.938392e-01 7.749537e-02 1.274393e-02 2.688605e-01 1.849676e-01 3.302416e-01 2.118057e-01 -4.699253e-01 -4.869854e-01 -1.044135e-01 7.153263e-03 -2.293235e-01 -2.544729e-01 1.200875e-01 -4.342779e-02 -2.958087e-01 7.219563e-02 1.637997e-01 1.459709e-01
<VARIANCE> 39
 1.290444e+01 9.304860e+00 9.799785e+00 8.751101e+00 9.653612e+00 1.082590e+01 7.229330e+00 9.369764e+00 1.050653e+01 1.714158e+01 1.055332e+01 9.588546e+00 1.039323e+01 4.554418e-01 2.138198e+00 1.999900e+00 9.518865e-01 9.664171e-01 1.155977e+00 8.348739e-01 9.804493e-01 7.683510e-01 1.241059e+00 1.032704e+00 9.624794e-01 1.009828e+00 5.860854e-02 1.291168e-01 1.736120e-01 2.000430e-01 1.763899e-01 1.486309e-01 1.313039e-01 1.773653e-01 1.776385e-01 1.630189e-01 1.816078e-01 1.306112e-01 1.366689e-01
<GCONST> 7.749873e+01
<MIXTURE> 2 5.000000e-01
<MEAN> 39
 4.717468e+00 1.780879e+01 1.512290e+01 1.706016e+01 1.378063e+01 1.243331e+01 5.476015e+00 9.803880e+00 7.516611e-01 -4.590861e+00 -4.833017e+00 -5.637753e+00 -4.390797e+00 -9.811924e-03 -8.344851e-01 -6.144932e-01 1.365212e-01 4.553601e-01 2.625588e-01 -1.640176e-02 1.938392e-01 7.749537e-02 1.274393e-02 2.688605e-01 1.849676e-01 3.302416e-01 2.118057e-01 -4.699253e-01 -4.869854e-01 -1.044135e-01 7.153263e-03 -2.293235e-01 -2.544729e-01 1.200875e-01 -4.342779e-02 -2.958087e-01 7.219563e-02 1.637997e-01 1.459709e-01
<VARIANCE> 39
 1.290444e+01 9.304860e+00 9.799785e+00 8.751101e+00 9.653612e+00 1.082590e+01 7.229330e+00 9.369764e+00 1.050653e+01 1.714158e+01 1.055332e+01 9.588546e+00 1.039323e+01 4.554418e-01 2.138198e+00 1.999900e+00 9.518865e-01 9.664171e-01 1.155977e+00 8.348739e-01 9.804493e-01 7.683510e-01 1.241059e+00 1.032704e+00 9.624794e-01 1.009828e+00 5.860854e-02 1.291168e-01 1.736120e-01 2.000430e-01 1.763899e-01 1.486309e-01 1.313039e-01 1.773653e-01 1.776385e-01 1.630189e-01 1.816078e-01 1.306112e-01 1.366689e-01
<GCONST> 7.749873e+01
<STATE> 4
<NUMMIXES> 2
<MIXTURE> 1 5.000000e-01
<MEAN> 39
 1.003291e+01 2.870197e+00 3.156651e+00 1.811654e+01 1.972905e+01 1.188069e+01 -1.242940e+00 9.445724e+00 -3.771359e+00 -1.272874e+01 -4.813437e-01 -1.472780e+00 -1.098824e+00 1.222064e+00 -2.199106e+00 -1.436909e+00 3.803795e-01 9.645023e-01 -6.673070e-01 -2.180105e+00 -4.663313e-01 -7.530643e-01 -1.233414e+00 1.272042e+00 5.335780e-01 -3.290680e-01 -3.146427e-02 2.939225e-01 4.950172e-01 2.403291e-01 -2.175960e-02 -1.846924e-01 -2.387007e-01 -2.236872e-02 2.201300e-01 1.597859e-01 2.574432e-02 -1.541103e-01 -3.255728e-01
<VARIANCE> 39
 1.770141e+01 3.767539e+01 2.137075e+01 4.379642e+01 6.349150e+01 5.042755e+01 3.309429e+01 3.996951e+01 4.185175e+01 5.199230e+01 2.144632e+01 2.153164e+01 1.582314e+01 1.101716e+00 1.835207e+00 3.669048e+00 4.520197e+00 4.767215e+00 3.297900e+00 2.168459e+00 2.854206e+00 3.052333e+00 4.876859e+00 1.674949e+00 1.767591e+00 2.315200e+00 1.928867e-01 2.110838e-01 3.101164e-01 4.500301e-01 4.182647e-01 2.967550e-01 3.178365e-01 4.106994e-01 5.621999e-01 7.273766e-01 3.216420e-01 2.667039e-01 2.226406e-01
<GCONST> 1.154324e+02
<MIXTURE> 2 5.000000e-01
<MEAN> 39
 1.003291e+01 2.870197e+00 3.156651e+00 1.811654e+01 1.972905e+01 1.188069e+01 -1.242940e+00 9.445724e+00 -3.771359e+00 -1.272874e+01 -4.813437e-01 -1.472780e+00 -1.098824e+00 1.222064e+00 -2.199106e+00 -1.436909e+00 3.803795e-01 9.645023e-01 -6.673070e-01 -2.180105e+00 -4.663313e-01 -7.530643e-01 -1.233414e+00 1.272042e+00 5.335780e-01 -3.290680e-01 -3.146427e-02 2.939225e-01 4.950172e-01 2.403291e-01 -2.175960e-02 -1.846924e-01 -2.387007e-01 -2.236872e-02 2.201300e-01 1.597859e-01 2.574432e-02 -1.541103e-01 -3.255728e-01
<VARIANCE> 39
 1.770141e+01 3.767539e+01 2.137075e+01 4.379642e+01 6.349150e+01 5.042755e+01 3.309429e+01 3.996951e+01 4.185175e+01 5.199230e+01 2.144632e+01 2.153164e+01 1.582314e+01 1.101716e+00 1.835207e+00 3.669048e+00 4.520197e+00 4.767215e+00 3.297900e+00 2.168459e+00 2.854206e+00 3.052333e+00 4.876859e+00 1.674949e+00 1.767591e+00 2.315200e+00 1.928867e-01 2.110838e-01 3.101164e-01 4.500301e-01 4.182647e-01 2.967550e-01 3.178365e-01 4.106994e-01 5.621999e-01 7.273766e-01 3.216420e-01 2.667039e-01 2.226406e-01
<GCONST> 1.154324e+02
<TRANSP> 5
 0.000000e+00 1.000000e+00 0.000000e+00 0.000000e+00 0.000000e+00
 0.000000e+00 7.425823e-01 2.574177e-01 0.000000e+00 0.000000e+00
 0.000000e+00 0.000000e+00 8.660420e-01 1.339580e-01 0.000000e+00
 0.000000e+00 0.000000e+00 0.000000e+00 8.165676e-01 1.834324e-01
 0.000000e+00 0.000000e+00 0.000000e+00 0.000000e+00 0.000000e+00
<ENDHMM>
~h "ch"
<BEGINHMM>
<NUMSTATES> 5
<STATE> 2
<NUMMIXES> 2
<MIXTURE> 1 4.895028e-01
<MEAN> 39
 -3.777185e+00 1.244633e+00 1.310262e+01 1.878423e+01 9.752500e+00 1.072954e+01 -6.679284e-01 6.353030e+00 -5.610781e-02 -1.015269e+01 -7.519173e+00 -3.380563e+00 2.703247e+00 -3.138706e+00 -4.292494e+00 8.170381e-01 -3.800903e-01 -2.133587e+00 8.210160e-01 -6.611559e-01 -8.972478e-01 1.423023e+00 7.865959e-01 -1.491840e-01 -1.710629e-01 3.459575e-01 1.335854e-01 -1.659518e+00 -4.142625e-01 -4.827844e-01 -4.804940e-01 -4.257222e-01 -4.960225e-01 4.675343e-01 -1.605896e-01 -7.023662e-01 9.022965e-01 5.062888e-01 -5.985544e-01
<VARIANCE> 39
 4.630809e+01 6.610946e+01 1.690506e+01 1.590518e+01 1.936824e+01 2.642558e+01 1.710511e+01 1.812955e+01 3.896177e+01 3.349372e+01 1.472527e+01 9.253965e+00 1.836140e+01 3.638892e-01 1.227173e+01 3.149572e+00 2.509054e+00 2.415478e+00 2.757844e+00 2.442628e+00 2.962978e+00 2.059929e+00 3.581725e+00 4.552773e+00 2.015848e+00 3.477871e+00 1.386008e-01 7.987421e-01 2.371618e-01 3.606034e-01 3.732722e-01 5.704907e-01 2.771277e-01 4.286409e-01 3.990130e-01 6.292076e-01 4.553538e-01 3.760765e-01 4.593233e-01
<GCONST> 1.129110e+02
<MIXTURE> 2 5.104972e-01
<MEAN> 39
 -1.585966e+01 -2.725302e+01 1.167730e+01 1.002452e+01 -4.971128e+00 7.578133e+00 -7.415417e+00 5.783015e+00 4.701542e+00 -9.267553e+00 -6.274633e-01 1.547419e+00 3.649862e-01 -1.103729e+00 -4.940448e+00 1.416870e+00 -1.799578e+00 -2.782221e+00 -9.717031e-01 -1.863173e+00 2.179922e-01 3.449778e-01 -4.466471e-01 1.328535e+00 1.263947e+00 -1.939423e-01 2.877899e-01 7.348176e-01 5.631050e-01 1.758585e-01 5.583587e-01 2.853387e-01 -4.639872e-02 -1.152136e-01 -2.026258e-01 2.765112e-01 -1.551299e-01 -2.799291e-01 2.592357e-01
<VARIANCE> 39
 2.992060e+01 1.579192e+02 6.066906e+01 3.535568e+01 3.292802e+01 3.185916e+01 2.697799e+01 3.052054e+01 4.044807e+01 4.214646e+01 2.359848e+01 2.255947e+01 1.571333e+01 2.738960e+00 6.403712e+00 5.762050e+00 2.637713e+00 3.293362e+00 3.235083e+00 1.388607e+00 1.710995e+00 2.098122e+00 2.719583e+00 2.698080e+00 2.411585e+00 1.890684e+00 3.109771e-01 6.899855e-01 4.496633e-01 3.270137e-01 4.477529e-01 7.032784e-01 2.547479e-01 3.332117e-01 3.582543e-01 5.456972e-01 4.491946e-01 5.948147e-01 3.909268e-01
<GCONST> 1.200498e+02
<STATE> 3
<NUMMIXES> 2
<MIXTURE> 1 8.077168e-01
<MEAN> 39
 -1.611536e+01 -4.573835e+01 2.076853e+01 7.624447e+00 -8.309809e+00 1.029436e+01 -1.510340e+01 3.326691e+00 3.896836e+00 -7.600515e+00 2.774405e+00 1.717378e+00 4.715184e-01 3.474826e-01 -7.792059e-01 -1.666385e-01 -7.880946e-01 2.110318e-01 7.477291e-01 -5.069749e-01 -8.347507e-01 -7.031085e-01 1.762595e-01 2.268791e-01 -3.386332e-01 -1.383140e-01 1.682816e-01 4.762925e-01 -5.335461e-01 -3.901271e-02 1.188445e-01 -1.304344e-02 1.916207e-01 -1.443606e-01 -1.630374e-01 -1.512257e-01 -1.684406e-01 -1.253471e-02 2.926341e-02
<VARIANCE> 39
 1.584690e+01 3.192070e+01 4.546650e+01 3.623129e+01 1.810808e+01 2.118760e+01 1.924632e+01 3.564558e+01 3.477711e+01 2.052950e+01 2.734501e+01 1.883467e+01 1.151617e+01 1.666614e+00 4.103380e+00 5.724002e+00 9.486815e-01 1.624918e+00 1.343964e+00 1.716700e+00 1.666963e+00 1.799270e+00 1.737191e+00 1.626898e+00 1.307664e+00 1.051805e+00 2.941127e-01 6.000097e-01 5.785814e-01 1.901099e-01 4.207201e-01 2.540298e-01 2.641448e-01 2.443909e-01 2.424719e-01 3.405077e-01 2.899350e-01 2.788423e-01 1.733577e-01
<GCONST> 1.047620e+02
<MIXTURE> 2 1.922833e-01
<MEAN> 39
 -2.435330e+01 -1.395988e+01 -5.142001e+00 4.049281e+00 -8.454238e-01 -1.080702e-01 -6.216605e+00 2.184481e+00 6.967251e-01 -1.851804e+00 -1.614461e+00 1.558437e-01 3.591135e+00 6.509927e-01 -2.524334e+00 2.246801e-01 1.601520e+00 2.587588e-01 2.386178e-02 -7.300745e-01 5.412231e-02 5.629517e-01 -4.977148e-01 7.964591e-03 6.760430e-01 3.791770e-01 4.132149e-01 -1.140401e-02 5.554613e-01 3.190612e-01 2.258642e-02 2.350381e-01 3.695640e-02 9.018328e-02 1.449165e-01 -1.467502e-01 1.329359e-01 1.678736e-01 -1.551772e-01
<VARIANCE> 39
 6.575697e+00 1.013514e+02 6.917962e+00 5.189507e+01 1.086460e+01 1.042061e+01 1.160093e+01 1.056093e+01 1.234464e+01 1.387980e+01 1.974648e+01 4.781522e+00 1.290762e+01 2.054225e+00 4.212940e+00 3.704415e+00 3.060552e+00 3.481631e+00 1.942910e+00 1.434501e+00 1.586784e+00 1.620107e+00 2.729154e+00 3.323058e+00 1.451133e+00 1.404269e+00 1.636012e-01 3.513307e-01 2.943300e-01 5.723950e-01 5.309634e-01 3.568485e-01 3.528011e-01 3.135312e-01 3.052114e-01 3.156140e-01 4.950663e-01 1.997213e-01 2.589491e-01
<GCONST> 1.020613e+02
<STATE> 4
<NUMMIXES> 2
<MIXTURE> 1 5.818546e-01
<MEAN> 39
 -2.418666e+00 -1.655949e+01 2.096469e+00 1.025165e+01 3.733281e+00 1.278094e+01 -1.772259e+00 4.498103e+00 1.806099e+00 -4.387145e+00 2.398936e+00 3.102684e+00 6.212752e+00 8.352731e-01 3.352914e+00 -2.723719e-01 9.767148e-01 1.465470e+00 -1.060798e+00 8.449424e-01 1.269316e+00 3.544043e-01 8.433493e-01 1.845410e-01 -1.990082e-01 -9.433938e-03 -4.731076e-02 -1.304516e-01 7.749198e-02 -2.557297e-01 -2.025576e-01 -2.944375e-01 -3.976708e-01 -1.393748e-01 -2.343558e-01 -2.589386e-01 -4.523320e-02 -1.423157e-01 -3.042451e-01
<VARIANCE> 39
 1.077745e+02 1.735296e+02 9.975863e+01 1.089649e+02 9.023985e+01 1.455856e+02 9.867564e+01 6.933106e+01 4.795975e+01 5.200892e+01 7.185338e+01 3.304219e+01 3.294342e+01 3.415233e+00 4.597970e+00 2.437160e+00 3.828578e+00 2.687424e+00 3.960020e+00 3.719307e+00 2.741545e+00 3.257937e+00 3.678589e+00 2.267621e+00 1.646104e+00 2.415803e+00 1.763878e-01 3.777286e-01 2.763644e-01 4.150278e-01 3.632773e-01 5.699891e-01 3.391622e-01 3.407927e-01 3.913926e-01 4.718686e-01 3.862198e-01 2.852927e-01 3.006855e-01
<GCONST> 1.288642e+02
<MIXTURE> 2 4.181453e-01
<MEAN> 39
 -8.272618e+00 -4.212183e+01 8.529366e+00 1.460840e+00 -8.149558e+00 1.497271e+01 -1.457401e+01 -5.364717e+00 -2.440064e+00 -1.271145e+01 3.097451e-02 1.107410e+00 1.056002e+00 1.326435e+00 1.806173e+00 -1.511288e+00 1.964114e-01 4.112850e-01 5.987591e-01 1.332617e+00 1.486057e-01 -1.025697e-01 -2.770779e-01 -1.076733e-01 3.609168e-01 5.733309e-01 3.814784e-02 3.966675e-01 1.453838e-01 4.741942e-01 3.554893e-01 4.281715e-02 4.157898e-01 5.098222e-01 3.739238e-01 4.109648e-01 2.150969e-01 7.551017e-02 1.204119e-01
<VARIANCE> 39
 2.467510e+01 2.975344e+01 6.071659e+01 3.818104e+01 3.331779e+01 5.667939e+01 5.108262e+01 4.711781e+01 3.019107e+01 3.229307e+01 3.379873e+01 1.896386e+01 2.159206e+01 6.747702e-01 1.996613e+00 1.370895e+00 3.080631e+00 2.376402e+00 2.506253e+00 2.861064e+00 2.816125e+00 2.185701e+00 2.647735e+00 1.941683e+00 1.286501e+00 1.029328e+00 1.049235e-01 2.431855e-01 1.847939e-01 2.042859e-01 2.160549e-01 2.915388e-01 2.326368e-01 2.329425e-01 2.632037e-01 2.801955e-01 1.912438e-01 2.380435e-01 2.223655e-01
<GCONST> 1.062561e+02
<TRANSP> 5
 0.000000e+00 1.000000e+00 0.000000e+00 0.000000e+00 0.000000e+00
 0.000000e+00 8.495244e-01 1.504757e-01 0.000000e+00 0.000000e+00
 0.000000e+00 0.000000e+00 8.930690e-01 1.069309e-01 0.000000e+00
 0.000000e+00 0.000000e+00 0.000000e+00 9.246435e-01 7.535655e-02
 0.000000e+00 0.000000e+00 0.000000e+00 0.000000e+00 0.000000e+00
<ENDHMM>
~h "dh"
<BEGINHMM>
<NUMSTATES> 5
<STATE> 2
<NUMMIXES> 2
<MIXTURE> 1 5.000000e-01
<MEAN> 39
 3.203590e+00 1.724448e+01 1.443698e+01 1.696776e+01 1.537310e+01 1.464411e+01 5.780768e+00 8.165718e+00 -1.873266e+00 -6.027789e+00 -4.058551e+00 -2.849097e+00 -1.627711e-01 -5.391360e-01 -2.357245e-01 4.772723e-01 2.779191e-01 -8.258902e-02 4.224271e-01 4.180751e-01 2.411374e-01 6.885594e-01 8.333301e-01 1.853253e-01 -4.000728e-01 -1.383247e-01 1.658517e-01 -6.881498e-01 -4.538767e-01 -5.965246e-02 -8.440039e-02 -2.693897e-01 -3.034295e-01 1.393690e-01 1.345140e-01 2.575213e-02 2.434269e-01 -3.507918e-02 1.195152e-02
<VARIANCE> 39
 1.562982e+01 6.870425e+00 1.364746e+01 6.592547e+00 5.441962e+00 1.036579e+01 1.017627e+01 1.035595e+01 2.327619e+01 3.120443e+01 1.572690e+01 1.046140e+01 1.742356e+01 5.222021e-01 3.098287e+00 2.023577e+00 7.550219e-01 9.128978e-01 1.317255e+00 1.308177e+00 9.354759e-01 1.301473e+00 1.457609e+00 7.920098e-01 9.774414e-01 1.589707e+00 5.438221e-02 2.333888e-01 1.891319e-01 2.223854e-01 2.176230e-01 1.839745e-01 1.423181e-01 1.653699e-01 2.173657e-01 2.366698e-01 2.942290e-01 1.527902e-01 2.571341e-01
<GCONST> 8.430132e+01
<MIXTURE> 2 5.000000e-01
<MEAN> 39
 3.203590e+00 1.724448e+01 1.443698e+01 1.696776e+01 1.537310e+01 1.464411e+01 5.780768e+00 8.165718e+00 -1.873266e+00 -6.027789e+00 -4.058551e+00 -2.849097e+00 -1.627711e-01 -5.391360e-01 -2.357245e-01 4.772723e-01 2.779191e-01 -8.258902e-02 4.224271e-01 4.180751e-01 2.411374e-01 6.885594e-01 8.333301e-01 1.853253e-01 -4.000728e-01 -1.383247e-01 1.658517e-01 -6.881498e-01 -4.538767e-01 -5.965246e-02 -8.440039e-02 -2.693897e-01 -3.034295e-01 1.393690e-01 1.345140e-01 2.575213e-02 2.434269e-01 -3.507918e-02 1.195152e-02
<VARIANCE> 39
 1.562982e+01 6.870425e+00 1.364746e+01 6.592547e+00 5.441962e+00 1.036579e+01 1.017627e+01 1.035595e+01 2.327619e+01 3.120443e+01 1.572690e+01 1.046140e+01 1.742356e+01 5.222021e-01 3.098287e+00 2.023577e+00 7.550219e-01 9.128978e-01 1.317255e+00 1.308177e+00 9.354759e-01 1.301473e+00 1.457609e+00 7.920098e-01 9.774414e-01 1.589707e+00 5.438221e-02 2.333888e-01 1.891319e-01 2.223854e-01 2.176230e-01 1.839745e-01 1.423181e-01 1.653699e-01 2.173657e-01 2.366698e-01 2.942290e-01 1.527902e-01 2.571341e-01
<GCONST> 8.430132e+01
<STATE> 3
<NUMMIXES> 2
<MIXTURE> 1 5.000000e-01
<MEAN> 39
 3.988515e+00 2.336192e+00 8.350959e+00 1.646726e+01 1.234221e+01 1.272157e+01 2.095128e+00 1.022036e+01 2.641723e+00 -1.524697e+00 1.135460e+00 -5.394823e+00 1.183485e+00 1.364112e+00 -4.699112e+00 -2.578573e+00 -2.296396e+00 -2.330764e+00 -6.164293e-01 -1.566589e+00 -4.248921e-02 -9.718476e-01 8.503854e-02 3.848158e+00 -4.032991e-02 -8.425927e-01 4.844937e-01 1.618121e-01 6.967235e-02 -4.237175e-01 -2.913578e-01 2.552636e-03 -2.401824e-01 -3.604201e-01 -1.032125e+00 -7.637840e-01 5.813220e-01 2.781756e-01 -3.325157e-01
<VARIANCE> 39
 1.397920e+01 4.518419e+01 2.274407e+01 2.661556e+01 3.888397e+01 1.324093e+01 2.092952e+01 1.724008e+01 3.255308e+01 2.548596e+01 4.290724e+01 1.452574e+01 1.513957e+01 8.267729e-01 9.563324e-01 8.924859e-01 3.148408e+00 3.373310e+00 2.206420e+00 2.114989e+00 1.520746e+00 5.342011e+00 4.273170e+00 2.750687e+00 1.879103e+00 1.980666e+00 6.237704e-02 6.574929e-01 4.885651e-01 7.573074e-01 6.523603e-01 3.154606e-01 2.782817e-01 1.669937e-01 2.801220e-01 4.665384e-01 7.149035e-01 3.116198e-01 3.547436e-01
<GCONST> 1.085539e+02
<MIXTURE> 2 5.000000e-01
<MEAN> 39
 3.988515e+00 2.336192e+00 8.350959e+00 1.646726e+01 1.234221e+01 1.272157e+01 2.095128e+00 1.022036e+01 2.641723e+00 -1.524697e+00 1.135460e+00 -5.394823e+00 1.183485e+00 1.364112e+00 -4.699112e+00 -2.578573e+00 -2.296396e+00 -2.330764e+00 -6.164293e-01 -1.566589e+00 -4.248921e-02 -9.718476e-01 8.503854e-02 3.848158e+00 -4.032991e-02 -8.425927e-01 4.844937e-01 1.618121e-01 6.967235e-02 -4.237175e-01 -2.913578e-01 2.552636e-03 -2.401824e-01 -3.604201e-01 -1.032125e+00 -7.637840e-01 5.813220e-01 2.781756e-01 -3.325157e-01
<VARIANCE> 39
 1.397920e+01 4.518419e+01 2.274407e+01 2.661556e+01 3.888397e+01 1.324093e+01 2.092952e+01 1.724008e+01 3.255308e+01 2.548596e+01 4.290724e+01 1.452574e+01 1.513957e+01 8.267729e-01 9.563324e-01 8.924859e-01 3.148408e+00 3.373310e+00 2.206420e+00 2.114989e+00 1.520746e+00 5.342011e+00 4.273170e+00 2.750687e+00 1.879103e+00 1.980666e+00 6.237704e-02 6.574929e-01 4.885651e-01 7.573074e-01 6.523603e-01 3.154606e-01 2.782817e-01 1.669937e-01 2.801220e-01 4.665384e-01 7.149035e-01 3.116198e-01 3.547436e-01
<GCONST> 1.085539e+02
<STATE> 4
<NUMMIXES> 2
<MIXTURE> 1 5.000000e-01
<MEAN> 39
 1.313872e+01 -5.750241e+00 5.429244e+00 1.219208e+01 9.341594e+00 9.666276e+00 -6.580424e+00 7.844980e+00 -8.920334e+00 -1.290324e+01 1.466485e+01 -4.111981e-02 -3.197369e+00 5.584424e-01 3.114286e-01 4.388351e-01 6.993920e-01 6.756262e-01 -3.751423e-01 -8.875938e-01 -4.479686e-01 -6.649227e-01 -9.597170e-01 3.488345e-01 5.494856e-01 -4.375228e-01 -2.397367e-01 4.427332e-01 2.606843e-01 3.909125e-01 3.227943e-01 -8.037458e-02 7.741532e-02 1.195422e-01 4.312745e-01 2.163405e-01 -4.685409e-01 -1.571171e-02 9.571092e-02
<VARIANCE> 39
 1.242254e+01 3.989474e+01 2.067697e+01 4.227686e+01 6.381330e+01 4.332809e+01 4.777740e+01 4.987994e+01 3.724692e+01 5.911683e+01 2.292303e+01 4.092934e+01 2.458744e+01 1.185877e+00 2.091805e+00 1.913953e+00 2.948039e+00 3.337797e+00 2.761707e+00 3.606332e+00 2.976891e+00 3.955524e+00 2.865817e+00 4.151389e+00 1.866620e+00 1.548725e+00 9.217197e-02 5.965638e-01 4.624474e-01 7.120061e-01 7.703926e-01 4.433906e-01 4.744319e-01 4.702311e-01 5.656756e-01 4.218679e-01 6.076947e-01 2.519252e-01 2.501747e-01
<GCONST> 1.189660e+02
<MIXTURE> 2 5.000000e-01
<MEAN> 39
 1.313872e+01 -5.750241e+00 5.429244e+00 1.219208e+01 9.341594e+00 9.666276e+00 -6.580424e+00 7.844980e+00 -8.920334e+00 -1.290324e+01 1.466485e+01 -4.111981e-02 -3.197369e+00 5.584424e-01 3.114286e-01 4.388351e-01 6.993920e-01 6.756262e-01 -3.751423e-01 -8.875938e-01 -4.479686e-01 -6.649227e-01 -9.597170e-01 3.488345e-01 5.494856e-01 -4.375228e-01 -2.397367e-01 4.427332e-01 2.606843e-01 3.909125e-01 3.227943e-01 -8.037458e-02 7.741532e-02 1.195422e-01 4.312745e-01 2.163405e-01 -4.685409e-01 -1.571171e-02 9.571092e-02
<VARIANCE> 39
 1.242254e+01 3.989474e+01 2.067697e+01 4.227686e+01 6.381330e+01 4.332809e+01 4.777740e+01 4.987994e+01 3.724692e+01 5.911683e+01 2.292303e+01 4.092934e+01 2.458744e+01 1.185877e+00 2.091805e+00 1.913953e+00 2.948039e+00 3.337797e+00 2.761707e+00 3.606332e+00 2.976891e+00 3.955524e+00 2.865817e+00 4.151389e+00 1.866620e+00 1.548725e+00 9.217197e-02 5.965638e-01 4.624474e-01 7.120061e-01 7.703926e-01 4.433906e-01 4.744319e-01 4.702311e-01 5.656756e-01 4.218679e-01 6.076947e-01 2.519252e-01 2.501747e-01
<GCONST> 1.189660e+02
<TRANSP> 5
 0.000000e+00 1.000000e+00 0.000000e+00 0.000000e+00 0.000000e+00
 0.000000e+00 8.660181e-01 1.339819e-01 0.000000e+00 0.000000e+00
 0.000000e+00 0.000000e+00 7.359558e-01 2.640442e-01 0.000000e+00
 0.000000e+00 0.000000e+00 0.000000e+00 8.764954e-01 1.235046e-01
 0.000000e+00 0.000000e+00 0.000000e+00 0.000000e+00 0.000000e+00
<ENDHMM>
~h "dx"
<BEGINHMM>
<NUMSTATES> 5
<STATE> 2
<NUMMIXES> 2
<MIXTURE> 1 5.000000e-01
<MEAN> 39
 3.022866e+00 1.711464e+01 1.408031e+01 1.701642e+01 1.702755e+01 1.652793e+01 5.971500e+00 6.681352e+00 -2.846631e+00 -5.573654e+00 -2.837634e+00 -3.290915e+00 -2.792533e+00 -6.138535e-01 -1.675375e-01 3.389471e-01 2.642559e-01 -1.807857e-01 -2.338389e-02 3.999064e-01 5.141867e-01 4.795635e-01 3.799945e-01 1.525691e-01 7.657956e-02 1.747719e-01 6.910416e-02 -5.140067e-01 -3.070985e-01 1.923929e-01 1.738900e-01 -2.020687e-01 -2.929033e-01 2.797914e-02 8.845723e-02 -6.263545e-03 7.261947e-02 1.513002e-02 5.117503e-02
<VARIANCE> 39
 1.519207e+01 8.033724e+00 1.258507e+01 1.532222e+01 1.278177e+01 2.154305e+01 2.276615e+01 2.006202e+01 2.780966e+01 2.626861e+01 1.323085e+01 1.190919e+01 1.162720e+01 4.923118e-01 1.559615e+00 1.178516e+00 1.456912e+00 1.417658e+00 1.398850e+00 1.586311e+00 1.163554e+00 1.707084e+00 1.235725e+00 9.641978e-01 1.009993e+00 9.156842e-01 5.060080e-02 2.545308e-01 1.757801e-01 1.823479e-01 1.959976e-01 1.767039e-01 1.684158e-01 1.520523e-01 2.584454e-01 2.072016e-01 2.010072e-01 1.735287e-01 1.440863e-01
<GCONST> 8.675777e+01
<MIXTURE> 2 5.000000e-01
<MEAN> 39
 3.022866e+00 1.711464e+01 1.408031e+01 1.701642e+01 1.702755e+01 1.652793e+01 5.971500e+00 6.681352e+00 -2.846631e+00 -5.573654e+00 -2.837634e+00 -3.290915e+00 -2.792533e+00 -6.138535e-01 -1.675375e-01 3.389471e-01 2.642559e-01 -1.807857e-01 -2.338389e-02 3.999064e-01 5.141867e-01 4.795635e-01 3.799945e-01 1.525691e-01 7.657956e-02 1.747719e-01 6.910416e-02 -5.140067e-01 -3.070985e-01 1.923929e-01 1.738900e-01 -2.020687e-01 -2.929033e-01 2.797914e-02 8.845723e-02 -6.263545e-03 7.261947e-02 1.513002e-02 5.117503e-02
<VARIANCE> 39
 1.519207e+01 8.033724e+00 1.258507e+01 1.532222e+01 1.278177e+01 2.154305e+01 2.276615e+01 2.006202e+01 2.780966e+01 2.626861e+01 1.323085e+01 1.190919e+01 1.162720e+01 4.923118e-01 1.559615e+00 1.178516e+00 1.456912e+00 1.417658e+00 1.398850e+00 1.586311e+00 1.163554e+00 1.707084e+00 1.235725e+00 9.641978e-01 1.009993e+00 9.156842e-01 5.060080e-02 2.545308e-01 1.757801e-01 1.823479e-01 1.959976e-01 1.767039e-01 1.684158e-01 1.520523e-01 2.584454e-01 2.072016e-01 2.010072e-01 1.735287e-01 1.440863e-01
<GCONST> 8.675777e+01
<STATE> 3
<NUMMIXES> 2
<MIXTURE> 1 5.000000e-01
<MEAN> 39
 1.099412e+00 4.382963e+00 9.366291e+00 2.320123e+01 1.909326e+01 1.169275e+01 2.100797e+00 9.488740e+00 1.281168e+00 -3.249364e+00 -1.434950e+00 -4.074232e+00 -8.088571e-01 5.237226e-01 -4.524096e+00 -2.173693e+00 6.028277e-01 -9.107241e-02 -1.019024e+00 -8.971714e-01 3.505544e-01 -9.236326e-01 -3.362618e-01 2.336442e+00 1.833994e-01 -5.673732e-01 5.291691e-01 -4.085237e-01 -2.032769e-01 -2.330269e-01 -8.207056e-02 -7.659750e-02 -3.662942e-01 -2.778121e-01 -9.339541e-01 -6.182495e-01 8.219621e-01 1.411973e-01 -6.229030e-01
<VARIANCE> 39
 2.737831e+01 4.823552e+01 2.160963e+01 2.552940e+01 2.410219e+01 2.154493e+01 2.798946e+01 2.455177e+01 2.869097e+01 3.010363e+01 3.205660e+01 1.964894e+01 1.961151e+01 1.327194e+00 1.845431e+00 1.620367e+00 2.606905e+00 3.243127e+00 2.107753e+00 2.460903e+00 2.370156e+00 4.585938e+00 3.005893e+00 4.789060e+00 2.224239e+00 2.717144e+00 7.672200e-02 5.265608e-01 4.311620e-01 3.385809e-01 5.374515e-01 2.504602e-01 3.395803e-01 2.377891e-01 3.616520e-01 3.789276e-01 4.680578e-01 2.639675e-01 3.040771e-01
<GCONST> 1.112310e+02
<MIXTURE> 2 5.000000e-01
<MEAN> 39
 1.099412e+00 4.382963e+00 9.366291e+00 2.320123e+01 1.909326e+01 1.169275e+01 2.100797e+00 9.488740e+00 1.281168e+00 -3.249364e+00 -1.434950e+00 -4.074232e+00 -8.088571e-01 5.237226e-01 -4.524096e+00 -2.173693e+00 6.028277e-01 -9.107241e-02 -1.019024e+00 -8.971714e-01 3.505544e-01 -9.236326e-01 -3.362618e-01 2.336442e+00 1.833994e-01 -5.673732e-01 5.291691e-01 -4.085237e-01 -2.032769e-01 -2.330269e-01 -8.207056e-02 -7.659750e-02 -3.662942e-01 -2.778121e-01 -9.339541e-01 -6.182495e-01 8.219621e-01 1.411973e-01 -6.229030e-01
<VARIANCE> 39
 2.737831e+01 4.823552e+01 2.160963e+01 2.552940e+01 2.410219e+01 2.154493e+01 2.798946e+01 2.455177e+01 2.869097e+01 3.010363e+01 3.205660e+01 1.964894e+01 1.961151e+01 1.327194e+00 1.845431e+00 1.620367e+00 2.606905e+00 3.243127e+00 2.107753e+00 2.460903e+00 2.370156e+00 4.585938e+00 3.005893e+00 4.789060e+00 2.224239e+00 2.717144e+00 7.672200e-02 5.265608e-01 4.311620e-01 3.385809e-01 5.374515e-01 2.504602e-01 3.395803e-01 2.377891e-01 3.616520e-01 3.789276e-01 4.680578e-01 2.639675e-01 3.040771e-01
<GCONST> 1.112310e+02
<STATE> 4
<NUMMIXES> 2
<MIXTURE> 1 5.000000e-01
<MEAN> 39
 6.235953e+00 -1.166710e+01 2.021252e+00 2.315880e+01 1.860592e+01 1.051639e+01 -1.755313e+00 7.097430e+00 -1.073272e+01 -9.706658e+00 1.240771e+01 -1.082057e+00 -6.694365e+00 1.179792e+00 -1.310519e+00 -1.149849e-01 3.032095e-01 4.554221e-01 -5.505393e-01 -1.733941e+00 -6.675082e-01 -1.417260e+00 -1.410219e+00 1.321259e+00 2.918546e-01 -1.013622e+00 -1.726227e-01 1.137835e+00 5.849863e-01 5.094392e-02 3.013256e-01 -7.065940e-02 -3.784696e-01 -1.006181e-01 7.646193e-01 1.437923e-01 -1.023458e+00 -1.164999e-01 3.010671e-01
<VARIANCE> 39
 3.869743e+01 7.343125e+01 5.260785e+01 9.210489e+01 1.007571e+02 8.294099e+01 7.913400e+01 5.774473e+01 8.842373e+01 6.958012e+01 6.955919e+01 5.047995e+01 3.865218e+01 2.873321e+00 8.524495e+00 3.196310e+00 4.405873e+00 5.531841e+00 3.833445e+00 5.430577e+00 3.149864e+00 1.083867e+01 7.257783e+00 8.506605e+00 2.211533e+00 3.819187e+00 1.927031e-01 5.066488e-01 4.711985e-01 6.564780e-01 1.131157e+00 5.908639e-01 5.884445e-01 5.837742e-01 1.196810e+00 8.683447e-01 7.311961e-01 4.056193e-01 3.488917e-01
<GCONST> 1.392917e+02
<MIXTURE> 2 5.000000e-01
<MEAN> 39
 6.235953e+00 -1.166710e+01 2.021252e+00 2.315880e+01 1.860592e+01 1.051639e+01 -1.755313e+00 7.097430e+00 -1.073272e+01 -9.706658e+00 1.240771e+01 -1.082057e+00 -6.694365e+00 1.179792e+00 -1.310519e+00 -1.149849e-01 3.032095e-01 4.554221e-01 -5.505393e-01 -1.733941e+00 -6.675082e-01 -1.417260e+00 -1.410219e+00 1.321259e+00 2.918546e-01 -1.013622e+00 -1.726227e-01 1.137835e+00 5.849863e-01 5.094392e-02 3.013256e-01 -7.065940e-02 -3.784696e-01 -1.006181e-01 7.646193e-01 1.437923e-01 -1.023458e+00 -1.164999e-01 3.010671e-01
<VARIANCE> 39
 3.869743e+01 7.343125e+01 5.260785e+01 9.210489e+01 1.007571e+02 8.294099e+01 7.913400e+01 5.774473e+01 8.842373e+01 6.958012e+01 6.955919e+01 5.047995e+01 3.865218e+01 2.873321e+00 8.524495e+00 3.196310e+00 4.405873e+00 5.531841e+00 3.833445e+00 5.430577e+00 3.149864e+00 1.083867e+01 7.257783e+00 8.506605e+00 2.211533e+00 3.819187e+00 1.927031e-01 5.066488e-01 4.711985e-01 6.564780e-01 1.131157e+00 5.908639e-01 5.884445e-01 5.837742e-01 1.196810e+00 8.683447e-01 7.311961e-01 4.056193e-01 3.488917e-01
<GCONST> 1.392917e+02
<TRANSP> 5
 0.000000e+00 1.000000e+00 0.000000e+00 0.000000e+00 0.000000e+00
 0.000000e+00 8.529722e-01 1.470278e-01 0.000000e+00 0.000000e+00
 0.000000e+00 0.000000e+00 7.261220e-01 2.738780e-01 0.000000e+00
 0.000000e+00 0.000000e+00 0.000000e+00 7.017215e-01 2.982785e-01
 0.000000e+00 0.000000e+00 0.000000e+00 0.000000e+00 0.000000e+00
<ENDHMM>
~h "ee"
<BEGINHMM>
<NUMSTATES> 7
<STATE> 2
<NUMMIXES> 2
<MIXTURE> 1 6.841934e-01
<MEAN> 39
 3.414371e+00 -6.104881e+00 3.259803e+00 1.729517e+01 1.759450e+01 3.435636e+00 -1.568425e+01 3.343615e+00 -6.936666e+00 -1.194101e+01 6.942490e+00 -2.019649e+00 -6.092834e+00 1.571298e+00 -7.565743e-01 -9.031704e-01 8.301079e-01 1.738940e+00 -1.203951e+00 -2.550736e+00 5.986080e-01 -7.646126e-01 -2.179397e+00 1.507742e+00 3.426449e-01 -1.614196e+00 -1.872772e-01 -2.164337e-01 -1.458758e-04 -2.166360e-01 -5.640488e-02 -6.563349e-02 -1.967906e-01 1.132092e-01 -5.576748e-02 -5.495825e-02 2.080344e-01 -2.728556e-02 -1.071277e-01
<VARIANCE> 39
 1.750791e+02 5.293691e+01 5.052533e+01 9.427282e+01 8.891524e+01 5.738497e+01 8.369563e+01 6.483457e+01 6.707712e+01 8.247318e+01 7.010226e+01 2.895941e+01 4.002609e+01 5.086841e+00 3.390849e+00 4.407484e+00 4.717069e+00 5.818682e+00 3.429612e+00 6.733682e+00 4.167091e+00 3.701869e+00 6.415531e+00 5.120913e+00 2.032086e+00 4.216042e+00 3.903872e-01 3.593389e-01 4.997858e-01 5.531191e-01 5.319434e-01 3.196421e-01 5.476186e-01 6.289770e-01 5.407071e-01 6.292160e-01 5.990539e-01 2.939378e-01 3.907195e-01
<GCONST> 1.356572e+02
<MIXTURE> 2 3.158064e-01
<MEAN> 39
 1.224477e+01 -1.092391e+01 8.080343e+00 2.651344e+01 3.113291e+01 -1.938967e+00 -3.424729e+01 6.602597e+00 -8.292541e+00 -2.129139e+01 1.170172e+01 -3.526649e+00 -1.455306e+01 1.231679e-01 -1.074954e-01 -7.780347e-02 -2.395666e-01 1.509290e-01 -4.639576e-02 -5.343858e-01 -8.479461e-02 7.770651e-02 -1.794125e-01 1.985114e-02 1.299065e-01 -8.739603e-02 -6.353401e-02 3.893551e-02 -4.015122e-02 -7.527567e-02 -1.332753e-01 6.431281e-02 2.003694e-01 2.557944e-02 1.161752e-01 1.046926e-01 -8.076219e-02 1.193587e-02 7.713072e-02
<VARIANCE> 39
 9.955704e+00 2.167813e+01 5.251042e+01 6.510867e+01 3.432901e+01 2.087207e+01 6.719959e+01 4.890117e+01 4.521572e+01 3.311831e+01 6.411465e+01 1.805247e+01 2.884925e+01 5.358124e-01 8.843478e-01 1.112590e+00 1.545396e+00 1.683927e+00 1.085632e+00 3.126549e+00 2.183556e+00 1.595337e+00 2.083895e+00 1.763483e+00 1.021375e+00 1.102604e+00 8.260167e-02 1.231015e-01 1.388053e-01 2.496981e-01 2.720633e-01 1.746294e-01 4.299016e-01 3.908549e-01 2.590272e-01 3.511010e-01 3.002156e-01 1.572454e-01 2.156381e-01
<GCONST> 1.020289e+02
<STATE> 3
<NUMMIXES> 2
<MIXTURE> 1 5.197214e-01
<MEAN> 39
 1.643009e+01 -1.225956e+01 -4.567047e-01 1.770837e+01 2.577964e+01 7.671286e-01 -2.795113e+01 9.222651e+00 -1.203316e+01 -2.491802e+01 1.799052e+01 2.225580e-01 -1.412795e+01 4.772725e-01 -9.369112e-01 -4.923178e-01 1.814613e-02 1.283432e+00 -1.167995e+00 -2.611021e+00 1.019786e+00 -3.524977e-01 -1.627633e+00 1.715529e+00 2.112756e-01 -1.421562e+00 -4.494850e-01 2.816061e-01 4.002629e-01 -1.419296e-01 -4.632838e-01 2.787214e-01 6.822447e-01 -3.029399e-01 3.437320e-01 8.145012e-01 -6.040700e-01 -1.952292e-01 4.926303e-01
<VARIANCE> 39
 4.932090e+01 1.695781e+01 3.941757e+01 5.438374e+01 4.938923e+01 2.519834e+01 6.160681e+01 4.433855e+01 3.479258e+01 4.735233e+01 5.377227e+01 2.690437e+01 3.423730e+01 1.019519e+00 1.382762e+00 1.673903e+00 1.176356e+00 1.416653e+00 1.717088e+00 2.525667e+00 2.429111e+00 1.239629e+00 2.717220e+00 2.738463e+00 1.029724e+00 1.422609e+00 1.579650e-01 1.811603e-01 2.454748e-01 2.344077e-01 2.325739e-01 1.867850e-01 3.565975e-01 3.917774e-01 2.157443e-01 3.347331e-01 3.270433e-01 1.959620e-01 2.559910e-01
<GCONST> 1.074089e+02
<MIXTURE> 2 4.802782e-01
<MEAN> 39
 1.352621e+01 -1.340234e+01 8.364815e+00 2.425374e+01 2.958451e+01 -2.286341e+00 -3.621219e+01 5.640880e+00 -3.115544e+00 -2.137415e+01 6.083361e+00 -1.331141e+00 -1.360123e+01 3.809571e-02 -7.517190e-02 -8.450422e-02 -2.508239e-01 -6.451023e-03 -4.976466e-02 -1.141493e-01 1.424729e-02 -4.965495e-03 6.391151e-02 2.411685e-02 -2.888324e-02 1.088709e-02 3.867822e-03 2.568645e-02 -1.165543e-03 5.518216e-02 8.779779e-03 2.003811e-02 6.130019e-02 3.268618e-02 -4.415958e-02 9.683872e-03 6.250261e-02 -3.179398e-02 -1.613622e-02
<VARIANCE> 39
 5.263958e+00 9.877685e+00 2.274089e+01 1.904347e+01 1.789433e+01 1.065488e+01 2.091844e+01 2.468712e+01 2.519835e+01 2.151219e+01 2.285999e+01 7.106527e+00 2.083774e+01 3.309617e-01 3.804387e-01 5.378312e-01 7.874496e-01 5.354359e-01 5.450592e-01 1.144000e+00 1.088672e+00 7.767690e-01 9.154220e-01 7.579715e-01 4.113980e-01 7.295840e-01 5.261721e-02 5.873879e-02 7.233270e-02 8.311360e-02 8.514651e-02 8.764132e-02 1.815935e-01 1.605031e-01 1.027337e-01 1.440435e-01 1.009390e-01 6.750590e-02 1.040748e-01
<GCONST> 7.106293e+01
<STATE> 4
<NUMMIXES> 2
<MIXTURE> 1 7.002369e-01
<MEAN> 39
 1.621637e+01 -1.416293e+01 1.081179e+00 1.849567e+01 2.884778e+01 -1.937659e+00 -3.397837e+01 1.097311e+01 -1.082572e+01 -2.573925e+01 2.017778e+01 -8.792333e-01 -1.730731e+01 -8.226046e-02 8.340954e-03 1.089605e-01 1.946455e-01 1.223726e-01 1.689769e-02 -2.317944e-02 -1.888403e-02 -1.229248e-02 7.102114e-02 1.063592e-01 -1.100288e-01 -1.822774e-01 -1.099274e-02 8.820090e-02 -8.406174e-03 4.854102e-02 -5.661529e-02 7.962792e-02 2.108441e-01 -7.454666e-02 -1.471983e-02 8.402234e-02 -9.916258e-02 5.263780e-03 7.262138e-02
<VARIANCE> 39
 8.703580e+00 9.474670e+00 2.944118e+01 2.974282e+01 2.866089e+01 1.419472e+01 3.699576e+01 4.099947e+01 2.955436e+01 2.777994e+01 4.333279e+01 1.799746e+01 2.762656e+01 5.042604e-01 3.415156e-01 6.279668e-01 7.157038e-01 6.585290e-01 6.068379e-01 1.690124e+00 1.965523e+00 6.559213e-01 1.369983e+00 1.571035e+00 5.667058e-01 7.692941e-01 7.442676e-02 6.202244e-02 7.857589e-02 8.685853e-02 9.995571e-02 9.091921e-02 2.616920e-01 2.912515e-01 9.545581e-02 2.292570e-01 2.407610e-01 8.198509e-02 1.129009e-01
<GCONST> 8.255618e+01
<MIXTURE> 2 2.997620e-01
<MEAN> 39
 -2.577416e+01 -8.570797e+00 -6.742137e+00 -2.255124e+00 -1.854920e+00 1.871336e+00 -3.151251e+00 9.170504e-01 -4.890148e+00 -3.356565e+00 2.333651e+00 2.292075e+00 1.089872e+00 -1.307700e-02 -1.189426e-02 -1.549806e-02 -1.899397e-02 -1.564981e-02 -5.475718e-03 2.888101e-03 -1.779855e-03 1.716716e-04 3.872675e-03 -5.378779e-03 -5.688922e-03 -1.127977e-03 1.871088e-02 1.485152e-02 1.764771e-02 2.158258e-02 1.924812e-02 1.352641e-02 1.260982e-02 1.435287e-02 9.435579e-03 3.336481e-03 2.640071e-03 2.162915e-03 1.150799e-04
<VARIANCE> 39
 1.801289e+00 1.300799e+01 8.272799e+00 7.059454e+00 1.213161e+01 1.064529e+01 8.739166e+00 8.948369e+00 2.664026e+01 2.144052e+01 1.388970e+01 2.564275e+01 7.284739e+00 9.754405e-02 2.779908e-01 3.849956e-01 4.838788e-01 6.728004e-01 9.067357e-01 8.983408e-01 1.042737e+00 1.452455e+00 1.231434e+00 1.097483e+00 1.196126e+00 8.082716e-01 2.517625e-02 5.177910e-02 8.205872e-02 1.103137e-01 1.447610e-01 1.881885e-01 1.941086e-01 2.282878e-01 2.898606e-01 2.508041e-01 2.322514e-01 2.390353e-01 1.723809e-01
<GCONST> 7.178336e+01
<STATE> 5
<NUMMIXES> 2
<MIXTURE> 1 6.157135e-01
<MEAN> 39
 1.573230e+01 -1.111022e+01 1.137904e+00 2.229243e+01 2.904252e+01 2.397611e-01 -2.857778e+01 8.498631e+00 -1.205787e+01 -2.385466e+01 1.834638e+01 -1.218076e+00 -1.704208e+01 -7.113361e-01 1.621117e+00 2.766570e-01 3.575054e-01 -1.018119e+00 7.006445e-01 2.779862e+00 -1.107307e+00 6.445789e-01 1.865842e+00 -2.034096e+00 -1.630790e-01 1.130653e+00 -3.618526e-01 5.207714e-01 3.073344e-01 -1.594054e-01 -4.345437e-01 1.390579e-01 5.968341e-01 -2.303609e-01 4.550918e-01 6.921277e-01 -7.362701e-01 -9.834619e-02 5.142372e-01
<VARIANCE> 39
 1.390203e+01 1.770615e+01 4.285403e+01 6.279591e+01 4.147475e+01 2.725086e+01 5.839364e+01 4.798629e+01 3.600895e+01 4.499001e+01 6.492152e+01 2.940436e+01 3.928541e+01 7.468536e-01 1.411943e+00 1.304615e+00 1.362955e+00 1.556389e+00 1.415351e+00 2.795900e+00 2.691563e+00 1.692761e+00 2.996726e+00 2.840233e+00 9.792704e-01 1.684590e+00 8.010722e-02 1.253045e-01 2.103904e-01 2.226115e-01 1.911633e-01 1.807608e-01 3.474314e-01 3.906664e-01 2.142148e-01 3.226474e-01 2.632436e-01 1.839052e-01 2.202906e-01
<GCONST> 1.050319e+02
<MIXTURE> 2 3.842862e-01
<MEAN> 39
 1.235483e+01 -9.768888e+00 2.260420e+00 2.010419e+01 2.663710e+01 -2.315728e+00 -2.914731e+01 5.534950e+00 -1.096954e+01 -1.819606e+01 1.597693e+01 -1.621809e+00 -1.281995e+01 1.496649e-02 4.896320e-01 4.996598e-02 4.324052e-01 -8.120051e-02 3.217381e-02 5.712541e-01 2.390455e-02 -4.096823e-02 8.974305e-02 -1.294322e-01 3.943774e-02 -9.851444e-03 8.809879e-02 3.627396e-03 -1.219370e-02 2.226808e-02 3.717476e-02 5.092720e-02 1.179277e-02 2.138660e-01 2.348529e-03 -1.579057e-01 5.335378e-02 -1.286809e-02 -5.693623e-02
<VARIANCE> 39
 6.457222e+01 2.191556e+01 7.086855e+01 8.795428e+01 7.436250e+01 2.724961e+01 8.912019e+01 6.892504e+01 3.982733e+01 5.531785e+01 7.094527e+01 2.916384e+01 4.539137e+01 8.327243e-01 8.693790e-01 1.305378e+00 1.475977e+00 1.689480e+00 1.105165e+00 2.926464e+00 2.613742e+00 1.419621e+00 2.128072e+00 2.261074e+00 1.069842e+00 1.225986e+00 1.073022e-01 1.144417e-01 1.722844e-01 2.095614e-01 2.433117e-01 1.827067e-01 4.022061e-01 4.237902e-01 2.298152e-01 2.855379e-01 3.262577e-01 1.631744e-01 1.657811e-01
<GCONST> 1.082814e+02
<STATE> 6
<NUMMIXES> 2
<MIXTURE> 1 7.426227e-01
<MEAN> 39
 7.508353e+00 1.870642e+00 5.465388e+00 2.272148e+01 2.223755e+01 3.312436e+00 -1.413193e+01 2.867245e+00 -5.306932e+00 -1.088553e+01 3.502166e+00 -3.429326e+00 -8.422856e+00 -1.826077e+00 2.394287e+00 1.195552e+00 -5.711061e-01 -1.522959e+00 9.296030e-01 2.631586e+00 -3.559480e-01 1.223096e+00 2.092364e+00 -2.251171e+00 -2.686610e-01 1.739444e+00 -1.358297e-01 -3.245178e-01 8.660413e-02 -1.302131e-01 3.696001e-02 8.850874e-03 -3.116996e-01 1.359519e-01 -2.134439e-01 -2.950414e-01 4.269022e-01 5.916725e-02 -2.102437e-01
<VARIANCE> 39
 4.245912e+01 4.015392e+01 3.221674e+01 4.703357e+01 4.257003e+01 3.761325e+01 6.122479e+01 5.549773e+01 4.192651e+01 5.085159e+01 5.991053e+01 3.112732e+01 3.462956e+01 1.014203e+00 2.097554e+00 1.648130e+00 2.097569e+00 1.796635e+00 1.554191e+00 2.811279e+00 3.381128e+00 2.428224e+00 3.098813e+00 2.944273e+00 1.437859e+00 2.045550e+00 9.609631e-02 2.363527e-01 2.207838e-01 2.533031e-01 3.109555e-01 2.084345e-01 4.129955e-01 4.146720e-01 3.919964e-01 4.190685e-01 3.217998e-01 2.156659e-01 2.708379e-01
<GCONST> 1.131929e+02
<MIXTURE> 2 2.573775e-01
<MEAN> 39
 -1.241552e+01 4.232736e+00 7.277418e+00 1.358434e+01 1.170829e+01 8.617289e+00 6.291697e-01 8.784060e+00 3.439430e+00 1.565309e+00 4.405787e+00 9.159110e-01 -2.912103e-01 -1.126700e+00 -3.905817e-01 -2.411132e-01 -8.866147e-01 -8.908542e-01 1.570273e-01 7.183437e-01 2.848331e-01 2.420043e-01 3.952133e-01 9.646861e-02 1.784337e-01 3.103392e-01 8.439271e-02 -2.172625e-01 -1.975548e-01 -1.719684e-02 -1.109808e-02 -2.109255e-01 -3.089036e-01 -1.930424e-01 -2.388957e-01 -2.900499e-01 -1.111744e-01 -1.056683e-01 -1.112132e-01
<VARIANCE> 39
 7.706675e+01 4.317093e+01 5.047303e+01 8.825185e+01 7.591358e+01 3.162964e+01 3.311932e+01 4.050755e+01 3.133543e+01 3.034849e+01 2.814951e+01 2.020067e+01 1.619471e+01 3.445168e+00 1.689982e+00 2.443100e+00 3.569453e+00 3.599629e+00 2.280242e+00 2.819316e+00 3.246546e+00 2.656524e+00 2.508017e+00 1.815207e+00 1.405537e+00 1.181588e+00 1.592486e-01 2.058962e-01 2.422121e-01 3.041538e-01 3.623839e-01 2.861717e-01 3.109456e-01 3.682527e-01 3.181136e-01 2.864063e-01 2.455494e-01 2.130297e-01 1.937134e-01
<GCONST> 1.129591e+02
<TRANSP> 7
 0.000000e+00 1.000000e+00 0.000000e+00 0.000000e+00 0.000000e+00 0.000000e+00 0.000000e+00
 0.000000e+00 7.554546e-01 2.445454e-01 0.000000e+00 0.000000e+00 0.000000e+00 0.000000e+00
 0.000000e+00 0.000000e+00 8.019407e-01 1.980592e-01 0.000000e+00 0.000000e+00 0.000000e+00
 0.000000e+00 0.000000e+00 0.000000e+00 9.267325e-01 7.326750e-02 0.000000e+00 0.000000e+00
 0.000000e+00 0.000000e+00 0.000000e+00 0.000000e+00 8.163021e-01 1.836980e-01 0.000000e+00
 0.000000e+00 0.000000e+00 0.000000e+00 0.000000e+00 0.000000e+00 7.942883e-01 2.057117e-01
 0.000000e+00 0.000000e+00 0.000000e+00 0.000000e+00 0.000000e+00 0.000000e+00 0.000000e+00
<ENDHMM>
~h "ei"
<BEGINHMM>
<NUMSTATES> 7
<STATE> 2
<NUMMIXES> 2
<MIXTURE> 1 6.719065e-01
<MEAN> 39
 2.046837e+01 -1.344491e+01 -1.306135e+01 8.973981e+00 2.267570e+01 -4.302597e+00 -2.797119e+01 9.731260e+00 -1.065731e+01 -1.534244e+01 2.352583e+01 3.697330e+00 -3.863892e+00 -2.173772e-01 1.181936e-02 6.165362e-02 2.310457e-01 2.832161e-01 1.006701e-01 -2.121036e-01 -6.681682e-01 -3.093597e-01 2.616505e-02 -1.433587e-02 1.484457e-01 5.479703e-03 -1.957037e-01 2.145564e-01 2.135525e-01 1.118126e-01 -1.617044e-01 8.770726e-02 2.811094e-01 -2.278472e-01 9.788993e-02 2.034285e-01 -2.505263e-01 3.983910e-02 2.697375e-02
<VARIANCE> 39
 1.005727e+01 1.348108e+01 2.988463e+01 2.948090e+01 2.066283e+01 1.581135e+01 2.907099e+01 5.427267e+01 2.380551e+01 3.876298e+01 3.446703e+01 1.923289e+01 2.833874e+01 7.884619e-01 7.016835e-01 1.063560e+00 8.201494e-01 8.688176e-01 7.790934e-01 1.957332e+00 2.616325e+00 8.003377e-01 1.441937e+00 2.297328e+00 8.722045e-01 7.787746e-01 9.797574e-02 8.207381e-02 1.281728e-01 1.082894e-01 1.080472e-01 1.038094e-01 2.247991e-01 3.024249e-01 1.195576e-01 2.056349e-01 2.856807e-01 1.277846e-01 9.784770e-02
<GCONST> 8.867211e+01
<MIXTURE> 2 3.280929e-01
<MEAN> 39
 1.774165e+01 -9.121979e+00 -1.291746e+01 8.137203e+00 1.646977e+01 -2.764174e+00 -1.871933e+01 5.962657e+00 -4.959875e+00 -7.400679e+00 1.690250e+01 5.301365e+00 -2.139232e+00 7.725459e-01 -6.903218e-01 -9.403165e-01 -1.088222e-01 1.310859e+00 -2.973939e-01 -1.573440e+00 2.791618e-01 -8.535278e-01 -1.268421e+00 6.701831e-01 -9.088889e-04 -1.693862e-01 -4.602994e-02 -8.937271e-02 8.132347e-02 2.049291e-02 3.289449e-02 5.176861e-02 -1.016465e-01 1.462092e-01 -2.976429e-02 6.543724e-02 2.515261e-01 -8.279654e-02 2.814522e-02
<VARIANCE> 39
 2.339272e+01 2.033808e+01 4.691407e+01 4.575023e+01 4.813982e+01 1.709995e+01 5.108198e+01 5.055127e+01 2.871961e+01 5.980569e+01 3.646438e+01 1.910962e+01 2.535697e+01 1.414598e+00 1.317200e+00 2.118205e+00 1.125686e+00 1.196655e+00 1.221862e+00 2.035447e+00 2.920999e+00 1.281185e+00 1.913302e+00 2.771121e+00 1.393186e+00 8.673295e-01 3.032574e-01 2.637790e-01 3.595482e-01 2.264435e-01 2.212659e-01 2.186429e-01 3.529793e-01 5.225970e-01 2.411706e-01 4.046934e-01 4.073426e-01 2.241133e-01 1.561266e-01
<GCONST> 1.067399e+02
<STATE> 3
<NUMMIXES> 2
<MIXTURE> 1 9.872232e-01
<MEAN> 39
 1.159342e+01 -3.561185e+00 -6.789438e+00 1.880223e+01 2.641584e+01 -9.014302e-01 -2.877199e+01 -7.793824e+00 -1.255125e+01 -9.224228e+00 1.737142e+01 8.078406e+00 -2.536201e+00 -8.804075e-01 7.421815e-01 6.860769e-01 3.746588e-01 -3.128806e-01 1.175664e-01 3.391182e-01 -1.171219e+00 -1.208168e-01 4.889521e-01 -8.611434e-01 2.777130e-01 5.597385e-01 -1.738114e-01 1.225582e-01 1.830290e-01 -9.801470e-02 -2.368928e-01 4.413635e-02 3.065717e-01 2.106391e-01 2.142815e-01 1.245900e-01 -1.804436e-01 -8.781053e-02 7.515127e-02
<VARIANCE> 39
 1.957121e+01 2.323687e+01 3.448119e+01 2.998305e+01 2.841572e+01 2.106869e+01 5.329565e+01 7.707419e+01 4.385007e+01 4.140578e+01 4.229872e+01 3.509052e+01 3.561275e+01 1.469675e+00 2.048898e+00 2.918234e+00 2.029661e+00 4.137056e+00 1.752532e+00 6.346884e+00 3.676179e+00 3.526501e+00 3.169828e+00 4.717273e+00 1.863422e+00 1.629895e+00 3.255607e-01 3.514875e-01 5.845166e-01 3.335660e-01 8.315114e-01 3.144479e-01 1.393634e+00 7.644418e-01 8.034639e-01 6.464485e-01 9.508603e-01 3.532048e-01 3.272263e-01
<GCONST> 1.229771e+02
<MIXTURE> 2 1.277683e-02
<MEAN> 39
 1.837819e+01 4.408191e+00 8.167886e+00 1.235576e+01 -4.771668e-01 -2.292917e+01 -1.985227e+01 2.462933e+01 6.557261e+00 -1.858235e+01 6.069124e+00 -1.111704e+00 -1.412137e+01 -2.535506e-01 5.477973e-01 4.043064e-01 1.518086e-01 -1.183608e-01 1.336090e-01 1.740173e-01 -4.771295e-01 -1.501720e-01 5.964382e-01 2.984789e-01 1.146437e-01 7.283101e-02 -6.601238e-02 1.455391e-02 2.911916e-02 6.615890e-03 2.712402e-02 1.415929e-01 9.074160e-02 -5.624482e-02 -1.194535e-02 4.313973e-02 -2.799823e-02 5.701651e-03 6.574174e-02
<VARIANCE> 39
 6.354887e+00 3.033607e+01 2.658503e+01 1.512386e+01 1.641547e+01 3.577674e+01 2.033805e+01 5.108016e+01 8.741813e+00 3.888733e+01 2.013442e+01 1.450479e+01 4.662941e+00 4.254143e-01 2.466541e-01 3.204578e-01 3.933105e-01 5.545883e-01 1.575608e+00 1.594411e+00 2.025586e+00 5.398021e-01 1.308086e+00 8.498941e-01 3.086170e-01 5.284068e-01 6.744642e-02 3.411299e-02 6.872744e-02 6.014937e-02 8.886895e-02 1.056495e-01 2.235375e-01 3.039374e-01 6.046455e-02 1.829733e-01 1.549831e-01 4.938495e-02 8.593414e-02
<GCONST> 7.293864e+01
<STATE> 4
<NUMMIXES> 2
<MIXTURE> 1 1.000000e+00
<MEAN> 39
 -2.345769e-01 4.957705e+00 5.090836e+00 1.977588e+01 1.919021e+01 2.214663e+00 -1.661615e+01 -5.567951e+00 -8.040315e+00 -4.044035e+00 9.789978e+00 6.007623e+00 -1.353258e-01 -1.438742e+00 4.649954e-01 1.073866e+00 5.547586e-02 -4.454046e-01 8.655409e-01 1.834211e+00 1.115525e+00 9.194619e-01 6.120505e-01 -4.814655e-01 -2.073670e-01 2.068807e-01 3.795120e-02 -1.809903e-01 -1.232539e-01 -1.314627e-03 1.338972e-01 9.365846e-02 3.865913e-02 2.214667e-01 9.036805e-02 1.764894e-02 1.909155e-01 2.141815e-03 -9.492394e-02
<VARIANCE> 39
 4.121485e+01 2.873479e+01 4.083795e+01 3.191676e+01 3.513767e+01 4.937838e+01 6.683470e+01 6.079338e+01 3.784102e+01 3.165626e+01 4.396175e+01 3.747605e+01 2.857000e+01 1.439252e+00 1.725668e+00 1.986303e+00 2.044732e+00 2.597340e+00 2.639521e+00 4.022607e+00 4.580364e+00 3.461749e+00 2.513136e+00 3.176005e+00 1.921353e+00 1.586215e+00 1.486327e-01 1.561392e-01 2.375131e-01 3.635712e-01 4.346077e-01 3.744356e-01 5.636694e-01 5.445881e-01 5.306938e-01 3.969679e-01 5.187851e-01 3.366351e-01 2.436644e-01
<GCONST> 1.172027e+02
<MIXTURE> 2 0.000000e+00
<MEAN> 39
 2.451241e-05 -3.945827e-05 -6.578863e-06 -7.152557e-07 -2.774596e-05 1.187921e-04 -1.449883e-05 1.633167e-05 -6.984919e-06 -4.756451e-05 -2.284069e-07 1.892447e-05 7.908791e-06 -7.654307e-09 2.645538e-08 3.352761e-08 1.137960e-07 9.124051e-09 1.990702e-07 1.084991e-07 -6.868504e-08 -1.708395e-08 1.569279e-07 2.568122e-07 2.303568e-08 -8.591451e-08 -1.363271e-02 1.440285e-03 -1.899552e-03 5.156639e-04 -4.873953e-04 -4.111854e-04 -4.649502e-04 -8.853489e-04 -2.279049e-04 -6.240061e-04 -1.173968e-04 -5.409846e-04 -2.049126e-04
<VARIANCE> 39
 9.626150e-06 2.426654e-05 3.815629e-06 0.000000e+00 0.000000e+00 0.000000e+00 2.935529e-06 0.000000e+00 1.143431e-06 0.000000e+00 0.000000e+00 0.000000e+00 0.000000e+00 1.686828e-11 0.000000e+00 1.923581e-10 0.000000e+00 0.000000e+00 2.846718e-10 0.000000e+00 0.000000e+00 2.116707e-11 0.000000e+00 0.000000e+00 0.000000e+00 8.787993e-11 8.329379e-03 3.102372e-04 3.842243e-04 2.258328e-04 2.910108e-04 3.261111e-04 3.767133e-04 3.033899e-04 2.445394e-04 2.236361e-04 1.965368e-04 1.861692e-04 1.587977e-04
<GCONST> -1.600000e+11
<STATE> 5
<NUMMIXES> 2
<MIXTURE> 1 1.000000e+00
<MEAN> 39
 -1.210038e+01 3.802599e+00 8.285535e+00 1.683740e+01 1.685588e+01 1.319942e+01 3.209262e+00 1.121825e+01 5.778880e+00 5.014850e+00 9.497552e+00 3.975364e+00 5.276065e-01 -1.173201e+00 -5.613501e-01 -6.009244e-01 -1.267046e+00 -1.208402e+00 -4.500234e-02 6.057060e-01 1.499359e-01 2.519911e-01 2.287719e-01 -4.468777e-01 -2.326832e-01 1.842555e-01 -3.632575e-02 -1.115917e-01 -1.908842e-01 -2.329197e-01 -2.923884e-01 -3.753283e-01 -3.952778e-01 -3.688627e-01 -3.247201e-01 -2.474848e-01 -1.436941e-01 -6.056918e-02 -2.355601e-02
<VARIANCE> 39
 4.040700e+01 2.292100e+01 2.138474e+01 3.786279e+01 3.620406e+01 2.105146e+01 3.344781e+01 3.147246e+01 3.024880e+01 3.243541e+01 1.842271e+01 1.620140e+01 1.358735e+01 1.038753e+00 1.109831e+00 1.635718e+00 2.299678e+00 3.187626e+00 3.155005e+00 2.860700e+00 3.298391e+00 2.745378e+00 2.217851e+00 1.988448e+00 1.426065e+00 9.640750e-01 8.484040e-02 1.025216e-01 1.356150e-01 1.928973e-01 2.780178e-01 2.819597e-01 2.834229e-01 2.966845e-01 2.678197e-01 2.618044e-01 2.457328e-01 2.136435e-01 1.616535e-01
<GCONST> 1.019916e+02
<MIXTURE> 2 0.000000e+00
<MEAN> 39
 -1.609325e-06 -8.135103e-07 4.749745e-07 -6.807968e-07 -4.202593e-08 -3.618188e-07 2.407432e-09 2.424931e-07 1.277658e-07 -1.313165e-07 1.412118e-07 2.625166e-07 -2.114102e-07 1.533401e-01 -5.503851e-03 3.785035e-02 1.390424e-03 1.759262e-02 1.390478e-02 1.895499e-02 1.250848e-02 7.013478e-03 6.770252e-03 6.135121e-03 5.650446e-03 4.476010e-03 -1.806013e-01 2.015203e-02 -3.495460e-02 2.499425e-02 1.963463e-02 -3.039902e-02 -3.971753e-02 -2.047334e-02 -8.192796e-04 8.419420e-03 5.635804e-03 4.006127e-03 -1.858771e-03
<VARIANCE> 39
 0.000000e+00 0.000000e+00 0.000000e+00 0.000000e+00 4.588401e-10 0.000000e+00 9.299506e-14 0.000000e+00 1.959961e-10 7.395329e-10 9.354153e-10 0.000000e+00 0.000000e+00 5.519691e-01 1.833294e-02 3.783517e-02 1.655615e-02 2.303718e-02 2.295028e-02 2.466567e-02 1.928537e-02 1.440313e-02 1.338319e-02 1.233723e-02 1.081821e-02 9.576578e-03 1.242094e-01 1.541650e-02 1.599239e-02 1.925049e-02 2.621124e-02 3.162269e-02 3.145853e-02 1.910103e-02 1.752691e-02 1.237346e-02 1.492543e-02 9.388872e-03 1.088586e-02
<GCONST> -8.000000e+10
<STATE> 6
<NUMMIXES> 2
<MIXTURE> 1 1.000000e+00
<MEAN> 39
 -2.492910e+01 -5.974681e+00 -4.334423e+00 -1.427480e+00 -1.980284e+00 1.704176e+00 -3.266899e+00 1.684789e+00 -1.760019e+00 -7.807088e-01 1.461336e+00 -1.064133e-01 6.202689e-01 -3.745906e-01 -2.338789e-01 -2.414996e-01 -4.859274e-01 -6.422546e-01 -4.550643e-01 -2.449186e-01 -2.393457e-01 -1.983238e-01 -2.343562e-01 -3.278276e-01 -2.115632e-01 -9.079438e-02 1.293399e-01 9.848137e-02 1.423629e-01 1.911697e-01 2.204885e-01 1.446756e-01 6.285181e-02 8.553001e-02 5.360945e-02 5.232933e-02 9.857767e-02 5.259115e-02 1.709613e-02
<VARIANCE> 39
 3.802590e+01 8.963086e+00 1.177809e+01 2.243693e+01 2.350774e+01 1.460943e+01 1.257338e+01 1.219437e+01 1.439514e+01 1.782479e+01 1.266006e+01 1.148692e+01 7.128097e+00 7.870713e-01 7.470952e-01 1.477906e+00 1.954232e+00 2.440014e+00 2.276763e+00 1.706798e+00 1.642700e+00 1.504780e+00 1.611105e+00 1.507080e+00 1.295366e+00 9.139014e-01 8.956567e-02 9.941994e-02 1.361387e-01 2.130300e-01 2.763591e-01 2.510094e-01 2.385612e-01 2.404126e-01 2.596859e-01 2.687450e-01 2.543368e-01 2.208159e-01 1.717654e-01
<GCONST> 9.009626e+01
<MIXTURE> 2 0.000000e+00
<MEAN> 39
 0.000000e+00 0.000000e+00 0.000000e+00 0.000000e+00 0.000000e+00 0.000000e+00 0.000000e+00 0.000000e+00 0.000000e+00 0.000000e+00 0.000000e+00 0.000000e+00 0.000000e+00 4.237878e-23 -3.786909e-23 1.582470e-23 -1.329638e-24 3.023070e-24 -8.363062e-24 6.443591e-24 -1.243620e-24 4.356885e-25 -2.915257e-24 3.233656e-24 -1.075627e-24 3.332135e-26 -1.259776e-01 9.946360e-03 -3.100975e-02 6.726459e-03 -2.000426e-04 -2.277133e-02 -2.668727e-02 -1.526267e-02 -5.181108e-03 1.760355e-04 -1.211648e-03 -1.074032e-03 -3.869191e-03
<VARIANCE> 39
 0.000000e+00 0.000000e+00 0.000000e+00 0.000000e+00 0.000000e+00 0.000000e+00 0.000000e+00 0.000000e+00 0.000000e+00 0.000000e+00 0.000000e+00 0.000000e+00 0.000000e+00 5.779452e-23 4.550961e-23 7.666999e-24 4.672506e-26 3.242006e-25 2.289604e-24 1.269824e-24 4.119810e-26 1.051707e-26 3.016532e-25 3.258485e-25 3.081342e-26 3.416759e-28 8.857191e-02 9.054033e-03 1.131149e-02 9.210194e-03 1.184606e-02 1.578277e-02 1.645681e-02 1.080695e-02 9.119515e-03 6.624663e-03 7.254379e-03 5.319290e-03 5.618778e-03
<GCONST> -1.300000e+11
<TRANSP> 7
 0.000000e+00 1.000000e+00 0.000000e+00 0.000000e+00 0.000000e+00 0.000000e+00 0.000000e+00
 0.000000e+00 9.051939e-01 9.480610e-02 0.000000e+00 0.000000e+00 0.000000e+00 0.000000e+00
 0.000000e+00 0.000000e+00 8.704056e-01 1.295944e-01 0.000000e+00 0.000000e+00 0.000000e+00
 0.000000e+00 0.000000e+00 0.000000e+00 8.966514e-01 1.033486e-01 0.000000e+00 0.000000e+00
 0.000000e+00 0.000000e+00 0.000000e+00 0.000000e+00 8.827641e-01 1.172359e-01 0.000000e+00
 0.000000e+00 0.000000e+00 0.000000e+00 0.000000e+00 0.000000e+00 8.666037e-01 1.333964e-01
 0.000000e+00 0.000000e+00 0.000000e+00 0.000000e+00 0.000000e+00 0.000000e+00 0.000000e+00
<ENDHMM>
~h "ii"
<BEGINHMM>
<NUMSTATES> 7
<STATE> 2
<NUMMIXES> 2
<MIXTURE> 1 3.025062e-01
<MEAN> 39
 4.562707e+00 -1.471949e+01 1.943090e+01 2.818844e+01 1.674560e+01 1.227775e+01 -1.248008e+01 1.457829e+00 -7.269908e-01 -4.869516e+00 4.646108e+00 -7.715359e+00 -5.520022e+00 3.007613e+00 2.039322e+00 -3.926584e-01 2.914060e+00 3.239117e+00 -1.455616e+00 -3.728168e+00 -1.154732e+00 6.418561e-01 -2.692928e+00 -1.697089e+00 -1.687865e-01 -2.282320e+00 -3.945704e-01 -8.138784e-01 -7.566791e-01 -4.191011e-01 2.650136e-01 -3.586828e-01 -7.824311e-01 1.360939e-01 -2.553743e-01 -7.669382e-01 2.008345e-01 2.844080e-01 -3.444335e-01
<VARIANCE> 39
 1.617049e+01 3.880853e+01 7.580832e+01 6.914201e+01 2.837547e+01 1.131237e+02 4.173042e+01 9.111855e+01 3.405824e+01 4.475700e+01 2.245733e+01 2.194765e+01 1.610465e+01 1.402931e+00 3.088432e+00 3.714938e+00 3.964600e+00 2.594969e+00 3.310906e+00 2.786024e+00 2.529671e+00 3.099631e+00 2.910547e+00 2.257803e+00 2.073524e+00 1.706955e+00 2.023017e-01 2.446312e-01 3.006960e-01 4.066283e-01 3.979607e-01 3.325620e-01 5.791994e-01 5.058829e-01 5.030870e-01 5.053768e-01 3.956701e-01 3.454719e-01 2.251548e-01
<GCONST> 1.186392e+02
<MIXTURE> 2 6.974937e-01
<MEAN> 39
 1.119127e+01 -1.124133e+01 1.098599e+01 3.245879e+01 2.729852e+01 5.065310e+00 -2.332682e+01 2.805949e+00 -1.982523e+00 -1.688984e+01 4.781873e+00 -4.052852e+00 -1.287960e+01 7.868145e-01 -5.438481e-01 -5.770429e-01 9.413353e-01 2.098245e+00 -1.245114e+00 -3.179582e+00 4.435070e-01 3.904522e-01 -2.095307e+00 3.935109e-01 4.844565e-01 -1.882155e+00 -3.647863e-01 -1.051565e-01 1.485731e-01 -4.360724e-01 -4.699652e-01 1.308464e-01 4.398750e-01 2.971303e-01 1.145221e-01 3.132701e-01 7.251480e-02 -1.505805e-02 3.011557e-01
<VARIANCE> 39
 1.065059e+01 2.805036e+01 6.524651e+01 4.686299e+01 3.586319e+01 5.175446e+01 4.916977e+01 4.735977e+01 4.256731e+01 3.911668e+01 4.303126e+01 1.992295e+01 2.446884e+01 7.196530e-01 1.842563e+00 2.218033e+00 1.990597e+00 2.468561e+00 2.048033e+00 3.292023e+00 2.493208e+00 2.157164e+00 2.837080e+00 2.212081e+00 1.675820e+00 1.640107e+00 1.263617e-01 2.459942e-01 2.552522e-01 3.176437e-01 3.352069e-01 2.174675e-01 3.996557e-01 3.152620e-01 3.109580e-01 3.763793e-01 3.287808e-01 2.268320e-01 2.419615e-01
<GCONST> 1.103260e+02
<STATE> 3
<NUMMIXES> 2
<MIXTURE> 1 1.000000e+00
<MEAN> 39
 1.339515e+01 -1.259206e+01 6.667222e+00 2.877820e+01 3.208108e+01 4.869041e-01 -3.108141e+01 8.495162e+00 -6.851395e+00 -2.396358e+01 1.294321e+01 -2.954813e+00 -1.846520e+01 -2.739787e-01 -1.516125e-01 6.686810e-01 4.116372e-01 4.056469e-01 -6.637865e-02 -7.285619e-01 2.040306e-01 6.091620e-01 -2.370536e-01 -2.462556e-01 -2.366391e-01 -6.228065e-01 -7.277541e-02 1.317979e-01 -1.452406e-03 -8.432496e-02 -2.513872e-01 7.636078e-02 4.016542e-01 -1.201249e-01 3.096689e-02 2.647403e-01 -1.919867e-01 3.269738e-04 2.612623e-01
<VARIANCE> 39
 9.993584e+00 1.683067e+01 4.174196e+01 4.958910e+01 4.146383e+01 3.100826e+01 4.379974e+01 4.092400e+01 4.817317e+01 3.429230e+01 6.503232e+01 1.703669e+01 3.063607e+01 4.762803e-01 5.838034e-01 1.138466e+00 1.028419e+00 1.108066e+00 1.057958e+00 2.159735e+00 1.870686e+00 1.064096e+00 1.760511e+00 1.596378e+00 8.878842e-01 9.875702e-01 8.067974e-02 9.107582e-02 1.210165e-01 1.408344e-01 2.062175e-01 1.305010e-01 3.680802e-01 2.999870e-01 1.687366e-01 3.295129e-01 2.685578e-01 1.504934e-01 1.545335e-01
<GCONST> 9.555784e+01
<MIXTURE> 2 0.000000e+00
<MEAN> 39
 -2.208270e+00 -4.924166e+00 1.908871e+01 1.414313e+01 1.305121e+01 -2.550124e+01 -8.712596e+00 3.256981e+00 -1.020494e+01 -1.600216e+01 -1.043865e+01 -7.724840e+00 -3.884650e+00 -3.069684e-02 5.741307e-02 2.626543e-02 -1.140945e-02 -5.099841e-03 1.462645e-03 -7.175154e-02 2.450622e-02 1.508959e-02 -8.209687e-02 -2.880517e-02 4.053793e-02 1.540386e-02 4.400872e-03 3.426807e-02 -3.873229e-02 -2.918413e-02 4.017396e-02 7.009056e-02 -1.632413e-02 -6.592760e-02 5.973514e-02 5.484207e-02 -7.151864e-03 -6.910361e-03 -2.705606e-03
<VARIANCE> 39
 5.265318e+00 3.126786e+01 2.337614e+01 3.727947e+01 3.152877e+01 2.943056e+01 3.225301e+01 2.729765e+01 2.195340e+01 2.848150e+01 2.092086e+01 3.419135e+01 3.785925e+01 6.421357e-02 2.003726e-01 3.487247e-01 3.611105e-01 4.247755e-01 4.733264e-01 5.225756e-01 5.518345e-01 5.403954e-01 5.455791e-01 4.727846e-01 4.464683e-01 3.817663e-01 9.004888e-03 2.605502e-02 4.109941e-02 5.433235e-02 6.215053e-02 8.339533e-02 8.227700e-02 8.697993e-02 9.257926e-02 8.818587e-02 8.279812e-02 7.263009e-02 6.514387e-02
<GCONST> 6.347967e+01
<STATE> 4
<NUMMIXES> 2
<MIXTURE> 1 5.448521e-01
<MEAN> 39
 1.176537e+01 -1.332726e+01 1.188130e+01 3.324370e+01 3.135303e+01 2.547630e-01 -3.396188e+01 6.656826e+00 2.021463e+00 -2.338326e+01 4.751960e+00 -2.610853e+00 -1.752435e+01 1.801147e-02 1.210758e-01 -1.303430e-01 1.063512e-01 3.319727e-02 -1.524027e-01 1.159013e-01 -1.050283e-01 -3.730456e-02 1.724745e-01 -1.370413e-01 -8.078045e-02 3.213663e-02 -3.441272e-02 1.269050e-01 -5.065417e-02 2.422806e-02 -1.007921e-01 -4.412631e-03 3.084626e-01 -9.520197e-02 -1.153425e-01 2.091758e-01 -6.342983e-02 -6.759368e-02 1.260659e-01
<VARIANCE> 39
 4.230895e+00 1.256178e+01 2.347921e+01 2.239759e+01 2.750945e+01 2.262618e+01 2.403396e+01 2.409973e+01 2.891202e+01 2.155684e+01 2.780418e+01 1.131675e+01 2.065187e+01 3.212656e-01 4.261860e-01 6.132156e-01 7.805768e-01 7.912430e-01 7.923089e-01 1.537568e+00 9.988536e-01 9.138557e-01 1.183880e+00 1.044226e+00 6.023048e-01 7.049220e-01 4.426622e-02 6.299037e-02 7.596594e-02 1.076827e-01 1.157211e-01 1.098325e-01 1.972292e-01 1.440702e-01 1.117278e-01 1.802758e-01 1.318739e-01 1.003845e-01 1.066046e-01
<GCONST> 7.734441e+01
<MIXTURE> 2 4.551476e-01
<MEAN> 39
 1.042563e+01 -8.272471e+00 1.327888e+01 3.521859e+01 2.636365e+01 -8.838196e-01 -2.460897e+01 4.449158e+00 5.214327e+00 -1.540803e+01 -4.201154e+00 -6.627460e+00 -1.279778e+01 1.534162e-02 2.044548e-01 -1.018703e-01 4.103970e-02 -1.751489e-02 -2.149078e-01 6.397179e-02 2.211766e-02 -7.553343e-02 3.745726e-02 -1.547116e-01 -1.366824e-01 3.734781e-02 5.289507e-02 -5.200294e-02 -1.091477e-02 -3.511883e-02 6.763919e-02 1.172285e-01 -1.144945e-01 4.650103e-02 -6.223075e-02 -1.074639e-01 1.764963e-01 4.020104e-02 -4.722276e-02
<VARIANCE> 39
 4.464365e+00 1.580101e+01 2.286687e+01 2.217088e+01 2.127143e+01 4.271228e+01 4.421224e+01 3.400438e+01 2.587413e+01 2.544882e+01 4.191911e+01 1.796290e+01 2.517919e+01 2.316294e-01 5.349900e-01 6.588811e-01 9.815633e-01 9.513990e-01 9.922606e-01 1.621057e+00 1.198424e+00 9.353110e-01 1.195321e+00 1.107346e+00 8.672020e-01 7.563449e-01 4.228416e-02 6.880611e-02 8.756751e-02 1.480881e-01 1.371942e-01 1.398844e-01 1.976579e-01 1.774716e-01 1.347755e-01 1.841755e-01 1.505834e-01 1.328284e-01 1.267507e-01
<GCONST> 8.334147e+01
<STATE> 5
<NUMMIXES> 2
<MIXTURE> 1 6.336218e-01
<MEAN> 39
 1.215077e+01 -9.556412e+00 7.846539e+00 3.396171e+01 3.202874e+01 -3.656846e-02 -2.823799e+01 4.853154e+00 -3.557298e+00 -2.009767e+01 6.156053e+00 -4.276203e+00 -1.717991e+01 -2.689062e-01 1.372649e+00 -3.803176e-01 -4.887700e-01 -9.794264e-01 3.353849e-01 2.275467e+00 -4.882041e-01 -2.459914e-01 1.441398e+00 -7.174144e-01 -2.578152e-02 1.139310e+00 -2.284026e-01 4.450833e-01 1.701614e-01 -4.092304e-01 -5.446749e-01 1.172198e-01 6.572756e-01 8.016468e-02 3.168922e-01 4.702569e-01 -4.202973e-01 -2.713941e-02 4.739792e-01
<VARIANCE> 39
 1.063699e+01 2.399742e+01 3.183175e+01 4.327630e+01 3.196311e+01 4.226839e+01 4.321482e+01 4.175814e+01 4.158744e+01 3.210592e+01 4.836631e+01 2.318759e+01 2.387011e+01 4.837248e-01 1.167938e+00 9.770861e-01 1.761178e+00 1.677988e+00 1.270257e+00 2.911203e+00 1.773819e+00 1.583694e+00 2.241431e+00 1.983816e+00 1.058568e+00 1.259010e+00 5.961473e-02 1.227866e-01 1.574230e-01 2.125658e-01 2.020521e-01 2.046864e-01 2.827844e-01 2.989307e-01 2.349428e-01 2.652640e-01 2.109060e-01 1.612905e-01 1.535022e-01
<GCONST> 9.915467e+01
<MIXTURE> 2 3.663780e-01
<MEAN> 39
 -1.674564e+01 -1.530071e+00 1.025920e+00 6.992050e+00 3.709658e+00 -1.982174e-01 -7.348566e+00 1.563043e+00 -3.136976e+00 -4.366261e+00 -7.179438e-01 -2.880605e+00 -2.587192e+00 -8.129132e-01 -1.609853e-01 -2.742788e-01 -7.477045e-01 -5.379294e-01 2.165420e-01 3.660171e-01 -1.012934e-01 5.195861e-02 3.340089e-01 9.303989e-02 2.049470e-01 3.371735e-01 5.100528e-02 -5.889723e-02 8.006239e-03 1.009265e-01 9.112648e-02 -1.176682e-02 -3.683627e-02 4.933938e-02 5.404111e-03 -4.891441e-02 4.816602e-02 -1.426505e-03 -6.151297e-02
<VARIANCE> 39
 1.484267e+02 4.208173e+01 5.590581e+01 1.698146e+02 1.153636e+02 4.585078e+01 6.516438e+01 5.519414e+01 5.054314e+01 5.555706e+01 4.036871e+01 5.057880e+01 5.199431e+01 1.436144e+00 1.399354e+00 1.209892e+00 2.559382e+00 2.198855e+00 1.255409e+00 1.546786e+00 1.978982e+00 2.109244e+00 2.130410e+00 1.879127e+00 1.644899e+00 1.745255e+00 8.614999e-02 1.315880e-01 1.448774e-01 2.407633e-01 2.524144e-01 1.833025e-01 2.005068e-01 2.823180e-01 3.552894e-01 3.596927e-01 2.986938e-01 2.562910e-01 2.515298e-01
<GCONST> 1.132122e+02
<STATE> 6
<NUMMIXES> 2
<MIXTURE> 1 4.483915e-01
<MEAN> 39
 1.781620e+00 9.062844e+00 1.134130e+01 2.352902e+01 1.945667e+01 6.848504e+00 -4.562177e+00 7.845776e+00 3.907537e+00 -2.846770e+00 -3.197922e+00 -5.361560e+00 -3.855532e+00 -1.913704e+00 1.619088e+00 7.457913e-01 -1.844652e+00 -1.611966e+00 1.239504e+00 2.261081e+00 3.991296e-01 2.047281e-01 1.038954e+00 -8.570995e-03 3.239566e-01 8.081378e-01 -9.653342e-02 -6.187282e-01 -1.367721e-01 5.935250e-02 7.501432e-02 -7.341687e-02 -3.334658e-01 -1.466024e-01 -2.760440e-01 -3.094518e-01 3.210705e-01 4.607724e-02 -3.132129e-01
<VARIANCE> 39
 4.275119e+01 2.076554e+01 1.803560e+01 4.246245e+01 3.046421e+01 1.808653e+01 2.405800e+01 1.728244e+01 2.074285e+01 2.365141e+01 1.360433e+01 1.433046e+01 1.061261e+01 1.062060e+00 2.162830e+00 1.327795e+00 2.096187e+00 1.820704e+00 1.166824e+00 1.487449e+00 1.338589e+00 1.371038e+00 1.338609e+00 1.593207e+00 1.281541e+00 1.252836e+00 6.992493e-02 1.312659e-01 1.993553e-01 2.937753e-01 3.053895e-01 1.607388e-01 2.273125e-01 2.007359e-01 1.915628e-01 2.197967e-01 2.308963e-01 1.597455e-01 2.095861e-01
<GCONST> 9.446308e+01
<MIXTURE> 2 5.516087e-01
<MEAN> 39
 9.589988e+00 -4.160506e+00 1.023409e+01 3.189725e+01 2.542189e+01 2.572843e+00 -1.745404e+01 3.686376e+00 -6.170669e-01 -1.152016e+01 3.754948e-01 -6.439864e+00 -1.064437e+01 -8.550280e-01 1.921480e+00 5.332537e-01 -1.189098e+00 -1.700551e+00 9.632657e-01 2.913396e+00 1.475785e-01 4.451614e-01 1.958375e+00 -1.001690e+00 -1.552391e-01 1.839408e+00 -1.469748e-01 4.243889e-02 2.025083e-01 -1.524667e-01 -2.462963e-02 1.265389e-01 -4.707199e-02 2.014203e-01 5.642030e-02 -1.398869e-01 7.214575e-02 8.468354e-02 5.405756e-03
<VARIANCE> 39
 1.201321e+01 4.168845e+01 3.827288e+01 4.456671e+01 2.809825e+01 5.984989e+01 4.332388e+01 5.597071e+01 3.438308e+01 3.467780e+01 3.239222e+01 3.219789e+01 2.056147e+01 5.649555e-01 2.820701e+00 1.672655e+00 2.207015e+00 1.873537e+00 2.128367e+00 2.785072e+00 2.648447e+00 2.215688e+00 2.234308e+00 2.478243e+00 1.256743e+00 1.484081e+00 6.927022e-02 1.862644e-01 1.882005e-01 2.418260e-01 2.419522e-01 2.359145e-01 3.140562e-01 2.970736e-01 2.490042e-01 2.881570e-01 2.211954e-01 2.242712e-01 1.815279e-01
<GCONST> 1.058772e+02
<TRANSP> 7
 0.000000e+00 1.000000e+00 0.000000e+00 0.000000e+00 0.000000e+00 0.000000e+00 0.000000e+00
 0.000000e+00 7.533380e-01 2.466620e-01 0.000000e+00 0.000000e+00 0.000000e+00 0.000000e+00
 0.000000e+00 0.000000e+00 7.489520e-01 2.510479e-01 0.000000e+00 0.000000e+00 0.000000e+00
 0.000000e+00 0.000000e+00 0.000000e+00 9.237388e-01 7.626119e-02 0.000000e+00 0.000000e+00
 0.000000e+00 0.000000e+00 0.000000e+00 0.000000e+00 7.669491e-01 2.330509e-01 0.000000e+00
 0.000000e+00 0.000000e+00 0.000000e+00 0.000000e+00 0.000000e+00 8.206319e-01 1.793682e-01
 0.000000e+00 0.000000e+00 0.000000e+00 0.000000e+00 0.000000e+00 0.000000e+00 0.000000e+00
<ENDHMM>
~h "jh"
<BEGINHMM>
<NUMSTATES> 5
<STATE> 2
<NUMMIXES> 2
<MIXTURE> 1 2.574639e-01
<MEAN> 39
 1.505449e+01 -1.517740e+00 1.456203e+00 1.701120e+01 1.403992e+01 2.927331e+00 -1.751211e+00 1.120480e+01 -1.778934e+01 -2.082340e+01 1.110523e+01 1.977375e+00 -4.879270e+00 -1.999023e+00 3.206462e+00 1.893363e+00 7.614903e-01 -3.363062e-01 2.162277e+00 2.300509e+00 -1.179010e+00 2.284945e+00 2.504946e+00 -3.607356e+00 -2.793363e-01 2.026273e+00 -2.133542e-01 -1.956626e-01 6.031091e-01 -3.124371e-02 -4.647766e-01 3.210886e-01 3.201045e-02 -5.455035e-02 5.205547e-01 1.881756e-01 -2.808133e-01 -8.150084e-02 3.693697e-01
<VARIANCE> 39
 1.225292e+01 3.574384e+01 1.984471e+01 1.289540e+01 3.689939e+00 2.441209e+01 1.423956e+01 1.968400e+01 5.102168e+01 2.306040e+01 9.405435e+01 4.502816e+00 2.297765e+01 5.558809e-01 1.187918e+00 1.923445e+00 1.176773e-01 1.300281e+00 5.776750e-01 1.472431e+00 6.455582e-01 5.517935e+00 2.113567e+00 3.493557e+00 2.595626e-01 1.858716e+00 5.335083e-02 6.116713e-01 1.767980e-01 7.073275e-02 6.988488e-02 1.018296e-01 8.513169e-02 8.864941e-02 1.408827e+00 6.102274e-01 1.039226e+00 6.726499e-02 5.927441e-01
<GCONST> 8.946420e+01
<MIXTURE> 2 7.425361e-01
<MEAN> 39
 2.839787e+00 5.388269e+00 1.770523e+01 2.051982e+01 8.334425e+00 1.372870e+01 4.192903e+00 3.521007e+00 -5.584582e+00 -1.023057e+01 -3.834320e+00 -5.506828e-01 2.484403e+00 -2.741823e+00 -2.220929e+00 3.698331e+00 2.778210e-01 -2.041165e+00 2.321600e+00 2.073114e-01 -8.256859e-01 1.922633e+00 9.164884e-01 1.207353e-01 -3.601720e-02 -3.815462e-01 -1.509085e-01 -1.750718e+00 4.054567e-02 -1.169485e-02 -2.590746e-01 -3.413963e-01 -4.739023e-01 8.247812e-01 9.618764e-02 -5.823318e-01 9.166319e-01 2.159410e-01 -5.545173e-01
<VARIANCE> 39
 2.744716e+01 4.097251e+01 5.769746e+01 4.445075e+01 1.235858e+01 3.387762e+01 1.577379e+01 1.407644e+01 2.970896e+01 2.555625e+01 2.020319e+01 1.420955e+01 1.526539e+01 9.884943e-01 8.855207e+00 2.088356e+00 1.152008e+00 1.418281e+00 1.842451e+00 2.157531e+00 3.244066e+00 1.333398e+00 2.816695e+00 2.940657e+00 1.349001e+00 2.037445e+00 6.529304e-02 2.573326e-01 2.667552e-01 2.112418e-01 1.381444e-01 6.279231e-01 3.123630e-01 4.318317e-01 3.236932e-01 6.030164e-01 2.066818e-01 3.586832e-01 2.760767e-01
<GCONST> 1.054429e+02
<STATE> 3
<NUMMIXES> 2
<MIXTURE> 1 5.169282e-01
<MEAN> 39
 -8.199343e+00 -1.754478e+01 3.044575e+01 2.138078e+01 -2.004872e+00 1.716265e+01 2.371504e+00 8.878842e+00 2.686697e+00 -1.067715e+01 3.848199e+00 1.887368e+00 -1.772547e+00 -2.210844e+00 -7.029435e+00 2.143438e+00 -9.039732e-01 -3.203586e+00 -6.122708e-01 -1.530159e+00 2.075797e+00 1.331837e+00 -8.057039e-01 2.399009e+00 1.407680e+00 -3.901050e-01 4.930770e-01 3.501054e-01 -6.335039e-01 -4.182967e-01 2.505790e-01 -2.734242e-01 -3.145676e-01 -3.960067e-01 -7.798893e-01 -2.557437e-02 -1.522280e-01 1.010603e-02 4.854719e-01
<VARIANCE> 39
 3.755143e+01 9.489030e+01 2.472348e+01 6.704847e+01 2.442878e+01 1.601591e+01 1.284134e+01 1.461100e+01 2.845766e+01 5.856119e+01 2.699138e+01 2.152024e+01 1.386588e+01 9.347273e-01 1.225000e+00 1.507199e+00 3.558045e+00 8.988495e-01 3.518785e+00 1.182612e+00 1.243937e+00 3.410600e+00 4.090402e+00 1.741756e+00 3.080888e+00 9.842261e-01 1.424436e-01 7.887366e-01 3.627810e-01 3.994750e-01 4.711482e-01 5.751106e-01 1.704891e-01 4.530176e-01 2.967775e-01 5.187992e-01 3.594604e-01 3.310985e-01 1.166791e-01
<GCONST> 1.084050e+02
<MIXTURE> 2 4.830717e-01
<MEAN> 39
 -1.074003e+01 -3.599887e+01 3.516469e+01 2.059715e+01 -8.255164e+00 1.641819e+01 -3.764884e+00 1.038521e+01 3.451651e+00 -1.342707e+01 8.905898e+00 6.537742e+00 -4.226655e-01 -1.408569e-01 -2.517255e+00 -5.344793e-01 -9.057656e-01 1.801657e-03 9.329300e-02 -1.728268e+00 -1.135907e+00 -1.060669e+00 3.269712e-01 8.247489e-01 1.197737e-01 4.048591e-01 6.529892e-01 1.555823e+00 -8.070211e-01 -8.534636e-02 8.072029e-01 -6.151068e-03 1.923559e-01 -6.427224e-01 -2.873113e-01 3.081936e-01 -6.701856e-01 -4.733587e-01 -1.271026e-01
<VARIANCE> 39
 3.672129e+01 5.286286e+01 2.235267e+01 5.705754e+01 2.125873e+01 3.489865e+01 1.715734e+01 1.018796e+01 2.413856e+01 5.765141e+01 8.484122e+00 1.345228e+01 1.254493e+01 1.771566e+00 4.097339e+00 2.949042e+00 2.320031e+00 2.899833e+00 2.104536e+00 1.342535e+00 1.142184e+00 6.781445e-01 4.216286e+00 1.440207e+00 1.307703e+00 6.981084e-01 1.142334e-01 3.276656e-01 5.319400e-01 2.763739e-01 4.115046e-01 4.262851e-01 3.192607e-01 2.284762e-01 2.359579e-01 7.200953e-01 2.135653e-01 2.308065e-01 8.778847e-02
<GCONST> 1.033663e+02
<STATE> 4
<NUMMIXES> 2
<MIXTURE> 1 7.049645e-01
<MEAN> 39
 3.356533e+00 -1.947198e+01 2.223303e+01 2.328202e+01 4.210759e+00 1.659688e+01 -4.193077e+00 2.435764e+00 -2.151300e+00 -1.257370e+01 5.515116e+00 3.644955e+00 -1.196657e+00 1.903451e+00 3.371081e+00 -2.161596e+00 4.506889e-02 1.605648e+00 -7.530450e-01 -5.654750e-02 -6.391697e-01 -4.987108e-01 5.273111e-01 -4.115104e-01 -3.883948e-01 1.016059e-01 -7.279458e-02 5.299421e-02 -9.989568e-02 -2.099024e-01 -5.500090e-02 -2.753320e-01 -1.850821e-01 1.122468e-01 3.845036e-02 1.017011e-01 6.640735e-02 -4.352518e-02 2.543154e-02
<VARIANCE> 39
 4.863755e+01 1.612500e+02 6.305285e+01 4.026583e+01 7.079215e+01 4.169914e+01 3.008705e+01 3.645126e+01 3.587699e+01 2.791028e+01 1.380594e+01 2.447021e+01 2.228221e+01 1.157107e+00 3.380663e+00 2.924417e+00 3.785062e+00 2.120199e+00 2.816761e+00 2.890867e+00 2.757009e+00 1.711297e+00 2.220016e+00 1.474500e+00 1.359591e+00 1.381438e+00 1.144751e-01 5.903213e-01 3.027538e-01 4.029427e-01 2.306481e-01 3.384389e-01 4.092458e-01 3.558984e-01 3.035270e-01 3.182156e-01 1.862803e-01 1.766278e-01 1.467547e-01
<GCONST> 1.123485e+02
<MIXTURE> 2 2.950353e-01
<MEAN> 39
 -1.536778e+01 -4.366236e+01 2.839724e+01 8.638908e+00 -1.007220e+01 1.092895e+01 -1.014237e+01 6.853629e+00 -2.071728e+00 -8.140481e+00 9.668312e+00 4.406853e+00 1.836640e+00 6.071712e-01 6.236155e-01 -1.246153e-01 1.789594e-01 3.374216e-01 4.236914e-03 3.407254e-01 -7.032105e-02 -1.672616e-01 -5.058545e-02 -2.551797e-01 -1.811967e-01 -1.150241e-02 2.110230e-01 5.303947e-01 1.211558e-01 5.293280e-01 3.181266e-01 2.844228e-01 4.405274e-01 1.403755e-01 1.565422e-01 -1.375509e-01 -1.154232e-01 4.291270e-02 -6.178443e-02
<VARIANCE> 39
 8.442089e+00 3.045908e+01 6.269023e+00 1.499931e+01 4.369191e+00 6.234782e+00 1.078555e+01 1.915226e+01 1.584938e+01 1.971245e+01 1.735934e+01 1.753156e+01 7.770148e+00 8.318486e-01 2.880146e+00 1.760858e+00 2.932230e+00 1.694384e+00 1.483274e+00 2.656564e+00 1.873783e+00 2.392757e+00 1.555632e+00 1.675654e+00 1.356450e+00 5.200887e-01 8.831944e-02 1.943215e-01 8.632234e-02 1.374898e-01 3.122107e-01 2.129906e-01 1.419401e-01 2.039552e-01 1.842656e-01 2.598306e-01 3.380971e-01 2.169358e-01 1.293049e-01
<GCONST> 8.799316e+01
<TRANSP> 5
 0.000000e+00 1.000000e+00 0.000000e+00 0.000000e+00 0.000000e+00
 0.000000e+00 8.342735e-01 1.657265e-01 0.000000e+00 0.000000e+00
 0.000000e+00 0.000000e+00 8.395195e-01 1.604805e-01 0.000000e+00
 0.000000e+00 0.000000e+00 0.000000e+00 9.171065e-01 8.289349e-02
 0.000000e+00 0.000000e+00 0.000000e+00 0.000000e+00 0.000000e+00
<ENDHMM>
~h "kh"
<BEGINHMM>
<NUMSTATES> 5
<STATE> 2
<NUMMIXES> 2
<MIXTURE> 1 2.146523e-01
<MEAN> 39
 -2.518065e+01 -6.602121e+00 -5.732981e+00 -2.479160e+00 -2.100137e+00 2.294019e+00 -2.414756e+00 2.485921e+00 -1.001337e+00 -8.262177e-01 -1.088217e-01 -8.647604e-01 1.184651e+00 2.892416e-02 -1.060616e+00 -1.151478e+00 -3.789257e-01 -3.801782e-01 -1.034170e+00 -9.643672e-01 -1.058682e-01 8.891436e-02 -3.959231e-01 -6.486748e-01 -1.892462e-01 4.407280e-02 6.943600e-01 1.292400e-01 2.010024e-01 2.793347e-01 2.131444e-01 1.920075e-01 2.057591e-01 3.573297e-01 3.621885e-02 -1.781707e-01 6.412098e-02 1.820600e-01 3.086959e-01
<VARIANCE> 39
 3.451024e+00 8.249949e+00 8.534639e+00 7.309711e+00 1.042634e+01 1.242886e+01 1.439039e+01 1.101376e+01 9.932897e+00 1.437156e+01 9.867430e+00 5.912975e+00 7.107120e+00 2.190597e+00 1.413599e+00 1.534449e+00 2.076006e+00 2.775776e+00 2.418427e+00 2.533065e+00 3.603177e+00 2.037277e+00 2.402112e+00 1.871972e+00 1.883284e+00 2.126102e+00 1.516971e-01 3.012495e-01 2.899902e-01 2.092247e-01 3.713293e-01 4.748986e-01 4.243929e-01 5.680152e-01 4.217455e-01 3.263964e-01 3.843574e-01 3.023953e-01 2.580817e-01
<GCONST> 9.554891e+01
<MIXTURE> 2 7.853476e-01
<MEAN> 39
 -5.235233e+00 4.480844e+00 5.524829e+00 1.699343e+01 1.709799e+01 8.228877e+00 -5.180243e+00 3.477329e+00 -7.180215e-01 -2.671539e+00 8.454629e-01 -1.027361e+00 1.575380e-01 -3.038431e+00 -8.389896e-01 -5.980554e-01 -1.967448e+00 -1.706811e+00 9.993135e-01 1.655526e+00 -5.371816e-01 -5.938714e-01 2.828221e-01 -7.396792e-01 2.451856e-01 1.313736e+00 2.871209e-01 -1.187916e+00 -8.133981e-01 -3.398238e-01 -1.474290e-01 -1.347515e-01 -2.833718e-01 6.846367e-02 -3.521549e-01 -4.411709e-01 3.769373e-01 -1.717882e-01 -3.764938e-01
<VARIANCE> 39
 4.038455e+01 6.645237e+00 1.136609e+01 5.365195e+01 5.145943e+01 1.546023e+01 4.549701e+01 3.307195e+01 2.997372e+01 2.508454e+01 2.161212e+01 3.761332e+01 3.176681e+01 4.257994e-01 3.778608e+00 2.312902e+00 1.637275e+00 2.068236e+00 2.467030e+00 3.048326e+00 2.405110e+00 2.431831e+00 2.383927e+00 2.124394e+00 1.611391e+00 2.301438e+00 1.780139e-01 2.944911e-01 2.605063e-01 2.593639e-01 3.911989e-01 3.987571e-01 3.527237e-01 4.286334e-01 6.023552e-01 4.660721e-01 4.322203e-01 3.033376e-01 4.442018e-01
<GCONST> 1.102065e+02
<STATE> 3
<NUMMIXES> 2
<MIXTURE> 1 3.728037e-01
<MEAN> 39
 -1.178593e+01 -7.111300e+00 -3.918250e+00 8.263185e+00 1.047249e+01 9.429369e+00 -1.765414e+00 3.838835e+00 -1.996394e+00 -3.742688e+00 -1.380934e+00 -2.198440e+00 3.548409e+00 3.893739e-01 -4.315532e+00 -3.708857e+00 -3.216391e+00 -2.754623e+00 -8.463230e-01 -7.273360e-01 -4.737231e-01 -1.022482e+00 -2.039647e-01 1.237269e+00 -4.528985e-01 2.637527e-01 1.072087e+00 -1.166422e-01 1.308955e-01 4.105804e-02 -1.600254e-01 -3.790000e-01 -9.251149e-01 -4.642954e-01 -5.945712e-01 -1.833465e-01 8.781920e-01 -2.044572e-01 -6.442496e-01
<VARIANCE> 39
 2.649431e+01 4.222325e+01 3.425006e+01 3.989619e+01 4.512336e+01 5.564653e+01 3.837859e+01 4.391639e+01 4.352031e+01 3.424650e+01 4.768459e+01 3.185684e+01 2.154580e+01 3.374494e+00 2.122706e+00 1.874653e+00 3.265604e+00 3.878625e+00 5.053834e+00 5.208520e+00 4.277076e+00 4.920909e+00 3.146629e+00 5.520742e+00 2.826774e+00 3.717861e+00 1.470685e-01 4.861693e-01 6.978518e-01 3.961245e-01 4.682807e-01 5.198731e-01 4.994493e-01 4.398030e-01 6.935160e-01 6.202048e-01 6.885932e-01 4.628133e-01 4.670205e-01
<GCONST> 1.259378e+02
<MIXTURE> 2 6.271964e-01
<MEAN> 39
 -3.590060e+00 -2.028514e+01 -1.170554e+01 -2.411636e+00 -2.432332e+00 3.776643e+00 -9.321851e+00 1.909279e-01 -1.186817e+01 -9.756256e+00 7.492160e+00 -5.244578e+00 -7.544212e-01 1.821691e+00 -1.890471e+00 5.108355e-01 -4.475307e-01 -1.450482e+00 5.556847e-02 -1.102924e+00 -9.296160e-01 -1.995577e+00 -1.072265e+00 2.037406e+00 -3.278650e-02 -4.985189e-01 -3.211507e-01 5.129532e-01 9.270551e-01 8.356063e-01 4.871349e-01 3.432112e-01 4.327379e-01 1.949824e-01 4.887690e-01 3.176414e-01 -2.900508e-01 2.982370e-01 2.811029e-01
<VARIANCE> 39
 4.598290e+01 6.602794e+01 2.779764e+01 6.894864e+01 1.065803e+02 1.546844e+02 1.233391e+02 1.029526e+02 6.893071e+01 6.685777e+01 9.183183e+01 4.348297e+01 2.261644e+01 2.129149e+00 2.578735e+00 4.435968e+00 4.428368e+00 2.514460e+00 3.607143e+00 3.711268e+00 2.954494e+00 4.632831e+00 3.708190e+00 4.005761e+00 2.488116e+00 2.680623e+00 3.533402e-01 3.182631e-01 4.646123e-01 4.779498e-01 3.637173e-01 5.599897e-01 5.239440e-01 4.635350e-01 8.771933e-01 7.874931e-01 8.116190e-01 3.331474e-01 4.617103e-01
<GCONST> 1.325224e+02
<STATE> 4
<NUMMIXES> 2
<MIXTURE> 1 6.731926e-01
<MEAN> 39
 -2.179487e+00 -2.531441e+01 1.680895e+00 1.336747e+01 5.918024e+00 1.233158e+01 -8.269698e+00 -2.926290e+00 -1.126353e+01 -5.018105e+00 1.447563e+01 -9.717957e-01 8.600425e-01 2.320327e-01 1.179706e+00 1.088871e+00 1.262508e+00 9.712418e-01 4.991002e-01 9.037635e-01 7.686932e-01 1.007037e+00 7.936034e-01 1.855605e-01 5.617932e-01 2.004080e-01 6.712663e-02 3.917244e-01 -1.892433e-01 -1.905801e-01 -2.171013e-02 -2.757019e-01 -7.553037e-02 1.502598e-01 1.400786e-01 -4.745820e-02 -1.713704e-01 -9.694049e-02 -8.757468e-02
<VARIANCE> 39
 3.214678e+01 9.536760e+01 4.067674e+01 1.019975e+02 1.284780e+02 2.165914e+02 1.283323e+02 5.479626e+01 5.282996e+01 5.214667e+01 4.058532e+01 5.749097e+01 2.799216e+01 1.237596e+00 5.908833e+00 2.366113e+00 2.516267e+00 3.203814e+00 5.108191e+00 2.882648e+00 2.999025e+00 2.831272e+00 2.256010e+00 3.026851e+00 1.446778e+00 1.439543e+00 1.164485e-01 3.125094e-01 3.018335e-01 2.932656e-01 3.750277e-01 5.548599e-01 4.915990e-01 4.264553e-01 4.946204e-01 4.695662e-01 3.576597e-01 2.196046e-01 2.213973e-01
<GCONST> 1.241754e+02
<MIXTURE> 2 3.268075e-01
<MEAN> 39
 8.383918e+00 -1.726826e+01 -1.267336e+01 -6.033102e+00 -1.646214e+01 -1.085221e+00 6.325961e+00 1.329511e+01 -1.668561e+00 -1.770223e+00 9.543237e+00 3.131359e+00 7.522710e+00 8.604570e-01 6.292583e-01 -2.611673e-01 5.435790e-01 3.885697e-01 -8.101152e-01 4.780418e-02 6.938087e-01 1.099536e+00 5.707968e-01 -4.319335e-01 -7.212044e-02 -1.694971e-01 7.301758e-02 5.913167e-02 1.812354e-02 5.749201e-02 1.903005e-01 -1.576573e-02 -1.846052e-01 -3.165262e-02 -1.181691e-01 -2.072400e-01 -8.408105e-03 -4.678121e-02 -1.509275e-01
<VARIANCE> 39
 4.782841e+01 3.337369e+01 2.336791e+01 7.216283e+01 1.340202e+02 3.929033e+01 3.960581e+01 6.520087e+01 5.850020e+01 9.624710e+01 7.739313e+01 2.955303e+01 1.506373e+01 7.408436e-01 1.749075e+00 2.104309e+00 2.603427e+00 4.545904e+00 3.442349e+00 2.385861e+00 1.679529e+00 2.154875e+00 2.360969e+00 1.725147e+00 1.299707e+00 1.541868e+00 5.138777e-02 1.713225e-01 3.016416e-01 3.538245e-01 3.896037e-01 5.269138e-01 4.467241e-01 2.854063e-01 3.187025e-01 2.993031e-01 2.997122e-01 2.453898e-01 1.889554e-01
<GCONST> 1.137184e+02
<TRANSP> 5
 0.000000e+00 1.000000e+00 0.000000e+00 0.000000e+00 0.000000e+00
 0.000000e+00 7.709734e-01 2.290266e-01 0.000000e+00 0.000000e+00
 0.000000e+00 0.000000e+00 8.633559e-01 1.366442e-01 0.000000e+00
 0.000000e+00 0.000000e+00 0.000000e+00 9.225675e-01 7.743250e-02
 0.000000e+00 0.000000e+00 0.000000e+00 0.000000e+00 0.000000e+00
<ENDHMM>
~h "mq"
<BEGINHMM>
<NUMSTATES> 5
<STATE> 2
<NUMMIXES> 2
<MIXTURE> 1 1.000000e+00
<MEAN> 39
 2.212549e+01 -5.983755e+00 -1.094415e+01 -3.438364e+00 1.246274e+00 -4.338117e+00 -1.618999e+00 2.653760e+01 -3.974180e+00 -1.893964e+01 1.081504e+01 -3.736338e-01 -7.443115e+00 -9.012474e-02 8.238761e-02 6.394015e-01 1.702021e-01 2.343912e-01 6.363159e-01 -2.912704e-02 -4.877041e-01 -8.349116e-01 -7.381407e-02 7.285869e-01 -1.823311e-01 -8.979619e-02 3.156067e-04 1.132401e-02 4.966251e-03 9.969755e-02 5.701740e-02 -1.850559e-02 -3.291717e-02 -5.928794e-02 -1.922912e-02 4.075555e-02 -1.184371e-02 -5.120798e-03 2.030226e-02
<VARIANCE> 39
 6.521485e+00 1.564600e+01 2.713230e+01 3.557344e+01 2.534508e+01 4.271980e+01 3.062120e+01 4.427875e+01 3.664358e+01 2.637556e+01 4.899290e+01 1.308594e+01 7.208420e+00 4.941526e-01 4.915047e-01 4.957312e-01 8.665506e-01 7.474619e-01 7.825229e-01 1.665402e+00 1.940563e+00 5.649428e-01 9.438391e-01 1.362437e+00 5.753360e-01 2.903308e-01 7.682711e-02 7.264977e-02 6.480156e-02 9.878142e-02 7.910736e-02 1.045239e-01 1.911459e-01 2.751278e-01 8.506493e-02 1.463768e-01 2.062315e-01 9.224575e-02 4.964710e-02
<GCONST> 7.962305e+01
<MIXTURE> 2 0.000000e+00
<MEAN> 39
 -9.685755e-07 -6.519258e-07 -1.657754e-07 6.034970e-07 1.440640e-09 1.266599e-07 -8.195639e-08 7.823110e-08 2.533197e-07 1.257285e-08 1.639128e-07 7.078052e-07 2.328306e-08 3.019522e-10 -4.656613e-09 -1.216540e-08 1.164153e-10 1.781154e-08 1.982698e-10 -3.026798e-09 5.587935e-09 -1.746230e-09 4.097819e-08 2.363231e-08 1.315493e-08 -2.043089e-08 -3.744487e-03 2.978991e-04 -4.746468e-04 6.844162e-05 -1.603577e-04 -3.450464e-05 5.754238e-05 -8.061554e-05 1.271995e-04 -1.902887e-04 4.669849e-05 -1.564687e-04 -6.364408e-05
<VARIANCE> 39
 0.000000e+00 0.000000e+00 0.000000e+00 0.000000e+00 0.000000e+00 9.313226e-09 0.000000e+00 3.492460e-10 0.000000e+00 1.473381e-10 1.781154e-08 0.000000e+00 0.000000e+00 0.000000e+00 0.000000e+00 0.000000e+00 2.110312e-12 0.000000e+00 0.000000e+00 1.409717e-11 0.000000e+00 1.318767e-11 3.419700e-10 0.000000e+00 0.000000e+00 0.000000e+00 1.827128e-03 6.024704e-05 5.945166e-05 2.794358e-05 3.412523e-05 3.360989e-05 3.020229e-05 3.188291e-05 2.277736e-05 2.193036e-05 1.852728e-05 2.304439e-05 1.544051e-05
<GCONST> -1.800000e+11
<STATE> 3
<NUMMIXES> 2
<MIXTURE> 1 1.000000e+00
<MEAN> 39
 1.941368e+01 -2.675660e+00 -2.268934e+00 4.758402e+00 8.488122e+00 3.930751e+00 -3.555167e+00 1.517684e+01 -1.172525e+01 -1.692842e+01 1.406022e+01 -2.649367e+00 -6.189859e+00 -1.161416e+00 2.202376e+00 1.289282e+00 1.756175e+00 1.014752e+00 9.955899e-01 1.046223e+00 -1.851014e+00 4.636028e-01 9.465306e-01 -3.007684e+00 -2.466266e-01 6.684570e-01 -2.926935e-01 4.002359e-01 2.289575e-01 6.821325e-02 -7.283203e-03 1.081961e-01 1.266285e-01 2.885473e-02 3.810050e-01 2.008617e-02 -7.523280e-01 -7.155019e-02 2.184609e-01
<VARIANCE> 39
 5.051174e+00 2.720276e+01 2.670867e+01 2.317690e+01 3.950052e+01 3.409911e+01 5.239363e+01 5.597627e+01 2.924025e+01 1.594547e+01 7.927547e+01 1.793132e+01 1.099732e+01 7.078801e-01 1.220051e+00 1.173722e+00 8.510438e-01 6.213021e-01 1.338035e+00 2.476995e+00 8.499225e-01 2.038057e+00 6.234472e-01 4.229760e+00 7.899489e-01 5.130352e-01 4.978598e-02 1.063578e-01 1.327657e-01 1.441224e-01 1.257488e-01 1.062271e-01 4.821663e-01 1.527376e-01 2.009144e-01 1.327655e-01 4.610565e-01 1.100275e-01 7.120305e-02
<GCONST> 8.984098e+01
<MIXTURE> 2 0.000000e+00
<MEAN> 39
 1.769513e-08 2.514571e-08 -9.313226e-09 1.443550e-08 7.078052e-08 3.911555e-08 -6.798655e-08 3.725290e-09 -1.192093e-07 4.773028e-08 -2.095476e-08 3.818423e-08 3.492460e-09 -1.477929e-11 -3.783498e-10 1.746230e-10 1.011358e-09 1.149601e-09 4.911271e-10 2.779416e-09 1.760782e-09 3.929017e-10 5.966285e-10 -5.209586e-09 2.590241e-09 4.249159e-09 -2.047057e-02 1.739704e-03 -2.860196e-03 4.944406e-04 -9.179143e-04 -4.275220e-04 -1.494129e-04 -1.110907e-03 -5.215620e-04 -1.377407e-03 -4.617415e-04 -8.713729e-04 -4.312473e-04
<VARIANCE> 39
 0.000000e+00 1.964509e-09 0.000000e+00 3.888090e-11 0.000000e+00 0.000000e+00 0.000000e+00 0.000000e+00 1.804437e-09 3.074092e-10 3.783498e-10 0.000000e+00 3.836931e-13 0.000000e+00 2.060574e-13 0.000000e+00 1.962874e-13 1.108447e-12 1.085798e-13 0.000000e+00 8.490986e-13 0.000000e+00 0.000000e+00 4.021672e-12 0.000000e+00 1.989520e-13 1.418590e-02 4.708500e-04 6.059122e-04 2.832045e-04 2.438255e-04 1.964814e-04 2.386844e-04 2.203498e-04 2.247814e-04 1.830704e-04 2.037936e-04 1.436218e-04 1.237932e-04
<GCONST> -1.300000e+11
<STATE> 4
<NUMMIXES> 2
<MIXTURE> 1 1.000000e+00
<MEAN> 39
 8.477107e+00 9.569338e+00 9.147000e+00 1.401403e+01 1.075696e+01 1.072646e+01 1.524616e+00 5.100752e+00 -6.891656e+00 -1.220808e+01 -5.679450e+00 -3.814908e+00 9.190625e-01 -2.619288e+00 -2.421267e-01 3.019403e+00 1.265123e+00 -1.367199e+00 1.157244e+00 6.874777e-01 -1.019099e+00 5.255722e-01 5.080679e-01 -1.270180e+00 -9.630188e-02 1.091490e+00 -1.900079e-01 -1.380088e+00 5.748017e-02 -1.532972e-01 -4.993051e-01 -1.190124e-01 -2.565625e-01 3.634295e-01 1.578394e-02 -1.625346e-01 9.243124e-01 1.506030e-01 -2.099209e-01
<VARIANCE> 39
 3.225085e+01 2.376670e+01 5.999089e+01 7.352092e+00 4.533984e+01 2.794479e+01 1.985829e+01 3.544413e+01 1.500969e+01 1.936858e+01 2.820875e+01 7.876471e+00 1.730990e+01 8.820199e-01 1.134664e+01 1.211248e+00 7.463945e-01 2.976583e+00 6.573332e-01 1.456798e+00 1.704409e+00 2.080788e+00 2.317020e+00 5.248200e+00 7.013974e-01 1.029677e+00 8.379911e-02 5.532185e-01 3.313823e-01 1.593479e-01 3.361628e-01 1.621052e-01 3.209162e-01 1.961017e-01 3.505483e-01 4.038222e-01 3.176886e-01 1.000678e-01 2.099168e-01
<GCONST> 1.000725e+02
<MIXTURE> 2 0.000000e+00
<MEAN> 39
 0.000000e+00 0.000000e+00 0.000000e+00 0.000000e+00 0.000000e+00 0.000000e+00 0.000000e+00 0.000000e+00 0.000000e+00 0.000000e+00 0.000000e+00 0.000000e+00 0.000000e+00 0.000000e+00 0.000000e+00 0.000000e+00 0.000000e+00 0.000000e+00 0.000000e+00 0.000000e+00 0.000000e+00 0.000000e+00 0.000000e+00 0.000000e+00 0.000000e+00 0.000000e+00 -7.323198e-02 1.123042e-02 -1.038370e-02 1.682460e-03 -2.594927e-03 -1.410091e-03 -1.503533e-03 -3.022441e-03 -2.858302e-03 -3.888699e-03 -2.411382e-03 -1.670942e-03 -2.166644e-03
<VARIANCE> 39
 0.000000e+00 0.000000e+00 0.000000e+00 0.000000e+00 0.000000e+00 0.000000e+00 0.000000e+00 0.000000e+00 0.000000e+00 0.000000e+00 0.000000e+00 0.000000e+00 0.000000e+00 0.000000e+00 0.000000e+00 0.000000e+00 0.000000e+00 0.000000e+00 0.000000e+00 0.000000e+00 0.000000e+00 0.000000e+00 0.000000e+00 0.000000e+00 0.000000e+00 0.000000e+00 6.110287e-02 6.616157e-03 5.196090e-03 3.621858e-03 3.050250e-03 4.287072e-03 4.344802e-03 3.931833e-03 3.373807e-03 2.996578e-03 2.947920e-03 2.834462e-03 2.042745e-03
<GCONST> -2.600001e+11
<TRANSP> 5
 0.000000e+00 1.000000e+00 0.000000e+00 0.000000e+00 0.000000e+00
 0.000000e+00 9.345803e-01 6.541971e-02 0.000000e+00 0.000000e+00
 0.000000e+00 0.000000e+00 7.697139e-01 2.302861e-01 0.000000e+00
 0.000000e+00 0.000000e+00 0.000000e+00 7.925607e-01 2.074392e-01
 0.000000e+00 0.000000e+00 0.000000e+00 0.000000e+00 0.000000e+00
<ENDHMM>
~h "nj"
<BEGINHMM>
<NUMSTATES> 5
<STATE> 2
<NUMMIXES> 2
<MIXTURE> 1 6.448376e-01
<MEAN> 39
 2.500529e+00 4.883284e+00 9.640644e+00 7.663284e+00 8.983262e+00 1.102280e+00 -1.110930e+01 -4.794134e+00 -1.288087e+00 -5.336167e+00 -8.651181e+00 -5.994543e+00 -4.689224e+00 -8.037093e-03 3.616399e-01 2.282659e-01 1.904264e-01 -7.341486e-02 2.493188e-01 -1.645973e-01 1.039757e-01 1.836264e-01 -2.358938e-02 -1.693905e-01 -2.100465e-01 6.134257e-02 -2.933799e-02 -8.245458e-02 -2.934181e-02 -2.555616e-02 -3.167558e-02 -6.560107e-02 9.943750e-02 4.022849e-02 -2.891495e-02 -3.393753e-02 8.488162e-02 6.642201e-02 -4.307508e-02
<VARIANCE> 39
 2.984620e+01 6.743415e+01 3.440329e+01 6.486826e+01 9.630917e+01 1.111856e+02 7.206052e+01 3.914428e+01 4.361893e+01 6.400179e+01 5.133936e+01 4.753320e+01 6.246100e+01 3.205257e-01 9.356377e-01 8.799419e-01 1.011097e+00 1.131665e+00 1.602336e+00 1.676275e+00 1.622988e+00 1.393007e+00 1.544790e+00 1.534638e+00 1.262773e+00 1.005133e+00 5.129976e-02 1.324087e-01 1.310566e-01 1.649362e-01 1.886846e-01 2.602298e-01 2.799097e-01 2.472048e-01 2.361487e-01 2.447439e-01 2.395605e-01 1.899032e-01 1.721881e-01
<GCONST> 1.035840e+02
<MIXTURE> 2 3.551624e-01
<MEAN> 39
 2.709807e+00 8.928315e+00 1.147999e+01 -1.502002e+00 5.525277e+00 -1.202266e+01 -1.337622e+01 -2.554715e-01 -4.602529e+00 -1.768139e+01 -1.319073e+01 -1.517253e+01 -1.372431e+01 -3.641024e-02 1.717343e-01 7.861748e-02 2.967181e-02 -1.046537e-01 -5.441139e-03 -2.671677e-02 6.079637e-02 1.669364e-01 -1.932618e-01 -2.864245e-01 5.561825e-02 9.325963e-02 -4.810160e-02 -6.521460e-02 -1.482642e-02 1.193514e-02 -1.650132e-02 -1.109369e-02 1.465435e-01 -1.707742e-01 -4.778483e-02 1.308504e-01 6.270327e-02 7.036697e-02 2.437993e-02
<VARIANCE> 39
 2.806140e+00 1.555293e+01 1.314208e+01 1.840736e+01 2.262506e+01 2.127437e+01 3.199649e+01 3.318005e+01 3.093358e+01 4.198512e+01 4.848846e+01 2.774301e+01 2.260729e+01 5.275457e-02 2.340834e-01 2.735551e-01 3.459295e-01 4.041417e-01 4.254854e-01 6.606404e-01 7.842113e-01 6.592637e-01 7.675110e-01 6.076438e-01 6.638942e-01 4.363255e-01 1.427971e-02 5.345663e-02 5.262011e-02 7.491710e-02 9.308103e-02 1.030196e-01 1.470128e-01 1.566586e-01 1.284100e-01 1.334793e-01 1.117656e-01 1.170488e-01 9.097067e-02
<GCONST> 6.805726e+01
<STATE> 3
<NUMMIXES> 2
<MIXTURE> 1 5.768365e-01
<MEAN> 39
 -1.650130e+00 4.293084e+00 1.251531e+01 7.997261e+00 8.073728e+00 -5.246037e-01 -5.022378e+00 -3.656913e+00 -1.169887e+00 -5.260289e+00 -6.472120e+00 -5.230941e+00 -5.362416e+00 -2.457572e-01 -1.055694e+00 5.425199e-02 6.005565e-02 -8.472940e-02 -6.629400e-01 5.229853e-01 -3.181231e-01 -3.388248e-01 -7.298808e-02 3.639769e-01 1.593710e-01 -1.386185e-01 1.520792e-02 -1.310300e-01 -6.702862e-02 -3.907461e-02 5.318189e-02 -1.073812e-01 -1.160357e-01 4.202005e-03 -2.860112e-02 -1.644950e-02 3.863433e-02 3.098836e-02 1.592401e-03
<VARIANCE> 39
 3.918433e+01 6.900724e+01 3.661243e+01 5.426512e+01 7.157546e+01 9.625215e+01 7.617765e+01 5.381805e+01 4.801081e+01 6.558137e+01 4.535140e+01 4.882023e+01 3.880204e+01 1.803826e+00 4.185937e+00 2.995981e+00 3.165112e+00 2.961892e+00 4.166068e+00 5.236826e+00 3.490489e+00 2.493116e+00 2.927037e+00 2.647161e+00 2.256471e+00 1.742612e+00 2.675167e-01 6.951686e-01 5.092847e-01 5.361979e-01 4.958111e-01 6.914724e-01 8.867679e-01 5.816731e-01 4.441610e-01 4.559211e-01 3.934963e-01 3.435938e-01 2.966835e-01
<GCONST> 1.282403e+02
<MIXTURE> 2 4.231635e-01
<MEAN> 39
 1.295004e+01 -1.990565e+00 1.135198e+01 1.051720e+01 -6.057696e+00 5.887888e+00 -1.010513e+01 -1.137384e+01 1.444680e+00 -1.270348e+01 -1.434898e+01 -7.786644e+00 -1.003824e+01 -9.293678e-02 2.690157e-01 1.644063e-01 -4.434790e-02 4.908991e-03 -1.315278e-02 2.359147e-02 2.516896e-02 3.590895e-02 -1.700219e-02 -1.722138e-01 -5.740685e-02 3.323376e-02 -9.219238e-03 -9.527378e-02 1.038478e-02 5.471010e-02 -4.705711e-02 -1.766123e-03 5.385786e-02 9.632568e-03 -1.593223e-02 1.461344e-02 6.699349e-02 4.784431e-02 -4.166522e-02
<VARIANCE> 39
 3.856699e+00 2.329041e+01 2.029645e+01 2.178050e+01 2.279533e+01 2.924805e+01 4.529770e+01 3.117255e+01 4.292793e+01 9.096780e+01 3.922691e+01 2.936979e+01 2.970384e+01 1.036110e-01 3.492112e-01 2.670597e-01 3.809765e-01 4.285590e-01 5.403163e-01 4.986794e-01 4.888597e-01 5.781164e-01 5.797477e-01 5.508767e-01 4.750876e-01 4.293715e-01 1.962212e-02 7.488119e-02 4.759888e-02 7.101423e-02 9.162906e-02 9.864736e-02 9.496345e-02 9.101721e-02 1.042438e-01 1.084253e-01 8.732623e-02 8.894771e-02 7.543494e-02
<GCONST> 6.937938e+01
<STATE> 4
<NUMMIXES> 2
<MIXTURE> 1 6.193125e-01
<MEAN> 39
 1.028075e+01 -1.288878e+01 1.373863e+01 1.291313e+01 -1.063704e+01 3.015265e+00 -1.051210e+01 -9.272548e+00 1.731557e+00 -1.466234e+01 -7.812191e+00 -3.781766e+00 -1.403609e+01 -1.313824e-01 -1.218131e+00 -2.753857e-02 8.111192e-02 -5.507110e-01 -1.762661e-01 1.277021e-02 -2.771645e-02 9.013085e-02 -2.377615e-02 5.405732e-01 4.540587e-01 -2.427453e-01 1.725942e-02 3.638613e-02 -6.293325e-02 -6.635727e-02 3.109851e-02 -2.954077e-03 -4.337660e-02 -9.599536e-03 -1.934156e-02 8.019480e-03 4.517408e-03 -5.125827e-03 2.411142e-02
<VARIANCE> 39
 5.360118e+01 1.147594e+02 5.651950e+01 4.958639e+01 6.452203e+01 8.099206e+01 6.030843e+01 4.255379e+01 4.687903e+01 6.013706e+01 5.901341e+01 4.074115e+01 4.006900e+01 1.196394e+00 4.081296e+00 2.274762e+00 1.764822e+00 2.229019e+00 2.915065e+00 2.342601e+00 1.784886e+00 1.712513e+00 1.735224e+00 1.473653e+00 1.255965e+00 1.251955e+00 1.512755e-01 5.907288e-01 2.923045e-01 2.467913e-01 3.750200e-01 4.103101e-01 3.571459e-01 2.759851e-01 2.797883e-01 2.719341e-01 2.224235e-01 2.094979e-01 1.860853e-01
<GCONST> 1.158219e+02
<MIXTURE> 2 3.806876e-01
<MEAN> 39
 7.986883e-01 -2.793469e+00 4.055068e+00 2.384333e+00 1.088714e+01 -1.595118e+01 -9.973896e+00 -5.408926e+00 -6.926043e+00 -7.952407e+00 -2.742266e+00 -4.678221e+00 -8.477713e+00 1.703769e-01 -3.709843e-01 -7.981473e-01 -6.735662e-01 5.414159e-02 -6.422171e-01 -1.553994e-01 1.988008e-01 -1.845535e-01 -3.992972e-03 4.756051e-01 5.521997e-01 5.975723e-02 -9.899956e-03 9.672721e-02 2.898581e-02 -8.035121e-02 -5.190688e-02 1.995320e-01 1.440018e-01 3.425548e-02 4.790647e-02 -3.596259e-02 -8.568133e-02 2.389571e-02 3.080674e-02
<VARIANCE> 39
 9.078952e+00 3.836557e+01 4.360814e+01 6.360629e+01 1.041817e+02 1.081912e+02 7.833575e+01 4.377275e+01 4.398346e+01 6.020568e+01 4.762598e+01 8.173207e+01 5.883461e+01 1.580081e-01 6.745912e-01 6.551996e-01 1.306109e+00 1.275327e+00 2.599120e+00 1.752467e+00 1.489350e+00 1.622001e+00 1.614136e+00 1.536328e+00 1.120704e+00 1.123707e+00 2.352860e-02 7.751360e-02 8.667944e-02 1.638183e-01 1.665535e-01 2.938957e-01 2.637431e-01 2.522829e-01 2.238973e-01 2.590835e-01 2.209582e-01 1.880653e-01 1.505378e-01
<GCONST> 1.003273e+02
<TRANSP> 5
 0.000000e+00 1.000000e+00 0.000000e+00 0.000000e+00 0.000000e+00
 0.000000e+00 8.560609e-01 1.439391e-01 0.000000e+00 0.000000e+00
 0.000000e+00 0.000000e+00 8.582612e-01 1.417388e-01 0.000000e+00
 0.000000e+00 0.000000e+00 0.000000e+00 8.322633e-01 1.677367e-01
 0.000000e+00 0.000000e+00 0.000000e+00 0.000000e+00 0.000000e+00
<ENDHMM>
~h "nx"
<BEGINHMM>
<NUMSTATES> 5
<STATE> 2
<NUMMIXES> 2
<MIXTURE> 1 1.000000e+00
<MEAN> 39
 2.279268e+01 7.018108e-01 -1.348652e+01 -7.755268e+00 1.524591e+01 1.159950e+01 -1.521194e+01 4.090245e+00 -6.242164e+00 -1.543175e+01 8.276167e+00 -1.150302e+00 -3.493251e+00 -1.079733e-01 2.873997e-01 2.330294e-01 2.051406e-01 -2.170112e-02 2.124946e-01 7.767652e-01 1.462462e-01 -2.576557e-01 -2.530429e-01 -3.709705e-01 1.293125e-02 -9.122368e-02 -7.326259e-02 2.793630e-02 1.332233e-01 2.291891e-01 -1.009044e-02 -7.400354e-02 1.089963e-01 2.691035e-02 -5.090818e-04 -1.170832e-02 -1.297890e-01 -4.504799e-03 1.079220e-02
<VARIANCE> 39
 1.463850e+01 1.062004e+01 2.190245e+01 3.232418e+01 1.708434e+01 1.716434e+01 5.080234e+01 4.013438e+01 1.591261e+01 2.506740e+01 2.326854e+01 8.474486e+00 1.004897e+01 4.038841e-01 3.568156e-01 7.578828e-01 1.781887e+00 5.854931e-01 8.054175e-01 2.603781e+00 1.662145e+00 6.409806e-01 1.387098e+00 1.762455e+00 6.192636e-01 4.403167e-01 6.926356e-02 5.950956e-02 1.426870e-01 1.356661e-01 9.954043e-02 1.214474e-01 2.954111e-01 2.645663e-01 8.930675e-02 2.514850e-01 1.738645e-01 1.226901e-01 6.232440e-02
<GCONST> 8.157418e+01
<MIXTURE> 2 0.000000e+00
<MEAN> 39
 1.361686e+01 -1.383072e+00 7.618060e+00 1.232223e+01 -2.383529e+00 8.959254e+00 -1.035662e+01 -1.021862e+01 8.851387e+00 -8.332142e+00 -1.389112e+01 -1.311377e+00 -7.191798e+00 -1.457334e-01 3.850303e-01 1.832990e-01 7.829956e-02 1.980715e-01 -5.036991e-02 -1.340757e-01 -1.179461e-01 -3.900307e-02 1.584407e-01 2.003755e-02 -8.778737e-02 -5.617338e-02 -8.385319e-04 -4.167615e-02 -5.001837e-02 5.873689e-03 7.726591e-03 -9.950018e-03 4.415042e-02 -3.027088e-03 -5.418176e-02 3.586245e-02 5.732016e-02 -7.334471e-04 -7.240163e-03
<VARIANCE> 39
 2.374427e+00 2.125168e+01 1.217588e+01 1.771664e+01 1.535122e+01 2.714209e+01 2.611153e+01 3.003095e+01 4.948417e+01 3.589555e+01 2.532868e+01 2.865796e+01 2.461707e+01 5.158678e-02 1.692707e-01 2.307495e-01 3.434558e-01 3.976840e-01 4.632231e-01 5.185775e-01 4.969022e-01 5.959083e-01 6.742363e-01 5.816705e-01 4.702742e-01 4.794611e-01 8.847732e-03 2.771878e-02 3.858319e-02 5.424614e-02 6.815128e-02 7.742334e-02 8.735045e-02 8.348746e-02 1.017274e-01 9.737392e-02 8.988705e-02 7.854709e-02 8.157872e-02
<GCONST> 6.095366e+01
<STATE> 3
<NUMMIXES> 2
<MIXTURE> 1 2.257242e-01
<MEAN> 39
 1.479392e+01 8.825377e+00 5.768808e+00 2.167711e+01 2.436256e+01 6.325503e+00 -1.577936e+01 -1.072366e+01 -7.738700e+00 -6.747586e+00 -3.178886e+00 -5.336026e+00 -3.535025e+00 -1.162802e-01 3.334256e-01 2.850978e-01 -2.312649e-01 -4.135216e-01 1.578831e-01 4.475977e-01 -1.285663e-01 -5.833246e-02 3.348254e-01 -2.004400e-01 -3.276088e-01 1.136090e-01 4.621855e-03 -1.926344e-01 -1.101243e-01 -1.238560e-01 -3.056159e-03 8.592913e-02 1.086310e-01 3.976933e-01 3.828324e-02 -2.325360e-01 1.016505e-01 2.392956e-02 -5.677163e-02
<VARIANCE> 39
 2.432788e+00 1.261217e+01 1.278726e+01 8.498446e+00 1.351003e+01 7.628881e+00 1.410864e+01 2.101418e+01 1.367167e+01 2.753424e+01 1.190335e+01 1.621064e+01 4.764803e+00 1.025985e-01 3.850477e-01 2.827177e-01 6.951630e-01 7.723587e-01 3.412421e-01 7.088294e-01 1.085679e+00 4.375159e-01 9.579212e-01 6.624736e-01 8.010065e-01 3.238350e-01 2.719592e-02 8.939112e-02 5.056763e-02 1.910464e-01 1.396473e-01 9.396762e-02 1.519666e-01 1.945033e-01 8.583394e-02 1.950030e-01 1.136125e-01 1.494984e-01 5.171124e-02
<GCONST> 6.414510e+01
<MIXTURE> 2 7.742757e-01
<MEAN> 39
 1.869364e+01 3.947528e+00 -4.359545e+00 8.430431e+00 1.647472e+01 8.456900e+00 -4.637295e+00 4.680259e+00 -8.739651e+00 -1.744873e+01 -2.656406e+00 -3.022969e+00 -4.269162e+00 -8.721720e-02 -4.837827e-01 4.864512e-01 7.560822e-01 -8.537009e-02 -7.234235e-01 -2.935899e-01 4.411154e-01 -1.373666e-01 -1.830156e-01 5.147154e-01 -1.880095e-01 -4.310894e-01 1.519698e-01 -2.351071e-01 -2.375453e-01 -4.112675e-01 -8.204202e-02 2.174666e-02 -2.872904e-01 9.390094e-02 -1.390207e-01 -6.826407e-02 6.344555e-01 1.160674e-01 -1.167006e-01
<VARIANCE> 39
 1.807561e+01 1.274442e+01 2.365451e+01 4.452022e+01 2.410682e+01 2.004412e+01 2.585421e+01 4.246474e+01 1.324980e+01 2.180389e+01 2.474575e+01 1.114945e+01 1.475464e+01 7.655958e-01 1.047808e+00 2.501607e+00 5.859603e+00 1.593418e+00 1.096263e+00 2.239109e+00 2.801383e+00 1.091381e+00 2.063701e+00 5.070456e+00 1.246253e+00 7.062886e-01 7.072393e-02 9.870022e-02 2.197254e-01 4.162265e-01 2.077648e-01 1.531557e-01 3.515602e-01 3.604686e-01 1.666487e-01 3.632511e-01 2.380146e-01 1.890267e-01 1.136430e-01
<GCONST> 9.745156e+01
<STATE> 4
<NUMMIXES> 2
<MIXTURE> 1 1.636692e-01
<MEAN> 39
 1.157463e+01 -1.209570e+01 1.845375e+00 3.528047e+01 3.439346e+01 -1.028583e+00 -2.560121e+01 4.227970e+00 -8.364200e+00 -1.803864e+01 8.795876e+00 -2.999487e+00 -1.298726e+01 -4.921745e-02 1.330096e-01 -1.914993e-01 5.752189e-02 9.080057e-02 -1.890404e-01 -1.003539e-01 -2.288767e-01 -1.017263e-01 -3.817168e-02 -2.201691e-01 5.476183e-02 6.607333e-02 -8.749972e-02 6.321912e-02 4.545221e-02 -9.043278e-02 -1.377014e-01 2.827191e-02 1.056939e-01 -4.960517e-02 7.111567e-02 1.287260e-01 -1.035213e-01 -3.206600e-02 1.096101e-01
<VARIANCE> 39
 1.122900e+01 2.049586e+01 3.041965e+01 6.823019e+01 4.133033e+01 1.688006e+01 8.966275e+01 7.281155e+01 3.160207e+01 6.061789e+01 4.527618e+01 1.835231e+01 1.813790e+01 9.620004e-01 1.146377e+00 1.497192e+00 2.365133e+00 2.934538e+00 7.269844e-01 3.161619e+00 2.087414e+00 1.533208e+00 3.341601e+00 2.261990e+00 7.482889e-01 1.252884e+00 1.368107e-01 1.767214e-01 1.968371e-01 3.312779e-01 4.475623e-01 1.292991e-01 4.472338e-01 3.089199e-01 2.646461e-01 5.020139e-01 3.472876e-01 1.143624e-01 1.958471e-01
<GCONST> 1.055001e+02
<MIXTURE> 2 8.363308e-01
<MEAN> 39
 1.464920e+01 3.729583e+00 2.732701e+00 1.148599e+01 1.432880e+01 5.799563e+00 -8.236954e+00 3.216558e+00 -1.437104e+01 -1.549355e+01 9.864951e+00 -2.432778e+00 -9.851020e+00 -9.563224e-01 6.995357e-01 1.069829e+00 4.662372e-01 -1.910438e-01 1.889814e-01 2.703659e-01 -2.930649e-01 2.033567e-01 5.711226e-01 -3.643330e-01 -1.305074e-01 2.969816e-01 -1.464815e-01 6.938742e-02 6.371377e-02 6.915735e-02 3.030732e-02 6.035856e-02 1.002389e-01 -9.955669e-03 1.691507e-01 9.706592e-02 -2.450012e-01 -1.465630e-02 1.118325e-01
<VARIANCE> 39
 6.584249e+01 7.777328e+01 6.595110e+01 4.760543e+01 3.070912e+01 3.383677e+01 3.198260e+01 8.709616e+01 3.814837e+01 4.578484e+01 1.148478e+02 1.768273e+01 3.257148e+01 1.283389e+00 3.141504e+00 1.861159e+00 2.096910e+00 1.619274e+00 1.591929e+00 2.167190e+00 3.647670e+00 2.515499e+00 2.181201e+00 9.468078e+00 1.048714e+00 2.168755e+00 8.123346e-02 3.367763e-01 3.055936e-01 3.041883e-01 2.270269e-01 2.432532e-01 2.589639e-01 4.666105e-01 2.727495e-01 3.279396e-01 8.699203e-01 1.593523e-01 2.416708e-01
<GCONST> 1.154615e+02
<TRANSP> 5
 0.000000e+00 1.000000e+00 0.000000e+00 0.000000e+00 0.000000e+00
 0.000000e+00 9.172906e-01 8.270935e-02 0.000000e+00 0.000000e+00
 0.000000e+00 0.000000e+00 8.846226e-01 1.153775e-01 0.000000e+00
 0.000000e+00 0.000000e+00 0.000000e+00 9.010724e-01 9.892757e-02
 0.000000e+00 0.000000e+00 0.000000e+00 0.000000e+00 0.000000e+00
<ENDHMM>
~h "ou"
<BEGINHMM>
<NUMSTATES> 7
<STATE> 2
<NUMMIXES> 2
<MIXTURE> 1 0.000000e+00
<MEAN> 39
 2.950430e-05 -1.596659e-05 2.567470e-05 -3.993511e-06 -5.960464e-07 1.929002e-07 -1.204014e-05 8.247793e-06 -1.933426e-06 2.965331e-06 -1.872890e-06 -3.390014e-05 -2.196059e-06 2.152519e-07 -1.188600e-07 -1.470326e-07 2.579764e-07 1.881272e-07 -7.177005e-08 7.529743e-07 5.150214e-07 -5.541369e-08 5.667098e-07 8.731149e-08 2.587331e-08 -1.939479e-07 -6.008020e-02 6.977572e-03 -1.033811e-02 -1.313004e-03 -2.156086e-03 -2.000537e-03 2.022802e-04 5.487027e-04 1.507605e-03 -2.313650e-03 -2.747252e-04 -8.833668e-04 -1.887041e-04
<VARIANCE> 39
 0.000000e+00 0.000000e+00 0.000000e+00 1.138542e-07 1.933426e-06 0.000000e+00 0.000000e+00 4.717149e-07 0.000000e+00 0.000000e+00 0.000000e+00 0.000000e+00 1.194421e-07 0.000000e+00 5.235279e-10 2.760316e-10 0.000000e+00 0.000000e+00 3.660716e-11 1.359149e-08 8.079951e-09 2.454215e-11 0.000000e+00 0.000000e+00 1.390887e-11 0.000000e+00 5.130608e-02 3.996924e-03 4.374815e-03 3.314181e-03 3.503656e-03 3.531398e-03 3.649473e-03 3.541191e-03 3.137489e-03 2.687086e-03 2.360017e-03 1.943796e-03 1.500225e-03
<GCONST> -1.500000e+11
<MIXTURE> 2 1.000000e+00
<MEAN> 39
 1.894762e+00 -3.652980e-01 -2.789102e+00 3.108511e+00 -1.858631e+00 -8.626077e+00 -7.742185e+00 1.356787e+01 3.163532e+00 -8.451635e+00 -2.914183e-01 -3.376814e-01 -7.349830e-01 -8.416873e-01 -4.148331e-01 -5.204991e-01 -3.178500e-01 -2.444616e-01 -6.155707e-01 -2.663011e-01 5.670170e-02 2.146733e-01 2.710934e-01 1.657549e-01 1.179557e-01 -4.398434e-02 -1.073133e-02 -5.070982e-02 1.114246e-01 7.691837e-02 1.633032e-02 1.390418e-01 7.942392e-02 -5.588156e-02 5.889582e-02 1.090329e-01 -1.350197e-02 -9.801572e-04 1.217364e-03
<VARIANCE> 39
 3.649520e+02 7.621950e+01 6.454372e+01 7.745436e+01 8.429662e+01 1.442524e+02 8.333218e+01 1.552340e+02 8.379635e+01 1.032467e+02 3.305538e+01 3.813450e+01 3.753969e+01 3.699934e+00 2.040988e+00 2.113670e+00 1.937069e+00 2.475775e+00 4.578858e+00 2.176350e+00 4.277021e+00 2.894734e+00 2.617830e+00 2.068205e+00 1.774372e+00 1.646000e+00 2.393669e-01 1.935221e-01 2.922833e-01 2.305901e-01 2.994161e-01 3.779914e-01 2.901543e-01 4.613463e-01 3.798712e-01 3.959391e-01 3.375519e-01 2.590460e-01 2.296593e-01
<GCONST> 1.252841e+02
<STATE> 3
<NUMMIXES> 2
<MIXTURE> 1 0.000000e+00
<MEAN> 39
 0.000000e+00 0.000000e+00 0.000000e+00 0.000000e+00 0.000000e+00 0.000000e+00 0.000000e+00 0.000000e+00 0.000000e+00 0.000000e+00 0.000000e+00 0.000000e+00 0.000000e+00 6.126449e-30 -5.464483e-30 2.270194e-30 -1.821515e-31 4.406674e-31 -1.213802e-30 9.256382e-31 -1.708705e-31 6.429896e-32 -4.287194e-31 4.667875e-31 -1.477681e-31 3.115776e-33 -5.948948e-02 7.116884e-03 -1.043719e-02 -1.810754e-03 -2.071288e-03 -1.224210e-03 1.069486e-03 9.119928e-04 2.393554e-03 -1.654138e-03 -8.557731e-05 -5.460818e-04 -2.131514e-04
<VARIANCE> 39
 0.000000e+00 0.000000e+00 0.000000e+00 0.000000e+00 0.000000e+00 0.000000e+00 0.000000e+00 0.000000e+00 0.000000e+00 0.000000e+00 0.000000e+00 0.000000e+00 0.000000e+00 7.215268e-30 5.740278e-30 9.907425e-31 6.378229e-33 3.732989e-32 2.832244e-31 1.647090e-31 5.612664e-33 7.947721e-34 3.533306e-32 4.188642e-32 4.197554e-33 1.866239e-36 5.242730e-02 4.308010e-03 4.828463e-03 3.723914e-03 3.905280e-03 3.459802e-03 3.704401e-03 3.736516e-03 3.287535e-03 2.844681e-03 2.523395e-03 2.245883e-03 1.678810e-03
<GCONST> -1.300000e+11
<MIXTURE> 2 1.000000e+00
<MEAN> 39
 -2.511388e+01 -6.297676e+00 -5.079057e+00 -2.443905e+00 -3.562601e+00 -5.719353e-03 -3.953971e+00 1.753165e+00 -1.394408e+00 -1.213174e+00 2.724318e-01 -7.525383e-01 4.467396e-01 1.846375e-02 1.538885e-02 1.888065e-02 3.995093e-02 -2.226388e-02 -5.913937e-02 -1.202850e-02 3.646103e-02 8.083897e-02 4.226242e-02 6.941233e-03 2.328262e-02 2.143711e-02 1.116538e-01 8.506303e-02 7.510229e-02 5.428879e-02 1.474861e-02 -1.266460e-02 1.602965e-03 5.628695e-02 3.881350e-02 1.868895e-02 4.003002e-02 3.716207e-02 1.692245e-02
<VARIANCE> 39
 6.077686e+01 4.663068e+00 4.024209e+00 7.277258e+00 5.381955e+00 1.912820e+01 9.956361e+00 1.655323e+01 1.375951e+01 1.481364e+01 7.202771e+00 8.246334e+00 6.077194e+00 2.403720e-01 2.601054e-01 3.517495e-01 5.127397e-01 6.761239e-01 9.715337e-01 9.616522e-01 1.099141e+00 1.375843e+00 1.177876e+00 9.474122e-01 9.587745e-01 8.287910e-01 8.095780e-02 8.646718e-02 1.021094e-01 1.271513e-01 1.481507e-01 1.945589e-01 2.231331e-01 2.437752e-01 3.020528e-01 2.517893e-01 2.100699e-01 2.023485e-01 1.900610e-01
<GCONST> 7.383646e+01
<STATE> 4
<NUMMIXES> 2
<MIXTURE> 1 1.000000e+00
<MEAN> 39
 -1.582738e+01 -1.155582e+00 -1.077194e+00 1.469321e+00 -2.576262e+00 -3.211532e+00 -5.175914e+00 6.279167e+00 2.502447e+00 -4.552958e-01 2.007635e+00 9.492334e-01 1.044361e+00 2.851299e+00 2.029156e+00 1.777882e+00 1.496570e+00 9.209912e-02 -1.447009e+00 -7.264113e-01 1.568064e+00 1.760162e+00 6.872175e-01 4.853209e-01 7.899423e-01 2.724928e-01 5.880687e-01 8.421876e-02 8.941676e-03 2.330937e-01 -6.315177e-02 -5.790835e-01 -3.451884e-01 4.415681e-01 3.445318e-01 -2.149740e-01 -2.413191e-01 -1.450760e-02 4.924494e-02
<VARIANCE> 39
 2.135756e+02 2.885690e+01 2.887136e+01 2.089311e+01 1.820819e+01 7.891936e+01 3.248657e+01 6.068409e+01 2.433242e+01 4.483440e+01 1.534545e+01 1.040854e+01 8.516986e+00 2.242446e+00 1.710033e+00 1.678341e+00 1.532387e+00 2.005965e+00 2.829611e+00 1.843124e+00 2.222509e+00 1.795331e+00 1.764990e+00 1.888763e+00 1.415883e+00 1.180005e+00 2.744384e-01 3.721451e-01 4.386714e-01 2.526513e-01 2.899247e-01 3.712266e-01 3.047987e-01 2.939443e-01 3.095636e-01 3.561281e-01 4.069301e-01 2.589928e-01 2.062540e-01
<GCONST> 1.084540e+02
<MIXTURE> 2 0.000000e+00
<MEAN> 39
 1.208484e-05 -8.553267e-06 -2.384186e-07 -1.952052e-06 -1.340359e-05 -3.114343e-05 -5.429611e-07 -6.236136e-06 2.693385e-06 -4.857779e-06 -7.867813e-06 4.526228e-07 9.596348e-06 -5.797483e-08 -3.934838e-07 1.234002e-08 -5.355105e-09 2.961606e-07 -4.060566e-07 -2.242159e-07 7.650815e-07 -7.157214e-07 2.267188e-08 -1.420267e-08 1.264270e-07 -1.518056e-07 -1.733069e-02 2.135032e-03 -2.558388e-03 2.833310e-04 -6.236576e-04 -1.803544e-04 -3.749149e-05 -4.109075e-04 1.268192e-04 -8.433932e-04 1.034832e-04 -7.428668e-04 1.402625e-04
<VARIANCE> 39
 3.943220e-06 1.306646e-06 2.658926e-07 0.000000e+00 4.642643e-06 1.331419e-05 0.000000e+00 0.000000e+00 0.000000e+00 4.651025e-06 1.906883e-06 0.000000e+00 0.000000e+00 0.000000e+00 0.000000e+00 0.000000e+00 0.000000e+00 2.783054e-10 4.038156e-10 0.000000e+00 1.731314e-08 0.000000e+00 3.075229e-11 7.235030e-10 0.000000e+00 6.684786e-10 1.100459e-02 5.213512e-04 5.872871e-04 3.387984e-04 4.089739e-04 3.906928e-04 4.339819e-04 3.915064e-04 3.306664e-04 3.511715e-04 2.671561e-04 2.600339e-04 1.677476e-04
<GCONST> -1.300000e+11
<STATE> 5
<NUMMIXES> 2
<MIXTURE> 1 3.857018e-01
<MEAN> 39
 -6.465790e-01 5.445043e+00 2.597980e+00 7.923090e+00 -3.583347e+00 -1.471609e+01 -1.053343e+01 1.574048e+01 1.191971e+01 -4.140730e-01 1.713739e-01 3.707610e+00 3.310709e+00 4.296034e+00 2.430798e-01 -6.672731e-01 9.731033e-01 -7.797011e-01 -3.617920e+00 -1.251619e+00 2.453483e+00 1.459511e+00 -1.115539e+00 -5.703291e-01 4.337999e-01 -7.254486e-02 -2.782404e-02 -3.623653e-01 -3.157386e-01 -1.599290e-01 -2.107836e-01 -1.743487e-01 7.746608e-02 -4.336269e-02 -2.637038e-01 -1.773367e-01 9.996574e-02 -1.072379e-02 -2.114763e-01
<VARIANCE> 39
 7.728568e+01 1.615853e+01 1.516301e+01 1.676119e+01 3.139837e+01 5.954868e+01 2.361055e+01 3.631437e+01 2.272789e+01 1.682712e+01 1.993196e+01 1.418646e+01 1.543976e+01 9.515923e-01 1.058645e+00 1.049193e+00 1.102449e+00 2.576663e+00 2.565282e+00 1.996107e+00 1.794246e+00 1.768517e+00 1.291761e+00 1.926252e+00 1.145611e+00 1.757288e+00 2.232869e-01 1.606892e-01 2.734788e-01 2.018333e-01 4.214596e-01 4.305463e-01 3.465959e-01 3.477261e-01 2.734170e-01 2.912809e-01 4.229339e-01 2.672697e-01 2.800382e-01
<GCONST> 1.024292e+02
<MIXTURE> 2 6.142982e-01
<MEAN> 39
 1.964192e+01 1.067134e+00 -2.767077e+00 1.135273e+01 -8.754228e+00 -3.396221e+01 -1.658966e+01 2.799981e+01 1.564226e+01 -9.780375e+00 -8.548306e-01 5.186418e+00 4.258050e-02 9.886827e-01 -7.962053e-01 -6.308985e-01 2.695426e-01 -9.596904e-02 -1.104365e+00 -4.532073e-01 6.302209e-01 3.549686e-01 -3.721799e-01 -3.002475e-02 3.900512e-03 -1.660220e-01 -3.637436e-01 -5.607440e-02 2.777967e-02 -1.035107e-01 2.633042e-01 5.506595e-01 1.300004e-01 -3.030124e-01 -1.391283e-01 1.234945e-01 7.609788e-03 -1.231010e-01 5.754290e-02
<VARIANCE> 39
 1.305306e+01 2.794747e+01 2.892406e+01 1.102533e+01 2.540689e+01 2.739733e+01 1.992344e+01 3.115683e+01 1.789509e+01 2.785225e+01 1.369046e+01 1.952146e+01 9.036395e+00 2.214735e+00 8.933588e-01 7.493429e-01 7.440245e-01 1.506207e+00 3.577777e+00 1.390586e+00 2.762591e+00 1.003239e+00 1.678342e+00 9.196004e-01 8.568584e-01 5.945525e-01 3.177988e-01 1.169347e-01 1.008620e-01 1.241112e-01 2.349929e-01 4.596220e-01 2.252124e-01 4.408483e-01 1.482238e-01 2.329683e-01 1.690398e-01 1.355292e-01 1.064160e-01
<GCONST> 9.161905e+01
<STATE> 6
<NUMMIXES> 2
<MIXTURE> 1 4.127089e-01
<MEAN> 39
 2.246917e+01 -4.574881e+00 -8.843024e+00 4.242631e+00 7.809401e-01 -1.650368e+01 -1.295901e+01 2.285312e+01 4.769554e+00 -1.370573e+01 4.187303e+00 -2.245259e+00 -2.965877e+00 1.935098e-02 6.001809e-01 -1.414324e-01 -8.134340e-01 1.005987e+00 2.482390e+00 4.973991e-01 -1.662235e+00 -1.090918e+00 3.303307e-01 4.312433e-02 -6.095029e-01 6.673516e-02 -1.207768e-01 2.498845e-01 2.352214e-02 -3.570603e-02 4.290840e-02 2.508108e-01 1.746369e-01 -3.170671e-01 1.149717e-01 2.169573e-01 -3.181424e-01 1.019247e-01 1.787705e-01
<VARIANCE> 39
 1.196207e+01 1.585800e+01 3.225084e+01 3.222036e+01 2.713104e+01 7.622497e+01 4.495932e+01 7.909693e+01 3.744618e+01 3.991975e+01 3.502463e+01 1.770504e+01 1.632983e+01 1.012531e+00 9.928522e-01 9.469908e-01 1.146515e+00 9.089290e-01 2.036253e+00 1.948204e+00 3.531852e+00 1.385320e+00 1.765860e+00 2.158343e+00 9.171026e-01 6.379297e-01 1.690171e-01 1.128476e-01 1.262399e-01 1.300488e-01 1.290244e-01 1.516894e-01 3.225891e-01 3.772259e-01 1.922117e-01 2.558922e-01 3.079101e-01 1.695585e-01 1.093707e-01
<GCONST> 9.768545e+01
<MIXTURE> 2 5.872905e-01
<MEAN> 39
 2.190725e+01 -5.258634e+00 -8.936793e+00 9.676633e+00 -5.020602e+00 -3.070443e+01 -1.615443e+01 2.564953e+01 1.466824e+01 -9.920906e+00 -1.477538e+00 2.989635e+00 -3.174168e-01 4.898971e-02 -2.525263e-01 -2.235177e-01 -3.976620e-01 3.379463e-01 8.457044e-01 3.134488e-01 -1.985699e-01 -5.583157e-01 -2.531799e-01 2.071087e-01 -3.695181e-01 -1.613566e-01 -1.891451e-03 6.534094e-02 3.886054e-02 -4.667738e-02 4.586225e-02 1.497500e-01 2.442601e-02 -1.203215e-02 -1.424996e-01 -6.549475e-02 8.295058e-02 -5.302909e-02 -1.817366e-02
<VARIANCE> 39
 9.386518e+00 1.059342e+01 1.812019e+01 1.049649e+01 1.436311e+01 2.386929e+01 1.649266e+01 2.118831e+01 1.638448e+01 2.062141e+01 1.487285e+01 6.436453e+00 6.996043e+00 8.834956e-01 5.389827e-01 5.984902e-01 5.858607e-01 5.570131e-01 9.786307e-01 5.446257e-01 9.980702e-01 7.699580e-01 7.344626e-01 8.036833e-01 3.959436e-01 3.081889e-01 1.446575e-01 7.575797e-02 7.273638e-02 7.296889e-02 5.005689e-02 6.629058e-02 8.145198e-02 1.416372e-01 5.483737e-02 9.080360e-02 1.096550e-01 5.485016e-02 4.280741e-02
<GCONST> 6.615969e+01
<TRANSP> 7
 0.000000e+00 1.000000e+00 0.000000e+00 0.000000e+00 0.000000e+00 0.000000e+00 0.000000e+00
 0.000000e+00 8.491008e-01 1.508992e-01 0.000000e+00 0.000000e+00 0.000000e+00 0.000000e+00
 0.000000e+00 0.000000e+00 9.074532e-01 9.254681e-02 0.000000e+00 0.000000e+00 0.000000e+00
 0.000000e+00 0.000000e+00 0.000000e+00 6.505883e-01 3.494117e-01 0.000000e+00 0.000000e+00
 0.000000e+00 0.000000e+00 0.000000e+00 0.000000e+00 9.029257e-01 9.707436e-02 0.000000e+00
 0.000000e+00 0.000000e+00 0.000000e+00 0.000000e+00 0.000000e+00 9.457194e-01 5.428061e-02
 0.000000e+00 0.000000e+00 0.000000e+00 0.000000e+00 0.000000e+00 0.000000e+00 0.000000e+00
<ENDHMM>
~h "ph"
<BEGINHMM>
<NUMSTATES> 5
<STATE> 2
<NUMMIXES> 2
<MIXTURE> 1 4.006817e-01
<MEAN> 39
 -2.664298e+01 -6.228116e+00 -4.963619e+00 -2.824652e+00 -3.576411e+00 7.086958e-01 -3.613893e+00 1.171448e+00 -1.595638e+00 -5.809522e-01 5.213850e-01 -9.003338e-01 3.695632e-01 -8.245704e-02 -8.996636e-02 -7.884625e-02 -7.381822e-02 -1.004711e-01 -1.018648e-01 -9.258106e-02 -1.474432e-02 4.626193e-02 4.409690e-02 4.048867e-02 1.626726e-02 3.211367e-02 1.734848e-01 1.383688e-01 1.576936e-01 1.848959e-01 1.769710e-01 1.212201e-01 8.854137e-02 8.479147e-02 1.306362e-02 -4.012560e-02 -7.445008e-03 9.999623e-03 1.751952e-02
<VARIANCE> 39
 5.015808e-01 1.021025e+00 1.688719e+00 2.611619e+00 3.768597e+00 4.473612e+00 5.669516e+00 6.415452e+00 6.725943e+00 6.082224e+00 6.529550e+00 6.069129e+00 4.990546e+00 1.475478e-01 2.405734e-01 3.371506e-01 4.998945e-01 6.484349e-01 7.928910e-01 9.784756e-01 1.065130e+00 1.063646e+00 1.060302e+00 1.088902e+00 9.325573e-01 7.310696e-01 7.440451e-02 9.304171e-02 1.321992e-01 1.655945e-01 1.887198e-01 2.105124e-01 2.681927e-01 2.996586e-01 2.820538e-01 2.785040e-01 2.774549e-01 2.312065e-01 1.833884e-01
<GCONST> 6.046050e+01
<MIXTURE> 2 5.993181e-01
<MEAN> 39
 -1.017465e+01 6.202115e-01 3.254776e+00 7.986677e+00 6.488349e+00 6.093213e+00 -4.304197e+00 9.592983e-01 -7.548759e+00 -8.999619e+00 -1.990092e+00 -2.907196e+00 9.305667e-01 -1.678722e+00 -1.343419e+00 -9.898993e-01 -1.051557e+00 -9.754681e-01 -3.907909e-01 -1.896854e-01 -3.937505e-01 -3.679474e-02 3.825064e-01 2.061940e-01 1.032935e-02 8.905714e-02 1.948319e-01 -1.147884e-01 -1.673578e-01 -5.246713e-02 4.938862e-03 -4.734906e-02 -2.627290e-02 1.235303e-01 8.484529e-02 8.692041e-03 8.023940e-02 2.637324e-02 -3.757362e-02
<VARIANCE> 39
 1.044151e+02 9.855849e+01 5.924752e+01 7.133197e+01 5.273890e+01 4.922874e+01 7.802900e+01 7.942142e+01 8.437720e+01 6.865839e+01 4.096285e+01 3.518009e+01 2.957704e+01 3.752803e+00 5.217727e+00 3.818434e+00 3.490557e+00 2.768055e+00 3.131410e+00 3.303550e+00 4.331881e+00 4.900222e+00 4.030904e+00 3.463237e+00 2.053021e+00 1.948163e+00 2.868428e-01 4.983757e-01 5.017452e-01 4.704151e-01 3.910299e-01 4.265835e-01 4.587126e-01 5.697867e-01 7.301086e-01 6.520343e-01 5.442269e-01 3.304017e-01 3.196392e-01
<GCONST> 1.310600e+02
<STATE> 3
<NUMMIXES> 2
<MIXTURE> 1 7.113476e-01
<MEAN> 39
 -1.135628e+01 -1.865524e+00 9.101070e-01 1.014696e+01 1.035390e+01 9.615053e+00 1.789083e+00 8.698599e+00 6.044820e-01 -2.521522e+00 3.221524e+00 4.461494e+00 7.064389e+00 3.336071e+00 -6.733380e-02 -7.915574e-02 1.108791e+00 1.219453e+00 2.775587e-01 -5.254630e-01 5.024570e-01 -6.097525e-01 -1.086596e+00 8.241308e-01 6.693501e-01 6.981693e-01 1.298437e-01 -2.157894e-01 -3.475507e-01 -4.883598e-01 -4.910729e-01 -4.041554e-01 -4.115311e-01 -2.716748e-01 -3.180787e-01 -1.586917e-01 2.441254e-01 -5.703982e-02 -2.200743e-01
<VARIANCE> 39
 6.376370e+01 1.673499e+01 1.241754e+01 2.110700e+01 2.216452e+01 2.348931e+01 3.009098e+01 2.109665e+01 2.801516e+01 2.752601e+01 1.985321e+01 2.455150e+01 2.263155e+01 8.427826e-01 1.883227e+00 2.170740e+00 3.812925e+00 4.581019e+00 3.714191e+00 3.949953e+00 2.899238e+00 2.911075e+00 2.395601e+00 2.512080e+00 2.127548e+00 2.271574e+00 2.466112e-01 1.275748e-01 2.096642e-01 2.354420e-01 3.569256e-01 5.021324e-01 6.149930e-01 4.420308e-01 4.692075e-01 4.545256e-01 3.735107e-01 3.671381e-01 3.840960e-01
<GCONST> 1.111916e+02
<MIXTURE> 2 2.886522e-01
<MEAN> 39
 -2.615107e+01 -5.841761e+00 -4.258049e+00 -1.854075e+00 -2.891877e+00 1.096222e+00 -3.019187e+00 2.059215e+00 -8.046413e-01 7.525847e-02 1.231545e+00 -5.722883e-01 8.927512e-01 1.164255e+00 6.405481e-01 1.104794e+00 1.671613e+00 1.868060e+00 1.468694e+00 1.233786e+00 1.392458e+00 7.512808e-01 2.788388e-01 5.818555e-01 7.134795e-01 6.813143e-01 8.183529e-01 3.716971e-01 5.506377e-01 8.941218e-01 1.023119e+00 7.215873e-01 4.259880e-01 5.049275e-01 1.227483e-01 -1.580166e-01 2.762901e-02 3.021004e-01 3.887315e-01
<VARIANCE> 39
 1.357323e+00 2.859022e+00 3.486697e+00 6.183085e+00 6.797081e+00 8.211082e+00 8.196866e+00 8.139765e+00 7.882313e+00 7.793224e+00 6.114950e+00 5.711408e+00 5.136339e+00 1.694524e+00 1.269641e+00 1.769215e+00 2.840864e+00 3.270540e+00 2.762655e+00 2.496481e+00 2.083836e+00 1.784218e+00 1.604418e+00 1.156482e+00 1.435985e+00 1.339533e+00 1.307723e-01 1.559318e-01 1.965120e-01 2.793095e-01 2.419394e-01 3.097963e-01 4.001196e-01 2.914141e-01 3.243709e-01 3.071968e-01 2.524876e-01 2.657205e-01 2.484211e-01
<GCONST> 8.378070e+01
<STATE> 4
<NUMMIXES> 2
<MIXTURE> 1 1.000000e+00
<MEAN> 39
 4.662063e+00 -1.084349e+01 -9.053165e+00 3.734916e+00 5.519990e+00 6.720043e+00 -1.561936e+00 1.026302e+01 -1.441800e+00 -1.681819e+00 1.415077e+01 7.937765e+00 6.697671e+00 8.768771e-01 -4.832280e-02 -3.337405e-01 -1.165815e-01 -2.768218e-01 -4.419301e-01 -6.139039e-02 2.451372e-01 4.306882e-01 5.902525e-01 5.354515e-01 1.405265e-02 -4.115942e-01 -1.061979e-01 1.933873e-01 1.737740e-01 1.114165e-01 6.663093e-02 -9.358458e-02 -5.500516e-02 -1.065375e-02 5.619021e-02 -4.111510e-02 -1.966902e-01 -1.179434e-01 -1.079307e-01
<VARIANCE> 39
 9.594108e+01 8.803054e+01 1.021784e+02 5.736751e+01 8.174312e+01 9.562431e+01 6.425715e+01 6.851908e+01 1.031442e+02 1.454701e+02 7.096931e+01 7.449918e+01 3.786653e+01 1.943294e+00 3.637902e+00 4.116437e+00 2.903344e+00 3.147721e+00 3.428546e+00 2.847550e+00 3.157583e+00 4.877862e+00 5.844932e+00 3.363530e+00 3.517349e+00 2.345589e+00 1.959931e-01 3.251955e-01 4.472475e-01 3.264066e-01 3.726799e-01 5.194952e-01 4.911092e-01 4.856800e-01 8.478363e-01 1.020006e+00 4.027103e-01 4.588276e-01 3.310116e-01
<GCONST> 1.335654e+02
<MIXTURE> 2 0.000000e+00
<MEAN> 39
 -1.015390e+01 -4.631816e+01 1.016816e+01 1.162639e+01 -1.891591e+00 2.216642e+01 -1.014524e+01 -1.183229e+00 9.757619e+00 -9.515562e+00 -1.309112e+00 1.899875e+00 1.101491e+00 -1.253500e+00 -1.690578e+00 9.529696e-01 -3.898689e-02 -7.293209e-01 -5.052592e-01 -1.963609e+00 -2.120598e+00 -5.859047e-01 -5.689625e-01 5.280949e-02 8.777792e-01 9.806890e-01 2.039303e-01 4.147044e-01 -3.179018e-01 1.201470e-01 3.889616e-01 1.040026e-01 3.136157e-01 2.636020e-01 4.920377e-02 1.007182e-01 -1.477228e-01 -3.440652e-01 -4.367760e-01
<VARIANCE> 39
 1.321690e+01 3.304022e+01 8.485703e+00 1.848543e+00 3.048569e+00 1.438585e+01 3.167401e+01 3.004016e+01 7.520224e+00 9.705881e+00 4.621343e+00 1.152077e+01 1.606346e+01 1.299537e+00 2.936247e+00 3.920347e+00 3.001309e-01 1.903624e+00 1.777923e+00 2.750505e+00 1.801411e+00 3.051873e-01 6.002272e-01 6.143333e-01 2.153111e+00 5.379997e+00 1.675129e-01 3.451068e-01 4.612655e-01 1.254931e-01 1.764835e-01 2.608429e-01 2.595738e-01 2.582701e-01 9.209108e-02 1.474895e-01 1.323039e-01 1.194983e-01 5.899492e-01
<GCONST> 8.632181e+01
<TRANSP> 5
 0.000000e+00 1.000000e+00 0.000000e+00 0.000000e+00 0.000000e+00
 0.000000e+00 9.388330e-01 6.116698e-02 0.000000e+00 0.000000e+00
 0.000000e+00 0.000000e+00 8.507274e-01 1.492726e-01 0.000000e+00
 0.000000e+00 0.000000e+00 0.000000e+00 9.065077e-01 9.349228e-02
 0.000000e+00 0.000000e+00 0.000000e+00 0.000000e+00 0.000000e+00
<ENDHMM>
~h "rq"
<BEGINHMM>
<NUMSTATES> 7
<STATE> 2
<NUMMIXES> 2
<MIXTURE> 1 8.333273e-01
<MEAN> 39
 6.534083e+00 -1.663111e+01 9.335528e+00 3.504664e+00 4.348326e-01 2.034383e+01 -4.889645e+00 5.536436e+00 -5.948897e+00 -1.948333e+01 3.184190e+00 2.307078e+00 1.302415e+00 1.811469e+00 1.047592e+00 4.894212e-01 1.478865e+00 8.712582e-01 -8.429052e-01 1.094856e-01 1.870398e-01 -1.130355e+00 -1.358066e+00 -1.135346e-02 2.514828e-01 -3.252315e-01 -1.063107e-01 4.394515e-01 -3.237196e-01 3.551491e-01 2.830260e-01 -5.515928e-01 2.397161e-03 6.114775e-04 2.366616e-01 3.775677e-01 -2.000988e-01 -1.307932e-01 5.287158e-02
<VARIANCE> 39
 4.358320e+01 5.305369e+01 4.276642e+01 6.159179e+01 5.394263e+01 3.865541e+01 1.594967e+01 1.726313e+01 2.271996e+01 1.668899e+01 1.366350e+01 3.608504e+00 1.799383e+01 1.298842e+00 3.802814e+00 4.599206e+00 4.082181e+00 2.203744e+00 5.486582e+00 4.359968e+00 1.569249e+00 1.658384e+00 2.034798e+00 2.741503e+00 1.061189e+00 9.005939e-01 4.137158e-01 4.060838e-01 4.997061e-01 8.331325e-01 4.725421e-01 3.698444e-01 6.169353e-01 2.649094e-01 4.627699e-01 1.913679e-01 5.360427e-01 1.552681e-01 1.736627e-01
<GCONST> 1.115342e+02
<MIXTURE> 2 1.666726e-01
<MEAN> 39
 1.532526e+01 -5.430266e+00 8.549422e+00 1.313308e+01 3.520569e-01 7.698315e+00 3.540540e+00 4.145554e+00 -1.532496e+01 -1.971988e+01 1.192366e+00 -1.288746e+00 2.879935e+00 1.797221e+00 5.441656e-01 -2.405829e+00 1.102296e+00 1.251694e+00 -3.140853e+00 -1.411996e+00 -7.354975e-01 -1.245669e+00 -6.102477e-01 -4.532659e-02 -9.781814e-01 -1.439248e+00 -5.345839e-01 -6.113480e-01 -2.938059e-01 -6.274792e-01 7.344781e-01 3.583312e-01 -8.358193e-01 3.315552e-01 -1.036277e-01 -2.535844e-01 4.467400e-01 6.353785e-01 -1.858167e-01
<VARIANCE> 39
 3.147597e+00 7.801514e-01 6.165746e+00 1.169612e+00 1.906460e+00 1.998351e+01 7.644166e+00 1.681330e+00 4.514043e-01 1.658570e+00 4.241229e-01 2.673168e+00 2.071715e+00 5.116585e-01 5.133524e-01 2.653623e-02 1.948154e-01 1.051200e+00 3.842104e-01 1.149702e+00 3.966285e-02 1.368546e-01 6.830410e-01 2.497428e-01 1.562247e+00 7.842221e-02 1.605908e-02 1.508484e-01 8.954542e-02 4.024729e-02 1.949573e-02 8.351362e-02 1.963006e-01 4.384719e-02 4.745170e-03 3.043031e-01 1.941483e-03 2.354684e-01 8.979115e-03
<GCONST> 2.308839e+01
<STATE> 3
<NUMMIXES> 2
<MIXTURE> 1 0.000000e+00
<MEAN> 39
 4.792265e+00 -1.912126e+01 8.256557e+00 2.451213e+01 1.160292e+01 1.819415e+01 7.673485e+00 3.453903e+00 4.996493e+00 -4.574647e+00 -3.024233e+00 4.534252e+00 1.549923e+00 -2.303306e+00 -4.620656e+00 1.031160e+00 -1.352414e+00 -1.113822e+00 3.745343e+00 -7.456693e-01 -1.206692e+00 4.268679e+00 -2.608063e-01 -2.248156e+00 2.545908e-02 2.149880e-01 4.363273e-01 -5.970409e-01 -4.939691e-01 -4.104499e-01 4.786224e-01 7.117655e-02 -2.241323e+00 -1.253818e+00 -7.737113e-01 -4.610961e-01 5.581028e-01 -7.018080e-01 -7.416869e-01
<VARIANCE> 39
 0.000000e+00 0.000000e+00 0.000000e+00 -2.980232e-08 0.000000e+00 5.960464e-08 0.000000e+00 1.164153e-10 1.192093e-07 5.960464e-08 0.000000e+00 0.000000e+00 0.000000e+00 -3.725290e-09 -7.450581e-09 0.000000e+00 0.000000e+00 0.000000e+00 1.490116e-08 -4.656613e-10 5.820766e-11 -7.450581e-09 -3.637979e-12 -1.862645e-09 0.000000e+00 0.000000e+00 -2.328306e-10 0.000000e+00 0.000000e+00 0.000000e+00 0.000000e+00 -5.820766e-11 -9.313226e-10 9.313226e-10 1.164153e-10 7.105427e-15 0.000000e+00 0.000000e+00 1.164153e-10
<GCONST> -2.900001e+11
<MIXTURE> 2 1.000000e+00
<MEAN> 39
 1.820911e+01 -4.783167e+00 1.700304e+00 1.331193e+01 1.022360e+01 4.323896e+00 -7.255586e+00 4.394138e+00 -1.275123e+01 -2.130938e+01 1.669129e+00 -3.290369e-01 -7.670513e-01 7.989255e-01 4.448181e-01 -1.488996e+00 1.701444e-01 2.587530e+00 -2.301436e+00 -2.729904e+00 4.881500e-01 -1.145481e+00 -1.648191e+00 1.366426e+00 1.561410e+00 -9.577005e-01 -4.075838e-01 -1.743435e-02 3.147337e-01 -1.925098e-01 1.422237e-01 6.697282e-01 7.766737e-03 5.208803e-01 3.454697e-01 -2.784666e-01 5.567973e-01 4.158506e-01 -2.926975e-01
<VARIANCE> 39
 1.559056e+00 1.325082e+01 8.626594e+00 1.622427e+00 1.799931e+01 6.995767e+00 1.865863e+01 5.254056e+00 2.076396e+01 1.505102e+00 1.155760e-01 1.672235e+01 2.183961e+00 6.394386e-02 1.820656e+00 1.569540e+00 1.319860e-02 6.395826e-01 2.166685e+00 7.481650e-01 3.387505e-01 2.953639e+00 1.911030e+00 3.597740e-02 1.364264e+00 1.098381e+00 1.393957e-03 4.745850e-02 2.946174e-02 1.150071e-01 1.600408e-02 4.975395e-02 1.127271e-01 7.739062e-02 8.183145e-02 1.273559e-01 1.754841e-01 8.687717e-02 4.402381e-02
<GCONST> 4.432516e+01
<STATE> 4
<NUMMIXES> 2
<MIXTURE> 1 6.297935e-01
<MEAN> 39
 1.541311e+01 1.620151e+00 4.792740e+00 1.655302e+01 2.019314e+01 5.274100e+00 -1.711462e+01 1.643740e+00 -7.607713e+00 -1.672600e+01 7.381965e+00 8.165708e-01 -7.781875e+00 -2.150880e-01 3.281755e-01 1.584773e-01 6.958874e-02 1.310306e-01 1.653625e-01 1.583467e-01 -1.477755e-01 1.313802e-01 1.843156e-01 -2.694306e-01 -1.466785e-02 2.425532e-02 -1.834512e-02 -4.570221e-04 3.073380e-02 -3.214245e-02 -4.215097e-02 6.078107e-02 3.233572e-02 1.439409e-02 2.600060e-02 7.256288e-03 -3.104004e-03 -3.595587e-02 -3.456560e-02
<VARIANCE> 39
 5.173575e+00 6.848937e+01 3.826402e+01 2.117844e+01 2.001332e+01 1.944934e+01 5.607071e+01 1.005047e+02 2.946808e+01 1.107559e+02 1.355089e+02 5.885070e+01 3.275044e+01 1.026824e+00 2.434683e+00 3.278613e+00 9.629150e-01 1.946216e+00 1.786031e+00 4.177949e+00 2.756848e+00 1.870249e+00 4.149813e+00 5.436310e+00 1.547469e+00 1.486747e+00 1.198932e-01 2.204450e-01 3.815958e-01 1.184113e-01 3.256930e-01 2.003446e-01 5.537762e-01 3.556750e-01 2.738566e-01 4.111753e-01 4.502697e-01 2.174801e-01 1.115173e-01
<GCONST> 1.119552e+02
<MIXTURE> 2 3.702064e-01
<MEAN> 39
 2.039853e+01 -8.348988e+00 -4.614496e+00 1.007410e+01 1.722915e+01 -3.994115e+00 -1.852699e+01 1.449980e+01 -1.851604e+01 -2.995160e+01 1.586440e+01 8.248256e-01 -8.517321e+00 -7.843740e-03 -3.040781e-01 4.219274e-02 -2.237512e-01 2.483183e-01 -2.621683e-01 -5.312023e-01 9.099250e-01 -5.454432e-01 -3.109357e-01 1.177338e+00 -5.343381e-01 -2.083706e-01 -1.507237e-01 1.552537e-01 2.296232e-01 1.074595e-01 -1.635677e-01 2.237857e-01 3.325589e-01 -2.077342e-01 1.413256e-01 3.268946e-01 -2.667716e-01 -1.012606e-01 1.938032e-01
<VARIANCE> 39
 3.585633e+00 1.014952e+01 8.953522e+00 3.670698e+00 7.011938e+00 1.414195e+01 1.385400e+01 3.635138e+01 2.301064e+01 5.850177e+00 3.648800e+01 8.256779e+00 6.276421e+00 3.879282e-01 7.251301e-01 6.114867e-01 5.253269e-01 9.565889e-01 1.509897e+00 2.599020e+00 2.257855e+00 3.408502e-01 1.176470e+00 2.225911e+00 9.002873e-01 8.965278e-01 6.152687e-02 1.067599e-01 1.002567e-01 5.882960e-02 1.062826e-01 1.958863e-01 2.227347e-01 4.277459e-01 8.489760e-02 2.705418e-01 2.572392e-01 1.682565e-01 6.351827e-02
<GCONST> 7.538367e+01
<STATE> 5
<NUMMIXES> 2
<MIXTURE> 1 4.999920e-01
<MEAN> 39
 1.021688e+01 1.267131e+00 5.982324e+00 1.339478e+01 1.737659e+01 8.431537e+00 -4.428902e+00 1.002921e+01 -8.625228e+00 -1.735670e+01 2.380597e+00 -3.578111e+00 -1.385569e+00 -2.133777e+00 3.768612e+00 3.026505e+00 7.010449e-01 -3.845918e-01 2.681400e+00 2.456855e+00 -1.237620e+00 1.599079e+00 2.370897e+00 -2.715323e+00 -2.505890e-01 1.108258e+00 3.187982e-01 8.996197e-02 -3.447067e-01 6.114895e-02 -1.160322e-01 -8.701926e-01 -3.677618e-01 2.326622e-01 -8.056555e-01 -4.829247e-01 4.753290e-01 1.260946e-01 -1.321599e-01
<VARIANCE> 39
 9.223194e-02 1.592294e+01 4.503635e-01 3.794490e+01 2.690859e-01 1.473864e+00 8.428819e+00 1.439545e+00 8.682389e+00 9.118071e+00 1.277505e+01 1.779366e+01 9.004557e-02 2.109785e-01 7.702997e-01 3.454174e-01 1.098607e-01 1.693531e-01 8.886310e-01 9.025300e-01 6.659623e-02 1.018985e+00 2.648595e+00 6.829753e-01 4.508407e-01 5.809130e-05 1.422032e-02 1.164175e-01 4.461940e-04 1.733392e-02 4.041189e-02 1.968604e-04 5.359357e-02 3.168393e-01 1.736281e-01 3.412413e-01 5.062147e-01 6.145367e-02 1.236521e-02
<GCONST> 1.944897e+01
<MIXTURE> 2 5.000080e-01
<MEAN> 39
 1.748334e+01 -4.912407e+00 6.519381e+00 7.172498e+00 1.876625e+01 2.960281e+00 -1.890985e+01 1.331033e+01 -3.220710e+01 -2.887740e+01 2.771542e+01 -9.329806e+00 -1.071295e+01 6.647687e-01 -3.381927e-01 3.525430e-01 6.915750e-01 -3.196233e-01 1.935851e+00 1.045099e+00 -1.640531e+00 4.245628e-01 2.374650e+00 5.452880e-01 -1.946172e+00 -1.427778e+00 -1.598011e-01 3.043729e-01 -2.685204e-01 1.269881e-01 1.659334e-01 -1.655996e-01 5.790511e-01 -1.808863e-02 1.157945e+00 6.222216e-01 -1.445170e+00 3.042874e-01 5.446976e-01
<VARIANCE> 39
 1.422229e+00 3.023720e-01 2.461566e-01 4.064647e-01 2.195064e+00 3.879410e+00 5.447817e+00 1.945910e+01 6.212686e+00 6.674846e+00 6.240867e+00 4.603498e-04 8.652865e-01 4.369710e-03 1.781983e-03 1.034947e-02 1.283658e-02 1.614247e-01 5.547156e-01 1.595090e-04 1.202204e-01 1.646673e-01 6.196649e-02 4.493979e-01 1.122476e-02 1.183711e-02 4.694442e-02 4.750057e-02 1.907628e-02 2.191946e-02 7.276125e-03 3.455763e-02 1.179594e-02 1.824278e-01 2.320286e-02 2.791244e-02 4.022333e-02 2.537120e-02 1.728746e-01
<GCONST> -1.951064e+01
<STATE> 6
<NUMMIXES> 2
<MIXTURE> 1 8.787855e-01
<MEAN> 39
 2.693058e+00 1.430701e+01 1.410078e+01 1.723360e+01 1.542449e+01 1.259891e+01 2.710248e+00 8.430778e+00 -5.545811e+00 -1.056519e+01 -3.004215e+00 -3.353753e+00 -4.984060e-01 -1.464021e+00 6.452844e-01 5.493401e-01 1.931011e-01 -1.708881e-01 3.071240e-01 5.322372e-01 -8.403456e-01 4.988111e-01 8.655761e-01 -7.863641e-01 3.049322e-01 1.491365e-01 8.039414e-02 -5.546308e-01 -3.027902e-01 -1.658705e-01 -4.886480e-02 -2.592568e-01 -3.175515e-01 7.891467e-02 -2.229386e-01 -1.562924e-01 4.594175e-01 -2.648714e-02 -2.101337e-01
<VARIANCE> 39
 2.028976e+01 2.953958e+01 2.206014e+01 2.170031e+01 5.501765e+00 1.435429e+01 2.157837e+01 2.125965e+01 3.614688e+01 4.283152e+01 1.931190e+01 7.120758e+00 1.161755e+01 9.684805e-01 4.249345e+00 1.603874e+00 8.095127e-01 4.909808e-01 1.170280e+00 8.901171e-01 1.669930e+00 4.443430e-01 1.450847e+00 4.131349e+00 8.589730e-01 9.859251e-01 3.901301e-02 1.337339e-01 7.652552e-02 2.455404e-01 2.109484e-01 2.616786e-01 1.661684e-01 1.260248e-01 1.570751e-01 3.643220e-01 2.691636e-01 9.218582e-02 1.595369e-01
<GCONST> 8.740878e+01
<MIXTURE> 2 1.212145e-01
<MEAN> 39
 1.520720e+01 -1.030250e+00 6.950017e+00 9.908771e+00 1.662517e+01 6.283697e+00 -1.146421e+01 1.111219e+01 -2.179631e+01 -1.960523e+01 1.835246e+01 -1.136171e+01 -8.615722e+00 -1.864216e+00 2.672724e+00 7.501567e-01 3.604808e-01 -1.215666e+00 1.924911e+00 3.770801e+00 -9.410024e-01 3.606462e+00 2.282365e+00 -4.851629e+00 7.206516e-01 2.802938e+00 -5.594936e-01 6.710693e-01 1.849288e-01 -4.330460e-02 -8.580692e-02 5.916888e-02 1.344954e-01 -1.466750e-01 1.458600e-02 -5.235820e-01 -8.392505e-01 8.256207e-01 6.981336e-01
<VARIANCE> 39
 9.685804e+00 1.274071e+01 1.531119e+00 1.541870e+00 7.926182e+00 7.493004e+00 4.174856e+01 4.886886e+00 4.540773e+01 1.049287e+01 5.370698e+01 6.138873e+00 2.548844e+01 4.724957e-01 9.673914e-01 2.395553e-01 2.203318e-01 1.366924e-01 3.449856e-01 5.027827e-01 4.663987e-01 4.359541e-01 7.548404e-01 9.650549e-01 1.703384e+00 1.740167e+00 8.444424e-02 1.510943e-01 1.219158e-02 3.535958e-02 8.258168e-02 6.197277e-02 6.185620e-01 1.384565e-01 7.446138e-01 1.185846e-01 6.972655e-01 9.876660e-02 6.702801e-01
<GCONST> 6.832137e+01
<TRANSP> 7
 0.000000e+00 1.000000e+00 0.000000e+00 0.000000e+00 0.000000e+00 0.000000e+00 0.000000e+00
 0.000000e+00 8.749984e-01 1.250017e-01 0.000000e+00 0.000000e+00 0.000000e+00 0.000000e+00
 0.000000e+00 0.000000e+00 0.000000e+00 1.000000e+00 0.000000e+00 0.000000e+00 0.000000e+00
 0.000000e+00 0.000000e+00 0.000000e+00 9.699986e-01 3.000142e-02 0.000000e+00 0.000000e+00
 0.000000e+00 0.000000e+00 0.000000e+00 0.000000e+00 2.500040e-01 7.499960e-01 0.000000e+00
 0.000000e+00 0.000000e+00 0.000000e+00 0.000000e+00 0.000000e+00 9.090911e-01 9.090900e-02
 0.000000e+00 0.000000e+00 0.000000e+00 0.000000e+00 0.000000e+00 0.000000e+00 0.000000e+00
<ENDHMM>
~h "sh"
<BEGINHMM>
<NUMSTATES> 5
<STATE> 2
<NUMMIXES> 2
<MIXTURE> 1 5.341623e-01
<MEAN> 39
 5.579247e+00 -2.098189e+01 8.966978e+00 2.320980e+01 1.187925e+01 1.921391e+01 -2.933021e+00 -2.661438e+00 -1.980129e-01 -8.341064e+00 -2.461193e+00 5.846840e-02 1.413547e+00 -2.231321e+00 -4.519408e+00 1.642990e+00 1.199604e-01 -1.309105e+00 2.967861e+00 1.458904e+00 1.181948e-01 2.000294e+00 9.406909e-01 3.252284e-01 1.192245e+00 9.665576e-01 -1.400171e-01 -4.853075e-01 -5.025562e-01 -4.347646e-01 2.266216e-01 -3.115306e-01 -4.457906e-01 5.385132e-01 2.266301e-02 -2.096466e-01 5.054324e-01 5.571880e-02 -2.060236e-01
<VARIANCE> 39
 4.640227e+01 1.147952e+02 7.952573e+01 1.087903e+02 8.491039e+01 6.305993e+01 1.000994e+02 3.545575e+01 4.304047e+01 2.700035e+01 4.737864e+01 3.451556e+01 6.201340e+01 1.368169e+00 4.778078e+00 2.949994e+00 3.702856e+00 2.761664e+00 3.011048e+00 3.174109e+00 3.009469e+00 2.017610e+00 2.146681e+00 3.203801e+00 1.797348e+00 1.889506e+00 1.019089e-01 7.344531e-01 2.835005e-01 2.468137e-01 3.284177e-01 5.152745e-01 4.042192e-01 4.842539e-01 3.338626e-01 4.166044e-01 4.934038e-01 3.567281e-01 2.423868e-01
<GCONST> 1.233779e+02
<MIXTURE> 2 4.658377e-01
<MEAN> 39
 -6.328763e+00 -4.407235e+01 1.144405e+01 1.838385e+01 6.322305e+00 2.725928e+01 -2.490146e+00 7.921302e-01 8.787809e+00 -4.221420e+00 2.678058e+00 4.508475e+00 4.332904e+00 -1.843042e+00 -3.116826e+00 -9.176071e-01 -2.290703e+00 -1.866745e+00 -1.021587e+00 -1.564158e+00 -3.552788e-01 1.079425e-01 1.683948e-01 7.701124e-02 -2.406138e-01 2.962749e-01 3.346406e-01 7.898750e-01 -9.448081e-02 -1.166205e-02 -5.497841e-03 -6.559469e-01 -4.016586e-01 -4.140366e-01 -5.813802e-01 -2.550499e-01 -3.695816e-01 -3.635139e-01 -2.102252e-01
<VARIANCE> 39
 1.840238e+01 3.466400e+01 3.873248e+01 3.904433e+01 3.428914e+01 3.517826e+01 1.130388e+02 2.707026e+01 2.725788e+01 1.722648e+01 2.775650e+01 2.056670e+01 3.371418e+01 8.467236e-01 3.227824e+00 8.885523e-01 1.158574e+00 1.247002e+00 3.618988e+00 2.086966e+00 2.068589e+00 2.148520e+00 1.636503e+00 2.065353e+00 1.811169e+00 1.222154e+00 9.058730e-02 2.950339e-01 2.017246e-01 2.840069e-01 2.831470e-01 6.018032e-01 4.051790e-01 2.682026e-01 2.152283e-01 2.568504e-01 2.783528e-01 2.526159e-01 1.789804e-01
<GCONST> 1.056349e+02
<STATE> 3
<NUMMIXES> 2
<MIXTURE> 1 4.900885e-01
<MEAN> 39
 -1.004845e+01 -5.155127e+01 2.649045e+00 7.369122e+00 -2.368490e+00 2.161104e+01 -1.705019e+00 -3.776859e+00 -1.024485e+00 -7.182878e+00 -5.155044e+00 -1.021426e+00 7.310138e+00 -3.235257e-03 -5.879870e-02 -4.841277e-02 -1.679142e-01 2.117127e-02 -3.021173e-03 -5.512404e-02 1.825605e-02 -1.674401e-01 -1.028653e-01 -5.748463e-02 -4.390525e-02 6.384174e-03 1.157267e-01 2.248950e-01 2.612145e-02 8.736465e-02 5.859711e-02 3.824760e-02 9.892226e-02 5.996737e-02 8.517797e-02 5.358732e-02 6.223291e-02 1.000283e-01 3.390292e-02
<VARIANCE> 39
 1.063519e+01 1.410543e+01 2.391558e+01 1.596577e+01 8.225917e+00 1.394713e+01 3.182113e+01 1.982938e+01 2.083284e+01 1.872281e+01 1.739947e+01 1.699251e+01 1.095469e+01 8.086771e-01 1.628904e+00 1.187413e+00 6.418984e-01 5.279540e-01 1.248138e+00 1.554016e+00 1.354599e+00 1.390374e+00 1.606475e+00 1.725511e+00 1.481606e+00 7.667294e-01 1.470032e-01 3.495576e-01 2.123208e-01 1.208080e-01 9.698890e-02 2.016642e-01 2.365088e-01 2.304066e-01 2.332073e-01 2.936693e-01 3.133503e-01 2.634276e-01 1.486242e-01
<GCONST> 8.912246e+01
<MIXTURE> 2 5.099115e-01
<MEAN> 39
 -1.225191e+01 -4.984997e+01 1.075058e+01 1.158638e+01 1.017188e+00 1.792689e+01 -1.677742e+01 -6.551445e+00 6.029731e+00 -3.334398e+00 1.831527e+00 1.258911e+00 1.755246e+00 8.720860e-03 6.060389e-03 -1.124639e-01 -1.760472e-01 3.295749e-02 4.108503e-02 -2.622438e-02 -1.252254e-01 -2.354903e-01 -6.316491e-02 -1.234982e-01 5.728702e-03 6.026549e-02 8.213592e-02 1.473288e-01 -1.681293e-02 9.060816e-02 1.098060e-01 1.595015e-01 2.044764e-01 8.631404e-02 1.489650e-02 -5.196018e-02 -1.766756e-02 4.225068e-02 1.441401e-02
<VARIANCE> 39
 1.080357e+01 1.641165e+01 1.825638e+01 1.220447e+01 1.095136e+01 1.639100e+01 2.367608e+01 2.761937e+01 1.905730e+01 2.306917e+01 2.213445e+01 1.764719e+01 1.351126e+01 9.682195e-01 1.635568e+00 1.057846e+00 5.445551e-01 6.630432e-01 1.415545e+00 1.290929e+00 1.162870e+00 1.438102e+00 1.675867e+00 1.949565e+00 1.564845e+00 9.383831e-01 1.676124e-01 3.019924e-01 1.762809e-01 1.068145e-01 1.268373e-01 1.986039e-01 1.878015e-01 1.928614e-01 2.681452e-01 3.300412e-01 3.764864e-01 3.007863e-01 1.794452e-01
<GCONST> 9.049806e+01
<STATE> 4
<NUMMIXES> 2
<MIXTURE> 1 4.129335e-01
<MEAN> 39
 9.521868e+00 -1.694373e+01 8.680427e+00 1.621497e+01 6.967289e+00 1.762754e+01 -4.419030e+00 -1.592241e+00 2.390943e+00 -6.964649e+00 -1.447370e+00 3.511445e+00 4.275403e+00 4.496839e+00 5.497473e+00 -2.265325e+00 -9.014653e-02 1.705358e+00 -4.007751e+00 -2.164640e+00 1.345041e+00 -1.072944e+00 -1.658242e+00 3.904590e-01 -5.888070e-01 -1.108258e+00 -3.253143e-01 -1.288304e+00 -1.228777e+00 -7.098513e-01 3.052768e-01 -7.376130e-01 -8.310844e-01 6.686162e-01 -4.197876e-01 -8.279902e-01 4.202160e-01 -4.142756e-02 -2.866122e-01
<VARIANCE> 39
 3.722037e+01 6.681638e+01 3.694775e+01 2.518442e+01 2.101100e+01 4.367363e+01 5.565858e+01 2.637859e+01 1.923749e+01 1.554702e+01 2.732821e+01 1.363801e+01 1.746482e+01 8.644801e-01 5.143692e+00 6.196927e+00 2.873151e+00 1.428951e+00 2.734272e+00 2.832110e+00 2.643181e+00 1.957588e+00 2.780214e+00 1.770263e+00 1.200217e+00 1.101133e+00 3.324569e-01 5.451934e-01 4.038930e-01 2.242514e-01 2.157073e-01 4.951293e-01 3.448430e-01 2.903686e-01 3.027970e-01 2.866697e-01 2.329571e-01 2.314519e-01 1.694205e-01
<GCONST> 1.094314e+02
<MIXTURE> 2 5.870665e-01
<MEAN> 39
 -6.959133e+00 -4.113442e+01 5.423482e+00 9.581717e+00 2.615960e+00 2.326768e+01 -4.075803e+00 -1.794866e+00 2.793123e+00 -6.917133e+00 -1.686869e+00 3.392288e+00 6.027489e+00 2.183985e+00 4.764666e+00 5.797750e-01 1.489706e+00 9.366058e-01 -1.312225e-01 1.177449e+00 3.932159e-01 4.099797e-01 1.930629e-01 -3.737057e-02 5.300682e-01 1.628706e-01 6.048084e-01 1.022900e+00 1.217721e-01 1.998595e-01 1.641111e-01 -6.225193e-01 -3.483157e-01 1.630387e-02 -7.557352e-02 7.683332e-02 2.296470e-02 -1.981064e-01 -1.557798e-01
<VARIANCE> 39
 2.531517e+01 7.547439e+01 4.645398e+01 4.878080e+01 2.901048e+01 5.130907e+01 8.707287e+01 4.231648e+01 2.650105e+01 1.900833e+01 3.210461e+01 2.028064e+01 2.110149e+01 2.966372e+00 3.761025e+00 2.096781e+00 1.499359e+00 1.205977e+00 2.450260e+00 1.951434e+00 1.568013e+00 1.366085e+00 1.568561e+00 1.256356e+00 1.266567e+00 1.053412e+00 2.647466e-01 4.447404e-01 4.035115e-01 2.822130e-01 1.928224e-01 4.949776e-01 4.438402e-01 2.741705e-01 2.896714e-01 2.945358e-01 2.074908e-01 2.402817e-01 2.036108e-01
<GCONST> 1.094448e+02
<TRANSP> 5
 0.000000e+00 1.000000e+00 0.000000e+00 0.000000e+00 0.000000e+00
 0.000000e+00 8.881056e-01 1.118944e-01 0.000000e+00 0.000000e+00
 0.000000e+00 0.000000e+00 9.488516e-01 5.114838e-02 0.000000e+00
 0.000000e+00 0.000000e+00 0.000000e+00 8.582057e-01 1.417944e-01
 0.000000e+00 0.000000e+00 0.000000e+00 0.000000e+00 0.000000e+00
<ENDHMM>
~h "sp"
<BEGINHMM>
<NUMSTATES> 5
<STATE> 2
<NUMMIXES> 2
<MIXTURE> 1 5.000000e-01
<MEAN> 39
 5.098849e+00 -6.514025e+00 2.430083e+00 1.092778e+01 1.083864e+01 1.500667e+00 -1.140838e+01 9.359310e+00 -3.377835e+00 -1.113024e+01 6.044074e+00 -4.088247e-01 -3.646332e+00 -1.380477e-02 1.475701e-03 -1.072459e-03 -5.524765e-03 -3.099398e-03 2.005852e-03 8.190720e-04 -5.087083e-03 2.488556e-03 5.650900e-03 -1.806995e-03 5.936168e-04 1.443354e-03 -1.213556e-03 -1.404243e-04 -1.926630e-04 -5.029775e-04 -4.298560e-04 2.249404e-04 5.535607e-04 -2.933974e-04 7.204357e-05 8.173331e-04 -1.603794e-04 -1.434907e-04 3.551734e-04
<VARIANCE> 39
 2.696502e+02 1.642264e+02 1.776205e+02 1.699619e+02 1.712323e+02 1.501611e+02 1.653076e+02 1.112998e+02 8.102897e+01 1.132308e+02 1.038732e+02 3.576029e+01 7.139818e+01 2.864393e+00 3.049235e+00 2.950589e+00 2.442850e+00 2.488132e+00 2.882445e+00 3.574063e+00 2.837703e+00 2.254665e+00 3.083899e+00 2.848865e+00 1.410452e+00 1.706605e+00 2.059384e-01 2.861855e-01 3.165202e-01 2.798763e-01 2.958655e-01 3.292713e-01 4.082396e-01 3.875320e-01 3.475762e-01 4.161765e-01 3.917231e-01 2.236369e-01 2.362328e-01
<GCONST> 1.313330e+02
<MIXTURE> 2 5.000000e-01
<MEAN> 39
 5.098849e+00 -6.514025e+00 2.430083e+00 1.092778e+01 1.083864e+01 1.500667e+00 -1.140838e+01 9.359310e+00 -3.377835e+00 -1.113024e+01 6.044074e+00 -4.088247e-01 -3.646332e+00 -1.380477e-02 1.475701e-03 -1.072459e-03 -5.524765e-03 -3.099398e-03 2.005852e-03 8.190720e-04 -5.087083e-03 2.488556e-03 5.650900e-03 -1.806995e-03 5.936168e-04 1.443354e-03 -1.213556e-03 -1.404243e-04 -1.926630e-04 -5.029775e-04 -4.298560e-04 2.249404e-04 5.535607e-04 -2.933974e-04 7.204357e-05 8.173331e-04 -1.603794e-04 -1.434907e-04 3.551734e-04
<VARIANCE> 39
 2.696502e+02 1.642264e+02 1.776205e+02 1.699619e+02 1.712323e+02 1.501611e+02 1.653076e+02 1.112998e+02 8.102897e+01 1.132308e+02 1.038732e+02 3.576029e+01 7.139818e+01 2.864393e+00 3.049235e+00 2.950589e+00 2.442850e+00 2.488132e+00 2.882445e+00 3.574063e+00 2.837703e+00 2.254665e+00 3.083899e+00 2.848865e+00 1.410452e+00 1.706605e+00 2.059384e-01 2.861855e-01 3.165202e-01 2.798763e-01 2.958655e-01 3.292713e-01 4.082396e-01 3.875320e-01 3.475762e-01 4.161765e-01 3.917231e-01 2.236369e-01 2.362328e-01
<GCONST> 1.313330e+02
<STATE> 3
<NUMMIXES> 2
<MIXTURE> 1 5.000000e-01
<MEAN> 39
 5.098849e+00 -6.514025e+00 2.430083e+00 1.092778e+01 1.083864e+01 1.500667e+00 -1.140838e+01 9.359310e+00 -3.377835e+00 -1.113024e+01 6.044074e+00 -4.088247e-01 -3.646332e+00 -1.380477e-02 1.475701e-03 -1.072459e-03 -5.524765e-03 -3.099398e-03 2.005852e-03 8.190720e-04 -5.087083e-03 2.488556e-03 5.650900e-03 -1.806995e-03 5.936168e-04 1.443354e-03 -1.213556e-03 -1.404243e-04 -1.926630e-04 -5.029775e-04 -4.298560e-04 2.249404e-04 5.535607e-04 -2.933974e-04 7.204357e-05 8.173331e-04 -1.603794e-04 -1.434907e-04 3.551734e-04
<VARIANCE> 39
 2.696502e+02 1.642264e+02 1.776205e+02 1.699619e+02 1.712323e+02 1.501611e+02 1.653076e+02 1.112998e+02 8.102897e+01 1.132308e+02 1.038732e+02 3.576029e+01 7.139818e+01 2.864393e+00 3.049235e+00 2.950589e+00 2.442850e+00 2.488132e+00 2.882445e+00 3.574063e+00 2.837703e+00 2.254665e+00 3.083899e+00 2.848865e+00 1.410452e+00 1.706605e+00 2.059384e-01 2.861855e-01 3.165202e-01 2.798763e-01 2.958655e-01 3.292713e-01 4.082396e-01 3.875320e-01 3.475762e-01 4.161765e-01 3.917231e-01 2.236369e-01 2.362328e-01
<GCONST> 1.313330e+02
<MIXTURE> 2 5.000000e-01
<MEAN> 39
 5.098849e+00 -6.514025e+00 2.430083e+00 1.092778e+01 1.083864e+01 1.500667e+00 -1.140838e+01 9.359310e+00 -3.377835e+00 -1.113024e+01 6.044074e+00 -4.088247e-01 -3.646332e+00 -1.380477e-02 1.475701e-03 -1.072459e-03 -5.524765e-03 -3.099398e-03 2.005852e-03 8.190720e-04 -5.087083e-03 2.488556e-03 5.650900e-03 -1.806995e-03 5.936168e-04 1.443354e-03 -1.213556e-03 -1.404243e-04 -1.926630e-04 -5.029775e-04 -4.298560e-04 2.249404e-04 5.535607e-04 -2.933974e-04 7.204357e-05 8.173331e-04 -1.603794e-04 -1.434907e-04 3.551734e-04
<VARIANCE> 39
 2.696502e+02 1.642264e+02 1.776205e+02 1.699619e+02 1.712323e+02 1.501611e+02 1.653076e+02 1.112998e+02 8.102897e+01 1.132308e+02 1.038732e+02 3.576029e+01 7.139818e+01 2.864393e+00 3.049235e+00 2.950589e+00 2.442850e+00 2.488132e+00 2.882445e+00 3.574063e+00 2.837703e+00 2.254665e+00 3.083899e+00 2.848865e+00 1.410452e+00 1.706605e+00 2.059384e-01 2.861855e-01 3.165202e-01 2.798763e-01 2.958655e-01 3.292713e-01 4.082396e-01 3.875320e-01 3.475762e-01 4.161765e-01 3.917231e-01 2.236369e-01 2.362328e-01
<GCONST> 1.313330e+02
<STATE> 4
<NUMMIXES> 2
<MIXTURE> 1 5.000000e-01
<MEAN> 39
 5.098849e+00 -6.514025e+00 2.430083e+00 1.092778e+01 1.083864e+01 1.500667e+00 -1.140838e+01 9.359310e+00 -3.377835e+00 -1.113024e+01 6.044074e+00 -4.088247e-01 -3.646332e+00 -1.380477e-02 1.475701e-03 -1.072459e-03 -5.524765e-03 -3.099398e-03 2.005852e-03 8.190720e-04 -5.087083e-03 2.488556e-03 5.650900e-03 -1.806995e-03 5.936168e-04 1.443354e-03 -1.213556e-03 -1.404243e-04 -1.926630e-04 -5.029775e-04 -4.298560e-04 2.249404e-04 5.535607e-04 -2.933974e-04 7.204357e-05 8.173331e-04 -1.603794e-04 -1.434907e-04 3.551734e-04
<VARIANCE> 39
 2.696502e+02 1.642264e+02 1.776205e+02 1.699619e+02 1.712323e+02 1.501611e+02 1.653076e+02 1.112998e+02 8.102897e+01 1.132308e+02 1.038732e+02 3.576029e+01 7.139818e+01 2.864393e+00 3.049235e+00 2.950589e+00 2.442850e+00 2.488132e+00 2.882445e+00 3.574063e+00 2.837703e+00 2.254665e+00 3.083899e+00 2.848865e+00 1.410452e+00 1.706605e+00 2.059384e-01 2.861855e-01 3.165202e-01 2.798763e-01 2.958655e-01 3.292713e-01 4.082396e-01 3.875320e-01 3.475762e-01 4.161765e-01 3.917231e-01 2.236369e-01 2.362328e-01
<GCONST> 1.313330e+02
<MIXTURE> 2 5.000000e-01
<MEAN> 39
 5.098849e+00 -6.514025e+00 2.430083e+00 1.092778e+01 1.083864e+01 1.500667e+00 -1.140838e+01 9.359310e+00 -3.377835e+00 -1.113024e+01 6.044074e+00 -4.088247e-01 -3.646332e+00 -1.380477e-02 1.475701e-03 -1.072459e-03 -5.524765e-03 -3.099398e-03 2.005852e-03 8.190720e-04 -5.087083e-03 2.488556e-03 5.650900e-03 -1.806995e-03 5.936168e-04 1.443354e-03 -1.213556e-03 -1.404243e-04 -1.926630e-04 -5.029775e-04 -4.298560e-04 2.249404e-04 5.535607e-04 -2.933974e-04 7.204357e-05 8.173331e-04 -1.603794e-04 -1.434907e-04 3.551734e-04
<VARIANCE> 39
 2.696502e+02 1.642264e+02 1.776205e+02 1.699619e+02 1.712323e+02 1.501611e+02 1.653076e+02 1.112998e+02 8.102897e+01 1.132308e+02 1.038732e+02 3.576029e+01 7.139818e+01 2.864393e+00 3.049235e+00 2.950589e+00 2.442850e+00 2.488132e+00 2.882445e+00 3.574063e+00 2.837703e+00 2.254665e+00 3.083899e+00 2.848865e+00 1.410452e+00 1.706605e+00 2.059384e-01 2.861855e-01 3.165202e-01 2.798763e-01 2.958655e-01 3.292713e-01 4.082396e-01 3.875320e-01 3.475762e-01 4.161765e-01 3.917231e-01 2.236369e-01 2.362328e-01
<GCONST> 1.313330e+02
<TRANSP> 5
 0.000000e+00 1.000000e+00 0.000000e+00 0.000000e+00 0.000000e+00
 0.000000e+00 6.000000e-01 4.000000e-01 0.000000e+00 0.000000e+00
 0.000000e+00 0.000000e+00 6.000000e-01 4.000000e-01 0.000000e+00
 0.000000e+00 0.000000e+00 0.000000e+00 6.000000e-01 4.000000e-01
 0.000000e+00 0.000000e+00 0.000000e+00 0.000000e+00 0.000000e+00
<ENDHMM>
~h "sx"
<BEGINHMM>
<NUMSTATES> 5
<STATE> 2
<NUMMIXES> 2
<MIXTURE> 1 5.531100e-01
<MEAN> 39
 5.983649e+00 -2.167791e+01 5.344099e+00 1.892987e+01 1.046023e+01 1.954039e+01 -3.860254e+00 -3.929001e+00 5.943388e-01 -6.021182e+00 -2.368952e-02 2.888152e+00 3.168143e+00 -2.015586e+00 -4.755470e+00 2.239078e+00 9.492611e-01 -9.866965e-01 3.347177e+00 1.779176e+00 1.653509e-01 1.727853e+00 6.500434e-01 -1.496688e-02 5.803573e-01 3.135189e-01 -2.141761e-01 -4.641263e-01 -4.891021e-01 -5.408909e-01 2.330032e-01 -2.724335e-01 -3.960905e-01 6.045348e-01 -1.252296e-02 -3.266643e-01 3.919086e-01 9.386692e-03 -2.229649e-01
<VARIANCE> 39
 5.359269e+01 1.194072e+02 1.137869e+02 1.157864e+02 7.957725e+01 4.412392e+01 8.078777e+01 3.438447e+01 2.649485e+01 2.580852e+01 3.777448e+01 2.274679e+01 5.225238e+01 1.559760e+00 2.035695e+00 2.462065e+00 3.712908e+00 2.257396e+00 1.917408e+00 2.371485e+00 3.079975e+00 1.834338e+00 2.173709e+00 2.106924e+00 9.330447e-01 2.450045e+00 7.579696e-02 5.152251e-01 2.907116e-01 1.631703e-01 2.596099e-01 4.462331e-01 3.749291e-01 4.612826e-01 3.428088e-01 3.906860e-01 3.220057e-01 1.877519e-01 2.780758e-01
<GCONST> 1.167396e+02
<MIXTURE> 2 4.468899e-01
<MEAN> 39
 -3.918141e+00 -4.274892e+01 1.087711e+01 1.795156e+01 7.886116e+00 2.920278e+01 -1.084765e+00 5.516590e-01 7.655461e+00 -3.583360e+00 3.145458e+00 4.939978e+00 4.034513e+00 -2.071860e+00 -3.378343e+00 -7.926850e-01 -2.331912e+00 -1.526866e+00 -5.330864e-01 -1.138160e+00 1.738216e-01 2.201931e-01 3.391802e-01 1.823347e-01 -1.632062e-01 4.632859e-01 2.459050e-01 7.030223e-01 -1.600139e-01 -1.949888e-01 -1.287961e-01 -7.083761e-01 -4.398552e-01 -4.138573e-01 -5.332038e-01 -1.421906e-01 -2.273056e-01 -2.455590e-01 -2.449012e-02
<VARIANCE> 39
 1.778314e+01 3.630767e+01 4.277242e+01 2.923564e+01 2.656941e+01 2.079300e+01 9.464533e+01 2.537047e+01 2.270267e+01 1.834030e+01 2.028408e+01 2.053817e+01 2.523681e+01 5.352804e-01 1.921132e+00 8.351673e-01 7.926230e-01 9.093572e-01 2.554911e+00 1.587418e+00 1.909932e+00 1.796450e+00 1.705769e+00 1.512636e+00 1.267132e+00 9.136774e-01 9.989656e-02 1.579558e-01 2.155944e-01 2.505061e-01 1.785367e-01 3.191195e-01 3.567331e-01 2.202770e-01 2.248341e-01 2.640548e-01 1.752595e-01 2.123372e-01 1.661578e-01
<GCONST> 9.753030e+01
<STATE> 3
<NUMMIXES> 2
<MIXTURE> 1 0.000000e+00
<MEAN> 39
 -2.589639e+01 -8.086056e+00 -5.842546e+00 -8.568189e-01 -1.132706e+00 3.758358e+00 -1.747407e+00 1.918359e-01 -6.092826e+00 -6.091179e+00 1.424222e+00 3.768395e+00 2.979695e+00 -8.323479e-02 1.047209e-01 -1.360199e-01 -2.555425e-01 -5.355441e-01 -6.853368e-01 -3.608705e-01 5.298619e-01 1.221652e+00 9.246182e-01 7.676374e-01 2.320677e-01 -1.368400e-01 1.882693e-01 1.151544e-01 2.240881e-02 -1.060433e-01 -1.462484e-01 -2.573616e-01 -1.659429e-01 2.528915e-02 -1.167465e-01 2.891361e-01 2.165567e-02 -2.161635e-01 -3.127986e-01
<VARIANCE> 39
 1.924733e+00 6.048767e+00 3.232208e+00 4.033120e+00 1.022189e+01 1.084621e+01 4.412310e+00 5.510023e+00 1.363655e+01 1.911531e+01 8.857162e+00 2.420563e+01 2.668977e+00 1.241993e-01 4.406725e-01 7.311630e-01 1.078301e+00 8.011302e-01 7.876549e-01 8.789538e-01 2.311564e+00 2.261892e+00 1.462139e+00 1.491107e+00 1.320726e+00 1.260225e+00 7.360157e-02 9.111705e-02 1.334201e-01 2.809681e-01 3.253425e-01 1.084391e-01 1.206654e-01 2.485622e-01 1.709281e-01 1.943447e-01 3.101693e-01 2.409264e-01 2.716875e-01
<GCONST> 7.328081e+01
<MIXTURE> 2 1.000000e+00
<MEAN> 39
 -1.218309e+01 -5.026819e+01 9.647479e+00 6.690439e+00 2.343113e+00 2.078502e+01 -1.548807e+01 -3.372631e+00 5.147319e+00 -4.277170e+00 1.875273e+00 1.862676e+00 3.104380e+00 -1.328061e-01 -3.041125e-02 1.240316e-01 -3.365364e-01 -4.244616e-01 -1.995372e-01 -9.702046e-02 4.046666e-02 -1.722920e-01 -3.208220e-01 -2.801622e-01 -5.167249e-02 8.382927e-02 1.381120e-01 3.372492e-01 -2.317568e-02 1.435114e-01 9.788273e-02 5.536780e-02 1.733865e-01 6.767491e-02 4.298679e-02 -3.099628e-02 -3.511231e-02 3.571236e-02 1.520045e-02
<VARIANCE> 39
 1.363787e+01 1.982577e+01 4.114709e+01 1.330840e+01 1.268111e+01 2.440425e+01 4.969101e+01 2.647268e+01 1.544649e+01 2.028248e+01 2.103288e+01 1.861800e+01 1.477802e+01 1.104201e+00 3.134737e+00 1.675686e+00 1.000601e+00 8.372942e-01 2.238821e+00 1.909873e+00 1.499172e+00 1.861697e+00 1.603122e+00 1.443982e+00 1.169689e+00 7.627593e-01 1.752058e-01 4.392464e-01 2.305928e-01 1.527474e-01 1.605304e-01 2.851814e-01 2.069227e-01 2.283705e-01 2.958111e-01 3.012632e-01 2.878314e-01 1.824449e-01 1.460771e-01
<GCONST> 9.636071e+01
<STATE> 4
<NUMMIXES> 2
<MIXTURE> 1 4.339247e-01
<MEAN> 39
 -7.331700e+00 -2.745900e+01 3.837851e+00 1.068062e+01 1.545734e+00 1.398247e+01 -5.256177e+00 5.513375e-01 4.018612e+00 -6.100911e+00 -3.126945e+00 3.307443e+00 7.004505e+00 1.222670e+00 4.747994e+00 -1.141655e+00 1.977691e-01 9.028276e-01 -1.821787e+00 2.558436e-01 6.161584e-01 -4.459923e-01 4.108544e-02 1.690947e-01 -1.041156e-01 -1.670875e-01 2.432389e-02 -9.795073e-02 -2.172104e-01 -3.236364e-01 1.242405e-01 -2.880071e-01 -3.921145e-01 1.101626e-01 -2.548833e-01 -1.714609e-01 1.592561e-01 -1.160372e-01 -1.656446e-01
<VARIANCE> 39
 1.796401e+02 1.599422e+02 7.031951e+01 3.249120e+01 4.298097e+01 1.198092e+02 5.758492e+01 2.599730e+01 5.015932e+01 3.922180e+01 3.215789e+01 2.382234e+01 1.571778e+01 7.684260e+00 5.119509e+00 4.829165e+00 3.036827e+00 2.221134e+00 3.154326e+00 4.339234e+00 1.523833e+00 2.350996e+00 2.021063e+00 2.044823e+00 1.380799e+00 1.613517e+00 4.181569e-01 1.095116e+00 7.754215e-01 3.545268e-01 2.882758e-01 6.442314e-01 4.674267e-01 3.462889e-01 2.780628e-01 3.463922e-01 2.813650e-01 2.502718e-01 2.894211e-01
<GCONST> 1.239736e+02
<MIXTURE> 2 5.660753e-01
<MEAN> 39
 -1.019071e+01 -5.136366e+01 5.424777e+00 6.464683e+00 -1.634283e+00 2.099125e+01 -5.091048e+00 -2.322558e+00 4.517178e-01 -6.381947e+00 -3.823526e+00 -6.597856e-02 7.674503e+00 5.687637e-03 2.883491e-01 1.962449e-01 1.446786e-01 1.109721e-01 -1.597851e-01 -2.050418e-01 -7.217135e-02 -9.234013e-02 -5.183854e-02 -2.914785e-02 6.831591e-02 8.214822e-02 1.402246e-01 3.243792e-01 -4.791216e-02 1.006467e-01 4.312560e-02 -1.920420e-02 1.092595e-01 4.501738e-02 1.177831e-01 6.764056e-02 4.293468e-02 1.000429e-01 1.012135e-02
<VARIANCE> 39
 1.001512e+01 1.441157e+01 3.828550e+01 1.464559e+01 5.830812e+00 1.601473e+01 3.704098e+01 1.605882e+01 1.756949e+01 2.097952e+01 1.648272e+01 1.810441e+01 7.708078e+00 9.977447e-01 2.386806e+00 1.434075e+00 6.326529e-01 4.371587e-01 1.181348e+00 1.454196e+00 1.166252e+00 1.255063e+00 1.507383e+00 1.469851e+00 1.592692e+00 7.853682e-01 1.431523e-01 4.496917e-01 2.223318e-01 1.218613e-01 7.929166e-02 2.196247e-01 1.823560e-01 2.153122e-01 2.114655e-01 2.957129e-01 2.854736e-01 2.845153e-01 1.533610e-01
<GCONST> 8.864129e+01
<TRANSP> 5
 0.000000e+00 1.000000e+00 0.000000e+00 0.000000e+00 0.000000e+00
 0.000000e+00 8.751874e-01 1.248126e-01 0.000000e+00 0.000000e+00
 0.000000e+00 0.000000e+00 8.877915e-01 1.122085e-01 0.000000e+00
 0.000000e+00 0.000000e+00 0.000000e+00 9.394358e-01 6.056418e-02
 0.000000e+00 0.000000e+00 0.000000e+00 0.000000e+00 0.000000e+00
<ENDHMM>
~h "th"
<BEGINHMM>
<NUMSTATES> 5
<STATE> 2
<NUMMIXES> 2
<MIXTURE> 1 0.000000e+00
<MEAN> 39
 -3.886223e-05 -1.931190e-05 5.215406e-07 8.761883e-06 -2.145767e-06 5.111098e-06 8.314848e-06 2.488494e-06 -7.539988e-06 1.132488e-06 -3.003515e-07 5.424023e-06 -4.022149e-08 1.873821e-06 -4.437752e-07 5.909242e-07 1.825392e-07 -4.018657e-07 -3.222376e-07 3.189780e-07 -5.820766e-11 -6.482005e-07 -5.755574e-07 -2.846355e-08 6.949995e-08 9.033829e-08 -3.673423e-02 3.657988e-03 -6.203171e-03 1.457151e-03 -7.559096e-04 -1.241736e-03 -9.468020e-04 -1.675523e-03 -7.280131e-04 -1.245679e-03 7.821736e-05 -6.539826e-04 -5.843351e-06
<VARIANCE> 39
 6.791949e-05 0.000000e+00 1.187436e-07 1.545995e-06 3.539026e-07 4.889444e-07 7.301569e-06 3.557652e-07 0.000000e+00 0.000000e+00 0.000000e+00 3.034249e-06 1.224976e-10 0.000000e+00 0.000000e+00 8.043571e-09 0.000000e+00 0.000000e+00 0.000000e+00 2.622983e-09 1.563194e-12 0.000000e+00 0.000000e+00 0.000000e+00 0.000000e+00 0.000000e+00 2.939744e-02 1.510691e-03 1.924523e-03 1.205781e-03 1.539571e-03 1.394400e-03 1.598690e-03 1.480532e-03 1.398113e-03 1.215753e-03 1.174650e-03 9.854551e-04 6.629324e-04
<GCONST> -1.400000e+11
<MIXTURE> 2 1.000000e+00
<MEAN> 39
 -1.131594e+01 3.171372e+00 3.494839e+00 6.583455e+00 6.971343e+00 8.402751e+00 -7.018940e-01 4.252715e+00 -2.110955e+00 -3.207791e+00 9.519368e-01 9.013593e-01 4.019225e+00 -1.575057e+00 -1.119658e+00 -8.452963e-01 -2.059116e-01 -6.911095e-01 -1.359254e-01 6.844166e-01 1.589081e-01 8.996501e-01 8.666476e-01 -4.214168e-01 1.158499e-01 8.512372e-01 5.485293e-01 -5.779262e-01 -1.497960e-01 1.025178e-02 1.153633e-01 6.869159e-02 -1.438029e-01 3.440104e-01 1.979402e-01 3.882252e-02 1.583222e-01 -7.189773e-02 1.371008e-01
<VARIANCE> 39
 1.189389e+02 6.348344e+01 4.104006e+01 5.973976e+01 5.716459e+01 3.287152e+01 3.121105e+01 2.454562e+01 2.848392e+01 2.627982e+01 2.282163e+01 1.929567e+01 3.016685e+01 4.065211e+00 4.502760e+00 2.841326e+00 2.974741e+00 2.841066e+00 2.654413e+00 2.663382e+00 2.688793e+00 2.752204e+00 1.651858e+00 2.394455e+00 1.572875e+00 2.450867e+00 2.923498e-01 3.473561e-01 4.981219e-01 3.520817e-01 4.218610e-01 4.747441e-01 3.870519e-01 3.855453e-01 4.901751e-01 3.717260e-01 4.384341e-01 3.323052e-01 4.286373e-01
<GCONST> 1.194566e+02
<STATE> 3
<NUMMIXES> 2
<MIXTURE> 1 0.000000e+00
<MEAN> 39
 0.000000e+00 0.000000e+00 0.000000e+00 0.000000e+00 0.000000e+00 0.000000e+00 0.000000e+00 0.000000e+00 0.000000e+00 0.000000e+00 0.000000e+00 0.000000e+00 0.000000e+00 7.602786e-28 -6.781300e-28 2.817260e-28 -2.260459e-29 5.468585e-29 -1.506301e-28 1.148696e-28 -2.120465e-29 7.979356e-30 -5.320312e-29 5.792728e-29 -1.833769e-29 3.866608e-31 -4.988265e-02 4.965165e-03 -7.294576e-03 2.466788e-03 2.788171e-04 -1.618284e-03 -9.823618e-04 -1.922494e-03 -5.035132e-04 -1.812430e-03 -3.375670e-05 -6.368760e-04 -8.684045e-05
<VARIANCE> 39
 0.000000e+00 0.000000e+00 0.000000e+00 0.000000e+00 0.000000e+00 0.000000e+00 0.000000e+00 0.000000e+00 0.000000e+00 0.000000e+00 0.000000e+00 0.000000e+00 0.000000e+00 8.953985e-28 7.123556e-28 1.229489e-28 7.915240e-31 4.632556e-30 3.514752e-29 2.044002e-29 6.965190e-31 9.862945e-32 4.384753e-30 5.198011e-30 5.209071e-31 2.315961e-34 4.486060e-02 3.359458e-03 3.289693e-03 2.491937e-03 2.905590e-03 2.327311e-03 2.783720e-03 2.963404e-03 2.648251e-03 2.054753e-03 2.260878e-03 1.761504e-03 1.385205e-03
<GCONST> -1.300000e+11
<MIXTURE> 2 1.000000e+00
<MEAN> 39
 -8.509855e+00 -7.971731e+00 -3.161276e-01 6.569828e+00 4.252995e+00 8.626977e+00 -2.020624e-01 8.893074e+00 5.733887e+00 3.062416e+00 1.704737e+00 -9.825906e-01 8.909051e+00 2.989517e+00 -2.537354e+00 -6.816906e-02 -1.207494e+00 -1.733959e+00 2.059608e-02 -1.221371e+00 1.278021e-01 -3.726740e-01 3.963081e-01 1.863713e+00 -1.001762e+00 -3.290811e-01 5.173587e-01 5.304535e-02 4.150335e-01 -5.109670e-01 -3.795136e-01 1.409180e-01 -4.242801e-01 -4.743620e-01 -1.208660e+00 -6.765903e-01 7.221745e-01 3.992165e-03 -4.945320e-01
<VARIANCE> 39
 3.769765e+01 2.324353e+01 1.430884e+01 2.322822e+01 2.899348e+01 1.906132e+01 2.739934e+01 2.276445e+01 2.689594e+01 1.950411e+01 2.091138e+01 2.459612e+01 2.013521e+01 2.192371e+00 1.800726e+00 2.124473e+00 3.570099e+00 2.727778e+00 2.271867e+00 2.905143e+00 3.639242e+00 8.651170e+00 4.577069e+00 3.760151e+00 2.253226e+00 4.299759e+00 4.192196e-01 2.120758e-01 2.217587e-01 3.363166e-01 4.591570e-01 4.130659e-01 4.139747e-01 4.379071e-01 6.387034e-01 5.494412e-01 3.575453e-01 5.854527e-01 7.260714e-01
<GCONST> 1.160559e+02
<STATE> 4
<NUMMIXES> 2
<MIXTURE> 1 3.888604e-01
<MEAN> 39
 8.605013e+00 -1.642389e+01 8.878884e-01 -1.739890e-01 -1.337691e+00 7.137599e+00 -9.986627e+00 8.375681e+00 -8.974019e+00 -8.597437e+00 1.604309e+01 -9.799994e-01 3.506150e+00 1.004051e+00 -7.379087e-01 3.132018e-01 -5.503052e-01 -5.094476e-01 5.574511e-01 -4.681671e-02 -3.318218e-01 -1.521432e+00 -6.737577e-01 1.588715e+00 8.501620e-01 1.859196e-01 -6.975374e-01 5.280526e-01 -2.311649e-01 5.827430e-01 4.574852e-01 -5.703586e-02 6.918656e-01 9.244128e-02 8.176994e-01 6.177196e-01 -6.211907e-01 2.700567e-01 2.257024e-01
<VARIANCE> 39
 5.896917e+01 3.230947e+01 4.256845e+01 5.196890e+01 6.741341e+01 1.255780e+02 8.232972e+01 1.117973e+02 4.232484e+01 1.648854e+02 3.495767e+01 2.351542e+01 4.149923e+01 2.983456e+00 2.186785e+00 1.720815e+00 2.999545e+00 2.088647e+00 3.403034e+00 4.604428e+00 3.092783e+00 6.826619e+00 5.749550e+00 5.290166e+00 1.453268e+00 1.473014e+00 2.480786e-01 2.303270e-01 2.870296e-01 4.498766e-01 3.385495e-01 4.100934e-01 5.171695e-01 4.887795e-01 7.087317e-01 6.326952e-01 4.739633e-01 3.173553e-01 3.653951e-01
<GCONST> 1.266595e+02
<MIXTURE> 2 6.111394e-01
<MEAN> 39
 6.462838e+00 -1.380199e+01 -3.485949e+00 8.638890e-01 -5.359670e+00 8.435088e+00 3.649850e+00 7.949096e+00 -3.828639e+00 1.911535e+00 1.503140e+01 3.074062e+00 6.842841e+00 6.199580e-01 1.350221e+00 -2.874356e-01 8.823493e-01 6.812261e-01 -7.994612e-01 5.246534e-01 6.156574e-01 5.503994e-01 -1.615219e-01 -5.425767e-01 -5.063812e-02 -6.799480e-01 1.941635e-01 9.516163e-02 8.868491e-02 -3.157318e-02 7.276398e-02 -2.464158e-01 -4.258718e-01 1.362481e-01 -7.409607e-02 -3.189512e-01 -1.869645e-02 -2.098114e-01 -2.188156e-01
<VARIANCE> 39
 7.713049e+01 7.222428e+01 6.786075e+01 6.141468e+01 1.188382e+02 1.081908e+02 6.102882e+01 6.416165e+01 4.215775e+01 7.033083e+01 5.800475e+01 2.873961e+01 2.422387e+01 1.593984e+00 3.603922e+00 2.482678e+00 2.854219e+00 4.073055e+00 3.078242e+00 4.454763e+00 2.669886e+00 2.317710e+00 3.313495e+00 2.648820e+00 2.431205e+00 1.778706e+00 1.187252e-01 3.532994e-01 3.579628e-01 2.952409e-01 4.227012e-01 5.173567e-01 5.278046e-01 4.412853e-01 3.869225e-01 4.142548e-01 3.872804e-01 3.633328e-01 2.647420e-01
<GCONST> 1.246442e+02
<TRANSP> 5
 0.000000e+00 1.000000e+00 0.000000e+00 0.000000e+00 0.000000e+00
 0.000000e+00 8.219610e-01 1.780390e-01 0.000000e+00 0.000000e+00
 0.000000e+00 0.000000e+00 7.785814e-01 2.214186e-01 0.000000e+00
 0.000000e+00 0.000000e+00 0.000000e+00 9.258255e-01 7.417448e-02
 0.000000e+00 0.000000e+00 0.000000e+00 0.000000e+00 0.000000e+00
<ENDHMM>
~h "tx"
<BEGINHMM>
<NUMSTATES> 5
<STATE> 2
<NUMMIXES> 2
<MIXTURE> 1 7.549079e-01
<MEAN> 39
 -1.865654e+01 -8.976213e+00 5.063866e+00 5.864897e+00 2.215279e+00 8.080248e+00 -2.547271e+00 6.109608e+00 9.574929e-01 -3.593163e+00 -1.057617e+00 -4.092895e-01 5.938541e+00 4.745668e-01 -9.330163e-01 -1.870525e+00 8.896924e-01 7.222034e-01 1.082424e-01 2.666829e-01 3.987339e-01 1.543262e+00 6.711265e-01 -4.545262e-01 3.796794e-02 1.182818e+00 6.167668e-01 -4.525841e-01 2.462777e-01 -3.416524e-01 -3.659182e-01 -5.858599e-02 -1.801568e-01 7.748908e-02 -7.280400e-02 9.927909e-02 2.358321e-01 -2.158719e-01 -3.227368e-01
<VARIANCE> 39
 6.964213e+01 9.773095e+01 7.151083e+01 6.781030e+01 9.875243e+01 2.112212e+01 3.190359e+01 2.125069e+01 2.711171e+01 2.141182e+01 3.119009e+01 1.564081e+01 2.409182e+01 6.057652e+00 9.151005e+00 8.072089e+00 3.722523e+00 4.746511e+00 2.976111e+00 2.585736e+00 3.158657e+00 2.763138e+00 2.075898e+00 2.361873e+00 1.643686e+00 3.182395e+00 2.920171e-01 4.571855e-01 7.477193e-01 4.341747e-01 8.648501e-01 4.262116e-01 4.343786e-01 4.351271e-01 4.378612e-01 3.149986e-01 4.920548e-01 2.953648e-01 6.735396e-01
<GCONST> 1.252066e+02
<MIXTURE> 2 2.450922e-01
<MEAN> 39
 -2.641659e+01 -7.282662e+00 -4.339613e+00 -2.704857e+00 -3.877273e+00 8.856606e-01 -4.003770e+00 1.433185e+00 -1.994975e+00 -1.483855e+00 7.117234e-01 -1.150891e+00 8.059681e-01 2.330205e-01 1.925888e-01 -6.084278e-01 5.340574e-01 7.843628e-01 -6.514499e-02 2.951862e-01 2.288021e-01 3.129590e-01 2.696728e-01 -2.874869e-01 1.045890e-01 3.419834e-01 3.630782e-01 -2.787221e-01 5.658157e-01 4.249549e-01 2.150632e-01 4.325130e-01 6.857628e-02 2.377001e-01 1.087384e-01 -1.080204e-01 -2.394306e-02 4.219335e-02 2.945847e-01
<VARIANCE> 39
 6.812197e-01 3.928685e+00 4.921249e+00 3.712168e+00 4.902801e+00 6.075788e+00 6.269509e+00 6.875318e+00 9.016477e+00 8.848447e+00 7.500875e+00 6.607803e+00 5.886381e+00 5.919908e-01 1.265836e+00 2.676174e+00 1.597584e+00 1.923864e+00 1.712571e+00 1.441308e+00 1.618081e+00 1.667710e+00 1.689946e+00 1.269402e+00 1.206176e+00 1.287337e+00 1.799324e-01 3.468930e-01 4.263389e-01 3.084209e-01 3.225704e-01 3.233545e-01 2.533082e-01 3.589897e-01 4.290895e-01 3.702328e-01 2.454467e-01 2.282217e-01 2.639499e-01
<GCONST> 8.218339e+01
<STATE> 3
<NUMMIXES> 2
<MIXTURE> 1 4.948745e-01
<MEAN> 39
 -8.730549e+00 -1.520074e+01 1.675745e+00 1.018618e+01 3.904940e+00 9.471799e+00 -2.308334e+00 8.203526e+00 7.800799e+00 1.377006e+00 -1.508844e+00 -3.076051e+00 8.146225e+00 2.703502e+00 -3.843251e+00 1.118800e+00 -7.011173e-01 -2.140320e+00 5.003787e-01 -1.040086e+00 -1.926381e-01 -6.503785e-01 -7.545559e-01 2.226185e+00 7.940069e-03 -2.062411e+00 -1.227532e-03 -3.959049e-01 7.468340e-01 -3.346804e-01 -2.525989e-01 3.966604e-01 -1.756665e-01 -1.888108e-01 -1.200542e+00 -1.102174e+00 7.460806e-01 5.352012e-01 -6.434460e-01
<VARIANCE> 39
 1.699888e+01 2.516223e+01 2.190195e+01 2.705032e+01 4.116455e+01 2.317789e+01 3.219857e+01 2.431996e+01 3.236426e+01 1.889163e+01 3.312212e+01 2.193931e+01 3.500196e+01 1.579951e+00 2.406282e+00 2.982931e+00 2.521653e+00 2.065323e+00 2.378453e+00 1.917986e+00 2.103212e+00 5.448360e+00 4.584143e+00 3.817591e+00 3.526582e+00 2.969738e+00 3.337040e-01 3.708511e-01 3.575929e-01 4.209777e-01 7.089484e-01 5.463623e-01 3.989718e-01 4.331969e-01 4.394687e-01 3.981721e-01 4.354409e-01 3.923638e-01 1.011253e+00
<GCONST> 1.172641e+02
<MIXTURE> 2 5.051256e-01
<MEAN> 39
 -2.494890e+00 -3.174127e+01 1.156827e+01 5.884448e+00 -3.295743e+00 1.626362e+01 -6.656096e+00 7.501029e+00 -1.896671e+00 -1.038000e+01 7.782740e+00 1.646868e+00 1.642850e+00 1.081431e+00 -3.100918e+00 3.472260e+00 3.190769e-02 -4.294203e-01 2.909921e+00 -7.691653e-01 1.681121e-01 -2.262418e+00 -2.373534e+00 2.122594e+00 9.469322e-01 -1.005397e-01 -3.498046e-01 1.520874e+00 -3.492559e-01 5.174004e-01 8.655344e-01 -2.446264e-01 3.173898e-01 -1.868192e-01 4.704236e-01 6.890189e-01 -7.665877e-01 -2.501717e-01 5.480514e-01
<VARIANCE> 39
 3.512296e+01 5.528568e+01 9.000642e+01 6.590098e+01 6.007080e+01 7.503204e+01 6.297901e+01 4.291798e+01 7.292714e+01 5.261479e+01 7.867613e+01 3.737497e+01 4.308564e+01 2.847699e+00 5.261538e+00 3.147709e+00 2.538663e+00 2.454434e+00 3.154248e+00 2.662866e+00 2.898489e+00 3.852644e+00 4.803495e+00 3.022675e+00 2.260787e+00 2.522930e+00 2.186380e-01 1.012975e+00 1.332250e+00 3.573462e-01 3.564560e-01 1.209292e+00 6.818488e-01 6.052232e-01 6.814538e-01 8.584214e-01 6.393844e-01 4.067971e-01 4.568745e-01
<GCONST> 1.322525e+02
<STATE> 4
<NUMMIXES> 2
<MIXTURE> 1 9.337270e-01
<MEAN> 39
 -2.495082e+00 -2.101170e+01 1.205464e+01 1.101854e+01 4.285173e+00 1.864559e+01 -1.912119e+00 7.007249e+00 -1.975085e+00 -8.977616e+00 6.394092e+00 3.666308e+00 4.764046e+00 1.087200e+00 3.569674e+00 -1.438822e+00 9.153662e-01 1.627751e+00 -1.620943e+00 9.808969e-02 -7.528549e-01 -2.374641e-01 3.061019e-01 -6.323466e-01 -3.750012e-02 -3.542582e-01 1.207849e-01 2.897476e-01 -6.759816e-01 -1.650911e-01 1.645922e-01 -6.895792e-01 -3.899404e-01 1.205357e-01 -2.756933e-03 -1.467496e-01 -6.112970e-02 -8.678492e-02 -2.470004e-01
<VARIANCE> 39
 8.489217e+01 2.107530e+02 9.408746e+01 6.975000e+01 6.647446e+01 8.961721e+01 7.401360e+01 6.867091e+01 8.354586e+01 5.125087e+01 7.470454e+01 4.074230e+01 5.772720e+01 4.946911e+00 4.189458e+00 6.313909e+00 3.065022e+00 4.277767e+00 4.631620e+00 6.016340e+00 3.484578e+00 4.270151e+00 4.699148e+00 2.751023e+00 2.218000e+00 2.675584e+00 2.990340e-01 1.319007e+00 1.394880e+00 3.525513e-01 5.940243e-01 9.173883e-01 6.208327e-01 7.435167e-01 6.759375e-01 7.454147e-01 6.705673e-01 3.475484e-01 3.658692e-01
<GCONST> 1.395705e+02
<MIXTURE> 2 6.627307e-02
<MEAN> 39
 1.191658e+01 -1.575461e+01 -9.120164e+00 8.677384e+00 6.034757e+00 -2.621633e+00 -1.617122e+01 1.621852e+00 -8.755863e+00 -8.263787e+00 1.679202e+01 5.035484e+00 -1.338538e+00 9.401340e-01 1.341891e+00 -1.567039e+00 -2.827635e-01 9.395105e-01 -2.037195e+00 -9.889227e-01 1.041526e+00 -3.818535e-01 -4.337671e-01 8.124749e-01 1.079825e-01 -4.897137e-01 -3.435676e-01 -1.494054e-01 5.840698e-01 -2.094033e-02 -2.132159e-01 5.323536e-01 3.239477e-01 5.133212e-02 3.042086e-01 1.994710e-01 -1.291750e-01 2.565187e-02 7.642864e-02
<VARIANCE> 39
 5.729865e+01 4.039292e+01 6.551223e+01 3.643972e+01 7.412703e+01 5.772335e+01 5.611501e+01 8.621600e+01 3.573147e+01 2.157365e+02 1.233352e+02 2.946641e+01 2.306115e+01 2.294893e+00 1.193066e+00 4.749043e+00 9.722086e-01 3.164274e+00 5.596469e+00 4.395621e+00 3.352306e+00 2.788433e+00 5.761035e+00 2.852825e+00 1.422924e+00 1.204814e+00 1.573060e-01 3.032799e-01 3.869320e-01 1.667159e-01 4.054433e-01 4.407020e-01 3.943165e-01 4.925837e-01 2.540159e-01 4.477597e-01 4.466749e-01 1.987784e-01 2.228937e-01
<GCONST> 1.215585e+02
<TRANSP> 5
 0.000000e+00 1.000000e+00 0.000000e+00 0.000000e+00 0.000000e+00
 0.000000e+00 8.035661e-01 1.964339e-01 0.000000e+00 0.000000e+00
 0.000000e+00 0.000000e+00 8.365665e-01 1.634335e-01 0.000000e+00
 0.000000e+00 0.000000e+00 0.000000e+00 8.206847e-01 1.793154e-01
 0.000000e+00 0.000000e+00 0.000000e+00 0.000000e+00 0.000000e+00
<ENDHMM>
~h "uu"
<BEGINHMM>
<NUMSTATES> 7
<STATE> 2
<NUMMIXES> 2
<MIXTURE> 1 6.996581e-01
<MEAN> 39
 1.587327e+01 -5.952971e-01 5.518807e+00 1.922360e+01 1.759839e+01 1.463422e-01 -1.388921e+01 1.219027e+01 -3.475714e+00 -2.852134e+01 -2.058019e+00 9.632332e-01 -1.475915e+01 1.844878e-01 9.281765e-01 1.725430e-01 -9.934751e-01 -1.822981e+00 -1.170415e+00 9.600612e-01 1.515314e+00 9.787507e-01 1.196262e-02 -1.341568e+00 -8.986762e-01 2.638178e-01 -1.186514e-02 -1.473595e-02 -1.314181e-03 1.006220e-01 8.602378e-02 -3.577675e-02 -9.451665e-02 -9.427072e-02 4.428579e-02 2.516114e-01 1.038110e-01 -8.428857e-02 -5.615865e-02
<VARIANCE> 39
 3.737997e+00 1.679933e+01 1.062265e+01 3.599520e+01 5.433041e+01 3.162161e+01 3.101306e+01 4.516419e+01 2.918571e+01 3.751104e+01 2.873455e+01 2.140314e+01 1.333727e+01 1.646909e-01 2.659874e-01 3.524683e-01 6.273429e-01 7.481600e-01 8.302836e-01 1.029115e+00 1.099199e+00 7.342453e-01 1.944460e+00 8.692797e-01 6.558601e-01 5.433112e-01 2.672052e-02 3.396587e-02 5.206756e-02 8.019444e-02 8.583141e-02 1.133048e-01 1.337419e-01 1.676107e-01 1.058012e-01 2.140216e-01 1.072701e-01 1.063476e-01 7.810681e-02
<GCONST> 7.493661e+01
<MIXTURE> 2 3.003420e-01
<MEAN> 39
 1.167599e+01 3.266364e+00 4.834500e+00 8.510330e+00 6.245527e+00 9.342392e+00 4.502086e+00 1.239267e+01 -3.617987e+00 -1.316121e+01 -7.140448e+00 -8.478610e+00 -2.389819e+00 9.186323e-01 5.569056e-01 -1.167018e-01 -2.143910e-02 -1.609145e-01 -1.361879e+00 -8.755048e-01 4.585367e-01 3.138143e-01 -3.998882e-01 -1.903645e-01 -4.103058e-01 -1.044336e+00 -6.123232e-02 -1.611329e-01 -6.285331e-02 3.873327e-02 8.087911e-02 -2.457006e-01 -4.347836e-01 -1.231084e-03 3.515718e-01 2.174298e-01 1.063289e-01 2.890619e-02 -1.692236e-01
<VARIANCE> 39
 6.458802e+01 1.605105e+02 7.954900e+01 7.288667e+01 4.499243e+01 8.126694e+01 6.020197e+01 3.355534e+01 6.535213e+01 3.479649e+01 9.578050e+01 4.119784e+01 2.662217e+01 1.890758e+00 3.620708e+00 2.717661e+00 2.569029e+00 1.607827e+00 8.414333e+00 4.989520e+00 3.089994e+00 3.221169e+00 2.816792e+00 3.786504e+00 1.549817e+00 2.025077e+00 2.699272e-01 6.630610e-01 4.278252e-01 2.871549e-01 1.919664e-01 5.582641e-01 5.353081e-01 3.355035e-01 6.388726e-01 4.198681e-01 5.726578e-01 2.276144e-01 2.056034e-01
<GCONST> 1.258804e+02
<STATE> 3
<NUMMIXES> 2
<MIXTURE> 1 7.157624e-01
<MEAN> 39
 1.698388e+01 8.086574e+00 8.301991e+00 1.460472e+01 2.637510e+00 -1.415285e+01 -1.011846e+01 2.048045e+01 7.094690e+00 -1.717029e+01 -6.814891e+00 -5.132378e+00 -1.373579e+01 -6.271249e-02 4.078220e-01 2.939798e-01 -2.439835e-02 -5.327174e-01 -5.060183e-01 8.131006e-02 -1.796670e-01 -8.934165e-02 5.066213e-01 3.479352e-01 3.402156e-01 1.314612e-01 1.195932e-03 -2.916114e-02 -5.871084e-02 -4.196319e-02 1.035892e-01 2.336318e-01 3.969830e-02 -1.573527e-01 -1.294756e-01 -1.853824e-02 2.308973e-02 1.018264e-02 6.360384e-02
<VARIANCE> 39
 2.079541e+00 9.468327e+00 7.209445e+00 1.307042e+01 1.456899e+01 2.322350e+01 2.921294e+01 1.795780e+01 1.825908e+01 2.669888e+01 1.178726e+01 1.315552e+01 6.813358e+00 1.133956e-01 3.370109e-01 4.254705e-01 4.951918e-01 4.708694e-01 8.593585e-01 7.885339e-01 1.207193e+00 6.574332e-01 1.372493e+00 6.535006e-01 1.029648e+00 3.526420e-01 1.752872e-02 3.864754e-02 4.013568e-02 6.074534e-02 6.447857e-02 8.868614e-02 1.305360e-01 1.555634e-01 7.104787e-02 1.299047e-01 7.806547e-02 8.586814e-02 5.923890e-02
<GCONST> 6.223327e+01
<MIXTURE> 2 2.842374e-01
<MEAN> 39
 1.784147e+01 8.748917e+00 3.234226e+00 9.276217e+00 6.290875e+00 -3.223421e+00 -7.836046e+00 1.487378e+01 6.618305e+00 -1.131907e+01 -7.975216e+00 -1.150882e+01 -1.187331e+01 1.187482e-01 2.605480e-01 5.037973e-01 6.699738e-01 -1.962305e-01 -2.228298e+00 -1.669088e+00 8.677849e-01 1.369143e+00 2.096135e-01 3.300014e-01 2.060581e-01 -9.469550e-01 -1.627696e-01 -1.357689e-01 1.182870e-01 4.888554e-02 -5.925112e-02 2.111505e-01 2.400312e-01 -9.944643e-02 -1.953491e-01 -4.375955e-02 8.175546e-02 2.459814e-01 2.600298e-01
<VARIANCE> 39
 7.533013e+00 2.889808e+01 1.868795e+01 4.810839e+01 1.874069e+01 6.795109e+01 4.794318e+01 4.303177e+01 3.190140e+01 5.936285e+01 2.735924e+01 3.074223e+01 1.553353e+01 3.230165e-01 5.646462e-01 6.434078e-01 7.942557e-01 6.675066e-01 1.102990e+00 1.678309e+00 1.617542e+00 1.132163e+00 1.727903e+00 1.104938e+00 1.047309e+00 1.195475e+00 4.523320e-02 6.517143e-02 1.107995e-01 1.032059e-01 9.315143e-02 2.778693e-01 1.877843e-01 2.951523e-01 1.292133e-01 2.534993e-01 1.486576e-01 1.095663e-01 1.042965e-01
<GCONST> 8.834113e+01
<STATE> 4
<NUMMIXES> 2
<MIXTURE> 1 1.000000e+00
<MEAN> 39
 1.631588e+01 1.120230e+01 1.084357e+01 1.424023e+01 7.059378e-01 -1.460384e+01 -1.271879e+01 1.286987e+01 3.487750e+00 -1.184907e+01 -1.272372e-01 2.197041e-01 -9.674429e+00 3.652049e-02 4.368878e-03 -2.203644e-01 -2.602010e-01 -5.868614e-03 3.330653e-01 2.166237e-01 -1.338830e-01 -9.458694e-02 1.171552e-01 -1.237780e-01 -2.092384e-01 1.210127e-01 -1.703930e-02 -3.312634e-02 -7.801175e-02 -4.410167e-02 7.594774e-02 1.705418e-01 8.369695e-02 2.522886e-03 5.699686e-03 1.714392e-03 -8.843312e-02 -1.011212e-01 3.267301e-02
<VARIANCE> 39
 5.401003e+00 2.142420e+01 1.627937e+01 2.301491e+01 4.883318e+01 6.686962e+01 4.607361e+01 5.829532e+01 2.021534e+01 4.601484e+01 3.611121e+01 3.940445e+01 2.217139e+01 1.579887e-01 4.607800e-01 4.259250e-01 6.015651e-01 5.557871e-01 1.210005e+00 1.125863e+00 1.365570e+00 6.748819e-01 1.184301e+00 7.771873e-01 9.428456e-01 5.726188e-01 2.284052e-02 4.803561e-02 4.948200e-02 7.767741e-02 7.165334e-02 1.557976e-01 1.405014e-01 1.747716e-01 9.946429e-02 1.397768e-01 9.329934e-02 1.021276e-01 8.067361e-02
<GCONST> 7.847024e+01
<MIXTURE> 2 0.000000e+00
<MEAN> 39
 1.461647e+01 1.566086e+00 4.283029e+00 1.047744e+00 6.502785e+00 -3.856531e+00 -1.250123e+01 2.030444e+01 -1.960878e+01 -2.413631e+01 2.176554e+01 -7.722874e+00 -7.521120e+00 -4.162222e-01 2.032520e+00 -5.039091e-01 1.759992e+00 1.890749e+00 1.935911e+00 3.822842e+00 1.088910e+00 2.521060e-02 7.017113e-01 -2.663080e+00 -9.208404e-01 -1.433905e+00 1.389438e-01 8.101916e-02 -2.536862e-01 6.819131e-01 -1.020201e-01 -2.967118e-01 -8.747735e-03 1.133121e-01 1.003956e+00 3.701299e-01 -5.309095e-01 6.789156e-01 3.156795e-01
<VARIANCE> 39
 4.115295e-02 2.975082e-01 4.843025e-01 9.611969e-01 1.559830e-01 5.576782e-01 4.045944e-01 3.110657e-01 3.703461e+00 5.259857e-01 7.216492e+00 1.791811e-01 4.307785e-01 1.492903e-03 6.646347e-02 1.838729e-03 5.336142e-02 5.822301e-02 8.217597e-02 2.733870e-01 1.406014e-02 6.674170e-03 3.956914e-03 1.246338e-01 3.787160e-03 1.335406e-02 3.626533e-04 7.911138e-04 1.759008e-04 2.990633e-03 4.511999e-03 3.617913e-03 2.029712e-03 2.319252e-03 9.037256e-03 5.548552e-03 1.611993e-03 2.322674e-03 1.445673e-03
<GCONST> -7.153688e+01
<STATE> 5
<NUMMIXES> 2
<MIXTURE> 1 5.811095e-01
<MEAN> 39
 1.595969e+01 1.127326e+01 5.248518e+00 8.465339e+00 3.715835e+00 -3.126694e+00 -5.340674e+00 1.241991e+01 3.361921e+00 -1.142503e+01 -7.744989e+00 -8.010587e+00 -9.109866e+00 -8.376884e-01 3.535706e-01 -2.788717e-01 -5.847868e-01 6.216322e-01 2.554493e+00 1.762670e+00 -7.542918e-01 -5.218295e-01 8.107449e-01 -5.090197e-01 -5.752926e-01 1.055997e+00 -3.388477e-01 3.099394e-02 2.915652e-01 2.686520e-01 1.333993e-01 1.077191e-01 1.322046e-01 8.055153e-02 1.049164e-02 4.234546e-02 9.349213e-02 1.587259e-01 9.010737e-02
<VARIANCE> 39
 1.261328e+01 2.343735e+01 2.632760e+01 2.469186e+01 5.696757e+01 8.190997e+01 4.211440e+01 3.865715e+01 2.467189e+01 3.583270e+01 5.288342e+01 7.003268e+01 2.239850e+01 8.593930e-01 6.068777e-01 1.074099e+00 1.389734e+00 1.257991e+00 1.701904e+00 2.052664e+00 2.353751e+00 9.401996e-01 1.882965e+00 1.110146e+00 1.187795e+00 9.148930e-01 6.488892e-02 8.759224e-02 1.655395e-01 2.348559e-01 1.757624e-01 2.935721e-01 3.391330e-01 3.650396e-01 1.649126e-01 2.651062e-01 1.836239e-01 2.486596e-01 1.551088e-01
<GCONST> 9.909107e+01
<MIXTURE> 2 4.188904e-01
<MEAN> 39
 1.665558e+01 2.735715e+00 5.368080e+00 1.701780e+01 1.133959e+01 -4.908015e+00 -8.711390e+00 1.900545e+01 7.729424e-01 -2.557630e+01 -8.505329e+00 -4.591960e+00 -1.062963e+01 -1.460479e-01 -3.457272e-01 -8.451223e-02 2.766005e-01 7.056823e-01 1.010754e+00 1.519990e-01 -5.481881e-01 -3.392379e-01 5.862612e-02 -1.834789e-01 -1.440739e-01 5.558959e-01 -1.102689e-01 7.228725e-02 9.316014e-02 -3.480949e-02 -4.675142e-02 2.021466e-01 1.529012e-01 -1.693367e-01 -5.579711e-02 2.034298e-01 5.983007e-02 2.575159e-02 1.196169e-01
<VARIANCE> 39
 3.550333e+00 1.303209e+01 1.719233e+01 1.847521e+01 3.730672e+01 3.316505e+01 2.788163e+01 4.049737e+01 2.543920e+01 4.019521e+01 1.805659e+01 2.633836e+01 1.348819e+01 2.240516e-01 4.757089e-01 7.672003e-01 1.088159e+00 6.023604e-01 1.040032e+00 1.175231e+00 1.039729e+00 6.483845e-01 1.606556e+00 8.606789e-01 9.742700e-01 5.042541e-01 3.954664e-02 8.933555e-02 9.912512e-02 1.287375e-01 1.084154e-01 1.547045e-01 2.348145e-01 1.642995e-01 1.242215e-01 2.923595e-01 1.020061e-01 9.482324e-02 8.323658e-02
<GCONST> 7.982225e+01
<STATE> 6
<NUMMIXES> 2
<MIXTURE> 1 7.172001e-02
<MEAN> 39
 -2.670127e+01 -6.103019e+00 -4.662385e+00 -2.719812e+00 -3.652224e+00 6.963691e-01 -3.671212e+00 9.057198e-01 -1.710554e+00 -3.010571e-01 6.018937e-01 -9.173502e-01 2.291740e-01 8.398128e-02 8.205593e-02 9.923123e-02 2.467001e-01 2.675689e-01 1.856452e-01 5.467368e-02 1.240466e-01 1.621862e-01 2.950943e-01 2.230763e-01 1.330098e-01 7.673094e-02 3.281727e-01 2.186627e-01 2.521888e-01 3.485635e-01 2.344299e-01 1.110609e-02 -9.185637e-02 -2.332281e-02 -6.304509e-02 -2.165556e-01 -2.150270e-01 -1.409562e-01 -6.685141e-02
<VARIANCE> 39
 6.665490e-01 1.045295e+00 2.000092e+00 1.841295e+00 4.380795e+00 5.246771e+00 6.369331e+00 5.221880e+00 8.944490e+00 7.735127e+00 6.628118e+00 6.288002e+00 5.702386e+00 1.081597e+00 8.004103e-01 9.971763e-01 1.956898e+00 1.866515e+00 9.654363e-01 1.017730e+00 1.176619e+00 2.700533e+00 2.441775e+00 1.956461e+00 1.106480e+00 1.167537e+00 2.421722e-01 1.331801e-01 2.339926e-01 4.686697e-01 4.278603e-01 1.831474e-01 2.242256e-01 3.127388e-01 6.652564e-01 4.369263e-01 4.397212e-01 2.876712e-01 2.882615e-01
<GCONST> 7.767781e+01
<MIXTURE> 2 9.282799e-01
<MEAN> 39
 5.388978e+00 1.120788e+01 9.301761e+00 1.306046e+01 1.003659e+01 8.249022e+00 2.044173e+00 1.034519e+01 2.883871e-01 -9.113431e+00 -7.629984e+00 -6.678756e+00 -2.716131e+00 -2.209860e+00 -8.848310e-02 9.633043e-01 6.464776e-01 4.427276e-01 1.214764e+00 6.318777e-01 -6.435806e-01 7.392788e-02 1.215546e+00 3.499424e-01 4.166449e-01 1.110235e+00 -6.480007e-02 -4.652441e-01 -1.209970e-01 -4.101993e-03 -5.619977e-02 -2.168743e-01 -3.502966e-01 4.091704e-03 1.331444e-01 -7.334939e-02 7.626787e-02 1.022708e-01 2.114965e-02
<VARIANCE> 39
 6.455154e+01 3.850169e+01 3.524526e+01 4.296718e+01 5.640086e+01 6.646969e+01 6.018771e+01 5.087229e+01 3.204662e+01 5.956453e+01 5.404157e+01 3.505791e+01 1.926987e+01 8.436320e-01 4.107460e+00 2.226442e+00 1.971957e+00 1.697685e+00 2.859139e+00 2.825205e+00 2.117054e+00 1.584332e+00 3.226578e+00 1.681412e+00 1.718599e+00 1.456223e+00 7.962243e-02 5.165799e-01 3.847583e-01 3.064623e-01 2.014520e-01 2.674397e-01 3.192500e-01 3.201650e-01 2.517256e-01 3.660571e-01 3.192349e-01 1.947069e-01 2.217429e-01
<GCONST> 1.130936e+02
<TRANSP> 7
 0.000000e+00 1.000000e+00 0.000000e+00 0.000000e+00 0.000000e+00 0.000000e+00 0.000000e+00
 0.000000e+00 8.715379e-01 1.284621e-01 0.000000e+00 0.000000e+00 0.000000e+00 0.000000e+00
 0.000000e+00 0.000000e+00 8.894454e-01 1.105546e-01 0.000000e+00 0.000000e+00 0.000000e+00
 0.000000e+00 0.000000e+00 0.000000e+00 8.408423e-01 1.591577e-01 0.000000e+00 0.000000e+00
 0.000000e+00 0.000000e+00 0.000000e+00 0.000000e+00 8.298239e-01 1.701761e-01 0.000000e+00
 0.000000e+00 0.000000e+00 0.000000e+00 0.000000e+00 0.000000e+00 8.030934e-01 1.969066e-01
 0.000000e+00 0.000000e+00 0.000000e+00 0.000000e+00 0.000000e+00 0.000000e+00 0.000000e+00
<ENDHMM>
~h "SIL"
<BEGINHMM>
<NUMSTATES> 5
<STATE> 2
<NUMMIXES> 2
<MIXTURE> 1 6.343535e-01
<MEAN> 39
 -9.558927e+00 -2.955737e+00 -2.506285e+00 4.132630e+00 -4.022208e-01 3.377083e+00 4.130420e+00 3.240064e-02 1.627516e+00 6.109094e-01 -1.318923e-01 4.498853e+00 -8.942712e-01 -6.928948e-02 3.829870e-02 -6.734582e-04 6.790166e-03 1.340300e-02 1.375837e-02 2.232590e-02 1.784532e-02 1.971374e-02 1.640245e-02 -5.062588e-03 -1.623879e-03 2.044486e-02 -2.696889e-03 4.180977e-03 1.697672e-02 -6.120666e-03 -4.228717e-03 6.320278e-04 -1.656370e-03 -2.444819e-03 6.286830e-03 -8.582719e-03 -1.216181e-02 -5.073556e-03 -4.548995e-03
<VARIANCE> 39
 4.186462e+01 7.402940e+01 3.099679e+01 3.340697e+01 4.645889e+01 4.345008e+01 2.968412e+01 3.228226e+01 3.052909e+01 2.290461e+01 1.840874e+01 1.938979e+01 2.506889e+01 1.440693e-01 3.649671e-01 4.392949e-01 5.817301e-01 7.149680e-01 8.990549e-01 1.019488e+00 1.134216e+00 1.207672e+00 1.148922e+00 1.105158e+00 1.056239e+00 9.328530e-01 2.465242e-02 5.432563e-02 8.521398e-02 1.176557e-01 1.502030e-01 1.916525e-01 2.139053e-01 2.402989e-01 2.571377e-01 2.458468e-01 2.369102e-01 2.262610e-01 2.008634e-01
<GCONST> 8.756295e+01
<MIXTURE> 2 3.656465e-01
<MEAN> 39
 -1.142323e+01 1.189757e+00 -1.150043e+00 2.073591e+00 1.984568e+00 1.458758e+00 4.666055e+00 1.247311e+00 2.303590e+00 6.847165e-01 -4.941858e-01 4.576219e+00 -1.241537e+00 -2.383977e-01 3.311241e-02 -1.279305e-02 2.437228e-02 2.793390e-02 1.407799e-01 9.608070e-02 8.677866e-02 1.114440e-01 1.082627e-01 3.608481e-02 3.226501e-02 6.382274e-02 1.940947e-02 3.630415e-03 8.181022e-03 2.361297e-02 2.753633e-02 -1.779759e-02 -3.005121e-02 -1.506858e-02 -2.992165e-02 -1.730591e-02 -1.236073e-02 -2.410082e-02 -2.872620e-03
<VARIANCE> 39
 4.480489e+01 6.668343e+01 4.001367e+01 5.130425e+01 5.788618e+01 6.144305e+01 5.531167e+01 4.810794e+01 4.128096e+01 3.064755e+01 2.747056e+01 2.852841e+01 3.160432e+01 1.514161e+00 2.485977e+00 2.332164e+00 2.129232e+00 2.084023e+00 2.247124e+00 2.255863e+00 2.281002e+00 2.357451e+00 2.077529e+00 1.851172e+00 1.746888e+00 1.433622e+00 2.191909e-01 3.888186e-01 4.058700e-01 3.762366e-01 3.878883e-01 4.263409e-01 4.298833e-01 4.452224e-01 4.540788e-01 4.104838e-01 3.682645e-01 3.519675e-01 2.906989e-01
<GCONST> 1.171093e+02
<STATE> 3
<NUMMIXES> 2
<MIXTURE> 1 6.952365e-01
<MEAN> 39
 -4.614826e-36 4.088473e-39 7.546833e-41 -2.003180e-38 -1.016468e-37 1.405099e-39 -7.973388e-43 7.664946e-39 -1.286953e-38 1.415171e-41 6.993320e-41 6.165994e-41 1.993908e-41 5.552645e-41 1.641061e-40 1.461414e-41 6.268008e-42 1.373272e-43 -2.054304e-42 1.018744e-41 -2.522337e-44 -2.642154e-39 1.558244e-42 1.841306e-42 3.833953e-42 -1.401298e-45 -1.041492e-02 1.165869e-03 -4.681267e-04 1.067939e-03 -3.674125e-04 -4.449329e-04 -4.800549e-04 -8.346118e-04 -4.919678e-04 -6.385805e-04 -4.974747e-04 3.757836e-04 -7.628010e-04
<VARIANCE> 39
 1.000000e-02 1.000000e-02 1.000000e-02 1.000000e-02 1.000000e-02 1.000000e-02 1.000000e-02 1.000000e-02 1.000000e-02 1.000000e-02 1.000000e-02 1.000000e-02 1.000000e-02 1.000000e-02 1.000000e-02 1.000000e-02 1.000000e-02 1.000000e-02 1.000000e-02 1.000000e-02 1.000000e-02 1.000000e-02 1.000000e-02 1.000000e-02 1.000000e-02 1.000000e-02 1.000000e-02 1.000000e-02 1.000000e-02 1.000000e-02 1.000000e-02 1.000000e-02 1.000000e-02 1.000000e-02 1.000000e-02 1.000000e-02 1.000000e-02 1.000000e-02 1.000000e-02
<GCONST> -1.079245e+02
<MIXTURE> 2 3.047635e-01
<MEAN> 39
 -3.073403e+01 1.425273e+01 -6.347635e+00 2.336389e+00 -7.483404e-01 1.066642e+01 -1.116233e+01 5.172227e+00 2.572465e-01 4.570226e-01 -1.853601e+00 4.806254e-01 3.082728e+00 -1.703352e-02 1.551152e-02 3.685159e-02 3.168634e-02 1.600667e-02 2.196852e-03 1.066339e-02 1.046215e-02 6.194680e-03 -2.002487e-03 -2.168891e-02 -2.960364e-02 -1.420306e-02 6.402527e-02 -2.888847e-02 1.946194e-02 2.577228e-02 -3.223030e-03 -2.393205e-02 1.966219e-02 7.751088e-04 -1.281637e-02 -3.375708e-03 5.767592e-03 -3.608371e-03 -2.195551e-02
<VARIANCE> 39
 7.722108e+01 3.633752e+01 1.621295e+01 8.805264e+00 1.116743e+01 2.184221e+01 5.614600e+01 9.989722e+00 7.891666e+00 5.587424e+00 5.826734e+00 7.160335e+00 7.011834e+00 2.358004e-01 2.073665e-01 2.922952e-01 2.998027e-01 3.982294e-01 4.320155e-01 5.057585e-01 5.343324e-01 5.329021e-01 5.498871e-01 5.658979e-01 5.152957e-01 4.229449e-01 9.825453e-02 6.422583e-02 7.037972e-02 7.732156e-02 9.463117e-02 1.049519e-01 1.273331e-01 1.155301e-01 1.163909e-01 1.174336e-01 1.189772e-01 1.076718e-01 9.144803e-02
<GCONST> 6.387524e+01
<STATE> 4
<NUMMIXES> 2
<MIXTURE> 1 5.103472e-01
<MEAN> 39
 -1.256804e+01 6.479373e+00 2.038786e+00 8.567524e+00 2.427899e+00 5.176943e+00 4.114543e-01 4.024741e+00 1.021508e+00 1.262775e+00 -1.256009e+00 9.477930e-01 3.137723e-02 -8.586787e-02 3.690922e-02 2.457621e-01 1.594240e-01 1.689443e-01 5.045222e-02 3.103973e-02 6.963865e-02 1.091670e-01 7.266748e-02 3.943156e-02 6.249414e-03 -1.648775e-02 1.051229e-02 -3.655927e-02 1.203187e-02 -3.837839e-02 1.769672e-03 -1.438639e-02 9.163395e-03 8.845959e-03 -7.347676e-03 -3.171584e-02 -5.209196e-03 1.373672e-02 -1.236865e-02
<VARIANCE> 39
 7.612381e+01 6.791934e+01 3.206618e+01 5.097443e+01 4.710615e+01 4.857334e+01 4.886001e+01 4.522910e+01 3.813118e+01 2.496777e+01 2.466132e+01 2.227277e+01 1.953887e+01 6.615518e-01 8.886616e-01 9.175950e-01 1.017072e+00 1.108420e+00 1.194592e+00 1.274129e+00 1.362965e+00 1.347271e+00 1.241394e+00 1.154082e+00 1.094268e+00 9.258087e-01 1.785030e-01 2.040161e-01 1.926394e-01 2.249779e-01 2.455316e-01 2.707347e-01 2.889727e-01 3.002017e-01 2.985176e-01 2.784478e-01 2.593574e-01 2.391664e-01 2.035334e-01
<GCONST> 1.016392e+02
<MIXTURE> 2 4.896528e-01
<MEAN> 39
 -1.020193e+01 3.199551e+00 2.373005e+00 5.452412e+00 2.385052e+00 2.486034e+00 1.580645e+00 3.328131e+00 1.332066e+00 -7.191740e-01 -2.476467e+00 1.183569e+00 -1.171889e+00 1.273982e+00 -3.833585e-01 4.658445e-01 1.614458e-01 4.792918e-02 -5.415885e-01 -1.025224e-01 -1.463170e-02 -2.565329e-01 -5.430909e-01 -4.399176e-01 -3.804746e-01 -3.820809e-01 6.029564e-02 -8.747855e-02 5.094163e-03 -3.020878e-02 5.573182e-03 -8.083791e-02 -5.798243e-02 -1.463480e-02 1.865065e-03 -3.867018e-02 -9.503978e-03 -1.724554e-02 6.533443e-03
<VARIANCE> 39
 9.643607e+01 9.792954e+01 6.559746e+01 7.856171e+01 8.060581e+01 7.181393e+01 7.312693e+01 5.997856e+01 4.726611e+01 4.559750e+01 3.356037e+01 3.527980e+01 2.955104e+01 5.178400e+00 5.150322e+00 3.770604e+00 3.737880e+00 3.884596e+00 3.836053e+00 4.076818e+00 3.454412e+00 3.297246e+00 2.993804e+00 2.481349e+00 2.278534e+00 1.766467e+00 7.921278e-01 8.026540e-01 6.029379e-01 5.582282e-01 6.184182e-01 6.333398e-01 6.467891e-01 5.800772e-01 5.622950e-01 5.424428e-01 4.485731e-01 3.958752e-01 3.163141e-01
<GCONST> 1.329065e+02
<TRANSP> 5
 0.000000e+00 1.000000e+00 0.000000e+00 0.000000e+00 0.000000e+00
 0.000000e+00 9.535479e-01 4.645211e-02 0.000000e+00 0.000000e+00
 0.000000e+00 0.000000e+00 9.280416e-01 7.195845e-02 0.000000e+00
 0.000000e+00 0.000000e+00 0.000000e+00 9.013939e-01 9.860607e-02
 0.000000e+00 0.000000e+00 0.000000e+00 0.000000e+00 0.000000e+00
<ENDHMM>
~h "dxhq"
<BEGINHMM>
<NUMSTATES> 5
<STATE> 2
<NUMMIXES> 2
<MIXTURE> 1 5.000000e-01
<MEAN> 39
 2.400650e+01 -3.617853e+00 -2.128252e+01 -5.149507e+00 8.491602e+00 -4.807734e+00 -1.735091e+01 1.019518e+01 1.174700e+01 -4.402877e+00 -1.133480e+00 6.393310e-02 2.532634e+00 -6.320209e-02 4.663278e-01 8.551938e-02 -1.474160e-01 4.896966e-02 9.687523e-01 7.577409e-01 -6.483939e-01 -5.228313e-01 2.045732e-01 -1.782079e-01 -3.086450e-01 7.311485e-03 -2.625232e-02 8.815419e-02 1.384200e-01 4.476090e-02 -4.114533e-02 -6.942704e-03 -1.102072e-02 -5.261317e-02 -6.672104e-02 7.101073e-02 3.217540e-02 -1.738656e-01 -1.399461e-01
<VARIANCE> 39
 1.103522e+01 6.813512e+00 2.213112e+01 1.571991e+01 9.667951e+00 2.661532e+01 2.521043e+01 2.728977e+01 1.521097e+01 1.606175e+01 1.122183e+01 4.357502e+00 8.558731e+00 4.377194e-01 5.281318e-01 6.915755e-01 2.637676e-01 4.296745e-01 3.235250e-01 6.963030e-01 1.213267e+00 1.853744e-01 9.504142e-01 6.487811e-01 7.571835e-01 4.935818e-01 5.597774e-02 4.386067e-02 6.716109e-02 7.649960e-02 7.149792e-02 7.075959e-02 6.263411e-02 1.846525e-01 2.697617e-02 1.376938e-01 9.714243e-02 6.389938e-02 6.422216e-02
<GCONST> 6.255742e+01
<MIXTURE> 2 5.000000e-01
<MEAN> 39
 2.400650e+01 -3.617853e+00 -2.128252e+01 -5.149507e+00 8.491602e+00 -4.807734e+00 -1.735091e+01 1.019518e+01 1.174700e+01 -4.402877e+00 -1.133480e+00 6.393310e-02 2.532634e+00 -6.320209e-02 4.663278e-01 8.551938e-02 -1.474160e-01 4.896966e-02 9.687523e-01 7.577409e-01 -6.483939e-01 -5.228313e-01 2.045732e-01 -1.782079e-01 -3.086450e-01 7.311485e-03 -2.625232e-02 8.815419e-02 1.384200e-01 4.476090e-02 -4.114533e-02 -6.942704e-03 -1.102072e-02 -5.261317e-02 -6.672104e-02 7.101073e-02 3.217540e-02 -1.738656e-01 -1.399461e-01
<VARIANCE> 39
 1.103522e+01 6.813512e+00 2.213112e+01 1.571991e+01 9.667951e+00 2.661532e+01 2.521043e+01 2.728977e+01 1.521097e+01 1.606175e+01 1.122183e+01 4.357502e+00 8.558731e+00 4.377194e-01 5.281318e-01 6.915755e-01 2.637676e-01 4.296745e-01 3.235250e-01 6.963030e-01 1.213267e+00 1.853744e-01 9.504142e-01 6.487811e-01 7.571835e-01 4.935818e-01 5.597774e-02 4.386067e-02 6.716109e-02 7.649960e-02 7.149792e-02 7.075959e-02 6.263411e-02 1.846525e-01 2.697617e-02 1.376938e-01 9.714243e-02 6.389938e-02 6.422216e-02
<GCONST> 6.255742e+01
<STATE> 3
<NUMMIXES> 2
<MIXTURE> 1 5.000000e-01
<MEAN> 39
 2.129339e+01 1.879036e+00 -1.248439e+01 -9.187598e-01 4.514121e+00 -1.011806e-01 -7.608425e+00 7.077751e+00 3.940408e+00 -8.253350e-01 1.169542e+00 -6.372039e+00 -1.286009e+00 -3.280326e-01 -3.799743e-01 9.930901e-01 1.086876e+00 -1.606591e+00 -6.279874e-01 2.177926e+00 9.874770e-01 -8.333580e-01 4.933790e-01 8.848065e-01 5.640100e-02 -1.501556e-01 -6.659538e-02 -3.597505e-01 -7.919755e-02 6.953200e-02 -9.221013e-02 7.162312e-02 2.594346e-01 1.910369e-01 9.624974e-02 9.175280e-02 1.414131e-01 2.329626e-01 3.102250e-01
<VARIANCE> 39
 8.234960e+00 5.799497e+00 2.119708e+01 2.722603e+01 3.542586e+01 2.639606e+01 3.718398e+01 3.051318e+01 2.152543e+01 2.095746e+01 1.562620e+01 1.487603e+01 1.069641e+01 2.712781e-01 1.444490e+00 8.967621e-01 4.715376e-01 1.199416e+00 1.441056e+00 1.979140e+00 3.357332e+00 5.397060e-01 1.567937e+00 7.011548e-01 1.481004e+00 1.479887e+00 3.641110e-02 8.779808e-02 1.253289e-01 6.748520e-02 3.094763e-01 5.067394e-01 2.781176e-01 5.385562e-01 1.003990e-01 2.907690e-01 1.260140e-01 2.188417e-01 1.369343e-01
<GCONST> 8.723027e+01
<MIXTURE> 2 5.000000e-01
<MEAN> 39
 2.129339e+01 1.879036e+00 -1.248439e+01 -9.187598e-01 4.514121e+00 -1.011806e-01 -7.608425e+00 7.077751e+00 3.940408e+00 -8.253350e-01 1.169542e+00 -6.372039e+00 -1.286009e+00 -3.280326e-01 -3.799743e-01 9.930901e-01 1.086876e+00 -1.606591e+00 -6.279874e-01 2.177926e+00 9.874770e-01 -8.333580e-01 4.933790e-01 8.848065e-01 5.640100e-02 -1.501556e-01 -6.659538e-02 -3.597505e-01 -7.919755e-02 6.953200e-02 -9.221013e-02 7.162312e-02 2.594346e-01 1.910369e-01 9.624974e-02 9.175280e-02 1.414131e-01 2.329626e-01 3.102250e-01
<VARIANCE> 39
 8.234960e+00 5.799497e+00 2.119708e+01 2.722603e+01 3.542586e+01 2.639606e+01 3.718398e+01 3.051318e+01 2.152543e+01 2.095746e+01 1.562620e+01 1.487603e+01 1.069641e+01 2.712781e-01 1.444490e+00 8.967621e-01 4.715376e-01 1.199416e+00 1.441056e+00 1.979140e+00 3.357332e+00 5.397060e-01 1.567937e+00 7.011548e-01 1.481004e+00 1.479887e+00 3.641110e-02 8.779808e-02 1.253289e-01 6.748520e-02 3.094763e-01 5.067394e-01 2.781176e-01 5.385562e-01 1.003990e-01 2.907690e-01 1.260140e-01 2.188417e-01 1.369343e-01
<GCONST> 8.723027e+01
<STATE> 4
<NUMMIXES> 2
<MIXTURE> 1 5.000000e-01
<MEAN> 39
 1.649241e+01 -1.245113e+01 -6.985879e+00 5.721669e+00 -9.960093e+00 2.308054e+00 1.414198e+01 1.641160e+01 6.861189e+00 9.314915e+00 6.350354e+00 -4.894771e+00 5.036539e+00 2.713581e-02 -2.498612e-01 1.172904e-01 2.218434e-02 -6.969978e-02 7.276334e-02 5.274602e-02 -4.651402e-02 -7.681530e-02 -1.251360e-01 3.707331e-02 1.364007e-01 1.360378e-01 4.973266e-02 5.363643e-02 -6.340732e-02 -6.383127e-02 1.221365e-01 -4.703459e-02 -2.284370e-01 -6.445856e-02 2.047217e-03 -1.019317e-01 -4.755303e-02 4.511267e-03 -7.264461e-02
<VARIANCE> 39
 9.735720e+00 3.660287e+01 1.057424e+01 8.336139e+00 2.689354e+01 2.576445e+01 3.537257e+01 1.402829e+01 2.869968e+01 3.453558e+01 6.097326e+00 1.141304e+01 8.789050e+00 6.933205e-01 2.237648e+00 1.311703e+00 9.080068e-01 9.287909e-01 2.390951e+00 2.881244e+00 6.887470e-01 1.584194e+00 2.106559e+00 8.542532e-01 9.917211e-01 1.030682e+00 2.981730e-02 1.569592e-01 1.516282e-01 1.611000e-01 1.170783e-01 2.513463e-01 1.287956e-01 1.279485e-01 2.413732e-01 2.300800e-01 1.871592e-01 1.880882e-01 1.226714e-01
<GCONST> 8.621809e+01
<MIXTURE> 2 5.000000e-01
<MEAN> 39
 1.649241e+01 -1.245113e+01 -6.985879e+00 5.721669e+00 -9.960093e+00 2.308054e+00 1.414198e+01 1.641160e+01 6.861189e+00 9.314915e+00 6.350354e+00 -4.894771e+00 5.036539e+00 2.713581e-02 -2.498612e-01 1.172904e-01 2.218434e-02 -6.969978e-02 7.276334e-02 5.274602e-02 -4.651402e-02 -7.681530e-02 -1.251360e-01 3.707331e-02 1.364007e-01 1.360378e-01 4.973266e-02 5.363643e-02 -6.340732e-02 -6.383127e-02 1.221365e-01 -4.703459e-02 -2.284370e-01 -6.445856e-02 2.047217e-03 -1.019317e-01 -4.755303e-02 4.511267e-03 -7.264461e-02
<VARIANCE> 39
 9.735720e+00 3.660287e+01 1.057424e+01 8.336139e+00 2.689354e+01 2.576445e+01 3.537257e+01 1.402829e+01 2.869968e+01 3.453558e+01 6.097326e+00 1.141304e+01 8.789050e+00 6.933205e-01 2.237648e+00 1.311703e+00 9.080068e-01 9.287909e-01 2.390951e+00 2.881244e+00 6.887470e-01 1.584194e+00 2.106559e+00 8.542532e-01 9.917211e-01 1.030682e+00 2.981730e-02 1.569592e-01 1.516282e-01 1.611000e-01 1.170783e-01 2.513463e-01 1.287956e-01 1.279485e-01 2.413732e-01 2.300800e-01 1.871592e-01 1.880882e-01 1.226714e-01
<GCONST> 8.621809e+01
<TRANSP> 5
 0.000000e+00 1.000000e+00 0.000000e+00 0.000000e+00 0.000000e+00
 0.000000e+00 9.017386e-01 9.826139e-02 0.000000e+00 0.000000e+00
 0.000000e+00 0.000000e+00 8.436812e-01 1.563188e-01 0.000000e+00
 0.000000e+00 0.000000e+00 0.000000e+00 9.368585e-01 6.314149e-02
 0.000000e+00 0.000000e+00 0.000000e+00 0.000000e+00 0.000000e+00
<ENDHMM>
~h "dxh"
<BEGINHMM>
<NUMSTATES> 5
<STATE> 2
<NUMMIXES> 2
<MIXTURE> 1 5.000000e-01
<MEAN> 39
 2.765800e+00 1.928216e+01 1.712494e+01 1.825965e+01 1.724021e+01 1.709669e+01 8.483065e+00 1.017384e+01 2.369025e-01 -3.423677e+00 -2.474969e+00 -5.298976e+00 -5.455029e+00 -4.723636e-01 -1.031343e-01 1.533457e-01 8.251796e-03 -3.209688e-01 -1.442853e-01 1.644454e-01 5.016739e-01 6.599643e-01 4.775130e-01 2.704435e-01 3.348327e-01 3.987289e-02 6.079649e-02 -3.682602e-01 -2.412222e-01 -1.310337e-02 2.153674e-02 -1.950841e-01 -1.581102e-01 6.404824e-02 7.395817e-02 1.135437e-02 -1.971383e-02 8.028276e-02 2.907771e-01
<VARIANCE> 39
 3.154022e+00 2.777658e+00 3.392245e+00 8.652294e+00 4.405529e+00 1.519269e+01 1.967833e+01 1.429208e+01 2.513853e+01 1.503306e+01 4.206692e+00 8.743744e+00 8.356363e+00 2.654724e-01 8.392112e-01 8.649933e-01 7.108715e-01 4.091419e-01 1.359633e+00 2.079392e+00 3.625940e-01 9.901755e-01 8.153656e-01 3.006546e-01 6.455002e-01 1.295151e+00 1.988082e-02 2.132726e-01 9.254698e-02 7.982993e-02 5.892349e-02 1.801935e-01 1.925548e-01 6.396302e-02 1.918004e-01 1.456986e-01 4.379279e-02 1.134977e-01 1.816140e-01
<GCONST> 6.438002e+01
<MIXTURE> 2 5.000000e-01
<MEAN> 39
 2.765800e+00 1.928216e+01 1.712494e+01 1.825965e+01 1.724021e+01 1.709669e+01 8.483065e+00 1.017384e+01 2.369025e-01 -3.423677e+00 -2.474969e+00 -5.298976e+00 -5.455029e+00 -4.723636e-01 -1.031343e-01 1.533457e-01 8.251796e-03 -3.209688e-01 -1.442853e-01 1.644454e-01 5.016739e-01 6.599643e-01 4.775130e-01 2.704435e-01 3.348327e-01 3.987289e-02 6.079649e-02 -3.682602e-01 -2.412222e-01 -1.310337e-02 2.153674e-02 -1.950841e-01 -1.581102e-01 6.404824e-02 7.395817e-02 1.135437e-02 -1.971383e-02 8.028276e-02 2.907771e-01
<VARIANCE> 39
 3.154022e+00 2.777658e+00 3.392245e+00 8.652294e+00 4.405529e+00 1.519269e+01 1.967833e+01 1.429208e+01 2.513853e+01 1.503306e+01 4.206692e+00 8.743744e+00 8.356363e+00 2.654724e-01 8.392112e-01 8.649933e-01 7.108715e-01 4.091419e-01 1.359633e+00 2.079392e+00 3.625940e-01 9.901755e-01 8.153656e-01 3.006546e-01 6.455002e-01 1.295151e+00 1.988082e-02 2.132726e-01 9.254698e-02 7.982993e-02 5.892349e-02 1.801935e-01 1.925548e-01 6.396302e-02 1.918004e-01 1.456986e-01 4.379279e-02 1.134977e-01 1.816140e-01
<GCONST> 6.438002e+01
<STATE> 3
<NUMMIXES> 2
<MIXTURE> 1 5.000000e-01
<MEAN> 39
 2.351881e+00 1.794086e+01 1.755777e+01 2.044586e+01 1.707894e+01 1.314593e+01 4.531681e+00 9.920598e+00 3.041413e-01 -5.059786e+00 -4.386061e+00 -7.317966e+00 -6.000488e+00 -8.238756e-01 -1.662250e+00 -7.088153e-01 -5.558833e-01 5.088719e-02 1.063657e-01 6.228839e-01 1.058216e+00 7.852897e-01 1.056959e+00 1.661496e-01 7.417442e-01 2.097945e+00 -1.629733e-02 -7.439372e-01 -4.676720e-01 -3.880367e-01 -3.736661e-01 2.197599e-01 5.004798e-01 2.398719e-01 2.081397e-02 1.685087e-01 1.927650e-01 1.582313e-01 3.670767e-01
<VARIANCE> 39
 1.643357e+01 1.228867e+01 2.590385e+01 8.118377e+00 1.109340e+01 3.385415e+01 2.486152e+01 1.172209e+01 8.683077e+00 1.712162e+01 1.874955e+01 1.563681e+01 2.030400e+01 3.016419e-03 2.523629e+00 2.886482e-02 1.158324e+00 5.254679e-01 5.627642e-01 1.027850e+00 2.366082e-01 1.264061e-01 2.294762e-02 1.012816e-01 5.602207e-01 1.208865e+00 3.675792e-02 5.432652e-02 2.047799e-01 1.397594e-01 1.754534e-03 7.375526e-02 3.317552e-01 5.725517e-02 1.065827e-01 2.130322e-01 1.821128e-01 1.079226e-01 2.897829e-01
<GCONST> 5.656030e+01
<MIXTURE> 2 5.000000e-01
<MEAN> 39
 2.351881e+00 1.794086e+01 1.755777e+01 2.044586e+01 1.707894e+01 1.314593e+01 4.531681e+00 9.920598e+00 3.041413e-01 -5.059786e+00 -4.386061e+00 -7.317966e+00 -6.000488e+00 -8.238756e-01 -1.662250e+00 -7.088153e-01 -5.558833e-01 5.088719e-02 1.063657e-01 6.228839e-01 1.058216e+00 7.852897e-01 1.056959e+00 1.661496e-01 7.417442e-01 2.097945e+00 -1.629733e-02 -7.439372e-01 -4.676720e-01 -3.880367e-01 -3.736661e-01 2.197599e-01 5.004798e-01 2.398719e-01 2.081397e-02 1.685087e-01 1.927650e-01 1.582313e-01 3.670767e-01
<VARIANCE> 39
 1.643357e+01 1.228867e+01 2.590385e+01 8.118377e+00 1.109340e+01 3.385415e+01 2.486152e+01 1.172209e+01 8.683077e+00 1.712162e+01 1.874955e+01 1.563681e+01 2.030400e+01 3.016419e-03 2.523629e+00 2.886482e-02 1.158324e+00 5.254679e-01 5.627642e-01 1.027850e+00 2.366082e-01 1.264061e-01 2.294762e-02 1.012816e-01 5.602207e-01 1.208865e+00 3.675792e-02 5.432652e-02 2.047799e-01 1.397594e-01 1.754534e-03 7.375526e-02 3.317552e-01 5.725517e-02 1.065827e-01 2.130322e-01 1.821128e-01 1.079226e-01 2.897829e-01
<GCONST> 5.656030e+01
<STATE> 4
<NUMMIXES> 2
<MIXTURE> 1 5.000000e-01
<MEAN> 39
 1.846427e+00 1.568393e+01 1.539527e+01 1.851733e+01 1.617701e+01 1.119658e+01 3.196311e+00 1.016801e+01 6.674539e-01 -2.146125e+00 -3.018299e+00 -5.208499e+00 -1.209648e+00 -7.917258e-01 -2.448507e+00 -1.365162e+00 -9.463438e-01 -5.050313e-01 6.017686e-01 1.708259e+00 1.679680e+00 1.005422e+00 9.447129e-01 1.299047e-01 5.252764e-01 1.924234e+00 4.614663e-02 -5.994974e-01 -3.450355e-01 -2.330779e-01 -6.217947e-01 1.238847e-01 3.608277e-01 -6.742732e-02 -3.205549e-01 -1.736073e-01 3.772729e-01 3.287691e-02 -1.487420e-01
<VARIANCE> 39
 2.303845e+00 1.840393e+01 2.855798e+00 1.562242e+01 3.650767e+00 8.026022e+00 1.072282e+01 1.285443e+01 2.100508e+01 2.047668e+01 1.574520e+01 1.834325e+01 2.498024e+01 1.396514e-02 3.162467e+00 1.431231e-01 1.508775e+00 6.226140e-01 1.762311e+00 3.255429e+00 9.595590e-01 4.271968e-01 9.867755e-01 1.081992e+00 8.685585e-01 6.224985e-01 3.602140e-02 9.020545e-02 2.626964e-02 5.795015e-02 1.974433e-01 9.523571e-02 3.437566e-01 1.286546e-01 5.271366e-02 1.381350e-01 7.881787e-01 1.721887e-02 4.669265e-01
<GCONST> 6.836060e+01
<MIXTURE> 2 5.000000e-01
<MEAN> 39
 1.846427e+00 1.568393e+01 1.539527e+01 1.851733e+01 1.617701e+01 1.119658e+01 3.196311e+00 1.016801e+01 6.674539e-01 -2.146125e+00 -3.018299e+00 -5.208499e+00 -1.209648e+00 -7.917258e-01 -2.448507e+00 -1.365162e+00 -9.463438e-01 -5.050313e-01 6.017686e-01 1.708259e+00 1.679680e+00 1.005422e+00 9.447129e-01 1.299047e-01 5.252764e-01 1.924234e+00 4.614663e-02 -5.994974e-01 -3.450355e-01 -2.330779e-01 -6.217947e-01 1.238847e-01 3.608277e-01 -6.742732e-02 -3.205549e-01 -1.736073e-01 3.772729e-01 3.287691e-02 -1.487420e-01
<VARIANCE> 39
 2.303845e+00 1.840393e+01 2.855798e+00 1.562242e+01 3.650767e+00 8.026022e+00 1.072282e+01 1.285443e+01 2.100508e+01 2.047668e+01 1.574520e+01 1.834325e+01 2.498024e+01 1.396514e-02 3.162467e+00 1.431231e-01 1.508775e+00 6.226140e-01 1.762311e+00 3.255429e+00 9.595590e-01 4.271968e-01 9.867755e-01 1.081992e+00 8.685585e-01 6.224985e-01 3.602140e-02 9.020545e-02 2.626964e-02 5.795015e-02 1.974433e-01 9.523571e-02 3.437566e-01 1.286546e-01 5.271366e-02 1.381350e-01 7.881787e-01 1.721887e-02 4.669265e-01
<GCONST> 6.836060e+01
<TRANSP> 5
 0.000000e+00 1.000000e+00 0.000000e+00 0.000000e+00 0.000000e+00
 0.000000e+00 8.421488e-01 1.578512e-01 0.000000e+00 0.000000e+00
 0.000000e+00 0.000000e+00 0.000000e+00 1.000000e+00 0.000000e+00
 0.000000e+00 0.000000e+00 0.000000e+00 0.000000e+00 1.000000e+00
 0.000000e+00 0.000000e+00 0.000000e+00 0.000000e+00 0.000000e+00
<ENDHMM>
~h "dxq"
<BEGINHMM>
<NUMSTATES> 5
<STATE> 2
<NUMMIXES> 2
<MIXTURE> 1 5.000000e-01
<MEAN> 39
 2.160410e+01 9.088973e+00 -4.449429e+00 4.743666e-01 6.603055e+00 -5.148219e+00 -2.288082e+01 -1.514232e+00 8.875974e+00 3.215712e+00 -2.961525e-01 -1.241150e+01 -1.071484e+01 2.471101e-01 1.608081e-01 -6.582112e-01 -1.278643e+00 -4.198929e-02 1.749733e+00 1.408629e+00 -4.119671e-01 -1.327594e+00 -6.330121e-01 2.919852e-01 1.075208e-01 -1.971739e-01 -2.032705e-02 2.444397e-02 2.959577e-03 -1.991537e-02 -9.746759e-02 7.267226e-02 3.507721e-01 2.610987e-01 -1.149841e-01 -2.991461e-01 -1.495674e-01 1.418547e-01 1.592400e-01
<VARIANCE> 39
 4.488791e+00 2.712625e+01 4.315716e+01 3.692440e+01 2.960848e+01 4.793098e+01 4.538989e+01 1.359907e+01 3.358095e+01 2.541586e+01 1.352311e+01 1.704494e+01 1.776316e+01 2.855794e-01 2.802048e-01 6.520681e-01 7.003319e-01 7.341254e-01 8.217380e-01 2.636664e+00 1.280263e+00 5.505848e-01 1.584377e+00 8.738714e-01 7.015957e-01 6.980907e-01 5.154099e-02 3.783003e-02 9.629886e-02 7.451680e-02 9.637558e-02 8.348764e-02 2.099820e-01 1.211505e-01 7.300171e-02 1.296428e-01 1.204880e-01 6.667033e-02 8.217830e-02
<GCONST> 7.736517e+01
<MIXTURE> 2 5.000000e-01
<MEAN> 39
 2.160410e+01 9.088973e+00 -4.449429e+00 4.743666e-01 6.603055e+00 -5.148219e+00 -2.288082e+01 -1.514232e+00 8.875974e+00 3.215712e+00 -2.961525e-01 -1.241150e+01 -1.071484e+01 2.471101e-01 1.608081e-01 -6.582112e-01 -1.278643e+00 -4.198929e-02 1.749733e+00 1.408629e+00 -4.119671e-01 -1.327594e+00 -6.330121e-01 2.919852e-01 1.075208e-01 -1.971739e-01 -2.032705e-02 2.444397e-02 2.959577e-03 -1.991537e-02 -9.746759e-02 7.267226e-02 3.507721e-01 2.610987e-01 -1.149841e-01 -2.991461e-01 -1.495674e-01 1.418547e-01 1.592400e-01
<VARIANCE> 39
 4.488791e+00 2.712625e+01 4.315716e+01 3.692440e+01 2.960848e+01 4.793098e+01 4.538989e+01 1.359907e+01 3.358095e+01 2.541586e+01 1.352311e+01 1.704494e+01 1.776316e+01 2.855794e-01 2.802048e-01 6.520681e-01 7.003319e-01 7.341254e-01 8.217380e-01 2.636664e+00 1.280263e+00 5.505848e-01 1.584377e+00 8.738714e-01 7.015957e-01 6.980907e-01 5.154099e-02 3.783003e-02 9.629886e-02 7.451680e-02 9.637558e-02 8.348764e-02 2.099820e-01 1.211505e-01 7.300171e-02 1.296428e-01 1.204880e-01 6.667033e-02 8.217830e-02
<GCONST> 7.736517e+01
<STATE> 3
<NUMMIXES> 2
<MIXTURE> 1 5.000000e-01
<MEAN> 39
 2.270438e+01 6.629391e+00 -1.208991e+01 -7.525168e+00 6.805624e+00 6.786697e+00 -7.063578e+00 2.608593e+00 -3.204621e+00 -8.995414e+00 -1.395651e+00 -5.518884e+00 -3.799623e+00 -4.356307e-01 2.510275e-01 6.058627e-01 6.853368e-01 -4.096405e-01 4.681939e-01 2.231428e+00 9.319687e-01 -7.195331e-01 -1.086568e+00 -1.240708e+00 7.627714e-02 6.223850e-01 -9.766513e-02 -2.631357e-01 2.105279e-01 5.410355e-01 1.068311e-01 -5.049790e-01 -4.237200e-01 2.764322e-01 3.607034e-01 6.538959e-02 -1.125951e-02 -8.586040e-02 2.452066e-02
<VARIANCE> 39
 6.801107e+00 5.423836e+01 4.394117e+01 3.115157e+01 6.177497e+01 3.113965e+01 8.565447e+01 2.441937e+01 3.325830e+01 2.452260e+01 3.434959e+01 2.015989e+01 2.149751e+01 5.007901e-01 5.316619e-01 1.315954e+00 1.891210e+00 8.052042e-01 1.460661e+00 3.217067e+00 2.236767e+00 1.446540e+00 1.936909e+00 1.133274e+00 1.450229e+00 1.926728e+00 7.697631e-02 1.320635e-01 1.615018e-01 1.803522e-01 1.546312e-01 1.574035e-01 4.955967e-01 2.465517e-01 1.508639e-01 2.210847e-01 2.130748e-01 1.521594e-01 9.109126e-02
<GCONST> 9.706822e+01
<MIXTURE> 2 5.000000e-01
<MEAN> 39
 2.270438e+01 6.629391e+00 -1.208991e+01 -7.525168e+00 6.805624e+00 6.786697e+00 -7.063578e+00 2.608593e+00 -3.204621e+00 -8.995414e+00 -1.395651e+00 -5.518884e+00 -3.799623e+00 -4.356307e-01 2.510275e-01 6.058627e-01 6.853368e-01 -4.096405e-01 4.681939e-01 2.231428e+00 9.319687e-01 -7.195331e-01 -1.086568e+00 -1.240708e+00 7.627714e-02 6.223850e-01 -9.766513e-02 -2.631357e-01 2.105279e-01 5.410355e-01 1.068311e-01 -5.049790e-01 -4.237200e-01 2.764322e-01 3.607034e-01 6.538959e-02 -1.125951e-02 -8.586040e-02 2.452066e-02
<VARIANCE> 39
 6.801107e+00 5.423836e+01 4.394117e+01 3.115157e+01 6.177497e+01 3.113965e+01 8.565447e+01 2.441937e+01 3.325830e+01 2.452260e+01 3.434959e+01 2.015989e+01 2.149751e+01 5.007901e-01 5.316619e-01 1.315954e+00 1.891210e+00 8.052042e-01 1.460661e+00 3.217067e+00 2.236767e+00 1.446540e+00 1.936909e+00 1.133274e+00 1.450229e+00 1.926728e+00 7.697631e-02 1.320635e-01 1.615018e-01 1.803522e-01 1.546312e-01 1.574035e-01 4.955967e-01 2.465517e-01 1.508639e-01 2.210847e-01 2.130748e-01 1.521594e-01 9.109126e-02
<GCONST> 9.706822e+01
<STATE> 4
<NUMMIXES> 2
<MIXTURE> 1 5.000000e-01
<MEAN> 39
 2.042162e+01 1.049646e+00 -6.793231e+00 4.299699e+00 7.021408e+00 2.930721e-01 -5.353363e+00 1.183974e+01 -3.520891e+00 -1.563942e+01 -3.941814e+00 -6.575457e+00 -1.585004e+00 -1.678779e-01 -1.851088e+00 3.698688e-01 1.971766e+00 3.501769e-01 -1.925591e+00 -1.376258e+00 1.319882e+00 5.426334e-02 -7.872300e-01 1.125928e+00 2.494941e-01 1.127558e-03 -2.089699e-03 -2.132262e-02 -8.573118e-02 -2.186221e-01 -1.323822e-02 -1.226231e-03 -1.750352e-01 -7.914184e-02 3.910717e-02 1.507623e-01 3.125673e-01 1.054665e-01 -1.091856e-01
<VARIANCE> 39
 9.687245e+00 4.530508e+01 2.855973e+01 4.929712e+01 4.108890e+01 6.432673e+01 7.700905e+01 5.077243e+01 2.396010e+01 3.511195e+01 5.605545e+01 2.118601e+01 1.454322e+01 1.122971e+00 2.076637e+00 1.696196e+00 1.358511e+00 1.906092e+00 2.516161e+00 4.361150e+00 2.465879e+00 2.155665e+00 2.397630e+00 3.196345e+00 1.031829e+00 1.285274e+00 2.442226e-01 5.218495e-01 2.776243e-01 1.751190e-01 2.380225e-01 5.812806e-01 1.057907e+00 3.970363e-01 2.812441e-01 3.787641e-01 7.078272e-01 1.731877e-01 2.724972e-01
<GCONST> 1.127979e+02
<MIXTURE> 2 5.000000e-01
<MEAN> 39
 2.042162e+01 1.049646e+00 -6.793231e+00 4.299699e+00 7.021408e+00 2.930721e-01 -5.353363e+00 1.183974e+01 -3.520891e+00 -1.563942e+01 -3.941814e+00 -6.575457e+00 -1.585004e+00 -1.678779e-01 -1.851088e+00 3.698688e-01 1.971766e+00 3.501769e-01 -1.925591e+00 -1.376258e+00 1.319882e+00 5.426334e-02 -7.872300e-01 1.125928e+00 2.494941e-01 1.127558e-03 -2.089699e-03 -2.132262e-02 -8.573118e-02 -2.186221e-01 -1.323822e-02 -1.226231e-03 -1.750352e-01 -7.914184e-02 3.910717e-02 1.507623e-01 3.125673e-01 1.054665e-01 -1.091856e-01
<VARIANCE> 39
 9.687245e+00 4.530508e+01 2.855973e+01 4.929712e+01 4.108890e+01 6.432673e+01 7.700905e+01 5.077243e+01 2.396010e+01 3.511195e+01 5.605545e+01 2.118601e+01 1.454322e+01 1.122971e+00 2.076637e+00 1.696196e+00 1.358511e+00 1.906092e+00 2.516161e+00 4.361150e+00 2.465879e+00 2.155665e+00 2.397630e+00 3.196345e+00 1.031829e+00 1.285274e+00 2.442226e-01 5.218495e-01 2.776243e-01 1.751190e-01 2.380225e-01 5.812806e-01 1.057907e+00 3.970363e-01 2.812441e-01 3.787641e-01 7.078272e-01 1.731877e-01 2.724972e-01
<GCONST> 1.127979e+02
<TRANSP> 5
 0.000000e+00 1.000000e+00 0.000000e+00 0.000000e+00 0.000000e+00
 0.000000e+00 8.504761e-01 1.495238e-01 0.000000e+00 0.000000e+00
 0.000000e+00 0.000000e+00 8.042675e-01 1.957324e-01 0.000000e+00
 0.000000e+00 0.000000e+00 0.000000e+00 8.263626e-01 1.736374e-01
 0.000000e+00 0.000000e+00 0.000000e+00 0.000000e+00 0.000000e+00
<ENDHMM>
~h "khq"
<BEGINHMM>
<NUMSTATES> 5
<STATE> 2
<NUMMIXES> 2
<MIXTURE> 1 5.000000e-01
<MEAN> 39
 5.098849e+00 -6.514025e+00 2.430083e+00 1.092778e+01 1.083864e+01 1.500667e+00 -1.140838e+01 9.359310e+00 -3.377835e+00 -1.113024e+01 6.044074e+00 -4.088247e-01 -3.646332e+00 -1.380477e-02 1.475701e-03 -1.072459e-03 -5.524765e-03 -3.099398e-03 2.005852e-03 8.190720e-04 -5.087083e-03 2.488556e-03 5.650900e-03 -1.806995e-03 5.936168e-04 1.443354e-03 -1.213556e-03 -1.404243e-04 -1.926630e-04 -5.029775e-04 -4.298560e-04 2.249404e-04 5.535607e-04 -2.933974e-04 7.204357e-05 8.173331e-04 -1.603794e-04 -1.434907e-04 3.551734e-04
<VARIANCE> 39
 2.696502e+02 1.642264e+02 1.776205e+02 1.699619e+02 1.712323e+02 1.501611e+02 1.653076e+02 1.112998e+02 8.102897e+01 1.132308e+02 1.038732e+02 3.576029e+01 7.139818e+01 2.864393e+00 3.049235e+00 2.950589e+00 2.442850e+00 2.488132e+00 2.882445e+00 3.574063e+00 2.837703e+00 2.254665e+00 3.083899e+00 2.848865e+00 1.410452e+00 1.706605e+00 2.059384e-01 2.861855e-01 3.165202e-01 2.798763e-01 2.958655e-01 3.292713e-01 4.082396e-01 3.875320e-01 3.475762e-01 4.161765e-01 3.917231e-01 2.236369e-01 2.362328e-01
<GCONST> 1.313330e+02
<MIXTURE> 2 5.000000e-01
<MEAN> 39
 5.098849e+00 -6.514025e+00 2.430083e+00 1.092778e+01 1.083864e+01 1.500667e+00 -1.140838e+01 9.359310e+00 -3.377835e+00 -1.113024e+01 6.044074e+00 -4.088247e-01 -3.646332e+00 -1.380477e-02 1.475701e-03 -1.072459e-03 -5.524765e-03 -3.099398e-03 2.005852e-03 8.190720e-04 -5.087083e-03 2.488556e-03 5.650900e-03 -1.806995e-03 5.936168e-04 1.443354e-03 -1.213556e-03 -1.404243e-04 -1.926630e-04 -5.029775e-04 -4.298560e-04 2.249404e-04 5.535607e-04 -2.933974e-04 7.204357e-05 8.173331e-04 -1.603794e-04 -1.434907e-04 3.551734e-04
<VARIANCE> 39
 2.696502e+02 1.642264e+02 1.776205e+02 1.699619e+02 1.712323e+02 1.501611e+02 1.653076e+02 1.112998e+02 8.102897e+01 1.132308e+02 1.038732e+02 3.576029e+01 7.139818e+01 2.864393e+00 3.049235e+00 2.950589e+00 2.442850e+00 2.488132e+00 2.882445e+00 3.574063e+00 2.837703e+00 2.254665e+00 3.083899e+00 2.848865e+00 1.410452e+00 1.706605e+00 2.059384e-01 2.861855e-01 3.165202e-01 2.798763e-01 2.958655e-01 3.292713e-01 4.082396e-01 3.875320e-01 3.475762e-01 4.161765e-01 3.917231e-01 2.236369e-01 2.362328e-01
<GCONST> 1.313330e+02
<STATE> 3
<NUMMIXES> 2
<MIXTURE> 1 5.000000e-01
<MEAN> 39
 5.098849e+00 -6.514025e+00 2.430083e+00 1.092778e+01 1.083864e+01 1.500667e+00 -1.140838e+01 9.359310e+00 -3.377835e+00 -1.113024e+01 6.044074e+00 -4.088247e-01 -3.646332e+00 -1.380477e-02 1.475701e-03 -1.072459e-03 -5.524765e-03 -3.099398e-03 2.005852e-03 8.190720e-04 -5.087083e-03 2.488556e-03 5.650900e-03 -1.806995e-03 5.936168e-04 1.443354e-03 -1.213556e-03 -1.404243e-04 -1.926630e-04 -5.029775e-04 -4.298560e-04 2.249404e-04 5.535607e-04 -2.933974e-04 7.204357e-05 8.173331e-04 -1.603794e-04 -1.434907e-04 3.551734e-04
<VARIANCE> 39
 2.696502e+02 1.642264e+02 1.776205e+02 1.699619e+02 1.712323e+02 1.501611e+02 1.653076e+02 1.112998e+02 8.102897e+01 1.132308e+02 1.038732e+02 3.576029e+01 7.139818e+01 2.864393e+00 3.049235e+00 2.950589e+00 2.442850e+00 2.488132e+00 2.882445e+00 3.574063e+00 2.837703e+00 2.254665e+00 3.083899e+00 2.848865e+00 1.410452e+00 1.706605e+00 2.059384e-01 2.861855e-01 3.165202e-01 2.798763e-01 2.958655e-01 3.292713e-01 4.082396e-01 3.875320e-01 3.475762e-01 4.161765e-01 3.917231e-01 2.236369e-01 2.362328e-01
<GCONST> 1.313330e+02
<MIXTURE> 2 5.000000e-01
<MEAN> 39
 5.098849e+00 -6.514025e+00 2.430083e+00 1.092778e+01 1.083864e+01 1.500667e+00 -1.140838e+01 9.359310e+00 -3.377835e+00 -1.113024e+01 6.044074e+00 -4.088247e-01 -3.646332e+00 -1.380477e-02 1.475701e-03 -1.072459e-03 -5.524765e-03 -3.099398e-03 2.005852e-03 8.190720e-04 -5.087083e-03 2.488556e-03 5.650900e-03 -1.806995e-03 5.936168e-04 1.443354e-03 -1.213556e-03 -1.404243e-04 -1.926630e-04 -5.029775e-04 -4.298560e-04 2.249404e-04 5.535607e-04 -2.933974e-04 7.204357e-05 8.173331e-04 -1.603794e-04 -1.434907e-04 3.551734e-04
<VARIANCE> 39
 2.696502e+02 1.642264e+02 1.776205e+02 1.699619e+02 1.712323e+02 1.501611e+02 1.653076e+02 1.112998e+02 8.102897e+01 1.132308e+02 1.038732e+02 3.576029e+01 7.139818e+01 2.864393e+00 3.049235e+00 2.950589e+00 2.442850e+00 2.488132e+00 2.882445e+00 3.574063e+00 2.837703e+00 2.254665e+00 3.083899e+00 2.848865e+00 1.410452e+00 1.706605e+00 2.059384e-01 2.861855e-01 3.165202e-01 2.798763e-01 2.958655e-01 3.292713e-01 4.082396e-01 3.875320e-01 3.475762e-01 4.161765e-01 3.917231e-01 2.236369e-01 2.362328e-01
<GCONST> 1.313330e+02
<STATE> 4
<NUMMIXES> 2
<MIXTURE> 1 5.000000e-01
<MEAN> 39
 5.098849e+00 -6.514025e+00 2.430083e+00 1.092778e+01 1.083864e+01 1.500667e+00 -1.140838e+01 9.359310e+00 -3.377835e+00 -1.113024e+01 6.044074e+00 -4.088247e-01 -3.646332e+00 -1.380477e-02 1.475701e-03 -1.072459e-03 -5.524765e-03 -3.099398e-03 2.005852e-03 8.190720e-04 -5.087083e-03 2.488556e-03 5.650900e-03 -1.806995e-03 5.936168e-04 1.443354e-03 -1.213556e-03 -1.404243e-04 -1.926630e-04 -5.029775e-04 -4.298560e-04 2.249404e-04 5.535607e-04 -2.933974e-04 7.204357e-05 8.173331e-04 -1.603794e-04 -1.434907e-04 3.551734e-04
<VARIANCE> 39
 2.696502e+02 1.642264e+02 1.776205e+02 1.699619e+02 1.712323e+02 1.501611e+02 1.653076e+02 1.112998e+02 8.102897e+01 1.132308e+02 1.038732e+02 3.576029e+01 7.139818e+01 2.864393e+00 3.049235e+00 2.950589e+00 2.442850e+00 2.488132e+00 2.882445e+00 3.574063e+00 2.837703e+00 2.254665e+00 3.083899e+00 2.848865e+00 1.410452e+00 1.706605e+00 2.059384e-01 2.861855e-01 3.165202e-01 2.798763e-01 2.958655e-01 3.292713e-01 4.082396e-01 3.875320e-01 3.475762e-01 4.161765e-01 3.917231e-01 2.236369e-01 2.362328e-01
<GCONST> 1.313330e+02
<MIXTURE> 2 5.000000e-01
<MEAN> 39
 5.098849e+00 -6.514025e+00 2.430083e+00 1.092778e+01 1.083864e+01 1.500667e+00 -1.140838e+01 9.359310e+00 -3.377835e+00 -1.113024e+01 6.044074e+00 -4.088247e-01 -3.646332e+00 -1.380477e-02 1.475701e-03 -1.072459e-03 -5.524765e-03 -3.099398e-03 2.005852e-03 8.190720e-04 -5.087083e-03 2.488556e-03 5.650900e-03 -1.806995e-03 5.936168e-04 1.443354e-03 -1.213556e-03 -1.404243e-04 -1.926630e-04 -5.029775e-04 -4.298560e-04 2.249404e-04 5.535607e-04 -2.933974e-04 7.204357e-05 8.173331e-04 -1.603794e-04 -1.434907e-04 3.551734e-04
<VARIANCE> 39
 2.696502e+02 1.642264e+02 1.776205e+02 1.699619e+02 1.712323e+02 1.501611e+02 1.653076e+02 1.112998e+02 8.102897e+01 1.132308e+02 1.038732e+02 3.576029e+01 7.139818e+01 2.864393e+00 3.049235e+00 2.950589e+00 2.442850e+00 2.488132e+00 2.882445e+00 3.574063e+00 2.837703e+00 2.254665e+00 3.083899e+00 2.848865e+00 1.410452e+00 1.706605e+00 2.059384e-01 2.861855e-01 3.165202e-01 2.798763e-01 2.958655e-01 3.292713e-01 4.082396e-01 3.875320e-01 3.475762e-01 4.161765e-01 3.917231e-01 2.236369e-01 2.362328e-01
<GCONST> 1.313330e+02
<TRANSP> 5
 0.000000e+00 1.000000e+00 0.000000e+00 0.000000e+00 0.000000e+00
 0.000000e+00 6.000000e-01 4.000000e-01 0.000000e+00 0.000000e+00
 0.000000e+00 0.000000e+00 6.000000e-01 4.000000e-01 0.000000e+00
 0.000000e+00 0.000000e+00 0.000000e+00 6.000000e-01 4.000000e-01
 0.000000e+00 0.000000e+00 0.000000e+00 0.000000e+00 0.000000e+00
<ENDHMM>
~h "txh"
<BEGINHMM>
<NUMSTATES> 5
<STATE> 2
<NUMMIXES> 2
<MIXTURE> 1 6.013087e-01
<MEAN> 39
 -2.151927e-01 3.689429e+00 -3.028879e+00 5.832572e+00 1.314884e+01 1.388007e+01 5.769839e-01 2.949632e+00 -3.507195e+00 -2.149025e+00 6.665755e+00 8.260701e+00 7.581859e+00 -3.439114e+00 -6.536136e-01 1.234313e+00 2.551794e-01 -1.363203e+00 -8.231365e-02 1.085463e+00 2.092895e-01 5.544435e-01 8.278890e-01 -7.884343e-01 -4.319629e-01 8.270430e-01 9.438489e-02 -6.957641e-01 -2.194982e-01 -1.290800e-01 -1.719680e-01 -2.232562e-01 -3.088614e-01 1.837285e-01 1.795128e-01 -1.205040e-01 -1.805182e-02 -3.342167e-01 -1.897494e-01
<VARIANCE> 39
 1.190716e+02 2.466893e+01 4.363400e+01 2.300214e+01 2.844046e+01 2.856045e+01 3.684042e+01 2.319397e+01 2.604021e+01 2.884639e+01 3.090637e+01 1.833463e+01 2.868013e+01 4.826169e-01 4.305455e+00 2.757633e+00 1.390528e+00 1.488335e+00 3.131224e+00 2.698922e+00 1.853116e+00 1.852005e+00 1.548023e+00 2.200922e+00 2.082002e+00 2.983604e+00 2.435593e-01 5.593634e-01 2.876717e-01 1.781850e-01 2.840916e-01 4.352501e-01 3.045575e-01 4.025472e-01 4.428549e-01 2.919358e-01 3.579543e-01 2.937634e-01 3.966302e-01
<GCONST> 1.108584e+02
<MIXTURE> 2 3.986911e-01
<MEAN> 39
 -2.642336e+01 -6.366050e+00 -4.861660e+00 -2.631331e+00 -3.175306e+00 1.126780e+00 -3.355962e+00 1.325144e+00 -1.453697e+00 -5.190316e-01 5.987614e-01 -9.855783e-01 3.745554e-01 6.434833e-02 -1.740961e-02 -5.391005e-03 2.734832e-01 2.657517e-01 -9.480106e-02 -7.482541e-02 2.050321e-01 3.656118e-01 2.104286e-01 -5.491016e-02 -8.973716e-02 8.472104e-02 2.854459e-01 1.276950e-02 1.952664e-01 3.510265e-01 3.764570e-01 3.752699e-01 2.249889e-01 2.420707e-01 1.173462e-01 3.168507e-02 1.044203e-01 1.935855e-01 2.721529e-01
<VARIANCE> 39
 8.574580e-01 2.021792e+00 3.021916e+00 3.855824e+00 3.405008e+00 4.813436e+00 5.779842e+00 5.913135e+00 7.678988e+00 9.430306e+00 7.270062e+00 6.800821e+00 4.339069e+00 6.518462e-01 7.933692e-01 8.119583e-01 1.491967e+00 1.964719e+00 2.090214e+00 1.620642e+00 1.772866e+00 1.862627e+00 1.463916e+00 1.213360e+00 1.520941e+00 1.433235e+00 1.379198e-01 1.354999e-01 1.294759e-01 1.868928e-01 3.366185e-01 4.365391e-01 3.178604e-01 3.802007e-01 3.962535e-01 2.946194e-01 2.368259e-01 2.526041e-01 2.552215e-01
<GCONST> 7.657616e+01
<STATE> 3
<NUMMIXES> 2
<MIXTURE> 1 5.571287e-01
<MEAN> 39
 -1.268578e+01 -8.976082e+00 7.332566e-01 1.130417e+01 8.772799e+00 1.136127e+01 2.501397e+00 9.427081e+00 5.202214e+00 1.653659e+00 7.697216e-01 9.679216e-01 1.037496e+01 1.606081e+00 -3.391108e+00 6.485991e-01 9.944093e-01 -7.245787e-01 5.365751e-01 9.608558e-02 1.144363e+00 1.332474e+00 6.508548e-01 5.886140e-01 -1.212989e+00 -5.049386e-01 7.925688e-01 -4.713081e-01 9.899031e-02 -4.651055e-01 -5.456269e-01 -8.641919e-02 -4.161535e-01 -4.345788e-01 -8.652391e-01 -4.773795e-01 8.962401e-01 3.028288e-01 -9.300203e-01
<VARIANCE> 39
 2.999901e+01 2.665438e+01 1.293767e+01 1.330822e+01 1.730080e+01 1.905301e+01 1.644943e+01 2.611391e+01 2.607492e+01 1.466098e+01 1.629548e+01 1.757043e+01 2.247959e+01 4.336044e+00 3.869911e+00 1.563089e+00 3.261627e+00 6.012895e+00 2.599879e+00 2.571358e+00 3.800885e+00 3.624503e+00 2.560360e+00 3.357537e+00 2.857838e+00 5.640320e+00 3.990900e-01 1.765125e-01 2.812027e-01 2.616180e-01 4.710841e-01 4.983002e-01 3.264454e-01 4.741557e-01 6.878987e-01 4.339705e-01 6.234452e-01 8.011129e-01 5.142176e-01
<GCONST> 1.146380e+02
<MIXTURE> 2 4.428714e-01
<MEAN> 39
 -3.175174e+00 -2.329068e+01 5.656128e+00 1.115218e+01 1.916964e+00 1.262201e+01 -5.589844e-01 8.059344e+00 7.974951e-01 -1.040830e+00 9.357013e+00 2.115357e-01 1.708750e+00 2.044296e+00 -4.927655e+00 2.269423e+00 -1.916606e-01 -1.368614e+00 1.690418e+00 -7.546311e-01 -1.360429e-01 -3.394160e+00 -2.315594e+00 4.124445e+00 1.738499e+00 -1.758939e+00 -4.488347e-01 3.413050e-01 3.404154e-01 1.705281e-02 5.391890e-01 7.723072e-01 1.847332e-01 -3.599757e-02 -4.672074e-01 -1.545314e-01 1.823831e-01 4.360979e-01 8.346384e-01
<VARIANCE> 39
 1.579232e+01 4.149594e+01 3.544366e+01 1.773587e+01 2.228346e+01 3.579686e+01 2.019616e+01 4.367669e+01 4.401040e+01 3.634047e+01 3.807700e+01 3.526960e+01 1.695429e+01 1.332595e+00 1.105368e+00 3.010081e+00 1.043239e+00 1.526748e+00 3.910525e+00 1.568933e+00 3.163087e+00 2.783764e+00 2.620937e+00 1.982828e+00 2.042496e+00 2.962592e+00 3.543320e-01 4.456529e-01 3.000086e-01 1.483295e-01 1.883488e-01 3.337921e-01 2.593293e-01 4.825583e-01 1.274307e+00 8.434951e-01 5.862655e-01 5.738903e-01 2.923665e-01
<GCONST> 1.128230e+02
<STATE> 4
<NUMMIXES> 2
<MIXTURE> 1 5.204554e-01
<MEAN> 39
 -2.825704e-01 -1.511331e+01 -7.113737e+00 6.279414e+00 1.849736e+00 9.443329e+00 7.730499e+00 1.306810e+01 1.859971e+00 3.159172e+00 1.338876e+01 7.319248e+00 8.345415e+00 -4.444039e-01 1.911028e+00 -4.241227e-01 -6.410989e-01 -4.600677e-01 -1.424757e+00 -2.559041e-01 1.076082e-01 6.412244e-01 1.027548e-01 -1.327509e+00 -4.574405e-01 -1.322285e-01 -8.664437e-02 -2.346466e-01 1.974626e-01 -1.005942e-01 -1.471518e-01 -2.690185e-02 -2.383262e-01 -4.254706e-02 -9.423461e-02 -1.607079e-01 2.954406e-03 -1.133757e-01 -2.141232e-01
<VARIANCE> 39
 1.230033e+02 9.397983e+01 8.056673e+01 6.070071e+01 1.363427e+02 1.213568e+02 3.692788e+01 6.357898e+01 5.790985e+01 5.794899e+01 7.976347e+01 4.309853e+01 2.069416e+01 2.558595e+00 4.121869e+00 2.573641e+00 1.963944e+00 3.159879e+00 3.175952e+00 2.291632e+00 2.105188e+00 2.098902e+00 2.555355e+00 2.174243e+00 2.230002e+00 2.072459e+00 1.835234e-01 3.520656e-01 2.921184e-01 2.692039e-01 4.052094e-01 4.560125e-01 3.207996e-01 3.721702e-01 3.573065e-01 4.139894e-01 3.947636e-01 3.433707e-01 2.682066e-01
<GCONST> 1.238148e+02
<MIXTURE> 2 4.795443e-01
<MEAN> 39
 -4.437671e+00 -3.575169e+01 1.166526e+01 1.196224e+01 3.814518e+00 2.429269e+01 -2.051188e-02 5.335384e+00 -7.426015e+00 -3.933425e+00 1.915790e+01 4.644958e+00 2.533122e+00 -1.137245e-02 9.191018e-01 -9.741792e-01 5.248968e-01 1.077252e+00 3.042386e-01 7.148726e-01 -1.251345e-01 5.961275e-02 6.317715e-01 5.225422e-01 5.081542e-01 4.191158e-01 -1.022696e-02 9.872637e-01 -5.319864e-01 7.408445e-02 1.760201e-01 -6.341797e-01 5.811412e-02 3.227039e-02 5.076851e-01 2.772213e-01 -5.984119e-01 -1.572228e-01 6.073220e-02
<VARIANCE> 39
 2.208471e+01 4.163120e+01 6.756209e+01 5.102638e+01 4.430443e+01 4.288412e+01 4.178908e+01 5.337000e+01 3.354332e+01 4.945033e+01 5.854497e+01 5.064699e+01 2.540934e+01 1.511430e+00 7.469104e+00 7.121176e+00 1.857344e+00 1.897269e+00 5.097363e+00 2.264384e+00 2.313277e+00 3.901022e+00 3.393270e+00 3.930635e+00 1.897811e+00 1.232451e+00 2.698609e-01 4.218832e-01 1.098812e+00 2.364782e-01 3.564434e-01 5.240233e-01 4.509908e-01 4.419245e-01 8.087873e-01 8.284783e-01 4.939310e-01 4.011685e-01 2.654921e-01
<GCONST> 1.241255e+02
<TRANSP> 5
 0.000000e+00 1.000000e+00 0.000000e+00 0.000000e+00 0.000000e+00
 0.000000e+00 9.001675e-01 9.983250e-02 0.000000e+00 0.000000e+00
 0.000000e+00 0.000000e+00 8.515013e-01 1.484987e-01 0.000000e+00
 0.000000e+00 0.000000e+00 0.000000e+00 9.333410e-01 6.665900e-02
 0.000000e+00 0.000000e+00 0.000000e+00 0.000000e+00 0.000000e+00
<ENDHMM>
