~o
<STREAMINFO> 1 39
<VECSIZE> 39<NULLD><MFCC_D_A><DIAGC>
~h "a"
<BEGINHMM>
<NUMSTATES> 7
<STATE> 2
<NUMMIXES> 2
<MIXTURE> 1 7.764546e-01
<MEAN> 39
 1.121813e+01 -5.385314e+00 -4.172714e+00 4.435159e+00 3.025729e+00 -3.673512e+00 -8.147273e+00 1.417663e+01 -2.912790e+00 -1.229406e+01 6.803585e+00 1.433178e+00 -2.623989e-01 2.066082e+00 -5.833882e-01 -1.598365e+00 3.204839e-01 7.100282e-01 -2.025428e+00 -1.672154e+00 1.284341e+00 -3.698235e-01 -1.757370e+00 1.047608e+00 3.530054e-01 -8.089383e-01 -2.496327e-01 -2.137285e-01 -8.327794e-02 -1.786460e-01 4.272718e-02 1.257654e-01 8.481951e-03 1.178593e-01 -9.321283e-02 -6.495620e-02 1.433580e-01 -4.712973e-03 2.962110e-02
<VARIANCE> 39
 2.080739e+02 3.483706e+01 5.710938e+01 4.683258e+01 8.155106e+01 1.190610e+02 7.976270e+01 1.426808e+02 9.018920e+01 6.280486e+01 6.694383e+01 2.455095e+01 2.871599e+01 3.803815e+00 2.416216e+00 4.479865e+00 3.705419e+00 3.146640e+00 4.791233e+00 4.744174e+00 3.548455e+00 2.793713e+00 4.326574e+00 3.265633e+00 1.646081e+00 1.843102e+00 4.142783e-01 3.724943e-01 5.448859e-01 6.452666e-01 3.955083e-01 6.041601e-01 4.396431e-01 5.946065e-01 4.337407e-01 5.192694e-01 5.165653e-01 2.445783e-01 2.714630e-01
<GCONST> 1.311810e+02
<MIXTURE> 2 2.235445e-01
<MEAN> 39
 2.055101e+01 -1.178659e+01 -4.413426e+00 8.252263e+00 1.195094e+01 7.630169e-01 -1.660348e+01 9.955748e+00 -9.984443e+00 -2.134923e+01 1.171681e+01 3.688244e+00 -1.921787e+00 1.465496e+00 1.538326e-01 -3.305091e+00 2.081950e-02 1.643123e+00 -3.178985e+00 -1.745056e+00 2.218869e+00 -9.612466e-01 -2.352844e+00 2.077034e+00 5.861275e-01 -9.866056e-01 -7.876080e-01 -1.476201e-01 8.213905e-01 -2.465379e-01 -3.019710e-01 5.715390e-01 3.574319e-01 -1.250467e-01 2.613944e-01 6.841336e-01 -1.491898e-01 -1.157314e-01 3.012739e-01
<VARIANCE> 39
 7.118454e+00 1.451575e+01 3.681512e+01 3.499256e+01 3.534473e+01 3.744567e+01 3.539368e+01 3.212325e+01 3.008129e+01 2.274417e+01 4.186337e+01 1.101720e+01 1.693958e+01 9.394987e-01 1.684953e+00 2.722170e+00 1.918129e+00 1.245694e+00 1.988262e+00 1.975349e+00 1.412713e+00 1.095396e+00 1.867157e+00 1.557081e+00 8.993661e-01 9.453018e-01 2.132274e-01 2.200901e-01 2.963732e-01 2.049718e-01 1.780472e-01 2.008553e-01 2.193818e-01 2.992090e-01 1.704262e-01 2.809052e-01 2.979349e-01 1.295745e-01 1.180461e-01
<GCONST> 9.788860e+01
<STATE> 3
<NUMMIXES> 2
<MIXTURE> 1 6.395027e-01
<MEAN> 39
 2.222706e+01 -8.678628e+00 -1.063970e+01 4.619305e+00 5.035152e+00 -1.327854e+01 -1.289808e+01 2.425408e+01 -9.406247e-01 -2.009047e+01 9.499046e+00 3.254462e+00 -2.484357e+00 2.237401e-03 -1.501214e-01 -9.365490e-02 -9.941842e-02 2.053933e-01 -1.488252e-01 -3.814654e-01 -3.469958e-02 -1.104131e-01 -2.150462e-01 7.146369e-02 4.293143e-02 4.780055e-02 -3.443938e-02 1.173504e-01 1.454806e-01 5.879431e-02 1.923171e-02 1.365272e-01 2.964872e-02 -8.062951e-02 -4.718734e-02 3.391391e-02 -2.313821e-02 -7.103097e-02 -2.235574e-02
<VARIANCE> 39
 8.109622e+00 1.511770e+01 3.032475e+01 1.298709e+01 3.956718e+01 3.961150e+01 6.680160e+01 5.486031e+01 6.547658e+01 3.650407e+01 6.776594e+01 1.166388e+01 1.522330e+01 5.368165e-01 6.335453e-01 7.967222e-01 6.379899e-01 7.701241e-01 1.148234e+00 1.389067e+00 1.666630e+00 1.010140e+00 1.014714e+00 1.864105e+00 5.841780e-01 4.825362e-01 9.112620e-02 6.739816e-02 9.758580e-02 8.630732e-02 8.140162e-02 1.020666e-01 1.585397e-01 2.132253e-01 7.944220e-02 1.433312e-01 1.824137e-01 8.587830e-02 6.564320e-02
<GCONST> 8.414037e+01
<MIXTURE> 2 3.604913e-01
<MEAN> 39
 2.108275e+01 -1.049768e+01 -7.093865e+00 6.604079e+00 1.302751e+01 -5.637349e+00 -1.945997e+01 1.905699e+01 -9.710231e+00 -2.284353e+01 1.859418e+01 2.504529e+00 -4.151788e+00 4.196619e-01 -3.432503e-01 -7.030357e-01 -4.044650e-01 3.115235e-01 -8.389182e-01 -9.222664e-01 8.709442e-01 -9.569357e-02 -6.406919e-01 7.993796e-01 2.008260e-01 -2.043319e-02 -3.046629e-01 1.777706e-01 2.476456e-01 -2.721867e-02 -2.431124e-01 3.338796e-01 4.646615e-01 -4.471817e-01 2.179769e-01 4.897121e-01 -4.964314e-01 -1.658474e-02 2.257608e-01
<VARIANCE> 39
 2.197382e+01 1.911628e+01 4.902213e+01 3.462809e+01 5.462343e+01 5.018852e+01 7.164656e+01 7.576148e+01 5.795443e+01 5.257059e+01 6.712112e+01 2.115223e+01 2.523480e+01 7.380522e-01 1.042662e+00 1.216253e+00 1.611357e+00 1.151366e+00 1.503071e+00 2.422763e+00 2.353087e+00 1.269583e+00 1.934208e+00 2.418373e+00 1.029451e+00 8.877631e-01 1.649293e-01 1.494587e-01 2.540354e-01 2.447054e-01 1.899953e-01 3.017812e-01 3.727899e-01 4.464425e-01 2.443172e-01 3.999951e-01 3.855620e-01 1.916181e-01 1.686114e-01
<GCONST> 1.067258e+02
<STATE> 4
<NUMMIXES> 2
<MIXTURE> 1 3.856616e-02
<MEAN> 39
 4.545778e+00 -1.135367e+01 1.227831e+01 1.270468e+01 8.015061e+00 1.042562e+01 -1.009111e+01 4.802127e+00 -1.742188e+00 -9.051351e+00 1.262203e+00 -3.811397e+00 -1.213791e+00 2.116203e+00 1.437943e+00 -1.726713e+00 3.166606e+00 1.882435e+00 -2.623358e+00 -4.666714e-01 3.612429e-01 -5.068945e-01 -1.793172e+00 -3.711688e-01 1.410973e-01 -9.083152e-01 -3.541789e-01 -4.156061e-01 -1.227640e-01 -5.720842e-01 -1.510486e-01 -4.578531e-04 -1.827870e-01 7.158626e-03 -3.176613e-01 3.429294e-02 1.509178e-01 -7.407174e-02 4.843803e-02
<VARIANCE> 39
 1.810757e+02 8.553503e+01 2.107089e+02 2.527131e+02 8.777751e+01 1.825856e+02 6.448474e+01 8.825176e+01 7.727876e+01 4.891231e+01 3.539961e+01 3.304631e+01 1.835415e+01 2.114545e+00 5.486970e+00 3.307811e+00 6.939361e+00 3.256751e+00 4.463233e+00 3.899664e+00 3.847454e+00 3.571646e+00 3.915317e+00 4.073291e+00 1.319355e+00 1.791076e+00 2.614956e-01 4.792072e-01 7.594163e-01 8.727350e-01 4.101197e-01 6.971303e-01 7.561412e-01 5.074028e-01 5.142430e-01 4.583917e-01 3.423694e-01 1.785164e-01 1.720450e-01
<GCONST> 1.339219e+02
<MIXTURE> 2 9.614344e-01
<MEAN> 39
 2.237146e+01 -1.017806e+01 -1.018779e+01 4.727370e+00 1.225384e+01 -8.825900e+00 -2.002500e+01 2.019123e+01 -7.784784e+00 -2.321603e+01 1.581941e+01 3.353585e+00 -2.609889e+00 -2.309895e-01 4.777065e-01 4.776509e-02 -1.624157e-02 -6.417015e-02 2.170198e-01 3.131178e-01 -9.014196e-01 1.681435e-01 5.817053e-01 -6.771606e-01 9.515624e-02 2.514277e-01 -1.836913e-01 2.343044e-01 1.560948e-01 1.689496e-01 -6.260873e-02 2.420376e-01 3.948821e-01 -4.010238e-01 1.216061e-01 3.265029e-01 -4.433421e-01 -5.051721e-02 1.524880e-02
<VARIANCE> 39
 7.653977e+00 1.863324e+01 3.028150e+01 2.280003e+01 5.460620e+01 4.802324e+01 5.771693e+01 6.334492e+01 8.245746e+01 3.345844e+01 9.219212e+01 1.784204e+01 2.343440e+01 4.867918e-01 4.879476e-01 8.577777e-01 1.046783e+00 1.016618e+00 1.210788e+00 1.707326e+00 1.944215e+00 1.277856e+00 1.328351e+00 2.039444e+00 8.739732e-01 8.682564e-01 7.402242e-02 6.302516e-02 1.359148e-01 1.129728e-01 1.093531e-01 1.422684e-01 1.763339e-01 2.065950e-01 1.067437e-01 1.486311e-01 1.807596e-01 1.259664e-01 7.982744e-02
<GCONST> 9.108773e+01
<STATE> 5
<NUMMIXES> 2
<MIXTURE> 1 4.473921e-01
<MEAN> 39
 2.063545e+01 -9.923013e+00 -1.255152e+01 5.470110e+00 1.298115e+01 -7.459730e+00 -1.806320e+01 1.190157e+01 -7.672458e+00 -1.907350e+01 1.175514e+01 6.474956e+00 8.752666e-01 -1.673855e-03 4.805013e-01 -1.756040e-01 1.048829e-02 1.021088e-01 3.587496e-01 3.763126e-01 -5.316116e-01 2.646943e-01 4.439451e-01 -6.713507e-01 -5.875880e-02 8.674458e-02 1.373010e-01 1.695083e-02 8.578110e-02 9.325132e-02 1.980824e-01 1.367037e-01 -1.590068e-01 3.664169e-01 -9.689217e-02 -2.501061e-01 2.093982e-01 -2.398748e-01 -1.787624e-01
<VARIANCE> 39
 9.815276e+00 1.219687e+01 2.207592e+01 1.674422e+01 2.827287e+01 2.697332e+01 3.374819e+01 3.908337e+01 4.500831e+01 2.644303e+01 6.385558e+01 1.402772e+01 1.788721e+01 7.046626e-01 5.315729e-01 8.154782e-01 8.881263e-01 1.003852e+00 1.219191e+00 1.765627e+00 2.871539e+00 1.353699e+00 1.534967e+00 2.688870e+00 9.073045e-01 8.353219e-01 1.307341e-01 7.142145e-02 1.163180e-01 9.910794e-02 9.262664e-02 1.110089e-01 1.967324e-01 2.514326e-01 1.085200e-01 1.717656e-01 2.388947e-01 9.808505e-02 9.281565e-02
<GCONST> 8.809013e+01
<MIXTURE> 2 5.526060e-01
<MEAN> 39
 2.160471e+01 -7.848167e+00 -8.142256e+00 6.169035e+00 1.148947e+01 -7.906284e+00 -1.777284e+01 2.031450e+01 -7.038930e+00 -2.274638e+01 1.335902e+01 1.475133e+00 -4.107067e+00 -5.628428e-01 1.175419e+00 7.065477e-01 7.287515e-01 1.307838e-01 9.805043e-01 1.210943e+00 -1.294516e+00 2.584510e-01 9.428066e-01 -1.472588e+00 -3.496012e-01 -4.633540e-02 -3.946828e-01 3.104794e-01 3.302414e-01 1.797390e-01 -6.192481e-02 3.789174e-01 5.240774e-01 -5.165393e-01 2.432513e-01 5.321336e-01 -5.841705e-01 -1.518676e-02 1.954557e-01
<VARIANCE> 39
 2.283383e+01 2.410694e+01 5.533813e+01 3.544746e+01 6.270250e+01 8.734620e+01 6.128757e+01 7.516122e+01 1.040359e+02 4.148560e+01 1.276638e+02 2.204994e+01 2.538448e+01 9.754894e-01 9.806617e-01 1.504090e+00 1.319349e+00 1.419369e+00 2.132577e+00 2.621097e+00 3.141518e+00 1.634834e+00 2.298985e+00 3.239635e+00 1.106997e+00 1.028604e+00 1.145993e-01 1.391574e-01 2.134874e-01 1.972313e-01 2.046955e-01 2.737961e-01 2.863736e-01 3.416225e-01 2.536100e-01 2.607606e-01 3.454517e-01 2.159086e-01 1.733419e-01
<GCONST> 1.090695e+02
<STATE> 6
<NUMMIXES> 2
<MIXTURE> 1 4.012079e-01
<MEAN> 39
 1.315900e+01 2.425864e-01 -2.019027e+00 9.163133e+00 1.002695e+01 4.689190e-01 -6.821230e+00 1.028198e+01 -5.099518e+00 -1.394776e+01 3.141698e+00 2.043217e+00 4.399730e-02 -2.028480e+00 1.940912e+00 1.987081e+00 7.818212e-01 7.981099e-03 1.790789e+00 1.667848e+00 -1.548939e+00 6.313556e-01 1.579114e+00 -1.952593e+00 -2.958362e-01 7.979804e-01 -1.168024e-01 -1.651459e-01 1.103894e-01 -3.807610e-02 1.519310e-02 -4.537657e-02 -2.096291e-01 9.849758e-02 -1.421810e-01 -1.201280e-01 2.742081e-01 -2.315825e-02 -3.271750e-02
<VARIANCE> 39
 7.751452e+01 7.918193e+01 7.275871e+01 4.721653e+01 5.750634e+01 1.117666e+02 4.746238e+01 1.004013e+02 9.927042e+01 5.078597e+01 9.178576e+01 3.337944e+01 3.945697e+01 1.515821e+00 2.551345e+00 2.211841e+00 2.321369e+00 1.906074e+00 2.742673e+00 2.619587e+00 2.872548e+00 2.154739e+00 2.629684e+00 3.253925e+00 1.753142e+00 1.994523e+00 1.407507e-01 2.880222e-01 2.891632e-01 2.265606e-01 2.441107e-01 3.438945e-01 3.480915e-01 3.611624e-01 3.809973e-01 3.525012e-01 3.892405e-01 2.216075e-01 2.504694e-01
<GCONST> 1.205090e+02
<MIXTURE> 2 5.987980e-01
<MEAN> 39
 2.064538e+01 -8.902625e+00 -7.523599e+00 5.535120e+00 1.206653e+01 -4.916322e+00 -1.796222e+01 1.524072e+01 -9.323420e+00 -1.860730e+01 1.896815e+01 3.604470e+00 -2.936514e+00 6.357692e-02 1.544602e-01 -8.031808e-03 7.218997e-02 7.182485e-02 1.409813e-01 8.414873e-02 -9.537641e-02 -9.527101e-02 1.186327e-02 -8.006711e-02 -1.437771e-01 -7.716287e-02 -7.530636e-03 2.591098e-02 1.483439e-02 4.225292e-02 3.921033e-02 7.132691e-02 4.161491e-02 -3.587243e-02 -1.536149e-02 -2.381351e-02 -7.079400e-02 -1.207693e-02 -1.507813e-02
<VARIANCE> 39
 7.418866e+00 1.948512e+01 3.990705e+01 2.427243e+01 4.724222e+01 3.185711e+01 7.748403e+01 4.641996e+01 5.114871e+01 6.440724e+01 7.746358e+01 1.859183e+01 2.777336e+01 4.281120e-01 5.022846e-01 7.681863e-01 7.649673e-01 8.583975e-01 9.938537e-01 1.865793e+00 1.833858e+00 9.427514e-01 1.475792e+00 1.724149e+00 7.804007e-01 6.673589e-01 5.445831e-02 6.684501e-02 9.271780e-02 1.025364e-01 9.679008e-02 1.223162e-01 2.145763e-01 2.394557e-01 1.158624e-01 1.809497e-01 2.186894e-01 1.167540e-01 8.794109e-02
<GCONST> 8.931291e+01
<TRANSP> 7
 0.000000e+00 1.000000e+00 0.000000e+00 0.000000e+00 0.000000e+00 0.000000e+00 0.000000e+00
 0.000000e+00 6.688243e-01 3.311757e-01 0.000000e+00 0.000000e+00 0.000000e+00 0.000000e+00
 0.000000e+00 0.000000e+00 8.474928e-01 1.525072e-01 0.000000e+00 0.000000e+00 0.000000e+00
 0.000000e+00 0.000000e+00 0.000000e+00 3.087754e-01 6.912246e-01 0.000000e+00 0.000000e+00
 0.000000e+00 0.000000e+00 0.000000e+00 0.000000e+00 6.462650e-01 3.537350e-01 0.000000e+00
 0.000000e+00 0.000000e+00 0.000000e+00 0.000000e+00 0.000000e+00 7.620134e-01 2.379866e-01
 0.000000e+00 0.000000e+00 0.000000e+00 0.000000e+00 0.000000e+00 0.000000e+00 0.000000e+00
<ENDHMM>
~h "b"
<BEGINHMM>
<NUMSTATES> 5
<STATE> 2
<NUMMIXES> 2
<MIXTURE> 1 5.000000e-01
<MEAN> 39
 4.941083e+00 1.754867e+01 1.424059e+01 1.555218e+01 1.200302e+01 1.044712e+01 4.461574e+00 1.075503e+01 2.031695e+00 -4.365191e+00 -4.629124e+00 -5.901122e+00 -4.971379e+00 -4.281170e-01 2.077329e-01 2.942698e-01 1.594425e-01 2.449205e-01 4.689530e-01 2.658885e-01 -1.843654e-02 1.454121e-01 3.967696e-01 1.240949e-01 -1.887937e-02 1.548221e-01 8.320946e-02 -2.680212e-01 -2.390696e-01 -1.327820e-02 9.793371e-03 -1.913744e-01 -1.751138e-01 9.485767e-02 8.922333e-02 -8.067520e-02 -1.421070e-02 5.807128e-02 9.279452e-02
<VARIANCE> 39
 2.590586e+01 2.261833e+01 2.127641e+01 1.306262e+01 1.274678e+01 3.330966e+01 1.682771e+01 1.794511e+01 1.641080e+01 2.437904e+01 1.675190e+01 1.466247e+01 1.669175e+01 6.967124e-01 1.792562e+00 1.862276e+00 7.445812e-01 7.000776e-01 1.649626e+00 1.235321e+00 1.209563e+00 1.085190e+00 1.040517e+00 9.412417e-01 8.554846e-01 1.187758e+00 5.751044e-02 1.364657e-01 1.776924e-01 1.166281e-01 1.065338e-01 1.617822e-01 1.452677e-01 1.523233e-01 1.314028e-01 1.458898e-01 1.452140e-01 1.194423e-01 1.353418e-01
<GCONST> 8.431677e+01
<MIXTURE> 2 5.000000e-01
<MEAN> 39
 4.941083e+00 1.754867e+01 1.424059e+01 1.555218e+01 1.200302e+01 1.044712e+01 4.461574e+00 1.075503e+01 2.031695e+00 -4.365191e+00 -4.629124e+00 -5.901122e+00 -4.971379e+00 -4.281170e-01 2.077329e-01 2.942698e-01 1.594425e-01 2.449205e-01 4.689530e-01 2.658885e-01 -1.843654e-02 1.454121e-01 3.967696e-01 1.240949e-01 -1.887937e-02 1.548221e-01 8.320946e-02 -2.680212e-01 -2.390696e-01 -1.327820e-02 9.793371e-03 -1.913744e-01 -1.751138e-01 9.485767e-02 8.922333e-02 -8.067520e-02 -1.421070e-02 5.807128e-02 9.279452e-02
<VARIANCE> 39
 2.590586e+01 2.261833e+01 2.127641e+01 1.306262e+01 1.274678e+01 3.330966e+01 1.682771e+01 1.794511e+01 1.641080e+01 2.437904e+01 1.675190e+01 1.466247e+01 1.669175e+01 6.967124e-01 1.792562e+00 1.862276e+00 7.445812e-01 7.000776e-01 1.649626e+00 1.235321e+00 1.209563e+00 1.085190e+00 1.040517e+00 9.412417e-01 8.554846e-01 1.187758e+00 5.751044e-02 1.364657e-01 1.776924e-01 1.166281e-01 1.065338e-01 1.617822e-01 1.452677e-01 1.523233e-01 1.314028e-01 1.458898e-01 1.452140e-01 1.194423e-01 1.353418e-01
<GCONST> 8.431677e+01
<STATE> 3
<NUMMIXES> 2
<MIXTURE> 1 5.000000e-01
<MEAN> 39
 3.482310e+00 8.373116e+00 1.086593e+01 1.340306e+01 1.141611e+01 8.699352e+00 5.189075e-01 1.359529e+01 2.948449e+00 -6.340467e+00 -2.785035e+00 -4.063022e+00 -2.117992e+00 5.534572e-01 -1.127941e+00 -1.071878e+00 -5.046079e-02 8.095205e-04 -9.485819e-01 -8.920662e-01 5.120694e-01 5.069260e-01 -4.104838e-01 -1.029579e-01 2.078339e-01 4.735680e-01 2.309846e-01 -1.594837e-01 -1.999328e-01 -2.255335e-01 -2.315584e-01 -2.708520e-01 -1.933337e-01 -4.862341e-02 -1.183641e-01 -1.432373e-01 1.449172e-01 7.265148e-02 -7.655070e-02
<VARIANCE> 39
 7.971986e+01 1.700344e+02 1.050339e+02 8.012537e+01 5.884744e+01 1.156384e+02 9.387827e+01 4.740502e+01 6.275774e+01 5.462056e+01 6.424186e+01 2.148373e+01 3.673738e+01 2.437299e+00 4.776054e+00 4.764520e+00 2.791344e+00 2.484397e+00 5.129756e+00 3.841045e+00 2.431805e+00 2.255701e+00 2.759865e+00 1.945156e+00 1.207981e+00 1.887735e+00 2.833514e-01 2.973936e-01 3.964566e-01 4.494873e-01 4.310159e-01 5.922139e-01 4.299495e-01 3.394914e-01 3.577349e-01 4.155291e-01 3.253421e-01 2.045482e-01 2.652877e-01
<GCONST> 1.261378e+02
<MIXTURE> 2 5.000000e-01
<MEAN> 39
 3.482310e+00 8.373116e+00 1.086593e+01 1.340306e+01 1.141611e+01 8.699352e+00 5.189075e-01 1.359529e+01 2.948449e+00 -6.340467e+00 -2.785035e+00 -4.063022e+00 -2.117992e+00 5.534572e-01 -1.127941e+00 -1.071878e+00 -5.046079e-02 8.095205e-04 -9.485819e-01 -8.920662e-01 5.120694e-01 5.069260e-01 -4.104838e-01 -1.029579e-01 2.078339e-01 4.735680e-01 2.309846e-01 -1.594837e-01 -1.999328e-01 -2.255335e-01 -2.315584e-01 -2.708520e-01 -1.933337e-01 -4.862341e-02 -1.183641e-01 -1.432373e-01 1.449172e-01 7.265148e-02 -7.655070e-02
<VARIANCE> 39
 7.971986e+01 1.700344e+02 1.050339e+02 8.012537e+01 5.884744e+01 1.156384e+02 9.387827e+01 4.740502e+01 6.275774e+01 5.462056e+01 6.424186e+01 2.148373e+01 3.673738e+01 2.437299e+00 4.776054e+00 4.764520e+00 2.791344e+00 2.484397e+00 5.129756e+00 3.841045e+00 2.431805e+00 2.255701e+00 2.759865e+00 1.945156e+00 1.207981e+00 1.887735e+00 2.833514e-01 2.973936e-01 3.964566e-01 4.494873e-01 4.310159e-01 5.922139e-01 4.299495e-01 3.394914e-01 3.577349e-01 4.155291e-01 3.253421e-01 2.045482e-01 2.652877e-01
<GCONST> 1.261378e+02
<STATE> 4
<NUMMIXES> 2
<MIXTURE> 1 5.000000e-01
<MEAN> 39
 7.841555e+00 8.104010e+00 5.342438e+00 1.485479e+01 1.174040e+01 2.431301e+00 -2.492656e+00 1.553461e+01 7.258844e+00 -6.398409e+00 -5.235585e+00 -3.916846e+00 -5.679138e-01 1.680456e+00 -2.369165e+00 -2.550686e+00 -1.511884e+00 -1.536330e+00 -2.897778e+00 -2.136167e+00 5.088540e-01 -1.198264e-01 -1.286579e+00 8.547326e-01 8.627745e-01 2.874600e-01 4.541479e-01 5.666431e-02 -5.820739e-02 -2.771277e-01 -4.755640e-01 -5.640674e-01 -1.940560e-01 9.075248e-02 -3.120334e-01 -3.647186e-01 2.003048e-01 2.084597e-02 -3.745852e-01
<VARIANCE> 39
 3.418110e+01 3.920638e+01 3.423506e+01 1.929808e+01 3.387339e+01 8.798499e+01 5.302203e+01 2.393743e+01 2.448409e+01 2.248800e+01 1.940494e+01 1.596519e+01 1.905420e+01 2.865005e+00 2.317355e+00 2.963223e+00 1.908634e+00 3.705665e+00 8.132901e+00 3.658387e+00 2.641164e+00 1.491164e+00 3.030918e+00 1.398204e+00 1.117921e+00 1.038746e+00 1.418857e-01 1.530674e-01 1.471084e-01 3.214686e-01 5.036362e-01 4.483256e-01 2.263231e-01 4.065761e-01 2.637913e-01 2.851788e-01 2.613977e-01 1.574211e-01 2.253890e-01
<GCONST> 1.087812e+02
<MIXTURE> 2 5.000000e-01
<MEAN> 39
 7.841555e+00 8.104010e+00 5.342438e+00 1.485479e+01 1.174040e+01 2.431301e+00 -2.492656e+00 1.553461e+01 7.258844e+00 -6.398409e+00 -5.235585e+00 -3.916846e+00 -5.679138e-01 1.680456e+00 -2.369165e+00 -2.550686e+00 -1.511884e+00 -1.536330e+00 -2.897778e+00 -2.136167e+00 5.088540e-01 -1.198264e-01 -1.286579e+00 8.547326e-01 8.627745e-01 2.874600e-01 4.541479e-01 5.666431e-02 -5.820739e-02 -2.771277e-01 -4.755640e-01 -5.640674e-01 -1.940560e-01 9.075248e-02 -3.120334e-01 -3.647186e-01 2.003048e-01 2.084597e-02 -3.745852e-01
<VARIANCE> 39
 3.418110e+01 3.920638e+01 3.423506e+01 1.929808e+01 3.387339e+01 8.798499e+01 5.302203e+01 2.393743e+01 2.448409e+01 2.248800e+01 1.940494e+01 1.596519e+01 1.905420e+01 2.865005e+00 2.317355e+00 2.963223e+00 1.908634e+00 3.705665e+00 8.132901e+00 3.658387e+00 2.641164e+00 1.491164e+00 3.030918e+00 1.398204e+00 1.117921e+00 1.038746e+00 1.418857e-01 1.530674e-01 1.471084e-01 3.214686e-01 5.036362e-01 4.483256e-01 2.263231e-01 4.065761e-01 2.637913e-01 2.851788e-01 2.613977e-01 1.574211e-01 2.253890e-01
<GCONST> 1.087812e+02
<TRANSP> 5
 0.000000e+00 1.000000e+00 0.000000e+00 0.000000e+00 0.000000e+00
 0.000000e+00 9.037718e-01 9.622826e-02 0.000000e+00 0.000000e+00
 0.000000e+00 0.000000e+00 6.163088e-01 3.836911e-01 0.000000e+00
 0.000000e+00 0.000000e+00 0.000000e+00 5.829532e-01 4.170468e-01
 0.000000e+00 0.000000e+00 0.000000e+00 0.000000e+00 0.000000e+00
<ENDHMM>
~h "c"
<BEGINHMM>
<NUMSTATES> 5
<STATE> 2
<NUMMIXES> 2
<MIXTURE> 1 6.561462e-01
<MEAN> 39
 -1.268874e+01 -6.114049e+00 4.777374e+00 1.023194e+01 3.967749e+00 6.889022e+00 -1.192220e+00 5.225419e+00 -6.739374e-01 -5.082609e+00 -9.030944e-01 8.209869e-02 3.419760e+00 -1.331826e+00 -2.298860e+00 1.534351e-01 -4.902949e-01 -1.469551e+00 -2.468060e-01 -3.151235e-01 -1.081153e-01 3.421154e-01 -4.707782e-02 1.357831e-01 1.498217e-01 -8.623399e-02 1.413610e-01 -2.402577e-01 1.748033e-01 -8.393180e-02 -1.615987e-01 -5.204030e-02 -1.440549e-01 3.802738e-02 -2.468122e-02 -1.205429e-01 1.433005e-01 5.338477e-02 -1.456895e-01
<VARIANCE> 39
 1.463674e+02 2.136869e+02 9.303728e+01 6.692283e+01 7.005630e+01 6.213484e+01 4.542450e+01 4.613259e+01 4.436514e+01 4.329881e+01 3.796213e+01 2.114873e+01 2.599283e+01 3.211717e+00 9.804242e+00 4.529222e+00 3.848084e+00 3.519772e+00 3.050555e+00 2.665520e+00 2.493600e+00 2.376794e+00 2.743946e+00 2.610843e+00 1.785702e+00 2.236400e+00 2.306104e-01 6.976588e-01 5.343894e-01 4.412682e-01 3.715755e-01 4.607472e-01 3.314543e-01 3.706320e-01 3.646181e-01 3.619266e-01 3.705385e-01 2.872119e-01 3.510264e-01
<GCONST> 1.266463e+02
<MIXTURE> 2 3.438518e-01
<MEAN> 39
 -1.617250e+01 -4.137523e+01 2.148192e+01 1.022045e+01 -1.159490e+01 7.872499e+00 -1.120872e+01 4.995420e+00 3.626400e+00 -9.781517e+00 3.234525e+00 2.675829e+00 3.426124e-01 -2.694234e-02 -1.881030e+00 1.615642e+00 -1.428123e-01 -6.460598e-02 5.550098e-01 -1.137654e+00 -2.205038e-01 -2.611805e-01 2.260532e-01 8.079637e-01 -7.851832e-02 -1.613139e-01 3.433150e-02 5.250867e-01 -5.506672e-01 1.158151e-01 6.073678e-01 1.655988e-01 1.726506e-01 -1.249218e-01 -8.842351e-02 2.616005e-01 -1.230815e-01 -8.282928e-02 2.180404e-01
<VARIANCE> 39
 1.452500e+01 4.376099e+01 6.783922e+01 2.390028e+01 3.602528e+01 1.817968e+01 3.755753e+01 3.136791e+01 4.214174e+01 2.435504e+01 3.053567e+01 1.517794e+01 9.080763e+00 1.653478e+00 5.472006e+00 7.271597e+00 1.078414e+00 3.176335e+00 2.070762e+00 1.781377e+00 1.784585e+00 1.635326e+00 2.183689e+00 1.538841e+00 1.390821e+00 1.139508e+00 3.646289e-01 6.126384e-01 6.909249e-01 2.309154e-01 3.547107e-01 3.751356e-01 2.539084e-01 2.556634e-01 2.745331e-01 3.403799e-01 2.136811e-01 3.120528e-01 1.812658e-01
<GCONST> 1.089524e+02
<STATE> 3
<NUMMIXES> 2
<MIXTURE> 1 6.337380e-01
<MEAN> 39
 -1.470228e+01 -3.861827e+01 1.407891e+01 1.096874e+01 -2.719719e+00 1.131288e+01 -1.158341e+01 1.456508e+00 3.476446e+00 -5.235979e+00 2.364943e+00 2.935784e+00 3.351255e+00 1.527412e+00 4.653857e-01 2.211312e-01 9.360056e-01 9.478179e-01 1.060272e+00 3.630001e-01 -3.628255e-01 3.270488e-01 1.329086e-01 3.730689e-02 3.296682e-01 7.897305e-02 3.387406e-01 6.391523e-01 -9.095377e-02 7.040915e-02 4.382716e-02 -1.035472e-01 1.150252e-01 -1.303366e-02 3.580555e-03 -8.279195e-02 -1.099551e-01 -5.581028e-02 -1.095669e-01
<VARIANCE> 39
 3.622358e+01 1.397656e+02 1.442127e+02 3.731702e+01 4.458665e+01 7.088637e+01 4.784862e+01 3.672136e+01 4.026433e+01 2.673245e+01 5.509975e+01 2.482063e+01 1.704067e+01 2.965883e+00 1.252131e+01 5.311249e+00 2.072569e+00 2.636228e+00 2.096811e+00 3.228098e+00 1.713663e+00 1.990946e+00 1.982492e+00 1.927784e+00 1.595720e+00 1.575480e+00 3.924972e-01 7.877539e-01 5.765516e-01 2.696447e-01 3.128744e-01 5.221332e-01 4.975662e-01 3.247401e-01 3.310030e-01 3.873148e-01 3.478711e-01 3.024564e-01 2.607126e-01
<GCONST> 1.214302e+02
<MIXTURE> 2 3.662609e-01
<MEAN> 39
 -2.661692e+01 -6.367465e+00 -5.123044e+00 -2.730361e+00 -3.464113e+00 6.978228e-01 -3.436565e+00 1.500494e+00 -1.297910e+00 -5.678566e-01 3.974148e-01 -8.726684e-01 5.204009e-01 2.827588e-02 -1.933418e-01 -5.287616e-02 1.663947e-01 1.049731e-01 -9.508110e-02 -8.343524e-02 3.474492e-02 -2.563042e-02 -1.152291e-01 -1.036914e-01 4.413706e-02 1.208784e-01 8.047289e-02 -1.434181e-01 -4.762297e-03 1.792596e-01 1.308886e-01 1.434798e-02 -2.750997e-02 4.804229e-02 4.364110e-02 -6.059533e-02 -8.340696e-02 4.556187e-02 1.351799e-01
<VARIANCE> 39
 5.712824e-01 1.294104e+00 1.720662e+00 3.110718e+00 4.205483e+00 5.223016e+00 6.106622e+00 5.972101e+00 7.355689e+00 7.609613e+00 7.036793e+00 6.339094e+00 5.704427e+00 1.132955e-01 4.968091e-01 3.210507e-01 7.368817e-01 7.641042e-01 7.983545e-01 9.925668e-01 9.562135e-01 1.180350e+00 1.212618e+00 1.063835e+00 9.362114e-01 1.019385e+00 3.374872e-02 1.502802e-01 8.693297e-02 1.755917e-01 1.795022e-01 1.846557e-01 2.158820e-01 2.212292e-01 2.613882e-01 2.616466e-01 2.304853e-01 1.939423e-01 2.095187e-01
<GCONST> 6.154326e+01
<STATE> 4
<NUMMIXES> 2
<MIXTURE> 1 9.962370e-01
<MEAN> 39
 7.387362e+00 -1.823512e+01 1.167694e+01 1.703801e+01 5.480294e+00 1.182511e+01 -9.326203e+00 1.364019e+00 1.910628e+00 -9.661713e+00 1.830833e+00 3.529343e+00 1.081660e+00 4.077556e+00 3.462385e+00 -3.717052e+00 4.482731e-01 1.949129e+00 -3.334143e+00 -1.529994e+00 9.587350e-01 -1.085836e+00 -2.200979e+00 -3.746251e-01 -1.550404e-01 -5.566620e-01 -4.748313e-01 -9.214479e-01 -5.099325e-01 -3.526273e-01 9.682881e-03 -7.537262e-01 -5.352993e-01 5.756757e-01 -2.197919e-01 -3.192085e-01 3.796288e-01 3.440872e-02 -4.197447e-02
<VARIANCE> 39
 1.086444e+02 8.343289e+01 9.193427e+01 4.076350e+01 4.073954e+01 8.535258e+01 4.273940e+01 3.561942e+01 2.077075e+01 3.903466e+01 3.196327e+01 1.759383e+01 1.509976e+01 4.141040e+00 5.796569e+00 6.850093e+00 1.797512e+00 1.900376e+00 4.864367e+00 2.691265e+00 4.554795e+00 1.796526e+00 2.943072e+00 2.243550e+00 1.157714e+00 1.305002e+00 4.484017e-01 3.315827e-01 8.022270e-01 1.499791e-01 2.191367e-01 7.750968e-01 7.024660e-01 3.546645e-01 2.813322e-01 4.839542e-01 2.560315e-01 1.619644e-01 1.158533e-01
<GCONST> 1.190317e+02
<MIXTURE> 2 3.763001e-03
<MEAN> 39
 -1.599701e+01 -4.374182e+01 2.025484e+01 6.677378e+00 -9.292366e+00 1.116259e+01 -1.405912e+01 9.189849e-01 4.429346e+00 -6.095318e+00 6.408134e+00 1.156681e+00 -3.023297e+00 1.347368e-01 3.672991e-01 -1.392777e+00 -2.326470e-01 1.981033e-01 1.420130e-01 4.731976e-01 -1.398646e+00 -3.261019e-02 5.409136e-01 4.862017e-03 9.575509e-02 -7.089072e-01 -5.905835e-02 -9.152711e-03 -8.964056e-02 -2.338592e-02 5.493333e-02 -1.003476e-01 1.790633e-01 1.625070e-01 -6.963819e-03 1.217039e-01 1.544089e-01 2.944915e-01 1.435359e-01
<VARIANCE> 39
 8.598517e-01 1.539330e+01 3.906893e+00 3.784819e+00 4.660553e+00 2.020233e+00 3.888264e-01 2.029369e+00 5.522993e+00 2.004001e-01 1.278382e+01 1.675965e+01 2.284902e-02 6.659715e-02 3.534035e+00 4.374012e-01 4.516262e-01 4.517537e-01 9.363235e-02 3.176186e-01 1.951818e+00 1.680985e-01 1.086072e-02 2.146290e-01 4.220408e-01 9.291826e-03 1.904628e-03 7.996178e-04 5.540152e-03 4.462673e-03 7.569443e-04 5.904940e-03 1.107467e-03 3.232404e-02 9.535489e-03 8.520070e-02 1.836672e-02 9.824395e-02 1.283813e-02
<GCONST> -3.793111e+00
<TRANSP> 5
 0.000000e+00 1.000000e+00 0.000000e+00 0.000000e+00 0.000000e+00
 0.000000e+00 9.263020e-01 7.369809e-02 0.000000e+00 0.000000e+00
 0.000000e+00 0.000000e+00 9.279225e-01 7.207754e-02 0.000000e+00
 0.000000e+00 0.000000e+00 0.000000e+00 7.121304e-01 2.878696e-01
 0.000000e+00 0.000000e+00 0.000000e+00 0.000000e+00 0.000000e+00
<ENDHMM>
~h "d"
<BEGINHMM>
<NUMSTATES> 5
<STATE> 2
<NUMMIXES> 2
<MIXTURE> 1 5.000000e-01
<MEAN> 39
 1.833945e+00 1.563396e+01 1.426079e+01 1.717763e+01 1.413519e+01 1.249107e+01 5.107613e+00 9.794054e+00 1.937272e-02 -5.151188e+00 -3.212923e+00 -3.239617e+00 -1.352618e+00 -4.097298e-01 -1.377609e-01 1.564131e-01 1.881257e-01 2.152840e-01 5.123593e-01 2.823710e-01 -1.524149e-02 3.501073e-01 5.621201e-01 1.024244e-01 8.989266e-03 2.550697e-01 8.145951e-02 -4.049211e-01 -2.579638e-01 -2.243783e-02 -2.163354e-02 -1.247622e-01 -1.388481e-01 5.930287e-02 8.690339e-03 -1.831974e-02 1.240076e-01 -5.941628e-03 3.612424e-02
<VARIANCE> 39
 3.916825e+01 3.079255e+01 2.591528e+01 1.865849e+01 2.124797e+01 3.451499e+01 1.680491e+01 2.305087e+01 2.185180e+01 3.891339e+01 2.193273e+01 1.269205e+01 1.546692e+01 7.920877e-01 3.557067e+00 2.181848e+00 1.031486e+00 1.066005e+00 1.478759e+00 1.166935e+00 1.426964e+00 1.119945e+00 1.425992e+00 1.072886e+00 9.294987e-01 1.330044e+00 7.732814e-02 2.424016e-01 2.277372e-01 1.860102e-01 1.853233e-01 1.611225e-01 1.674956e-01 1.562951e-01 1.790413e-01 2.079265e-01 2.209593e-01 1.396916e-01 1.783376e-01
<GCONST> 9.340117e+01
<MIXTURE> 2 5.000000e-01
<MEAN> 39
 1.833945e+00 1.563396e+01 1.426079e+01 1.717763e+01 1.413519e+01 1.249107e+01 5.107613e+00 9.794054e+00 1.937272e-02 -5.151188e+00 -3.212923e+00 -3.239617e+00 -1.352618e+00 -4.097298e-01 -1.377609e-01 1.564131e-01 1.881257e-01 2.152840e-01 5.123593e-01 2.823710e-01 -1.524149e-02 3.501073e-01 5.621201e-01 1.024244e-01 8.989266e-03 2.550697e-01 8.145951e-02 -4.049211e-01 -2.579638e-01 -2.243783e-02 -2.163354e-02 -1.247622e-01 -1.388481e-01 5.930287e-02 8.690339e-03 -1.831974e-02 1.240076e-01 -5.941628e-03 3.612424e-02
<VARIANCE> 39
 3.916825e+01 3.079255e+01 2.591528e+01 1.865849e+01 2.124797e+01 3.451499e+01 1.680491e+01 2.305087e+01 2.185180e+01 3.891339e+01 2.193273e+01 1.269205e+01 1.546692e+01 7.920877e-01 3.557067e+00 2.181848e+00 1.031486e+00 1.066005e+00 1.478759e+00 1.166935e+00 1.426964e+00 1.119945e+00 1.425992e+00 1.072886e+00 9.294987e-01 1.330044e+00 7.732814e-02 2.424016e-01 2.277372e-01 1.860102e-01 1.853233e-01 1.611225e-01 1.674956e-01 1.562951e-01 1.790413e-01 2.079265e-01 2.209593e-01 1.396916e-01 1.783376e-01
<GCONST> 9.340117e+01
<STATE> 3
<NUMMIXES> 2
<MIXTURE> 1 5.000000e-01
<MEAN> 39
 2.861751e+00 -7.242013e-01 5.456876e+00 1.672219e+01 1.222177e+01 1.022850e+01 3.305936e+00 1.113303e+01 -1.304808e+00 -4.817621e+00 1.067713e+00 -3.709170e+00 2.716197e+00 1.587646e+00 -2.879179e+00 -1.737943e+00 -9.327543e-01 -1.258223e+00 -1.326755e+00 -1.085043e+00 3.907866e-01 -1.111300e+00 -1.048812e+00 1.397840e+00 -2.598621e-01 -1.595328e-01 4.260643e-01 3.614278e-01 1.692369e-01 -1.834754e-01 -1.280446e-01 -3.257908e-01 -3.577861e-01 -1.527401e-02 -3.584775e-01 -5.616295e-01 8.237110e-02 5.505368e-02 -3.631767e-01
<VARIANCE> 39
 4.973542e+01 9.061318e+01 3.786674e+01 4.315197e+01 5.119993e+01 3.499808e+01 3.723964e+01 4.699035e+01 8.370733e+01 5.941507e+01 5.491870e+01 2.957351e+01 3.116069e+01 2.083499e+00 6.447941e+00 2.894258e+00 2.243428e+00 3.112628e+00 2.516517e+00 2.891623e+00 1.906431e+00 6.720232e+00 5.657093e+00 5.787831e+00 2.029637e+00 2.004533e+00 2.733967e-01 7.495062e-01 3.574750e-01 4.481620e-01 6.668302e-01 3.758598e-01 4.152870e-01 3.550575e-01 1.532018e+00 8.767275e-01 1.166335e+00 3.938379e-01 3.911746e-01
<GCONST> 1.286864e+02
<MIXTURE> 2 5.000000e-01
<MEAN> 39
 2.861751e+00 -7.242013e-01 5.456876e+00 1.672219e+01 1.222177e+01 1.022850e+01 3.305936e+00 1.113303e+01 -1.304808e+00 -4.817621e+00 1.067713e+00 -3.709170e+00 2.716197e+00 1.587646e+00 -2.879179e+00 -1.737943e+00 -9.327543e-01 -1.258223e+00 -1.326755e+00 -1.085043e+00 3.907866e-01 -1.111300e+00 -1.048812e+00 1.397840e+00 -2.598621e-01 -1.595328e-01 4.260643e-01 3.614278e-01 1.692369e-01 -1.834754e-01 -1.280446e-01 -3.257908e-01 -3.577861e-01 -1.527401e-02 -3.584775e-01 -5.616295e-01 8.237110e-02 5.505368e-02 -3.631767e-01
<VARIANCE> 39
 4.973542e+01 9.061318e+01 3.786674e+01 4.315197e+01 5.119993e+01 3.499808e+01 3.723964e+01 4.699035e+01 8.370733e+01 5.941507e+01 5.491870e+01 2.957351e+01 3.116069e+01 2.083499e+00 6.447941e+00 2.894258e+00 2.243428e+00 3.112628e+00 2.516517e+00 2.891623e+00 1.906431e+00 6.720232e+00 5.657093e+00 5.787831e+00 2.029637e+00 2.004533e+00 2.733967e-01 7.495062e-01 3.574750e-01 4.481620e-01 6.668302e-01 3.758598e-01 4.152870e-01 3.550575e-01 1.532018e+00 8.767275e-01 1.166335e+00 3.938379e-01 3.911746e-01
<GCONST> 1.286864e+02
<STATE> 4
<NUMMIXES> 2
<MIXTURE> 1 5.000000e-01
<MEAN> 39
 1.242536e+01 -1.810908e+00 3.286109e+00 1.212766e+01 4.453747e+00 2.346132e+00 2.058453e+00 1.617344e+01 -4.433815e+00 -1.023694e+01 7.263723e+00 1.194058e-01 2.947906e+00 1.012884e+00 -9.373935e-01 -6.693813e-01 -4.716330e-01 -2.502217e-01 -9.845725e-01 -1.295487e+00 1.390220e-01 -4.341320e-01 -8.836738e-01 8.302363e-01 2.435792e-01 -4.692625e-01 3.880131e-02 1.718156e-01 1.148998e-01 1.397437e-01 2.960041e-01 -3.397845e-02 -2.473568e-01 -6.971043e-02 -8.682653e-02 -2.268822e-01 -6.880538e-02 7.241730e-03 -2.021811e-01
<VARIANCE> 39
 5.681388e+01 3.901653e+01 2.006917e+01 2.258517e+01 8.392516e+01 5.879729e+01 5.462812e+01 4.366801e+01 4.238023e+01 5.901545e+01 5.170572e+01 3.568824e+01 2.624177e+01 2.074814e+00 4.949193e+00 2.203279e+00 1.432884e+00 1.811188e+00 2.629035e+00 4.462960e+00 1.903194e+00 3.984906e+00 4.042214e+00 5.688831e+00 1.629693e+00 1.518559e+00 1.588974e-01 2.289835e-01 2.452034e-01 2.499244e-01 3.472276e-01 2.948678e-01 3.459697e-01 3.440970e-01 7.801821e-01 5.692338e-01 4.615405e-01 2.656976e-01 2.417044e-01
<GCONST> 1.181501e+02
<MIXTURE> 2 5.000000e-01
<MEAN> 39
 1.242536e+01 -1.810908e+00 3.286109e+00 1.212766e+01 4.453747e+00 2.346132e+00 2.058453e+00 1.617344e+01 -4.433815e+00 -1.023694e+01 7.263723e+00 1.194058e-01 2.947906e+00 1.012884e+00 -9.373935e-01 -6.693813e-01 -4.716330e-01 -2.502217e-01 -9.845725e-01 -1.295487e+00 1.390220e-01 -4.341320e-01 -8.836738e-01 8.302363e-01 2.435792e-01 -4.692625e-01 3.880131e-02 1.718156e-01 1.148998e-01 1.397437e-01 2.960041e-01 -3.397845e-02 -2.473568e-01 -6.971043e-02 -8.682653e-02 -2.268822e-01 -6.880538e-02 7.241730e-03 -2.021811e-01
<VARIANCE> 39
 5.681388e+01 3.901653e+01 2.006917e+01 2.258517e+01 8.392516e+01 5.879729e+01 5.462812e+01 4.366801e+01 4.238023e+01 5.901545e+01 5.170572e+01 3.568824e+01 2.624177e+01 2.074814e+00 4.949193e+00 2.203279e+00 1.432884e+00 1.811188e+00 2.629035e+00 4.462960e+00 1.903194e+00 3.984906e+00 4.042214e+00 5.688831e+00 1.629693e+00 1.518559e+00 1.588974e-01 2.289835e-01 2.452034e-01 2.499244e-01 3.472276e-01 2.948678e-01 3.459697e-01 3.440970e-01 7.801821e-01 5.692338e-01 4.615405e-01 2.656976e-01 2.417044e-01
<GCONST> 1.181501e+02
<TRANSP> 5
 0.000000e+00 1.000000e+00 0.000000e+00 0.000000e+00 0.000000e+00
 0.000000e+00 9.148414e-01 8.515865e-02 0.000000e+00 0.000000e+00
 0.000000e+00 0.000000e+00 7.355869e-01 2.644131e-01 0.000000e+00
 0.000000e+00 0.000000e+00 0.000000e+00 5.996383e-01 4.003617e-01
 0.000000e+00 0.000000e+00 0.000000e+00 0.000000e+00 0.000000e+00
<ENDHMM>
~h "f"
<BEGINHMM>
<NUMSTATES> 5
<STATE> 2
<NUMMIXES> 2
<MIXTURE> 1 1.000000e+00
<MEAN> 39
 2.158751e+01 -5.293846e+00 -1.262332e+01 7.855196e+00 -1.864529e+00 -2.886206e+01 -1.786226e+01 2.571913e+01 1.837827e+01 -9.033673e+00 -3.298159e+00 2.811869e+00 -6.572436e-01 -5.017927e-01 1.406643e-02 2.732688e-01 -7.780001e-01 -4.651457e-01 7.358816e-03 3.152981e-01 -3.276362e-01 4.302517e-01 7.221084e-01 -1.605222e-01 5.163970e-02 1.203081e-01 6.275848e-01 -1.024856e-03 -3.595237e-01 1.660246e-01 1.357338e-01 -1.733584e-01 -9.966385e-02 6.052456e-01 -3.065915e-01 -6.482475e-01 4.036213e-01 1.512484e-01 -1.935612e-01
<VARIANCE> 39
 1.512432e+01 8.648260e+00 8.285818e+01 4.462567e+00 1.937515e+01 1.518909e+01 8.941148e+00 1.766280e+01 7.296793e+00 1.389922e+01 5.089218e+00 2.657188e+00 6.208326e+00 2.017778e+00 1.006117e-02 1.746852e+00 2.891146e-01 1.022471e+00 8.979988e-01 1.072919e+00 3.899053e+00 3.848955e-01 1.403571e+00 2.229785e+00 9.382486e-02 1.424742e+00 4.292470e-02 3.111882e-02 1.300359e-01 7.394240e-03 2.955742e-01 2.103304e-02 1.825996e-01 1.093325e-01 2.554665e-02 1.509513e-01 7.084755e-03 1.610326e-02 4.483362e-02
<GCONST> 5.689838e+01
<MIXTURE> 2 0.000000e+00
<MEAN> 39
 -1.585175e+01 -1.551351e+00 7.729309e+00 -7.243529e+00 1.722945e+01 -4.595492e+00 8.562895e+00 -3.340965e+00 3.503048e+00 -4.349793e+00 2.257324e+00 -9.441703e-01 1.405435e+00 -2.463601e+00 -8.618322e-01 -7.031665e-01 -4.471729e-01 2.791805e-01 3.659815e-01 -1.137626e-01 -3.731829e-01 -3.769362e-02 -3.910118e-02 3.242532e-01 -1.921992e-02 3.981748e-01 4.077158e-01 -1.006740e-01 -2.800901e-01 -9.457918e-02 -3.625076e-01 -3.459834e-01 -2.940953e-01 2.188951e-02 -1.688870e-01 -1.846896e-01 -1.475902e-01 -2.191112e-03 -1.261082e-01
<VARIANCE> 39
 3.794474e+01 3.006912e+01 3.696891e+01 3.629724e+01 4.906600e+01 3.866109e+01 4.917469e+01 3.866268e+01 3.933981e+01 3.216502e+01 2.111969e+01 2.085070e+01 1.584314e+01 1.946436e+00 1.199190e+00 1.955029e+00 2.033741e+00 2.686450e+00 2.348367e+00 2.500819e+00 2.211571e+00 1.997479e+00 1.933216e+00 1.770481e+00 1.567442e+00 1.408696e+00 2.019766e-01 2.254066e-01 2.903521e-01 2.933460e-01 3.599655e-01 3.714276e-01 4.149454e-01 4.019520e-01 3.977194e-01 3.726283e-01 3.362232e-01 2.893453e-01 2.591272e-01
<GCONST> 1.105595e+02
<STATE> 3
<NUMMIXES> 2
<MIXTURE> 1 1.000000e+00
<MEAN> 39
 1.928523e+01 -5.579313e+00 -1.087397e+01 5.830167e+00 -4.413062e+00 -2.812619e+01 -1.622671e+01 2.376479e+01 1.961165e+01 -6.791787e+00 -5.180834e+00 2.531220e+00 7.921574e-01 5.281034e-01 -2.628332e-01 -1.437615e-01 -2.060120e-01 -6.764159e-01 -1.407349e-01 3.494180e-01 4.159485e-01 -3.587282e-01 -2.653612e-01 4.089516e-01 -3.738004e-02 -1.598113e-01 7.643763e-01 -1.118601e-01 -3.349547e-01 3.880206e-01 1.350385e-01 -1.943351e-01 -1.447733e-01 6.270182e-01 -4.420381e-01 -6.139084e-01 5.405300e-01 -2.846188e-02 -2.254514e-01
<VARIANCE> 39
 4.871977e+00 7.483762e+00 5.545134e+01 2.364178e+01 1.250268e+01 5.364654e+01 3.286341e+01 3.402822e+00 6.021408e+00 2.314572e+00 1.318522e+01 5.476339e+00 4.229487e-01 1.203935e+00 1.834289e-01 9.284751e-01 3.274149e-01 1.374274e+00 1.272750e+00 1.256016e+00 2.515783e+00 3.282561e-01 7.501777e-01 1.902341e+00 1.385085e-01 1.166436e+00 1.801739e-01 3.145228e-02 3.230565e-01 1.587198e-02 3.645657e-01 3.597052e-02 1.425860e-01 3.507897e-01 1.635067e-03 2.107830e-01 1.122443e-01 4.398663e-03 1.529414e-01
<GCONST> 6.091828e+01
<MIXTURE> 2 0.000000e+00
<MEAN> 39
 -2.546515e+01 -5.316592e+00 5.182599e-01 -1.014452e+01 1.336730e+01 -4.508892e+00 4.143860e+00 -4.057298e+00 1.675601e+00 -5.046123e+00 2.272683e+00 -1.283370e+00 2.229477e+00 -1.519309e-01 -3.431510e-01 -2.302347e-01 -2.690792e-01 -1.743130e-01 -7.424696e-02 -3.065879e-02 -5.297905e-02 3.275013e-02 -3.512295e-02 8.244935e-02 3.946884e-02 7.528704e-02 2.312994e-01 2.895865e-02 1.394252e-01 3.060656e-02 6.189735e-02 -5.252600e-03 9.213040e-02 -9.943989e-03 4.179194e-02 1.035141e-04 3.644056e-02 5.465960e-03 1.392528e-02
<VARIANCE> 39
 1.176915e+01 2.009933e+01 2.096771e+01 2.293049e+01 2.208943e+01 2.328727e+01 2.455520e+01 2.513758e+01 2.492216e+01 2.296042e+01 1.801677e+01 1.398869e+01 1.294775e+01 9.981425e-01 6.281391e-01 9.135668e-01 1.018384e+00 1.192862e+00 1.366520e+00 1.546908e+00 1.590251e+00 1.575584e+00 1.404581e+00 1.335052e+00 1.189907e+00 1.009449e+00 1.105499e-01 1.091064e-01 1.587749e-01 1.862282e-01 2.259963e-01 2.640838e-01 2.930050e-01 3.118650e-01 3.037787e-01 2.800012e-01 2.679037e-01 2.386677e-01 2.069542e-01
<GCONST> 9.260374e+01
<STATE> 4
<NUMMIXES> 2
<MIXTURE> 1 1.000000e+00
<MEAN> 39
 2.338786e+01 -6.100581e+00 -1.236171e+01 7.244882e+00 -4.747530e+00 -2.850684e+01 -1.545530e+01 2.639698e+01 1.658603e+01 -9.187897e+00 -1.677862e+00 2.252725e+00 -4.320849e-01 1.185276e+00 -4.051073e-01 -3.116815e-01 1.158215e-01 -4.225055e-01 -2.799284e-01 1.573912e-02 9.294318e-01 -5.261771e-01 -7.447164e-01 7.456713e-01 -1.201917e-01 -1.856651e-01 4.193093e-01 -4.740268e-02 -2.021381e-01 2.786858e-01 1.374106e-01 -9.920460e-02 -1.046980e-01 3.069898e-01 -2.815613e-01 -2.860808e-01 3.096485e-01 -1.084657e-01 -1.527181e-01
<VARIANCE> 39
 4.138222e+00 1.100303e+01 6.025437e+01 2.493551e+01 5.196924e+01 7.940557e+01 3.275840e+01 1.187032e+01 3.894186e+00 6.521815e+00 2.430512e+01 4.931417e+00 2.553042e+00 4.646607e-01 2.371113e-01 5.521444e-01 2.243443e-01 1.923098e+00 7.663374e-01 9.394125e-01 8.889099e-01 4.943807e-01 4.096272e-01 1.134105e+00 2.905419e-01 4.134951e-01 9.082377e-02 9.331780e-04 2.075402e-01 1.755055e-02 1.613734e-01 1.817037e-02 2.525447e-02 1.679956e-01 1.228850e-02 8.487947e-02 1.019221e-01 2.757651e-03 1.219986e-01
<GCONST> 5.494857e+01
<MIXTURE> 2 0.000000e+00
<MEAN> 39
 -1.919306e+01 -9.236015e+00 3.689552e+00 -1.223476e+01 1.489335e+01 -6.318414e+00 7.143879e+00 -6.103525e+00 3.174531e+00 -6.095226e+00 4.311400e+00 -2.684157e-01 3.222131e+00 2.403928e+00 6.682029e-01 1.196788e+00 8.050752e-01 2.333375e-01 1.086554e-01 -3.363338e-03 2.492941e-01 -2.023524e-01 1.609932e-01 -2.533848e-01 3.826904e-02 -4.694991e-01 5.983038e-01 5.120639e-01 1.572707e-01 3.195376e-01 -1.208165e-01 -2.085501e-01 -3.490097e-01 1.940116e-01 -1.673514e-01 -7.740311e-02 -3.054772e-01 -1.087985e-01 -3.564875e-01
<VARIANCE> 39
 3.042087e+01 2.921870e+01 3.283026e+01 3.405130e+01 4.104346e+01 3.583276e+01 4.287782e+01 3.903381e+01 3.163493e+01 3.066770e+01 2.307189e+01 1.659729e+01 1.461290e+01 2.254787e+00 2.112019e+00 1.727328e+00 2.238523e+00 2.263419e+00 2.361685e+00 2.342651e+00 2.605778e+00 2.095444e+00 2.131377e+00 2.099487e+00 1.836933e+00 1.663770e+00 2.622992e-01 2.496722e-01 3.391603e-01 3.445290e-01 4.448123e-01 5.514072e-01 5.425829e-01 4.482497e-01 4.572209e-01 4.257733e-01 3.892074e-01 3.408262e-01 2.868415e-01
<GCONST> 1.128664e+02
<TRANSP> 5
 0.000000e+00 1.000000e+00 0.000000e+00 0.000000e+00 0.000000e+00
 0.000000e+00 2.500007e-01 7.499993e-01 0.000000e+00 0.000000e+00
 0.000000e+00 0.000000e+00 1.141431e-36 1.000000e+00 0.000000e+00
 0.000000e+00 0.000000e+00 0.000000e+00 1.698440e-12 1.000000e+00
 0.000000e+00 0.000000e+00 0.000000e+00 0.000000e+00 0.000000e+00
<ENDHMM>
~h "g"
<BEGINHMM>
<NUMSTATES> 5
<STATE> 2
<NUMMIXES> 2
<MIXTURE> 1 5.000000e-01
<MEAN> 39
 5.127209e+00 1.772170e+01 1.412614e+01 1.599621e+01 1.327593e+01 1.078180e+01 1.958143e+00 6.006845e+00 -2.942316e+00 -6.602883e+00 -4.616835e+00 -6.315553e+00 -5.186002e+00 -6.574596e-01 -1.100832e-01 -3.726113e-02 -5.666367e-01 -6.000142e-02 9.956179e-01 8.843910e-01 4.171841e-01 2.755567e-01 2.472338e-01 -1.250001e-01 -4.201961e-01 2.066711e-02 1.243469e-01 -3.685127e-01 -4.015608e-01 -2.879406e-01 -2.341319e-01 -2.235583e-01 -8.313143e-02 2.855607e-01 1.336190e-01 -3.499141e-02 2.639771e-01 1.347141e-01 2.929307e-03
<VARIANCE> 39
 1.879172e+01 1.757567e+01 1.971241e+01 1.522995e+01 2.327095e+01 2.504641e+01 3.084770e+01 3.078560e+01 2.929375e+01 2.865377e+01 1.647744e+01 1.752060e+01 1.570348e+01 5.877870e-01 2.041979e+00 2.817276e+00 2.371352e+00 2.102439e+00 2.129740e+00 1.441179e+00 2.303115e+00 1.531876e+00 1.492094e+00 1.433401e+00 1.374143e+00 1.010796e+00 6.738403e-02 1.953813e-01 2.613454e-01 2.539297e-01 2.363184e-01 2.443777e-01 1.739496e-01 1.799836e-01 1.786301e-01 1.942525e-01 2.048086e-01 1.393366e-01 1.283510e-01
<GCONST> 9.552467e+01
<MIXTURE> 2 5.000000e-01
<MEAN> 39
 5.127209e+00 1.772170e+01 1.412614e+01 1.599621e+01 1.327593e+01 1.078180e+01 1.958143e+00 6.006845e+00 -2.942316e+00 -6.602883e+00 -4.616835e+00 -6.315553e+00 -5.186002e+00 -6.574596e-01 -1.100832e-01 -3.726113e-02 -5.666367e-01 -6.000142e-02 9.956179e-01 8.843910e-01 4.171841e-01 2.755567e-01 2.472338e-01 -1.250001e-01 -4.201961e-01 2.066711e-02 1.243469e-01 -3.685127e-01 -4.015608e-01 -2.879406e-01 -2.341319e-01 -2.235583e-01 -8.313143e-02 2.855607e-01 1.336190e-01 -3.499141e-02 2.639771e-01 1.347141e-01 2.929307e-03
<VARIANCE> 39
 1.879172e+01 1.757567e+01 1.971241e+01 1.522995e+01 2.327095e+01 2.504641e+01 3.084770e+01 3.078560e+01 2.929375e+01 2.865377e+01 1.647744e+01 1.752060e+01 1.570348e+01 5.877870e-01 2.041979e+00 2.817276e+00 2.371352e+00 2.102439e+00 2.129740e+00 1.441179e+00 2.303115e+00 1.531876e+00 1.492094e+00 1.433401e+00 1.374143e+00 1.010796e+00 6.738403e-02 1.953813e-01 2.613454e-01 2.539297e-01 2.363184e-01 2.443777e-01 1.739496e-01 1.799836e-01 1.786301e-01 1.942525e-01 2.048086e-01 1.393366e-01 1.283510e-01
<GCONST> 9.552467e+01
<STATE> 3
<NUMMIXES> 2
<MIXTURE> 1 5.000000e-01
<MEAN> 39
 4.937745e+00 1.106145e+01 5.081716e+00 6.435518e+00 7.642191e+00 1.011930e+01 4.230164e+00 1.355314e+01 7.078614e-01 -7.553288e+00 -1.744338e+00 -5.452071e+00 -4.533339e+00 3.537783e-01 -1.216140e+00 -1.387271e+00 -1.128681e+00 -4.277094e-01 4.746318e-04 -1.312506e-01 5.069005e-01 -2.036135e-01 -6.089748e-01 5.270326e-01 2.324215e-01 1.926471e-01 1.011127e-01 -2.882087e-02 1.317506e-01 3.857378e-01 3.447890e-01 -4.572517e-02 -3.233971e-01 -3.591476e-01 -2.750233e-01 -7.042621e-02 9.080169e-02 8.494668e-02 -1.006954e-02
<VARIANCE> 39
 5.558297e+01 4.984533e+01 7.417404e+01 1.493349e+02 1.216859e+02 4.838834e+01 6.712930e+01 1.216201e+02 7.816643e+01 8.380230e+01 3.509549e+01 3.086046e+01 2.598312e+01 2.545878e+00 3.454396e+00 5.241083e+00 1.030615e+01 8.073806e+00 4.415550e+00 3.494065e+00 6.365932e+00 3.913373e+00 4.011047e+00 2.793836e+00 1.932309e+00 1.853710e+00 1.931548e-01 2.598626e-01 4.971004e-01 1.225580e+00 1.028387e+00 5.271012e-01 4.370251e-01 7.978252e-01 5.721021e-01 5.448951e-01 3.980269e-01 2.387186e-01 2.346599e-01
<GCONST> 1.334108e+02
<MIXTURE> 2 5.000000e-01
<MEAN> 39
 4.937745e+00 1.106145e+01 5.081716e+00 6.435518e+00 7.642191e+00 1.011930e+01 4.230164e+00 1.355314e+01 7.078614e-01 -7.553288e+00 -1.744338e+00 -5.452071e+00 -4.533339e+00 3.537783e-01 -1.216140e+00 -1.387271e+00 -1.128681e+00 -4.277094e-01 4.746318e-04 -1.312506e-01 5.069005e-01 -2.036135e-01 -6.089748e-01 5.270326e-01 2.324215e-01 1.926471e-01 1.011127e-01 -2.882087e-02 1.317506e-01 3.857378e-01 3.447890e-01 -4.572517e-02 -3.233971e-01 -3.591476e-01 -2.750233e-01 -7.042621e-02 9.080169e-02 8.494668e-02 -1.006954e-02
<VARIANCE> 39
 5.558297e+01 4.984533e+01 7.417404e+01 1.493349e+02 1.216859e+02 4.838834e+01 6.712930e+01 1.216201e+02 7.816643e+01 8.380230e+01 3.509549e+01 3.086046e+01 2.598312e+01 2.545878e+00 3.454396e+00 5.241083e+00 1.030615e+01 8.073806e+00 4.415550e+00 3.494065e+00 6.365932e+00 3.913373e+00 4.011047e+00 2.793836e+00 1.932309e+00 1.853710e+00 1.931548e-01 2.598626e-01 4.971004e-01 1.225580e+00 1.028387e+00 5.271012e-01 4.370251e-01 7.978252e-01 5.721021e-01 5.448951e-01 3.980269e-01 2.387186e-01 2.346599e-01
<GCONST> 1.334108e+02
<STATE> 4
<NUMMIXES> 2
<MIXTURE> 1 5.000000e-01
<MEAN> 39
 2.156061e+00 1.641438e+01 1.431320e+01 1.547844e+01 1.350557e+01 1.306111e+01 3.566571e+00 7.322399e+00 -1.042220e+00 -4.593474e+00 -3.357222e+00 -6.639604e+00 -5.201648e+00 -4.127754e-01 -7.596356e-01 -4.573562e-01 -4.544115e-01 -4.304001e-01 -1.761327e-01 1.250017e-01 6.378580e-01 2.844918e-01 1.218479e-01 7.181393e-01 4.471804e-01 2.281512e-01 1.827420e-01 -2.135733e-01 -2.685864e-01 -1.948306e-01 -2.326449e-01 -3.412295e-01 -1.933446e-01 1.981591e-01 5.387769e-02 -8.151521e-02 1.811338e-01 1.000003e-01 1.987742e-03
<VARIANCE> 39
 3.445802e+01 3.339380e+01 3.987939e+01 4.538293e+01 3.103299e+01 2.051431e+01 2.961864e+01 3.445525e+01 2.281448e+01 2.123065e+01 1.441952e+01 1.605090e+01 1.195339e+01 8.629925e-01 2.406644e+00 2.602980e+00 2.528143e+00 2.527335e+00 2.203068e+00 1.456999e+00 2.129650e+00 1.384448e+00 1.267637e+00 1.952117e+00 1.432722e+00 9.800964e-01 8.619562e-02 1.134348e-01 1.986092e-01 2.853519e-01 3.003809e-01 2.327550e-01 1.925647e-01 2.746415e-01 1.989482e-01 1.526074e-01 1.991245e-01 1.699148e-01 1.422043e-01
<GCONST> 9.882440e+01
<MIXTURE> 2 5.000000e-01
<MEAN> 39
 2.156061e+00 1.641438e+01 1.431320e+01 1.547844e+01 1.350557e+01 1.306111e+01 3.566571e+00 7.322399e+00 -1.042220e+00 -4.593474e+00 -3.357222e+00 -6.639604e+00 -5.201648e+00 -4.127754e-01 -7.596356e-01 -4.573562e-01 -4.544115e-01 -4.304001e-01 -1.761327e-01 1.250017e-01 6.378580e-01 2.844918e-01 1.218479e-01 7.181393e-01 4.471804e-01 2.281512e-01 1.827420e-01 -2.135733e-01 -2.685864e-01 -1.948306e-01 -2.326449e-01 -3.412295e-01 -1.933446e-01 1.981591e-01 5.387769e-02 -8.151521e-02 1.811338e-01 1.000003e-01 1.987742e-03
<VARIANCE> 39
 3.445802e+01 3.339380e+01 3.987939e+01 4.538293e+01 3.103299e+01 2.051431e+01 2.961864e+01 3.445525e+01 2.281448e+01 2.123065e+01 1.441952e+01 1.605090e+01 1.195339e+01 8.629925e-01 2.406644e+00 2.602980e+00 2.528143e+00 2.527335e+00 2.203068e+00 1.456999e+00 2.129650e+00 1.384448e+00 1.267637e+00 1.952117e+00 1.432722e+00 9.800964e-01 8.619562e-02 1.134348e-01 1.986092e-01 2.853519e-01 3.003809e-01 2.327550e-01 1.925647e-01 2.746415e-01 1.989482e-01 1.526074e-01 1.991245e-01 1.699148e-01 1.422043e-01
<GCONST> 9.882440e+01
<TRANSP> 5
 0.000000e+00 1.000000e+00 0.000000e+00 0.000000e+00 0.000000e+00
 0.000000e+00 7.602573e-01 2.397427e-01 0.000000e+00 0.000000e+00
 0.000000e+00 0.000000e+00 5.027724e-01 4.972276e-01 0.000000e+00
 0.000000e+00 0.000000e+00 0.000000e+00 7.330499e-01 2.669501e-01
 0.000000e+00 0.000000e+00 0.000000e+00 0.000000e+00 0.000000e+00
<ENDHMM>
~h "h"
<BEGINHMM>
<NUMSTATES> 5
<STATE> 2
<NUMMIXES> 2
<MIXTURE> 1 5.207911e-01
<MEAN> 39
 1.341143e+01 -5.257349e+00 -2.456646e+00 1.328652e+01 1.269948e+01 5.498623e+00 -6.392445e+00 8.180596e+00 -2.677330e+00 1.281580e+00 2.252952e+01 3.235056e+00 -5.959520e+00 -4.050420e-01 -4.285591e-02 7.128908e-02 1.002428e-01 -1.757332e-01 3.716100e-01 5.950220e-01 4.271895e-03 6.675466e-01 1.043653e+00 7.627918e-02 2.968456e-02 8.055776e-02 -1.833128e-02 2.066061e-02 -1.109997e-02 -4.737892e-02 -2.596557e-02 -4.536583e-02 -1.990899e-02 5.112816e-02 4.711466e-02 -5.387776e-02 -1.159732e-01 -9.352081e-03 7.436296e-02
<VARIANCE> 39
 1.303530e+01 2.311376e+01 7.096819e+01 7.237297e+01 5.563784e+01 2.927382e+01 7.553717e+01 5.096534e+01 4.188615e+01 1.076633e+02 5.851264e+01 4.208842e+01 4.247802e+01 2.619661e-01 6.944698e-01 8.970196e-01 1.099493e+00 1.153423e+00 1.270187e+00 2.379692e+00 1.872226e+00 1.713507e+00 2.060452e+00 2.631361e+00 1.166712e+00 1.408863e+00 2.579480e-02 7.901303e-02 9.300964e-02 1.236437e-01 1.323631e-01 1.719442e-01 2.577884e-01 2.276505e-01 2.497517e-01 2.622045e-01 2.970874e-01 1.795445e-01 1.922415e-01
<GCONST> 9.985115e+01
<MIXTURE> 2 4.792078e-01
<MEAN> 39
 -1.320312e+01 -5.660859e+00 -6.487144e+00 -2.559950e+00 -3.078654e+00 1.806292e+00 6.172293e-02 7.217261e+00 -1.936230e+00 -4.281914e+00 2.031088e+00 1.511940e+00 2.057314e+00 2.288624e-01 -2.412553e-01 -3.407610e-01 -2.611192e-01 -5.498903e-01 -2.118176e-01 4.752921e-01 6.124061e-01 3.083836e-01 9.817980e-03 -1.707470e-01 -7.858021e-02 2.303824e-02 6.904158e-02 -2.254656e-02 1.876521e-02 2.846412e-02 -2.866826e-02 -3.017322e-02 9.007539e-03 1.438836e-02 -1.244245e-02 1.839248e-02 6.496947e-02 2.616486e-02 -6.699824e-03
<VARIANCE> 39
 2.566920e+02 5.436539e+01 6.409366e+01 7.527290e+01 7.188205e+01 7.315732e+01 5.118329e+01 9.934331e+01 5.259664e+01 5.442456e+01 4.908420e+01 2.394696e+01 1.854011e+01 3.140049e+00 1.125392e+00 1.648023e+00 1.867905e+00 1.840098e+00 2.118112e+00 2.214473e+00 3.042049e+00 2.409038e+00 2.450621e+00 2.147556e+00 1.439033e+00 1.371428e+00 1.288471e-01 1.129498e-01 1.762493e-01 2.330073e-01 2.329166e-01 2.675404e-01 3.016993e-01 3.657131e-01 3.562002e-01 3.262857e-01 2.735751e-01 2.137423e-01 2.238982e-01
<GCONST> 1.147368e+02
<STATE> 3
<NUMMIXES> 2
<MIXTURE> 1 3.538374e-01
<MEAN> 39
 5.627665e+00 -2.499034e-01 8.686033e+00 2.622934e+01 1.874386e+01 2.037244e+00 -1.046062e+01 1.025818e+01 4.611636e+00 1.888995e+00 1.193699e+01 -6.412822e+00 -1.103144e+01 -1.452308e-01 1.346765e-01 -7.605021e-02 -3.525285e-01 -3.736910e-01 -5.167226e-02 2.812244e-01 4.535458e-01 5.777048e-01 3.414893e-01 -1.047332e-03 1.580173e-01 5.376878e-02 9.104586e-02 -4.222081e-03 -1.113405e-02 -4.994416e-02 1.273609e-02 -4.532478e-02 -1.486403e-01 -5.046669e-02 -1.844261e-01 -2.235090e-01 1.005355e-01 8.885565e-02 -4.440585e-02
<VARIANCE> 39
 1.066820e+01 2.837459e+01 2.851754e+01 3.705825e+01 1.938385e+01 2.482275e+01 2.458517e+01 2.864200e+01 3.584906e+01 4.133251e+01 3.687457e+01 2.011165e+01 2.725771e+01 2.963279e-01 5.117898e-01 1.006768e+00 1.505664e+00 1.205825e+00 1.120522e+00 1.576208e+00 1.743133e+00 2.002882e+00 2.427777e+00 2.133464e+00 1.256855e+00 1.403658e+00 2.388196e-02 7.892664e-02 1.021991e-01 1.925891e-01 1.803840e-01 1.727091e-01 2.430666e-01 2.614087e-01 2.532200e-01 2.921669e-01 2.954844e-01 1.968223e-01 2.302985e-01
<GCONST> 9.370614e+01
<MIXTURE> 2 6.461623e-01
<MEAN> 39
 1.327753e+01 -9.671597e-01 -2.533520e+00 4.898202e+00 -5.118520e+00 -5.666588e-01 1.090265e+01 2.528064e+01 6.159995e+00 -4.610768e+00 4.919136e+00 3.343364e+00 2.302505e+00 -2.014731e-02 9.452927e-02 9.706564e-02 -8.288896e-02 -3.949472e-01 -1.794600e-01 2.934547e-01 1.588286e-01 -6.913114e-02 -6.265145e-02 -7.532881e-02 2.778444e-02 1.597115e-02 5.608284e-02 2.870996e-03 -1.348124e-02 2.347831e-02 9.124747e-02 -1.075716e-01 -2.451782e-01 -1.011889e-01 -7.463895e-02 -7.549839e-02 6.429709e-02 -7.423341e-03 -8.400699e-02
<VARIANCE> 39
 3.653759e+01 7.883604e+01 5.930950e+01 2.311836e+01 7.617941e+01 7.715875e+01 8.327683e+01 8.686045e+01 4.488483e+01 8.056323e+01 5.616743e+01 2.336443e+01 2.384110e+01 7.395145e-01 9.443251e-01 8.726322e-01 8.299725e-01 1.332491e+00 1.970550e+00 2.801649e+00 2.193743e+00 1.478204e+00 1.879251e+00 1.567578e+00 1.064019e+00 1.099517e+00 3.854485e-02 8.617736e-02 9.986216e-02 1.213830e-01 1.520214e-01 2.019642e-01 2.341356e-01 2.700348e-01 2.098354e-01 2.342920e-01 2.103075e-01 1.824764e-01 1.581679e-01
<GCONST> 1.022220e+02
<STATE> 4
<NUMMIXES> 2
<MIXTURE> 1 4.540604e-01
<MEAN> 39
 9.581343e+00 -7.553439e-01 3.984625e+00 2.029246e+01 1.788442e+01 4.009150e-02 -1.589453e+01 9.747099e+00 1.512862e+00 -1.134283e+00 1.877192e+01 -1.659990e+00 -1.218460e+01 6.044683e-01 -1.907608e-01 -4.582355e-01 -1.958721e-01 4.541661e-01 -4.562522e-01 -1.245743e+00 -2.633952e-01 -8.980489e-01 -1.229155e+00 3.886316e-01 3.177123e-01 -1.530452e-01 5.218505e-02 -1.075375e-01 -1.763109e-01 -3.450309e-02 1.032349e-01 1.976080e-02 -6.837270e-02 -4.297749e-02 -3.506247e-02 -3.666294e-02 -2.738289e-02 2.137779e-02 5.562534e-02
<VARIANCE> 39
 1.396459e+01 2.960837e+01 3.499696e+01 3.524201e+01 3.018258e+01 2.612551e+01 4.738480e+01 3.645596e+01 4.519395e+01 6.163049e+01 4.739526e+01 2.158227e+01 2.800800e+01 2.725617e-01 7.179390e-01 1.289010e+00 1.435417e+00 1.128808e+00 1.388786e+00 1.892133e+00 1.805206e+00 1.391864e+00 1.938778e+00 1.907017e+00 1.141746e+00 1.297777e+00 3.313150e-02 9.269028e-02 1.506805e-01 1.835905e-01 1.913828e-01 2.349090e-01 3.340793e-01 3.019103e-01 2.443692e-01 3.191004e-01 3.180173e-01 1.958018e-01 2.283183e-01
<GCONST> 9.825829e+01
<MIXTURE> 2 5.459404e-01
<MEAN> 39
 6.457673e+00 -8.744668e+00 -5.699762e+00 9.153001e-01 -8.867162e+00 -3.563472e+00 4.922131e+00 1.871403e+01 5.606118e-01 -6.258262e+00 6.066658e+00 3.088346e+00 2.349214e+00 7.703536e-01 3.167102e-01 1.792094e-01 5.393919e-01 4.796070e-01 -3.746502e-01 -5.638710e-01 -1.040504e-01 1.424015e-01 1.702233e-01 4.108520e-01 4.666245e-02 -2.656769e-01 2.366374e-02 4.386288e-03 -4.611456e-02 5.691078e-02 2.128500e-01 -1.183721e-03 -1.382247e-01 2.283543e-02 2.190986e-02 -5.013460e-02 1.489822e-02 -1.353865e-02 -7.322271e-02
<VARIANCE> 39
 1.247397e+02 1.446490e+02 1.551507e+02 1.556681e+02 1.533450e+02 1.096061e+02 1.236888e+02 1.744193e+02 6.590649e+01 1.078435e+02 9.604324e+01 2.781989e+01 2.740278e+01 2.048788e+00 2.667647e+00 3.654602e+00 2.647660e+00 3.387858e+00 3.362329e+00 3.132822e+00 2.391994e+00 2.291249e+00 2.572941e+00 2.180502e+00 1.440069e+00 1.542351e+00 1.070404e-01 2.624947e-01 4.203192e-01 3.408813e-01 3.832673e-01 4.707459e-01 4.250457e-01 3.936175e-01 3.594178e-01 4.060378e-01 2.860093e-01 2.492937e-01 2.332128e-01
<GCONST> 1.280788e+02
<TRANSP> 5
 0.000000e+00 1.000000e+00 0.000000e+00 0.000000e+00 0.000000e+00
 0.000000e+00 8.186041e-01 1.813959e-01 0.000000e+00 0.000000e+00
 0.000000e+00 0.000000e+00 8.541468e-01 1.458532e-01 0.000000e+00
 0.000000e+00 0.000000e+00 0.000000e+00 8.114389e-01 1.885611e-01
 0.000000e+00 0.000000e+00 0.000000e+00 0.000000e+00 0.000000e+00
<ENDHMM>
~h "i"
<BEGINHMM>
<NUMSTATES> 7
<STATE> 2
<NUMMIXES> 2
<MIXTURE> 1 8.923104e-01
<MEAN> 39
 5.199977e+00 -6.865272e+00 5.016379e+00 2.021948e+01 1.756946e+01 3.124838e+00 -1.353262e+01 5.458961e+00 -7.051788e+00 -1.314597e+01 7.253369e+00 -2.434802e+00 -7.869675e+00 1.539900e+00 -5.202016e-01 8.229684e-02 9.892454e-01 2.060474e+00 -4.928959e-01 -2.824836e+00 4.242999e-02 -6.235210e-01 -1.971980e+00 1.099181e+00 1.528769e-01 -1.841193e+00 -1.643392e-01 -8.317208e-02 -2.416464e-02 -1.006036e-01 3.522351e-02 -3.363290e-02 -1.413233e-01 1.283488e-01 8.896582e-02 -1.303206e-01 -6.836488e-02 1.062859e-02 -3.452274e-02
<VARIANCE> 39
 1.653980e+02 4.457594e+01 6.435151e+01 1.651489e+02 1.047828e+02 4.433280e+01 8.417317e+01 5.409861e+01 4.785182e+01 7.854971e+01 7.472710e+01 3.763340e+01 4.625419e+01 2.696879e+00 2.605105e+00 2.253414e+00 3.005774e+00 3.754849e+00 2.012567e+00 5.009311e+00 3.305083e+00 2.579755e+00 3.846096e+00 4.065637e+00 1.770833e+00 2.858469e+00 2.160542e-01 3.957871e-01 4.731504e-01 4.714983e-01 4.528119e-01 2.760842e-01 4.747572e-01 4.730227e-01 4.487668e-01 5.268857e-01 5.292311e-01 2.463167e-01 3.459033e-01
<GCONST> 1.286665e+02
<MIXTURE> 2 1.076879e-01
<MEAN> 39
 1.143692e+01 -1.581713e+01 1.402272e+01 2.765855e+01 1.914692e+01 9.202354e+00 -1.837242e+01 -1.107853e+00 -5.870445e+00 -1.373090e+01 5.739217e+00 -4.134559e+00 -9.495662e+00 2.044564e+00 1.092946e+00 -2.842335e+00 8.779516e-01 3.172120e+00 -2.858661e+00 -3.472034e+00 6.696166e-01 -3.516437e-01 -3.126470e+00 2.148330e-01 6.994473e-01 -2.252880e+00 -6.794870e-01 -5.303668e-01 -8.377956e-02 -5.878308e-01 -3.102375e-01 -9.209783e-02 2.192913e-01 7.787820e-01 6.999487e-02 3.121484e-02 4.790395e-01 1.872834e-01 5.930364e-02
<VARIANCE> 39
 1.391524e+01 1.595783e+01 4.352044e+01 1.045197e+02 2.974834e+01 4.843093e+01 3.238479e+01 3.192304e+01 3.871548e+01 3.341224e+01 3.433633e+01 1.911884e+01 2.378666e+01 1.669247e+00 1.679509e+00 3.476534e+00 2.093465e+00 1.587812e+00 2.386915e+00 2.834191e+00 3.241766e+00 1.967533e+00 2.658586e+00 3.340876e+00 1.261108e+00 1.361358e+00 1.665632e-01 1.915941e-01 5.889940e-01 1.782131e-01 2.371789e-01 3.430578e-01 3.276698e-01 3.505476e-01 1.948432e-01 3.602556e-01 2.478248e-01 1.763491e-01 1.798730e-01
<GCONST> 1.086311e+02
<STATE> 3
<NUMMIXES> 2
<MIXTURE> 1 6.590474e-01
<MEAN> 39
 1.543709e+01 -1.162550e+01 3.326926e+00 2.270352e+01 2.788039e+01 8.486478e-01 -2.750754e+01 8.545043e+00 -1.080082e+01 -2.439205e+01 1.551041e+01 -6.439954e-02 -1.556489e+01 2.090477e-01 -5.191775e-01 2.036751e-01 -1.189572e-01 9.868936e-01 -2.399839e-01 -1.852119e+00 5.662653e-01 -7.947873e-03 -1.092795e+00 8.246342e-01 -5.471557e-02 -1.240552e+00 -2.451369e-01 1.674858e-01 1.295469e-01 -1.257468e-01 -3.717327e-01 1.600194e-01 5.860970e-01 -1.072261e-01 1.856396e-01 4.610010e-01 -3.278294e-01 -9.233575e-02 3.115016e-01
<VARIANCE> 39
 1.742309e+01 1.802259e+01 5.397912e+01 1.002841e+02 3.272635e+01 2.145389e+01 5.528037e+01 4.560952e+01 4.252890e+01 4.280242e+01 7.548545e+01 2.155484e+01 2.941978e+01 6.063699e-01 7.698383e-01 1.256727e+00 1.315620e+00 1.160387e+00 1.185306e+00 2.313864e+00 2.125889e+00 1.157978e+00 1.927589e+00 1.878751e+00 9.838586e-01 1.113353e+00 1.113027e-01 1.241423e-01 1.732083e-01 2.017153e-01 2.250366e-01 1.450558e-01 3.817612e-01 4.126016e-01 1.818234e-01 3.611077e-01 3.187563e-01 1.503778e-01 2.006561e-01
<GCONST> 1.015966e+02
<MIXTURE> 2 3.409517e-01
<MEAN> 39
 1.709612e+01 -1.259136e+01 2.023434e+00 1.721222e+01 2.660366e+01 2.626657e+00 -3.015404e+01 8.905972e+00 -1.122593e+01 -2.853411e+01 1.982985e+01 1.511578e+00 -2.003417e+01 -2.534423e-01 -3.477391e-02 4.549696e-01 -4.255185e-02 3.502239e-02 9.944473e-02 -1.755431e-01 -2.247055e-01 -2.461141e-02 1.505120e-01 1.368241e-01 -2.561021e-01 -4.368513e-01 -3.732301e-02 1.241795e-01 -7.580167e-02 7.468737e-02 -5.739371e-02 3.257965e-02 3.724670e-01 -1.160909e-01 -1.204623e-01 2.419307e-01 -1.663298e-01 -4.350082e-02 2.484953e-01
<VARIANCE> 39
 4.635568e+00 1.004295e+01 1.718153e+01 2.597090e+01 1.448304e+01 1.400424e+01 2.583888e+01 3.205624e+01 2.106087e+01 1.808294e+01 3.723375e+01 9.467199e+00 1.781731e+01 3.434188e-01 3.931768e-01 5.901474e-01 8.208597e-01 4.210779e-01 6.409369e-01 1.150898e+00 1.056943e+00 5.305794e-01 9.814850e-01 1.027885e+00 4.538019e-01 7.022195e-01 4.437459e-02 5.505506e-02 7.328431e-02 6.621114e-02 5.666611e-02 7.948197e-02 1.583769e-01 1.471714e-01 6.776180e-02 1.374214e-01 1.331397e-01 6.453542e-02 8.631338e-02
<GCONST> 7.034076e+01
<STATE> 4
<NUMMIXES> 2
<MIXTURE> 1 9.014317e-01
<MEAN> 39
 1.315793e+01 -1.333581e+01 5.642060e+00 2.804399e+01 3.270121e+01 7.614303e-02 -3.095836e+01 7.613222e+00 -6.751297e+00 -2.268639e+01 1.079084e+01 -2.447421e+00 -1.662604e+01 5.333249e-02 2.883094e-02 -1.338901e-01 -1.885063e-01 5.758099e-02 7.671794e-02 -8.670039e-02 4.945215e-03 -1.152343e-01 -1.403199e-01 1.458251e-01 5.485449e-02 -6.869137e-02 1.017435e-02 3.780179e-02 -1.450143e-02 2.473771e-02 -7.385199e-02 7.026798e-02 1.335327e-01 -4.960281e-02 -1.533809e-02 3.734617e-02 -1.010011e-02 2.249615e-02 5.071886e-02
<VARIANCE> 39
 1.285479e+01 1.184428e+01 3.855543e+01 7.857578e+01 2.739116e+01 1.693694e+01 4.698587e+01 2.955559e+01 4.095094e+01 3.214630e+01 5.018447e+01 1.463053e+01 2.046658e+01 4.268066e-01 4.016306e-01 6.067942e-01 9.362554e-01 8.294656e-01 7.397689e-01 1.758803e+00 1.589163e+00 9.040595e-01 1.359806e+00 1.257201e+00 6.002941e-01 7.696925e-01 6.440709e-02 6.888624e-02 8.603712e-02 1.147419e-01 1.304359e-01 1.083577e-01 2.731048e-01 2.400001e-01 1.232292e-01 2.177223e-01 1.980656e-01 8.842920e-02 1.187852e-01
<GCONST> 8.595522e+01
<MIXTURE> 2 9.856766e-02
<MEAN> 39
 1.073495e+01 -1.350639e+01 1.446325e+01 3.422023e+01 2.635553e+01 4.641350e-01 -2.877016e+01 4.517937e+00 4.077405e+00 -1.968201e+01 -2.570499e-01 -2.674071e+00 -1.529295e+01 -1.438858e-02 -5.931813e-02 -7.591031e-02 -2.807716e-01 -9.264585e-03 -8.098117e-02 -1.555693e-01 -1.736507e-04 -5.056363e-02 -4.855828e-02 -2.851985e-02 8.522527e-02 8.759747e-02 -1.539769e-02 4.985086e-02 -7.497498e-02 2.421360e-02 1.227332e-01 -3.590543e-02 3.237582e-02 8.087033e-02 -2.179564e-01 -5.520890e-02 1.466919e-01 -2.428370e-02 5.996151e-03
<VARIANCE> 39
 4.414987e+00 1.006246e+01 1.097213e+01 2.115219e+01 1.504860e+01 1.864074e+01 2.271701e+01 1.868806e+01 1.626653e+01 1.731620e+01 2.626135e+01 1.182954e+01 2.514770e+01 2.568295e-01 4.062663e-01 4.669535e-01 8.780960e-01 6.393398e-01 6.867277e-01 1.067010e+00 7.340419e-01 9.032556e-01 7.961284e-01 7.353142e-01 6.190969e-01 6.876377e-01 3.569119e-02 5.685760e-02 6.367829e-02 9.474277e-02 8.707058e-02 9.576353e-02 1.557122e-01 1.016483e-01 1.197585e-01 1.403589e-01 9.593614e-02 9.390687e-02 1.105423e-01
<GCONST> 7.025854e+01
<STATE> 5
<NUMMIXES> 2
<MIXTURE> 1 8.954312e-01
<MEAN> 39
 1.509835e+01 -1.039676e+01 2.720815e+00 2.205121e+01 2.930514e+01 2.759994e+00 -2.740286e+01 6.593236e+00 -1.293841e+01 -2.406829e+01 1.765590e+01 -3.573320e-01 -1.737842e+01 -4.633406e-01 1.195341e+00 2.564030e-01 1.936291e-01 -8.369304e-01 8.732578e-01 2.154222e+00 -1.102770e+00 3.296818e-01 1.495748e+00 -1.316844e+00 -4.890374e-02 1.039879e+00 -2.142597e-01 3.349886e-01 2.304648e-01 -1.249745e-01 -3.523635e-01 1.600317e-01 4.640251e-01 -2.077006e-01 3.035551e-01 4.983309e-01 -5.478728e-01 -5.233905e-02 4.561862e-01
<VARIANCE> 39
 1.251382e+01 1.970004e+01 3.563243e+01 5.599620e+01 3.911110e+01 3.009208e+01 6.174243e+01 4.350199e+01 3.520401e+01 3.889090e+01 5.293541e+01 1.855112e+01 3.318672e+01 7.040582e-01 1.831447e+00 1.269944e+00 1.280671e+00 1.658967e+00 1.472512e+00 3.042945e+00 2.740724e+00 1.560138e+00 3.399705e+00 3.028131e+00 9.060960e-01 1.854849e+00 8.999759e-02 1.817517e-01 1.987179e-01 1.880565e-01 2.161835e-01 1.926698e-01 4.005949e-01 4.224907e-01 2.371057e-01 3.808983e-01 3.356067e-01 1.513126e-01 2.288188e-01
<GCONST> 1.051994e+02
<MIXTURE> 2 1.045674e-01
<MEAN> 39
 1.125437e+01 -1.085036e+01 1.165781e+01 2.902528e+01 2.537678e+01 2.806287e+00 -2.714240e+01 1.911270e+00 -1.343110e+00 -1.843855e+01 5.387084e+00 -1.987260e+00 -1.600334e+01 3.189515e-03 4.376070e-01 -1.142177e-01 -3.220358e-01 -3.256618e-01 4.012692e-01 6.093592e-01 -3.111602e-01 -3.275963e-01 5.403202e-01 3.689229e-01 5.665283e-02 4.267595e-01 1.390857e-02 -8.092165e-03 -5.185835e-03 -2.700527e-02 4.609425e-02 2.935603e-02 4.031133e-02 1.511449e-01 -1.144680e-01 -5.131897e-02 4.434368e-02 -2.733738e-02 1.006034e-01
<VARIANCE> 39
 8.662187e+00 2.623677e+01 3.552408e+01 4.357219e+01 3.271607e+01 4.111787e+01 4.841632e+01 3.637607e+01 3.248877e+01 2.781617e+01 3.588103e+01 1.852365e+01 2.862928e+01 4.021493e-01 1.064704e+00 1.264431e+00 1.389662e+00 1.398852e+00 1.723013e+00 2.795916e+00 1.746977e+00 1.253597e+00 1.826052e+00 1.179556e+00 9.511197e-01 1.323252e+00 7.301900e-02 1.573697e-01 1.748435e-01 1.825684e-01 2.120213e-01 2.188786e-01 3.367374e-01 2.755384e-01 2.099624e-01 2.509648e-01 1.672398e-01 1.308072e-01 1.745506e-01
<GCONST> 9.732106e+01
<STATE> 6
<NUMMIXES> 2
<MIXTURE> 1 7.025331e-01
<MEAN> 39
 5.981965e+00 6.222535e-01 9.675604e+00 1.921105e+01 1.976896e+01 1.102714e+01 -9.685749e+00 1.953815e+00 -5.732120e+00 -8.650883e+00 5.891461e+00 -2.149618e+00 -6.649115e+00 -1.665812e+00 1.461690e+00 1.503976e+00 -9.368785e-01 -1.712532e+00 1.333590e+00 2.326407e+00 -5.870600e-01 9.893022e-01 2.166789e+00 -1.820252e+00 -1.903656e-01 1.930314e+00 -7.189075e-02 -3.705797e-01 5.505557e-02 -1.412255e-01 6.371783e-02 -1.144413e-01 -3.446737e-01 2.404961e-01 -2.016612e-01 -3.172950e-01 3.506773e-01 5.275882e-02 -1.894999e-01
<VARIANCE> 39
 7.005036e+01 1.120492e+02 6.530092e+01 6.324762e+01 5.369714e+01 7.284956e+01 7.195825e+01 5.599503e+01 5.103001e+01 5.587826e+01 5.011603e+01 1.864699e+01 3.243562e+01 1.203488e+00 4.442393e+00 3.442558e+00 2.051240e+00 1.863408e+00 3.177616e+00 3.042552e+00 3.850284e+00 2.720937e+00 2.898038e+00 3.549202e+00 1.293445e+00 2.326966e+00 1.336358e-01 2.691621e-01 3.160954e-01 2.321184e-01 2.632211e-01 2.148459e-01 3.130878e-01 4.273622e-01 2.891767e-01 2.980779e-01 3.046232e-01 1.998636e-01 2.265916e-01
<GCONST> 1.185677e+02
<MIXTURE> 2 2.974654e-01
<MEAN> 39
 4.492958e+00 -7.761137e+00 4.213460e+00 1.906504e+01 2.007528e+01 2.549546e+00 -1.724283e+01 5.108708e+00 -6.653554e+00 -1.645306e+01 5.666032e+00 -7.588680e-01 -9.580009e+00 -6.685352e-02 2.535400e-01 -6.730819e-02 -1.877906e-01 -3.074387e-01 8.812857e-02 3.825645e-01 7.477040e-02 4.521279e-02 5.695429e-02 -2.148525e-01 2.196926e-02 2.219554e-01 2.024847e-02 -2.656935e-02 1.706828e-02 2.831617e-02 3.576677e-02 6.705221e-03 -7.555265e-02 3.843790e-02 1.472404e-02 -2.637464e-02 5.243186e-02 -7.639146e-03 -3.758229e-02
<VARIANCE> 39
 2.777509e+02 5.620271e+01 1.079299e+02 2.555869e+02 1.810794e+02 4.721033e+01 1.474522e+02 5.078950e+01 5.742882e+01 1.320652e+02 8.815722e+01 3.309816e+01 7.165916e+01 4.060875e-01 6.415927e-01 5.011829e-01 8.681733e-01 8.883094e-01 6.902388e-01 1.445923e+00 1.583935e+00 6.628225e-01 1.286999e+00 1.346540e+00 7.231746e-01 7.340914e-01 4.422677e-02 4.706601e-02 5.775323e-02 8.220504e-02 9.595069e-02 8.591179e-02 1.333753e-01 1.519652e-01 8.036193e-02 1.426212e-01 1.453554e-01 9.919654e-02 9.578303e-02
<GCONST> 9.710933e+01
<TRANSP> 7
 0.000000e+00 1.000000e+00 0.000000e+00 0.000000e+00 0.000000e+00 0.000000e+00 0.000000e+00
 0.000000e+00 6.735241e-01 3.264758e-01 0.000000e+00 0.000000e+00 0.000000e+00 0.000000e+00
 0.000000e+00 0.000000e+00 7.975864e-01 2.024136e-01 0.000000e+00 0.000000e+00 0.000000e+00
 0.000000e+00 0.000000e+00 0.000000e+00 8.692873e-01 1.307127e-01 0.000000e+00 0.000000e+00
 0.000000e+00 0.000000e+00 0.000000e+00 0.000000e+00 7.217674e-01 2.782326e-01 0.000000e+00
 0.000000e+00 0.000000e+00 0.000000e+00 0.000000e+00 0.000000e+00 7.026517e-01 2.973483e-01
 0.000000e+00 0.000000e+00 0.000000e+00 0.000000e+00 0.000000e+00 0.000000e+00 0.000000e+00
<ENDHMM>
~h "j"
<BEGINHMM>
<NUMSTATES> 5
<STATE> 2
<NUMMIXES> 2
<MIXTURE> 1 6.145458e-01
<MEAN> 39
 2.815259e+00 1.938818e+01 1.762802e+01 1.799596e+01 1.462129e+01 1.329383e+01 4.329891e+00 7.405458e+00 -6.392050e-01 -4.747806e+00 -4.739480e+00 -5.812345e+00 -3.765189e+00 -1.622649e-01 -1.730056e-01 5.386094e-02 1.722411e-01 2.116138e-02 1.380374e-01 2.345172e-01 2.240090e-01 2.873358e-01 2.020482e-01 -4.738851e-02 6.373339e-02 1.898168e-01 -1.386020e-01 -3.162615e-01 -3.889626e-02 9.442970e-02 -6.461189e-02 -4.605881e-02 -3.549323e-02 2.912306e-02 1.442559e-01 8.784965e-02 2.471394e-02 9.706920e-02 1.744600e-01
<VARIANCE> 39
 1.038233e+01 5.602334e+00 1.031526e+01 7.844817e+00 4.091331e+00 7.436736e+00 8.298028e+00 1.314345e+01 1.351046e+01 1.227321e+01 8.877383e+00 7.366076e+00 5.149827e+00 7.361205e-01 9.373930e-01 1.160389e+00 1.028666e+00 5.190831e-01 5.126985e-01 5.687918e-01 5.463971e-01 7.690719e-01 9.603509e-01 8.006516e-01 6.790243e-01 6.906981e-01 5.601630e-02 1.886635e-01 2.132670e-01 1.867788e-01 8.228113e-02 7.767587e-02 8.476368e-02 8.172877e-02 1.187048e-01 1.193373e-01 1.232331e-01 1.014199e-01 1.230336e-01
<GCONST> 6.667015e+01
<MIXTURE> 2 3.854543e-01
<MEAN> 39
 -2.688223e+00 4.190753e+00 9.290492e+00 1.470505e+01 1.228117e+01 8.572352e+00 -1.558374e+00 8.422772e+00 -1.093653e+00 -5.780666e+00 2.065273e+00 -9.893277e-01 -9.132453e-01 8.045706e-01 1.694373e+00 1.421809e+00 7.421646e-01 3.453032e-01 7.959160e-01 7.070608e-01 -8.179500e-02 4.679769e-02 8.351603e-02 -6.376872e-01 -4.034263e-01 -1.357869e-01 -1.245278e-02 -1.153516e-01 6.999002e-02 -1.591336e-02 -9.039895e-02 2.604509e-02 1.443851e-02 -4.733687e-02 -4.214235e-02 -4.026081e-02 -2.800306e-02 -4.459954e-02 -4.856149e-02
<VARIANCE> 39
 1.688314e+02 1.534198e+02 9.801782e+01 7.128014e+01 7.957676e+01 6.078325e+01 1.099944e+02 4.579476e+01 5.378676e+01 9.876131e+01 4.981739e+01 1.815409e+01 3.242726e+01 4.298185e+00 3.168100e+00 2.885832e+00 2.360619e+00 2.781119e+00 2.090929e+00 2.958965e+00 1.805193e+00 2.043535e+00 3.180861e+00 2.053700e+00 1.108504e+00 1.345804e+00 2.135748e-01 3.748647e-01 3.259786e-01 2.935738e-01 3.052074e-01 2.286690e-01 2.756337e-01 2.507332e-01 2.384058e-01 2.916355e-01 2.683547e-01 1.475552e-01 1.558699e-01
<GCONST> 1.195616e+02
<STATE> 3
<NUMMIXES> 2
<MIXTURE> 1 4.048683e-01
<MEAN> 39
 -1.934278e+00 5.098943e+00 1.919942e+01 2.424834e+01 1.206302e+01 1.457289e+01 4.842052e+00 8.984376e+00 6.090518e+00 -1.801172e+00 -4.955519e+00 -2.211435e+00 3.206526e+00 -1.471504e+00 -5.136418e+00 1.077730e+00 1.060935e+00 -1.348649e+00 1.097488e+00 -3.088477e-01 1.392449e-01 1.631428e+00 6.259844e-03 6.343117e-01 1.093693e+00 9.154459e-01 -1.127490e-01 -9.741572e-01 1.489874e-01 -3.322345e-01 -3.496508e-01 1.043170e-01 -2.723627e-01 1.399151e-01 -3.911519e-02 -4.696078e-01 5.120887e-01 3.544778e-01 -3.458384e-01
<VARIANCE> 39
 1.696630e+01 7.261681e+01 2.311187e+01 2.205605e+01 2.645943e+01 2.014316e+01 1.915675e+01 1.820610e+01 4.171056e+01 2.705032e+01 2.439956e+01 1.776986e+01 1.811493e+01 5.901185e-01 4.262896e+00 2.526561e+00 1.959172e+00 1.914447e+00 1.959656e+00 1.994427e+00 1.478248e+00 1.663847e+00 2.429722e+00 2.779778e+00 1.814069e+00 2.150235e+00 6.156913e-02 3.846332e-01 2.146529e-01 4.169084e-01 2.374045e-01 3.474130e-01 2.336136e-01 2.291990e-01 2.769918e-01 3.053960e-01 3.083257e-01 2.472675e-01 2.895170e-01
<GCONST> 1.040009e+02
<MIXTURE> 2 5.951312e-01
<MEAN> 39
 -1.008150e+01 -2.878726e+01 2.656208e+01 2.053658e+01 -1.699318e-01 1.907999e+01 -1.457101e+00 9.520356e+00 9.536795e+00 -6.935966e+00 4.379543e+00 5.937775e+00 2.761158e+00 -4.139524e-01 -3.535501e+00 1.877415e+00 -3.986447e-01 -1.239078e+00 6.626177e-01 -1.582937e+00 -2.999136e-01 -1.527305e-02 -7.889636e-01 1.153938e+00 3.182417e-01 -5.467529e-01 4.879152e-01 9.827275e-01 -1.890916e-01 1.704309e-01 6.150560e-01 -9.130783e-03 -1.549032e-01 -3.656397e-01 -3.407314e-01 1.064879e-01 -3.674152e-01 -4.536276e-01 -3.850442e-02
<VARIANCE> 39
 2.422412e+01 1.219295e+02 9.288210e+01 6.046469e+01 6.082806e+01 5.028859e+01 7.008113e+01 3.720757e+01 8.309492e+01 3.405600e+01 3.903292e+01 2.785420e+01 2.325117e+01 2.201836e+00 9.947983e+00 5.136841e+00 3.792961e+00 6.358941e+00 4.463402e+00 4.370444e+00 2.513167e+00 2.672842e+00 2.844394e+00 2.195831e+00 3.276844e+00 1.371833e+00 2.625590e-01 6.008170e-01 1.029477e+00 6.516945e-01 8.768969e-01 7.814459e-01 6.595622e-01 4.030287e-01 4.169501e-01 4.138375e-01 3.461913e-01 4.321805e-01 2.288690e-01
<GCONST> 1.293155e+02
<STATE> 4
<NUMMIXES> 2
<MIXTURE> 1 3.149903e-01
<MEAN> 39
 -6.533944e+00 -3.422896e+01 3.637474e+01 2.431893e+01 1.347233e+00 2.267019e+01 -9.196087e+00 5.575600e+00 7.606007e+00 -1.000886e+01 5.507473e+00 1.997984e+00 -1.923023e+00 2.589343e+00 1.835021e+00 -1.338107e+00 3.148161e-01 2.093123e+00 1.752350e-01 -1.250973e+00 -2.927061e+00 -1.848252e+00 -6.211461e-01 -1.358552e+00 -1.073257e+00 -8.106081e-01 5.976227e-01 9.642634e-01 -1.345146e+00 -2.952172e-01 2.434729e-01 -5.961547e-01 1.425404e-01 -3.844706e-01 -1.609466e-01 -1.253203e-02 -4.471781e-01 1.380304e-01 6.308860e-02
<VARIANCE> 39
 1.682203e+01 2.153519e+01 2.542091e+01 3.257744e+01 3.607484e+01 2.135500e+01 3.005853e+01 3.854350e+01 5.902186e+01 2.522956e+01 3.080986e+01 1.949080e+01 1.620011e+01 1.313006e+00 2.507604e+00 3.161171e+00 1.590050e+00 1.242867e+00 2.375804e+00 1.754924e+00 1.648060e+00 1.438204e+00 1.001282e+00 1.156534e+00 9.326305e-01 7.799553e-01 1.535825e-01 5.467480e-01 5.673733e-01 2.440582e-01 4.074039e-01 2.939421e-01 3.601964e-01 3.538964e-01 2.872443e-01 2.873620e-01 2.845295e-01 2.264029e-01 1.565355e-01
<GCONST> 1.038945e+02
<MIXTURE> 2 6.850104e-01
<MEAN> 39
 9.033872e+00 -2.192242e+01 1.784815e+01 2.310714e+01 1.172473e+01 1.700086e+01 -1.557184e+01 -3.815967e+00 7.419157e-01 -1.482124e+01 -1.067075e+00 1.823605e-01 -3.670449e+00 2.677660e+00 2.060431e+00 -4.375778e+00 -5.264968e-01 2.068397e+00 -2.662129e+00 -1.495288e+00 5.832167e-01 -8.315520e-01 -1.401084e+00 -3.827661e-01 -2.084670e-02 -3.179089e-01 -3.003847e-01 -1.020222e-01 -2.632031e-02 -1.105937e-01 -8.136836e-02 -4.306323e-01 2.644755e-02 9.143587e-01 2.112952e-01 -1.407041e-01 3.779450e-01 1.038857e-01 1.001332e-02
<VARIANCE> 39
 4.509213e+01 3.564489e+01 1.110098e+02 3.682701e+01 3.715929e+01 6.435126e+01 4.066626e+01 3.137507e+01 3.741661e+01 2.602659e+01 3.302236e+01 1.415503e+01 1.759970e+01 1.705608e+00 1.058602e+00 2.967031e+00 9.397646e-01 1.655212e+00 3.292113e+00 2.007332e+00 7.078407e+00 1.420480e+00 1.499077e+00 1.873956e+00 1.405038e+00 7.264249e-01 1.577780e-01 1.484273e-01 5.059466e-01 1.184558e-01 1.993433e-01 3.531862e-01 2.251275e-01 4.562416e-01 2.025899e-01 2.162596e-01 1.994271e-01 1.743344e-01 1.016596e-01
<GCONST> 1.053016e+02
<TRANSP> 5
 0.000000e+00 1.000000e+00 0.000000e+00 0.000000e+00 0.000000e+00
 0.000000e+00 9.060355e-01 9.396446e-02 0.000000e+00 0.000000e+00
 0.000000e+00 0.000000e+00 8.978302e-01 1.021698e-01 0.000000e+00
 0.000000e+00 0.000000e+00 0.000000e+00 8.782942e-01 1.217058e-01
 0.000000e+00 0.000000e+00 0.000000e+00 0.000000e+00 0.000000e+00
<ENDHMM>
~h "k"
<BEGINHMM>
<NUMSTATES> 5
<STATE> 2
<NUMMIXES> 2
<MIXTURE> 1 5.423606e-01
<MEAN> 39
 -2.653799e+01 -6.442927e+00 -5.139875e+00 -2.889823e+00 -3.536649e+00 9.437753e-01 -3.407536e+00 1.211869e+00 -1.923317e+00 -9.483869e-01 7.221209e-01 -5.486501e-01 6.335244e-01 2.643811e-02 -8.143035e-02 -8.582331e-02 6.486712e-03 4.956746e-02 -3.114339e-03 -2.702016e-02 1.417409e-02 5.223910e-03 -5.023519e-02 -4.678783e-02 1.084913e-02 5.181608e-02 8.728062e-02 -2.753560e-02 -1.500653e-02 5.648524e-02 7.868987e-02 3.916353e-02 2.036900e-02 6.336321e-02 2.109368e-02 -2.783651e-02 -1.041714e-02 3.300184e-02 6.673257e-02
<VARIANCE> 39
 6.289626e-01 1.840788e+00 2.297110e+00 3.013144e+00 4.091986e+00 5.858591e+00 6.495607e+00 6.885277e+00 9.888418e+00 8.787389e+00 6.828900e+00 8.057251e+00 6.055899e+00 1.022996e-01 2.378516e-01 3.332920e-01 4.511828e-01 6.485865e-01 7.731442e-01 9.562171e-01 9.747419e-01 1.201214e+00 1.134552e+00 9.550744e-01 9.556182e-01 8.824843e-01 5.279220e-02 5.956770e-02 7.502928e-02 1.109943e-01 1.570216e-01 1.803299e-01 2.141410e-01 2.252899e-01 2.445357e-01 2.330803e-01 2.081932e-01 1.924024e-01 1.884956e-01
<GCONST> 5.983434e+01
<MIXTURE> 2 4.576400e-01
<MEAN> 39
 -9.515529e+00 1.707969e+00 3.579849e+00 1.084403e+01 1.206386e+01 9.539646e+00 -2.026802e+00 3.718161e+00 -3.689477e+00 -4.481071e+00 2.677345e+00 1.313460e+00 1.312091e+00 -1.690436e+00 -1.108062e+00 -8.451436e-01 -1.174886e+00 -1.133558e+00 -2.659806e-01 3.524287e-01 1.394666e-01 3.167768e-02 1.958072e-02 -2.316226e-01 -1.873203e-02 3.152392e-01 1.153086e-01 -3.489032e-01 -3.571237e-01 -1.642360e-01 -1.357566e-01 -2.483045e-01 -1.986242e-01 8.225979e-02 5.846274e-02 -3.899172e-02 5.547716e-02 -6.826350e-02 -8.669170e-02
<VARIANCE> 39
 1.177535e+02 1.004903e+02 7.780087e+01 9.162914e+01 8.134921e+01 4.907587e+01 9.232118e+01 5.087806e+01 7.665784e+01 6.891596e+01 4.705386e+01 4.968766e+01 4.435994e+01 2.496837e+00 2.941702e+00 3.119729e+00 2.463026e+00 2.728822e+00 2.678542e+00 3.097122e+00 2.651137e+00 2.804728e+00 2.482533e+00 1.903559e+00 1.531782e+00 1.694848e+00 1.356152e-01 2.670036e-01 3.445765e-01 2.678395e-01 3.073082e-01 3.283347e-01 3.275273e-01 3.621474e-01 3.937171e-01 3.484173e-01 3.010623e-01 2.419280e-01 2.575969e-01
<GCONST> 1.223732e+02
<STATE> 3
<NUMMIXES> 2
<MIXTURE> 1 6.636197e-01
<MEAN> 39
 -1.681327e+01 -8.373755e+00 -6.357094e+00 1.796665e+00 2.914588e+00 4.145139e+00 -2.349236e+00 6.085289e+00 -4.304308e-01 -3.527222e+00 -5.522840e-01 -5.790553e-01 4.193907e+00 2.021947e+00 -1.823259e+00 -1.589427e+00 -8.387627e-01 -7.575430e-01 -8.456084e-01 -7.683783e-01 7.406013e-01 -2.636620e-01 -5.707127e-01 6.979675e-01 -6.595386e-01 -2.850553e-01 6.870577e-01 7.233354e-02 2.831310e-01 1.460401e-02 -3.898961e-02 1.163403e-01 -8.509571e-02 6.379277e-02 -4.588023e-01 -2.829453e-01 5.337675e-01 -2.197772e-01 -4.526320e-01
<VARIANCE> 39
 5.488146e+01 4.251979e+01 3.382823e+01 4.567617e+01 4.525524e+01 3.529999e+01 3.849048e+01 2.831921e+01 2.547699e+01 2.403305e+01 2.395525e+01 2.458768e+01 2.026103e+01 5.349220e+00 3.754497e+00 3.760305e+00 5.073193e+00 5.178595e+00 4.257402e+00 3.592752e+00 3.282963e+00 3.887865e+00 3.446821e+00 4.534466e+00 2.910625e+00 3.834917e+00 2.917464e-01 2.717801e-01 3.143105e-01 4.297087e-01 4.644262e-01 4.972177e-01 4.627523e-01 4.787195e-01 7.106227e-01 5.911372e-01 4.998072e-01 3.739145e-01 4.811442e-01
<GCONST> 1.241928e+02
<MIXTURE> 2 3.363771e-01
<MEAN> 39
 -2.800096e+00 -1.836311e+01 -1.248706e+01 -1.865622e+00 4.289073e-01 2.041610e+00 -7.065344e+00 9.869279e+00 -8.459116e+00 -1.193169e+01 7.525919e+00 -5.893792e+00 -1.997622e+00 2.962469e+00 -1.509700e+00 1.273911e-01 -3.234958e-01 -2.117723e-01 5.861444e-01 -4.948722e-01 7.526340e-01 -2.987616e+00 -2.624103e+00 2.625822e+00 -6.708065e-01 -1.326663e+00 -4.749002e-01 7.684691e-01 1.000830e+00 9.826970e-01 5.808210e-01 2.519828e-01 3.064125e-01 -8.254274e-02 5.120410e-01 3.635055e-01 -5.162487e-01 3.910630e-01 5.122531e-01
<VARIANCE> 39
 5.899225e+01 6.595477e+01 3.442421e+01 1.093031e+02 7.811999e+01 8.872889e+01 9.488023e+01 8.320970e+01 7.592310e+01 8.298519e+01 7.190350e+01 4.861305e+01 3.362258e+01 2.029244e+00 2.338821e+00 3.071728e+00 4.901627e+00 2.968874e+00 3.277377e+00 3.375242e+00 3.627973e+00 5.043367e+00 4.227152e+00 4.064493e+00 1.944800e+00 2.497393e+00 3.070773e-01 3.565218e-01 3.444735e-01 6.319360e-01 5.156054e-01 7.626892e-01 7.036933e-01 7.297589e-01 1.254953e+00 1.151721e+00 9.375184e-01 3.383080e-01 4.031456e-01
<GCONST> 1.344839e+02
<STATE> 4
<NUMMIXES> 2
<MIXTURE> 1 7.536578e-01
<MEAN> 39
 -1.842231e+00 -1.413060e+01 1.402874e+00 1.217440e+01 5.073504e+00 3.089454e+00 -6.107481e+00 9.804625e+00 -5.558341e+00 -9.477212e+00 7.541774e+00 -4.343187e+00 -7.108714e-01 1.057664e+00 1.407795e+00 2.430227e+00 2.863085e+00 1.675667e+00 -9.131429e-02 -3.633653e-01 3.217489e-03 1.194295e+00 5.772339e-01 1.994401e-03 6.363823e-01 -2.840817e-01 2.828719e-01 -2.249441e-02 -4.365645e-01 -1.318685e-01 3.795007e-01 -2.038294e-01 -5.705298e-01 -1.285639e-01 -1.734124e-01 -4.084781e-01 6.076683e-02 5.693400e-02 -4.002108e-01
<VARIANCE> 39
 1.057107e+02 1.302173e+02 7.698077e+01 1.799904e+02 8.915450e+01 6.655416e+01 5.862063e+01 6.389990e+01 5.310606e+01 5.059313e+01 4.291603e+01 4.159911e+01 2.678839e+01 3.387985e+00 2.965297e+00 4.895054e+00 6.710403e+00 5.982635e+00 5.605972e+00 5.315270e+00 4.467278e+00 4.228492e+00 4.141882e+00 3.102527e+00 2.337321e+00 2.610892e+00 2.389665e-01 4.267567e-01 5.830456e-01 6.078159e-01 5.154908e-01 5.229790e-01 6.826152e-01 5.344498e-01 6.891429e-01 8.007780e-01 4.113265e-01 2.908974e-01 3.598123e-01
<GCONST> 1.352355e+02
<MIXTURE> 2 2.463444e-01
<MEAN> 39
 3.935290e+00 -1.993460e+01 -9.441557e+00 7.190602e-01 4.807356e+00 7.822708e+00 -8.087255e+00 9.079879e+00 -1.556546e+01 -1.667883e+01 1.318750e+01 -7.199746e+00 -3.996759e+00 1.353149e+00 1.269917e+00 2.690032e+00 2.544921e+00 8.861183e-01 -1.197806e-01 -1.938193e-01 -7.147837e-02 2.399508e-01 1.330822e-01 3.568092e-02 2.851996e-01 3.422242e-01 -5.796768e-01 9.648672e-01 7.975645e-01 1.197399e+00 4.289698e-01 -6.359071e-01 4.678799e-02 -9.745933e-02 1.620012e+00 1.216151e+00 -9.101593e-01 4.899288e-01 4.103312e-01
<VARIANCE> 39
 4.651823e+01 6.323282e+01 6.002709e+01 1.680202e+02 1.092460e+02 8.070752e+01 9.806960e+01 8.692390e+01 6.140807e+01 6.537878e+01 5.587389e+01 5.859607e+01 4.261628e+01 1.204722e+00 2.378222e+00 2.766289e+00 2.907722e+00 2.599814e+00 2.931523e+00 2.984398e+00 2.100997e+00 4.488894e+00 4.196962e+00 2.736610e+00 1.614974e+00 1.758542e+00 1.525397e-01 3.884970e-01 6.155713e-01 1.005399e+00 8.575433e-01 1.002902e+00 9.459226e-01 7.728159e-01 7.137746e-01 7.130131e-01 6.660488e-01 4.333872e-01 5.003591e-01
<GCONST> 1.327723e+02
<TRANSP> 5
 0.000000e+00 1.000000e+00 0.000000e+00 0.000000e+00 0.000000e+00
 0.000000e+00 8.440685e-01 1.559315e-01 0.000000e+00 0.000000e+00
 0.000000e+00 0.000000e+00 8.267285e-01 1.732715e-01 0.000000e+00
 0.000000e+00 0.000000e+00 0.000000e+00 7.213784e-01 2.786216e-01
 0.000000e+00 0.000000e+00 0.000000e+00 0.000000e+00 0.000000e+00
<ENDHMM>
~h "l"
<BEGINHMM>
<NUMSTATES> 5
<STATE> 2
<NUMMIXES> 2
<MIXTURE> 1 7.748642e-01
<MEAN> 39
 1.235140e+01 -6.263546e+00 6.175130e+00 3.427343e+01 2.143990e+01 -5.251135e+00 -5.910586e+00 1.849246e+01 -8.592565e+00 -2.794293e+01 -4.116338e+00 -3.905277e-01 -4.584435e+00 -2.290842e-01 6.658868e-02 4.869329e-01 7.625080e-01 -1.315226e-02 -3.164020e-01 3.941456e-01 4.780546e-01 8.978269e-02 -3.300980e-01 -4.752818e-01 -4.678083e-02 -4.824632e-02 3.022613e-02 -4.503702e-03 -9.367124e-02 -2.207313e-01 -9.072056e-03 1.198627e-01 -1.305417e-01 -2.139993e-01 2.148807e-02 2.305254e-01 1.577828e-01 -2.344169e-02 -1.226011e-02
<VARIANCE> 39
 1.685392e+01 2.060171e+01 3.967834e+01 8.574052e+01 4.736726e+01 4.223800e+01 4.364743e+01 6.448637e+01 3.853065e+01 9.253243e+01 5.959762e+01 2.906504e+01 2.807170e+01 3.901895e-01 5.807559e-01 9.614758e-01 2.161293e+00 1.200561e+00 1.608739e+00 1.733807e+00 2.747273e+00 1.414754e+00 3.459746e+00 2.267400e+00 1.004215e+00 8.978255e-01 4.743114e-02 7.195212e-02 1.169579e-01 2.505980e-01 1.729387e-01 2.124165e-01 2.416972e-01 3.603859e-01 2.075315e-01 4.121252e-01 2.506733e-01 1.509525e-01 1.316892e-01
<GCONST> 1.012280e+02
<MIXTURE> 2 2.251346e-01
<MEAN> 39
 1.059618e+01 -7.084153e+00 9.139176e+00 4.070596e+01 2.413197e+01 -5.556095e+00 -6.613330e+00 1.609697e+01 -6.123295e+00 -2.308388e+01 -4.295465e+00 -1.054027e+00 -5.901195e+00 -1.105739e-01 1.445288e-01 1.996783e-01 3.405676e-02 -2.087514e-01 -1.151536e-03 1.608006e-01 4.543487e-03 1.157131e-01 3.282983e-01 1.273817e-01 1.045370e-01 5.162951e-02 1.336966e-02 5.237844e-03 -4.672658e-02 -9.793185e-02 1.666286e-02 1.134405e-01 -1.655575e-02 -9.062203e-02 -1.081386e-01 3.546131e-03 1.037779e-01 1.210824e-02 2.083336e-03
<VARIANCE> 39
 5.622977e+00 1.210627e+01 1.976832e+01 1.915694e+01 2.214527e+01 1.689566e+01 3.828385e+01 5.021526e+01 2.834484e+01 8.213822e+01 2.643191e+01 2.685846e+01 2.230359e+01 1.392902e-01 2.805186e-01 3.566923e-01 8.564197e-01 6.533697e-01 6.967325e-01 7.914857e-01 9.815385e-01 7.275696e-01 1.122007e+00 8.062497e-01 6.885762e-01 6.093378e-01 2.013853e-02 3.626283e-02 5.502744e-02 1.180969e-01 8.578811e-02 1.000473e-01 1.089049e-01 1.419890e-01 1.136993e-01 1.539229e-01 1.295515e-01 9.607448e-02 8.788674e-02
<GCONST> 7.393985e+01
<STATE> 3
<NUMMIXES> 2
<MIXTURE> 1 9.200103e-01
<MEAN> 39
 1.106591e+01 -3.052128e+00 6.269526e+00 2.936752e+01 1.849939e+01 -1.895069e+00 -3.493543e+00 1.684806e+01 -5.973889e+00 -2.325212e+01 -5.730134e+00 -2.098327e+00 -3.805217e+00 2.774925e-01 -6.257190e-02 -7.380887e-01 -1.291694e+00 1.189151e-01 9.565225e-01 -6.740769e-01 -1.399533e+00 -5.239983e-02 1.271443e+00 1.006333e+00 -2.606899e-01 -3.155099e-01 1.403391e-01 -2.321088e-01 -2.984790e-01 -2.599040e-01 1.022546e-01 1.405443e-02 -3.940807e-01 -1.778267e-01 -1.143940e-01 -1.067293e-02 3.784222e-01 8.442965e-02 -1.025221e-01
<VARIANCE> 39
 3.501608e+01 3.030530e+01 5.165879e+01 1.124324e+02 4.165831e+01 6.545718e+01 5.371474e+01 6.306981e+01 5.610544e+01 1.194466e+02 4.348428e+01 5.379983e+01 3.236657e+01 1.093498e+00 1.322951e+00 1.561629e+00 3.643857e+00 1.704397e+00 2.712190e+00 3.619990e+00 3.914611e+00 2.175448e+00 4.969998e+00 3.054924e+00 1.589312e+00 1.307883e+00 1.008928e-01 1.532923e-01 2.046667e-01 4.031972e-01 2.656527e-01 2.876505e-01 4.616174e-01 5.357198e-01 2.934130e-01 5.848591e-01 3.451625e-01 2.034233e-01 1.910527e-01
<GCONST> 1.172078e+02
<MIXTURE> 2 7.999001e-02
<MEAN> 39
 1.155321e+01 -9.600583e+00 8.201616e+00 4.086763e+01 2.500157e+01 -6.497422e+00 -1.020474e+01 1.020001e+01 -7.194280e+00 -1.835000e+01 1.950978e-01 -1.776536e+00 -9.747092e+00 2.137421e-01 -2.505769e-01 -3.693684e-01 -4.305077e-01 5.178111e-03 4.160262e-01 -3.120110e-01 -8.827220e-01 -2.894699e-01 6.187396e-01 5.989604e-01 1.045524e-01 -1.172747e-02 1.135284e-01 -1.494274e-01 -1.121049e-01 8.188024e-03 2.241226e-01 1.007583e-01 -2.336068e-01 1.387104e-02 -1.996395e-01 -2.954645e-01 1.835034e-01 2.500708e-02 -2.845660e-02
<VARIANCE> 39
 5.113141e+00 6.042617e+00 1.274125e+01 1.112341e+01 8.260488e+00 9.243212e+00 2.498109e+01 6.430650e+01 1.705793e+01 7.385833e+01 1.467734e+01 1.485266e+01 8.426270e+00 2.543768e-01 3.182478e-01 4.867357e-01 7.515813e-01 5.823560e-01 5.808998e-01 6.216999e-01 8.710477e-01 8.589712e-01 1.102701e+00 9.075710e-01 5.651981e-01 4.968912e-01 5.125071e-02 4.218252e-02 6.284194e-02 1.115776e-01 9.544937e-02 7.186102e-02 1.608414e-01 1.076724e-01 7.226828e-02 1.136975e-01 1.246931e-01 8.394577e-02 5.780635e-02
<GCONST> 6.744876e+01
<STATE> 4
<NUMMIXES> 2
<MIXTURE> 1 2.237219e-01
<MEAN> 39
 -1.050254e+01 -9.424989e-01 -1.845688e+00 3.492552e+00 3.897535e+00 4.769675e+00 -1.670287e+00 3.976727e+00 -4.134780e+00 -7.398942e+00 -2.606579e+00 -1.384727e+00 -2.106983e-01 -5.685615e-01 1.408215e-01 1.807546e-01 -2.111283e-01 -2.351604e-01 1.134110e-01 2.926726e-01 9.332377e-02 2.005594e-01 3.247849e-01 1.348811e-01 1.593217e-01 -2.183874e-02 8.556935e-02 -4.890966e-02 -9.503808e-03 7.889827e-02 2.804488e-02 -1.099158e-01 -5.967497e-02 8.996653e-02 -2.352668e-02 -1.060968e-01 -4.701551e-03 4.832497e-03 -4.990689e-03
<VARIANCE> 39
 2.968531e+02 7.300966e+01 5.868230e+01 9.912536e+01 9.389346e+01 5.576606e+01 4.950478e+01 7.236580e+01 7.194806e+01 6.657747e+01 7.005394e+01 7.466724e+01 3.512120e+01 1.921893e+00 8.977325e-01 9.535208e-01 1.667875e+00 1.560943e+00 1.669607e+00 1.693691e+00 1.575156e+00 1.782247e+00 1.822174e+00 1.422336e+00 1.617728e+00 9.985811e-01 7.364450e-02 6.846965e-02 1.082320e-01 1.210259e-01 1.466238e-01 2.347343e-01 1.965686e-01 1.751689e-01 2.709922e-01 2.687390e-01 1.577863e-01 1.857742e-01 1.267742e-01
<GCONST> 1.080527e+02
<MIXTURE> 2 7.762771e-01
<MEAN> 39
 1.347582e+01 -8.640517e+00 3.520455e+00 2.966869e+01 2.322446e+01 -7.910362e-01 -1.267310e+01 8.090458e+00 -1.030827e+01 -1.952299e+01 5.052680e+00 -8.891962e-01 -8.073281e+00 1.002367e+00 -1.300174e+00 -1.600459e+00 -1.470941e+00 1.025293e+00 4.236160e-01 -3.011128e+00 -1.792759e+00 -7.482365e-01 2.582699e-01 2.371601e+00 1.060045e-01 -1.000292e+00 -1.174359e-02 -3.146778e-02 2.103824e-01 3.703826e-01 1.892120e-01 -3.530706e-01 -2.666090e-01 5.116735e-01 2.247793e-01 -4.705999e-01 -2.560432e-01 -2.779758e-03 -9.104331e-02
<VARIANCE> 39
 1.547191e+01 1.552332e+01 3.547410e+01 8.953230e+01 3.457833e+01 3.388185e+01 3.834319e+01 5.856871e+01 2.713181e+01 5.859914e+01 4.558966e+01 1.763493e+01 2.139825e+01 5.754341e-01 9.211779e-01 1.260935e+00 3.042004e+00 1.357660e+00 1.324623e+00 3.584174e+00 2.655865e+00 1.889985e+00 2.466377e+00 3.677366e+00 9.669810e-01 1.412702e+00 7.694077e-02 1.231663e-01 1.743267e-01 2.394316e-01 1.807581e-01 2.288514e-01 3.747191e-01 4.162944e-01 2.565305e-01 3.221197e-01 3.452196e-01 1.781730e-01 1.468897e-01
<GCONST> 1.037540e+02
<TRANSP> 5
 0.000000e+00 1.000000e+00 0.000000e+00 0.000000e+00 0.000000e+00
 0.000000e+00 9.153569e-01 8.464304e-02 0.000000e+00 0.000000e+00
 0.000000e+00 0.000000e+00 7.314124e-01 2.685876e-01 0.000000e+00
 0.000000e+00 0.000000e+00 0.000000e+00 5.828308e-01 4.171692e-01
 0.000000e+00 0.000000e+00 0.000000e+00 0.000000e+00 0.000000e+00
<ENDHMM>
~h "m"
<BEGINHMM>
<NUMSTATES> 5
<STATE> 2
<NUMMIXES> 2
<MIXTURE> 1 3.955345e-01
<MEAN> 39
 1.431842e+01 4.047287e+00 1.415039e+00 1.515548e+01 1.081255e+01 -4.343246e+00 -6.116924e+00 1.594773e+01 3.193812e+00 -1.325983e+01 -4.657442e+00 -4.505090e+00 -8.466721e+00 -3.856500e-01 9.585571e-01 1.329404e+00 1.739346e+00 1.649226e+00 1.241066e+00 -7.154824e-02 -1.606616e+00 -4.917076e-01 7.022814e-01 -6.611122e-01 -1.406845e+00 -9.558854e-01 1.261552e-01 -2.323018e-01 -1.677598e-01 -1.222626e-01 -4.825536e-02 -2.059103e-01 -2.658332e-01 3.373957e-02 -9.406912e-02 -1.246573e-01 2.898195e-01 1.519804e-01 -6.858710e-03
<VARIANCE> 39
 9.142889e+01 3.344776e+01 3.972923e+01 4.092687e+01 4.880361e+01 5.488082e+01 2.500898e+01 7.188523e+01 3.396325e+01 4.302544e+01 3.611861e+01 2.301708e+01 2.416847e+01 1.324707e+00 1.307588e+00 1.643211e+00 1.712488e+00 2.077105e+00 2.534616e+00 1.991349e+00 3.069527e+00 1.358666e+00 2.473862e+00 1.865339e+00 1.548652e+00 1.024168e+00 8.574574e-02 1.244529e-01 1.743151e-01 2.370501e-01 3.380427e-01 2.952987e-01 3.022875e-01 3.329050e-01 1.992786e-01 3.115888e-01 2.614343e-01 2.224646e-01 1.656333e-01
<GCONST> 1.072825e+02
<MIXTURE> 2 6.044644e-01
<MEAN> 39
 1.548707e+01 6.119581e+00 5.188772e+00 2.190406e+01 1.735987e+01 -2.200821e+00 -9.424681e+00 7.817341e+00 7.286793e-02 -1.068184e+01 -4.700138e+00 -7.960702e+00 -1.254532e+01 -1.625360e-01 3.037328e-01 4.334651e-01 1.282195e-01 9.534448e-02 2.121702e-01 -2.217030e-01 -7.381848e-01 -2.800785e-01 3.586367e-01 1.678762e-01 -7.958839e-02 5.947675e-02 6.242913e-03 3.376194e-02 -2.845447e-02 -1.526847e-01 -1.498661e-01 -2.272393e-02 6.521637e-02 1.063711e-01 4.033255e-02 -3.579939e-02 -9.767315e-03 8.134867e-02 1.259608e-01
<VARIANCE> 39
 3.370345e+00 1.470870e+01 2.341378e+01 1.200210e+01 2.336775e+01 2.756283e+01 2.757772e+01 7.198958e+01 2.906887e+01 2.698599e+01 2.171002e+01 1.601257e+01 1.464285e+01 1.211829e-01 3.250683e-01 4.257632e-01 5.348907e-01 5.285351e-01 5.060811e-01 6.606719e-01 1.019760e+00 4.632186e-01 6.732068e-01 5.220948e-01 4.898177e-01 4.893653e-01 1.979558e-02 3.812601e-02 5.665912e-02 1.027712e-01 1.020797e-01 7.681249e-02 1.007929e-01 1.361298e-01 6.644152e-02 1.120918e-01 8.624059e-02 8.131901e-02 7.044248e-02
<GCONST> 6.682444e+01
<STATE> 3
<NUMMIXES> 2
<MIXTURE> 1 1.302513e-01
<MEAN> 39
 -1.749946e+00 1.291634e+01 1.212873e+01 1.318530e+01 9.296329e+00 7.881099e+00 -5.442736e-01 3.928674e+00 -2.904822e+00 -5.110266e+00 -3.043341e+00 -4.921714e+00 -3.348935e+00 -1.518020e+00 -4.800861e-01 -1.072227e-01 -4.497743e-01 -2.928603e-01 4.561203e-01 4.243101e-01 1.768186e-01 3.874383e-01 4.906540e-01 2.477700e-01 3.858610e-01 5.156130e-01 -2.426740e-02 -1.906508e-01 -1.798339e-03 1.212664e-01 7.055414e-02 -8.638147e-02 -2.006361e-01 -1.001374e-01 -5.339504e-02 -1.071384e-01 -8.585549e-02 -9.950083e-02 -6.496207e-02
<VARIANCE> 39
 1.064833e+02 8.394212e+01 5.171805e+01 4.434150e+01 3.064794e+01 1.528937e+01 1.107475e+01 1.993259e+01 1.881632e+01 1.570822e+01 1.034393e+01 1.088555e+01 1.422009e+01 2.678132e+00 1.627239e+00 1.720930e+00 1.444562e+00 1.319302e+00 8.705364e-01 1.208358e+00 1.336526e+00 1.319420e+00 1.162419e+00 1.146623e+00 1.064945e+00 1.038389e+00 1.260633e-01 1.442448e-01 2.201090e-01 1.642211e-01 1.562479e-01 1.087260e-01 1.237289e-01 1.627107e-01 1.750821e-01 1.613404e-01 1.619967e-01 1.447088e-01 1.307967e-01
<GCONST> 9.213065e+01
<MIXTURE> 2 8.697460e-01
<MEAN> 39
 1.246224e+01 1.282691e+01 1.108179e+01 2.005553e+01 1.607548e+01 3.196858e+00 -8.118095e+00 1.000465e+00 -2.756318e+00 -7.166209e+00 -5.226486e+00 -9.268469e+00 -9.386969e+00 -2.371057e-01 2.592003e-01 2.272726e-01 -2.242519e-01 -2.361247e-01 2.741910e-01 3.134200e-01 -9.783457e-02 -1.474374e-01 3.937363e-02 -5.429098e-02 6.339136e-02 1.976839e-01 -1.274151e-02 -1.151543e-01 -1.106367e-01 -8.826175e-02 -7.637808e-02 -3.991202e-02 6.785741e-02 2.061612e-01 3.913492e-02 -1.338708e-01 2.802370e-02 1.394585e-01 8.958729e-02
<VARIANCE> 39
 6.207918e+00 1.417994e+01 1.743287e+01 1.160050e+01 1.846333e+01 2.127095e+01 3.166920e+01 4.870359e+01 2.499117e+01 2.095258e+01 1.446793e+01 1.608017e+01 1.782208e+01 3.944330e-01 5.707161e-01 6.817014e-01 7.713369e-01 9.209306e-01 7.744223e-01 1.470383e+00 1.515938e+00 7.280564e-01 1.099438e+00 6.592469e-01 8.835152e-01 7.970684e-01 3.294206e-02 7.512892e-02 8.281799e-02 1.292411e-01 1.460111e-01 1.110401e-01 1.789111e-01 1.849819e-01 1.064074e-01 1.912630e-01 1.009308e-01 1.335762e-01 1.098272e-01
<GCONST> 7.823007e+01
<STATE> 4
<NUMMIXES> 2
<MIXTURE> 1 0.000000e+00
<MEAN> 39
 -3.465476e+01 1.675967e+01 -7.743439e+00 1.826633e+00 -1.155705e+00 1.236522e+01 -1.445375e+01 5.846484e+00 -1.598039e-01 2.253834e-01 -2.058068e+00 -9.824362e-02 3.765816e+00 -1.362455e-01 8.215038e-02 1.575990e-02 -2.231550e-02 5.907191e-02 6.852118e-02 -5.401044e-02 8.545254e-03 3.942942e-02 2.500927e-04 -6.214541e-04 1.159003e-02 3.031951e-02 2.616155e-01 -1.072249e-01 2.894851e-02 8.718687e-02 -5.242795e-02 -9.323000e-02 1.351443e-01 9.685402e-03 -5.067167e-02 2.049104e-02 2.124489e-02 -7.652363e-03 -4.976257e-02
<VARIANCE> 39
 4.483082e-01 6.496472e-01 1.372011e+00 1.126045e+00 1.920628e+00 1.941905e+00 2.517905e+00 2.499093e+00 2.399876e+00 2.720778e+00 3.064659e+00 2.732042e+00 2.229308e+00 1.086354e+00 3.270376e-01 2.173789e-01 2.914865e-01 3.910311e-01 4.624964e-01 5.924420e-01 3.902425e-01 4.446459e-01 4.080288e-01 4.378160e-01 3.926591e-01 3.533571e-01 2.683040e-01 8.656988e-02 6.370471e-02 7.948849e-02 7.781372e-02 1.027722e-01 1.615612e-01 9.150107e-02 9.617190e-02 9.459341e-02 9.706742e-02 8.784577e-02 8.113205e-02
<GCONST> 3.729400e+01
<MIXTURE> 2 1.000000e+00
<MEAN> 39
 1.409337e+01 5.398289e+00 3.427958e+00 1.616008e+01 1.369778e+01 -6.054960e-01 -8.093834e+00 9.264789e+00 -1.203696e+00 -1.328073e+01 -3.227121e+00 -3.510461e+00 -7.712835e+00 6.849027e-01 -1.587013e+00 -1.396376e+00 -1.240130e+00 -8.412604e-01 -1.029826e+00 -6.516739e-01 1.692765e+00 -2.545393e-01 -2.090713e+00 1.091505e+00 1.716491e+00 7.048548e-01 1.169353e-01 -3.014134e-01 -1.221828e-01 -1.871412e-02 6.194072e-02 -1.699394e-01 -3.546638e-01 1.344776e-01 -9.335949e-02 -2.138305e-01 4.076989e-01 1.728562e-01 -1.745735e-01
<VARIANCE> 39
 6.336046e+01 4.726340e+01 5.928716e+01 2.760185e+01 4.409938e+01 6.634709e+01 2.888783e+01 8.045409e+01 4.677610e+01 6.349109e+01 2.592364e+01 3.120008e+01 2.380254e+01 1.179653e+00 2.464762e+00 2.525844e+00 2.027559e+00 3.396560e+00 2.543060e+00 2.456639e+00 3.449121e+00 1.419980e+00 4.932092e+00 2.585211e+00 2.252113e+00 1.192962e+00 1.242205e-01 2.186967e-01 3.572116e-01 2.703275e-01 3.366064e-01 2.559707e-01 2.968453e-01 4.924564e-01 1.798849e-01 6.037655e-01 3.145160e-01 2.900145e-01 1.712766e-01
<GCONST> 1.148577e+02
<TRANSP> 5
 0.000000e+00 1.000000e+00 0.000000e+00 0.000000e+00 0.000000e+00
 0.000000e+00 8.965570e-01 1.034429e-01 0.000000e+00 0.000000e+00
 0.000000e+00 0.000000e+00 8.546301e-01 1.453699e-01 0.000000e+00
 0.000000e+00 0.000000e+00 0.000000e+00 6.245926e-01 3.754073e-01
 0.000000e+00 0.000000e+00 0.000000e+00 0.000000e+00 0.000000e+00
<ENDHMM>
~h "n"
<BEGINHMM>
<NUMSTATES> 5
<STATE> 2
<NUMMIXES> 2
<MIXTURE> 1 7.964726e-01
<MEAN> 39
 1.348140e+01 8.102104e+00 3.710456e+00 1.669757e+01 1.948990e+01 7.218101e+00 -8.646879e+00 4.909595e-01 -5.739434e+00 -1.221005e+01 -5.288241e+00 -5.409425e+00 -3.209986e+00 -1.506272e-02 7.509919e-01 7.951162e-01 9.152208e-01 5.770047e-01 -6.715514e-02 -7.774084e-01 -1.563290e+00 -3.122683e-01 5.842438e-01 -5.052104e-01 -5.249262e-01 -2.094746e-03 1.300563e-01 -3.274477e-01 -2.438956e-01 -1.752810e-01 -2.085130e-02 -1.202892e-01 -2.186640e-01 1.356754e-01 2.004039e-02 -6.031522e-02 3.400951e-01 1.452788e-01 -6.211718e-02
<VARIANCE> 39
 3.148998e+01 2.924627e+01 3.420452e+01 2.948872e+01 3.505070e+01 3.533424e+01 4.639048e+01 5.024242e+01 2.499316e+01 2.982687e+01 4.195179e+01 2.503108e+01 1.717315e+01 6.543167e-01 1.491338e+00 1.908759e+00 1.811468e+00 1.713545e+00 1.149788e+00 2.219598e+00 2.001190e+00 1.102248e+00 2.207139e+00 2.019457e+00 1.350355e+00 1.098104e+00 5.886716e-02 1.464200e-01 1.582786e-01 1.781610e-01 2.333279e-01 1.581825e-01 3.450363e-01 2.752737e-01 1.532809e-01 2.707039e-01 2.507124e-01 1.581896e-01 1.616245e-01
<GCONST> 9.987202e+01
<MIXTURE> 2 2.035268e-01
<MEAN> 39
 1.371174e+01 1.019970e+01 8.469967e+00 1.947714e+01 1.707764e+01 3.079878e+00 -8.926911e+00 3.406656e-01 -4.862773e+00 -1.130599e+01 -6.620245e+00 -6.736726e+00 -4.991091e+00 1.948996e-02 2.387287e-01 1.598402e-01 2.170726e-01 3.058645e-01 8.162093e-02 -4.568595e-01 -6.509968e-01 -4.509359e-02 3.443973e-01 -6.874903e-02 -2.098448e-01 1.131475e-01 2.887317e-02 -5.770200e-03 -8.764371e-02 -7.706064e-02 5.039470e-02 8.223629e-02 -4.965391e-02 -5.026323e-02 -2.207621e-03 2.523774e-02 1.034415e-02 -3.260106e-02 2.333668e-02
<VARIANCE> 39
 4.503330e+00 1.717742e+01 2.225329e+01 1.759833e+01 2.291573e+01 2.945516e+01 2.714569e+01 3.839087e+01 2.350506e+01 2.049279e+01 1.825729e+01 1.733436e+01 1.791118e+01 1.413071e-01 3.942231e-01 3.576785e-01 5.567523e-01 6.412807e-01 4.266470e-01 8.496255e-01 6.370605e-01 4.483404e-01 7.501936e-01 3.794610e-01 4.820438e-01 3.770821e-01 1.281341e-02 3.377012e-02 4.106877e-02 5.779320e-02 5.764181e-02 4.817792e-02 8.391162e-02 5.949451e-02 4.507684e-02 6.535661e-02 4.309884e-02 4.799108e-02 4.803601e-02
<GCONST> 6.008549e+01
<STATE> 3
<NUMMIXES> 2
<MIXTURE> 1 6.886880e-01
<MEAN> 39
 1.457821e+01 1.038163e+01 6.466642e+00 1.999682e+01 2.268479e+01 6.875186e+00 -1.437038e+01 -8.192186e+00 -6.575408e+00 -7.469009e+00 -5.107627e+00 -7.204650e+00 -3.053736e+00 1.111988e-02 6.021369e-03 2.103928e-03 -6.443816e-02 -3.646538e-02 7.254901e-03 -1.583111e-02 -5.836361e-02 1.473239e-02 6.584673e-02 -9.471844e-03 -6.283690e-02 -3.655895e-03 -3.176165e-02 -8.996728e-02 -3.625954e-02 -8.599995e-02 -1.096540e-01 -7.661423e-03 1.620500e-01 3.047903e-01 5.247543e-03 -1.806624e-01 7.410238e-02 9.352800e-02 -4.288500e-02
<VARIANCE> 39
 3.357539e+00 1.013513e+01 1.754481e+01 1.094307e+01 2.038468e+01 2.329314e+01 2.252319e+01 2.485052e+01 1.627087e+01 2.782044e+01 1.651718e+01 1.546930e+01 1.229194e+01 1.596086e-01 4.558518e-01 4.948937e-01 5.902238e-01 1.068000e+00 5.698642e-01 1.411158e+00 1.154926e+00 6.291676e-01 1.258176e+00 6.124155e-01 6.989838e-01 4.973644e-01 2.184213e-02 6.732360e-02 7.333938e-02 1.096249e-01 1.723652e-01 9.574451e-02 1.953188e-01 1.672633e-01 1.121979e-01 2.100344e-01 1.073354e-01 1.117744e-01 8.626962e-02
<GCONST> 7.198724e+01
<MIXTURE> 2 3.113098e-01
<MEAN> 39
 2.649832e+00 2.035022e+00 4.855897e+00 1.240874e+01 1.238707e+01 9.459894e+00 -3.507814e+00 2.192634e+00 -7.529821e+00 -9.228178e+00 6.346105e-01 -2.977278e+00 -1.915874e+00 1.819166e-01 5.055607e-01 2.578303e-01 1.012427e-01 1.379925e-01 1.931310e-01 2.259772e-01 1.350492e-01 -6.266572e-02 -1.493669e-01 -1.640209e-01 -3.396102e-02 4.381432e-02 -2.381202e-02 -5.119942e-03 2.719372e-02 3.514274e-02 4.764613e-02 -3.358075e-02 -1.469718e-01 -1.145021e-01 2.897247e-02 7.586959e-02 3.026017e-02 9.696186e-05 7.685357e-03
<VARIANCE> 39
 1.760396e+02 1.916484e+02 1.185643e+02 1.079410e+02 7.897337e+01 5.013969e+01 4.831258e+01 4.881765e+01 5.178162e+01 5.916193e+01 1.019973e+02 3.505821e+01 3.031277e+01 3.267952e+00 4.012461e+00 4.069893e+00 3.974382e+00 2.925172e+00 2.728861e+00 4.296151e+00 4.400795e+00 3.151038e+00 3.905265e+00 3.466945e+00 1.722255e+00 1.456326e+00 2.247522e-01 3.934833e-01 5.036507e-01 5.056233e-01 3.674381e-01 3.768069e-01 4.906649e-01 6.103683e-01 5.179852e-01 5.990407e-01 4.454134e-01 2.502483e-01 2.289868e-01
<GCONST> 1.304632e+02
<STATE> 4
<NUMMIXES> 2
<MIXTURE> 1 6.206078e-01
<MEAN> 39
 1.567826e+01 3.567679e+00 1.705739e+00 1.716088e+01 2.195937e+01 5.627548e+00 -1.385165e+01 8.748351e-01 -7.668975e+00 -1.504700e+01 3.241078e-01 -2.811621e+00 -4.384675e+00 6.327831e-01 -2.677705e+00 -1.454671e+00 -1.000652e+00 -5.085917e-01 -1.239254e+00 -8.498211e-01 3.175310e+00 -2.996562e-01 -2.482944e+00 2.798850e+00 1.509899e+00 -1.076576e+00 1.294084e-01 -4.303747e-01 -1.956275e-01 -1.324155e-01 3.971676e-02 -2.082741e-01 -4.191640e-01 3.300264e-01 -7.947660e-02 -2.801470e-01 5.738749e-01 1.638250e-01 -2.302416e-01
<VARIANCE> 39
 1.643863e+01 3.336249e+01 3.249752e+01 3.231263e+01 2.954080e+01 1.885969e+01 3.360745e+01 6.718462e+01 2.405556e+01 4.433050e+01 6.342538e+01 2.141107e+01 2.116964e+01 6.474277e-01 2.224749e+00 2.071494e+00 2.537339e+00 1.981612e+00 1.340833e+00 2.896699e+00 3.070301e+00 1.660138e+00 2.974168e+00 3.811799e+00 1.558321e+00 1.930903e+00 6.704250e-02 2.846035e-01 2.508406e-01 2.247242e-01 2.608480e-01 1.759152e-01 3.439177e-01 5.364948e-01 2.287146e-01 5.092774e-01 3.855580e-01 2.701308e-01 2.118054e-01
<GCONST> 1.078771e+02
<MIXTURE> 2 3.793899e-01
<MEAN> 39
 1.002669e+01 1.548547e+01 1.314547e+01 1.744491e+01 1.478695e+01 6.564759e+00 -6.661101e+00 -3.072954e+00 -5.792810e+00 -7.496491e+00 -6.171611e+00 -7.603711e+00 -4.015784e+00 -6.140282e-01 2.753404e-01 3.272496e-01 -2.467114e-01 -4.014978e-01 2.759260e-01 6.298476e-01 3.543793e-01 -2.668343e-03 7.613619e-02 1.625153e-01 1.358764e-01 -5.813270e-02 2.665241e-03 -7.583629e-02 -6.773349e-02 3.616270e-02 7.487485e-02 -8.921089e-03 -7.141240e-02 2.242732e-02 1.629122e-02 -4.112718e-02 -9.033829e-07 1.011315e-02 7.269973e-03
<VARIANCE> 39
 2.815722e+01 1.023964e+01 1.036531e+01 9.332120e+00 1.490052e+01 1.205447e+01 3.203159e+01 2.367092e+01 1.085014e+01 1.577209e+01 8.859520e+00 1.053595e+01 7.597667e+00 5.094139e-01 4.691753e-01 4.455381e-01 5.781260e-01 6.139439e-01 3.834346e-01 9.663123e-01 6.480190e-01 6.229166e-01 7.980950e-01 4.470477e-01 5.362101e-01 3.984149e-01 2.800003e-02 4.988571e-02 4.682676e-02 6.176865e-02 6.549229e-02 4.521838e-02 1.033141e-01 6.794573e-02 7.179138e-02 8.917355e-02 4.664872e-02 6.121723e-02 4.300704e-02
<GCONST> 6.043549e+01
<TRANSP> 5
 0.000000e+00 1.000000e+00 0.000000e+00 0.000000e+00 0.000000e+00
 0.000000e+00 7.647654e-01 2.352346e-01 0.000000e+00 0.000000e+00
 0.000000e+00 0.000000e+00 9.140425e-01 8.595748e-02 0.000000e+00
 0.000000e+00 0.000000e+00 0.000000e+00 7.679648e-01 2.320352e-01
 0.000000e+00 0.000000e+00 0.000000e+00 0.000000e+00 0.000000e+00
<ENDHMM>
~h "o"
<BEGINHMM>
<NUMSTATES> 7
<STATE> 2
<NUMMIXES> 2
<MIXTURE> 1 5.369793e-01
<MEAN> 39
 4.142399e+00 6.767438e+00 2.892820e+00 -3.271059e+00 -1.208715e+01 -9.345052e+00 -4.530942e+00 1.791462e+01 4.069223e+00 -4.630394e+00 7.757941e+00 -5.849146e-01 -3.790933e+00 2.438622e+00 7.613180e-01 5.900193e-01 9.453660e-01 3.777695e-01 -9.075966e-01 -5.963750e-01 8.067841e-01 3.417639e-01 -7.599847e-01 -1.501617e-01 -2.966042e-01 -8.367376e-01 -1.240421e-01 -6.310847e-02 1.051335e-01 6.646006e-01 6.470755e-01 6.837073e-02 -1.354125e-01 -2.576019e-01 -5.135499e-02 -2.073337e-01 -4.456167e-01 -2.842139e-02 -5.349394e-02
<VARIANCE> 39
 4.736545e+01 5.335958e+01 2.870869e+01 8.017364e+01 1.045378e+02 8.464280e+01 6.326023e+01 7.131421e+01 4.085427e+01 4.962724e+01 4.253047e+01 3.035498e+01 3.571735e+01 2.381577e+00 2.661324e+00 2.211907e+00 1.160470e+01 1.472050e+01 8.000021e+00 4.552625e+00 5.484442e+00 2.591369e+00 3.469746e+00 5.651661e+00 1.908969e+00 2.140766e+00 3.512497e-01 3.398395e-01 3.081897e-01 1.183938e+00 1.803558e+00 1.673818e+00 9.854936e-01 8.033783e-01 5.353298e-01 7.637048e-01 7.087371e-01 3.650655e-01 4.496590e-01
<GCONST> 1.362153e+02
<MIXTURE> 2 4.630185e-01
<MEAN> 39
 1.662447e+01 3.845798e+00 5.409862e+00 1.247440e+01 1.874439e+00 -1.053117e+01 -9.799479e+00 1.733188e+01 1.790141e+00 -1.454176e+01 2.236757e-02 -2.748373e+00 -6.015822e+00 1.682144e+00 2.565366e-01 -4.415413e-01 9.175312e-01 4.341940e-01 -3.538741e+00 -2.732126e+00 1.776521e+00 9.008387e-01 -2.468526e+00 -1.118852e+00 -9.695221e-02 -1.287405e+00 -3.786668e-01 -3.673565e-01 -2.000455e-01 -4.274342e-01 -2.894891e-01 2.728894e-02 -3.755329e-03 2.667117e-01 1.893757e-01 1.690942e-01 3.642488e-01 1.615582e-02 -2.837148e-02
<VARIANCE> 39
 1.230489e+01 1.100053e+02 2.963335e+01 2.688707e+01 4.898221e+01 6.734885e+01 3.875778e+01 4.225609e+01 4.665280e+01 6.352429e+01 3.128817e+01 3.360899e+01 2.387268e+01 8.188862e-01 2.128090e+00 1.543045e+00 2.814121e+00 1.922070e+00 1.814232e+00 2.482393e+00 2.877990e+00 2.473200e+00 2.538360e+00 2.988973e+00 1.115204e+00 9.225384e-01 1.271764e-01 1.437310e-01 2.558160e-01 3.823361e-01 4.272389e-01 6.042138e-01 3.921784e-01 4.099201e-01 2.758920e-01 3.713306e-01 3.442093e-01 1.614067e-01 1.436050e-01
<GCONST> 1.107770e+02
<STATE> 3
<NUMMIXES> 2
<MIXTURE> 1 9.850464e-01
<MEAN> 39
 2.021489e+01 -1.679326e+00 -1.315800e-01 1.097656e+01 6.917329e+00 -1.445188e+01 -1.828349e+01 2.317993e+01 4.620049e+00 -2.285597e+01 -1.912597e+00 -5.692275e+00 -9.557466e+00 1.072974e-01 3.702820e-01 1.733048e-01 -1.058449e-01 -5.433186e-01 -1.718970e+00 -9.491203e-01 1.182828e+00 1.140919e+00 -1.121299e-01 -4.646733e-03 -1.055032e-01 -6.066422e-01 -1.803562e-01 -2.636511e-02 1.804475e-01 5.078014e-02 -1.207109e-01 3.114047e-01 2.857150e-01 -3.374485e-01 -6.736623e-02 3.605412e-01 6.881749e-02 6.260328e-02 1.440775e-01
<VARIANCE> 39
 7.112570e+00 4.296394e+01 2.947235e+01 3.100178e+01 4.130847e+01 5.567512e+01 3.648231e+01 5.437804e+01 3.376775e+01 4.966133e+01 4.020022e+01 2.099010e+01 1.406755e+01 4.703649e-01 9.110868e-01 8.149371e-01 1.046122e+00 9.213367e-01 9.247935e-01 1.687279e+00 1.912735e+00 7.544169e-01 1.893228e+00 1.163242e+00 7.199013e-01 5.459840e-01 1.002212e-01 6.605079e-02 1.170608e-01 1.349839e-01 1.247713e-01 1.814687e-01 2.517167e-01 2.688378e-01 1.122506e-01 2.603108e-01 2.252832e-01 1.036815e-01 7.694399e-02
<GCONST> 9.043451e+01
<MIXTURE> 2 1.495344e-02
<MEAN> 39
 1.522135e+01 1.482040e+01 1.061512e+01 1.253341e+01 -4.808695e+00 -1.937856e+01 -1.288581e+01 1.432936e+01 5.760850e+00 -7.065708e+00 3.848025e+00 7.228240e+00 -3.172630e+00 5.236681e-01 -1.249399e+00 -5.014086e-01 8.816344e-01 3.149580e-01 -1.413126e+00 -8.125352e-01 5.902480e-01 2.716469e-01 -7.828897e-01 -1.879244e-01 5.608199e-01 -1.660113e-01 -4.263166e-02 -4.893223e-02 -1.019418e-01 3.826163e-02 2.080903e-01 5.033629e-02 -4.034168e-02 1.378050e-01 2.067600e-01 8.686839e-02 -2.784852e-02 -2.049653e-01 -5.552363e-02
<VARIANCE> 39
 2.780364e+00 1.157890e+01 6.108184e+00 1.191720e+01 7.641356e+00 2.928098e+01 1.912034e+01 2.961183e+01 1.653743e+01 1.336923e+01 8.049454e+00 1.609122e+01 6.186620e+00 1.317453e-01 4.351462e-01 2.370489e-01 1.769319e-01 2.821387e-01 5.464969e-01 3.010689e-01 6.866120e-01 3.765275e-01 9.715314e-01 3.798730e-01 3.320172e-01 2.070285e-01 3.310363e-02 6.193962e-02 6.410836e-02 7.678397e-02 3.512427e-02 1.288727e-01 1.351845e-01 1.250831e-01 8.774164e-02 8.295657e-02 6.835151e-02 7.854686e-02 2.772317e-02
<GCONST> 5.442668e+01
<STATE> 4
<NUMMIXES> 2
<MIXTURE> 1 7.579163e-02
<MEAN> 39
 1.781692e+01 7.157048e+00 6.976988e+00 1.066054e+01 -3.976583e+00 -2.007843e+01 -1.188240e+01 2.068954e+01 6.987103e+00 -1.629440e+01 -4.348213e+00 -3.510145e+00 -1.091855e+01 2.780013e-01 -5.640032e-01 -6.627767e-01 -2.706200e-01 5.935965e-01 4.979526e-01 -8.126526e-02 5.190219e-01 -1.046093e-01 -8.360385e-01 -3.095092e-01 -6.288301e-01 -1.797995e-01 6.627820e-02 -4.340571e-02 -7.868485e-02 6.744858e-03 2.223560e-01 1.863355e-01 -1.218839e-01 9.114073e-02 -1.068648e-01 -1.554054e-01 1.507847e-01 -2.935583e-02 3.393304e-02
<VARIANCE> 39
 3.435457e+00 2.274361e+01 1.605584e+01 1.538068e+01 1.396805e+01 2.596467e+01 1.799127e+01 3.075060e+01 1.866696e+01 2.992420e+01 1.705611e+01 1.680107e+01 1.118171e+01 2.674933e-01 4.989730e-01 4.705558e-01 5.927808e-01 5.816414e-01 1.600673e+00 1.388466e+00 1.561812e+00 8.144801e-01 1.463359e+00 7.933892e-01 8.784713e-01 5.034322e-01 3.740970e-02 5.807745e-02 4.802160e-02 6.578068e-02 5.752887e-02 1.038853e-01 1.000309e-01 1.921713e-01 9.951961e-02 1.389284e-01 1.305104e-01 8.506855e-02 4.882210e-02
<GCONST> 7.192963e+01
<MIXTURE> 2 9.242089e-01
<MEAN> 39
 1.879232e+01 3.958884e+00 7.208456e+00 1.515428e+01 -1.656538e+00 -2.683635e+01 -2.011029e+01 2.475486e+01 9.091779e+00 -1.812163e+01 5.444579e-01 -1.658704e+00 -1.200175e+01 -7.187361e-02 1.728849e-01 2.077103e-01 7.362598e-02 -2.045306e-01 -1.739882e-01 2.792754e-02 -7.240225e-02 -3.392706e-02 1.269199e-01 1.668317e-01 1.318962e-01 -1.027784e-01 -1.713815e-02 2.533662e-02 -1.285134e-02 -3.773616e-02 2.764938e-02 1.383682e-01 9.272680e-02 -4.165199e-02 -7.730503e-02 1.438273e-02 1.806072e-02 -1.429689e-02 2.574904e-02
<VARIANCE> 39
 3.805581e+00 1.809856e+01 1.952136e+01 1.211108e+01 1.440767e+01 2.357607e+01 1.966084e+01 2.783131e+01 1.355943e+01 2.034655e+01 2.549113e+01 2.091529e+01 1.255851e+01 2.426422e-01 4.576365e-01 5.538083e-01 5.438488e-01 4.658172e-01 8.679135e-01 1.037817e+00 1.315039e+00 5.711126e-01 9.761620e-01 8.638480e-01 6.546327e-01 3.413592e-01 4.011598e-02 4.131503e-02 6.401502e-02 7.388692e-02 6.106456e-02 1.081491e-01 1.501504e-01 2.060148e-01 7.332512e-02 1.351573e-01 1.167820e-01 8.117038e-02 5.378348e-02
<GCONST> 6.926750e+01
<STATE> 5
<NUMMIXES> 2
<MIXTURE> 1 1.841088e-01
<MEAN> 39
 2.007656e+01 -4.542442e+00 -2.663414e+00 1.205431e+01 1.024451e+01 -1.241525e+01 -1.683421e+01 2.318049e+01 9.913183e-01 -2.779853e+01 -3.369563e+00 -4.570704e+00 -8.511030e+00 6.696295e-02 -2.470177e-01 -4.068287e-01 3.119051e-01 8.050247e-01 9.238334e-01 5.529433e-01 -2.521845e-01 -1.131373e+00 -4.407888e-01 4.004525e-01 1.191357e-01 1.940852e-01 -1.656029e-02 1.001736e-01 9.402181e-02 9.424827e-02 5.340252e-03 9.897631e-03 1.257192e-05 1.536699e-01 5.589971e-03 3.207446e-02 1.340566e-01 -5.323252e-02 -6.009957e-02
<VARIANCE> 39
 5.132082e+00 1.729682e+01 1.221521e+01 2.123948e+01 3.319092e+01 3.925792e+01 2.889624e+01 3.043496e+01 5.261118e+01 4.376292e+01 3.596871e+01 1.503612e+01 1.220783e+01 4.682041e-01 6.595018e-01 7.669430e-01 7.191091e-01 1.148276e+00 1.648016e+00 1.938909e+00 2.068071e+00 1.054412e+00 2.232866e+00 1.325895e+00 7.264923e-01 5.659106e-01 6.794636e-02 5.916392e-02 6.167387e-02 6.362545e-02 6.773130e-02 8.940429e-02 1.798412e-01 2.150469e-01 1.101453e-01 1.632896e-01 1.716388e-01 5.661266e-02 6.207937e-02
<GCONST> 8.186839e+01
<MIXTURE> 2 8.158895e-01
<MEAN> 39
 1.852304e+01 4.815367e+00 5.916785e+00 1.177725e+01 3.386531e-01 -1.932281e+01 -1.709556e+01 2.454434e+01 6.258333e+00 -1.932817e+01 2.127296e+00 -2.952486e+00 -1.270713e+01 -3.321022e-01 3.695348e-01 3.779650e-02 -1.467530e-01 3.196991e-01 1.429887e+00 1.061422e+00 -1.069950e+00 -6.468294e-01 7.541579e-01 -1.146838e-01 -1.022287e-01 4.520232e-01 -1.533713e-01 8.721372e-02 5.085644e-02 -8.909553e-03 7.100784e-02 3.629135e-01 2.794830e-01 -4.151992e-01 -3.323852e-02 3.396925e-01 -1.971737e-01 2.452125e-02 2.322197e-01
<VARIANCE> 39
 7.478471e+00 3.798548e+01 4.259782e+01 2.839035e+01 3.674966e+01 5.929562e+01 4.708000e+01 5.484267e+01 3.478419e+01 6.921873e+01 6.673595e+01 3.695875e+01 2.217896e+01 4.748958e-01 1.070783e+00 1.040101e+00 1.037645e+00 1.061787e+00 2.070611e+00 2.215554e+00 2.546543e+00 1.105267e+00 2.903329e+00 1.451217e+00 1.331886e+00 7.661113e-01 5.896204e-02 7.781577e-02 1.333336e-01 1.348500e-01 1.466358e-01 2.735051e-01 2.766862e-01 3.096507e-01 1.606935e-01 2.574997e-01 2.052192e-01 1.576991e-01 1.130923e-01
<GCONST> 9.826849e+01
<STATE> 6
<NUMMIXES> 2
<MIXTURE> 1 6.241137e-01
<MEAN> 39
 2.096268e+00 1.215853e+01 1.067689e+01 1.095658e+01 3.189072e+00 -2.524970e-01 -1.398442e+00 1.241336e+01 3.777179e+00 -3.031029e+00 2.289356e+00 -5.602187e-01 -4.620920e+00 -1.863044e+00 -7.536459e-02 9.505857e-03 -3.804671e-01 5.436713e-01 2.098409e+00 1.184497e+00 -1.046201e+00 -2.536424e-01 9.678316e-01 -4.567739e-01 -2.798758e-01 8.647467e-01 -8.952268e-03 -1.603570e-01 -2.279561e-02 2.062248e-02 -1.120790e-02 -1.662117e-01 -1.630592e-01 1.223116e-01 3.299342e-03 -1.848104e-01 1.978919e-02 -1.963316e-02 -7.131636e-02
<VARIANCE> 39
 1.594239e+02 5.892007e+01 4.399008e+01 3.210171e+01 3.402637e+01 1.114699e+02 5.270125e+01 3.632803e+01 2.348244e+01 6.394342e+01 4.172484e+01 2.555166e+01 2.860383e+01 1.068161e+00 2.548766e+00 2.384209e+00 1.439364e+00 2.159775e+00 5.289299e+00 3.254202e+00 2.120227e+00 1.891610e+00 2.703015e+00 1.333389e+00 1.017239e+00 1.153435e+00 1.099241e-01 1.516057e-01 2.166319e-01 2.040010e-01 2.379765e-01 3.929673e-01 2.706338e-01 2.784585e-01 2.670633e-01 2.627772e-01 1.979672e-01 1.667525e-01 1.460339e-01
<GCONST> 1.100364e+02
<MIXTURE> 2 3.758842e-01
<MEAN> 39
 -6.394547e+00 -4.928331e-01 -7.303917e-01 3.531069e+00 -1.078871e+00 -6.879761e+00 -9.469985e+00 7.674737e+00 1.687393e+00 -5.689694e+00 8.069524e-01 -1.584016e+00 -3.700310e+00 -5.485063e-02 9.390932e-02 7.967487e-03 3.684112e-02 1.326602e-01 2.604014e-01 7.268918e-02 -3.282566e-01 -1.529849e-01 2.646216e-01 1.018555e-01 -3.564073e-02 6.162504e-02 1.296616e-02 1.613141e-02 2.408352e-02 2.621190e-02 2.767149e-02 1.457000e-02 2.380778e-03 6.357183e-02 2.090313e-02 -3.836254e-02 -1.604252e-03 -1.330792e-02 -1.928211e-02
<VARIANCE> 39
 4.969753e+02 6.560468e+01 4.936118e+01 6.469917e+01 3.266805e+01 1.000061e+02 7.230282e+01 9.542686e+01 3.974811e+01 9.360205e+01 2.753101e+01 2.701990e+01 3.843184e+01 1.750746e-01 3.329963e-01 3.996034e-01 5.437521e-01 6.794930e-01 8.771550e-01 1.097104e+00 1.476548e+00 8.078166e-01 1.310563e+00 9.665436e-01 8.069275e-01 6.341692e-01 2.268590e-02 3.846725e-02 5.668386e-02 7.794041e-02 9.660240e-02 1.249079e-01 1.618085e-01 1.912083e-01 1.522783e-01 1.739564e-01 1.655521e-01 1.375236e-01 1.107834e-01
<GCONST> 9.052810e+01
<TRANSP> 7
 0.000000e+00 1.000000e+00 0.000000e+00 0.000000e+00 0.000000e+00 0.000000e+00 0.000000e+00
 0.000000e+00 7.911912e-01 2.088088e-01 0.000000e+00 0.000000e+00 0.000000e+00 0.000000e+00
 0.000000e+00 0.000000e+00 7.864095e-01 2.135905e-01 0.000000e+00 0.000000e+00 0.000000e+00
 0.000000e+00 0.000000e+00 0.000000e+00 9.235819e-01 7.641815e-02 0.000000e+00 0.000000e+00
 0.000000e+00 0.000000e+00 0.000000e+00 0.000000e+00 7.413766e-01 2.586234e-01 0.000000e+00
 0.000000e+00 0.000000e+00 0.000000e+00 0.000000e+00 0.000000e+00 8.457996e-01 1.542005e-01
 0.000000e+00 0.000000e+00 0.000000e+00 0.000000e+00 0.000000e+00 0.000000e+00 0.000000e+00
<ENDHMM>
~h "p"
<BEGINHMM>
<NUMSTATES> 5
<STATE> 2
<NUMMIXES> 2
<MIXTURE> 1 2.971945e-01
<MEAN> 39
 -2.519857e+01 -8.773755e+00 -7.674592e+00 -3.822067e+00 -1.904094e+00 4.117894e+00 -8.034513e-01 5.704263e-01 -7.023523e+00 -4.669922e+00 2.947067e+00 3.716874e+00 2.153863e+00 -3.354709e-02 -1.552958e-02 -2.858545e-02 -3.799452e-02 -2.450429e-02 -4.106663e-02 -7.867703e-02 -7.975925e-02 -7.107667e-02 1.241031e-02 2.587144e-02 4.007392e-02 3.321243e-02 3.640931e-02 2.713089e-02 4.171264e-02 5.569613e-02 4.255119e-02 4.477225e-02 4.710278e-02 5.601470e-02 4.143011e-02 2.608199e-02 -1.217830e-02 -1.478167e-02 1.036529e-02
<VARIANCE> 39
 2.275830e+00 1.174610e+01 1.240184e+01 1.366637e+01 1.196999e+01 2.016396e+01 1.468342e+01 1.456139e+01 4.416646e+01 2.390984e+01 1.703062e+01 2.912365e+01 1.081473e+01 1.423490e-01 4.173413e-01 5.910161e-01 6.765552e-01 7.223661e-01 1.103617e+00 1.191514e+00 1.201393e+00 1.546843e+00 1.165128e+00 1.185633e+00 1.088928e+00 7.924570e-01 2.835239e-02 7.103653e-02 9.239754e-02 9.799659e-02 1.172686e-01 1.944874e-01 2.214334e-01 1.969099e-01 2.341297e-01 1.757724e-01 1.931538e-01 1.658720e-01 1.143486e-01
<GCONST> 7.687585e+01
<MIXTURE> 2 7.028053e-01
<MEAN> 39
 -4.547251e+00 1.035943e+01 8.355155e+00 1.038053e+01 7.374151e+00 6.454657e+00 1.480956e+00 9.694136e+00 2.304255e+00 -2.561339e+00 -8.854070e-01 -8.060266e-01 4.521287e-01 -2.630082e+00 -1.100097e+00 -2.822973e-01 -7.614242e-01 -5.837152e-01 6.478817e-01 5.439205e-01 -4.059848e-01 -1.004855e-01 6.459483e-01 3.366886e-01 9.040261e-02 3.895973e-01 7.787106e-02 -6.293707e-01 -5.168264e-01 -1.101321e-01 -3.130883e-03 -1.395942e-01 -8.997279e-02 1.068791e-01 -3.826548e-02 -1.908828e-01 6.088918e-02 1.023338e-01 6.706840e-02
<VARIANCE> 39
 8.157289e+01 3.060003e+01 5.037972e+01 4.409604e+01 5.304020e+01 6.713017e+01 3.139664e+01 4.920244e+01 7.020667e+01 4.507130e+01 2.268292e+01 1.962539e+01 1.706779e+01 9.100748e-01 3.620916e+00 3.087205e+00 1.228061e+00 1.900042e+00 2.617583e+00 1.684892e+00 1.564723e+00 1.598001e+00 1.763587e+00 1.338969e+00 1.089547e+00 1.405545e+00 1.117405e-01 2.224391e-01 2.268720e-01 2.050986e-01 3.783136e-01 3.471751e-01 2.329415e-01 2.706214e-01 2.726814e-01 2.773382e-01 2.561913e-01 2.036411e-01 2.361990e-01
<GCONST> 1.080397e+02
<STATE> 3
<NUMMIXES> 2
<MIXTURE> 1 5.304627e-01
<MEAN> 39
 -1.827998e+01 -1.563526e+00 2.988846e-01 4.183381e+00 3.640328e+00 6.722283e+00 1.300698e+00 6.421915e+00 8.532408e-01 -9.209003e-01 4.175590e-01 9.971473e-02 2.557562e+00 1.025408e+00 -1.260564e+00 -7.882779e-01 4.940538e-01 1.149033e+00 1.044108e+00 5.948978e-01 1.001517e+00 3.489796e-01 -4.538637e-01 -1.449047e-01 4.127058e-01 1.155330e+00 8.533241e-01 7.739236e-02 1.098236e-01 2.399665e-01 2.259416e-01 3.921703e-02 -1.376340e-01 1.854928e-01 -1.072809e-03 -2.266156e-01 -6.178224e-02 -1.380105e-01 -1.875134e-02
<VARIANCE> 39
 4.915268e+01 3.640025e+01 3.122013e+01 3.480207e+01 3.969768e+01 3.876607e+01 2.513468e+01 2.821764e+01 2.733340e+01 2.412771e+01 1.601960e+01 1.234347e+01 1.498688e+01 5.815454e+00 6.719985e+00 5.341455e+00 4.384426e+00 4.769026e+00 3.769668e+00 3.525935e+00 3.461109e+00 3.210065e+00 2.875134e+00 2.311243e+00 2.093219e+00 2.305485e+00 2.491248e-01 3.094416e-01 4.207429e-01 3.535394e-01 4.103191e-01 4.094145e-01 4.139399e-01 3.821521e-01 3.708314e-01 3.831957e-01 3.650352e-01 3.300995e-01 4.027382e-01
<GCONST> 1.183174e+02
<MIXTURE> 2 4.695368e-01
<MEAN> 39
 -2.661392e+01 -6.046780e+00 -4.975938e+00 -2.969227e+00 -3.752453e+00 5.606390e-01 -3.583018e+00 9.042991e-01 -1.688380e+00 -4.660686e-01 3.526753e-01 -1.114090e+00 2.951961e-01 7.968414e-02 9.140007e-03 2.104982e-02 1.159925e-01 1.726350e-01 1.086290e-01 4.226575e-02 8.523990e-02 3.800909e-02 9.175733e-03 -1.216154e-02 5.748468e-02 1.216340e-01 2.423395e-01 8.812844e-02 1.335760e-01 2.107391e-01 2.530952e-01 2.348456e-01 1.783712e-01 1.845636e-01 7.782461e-02 -2.386418e-02 4.331177e-03 6.184711e-02 1.152180e-01
<VARIANCE> 39
 4.239191e-01 9.345328e-01 1.788247e+00 2.811971e+00 3.463378e+00 4.991488e+00 5.116288e+00 5.588288e+00 6.343098e+00 6.737947e+00 6.054960e+00 5.870472e+00 5.084754e+00 1.786762e-01 2.441342e-01 3.665934e-01 5.792549e-01 7.696598e-01 9.346234e-01 8.961490e-01 1.017734e+00 9.955686e-01 9.820198e-01 9.351034e-01 9.455442e-01 8.379518e-01 1.572960e-01 8.929566e-02 1.238847e-01 2.165014e-01 2.646020e-01 2.754366e-01 2.482831e-01 2.534399e-01 2.533049e-01 2.199107e-01 2.149866e-01 2.254089e-01 2.009922e-01
<GCONST> 6.130803e+01
<STATE> 4
<NUMMIXES> 2
<MIXTURE> 1 4.320889e-01
<MEAN> 39
 -9.242280e+00 -3.502337e+00 -1.769207e+00 8.706924e+00 1.029595e+01 1.021649e+01 2.090411e+00 1.010974e+01 2.514809e+00 -3.032112e+00 -6.819535e-01 8.614247e-01 6.678524e+00 3.601217e+00 -6.920770e-01 -8.250823e-01 3.776505e-01 6.553326e-01 -1.810280e-01 -1.022811e+00 7.019720e-01 -1.364229e-02 -8.900874e-01 3.169485e-01 -7.575452e-01 -3.725809e-01 3.947842e-01 5.370143e-02 -4.773455e-02 -4.706518e-01 -5.763699e-01 -5.362892e-01 -4.715159e-01 -1.360121e-01 -3.704146e-01 -2.837263e-01 3.452441e-01 -2.781235e-01 -6.681798e-01
<VARIANCE> 39
 3.785313e+01 1.554829e+01 1.198052e+01 1.933798e+01 3.060821e+01 4.237494e+01 3.994146e+01 2.551132e+01 2.985949e+01 2.417267e+01 1.981958e+01 1.848283e+01 1.323046e+01 1.952308e+00 1.318216e+00 9.241725e-01 1.867610e+00 2.453283e+00 3.029553e+00 2.585718e+00 2.285549e+00 2.252970e+00 2.215257e+00 2.492660e+00 1.928059e+00 2.141266e+00 1.854671e-01 2.175542e-01 2.634881e-01 2.633415e-01 3.819151e-01 4.749327e-01 4.245450e-01 3.940935e-01 4.341484e-01 4.677811e-01 3.686530e-01 3.288852e-01 2.494405e-01
<GCONST> 1.074089e+02
<MIXTURE> 2 5.679082e-01
<MEAN> 39
 3.484143e+00 -6.937590e+00 -4.321794e+00 4.199791e+00 5.764122e+00 6.753491e+00 -1.612393e+00 1.316894e+01 -5.197446e-01 -8.170493e+00 2.802448e+00 -3.168510e+00 1.683799e+00 2.629294e+00 1.038385e-01 -3.673129e-01 -2.654971e-01 -4.535619e-01 -1.268118e+00 -7.636356e-01 7.292309e-01 -3.353259e-01 -1.209134e+00 3.578780e-01 6.956778e-03 -7.229811e-01 -3.012755e-01 1.965614e-01 3.863649e-02 1.627013e-01 -1.148794e-03 -3.490123e-01 1.079775e-02 4.469213e-03 2.043727e-01 9.809824e-02 -2.042039e-01 3.121018e-01 1.001453e-01
<VARIANCE> 39
 1.176436e+02 7.274500e+01 7.269826e+01 4.603756e+01 6.322348e+01 1.501448e+02 8.758685e+01 6.538963e+01 6.814642e+01 4.965665e+01 4.117360e+01 3.105095e+01 1.883225e+01 5.506847e+00 3.187684e+00 2.678443e+00 1.814234e+00 2.829342e+00 9.288545e+00 3.540360e+00 3.468886e+00 4.280165e+00 3.818046e+00 3.205507e+00 1.751573e+00 1.575469e+00 2.219322e-01 4.050014e-01 4.174867e-01 2.998891e-01 3.150295e-01 7.204640e-01 4.861870e-01 4.542689e-01 5.556087e-01 5.315883e-01 5.520682e-01 2.806906e-01 2.250437e-01
<GCONST> 1.280155e+02
<TRANSP> 5
 0.000000e+00 1.000000e+00 0.000000e+00 0.000000e+00 0.000000e+00
 0.000000e+00 7.163177e-01 2.836823e-01 0.000000e+00 0.000000e+00
 0.000000e+00 0.000000e+00 8.176481e-01 1.823520e-01 0.000000e+00
 0.000000e+00 0.000000e+00 0.000000e+00 8.390248e-01 1.609752e-01
 0.000000e+00 0.000000e+00 0.000000e+00 0.000000e+00 0.000000e+00
<ENDHMM>
~h "q"
<BEGINHMM>
<NUMSTATES> 5
<STATE> 2
<NUMMIXES> 2
<MIXTURE> 1 6.073390e-01
<MEAN> 39
 1.067455e+01 3.274543e+00 4.411301e+00 1.946930e+01 1.853026e+01 1.108406e+00 -1.204462e+01 7.608072e+00 -2.130635e+00 -1.065070e+01 3.562276e+00 -2.519724e+00 -7.860339e+00 -6.365808e-01 9.986614e-01 9.272102e-01 8.103012e-01 4.337244e-01 6.748427e-01 4.067847e-01 -1.161856e+00 -1.630668e-01 6.273392e-01 -1.023159e+00 -4.642758e-01 3.322357e-01 3.109643e-03 -2.263804e-01 -1.196007e-01 -1.918546e-01 -1.312508e-01 -1.178132e-01 -9.022240e-02 1.608160e-01 -1.346731e-02 -1.154067e-01 1.769834e-01 7.722051e-02 3.227381e-03
<VARIANCE> 39
 1.047266e+02 5.996488e+01 5.074318e+01 5.846516e+01 6.409685e+01 6.935714e+01 1.179645e+02 9.850478e+01 6.184283e+01 8.246873e+01 1.076319e+02 3.339863e+01 3.802291e+01 9.500368e-01 1.752599e+00 1.426001e+00 2.677817e+00 2.722509e+00 1.731757e+00 3.344177e+00 2.917138e+00 1.450683e+00 2.200260e+00 2.629210e+00 1.236433e+00 1.721912e+00 7.811016e-02 1.710900e-01 1.794952e-01 2.033509e-01 2.407810e-01 2.310661e-01 3.999754e-01 3.382087e-01 2.055300e-01 3.064438e-01 3.593648e-01 1.902366e-01 1.718569e-01
<GCONST> 1.153775e+02
<MIXTURE> 2 3.926600e-01
<MEAN> 39
 1.534309e+01 4.817050e+00 5.705916e+00 2.373984e+01 1.536988e+01 -7.581705e+00 -1.097603e+01 1.427498e+01 4.231398e+00 -1.167207e+01 -4.619262e+00 -7.703989e+00 -1.340344e+01 -1.759407e-01 3.337830e-01 4.929327e-01 2.041031e-01 2.942114e-02 1.066941e-01 -8.983243e-02 -4.512848e-01 -1.233114e-01 3.070642e-01 3.438712e-02 -1.701750e-01 -3.434448e-02 -4.565755e-03 5.736370e-02 -9.550473e-03 -1.453454e-01 -1.101448e-01 4.881714e-02 8.073348e-02 1.255651e-02 8.477914e-03 6.945251e-03 -2.746596e-02 1.363635e-02 8.394127e-02
<VARIANCE> 39
 4.047852e+00 1.359380e+01 2.316756e+01 1.354390e+01 2.405001e+01 1.942439e+01 4.837128e+01 5.293890e+01 3.460644e+01 2.182059e+01 4.738525e+01 2.725314e+01 1.515864e+01 1.038466e-01 2.818404e-01 3.682771e-01 7.045448e-01 6.180296e-01 6.203425e-01 7.847957e-01 1.042532e+00 5.885015e-01 6.044852e-01 5.539949e-01 5.835938e-01 6.073806e-01 1.745063e-02 3.659186e-02 5.449378e-02 1.186918e-01 9.863012e-02 1.010891e-01 1.299659e-01 1.351535e-01 9.355824e-02 1.117728e-01 9.373905e-02 1.123747e-01 9.892219e-02
<GCONST> 7.076211e+01
<STATE> 3
<NUMMIXES> 2
<MIXTURE> 1 7.544729e-01
<MEAN> 39
 5.928408e+00 1.193030e+01 1.202864e+01 2.002349e+01 1.694975e+01 5.927653e+00 -7.613679e+00 1.121101e+00 -3.881330e+00 -6.232277e+00 -6.777980e-01 -4.946283e+00 -5.466243e+00 -9.726996e-01 5.144323e-01 5.635936e-01 -4.493632e-01 -6.304826e-01 7.032799e-01 1.275744e+00 3.127748e-01 1.184558e-01 3.487350e-01 -3.119026e-01 -1.538982e-02 3.973441e-01 -6.842751e-02 -1.940435e-01 -1.154875e-01 -6.606498e-02 -2.563734e-02 -3.532170e-02 -4.025278e-02 1.203522e-01 6.974066e-02 -3.289964e-03 1.424870e-01 9.334098e-02 -5.383279e-03
<VARIANCE> 39
 7.507922e+01 3.911324e+01 2.598405e+01 2.433010e+01 3.421879e+01 3.816305e+01 7.993622e+01 6.995766e+01 3.273647e+01 4.395969e+01 5.053746e+01 2.630160e+01 1.913625e+01 7.636863e-01 8.562066e-01 9.446542e-01 1.073897e+00 1.265741e+00 1.040567e+00 1.720399e+00 1.712063e+00 1.289892e+00 1.630278e+00 1.441175e+00 1.087358e+00 8.736520e-01 4.400174e-02 1.029341e-01 1.240754e-01 1.648056e-01 1.909853e-01 1.402049e-01 2.418354e-01 2.162676e-01 1.678294e-01 2.258087e-01 1.882166e-01 1.529219e-01 1.244513e-01
<GCONST> 9.657079e+01
<MIXTURE> 2 2.455223e-01
<MEAN> 39
 1.429547e+01 1.004409e+01 8.087046e+00 2.199373e+01 2.103675e+01 3.034631e+00 -1.478975e+01 -5.581738e+00 -4.707768e+00 -7.432440e+00 -5.167527e+00 -6.918805e+00 -4.544279e+00 -1.895384e-01 5.121700e-01 4.276046e-01 -1.010942e-01 -1.790437e-01 3.123485e-01 2.577300e-01 -1.617918e-01 -1.013555e-01 1.188158e-01 -2.424566e-01 -3.816563e-01 7.835408e-03 -3.609453e-02 8.639014e-03 2.799156e-02 -2.918337e-03 -2.996702e-02 1.635797e-02 5.000494e-02 1.386127e-01 -2.662940e-02 -9.304593e-02 5.831013e-02 2.208481e-02 -4.813142e-02
<VARIANCE> 39
 2.868138e+00 1.754484e+01 2.082892e+01 1.621874e+01 3.621237e+01 2.920954e+01 3.927163e+01 5.906472e+01 2.179815e+01 3.151774e+01 2.937281e+01 2.257922e+01 1.873224e+01 8.300811e-02 2.803959e-01 2.148378e-01 4.299673e-01 5.473766e-01 3.927425e-01 6.964676e-01 5.206582e-01 3.814203e-01 5.156430e-01 3.490660e-01 4.744836e-01 3.045794e-01 1.483130e-02 4.255538e-02 3.298351e-02 8.025886e-02 1.148611e-01 5.620255e-02 1.358200e-01 7.913484e-02 6.926888e-02 1.021784e-01 5.932170e-02 8.224873e-02 5.734871e-02
<GCONST> 6.277370e+01
<STATE> 4
<NUMMIXES> 2
<MIXTURE> 1 6.022112e-01
<MEAN> 39
 -2.653390e+01 -6.522940e+00 -5.285470e+00 -2.947547e+00 -3.513897e+00 1.042802e+00 -3.349038e+00 9.906833e-01 -2.141921e+00 -9.172243e-01 7.852023e-01 -4.427338e-01 6.606247e-01 -7.670868e-03 -1.122463e-02 -1.666859e-02 -1.500432e-02 -1.421788e-02 -3.080389e-03 3.650408e-03 -5.783903e-03 -7.231758e-03 4.610383e-03 -1.035300e-02 -6.170050e-03 7.104479e-03 2.578664e-02 2.460349e-02 3.025627e-02 3.585482e-02 3.567409e-02 3.183293e-02 2.875563e-02 2.534405e-02 1.295019e-02 9.900128e-03 1.535561e-02 1.312280e-02 5.552280e-03
<VARIANCE> 39
 7.963724e-01 2.214708e+00 2.665786e+00 2.983832e+00 4.528247e+00 6.823276e+00 6.455842e+00 6.813341e+00 1.238461e+01 1.017742e+01 7.511182e+00 1.002858e+01 5.963572e+00 8.132823e-02 1.782792e-01 2.882405e-01 4.157130e-01 5.647157e-01 7.490876e-01 8.533831e-01 8.966015e-01 1.112826e+00 1.077345e+00 9.629033e-01 9.638906e-01 7.884144e-01 2.437941e-02 4.282366e-02 7.149561e-02 1.037253e-01 1.379355e-01 1.751838e-01 1.968299e-01 2.011615e-01 2.351965e-01 2.278182e-01 2.054524e-01 2.041583e-01 1.690537e-01
<GCONST> 5.826644e+01
<MIXTURE> 2 3.977876e-01
<MEAN> 39
 -1.176592e+01 4.235439e+00 7.408804e+00 1.227999e+01 1.072571e+01 9.525258e+00 1.860865e+00 8.943792e+00 2.141807e+00 5.892697e-01 5.071741e+00 1.466798e+00 -2.380050e-01 -1.208477e+00 -7.912748e-01 -8.731819e-01 -1.301220e+00 -1.231041e+00 -4.118977e-01 -9.186753e-02 -4.647281e-01 -1.688615e-01 6.431521e-02 -2.968870e-01 -8.577492e-02 2.530297e-01 5.975468e-02 -6.753117e-02 -5.209244e-02 1.351358e-02 1.990739e-03 -1.139494e-01 -1.656277e-01 -7.219064e-02 -6.401689e-02 -9.003019e-02 -3.431717e-02 -5.506059e-02 -6.784479e-02
<VARIANCE> 39
 1.210607e+02 5.664974e+01 5.595558e+01 7.839455e+01 7.013364e+01 4.994488e+01 6.384525e+01 6.233852e+01 5.226810e+01 5.882226e+01 4.299869e+01 3.211582e+01 2.574766e+01 1.341642e+00 1.430954e+00 2.010387e+00 2.402856e+00 2.615306e+00 2.701678e+00 2.803843e+00 2.654906e+00 2.209512e+00 2.115094e+00 1.807454e+00 1.432620e+00 1.052921e+00 1.305106e-01 1.648948e-01 2.327334e-01 2.959009e-01 3.382011e-01 3.105912e-01 2.999148e-01 2.897683e-01 2.700293e-01 2.658499e-01 2.425550e-01 1.904999e-01 1.464792e-01
<GCONST> 1.137514e+02
<TRANSP> 5
 0.000000e+00 1.000000e+00 0.000000e+00 0.000000e+00 0.000000e+00
 0.000000e+00 6.979226e-01 3.020774e-01 0.000000e+00 0.000000e+00
 0.000000e+00 0.000000e+00 8.055437e-01 1.944563e-01 0.000000e+00
 0.000000e+00 0.000000e+00 0.000000e+00 9.059154e-01 9.408455e-02
 0.000000e+00 0.000000e+00 0.000000e+00 0.000000e+00 0.000000e+00
<ENDHMM>
~h "r"
<BEGINHMM>
<NUMSTATES> 5
<STATE> 2
<NUMMIXES> 2
<MIXTURE> 1 9.273780e-01
<MEAN> 39
 2.168880e+01 -4.677682e+00 -1.269541e+01 3.439734e+00 1.511573e+01 6.952552e-01 -1.617437e+01 7.345237e+00 -6.619213e+00 -1.618540e+01 6.495337e+00 1.852774e+00 1.400591e+00 -8.152062e-01 1.472845e+00 4.869605e-01 3.126841e-01 2.138358e-01 1.772040e+00 1.801167e+00 -1.534061e+00 3.334096e-01 1.015317e+00 -2.080689e+00 -9.691995e-02 5.725825e-01 -3.752507e-01 1.997916e-01 5.166778e-01 1.908566e-01 -3.230837e-01 2.944176e-02 5.143558e-01 1.879589e-01 7.032928e-02 1.696807e-01 -1.284383e-01 -6.382993e-02 -7.743322e-03
<VARIANCE> 39
 1.524698e+01 2.506781e+01 4.522173e+01 3.237754e+01 4.160544e+01 3.102303e+01 5.941508e+01 4.377690e+01 3.285413e+01 5.038964e+01 5.597036e+01 3.460265e+01 2.470032e+01 1.479519e+00 1.194172e+00 2.374363e+00 1.089472e+00 1.621085e+00 1.672700e+00 4.002923e+00 2.658678e+00 1.564801e+00 2.255801e+00 2.354555e+00 1.150745e+00 9.915656e-01 1.413023e-01 1.235690e-01 2.377031e-01 1.684725e-01 1.561528e-01 2.053938e-01 3.934567e-01 4.829326e-01 1.630809e-01 3.335433e-01 3.827857e-01 1.833078e-01 1.506368e-01
<GCONST> 1.054306e+02
<MIXTURE> 2 7.262117e-02
<MEAN> 39
 1.867501e+01 -5.541483e+00 -1.972703e+00 1.240261e+01 1.404279e+01 1.269316e+00 -1.390648e+01 6.763856e+00 -1.174853e+01 -2.121213e+01 9.585903e+00 7.947036e-01 -7.773257e+00 3.498697e-01 8.899703e-02 -6.570820e-01 -1.071352e-01 4.379789e-01 -2.461011e-01 -2.521058e-01 4.194693e-02 1.315062e-02 -3.869706e-01 -2.720182e-01 1.135360e-01 -5.448923e-02 -1.184927e-02 9.009188e-02 -9.204403e-02 -4.574752e-02 1.266618e-01 1.311982e-01 2.933043e-02 -3.201725e-02 6.634720e-02 4.573441e-02 -1.897498e-01 -2.096437e-02 1.332611e-01
<VARIANCE> 39
 7.647038e+00 2.023056e+01 1.866303e+01 2.538789e+01 4.611732e+01 4.437204e+01 1.216880e+02 7.335374e+01 2.200507e+01 5.145757e+01 5.208305e+01 2.347593e+01 4.160107e+01 2.905484e-01 3.565866e-01 5.241725e-01 4.857863e-01 6.446775e-01 6.081744e-01 1.558329e+00 1.136136e+00 5.385902e-01 1.080665e+00 1.228415e+00 5.980502e-01 7.383299e-01 5.078571e-02 4.821400e-02 6.943940e-02 7.164405e-02 4.755381e-02 7.498690e-02 1.638958e-01 1.230568e-01 7.292037e-02 9.786372e-02 1.375184e-01 7.250120e-02 8.369729e-02
<GCONST> 7.942917e+01
<STATE> 3
<NUMMIXES> 2
<MIXTURE> 1 9.525774e-01
<MEAN> 39
 1.575161e+01 2.473590e+00 -5.722432e+00 6.989690e+00 1.247943e+01 6.838528e+00 -4.360378e+00 5.136639e+00 -6.962472e+00 -1.329801e+01 -4.972043e-01 7.366688e-01 2.485907e+00 -4.867939e-01 3.881828e-01 7.353405e-01 4.332061e-01 -9.063895e-02 5.415360e-01 7.947513e-01 1.957400e-01 -5.658642e-01 -3.456094e-01 1.501829e-01 1.126240e-01 -2.463419e-01 2.416111e-01 -4.434705e-01 -2.774174e-01 -8.812943e-02 1.951487e-01 -2.647041e-01 -6.179996e-01 1.622723e-01 -1.863994e-01 -3.436125e-01 5.269194e-01 1.024721e-01 -1.897215e-01
<VARIANCE> 39
 1.688088e+01 2.196464e+01 2.877826e+01 3.964865e+01 3.656710e+01 2.345521e+01 3.926042e+01 2.823893e+01 3.440285e+01 3.852800e+01 3.613914e+01 2.223828e+01 2.081635e+01 3.089313e+00 3.374751e+00 3.924498e+00 1.792577e+00 2.426645e+00 2.421910e+00 5.236102e+00 2.495826e+00 3.709700e+00 5.134350e+00 4.499300e+00 1.719541e+00 1.984945e+00 5.370612e-01 4.930530e-01 5.988425e-01 2.595031e-01 2.866793e-01 3.578911e-01 6.831250e-01 4.772003e-01 7.135097e-01 9.279224e-01 7.556080e-01 2.517963e-01 2.860885e-01
<GCONST> 1.197155e+02
<MIXTURE> 2 4.742195e-02
<MEAN> 39
 -5.599766e-01 -2.327355e+01 1.482404e+01 1.020233e+01 5.004931e+00 1.817331e+01 -1.901650e+00 4.611983e+00 -1.088334e+01 -1.327742e+01 6.092732e+00 2.582705e+00 2.532628e+00 -5.099658e-01 -5.329535e-01 8.144246e-01 -1.376948e-01 -2.027321e-01 4.100241e-01 4.331890e-02 1.763965e-01 1.540577e-01 1.610505e-01 -3.340836e-02 1.662824e-02 1.927883e-01 2.278829e-02 1.666182e-01 -1.413134e-01 -2.371614e-01 1.182363e-01 -4.807708e-02 -1.013282e-01 4.127350e-02 4.365928e-02 9.564313e-02 -6.368493e-02 -5.641828e-02 -1.805172e-02
<VARIANCE> 39
 2.076574e+02 1.949693e+02 2.375826e+02 2.183847e+02 1.159528e+02 9.719854e+01 1.128896e+02 7.935637e+01 8.162282e+01 6.986777e+01 6.308749e+01 1.818611e+01 5.707544e+01 4.587179e+00 7.120272e+00 1.072829e+01 4.102819e+00 3.289138e+00 5.934012e+00 2.729659e+00 4.047550e+00 2.867418e+00 4.101464e+00 3.159072e+00 1.645175e+00 1.313812e+00 2.134236e-01 3.275992e-01 4.033735e-01 3.782226e-01 3.251933e-01 3.588203e-01 4.006703e-01 3.421533e-01 3.776404e-01 4.839314e-01 3.848406e-01 2.700888e-01 1.622050e-01
<GCONST> 1.338830e+02
<STATE> 4
<NUMMIXES> 2
<MIXTURE> 1 5.818892e-01
<MEAN> 39
 7.353642e+00 5.209232e+00 -1.444481e+00 5.069886e+00 9.702486e+00 1.006738e+01 -1.512642e-01 5.878635e+00 -5.203401e+00 -1.025317e+01 -9.998907e-01 1.396059e-01 2.382161e+00 -1.307681e+00 1.622695e-01 6.569152e-01 -1.171046e-01 -2.003313e-01 3.344316e-01 1.548285e-01 -2.170864e-01 3.117483e-01 5.684359e-01 -7.367198e-02 1.799699e-02 8.207037e-02 7.038347e-02 -2.159550e-01 -1.042463e-01 -3.236777e-02 1.089795e-02 -1.381270e-01 -1.962406e-01 9.026286e-02 -7.318105e-02 -1.365287e-01 1.586785e-01 3.015858e-03 -6.018838e-02
<VARIANCE> 39
 1.769065e+02 5.893753e+01 7.713821e+01 5.309847e+01 4.677920e+01 3.940541e+01 5.884101e+01 3.524800e+01 3.675235e+01 4.099327e+01 3.461827e+01 3.595759e+01 3.275963e+01 3.706151e+00 1.986237e+00 3.161854e+00 1.580716e+00 1.562643e+00 2.242468e+00 3.001653e+00 1.716080e+00 2.045630e+00 2.614272e+00 1.989902e+00 1.289932e+00 1.441690e+00 1.896008e-01 1.645468e-01 2.560233e-01 1.822096e-01 1.418529e-01 1.823804e-01 2.455831e-01 2.625518e-01 3.049556e-01 3.193821e-01 2.284531e-01 1.664382e-01 1.534139e-01
<GCONST> 1.114191e+02
<MIXTURE> 2 4.181077e-01
<MEAN> 39
 2.014881e+01 -5.231067e+00 -9.552556e+00 8.100763e+00 2.173670e+01 5.343062e+00 -1.772419e+01 6.892215e+00 -1.333784e+01 -2.275874e+01 1.168661e+01 2.644443e+00 -5.023607e+00 3.054002e-01 -1.029507e+00 -1.789616e-01 2.144126e-01 7.292532e-01 -7.290426e-01 -1.627234e+00 5.620444e-01 -4.200607e-01 -7.334393e-01 1.619799e+00 1.991484e-01 -7.715884e-01 -2.381009e-01 2.193242e-01 2.494437e-01 -2.872188e-02 -2.375222e-01 2.732363e-02 2.867338e-01 -3.674924e-02 3.101951e-01 4.015288e-01 -3.038054e-01 -1.367312e-01 1.320633e-01
<VARIANCE> 39
 1.071378e+01 2.132897e+01 3.131874e+01 8.334700e+01 3.785333e+01 3.931476e+01 6.093680e+01 4.483948e+01 3.177803e+01 3.244496e+01 6.249097e+01 1.525711e+01 3.493013e+01 1.068620e+00 1.392151e+00 1.431499e+00 1.261414e+00 1.444352e+00 1.267938e+00 3.038125e+00 2.596505e+00 1.830359e+00 2.702102e+00 3.024504e+00 9.187915e-01 1.484714e+00 1.121401e-01 1.286717e-01 1.594614e-01 1.149705e-01 1.395752e-01 1.473599e-01 3.070343e-01 2.881265e-01 2.026176e-01 3.268848e-01 2.652870e-01 1.402119e-01 1.289559e-01
<GCONST> 1.016193e+02
<TRANSP> 5
 0.000000e+00 1.000000e+00 0.000000e+00 0.000000e+00 0.000000e+00
 0.000000e+00 6.991339e-01 3.008661e-01 0.000000e+00 0.000000e+00
 0.000000e+00 0.000000e+00 7.762789e-01 2.237211e-01 0.000000e+00
 0.000000e+00 0.000000e+00 0.000000e+00 7.580166e-01 2.419834e-01
 0.000000e+00 0.000000e+00 0.000000e+00 0.000000e+00 0.000000e+00
<ENDHMM>
~h "s"
<BEGINHMM>
<NUMSTATES> 5
<STATE> 2
<NUMMIXES> 2
<MIXTURE> 1 5.962263e-01
<MEAN> 39
 -4.766124e+00 -1.791601e+01 2.758329e+01 1.830565e+00 3.307049e+00 2.370830e+01 -3.741827e+00 4.550754e+00 -1.165606e+01 -7.842793e+00 7.469669e+00 -1.512282e+00 1.604154e+00 -2.617855e+00 -2.096468e+00 2.573766e+00 -1.765932e+00 -7.395565e-01 1.147858e+00 5.449753e-01 1.060469e+00 -5.185034e-01 9.951102e-01 9.072664e-01 5.148716e-01 9.644624e-01 -5.342161e-02 -8.537646e-03 -3.598123e-01 -1.196228e-01 -4.232413e-02 -4.119683e-01 -2.014755e-01 9.415567e-02 8.202270e-02 1.926038e-03 8.832178e-02 2.960602e-02 -7.214120e-02
<VARIANCE> 39
 1.362060e+02 1.219220e+02 2.740671e+02 1.270208e+02 8.389165e+01 1.264068e+02 7.344380e+01 1.195059e+02 6.058061e+01 6.121354e+01 5.450293e+01 2.761468e+01 4.085420e+01 3.398861e+00 3.024928e+00 7.620788e+00 2.944841e+00 2.596681e+00 4.188714e+00 3.015326e+00 3.899994e+00 2.875369e+00 2.845867e+00 2.309359e+00 1.712709e+00 1.537626e+00 3.123486e-01 3.718373e-01 8.600353e-01 3.304076e-01 4.290294e-01 5.132961e-01 3.762205e-01 6.385514e-01 4.131670e-01 4.329986e-01 3.997580e-01 2.971194e-01 2.176199e-01
<GCONST> 1.319194e+02
<MIXTURE> 2 4.037713e-01
<MEAN> 39
 -2.119263e+01 -2.942889e+01 3.814894e+01 -1.315854e+01 -3.368870e+00 2.447457e+01 -5.897203e+00 9.286963e+00 -1.261642e+01 -2.028649e-01 1.333390e+01 1.373757e+00 6.683043e+00 -1.299960e+00 -5.745016e-01 -5.475038e-01 -1.980713e+00 -1.725188e+00 -1.769662e+00 -1.195097e+00 -1.608146e-01 -2.553985e-01 -2.408516e-01 -5.809277e-01 -5.391263e-01 -9.404045e-02 3.695312e-01 2.937106e-01 -1.508115e-02 3.004299e-01 1.742425e-01 7.880072e-02 9.900456e-03 -2.151436e-01 -1.434262e-01 -2.675536e-01 -2.489608e-01 -1.993897e-01 -1.736471e-01
<VARIANCE> 39
 1.578779e+01 2.772949e+01 2.308546e+01 4.174067e+01 4.233238e+01 4.830565e+01 3.567649e+01 3.545366e+01 3.202646e+01 2.162842e+01 2.164180e+01 1.814332e+01 1.280227e+01 1.509796e+00 1.806239e+00 1.741756e+00 1.893280e+00 1.613422e+00 1.819972e+00 1.244834e+00 1.781039e+00 1.901051e+00 1.765326e+00 1.831188e+00 1.723836e+00 1.112841e+00 1.717292e-01 2.065788e-01 2.917106e-01 2.444890e-01 2.902204e-01 4.159888e-01 2.818140e-01 3.100359e-01 2.991526e-01 2.946861e-01 3.198647e-01 3.024370e-01 1.861326e-01
<GCONST> 1.040186e+02
<STATE> 3
<NUMMIXES> 2
<MIXTURE> 1 8.956751e-02
<MEAN> 39
 -2.258147e+01 -2.711901e+01 1.793644e+01 -7.627577e+00 -7.024794e+00 1.343839e+01 -4.094398e+00 7.080474e+00 -1.319439e+01 -7.817547e+00 9.631175e+00 3.291638e+00 4.466941e+00 1.780600e-01 -2.312332e-01 7.636908e-01 -2.307028e-01 -1.270444e-01 1.157722e-01 -3.207603e-01 2.096055e-01 -1.006815e-01 -7.908964e-02 6.985009e-02 -8.759431e-02 1.379117e-02 1.795817e-01 2.996812e-01 -5.192518e-02 3.150542e-02 9.685785e-03 -7.538323e-02 1.803877e-02 -1.615184e-02 1.760899e-01 7.607897e-02 -1.678112e-01 -1.897315e-01 -1.085862e-01
<VARIANCE> 39
 6.335761e+01 1.572296e+02 3.592656e+02 6.531602e+01 4.966539e+01 8.111166e+01 3.987386e+01 8.201797e+01 5.432998e+01 4.944267e+01 4.836642e+01 2.518639e+01 2.721046e+01 1.631679e+00 3.192642e+00 7.411824e+00 1.764777e+00 1.748287e+00 3.458665e+00 1.873970e+00 2.240604e+00 2.596027e+00 2.645423e+00 2.040292e+00 2.207461e+00 1.331716e+00 2.396476e-01 3.655514e-01 4.902931e-01 1.889863e-01 2.100747e-01 3.532614e-01 2.589477e-01 3.399850e-01 3.756934e-01 4.138004e-01 3.242179e-01 3.199375e-01 2.382834e-01
<GCONST> 1.214133e+02
<MIXTURE> 2 9.104339e-01
<MEAN> 39
 -2.404619e+01 -2.868596e+01 3.586790e+01 -1.714610e+01 -8.590864e+00 1.753156e+01 -9.186218e+00 8.500825e+00 -1.407640e+01 -3.046264e+00 9.255672e+00 -1.998275e+00 5.174195e+00 -1.755591e-02 -1.060991e-01 -5.213433e-02 -1.242307e-01 8.843479e-02 1.195570e-02 -7.406509e-02 -4.648958e-02 -1.297648e-01 5.311487e-02 1.717164e-02 -7.347173e-02 7.708194e-03 4.393382e-02 -8.180134e-02 -7.521271e-02 9.246793e-02 1.228847e-01 1.332795e-01 7.901669e-02 8.926731e-03 2.241012e-02 7.292913e-02 1.254056e-01 1.238886e-01 6.559062e-02
<VARIANCE> 39
 9.777371e+00 4.573203e+01 7.743758e+01 3.866026e+01 2.166869e+01 3.624873e+01 3.153641e+01 2.446490e+01 4.358322e+01 2.304694e+01 2.653736e+01 1.976393e+01 1.132730e+01 9.351406e-01 1.158572e+00 8.686172e-01 5.626031e-01 4.939909e-01 7.207270e-01 5.654822e-01 9.109172e-01 1.562732e+00 1.575050e+00 1.797844e+00 1.628273e+00 9.183683e-01 1.777247e-01 1.829046e-01 1.519663e-01 1.024163e-01 8.847205e-02 1.297121e-01 1.128935e-01 1.647768e-01 2.818510e-01 2.974634e-01 3.427379e-01 3.163401e-01 1.744705e-01
<GCONST> 9.177084e+01
<STATE> 4
<NUMMIXES> 2
<MIXTURE> 1 5.323833e-01
<MEAN> 39
 -1.324233e+01 -2.418390e+01 2.361763e+01 -6.823885e+00 -1.336601e+00 2.043389e+01 -4.541455e+00 5.614166e+00 -1.088796e+01 -2.482547e+00 8.482618e+00 -1.063420e+00 5.106524e+00 2.733874e+00 2.762722e+00 -2.620786e+00 2.613138e+00 1.073943e+00 -7.984995e-01 7.153513e-02 -1.105904e-01 1.697377e+00 -5.266474e-01 -8.553861e-01 -3.087060e-01 -6.343899e-01 1.675812e-01 5.505107e-02 -3.589158e-01 9.122883e-02 2.086405e-02 -4.616615e-01 -3.640492e-01 1.619750e-01 -1.821206e-02 -3.828257e-01 4.404046e-02 -4.506369e-02 -1.961451e-01
<VARIANCE> 39
 1.044299e+02 9.855791e+01 8.713250e+01 9.048061e+01 6.849137e+01 7.231651e+01 9.179164e+01 8.868206e+01 7.716877e+01 4.500519e+01 3.104811e+01 2.533641e+01 2.232386e+01 8.709738e+00 3.761490e+00 5.034143e+00 3.254143e+00 1.794608e+00 4.294377e+00 4.289634e+00 3.027199e+00 3.352885e+00 3.328132e+00 1.530974e+00 1.638716e+00 1.475346e+00 6.204212e-01 8.253757e-01 7.783480e-01 4.106323e-01 2.363459e-01 7.187974e-01 7.624780e-01 4.806326e-01 6.813318e-01 6.500005e-01 3.889661e-01 2.986015e-01 2.688456e-01
<GCONST> 1.310724e+02
<MIXTURE> 2 4.676145e-01
<MEAN> 39
 -2.262992e+01 -3.264064e+01 3.343439e+01 -1.864359e+01 -3.343676e+00 2.321349e+01 -1.098239e+01 4.137726e+00 -1.591746e+01 5.599231e-01 1.237211e+01 -1.106283e+00 5.892419e+00 8.757718e-01 -1.097258e-01 -1.017458e+00 7.937611e-01 8.335940e-01 5.795873e-01 4.458309e-01 -7.459592e-01 -2.237685e-01 3.439882e-01 3.244358e-01 3.070631e-01 1.180542e-01 4.301564e-01 5.104821e-01 -1.925579e-01 4.277799e-01 1.233937e-01 -6.188557e-02 1.751459e-01 -5.473674e-02 2.129806e-01 -7.056885e-02 -1.948878e-01 -5.986952e-02 -1.022734e-01
<VARIANCE> 39
 1.524949e+01 2.904930e+01 2.065155e+01 2.507264e+01 2.416335e+01 2.169036e+01 3.396366e+01 3.405061e+01 3.420674e+01 2.377860e+01 2.135810e+01 1.599742e+01 1.300050e+01 2.230743e+00 2.552725e+00 1.349965e+00 1.637045e+00 1.182143e+00 1.438798e+00 1.262011e+00 1.438082e+00 1.910600e+00 1.527362e+00 1.598406e+00 1.515096e+00 1.010320e+00 3.355898e-01 4.427446e-01 2.630709e-01 2.395349e-01 1.607885e-01 2.191880e-01 2.009774e-01 2.522241e-01 3.736067e-01 2.766630e-01 2.980656e-01 2.855138e-01 1.823308e-01
<GCONST> 1.006267e+02
<TRANSP> 5
 0.000000e+00 1.000000e+00 0.000000e+00 0.000000e+00 0.000000e+00
 0.000000e+00 9.118661e-01 8.813396e-02 0.000000e+00 0.000000e+00
 0.000000e+00 0.000000e+00 9.037135e-01 9.628656e-02 0.000000e+00
 0.000000e+00 0.000000e+00 0.000000e+00 8.878701e-01 1.121299e-01
 0.000000e+00 0.000000e+00 0.000000e+00 0.000000e+00 0.000000e+00
<ENDHMM>
~h "t"
<BEGINHMM>
<NUMSTATES> 5
<STATE> 2
<NUMMIXES> 2
<MIXTURE> 1 5.539886e-01
<MEAN> 39
 -2.656761e+01 -6.271796e+00 -5.099360e+00 -3.010340e+00 -3.617147e+00 8.749372e-01 -3.515996e+00 1.132999e+00 -1.682213e+00 -6.392785e-01 5.617558e-01 -8.489984e-01 4.662472e-01 1.914198e-02 -2.408437e-02 -4.321152e-02 3.884724e-03 5.854621e-02 6.079358e-02 1.363718e-02 2.504118e-03 3.710700e-03 -1.571360e-02 -3.732515e-02 -1.931219e-03 4.352647e-02 1.635494e-01 4.238971e-02 6.677248e-02 1.533994e-01 1.924885e-01 1.704094e-01 1.018501e-01 7.606117e-02 1.178661e-02 -2.022584e-02 5.519522e-03 6.811003e-02 1.122422e-01
<VARIANCE> 39
 5.694202e-01 1.372299e+00 1.966521e+00 2.986008e+00 3.715985e+00 5.021668e+00 5.860698e+00 7.155936e+00 8.942331e+00 7.504272e+00 6.459095e+00 6.540430e+00 5.743843e+00 1.155194e-01 2.024342e-01 3.025174e-01 4.581583e-01 6.037866e-01 7.979934e-01 8.761663e-01 9.946501e-01 1.114607e+00 1.064875e+00 9.883026e-01 9.407539e-01 8.464863e-01 8.990901e-02 5.097781e-02 7.772740e-02 1.545306e-01 2.048651e-01 2.101836e-01 1.910850e-01 2.192560e-01 2.339110e-01 2.187437e-01 1.988044e-01 1.902619e-01 1.956940e-01
<GCONST> 5.888995e+01
<MIXTURE> 2 4.460116e-01
<MEAN> 39
 -4.165958e+00 2.589564e+00 3.857784e+00 8.813356e+00 6.380381e+00 4.936444e+00 -1.394708e+00 7.858380e+00 -2.595468e+00 -5.876398e+00 3.012467e+00 1.217403e+00 2.645612e+00 -1.369785e+00 -6.539934e-01 -4.491349e-01 -6.112993e-01 -5.595620e-01 -1.424205e-01 1.986101e-04 -2.719037e-01 1.926386e-01 3.445825e-01 -1.763727e-01 -2.013676e-03 1.630897e-01 1.319811e-01 -2.177856e-01 -1.835769e-01 -3.409575e-02 -5.499077e-03 -1.085067e-01 -1.006190e-01 8.386166e-02 4.510559e-02 -1.185880e-02 4.564596e-02 -5.615547e-02 -4.349123e-02
<VARIANCE> 39
 1.848864e+02 9.062980e+01 5.438961e+01 5.054187e+01 5.936877e+01 1.441442e+02 9.311754e+01 9.888950e+01 7.720130e+01 7.743429e+01 6.108260e+01 3.746353e+01 6.273272e+01 3.200913e+00 4.015093e+00 2.837723e+00 1.894690e+00 2.422350e+00 3.317390e+00 2.993228e+00 2.974613e+00 3.366135e+00 2.719763e+00 2.633630e+00 1.856832e+00 1.927723e+00 2.257185e-01 3.189768e-01 2.786115e-01 2.429290e-01 2.990494e-01 3.852588e-01 3.645198e-01 3.886496e-01 4.985209e-01 4.106259e-01 4.065547e-01 2.627742e-01 2.613179e-01
<GCONST> 1.264353e+02
<STATE> 3
<NUMMIXES> 2
<MIXTURE> 1 2.965039e-02
<MEAN> 39
 1.053257e+01 -1.610152e+01 3.728309e+00 1.533216e+01 2.446071e+00 3.934117e+00 3.200007e+00 1.255903e+01 -1.126476e+01 -8.939271e+00 1.129554e+01 -7.457805e+00 -5.963975e-01 2.439112e+00 2.091136e+00 3.579394e-01 -3.961509e-02 1.254025e-01 -2.332408e+00 -2.420040e+00 4.264115e-01 1.212352e+00 -2.335545e+00 -2.491415e+00 -4.209628e-01 -1.222920e+00 2.321825e-01 -4.649614e-02 -5.331327e-01 -1.706844e-01 2.897415e-01 -7.146741e-01 -7.047935e-01 6.677264e-01 2.604211e-01 -7.127857e-01 -1.436249e-01 5.931711e-02 -4.146327e-01
<VARIANCE> 39
 4.023949e+01 2.496471e+01 1.523456e+01 1.854826e+01 1.669629e+01 3.757696e+01 2.508638e+01 2.553336e+01 9.100744e+01 4.994404e+01 4.897269e+01 2.743070e+01 1.741703e+01 8.911873e-01 5.042818e+00 1.225258e+00 1.191585e+00 2.067351e+00 4.715871e+00 2.819609e+00 1.848182e+00 3.784068e+00 2.230798e+00 4.888811e+00 2.026006e+00 2.342510e+00 1.309576e-01 9.933043e-02 1.705327e-01 8.182271e-02 1.090208e-01 3.287015e-01 2.340691e-01 3.025001e-01 2.864408e-01 1.390622e-01 1.895616e-01 1.450196e-01 1.320577e-01
<GCONST> 1.032738e+02
<MIXTURE> 2 9.703499e-01
<MEAN> 39
 -1.782835e+01 -4.654445e+00 -2.499152e+00 3.978591e+00 4.346798e+00 6.632776e+00 -6.735332e-01 4.227217e+00 -3.536527e-01 -1.490580e+00 -1.221920e-01 8.723310e-01 5.324022e+00 2.735124e+00 -6.920489e-01 -5.177543e-02 1.179886e+00 1.119259e+00 6.725379e-01 -6.146666e-02 6.666641e-01 5.102662e-01 2.416635e-01 1.842016e-01 -1.364670e-01 9.575842e-01 6.704378e-01 -1.798670e-01 8.904584e-02 -4.110632e-02 -2.038557e-01 -8.821018e-02 -2.348679e-01 2.956843e-02 -1.098511e-01 6.628758e-02 4.047469e-01 -3.201323e-01 -2.800640e-01
<VARIANCE> 39
 4.760331e+01 1.423327e+01 1.342841e+01 3.015907e+01 3.530411e+01 2.426456e+01 1.809168e+01 2.075666e+01 1.963861e+01 1.626633e+01 1.261191e+01 1.190389e+01 2.182765e+01 3.124795e+00 2.225289e+00 2.035288e+00 3.082763e+00 4.637387e+00 3.513294e+00 3.025681e+00 2.587814e+00 2.649986e+00 2.841293e+00 2.281885e+00 2.345269e+00 2.437572e+00 3.262143e-01 2.497435e-01 2.778417e-01 6.738809e-01 8.769195e-01 5.818304e-01 4.659584e-01 4.298873e-01 5.692684e-01 4.592674e-01 4.207702e-01 3.621515e-01 6.104296e-01
<GCONST> 1.137736e+02
<STATE> 4
<NUMMIXES> 2
<MIXTURE> 1 8.024834e-01
<MEAN> 39
 4.663338e-02 -1.064566e+01 -2.148354e+00 6.553441e+00 5.045001e+00 8.134093e+00 -3.283553e+00 6.787924e+00 -2.603224e+00 -1.826027e+00 6.830549e+00 -3.665857e+00 4.999534e+00 3.380847e+00 -1.134841e+00 7.722616e-03 -1.970374e-01 -2.081132e-02 6.695244e-02 -1.068026e+00 2.398196e-01 -1.842793e+00 -1.417342e+00 2.164430e+00 -6.375656e-01 -1.057040e+00 -9.645966e-02 2.652877e-01 9.329681e-02 1.017879e-01 3.695495e-01 -1.328489e-02 -1.074368e-01 -3.404573e-02 -4.040099e-01 -6.094139e-01 4.887946e-03 3.325092e-01 -1.255451e-01
<VARIANCE> 39
 6.089586e+01 3.359133e+01 2.068524e+01 2.647653e+01 4.074293e+01 5.566327e+01 3.998210e+01 4.292342e+01 6.094110e+01 4.535111e+01 4.475303e+01 2.885280e+01 2.899332e+01 3.154708e+00 3.455687e+00 1.454316e+00 1.916538e+00 3.002910e+00 3.967265e+00 3.099823e+00 2.488558e+00 5.721170e+00 4.203954e+00 5.077744e+00 2.371152e+00 1.870812e+00 1.776300e-01 3.911090e-01 3.366636e-01 3.809831e-01 4.308391e-01 6.396369e-01 4.763730e-01 4.222936e-01 1.178369e+00 6.251131e-01 7.805513e-01 3.099572e-01 3.601034e-01
<GCONST> 1.231059e+02
<MIXTURE> 2 1.975146e-01
<MEAN> 39
 7.342372e+00 -1.815899e+01 -5.737834e-01 3.292724e+00 2.341812e+00 1.298785e+01 -6.598629e+00 5.546405e+00 -1.045092e+01 -6.682441e+00 1.567946e+01 -5.906872e+00 1.888409e+00 2.701694e+00 4.629309e-01 1.519373e+00 1.377924e+00 1.812317e+00 9.524362e-01 -5.268138e-01 -4.101673e-01 -1.985654e+00 -1.748144e+00 1.258726e+00 3.191530e-01 -5.093437e-01 -4.979168e-01 1.081317e+00 -4.001722e-02 8.507261e-01 9.246700e-01 -1.044687e+00 -3.553783e-01 3.048760e-02 8.673339e-01 1.005701e-01 -1.137585e+00 3.453570e-01 -6.979328e-02
<VARIANCE> 39
 1.189532e+01 1.476535e+01 2.140010e+01 3.285011e+01 5.574862e+01 4.852589e+01 4.382763e+01 4.195981e+01 3.974929e+01 3.050520e+01 2.348299e+01 2.229649e+01 2.412828e+01 1.318698e+00 2.519156e+00 1.017715e+00 2.293072e+00 2.705292e+00 3.643224e+00 2.660142e+00 2.045003e+00 3.426471e+00 2.734240e+00 3.606086e+00 1.029840e+00 1.641434e+00 8.568805e-02 2.628452e-01 3.680448e-01 3.105995e-01 3.033395e-01 5.147225e-01 6.926688e-01 4.113387e-01 6.830919e-01 5.588409e-01 4.528072e-01 3.409323e-01 4.276739e-01
<GCONST> 1.126850e+02
<TRANSP> 5
 0.000000e+00 1.000000e+00 0.000000e+00 0.000000e+00 0.000000e+00
 0.000000e+00 8.504016e-01 1.495984e-01 0.000000e+00 0.000000e+00
 0.000000e+00 0.000000e+00 7.560480e-01 2.439521e-01 0.000000e+00
 0.000000e+00 0.000000e+00 0.000000e+00 7.706770e-01 2.293231e-01
 0.000000e+00 0.000000e+00 0.000000e+00 0.000000e+00 0.000000e+00
<ENDHMM>
~h "u"
<BEGINHMM>
<NUMSTATES> 7
<STATE> 2
<NUMMIXES> 2
<MIXTURE> 1 6.985596e-01
<MEAN> 39
 4.683853e+00 6.119621e+00 5.273654e+00 4.652033e+00 -5.281600e+00 -8.764640e+00 -6.606917e+00 1.392364e+01 8.795381e-01 -9.595153e+00 1.662053e+00 -2.021876e+00 -5.652934e+00 1.991441e+00 3.168080e-01 1.599966e-01 8.091386e-01 2.122516e-01 -1.637665e+00 -1.061502e+00 1.193961e+00 3.805965e-01 -1.355475e+00 -2.108288e-01 -1.208263e-01 -1.017846e+00 -1.729016e-01 -2.362788e-01 -6.402279e-02 4.261548e-02 1.897234e-01 1.109775e-01 -6.626886e-02 5.704949e-03 -2.599884e-02 -1.596102e-01 -6.645310e-02 -5.089302e-02 -5.077136e-02
<VARIANCE> 39
 1.790184e+02 4.849086e+01 3.532265e+01 8.704434e+01 8.552634e+01 1.031627e+02 4.035761e+01 1.030873e+02 4.581231e+01 6.308129e+01 5.448712e+01 3.944658e+01 2.545198e+01 4.050881e+00 2.467634e+00 2.842101e+00 4.824186e+00 7.458503e+00 7.931056e+00 3.527553e+00 3.913994e+00 2.183510e+00 4.378303e+00 3.649022e+00 2.042559e+00 1.709805e+00 3.295906e-01 2.546281e-01 2.960725e-01 7.785301e-01 1.058601e+00 1.072336e+00 5.338930e-01 5.638667e-01 3.273426e-01 5.405941e-01 5.644152e-01 3.207744e-01 2.536878e-01
<GCONST> 1.316709e+02
<MIXTURE> 2 3.014402e-01
<MEAN> 39
 1.820017e+01 7.596969e+00 8.029922e+00 1.071633e+01 -4.031644e+00 -1.941621e+01 -1.217570e+01 2.189000e+01 3.983824e+00 -1.686938e+01 2.613791e+00 -5.150221e-01 -1.203302e+01 3.846294e-02 -1.194637e-01 3.962725e-03 -1.333826e-01 -7.842992e-02 -1.563115e-01 -1.317449e-01 5.904276e-01 5.613297e-01 -1.666913e-01 -1.803268e-01 -3.811893e-01 -4.462557e-01 -3.126808e-02 -3.325223e-02 -5.923030e-02 -1.202472e-02 8.868908e-02 1.690765e-01 5.501514e-02 -6.972534e-02 -7.188427e-02 8.382743e-03 -1.394603e-02 -5.975949e-02 5.631588e-02
<VARIANCE> 39
 5.604975e+00 4.027964e+01 4.967041e+01 2.675816e+01 2.294905e+01 7.498397e+01 1.789664e+01 6.580545e+01 1.790368e+01 3.896909e+01 4.611425e+01 4.569966e+01 2.384456e+01 2.856804e-01 8.153050e-01 8.485364e-01 6.435726e-01 7.259725e-01 1.263938e+00 9.942456e-01 1.938636e+00 7.360960e-01 1.270705e+00 1.128563e+00 1.121955e+00 5.888119e-01 3.896130e-02 3.816095e-02 6.733131e-02 6.899532e-02 7.700980e-02 1.451136e-01 1.256466e-01 2.293707e-01 8.712738e-02 1.532364e-01 1.378550e-01 9.486077e-02 7.209563e-02
<GCONST> 8.312455e+01
<STATE> 3
<NUMMIXES> 2
<MIXTURE> 1 8.313514e-01
<MEAN> 39
 1.929303e+01 3.658059e+00 2.480289e+00 1.290626e+01 -1.277038e+00 -2.388192e+01 -1.673656e+01 2.386815e+01 1.034984e+01 -1.540005e+01 -3.155431e+00 -2.759452e+00 -8.924143e+00 9.499293e-02 -1.249653e-01 4.803701e-02 3.868535e-02 3.654155e-01 1.005718e-01 -4.262765e-01 6.259651e-02 4.422525e-02 -3.507882e-01 -8.561788e-02 -3.810587e-01 -3.377693e-01 -8.432172e-02 1.133562e-02 -2.871981e-02 -9.228417e-02 1.058493e-01 3.503527e-01 1.550801e-01 -1.356305e-01 -1.978070e-01 3.015266e-02 1.378236e-01 4.019461e-02 9.181485e-02
<VARIANCE> 39
 7.761363e+00 2.454873e+01 3.076439e+01 2.075484e+01 3.729692e+01 9.064498e+01 3.555863e+01 4.744145e+01 2.864642e+01 3.251598e+01 2.441977e+01 2.531182e+01 2.223168e+01 4.837682e-01 1.177971e+00 1.308744e+00 9.748125e-01 9.302751e-01 1.864144e+00 1.255406e+00 2.374802e+00 8.857645e-01 2.059733e+00 1.085128e+00 9.366239e-01 4.285212e-01 7.917377e-02 4.312998e-02 9.669395e-02 1.221423e-01 1.103920e-01 2.073635e-01 1.611185e-01 2.529714e-01 1.081543e-01 1.842597e-01 1.564764e-01 9.538084e-02 7.465745e-02
<GCONST> 8.859113e+01
<MIXTURE> 2 1.686486e-01
<MEAN> 39
 1.957358e+01 -4.246960e+00 -6.529163e-01 1.441398e+01 1.570533e+01 -3.531428e+00 -1.739522e+01 1.737108e+01 -2.496503e+00 -2.807667e+01 6.500631e-01 -2.287168e+00 -1.081093e+01 3.978075e-01 2.731308e-01 -6.222845e-01 -5.364542e-01 4.000413e-01 -1.486039e+00 -1.540993e+00 1.519200e+00 5.868657e-01 -1.423452e+00 6.468037e-02 -2.462633e-01 -1.123553e+00 -3.304114e-01 -5.646484e-02 3.172786e-01 -6.931703e-02 -3.936532e-01 5.558273e-01 5.647746e-01 -6.580096e-01 1.257416e-01 8.119609e-01 -1.986697e-01 1.168169e-02 4.283929e-01
<VARIANCE> 39
 4.609711e+00 1.240438e+01 1.598629e+01 2.160476e+01 6.484776e+01 6.506246e+01 2.362144e+01 7.532894e+01 2.585918e+01 1.678176e+01 3.752172e+01 2.196908e+01 2.074613e+01 2.884071e-01 6.308028e-01 7.880419e-01 5.412834e-01 1.455345e+00 1.734349e+00 2.083143e+00 2.248485e+00 9.782785e-01 3.319800e+00 1.648608e+00 6.909095e-01 1.206753e+00 1.202294e-01 6.963683e-02 1.605175e-01 1.121910e-01 1.181290e-01 2.493812e-01 1.956195e-01 3.069176e-01 1.399948e-01 1.819979e-01 3.299683e-01 1.500159e-01 1.147246e-01
<GCONST> 9.065113e+01
<STATE> 4
<NUMMIXES> 2
<MIXTURE> 1 1.000000e+00
<MEAN> 39
 1.973023e+01 -7.800999e-01 1.514910e+00 9.590650e+00 5.228098e+00 -1.156625e+01 -1.426141e+01 2.482622e+01 1.124821e+00 -2.649348e+01 1.236585e+00 -4.075149e+00 -1.229203e+01 4.551499e-02 -5.960972e-01 -5.025124e-01 1.579393e-01 1.081662e+00 1.133190e+00 3.223157e-01 -4.136616e-01 -1.256081e+00 -8.510438e-01 3.021677e-01 1.360013e-01 2.155554e-01 -1.018946e-01 1.670979e-01 7.969575e-02 1.225460e-01 -8.445120e-02 1.320153e-01 3.715988e-01 -2.246663e-01 -9.056354e-02 3.302072e-01 -7.101488e-02 6.322613e-02 1.725432e-01
<VARIANCE> 39
 7.664511e+00 2.627598e+01 2.346351e+01 2.179782e+01 5.850863e+01 9.076244e+01 3.766154e+01 5.943285e+01 4.515115e+01 9.872666e+01 3.124888e+01 2.796192e+01 2.728097e+01 3.673632e-01 8.275089e-01 7.435967e-01 1.024290e+00 7.162354e-01 1.209162e+00 1.820124e+00 2.079198e+00 8.793028e-01 2.116429e+00 1.305712e+00 1.130309e+00 6.073581e-01 6.206274e-02 6.319910e-02 1.078392e-01 1.088867e-01 8.545070e-02 1.650753e-01 2.212733e-01 3.109112e-01 1.541014e-01 2.400546e-01 2.017943e-01 1.128157e-01 1.193219e-01
<GCONST> 9.209891e+01
<MIXTURE> 2 0.000000e+00
<MEAN> 39
 3.417223e+00 7.293330e+00 8.330730e+00 -9.710498e+00 -1.625434e-01 -2.035127e+01 -9.064593e-01 1.561739e+00 -1.227357e+01 -1.039749e+01 -7.147142e+00 -1.017353e+01 -1.074242e+01 -2.990634e-02 2.168149e-01 1.001392e-02 -4.689300e-02 -1.589202e-01 -7.911995e-03 6.217949e-02 3.558638e-02 5.552286e-02 3.114433e-03 -1.407267e-01 -1.060831e-01 -1.548424e-01 -5.462008e-03 -1.843423e-02 -2.657526e-02 6.268177e-02 6.855920e-02 9.713328e-02 -2.289386e-02 -5.790818e-02 2.742950e-02 2.240322e-02 1.946409e-02 5.355634e-02 3.129942e-02
<VARIANCE> 39
 6.075173e+00 4.578182e+01 2.743917e+01 3.471677e+01 5.041447e+01 4.296664e+01 3.941714e+01 4.597451e+01 8.174229e+01 6.164312e+01 4.850667e+01 5.474281e+01 4.559898e+01 9.210440e-02 5.496898e-01 4.708762e-01 6.562652e-01 8.952708e-01 9.710231e-01 9.655682e-01 1.150128e+00 1.134475e+00 1.179296e+00 1.051585e+00 1.147964e+00 1.009993e+00 1.406629e-02 4.912791e-02 6.224088e-02 9.069604e-02 1.023018e-01 1.395229e-01 1.419330e-01 1.569344e-01 1.592698e-01 1.563243e-01 1.508348e-01 1.450534e-01 1.304802e-01
<GCONST> 8.581348e+01
<STATE> 5
<NUMMIXES> 2
<MIXTURE> 1 3.412825e-01
<MEAN> 39
 -2.133141e+00 -1.405349e+01 1.265096e+01 1.134172e+01 6.096959e-02 6.282333e+00 -8.297364e+00 2.324453e+00 -4.757429e+00 -1.281044e+01 -1.576458e+00 1.031488e+00 3.013669e+00 -8.521422e-01 -1.070025e-01 9.943664e-03 -4.039792e-01 -4.640496e-01 5.068254e-02 -3.783858e-02 -4.682440e-01 1.153542e-01 6.140718e-01 9.278581e-02 7.878199e-03 1.622252e-01 2.091033e-02 -8.913414e-02 -6.298926e-02 -2.768862e-02 3.309370e-03 -2.516829e-02 -1.694028e-02 1.165644e-01 1.127048e-02 -9.062985e-02 7.853203e-02 3.311341e-02 -8.797859e-02
<VARIANCE> 39
 1.480407e+02 3.566892e+02 1.572145e+02 6.132904e+01 7.209707e+01 1.111341e+02 9.894712e+01 9.593407e+01 6.107908e+01 4.413951e+01 3.441248e+01 3.282458e+01 2.854955e+01 6.500214e+00 1.250017e+01 7.444501e+00 3.262782e+00 3.808592e+00 6.021409e+00 4.324502e+00 3.483716e+00 3.884140e+00 4.213274e+00 2.809946e+00 2.721324e+00 3.184707e+00 2.990884e-01 9.948467e-01 9.245929e-01 4.662759e-01 3.653574e-01 6.659810e-01 5.621759e-01 5.178326e-01 5.853849e-01 5.434952e-01 3.722492e-01 4.670291e-01 5.217580e-01
<GCONST> 1.393272e+02
<MIXTURE> 2 6.587179e-01
<MEAN> 39
 1.840992e+01 2.604916e+00 1.677045e+00 1.082867e+01 6.100532e+00 -7.632718e+00 -9.724804e+00 1.888082e+01 -5.862961e-01 -2.075978e+01 -9.487400e-01 -4.642920e+00 -9.726069e+00 -8.248749e-01 7.045291e-01 2.838267e-01 1.287359e-01 4.580250e-01 2.239120e+00 2.091407e+00 -1.166677e+00 -5.247933e-01 1.008416e+00 -8.823133e-01 -8.784597e-02 1.027935e+00 -3.049840e-01 2.163342e-01 2.984945e-01 5.969507e-02 -2.195949e-02 1.769119e-01 1.580441e-01 -3.568894e-02 2.690604e-01 3.123564e-01 -1.981295e-01 -2.970912e-02 2.013029e-01
<VARIANCE> 39
 8.568786e+00 4.818309e+01 4.396645e+01 5.045004e+01 7.212652e+01 1.329871e+02 5.514122e+01 6.713432e+01 6.002007e+01 1.171758e+02 4.894828e+01 5.236337e+01 2.446770e+01 8.074612e-01 1.189397e+00 1.303119e+00 1.538533e+00 1.476374e+00 2.912591e+00 2.497626e+00 3.068555e+00 1.799468e+00 3.222301e+00 1.947793e+00 1.324608e+00 1.087408e+00 8.056778e-02 1.320850e-01 1.530751e-01 1.821571e-01 1.818520e-01 3.784768e-01 3.381494e-01 4.245233e-01 2.890959e-01 5.280037e-01 3.322647e-01 2.097160e-01 1.854968e-01
<GCONST> 1.106662e+02
<STATE> 6
<NUMMIXES> 2
<MIXTURE> 1 2.760185e-01
<MEAN> 39
 -2.600408e+01 -7.282919e+00 -6.143345e+00 -3.616316e+00 -3.743135e+00 1.369779e+00 -2.159063e+00 1.573968e+00 -3.854564e+00 -2.735243e+00 4.544888e-01 7.853158e-01 1.354618e+00 -5.574687e-02 -8.313812e-02 -8.360682e-02 8.581720e-03 8.204253e-03 -1.872000e-02 4.430906e-02 1.047990e-01 9.494428e-02 8.732931e-02 4.862450e-02 -6.409203e-02 -8.352276e-03 6.767385e-02 4.754084e-02 4.563395e-02 5.601461e-02 6.802197e-02 3.690005e-02 -1.364203e-02 -3.395838e-02 -2.783781e-02 -2.766478e-02 3.301337e-02 4.439103e-02 3.280605e-02
<VARIANCE> 39
 1.458525e+00 3.517512e+00 4.562827e+00 2.843587e+00 3.272566e+00 7.300214e+00 8.459383e+00 4.548755e+00 1.973914e+01 2.768742e+01 8.180149e+00 1.614420e+01 8.069189e+00 9.451076e-02 1.716525e-01 3.689225e-01 4.150324e-01 6.660264e-01 7.634066e-01 7.103960e-01 7.926186e-01 1.115081e+00 1.478887e+00 1.158050e+00 9.990016e-01 6.635754e-01 5.016305e-02 4.115561e-02 9.015054e-02 9.952652e-02 1.657019e-01 1.672711e-01 1.642534e-01 1.837117e-01 2.174376e-01 2.655290e-01 2.618080e-01 2.092214e-01 1.416460e-01
<GCONST> 6.326741e+01
<MIXTURE> 2 7.239814e-01
<MEAN> 39
 1.033769e+01 8.741571e+00 6.513124e+00 1.156647e+01 6.516498e+00 1.913905e-03 -2.000048e+00 1.550120e+01 9.541414e-01 -1.271758e+01 -2.646780e+00 -3.798130e+00 -5.648335e+00 -1.768770e+00 6.539299e-01 8.898342e-01 2.082327e-01 6.728510e-01 2.079513e+00 1.299692e+00 -9.395288e-01 -1.868646e-01 1.052357e+00 -3.546814e-01 -1.025885e-01 7.417743e-01 -9.881103e-02 -2.035920e-01 1.945946e-02 2.625085e-02 -9.692490e-02 -3.189345e-01 -3.000169e-01 7.018801e-04 1.571961e-02 -4.094578e-02 8.494216e-02 1.531174e-02 -4.351346e-02
<VARIANCE> 39
 8.020097e+01 7.978835e+01 5.939181e+01 3.620203e+01 4.505999e+01 1.073164e+02 7.879963e+01 5.436296e+01 4.918313e+01 1.411884e+02 4.826944e+01 3.875524e+01 2.924419e+01 1.408033e+00 1.844874e+00 1.623305e+00 1.411502e+00 1.536674e+00 4.143037e+00 2.696434e+00 2.125799e+00 1.796077e+00 2.571932e+00 1.608211e+00 1.215617e+00 1.242497e+00 6.553465e-02 2.520106e-01 1.558481e-01 1.306967e-01 1.545163e-01 2.059433e-01 2.923146e-01 2.798477e-01 3.308881e-01 4.801551e-01 3.003420e-01 1.727590e-01 1.820168e-01
<GCONST> 1.120645e+02
<TRANSP> 7
 0.000000e+00 1.000000e+00 0.000000e+00 0.000000e+00 0.000000e+00 0.000000e+00 0.000000e+00
 0.000000e+00 8.763764e-01 1.236236e-01 0.000000e+00 0.000000e+00 0.000000e+00 0.000000e+00
 0.000000e+00 0.000000e+00 7.964903e-01 2.035098e-01 0.000000e+00 0.000000e+00 0.000000e+00
 0.000000e+00 0.000000e+00 0.000000e+00 7.578706e-01 2.421295e-01 0.000000e+00 0.000000e+00
 0.000000e+00 0.000000e+00 0.000000e+00 0.000000e+00 7.177969e-01 2.822031e-01 0.000000e+00
 0.000000e+00 0.000000e+00 0.000000e+00 0.000000e+00 0.000000e+00 6.585668e-01 3.414333e-01
 0.000000e+00 0.000000e+00 0.000000e+00 0.000000e+00 0.000000e+00 0.000000e+00 0.000000e+00
<ENDHMM>
~h "w"
<BEGINHMM>
<NUMSTATES> 5
<STATE> 2
<NUMMIXES> 2
<MIXTURE> 1 1.000000e+00
<MEAN> 39
 7.037257e+00 1.499555e+01 1.007850e+01 1.375469e+01 1.049110e+01 7.090562e+00 4.205419e+00 1.679828e+01 4.519090e+00 -8.176867e+00 -6.678701e+00 -6.367086e+00 -6.722446e+00 -5.634596e-01 5.480621e-01 8.366397e-01 1.895691e-01 8.451972e-02 5.858620e-01 3.421627e-01 -1.968265e-01 1.114580e-01 5.770367e-01 2.001213e-01 -2.024461e-01 -8.026705e-02 3.915713e-03 -1.913259e-01 -1.159246e-01 4.478901e-02 6.984510e-02 -1.316762e-02 -9.001108e-02 -1.786325e-02 -1.554176e-02 -2.794220e-02 4.264535e-02 6.521846e-02 1.210929e-01
<VARIANCE> 39
 2.251101e+01 2.212815e+01 2.799302e+01 1.599787e+01 2.151635e+01 4.064013e+01 1.856525e+01 4.360912e+01 2.893708e+01 3.870162e+01 2.009254e+01 1.650147e+01 1.433969e+01 8.159553e-01 8.018384e-01 1.160692e+00 6.327170e-01 7.156507e-01 1.352131e+00 9.993677e-01 1.584538e+00 9.429514e-01 1.667523e+00 1.103845e+00 9.718153e-01 9.283513e-01 4.287174e-02 9.267738e-02 1.224353e-01 8.273731e-02 9.009209e-02 1.374892e-01 1.361977e-01 2.247036e-01 1.309773e-01 2.118969e-01 1.415846e-01 1.229930e-01 1.144000e-01
<GCONST> 8.529163e+01
<MIXTURE> 2 0.000000e+00
<MEAN> 39
 1.378911e+01 -5.882964e+00 5.711132e+00 9.465131e+00 -1.243303e+01 8.746708e+00 5.601330e-01 -7.174479e+00 2.589908e+00 -1.117520e+01 -1.118331e+01 1.178023e-01 -6.158607e+00 -1.288440e-01 1.712742e-02 2.953843e-01 2.247112e-02 -1.709286e-01 2.319557e-01 7.940844e-02 2.872613e-02 2.858532e-01 -3.339471e-02 -1.537790e-01 2.861512e-02 -6.112367e-02 4.143821e-02 -1.702908e-01 -5.036233e-02 -1.903104e-02 -4.757323e-02 -1.118162e-01 -1.095709e-01 -5.744234e-02 -1.100288e-01 -7.373928e-02 7.590093e-02 2.229727e-02 -1.457045e-03
<VARIANCE> 39
 5.693203e+00 3.076212e+01 1.764848e+01 2.169621e+01 3.926045e+01 3.001332e+01 2.751151e+01 3.213239e+01 3.717189e+01 2.692718e+01 1.927668e+01 1.926764e+01 1.896693e+01 1.228157e-01 5.694669e-01 4.044106e-01 4.887558e-01 7.384183e-01 9.813446e-01 7.732689e-01 8.090994e-01 9.743630e-01 8.385676e-01 6.937302e-01 6.511840e-01 6.163760e-01 1.787036e-02 5.931752e-02 6.642151e-02 7.853088e-02 1.136717e-01 1.498673e-01 1.329894e-01 1.448491e-01 1.629503e-01 1.434017e-01 1.325567e-01 1.232411e-01 1.184856e-01
<GCONST> 7.573148e+01
<STATE> 3
<NUMMIXES> 2
<MIXTURE> 1 9.521297e-01
<MEAN> 39
 3.164992e+00 9.483685e+00 8.599906e+00 1.414146e+01 1.232530e+01 9.554112e+00 2.797890e+00 1.548151e+01 4.390760e+00 -6.815013e+00 -3.938752e+00 -4.930234e+00 -2.446190e+00 9.909405e-01 -1.682527e+00 -1.538194e+00 -3.220550e-01 -9.297471e-03 -1.142915e+00 -1.521752e+00 3.689456e-01 -2.019432e-02 -9.718719e-01 3.201254e-01 2.862375e-01 5.506161e-01 4.357770e-01 -2.958784e-01 -4.225175e-01 -1.731098e-01 -1.513489e-01 -5.405416e-01 -4.557889e-01 3.503602e-02 -1.353927e-01 -3.693025e-01 7.845108e-02 1.504304e-01 -5.818419e-02
<VARIANCE> 39
 5.911725e+01 6.421914e+01 4.102342e+01 3.505977e+01 3.590659e+01 4.351970e+01 2.729133e+01 3.887555e+01 4.239739e+01 3.362597e+01 3.012135e+01 2.114710e+01 1.811102e+01 1.696373e+00 3.239751e+00 2.560890e+00 1.600858e+00 1.540820e+00 3.453556e+00 2.657799e+00 1.960191e+00 2.163113e+00 2.516816e+00 2.217325e+00 1.367197e+00 1.394729e+00 1.085792e-01 2.450844e-01 2.580543e-01 2.240202e-01 2.243689e-01 3.060554e-01 2.641055e-01 3.581226e-01 3.003944e-01 3.177153e-01 3.302108e-01 2.300559e-01 2.448703e-01
<GCONST> 1.098529e+02
<MIXTURE> 2 4.786996e-02
<MEAN> 39
 1.661369e+01 8.524731e+00 1.203509e+00 9.176287e+00 2.677691e+00 -7.853351e+00 -4.757080e+00 1.959673e+01 4.224850e+00 -1.486642e+01 -5.021269e+00 -3.237424e+00 -8.260525e+00 6.112164e-01 -9.837410e-01 -8.012180e-01 2.898078e-01 2.926961e-01 -1.255722e+00 -1.116367e+00 6.339316e-01 -1.069268e-02 -1.135529e+00 1.525186e-01 3.402678e-01 -3.806919e-01 6.444187e-02 -2.291450e-01 -1.615524e-01 -1.082169e-02 1.481244e-01 -8.294187e-03 -2.086193e-01 -3.201915e-02 -1.192287e-01 -1.598084e-01 1.596650e-01 9.168340e-02 9.797040e-02
<VARIANCE> 39
 4.311612e+00 1.864932e+01 1.398419e+01 1.258856e+01 1.001944e+01 1.909765e+01 1.308941e+01 1.902471e+01 1.400963e+01 2.240408e+01 2.835313e+01 6.684585e+00 2.447158e+01 2.004745e-01 9.008437e-01 9.126337e-01 2.998967e-01 7.323588e-01 1.083195e+00 1.041022e+00 1.359360e+00 8.485445e-01 1.764843e+00 5.895839e-01 6.081858e-01 5.962462e-01 3.428521e-02 5.856104e-02 8.081565e-02 4.258848e-02 6.327145e-02 1.292150e-01 1.489304e-01 1.841274e-01 6.913272e-02 1.752127e-01 9.099294e-02 9.004863e-02 5.991219e-02
<GCONST> 6.984902e+01
<STATE> 4
<NUMMIXES> 2
<MIXTURE> 1 3.821477e-03
<MEAN> 39
 1.965679e+01 -5.525445e-01 -2.648337e+00 9.381347e+00 5.149730e+00 -9.962082e+00 -8.299089e+00 1.576832e+01 -9.006278e+00 -2.507817e+01 -3.110719e-02 3.976995e-01 -6.980998e+00 1.745770e-01 -1.033358e+00 -4.579513e-01 3.265522e-01 5.378383e-01 2.410162e-01 -5.222002e-01 -1.304757e+00 -1.768949e+00 -5.846249e-01 1.514599e+00 1.286648e+00 7.009988e-01 -4.518629e-02 8.352715e-02 1.229276e-02 -3.029236e-02 4.069393e-02 5.914440e-02 -3.109569e-02 -5.428035e-02 4.619548e-02 -3.003058e-02 2.067320e-01 1.311647e-01 -1.195197e-01
<VARIANCE> 39
 4.874206e-01 3.706607e+00 2.520292e+00 2.047628e+00 2.745462e+01 4.009060e+01 2.171233e+00 2.310416e+01 4.796073e+00 9.585079e+00 2.599500e+01 8.428129e+00 5.305642e+01 9.047438e-03 2.866068e-01 1.199618e-01 1.753902e-01 2.319034e-01 1.960810e-01 2.013116e-01 6.494755e-02 4.123648e-01 6.116057e-01 5.864723e-01 8.453852e-02 5.098450e-02 1.224172e-02 1.444652e-02 1.108098e-02 2.731953e-02 1.732056e-02 3.738499e-02 1.558318e-02 4.638471e-02 4.327219e-02 6.306576e-03 1.280839e-01 8.863855e-02 1.030896e-02
<GCONST> 2.483867e+01
<MIXTURE> 2 9.961786e-01
<MEAN> 39
 1.832020e+01 -1.541801e-01 -4.788715e+00 1.020426e+01 5.098859e+00 -1.437700e+01 -1.433778e+01 2.200749e+01 8.601603e+00 -1.630089e+01 -5.526785e+00 -2.182138e+00 -1.181717e+00 1.508381e+00 -1.424942e+00 -1.734198e+00 -5.453379e-01 -3.905748e-01 -2.252378e+00 -1.832711e+00 2.581867e-01 -1.992103e-01 -1.067380e+00 5.020419e-01 8.323848e-01 2.906239e-01 -2.324804e-01 1.628845e-01 1.840107e-01 4.244845e-02 2.099423e-01 3.980513e-01 2.712807e-01 -2.545081e-02 -1.998960e-02 1.736173e-01 7.995617e-02 1.881039e-03 1.255253e-02
<VARIANCE> 39
 1.905523e+01 1.798281e+01 2.940151e+01 1.575103e+01 3.330215e+01 1.189633e+02 4.468950e+01 3.572157e+01 4.698104e+01 2.904488e+01 3.399367e+01 1.393321e+01 1.604759e+01 1.735123e+00 8.828993e-01 1.462693e+00 8.778071e-01 1.563730e+00 3.938037e+00 2.692045e+00 2.179210e+00 1.617570e+00 2.672401e+00 1.597956e+00 1.084807e+00 7.249057e-01 1.433846e-01 9.048042e-02 1.517320e-01 1.428283e-01 1.717933e-01 3.600575e-01 2.775007e-01 3.255410e-01 1.573833e-01 3.007551e-01 2.331206e-01 1.548319e-01 1.191754e-01
<GCONST> 9.955922e+01
<TRANSP> 5
 0.000000e+00 1.000000e+00 0.000000e+00 0.000000e+00 0.000000e+00
 0.000000e+00 8.464633e-01 1.535367e-01 0.000000e+00 0.000000e+00
 0.000000e+00 0.000000e+00 8.356189e-01 1.643811e-01 0.000000e+00
 0.000000e+00 0.000000e+00 0.000000e+00 8.002357e-01 1.997642e-01
 0.000000e+00 0.000000e+00 0.000000e+00 0.000000e+00 0.000000e+00
<ENDHMM>
~h "y"
<BEGINHMM>
<NUMSTATES> 5
<STATE> 2
<NUMMIXES> 2
<MIXTURE> 1 1.000000e+00
<MEAN> 39
 6.184554e+00 -2.809924e+00 1.475223e+01 3.485580e+01 2.005407e+01 -1.314263e+00 -7.797476e+00 1.581395e+01 -3.162627e+00 -1.832952e+01 1.605577e+00 -1.086774e+00 -8.996590e+00 4.575749e-01 -5.343932e-01 -2.060110e-01 2.400184e-01 6.164849e-01 -1.470516e-01 -1.013332e+00 -1.321553e-01 -1.332801e-01 -6.128703e-01 1.915718e-01 2.045111e-02 -3.521271e-01 6.396220e-03 -3.107049e-02 -8.206787e-02 -1.451502e-01 1.256034e-02 -1.319576e-03 -1.012209e-01 4.595829e-03 1.890793e-03 -3.088732e-02 5.025926e-02 3.189769e-02 -8.682609e-04
<VARIANCE> 39
 2.506448e+01 8.949265e+01 3.966476e+01 5.825827e+01 5.799752e+01 5.521306e+01 1.095250e+02 7.948662e+01 2.704099e+01 6.105498e+01 4.639813e+01 2.831701e+01 4.010217e+01 9.714167e-01 2.202170e+00 1.655779e+00 3.007060e+00 2.319992e+00 1.930102e+00 4.104047e+00 2.416768e+00 1.111659e+00 3.725200e+00 1.765322e+00 1.429168e+00 1.778615e+00 7.137828e-02 1.795380e-01 1.654034e-01 3.761202e-01 2.423233e-01 2.340687e-01 2.469781e-01 3.232666e-01 1.585386e-01 3.912557e-01 2.226978e-01 1.924236e-01 1.729887e-01
<GCONST> 1.114279e+02
<MIXTURE> 2 0.000000e+00
<MEAN> 39
 1.077002e+01 -1.956420e+01 1.628934e+01 2.477308e+01 -1.067274e+01 -2.976494e-01 -1.631964e+01 -1.125875e+01 8.065402e+00 -1.447605e+01 -1.309809e+01 -1.712498e+00 -8.394070e+00 6.742813e-02 -9.836404e-02 -1.169972e-01 -9.043243e-02 -7.185069e-02 -4.700645e-02 -1.383417e-01 -1.586409e-01 -4.520181e-02 8.582173e-02 1.406730e-01 1.323300e-02 -1.787742e-02 1.718775e-02 -1.453367e-03 -6.490878e-02 -5.673794e-02 8.897717e-03 2.129654e-02 3.349083e-04 -4.583070e-02 -3.346105e-02 4.537795e-02 5.137637e-02 4.648509e-03 -1.070770e-02
<VARIANCE> 39
 4.835891e+00 1.564970e+01 1.978276e+01 2.057377e+01 2.182557e+01 2.436750e+01 2.886898e+01 3.342552e+01 2.415036e+01 3.267395e+01 2.042847e+01 2.264841e+01 1.821476e+01 1.990445e-01 2.737281e-01 3.442593e-01 4.312418e-01 5.640050e-01 5.272828e-01 3.877100e-01 4.964686e-01 5.398856e-01 5.405872e-01 4.196366e-01 3.762387e-01 3.816764e-01 2.946622e-02 3.539984e-02 2.297077e-02 5.282143e-02 8.965132e-02 8.030171e-02 5.395827e-02 6.092423e-02 8.503931e-02 7.202144e-02 5.072999e-02 5.755227e-02 6.090007e-02
<GCONST> 6.119115e+01
<STATE> 3
<NUMMIXES> 2
<MIXTURE> 1 3.406790e-01
<MEAN> 39
 1.190392e+01 -1.080702e+01 6.108414e+00 3.568681e+01 3.467437e+01 3.019577e+00 -2.374009e+01 4.527493e+00 -6.015158e+00 -2.036671e+01 8.742413e+00 -6.700696e-01 -1.843444e+01 1.256178e-01 1.148043e-01 -9.727895e-02 -6.025230e-01 -4.776023e-02 2.212681e-01 -2.651201e-01 -2.691090e-01 -6.782575e-02 -3.835877e-01 -3.455100e-02 3.531475e-01 -1.246744e-01 4.417347e-02 5.141754e-02 -1.194126e-02 -1.593336e-01 -1.537392e-01 4.331497e-02 9.492186e-02 1.077131e-01 -3.670242e-02 -8.644682e-02 4.258256e-03 2.823703e-02 6.963761e-02
<VARIANCE> 39
 3.985149e+00 1.057821e+01 1.126580e+01 2.837718e+01 2.015059e+01 3.077295e+01 3.156569e+01 3.251503e+01 2.095001e+01 2.506275e+01 2.391779e+01 1.663248e+01 1.632625e+01 2.191241e-01 2.873635e-01 4.203532e-01 1.207855e+00 9.366528e-01 1.014995e+00 1.299812e+00 1.079754e+00 8.936266e-01 1.470281e+00 8.239582e-01 6.463726e-01 6.365495e-01 3.139394e-02 3.385675e-02 5.274651e-02 1.336235e-01 1.339360e-01 1.301238e-01 1.829439e-01 1.572673e-01 1.439913e-01 2.149729e-01 1.334216e-01 1.023862e-01 1.063116e-01
<GCONST> 7.621892e+01
<MIXTURE> 2 6.593194e-01
<MEAN> 39
 1.471959e+01 -1.377176e+01 3.994303e+00 2.610704e+01 3.053413e+01 2.417989e-01 -3.054476e+01 8.854775e+00 -6.913415e+00 -2.625504e+01 1.091315e+01 5.404494e-01 -1.429310e+01 7.259596e-01 3.182046e-02 -1.046007e+00 -1.690106e+00 -6.642878e-02 -6.971182e-01 -1.347858e+00 4.884752e-01 -4.046848e-01 -9.601811e-01 1.005588e+00 6.987445e-01 -1.096262e-01 -1.354234e-01 1.228500e-01 5.321263e-02 -5.091310e-02 -4.128626e-01 1.172282e-03 5.690631e-01 -6.485696e-02 4.822229e-02 3.947008e-01 -1.630234e-01 -1.704215e-02 3.561523e-01
<VARIANCE> 39
 1.044050e+01 1.482269e+01 2.644763e+01 4.919149e+01 3.207701e+01 4.499020e+01 4.830691e+01 4.355805e+01 1.912334e+01 3.584263e+01 4.508290e+01 1.250275e+01 3.242277e+01 7.180037e-01 7.277119e-01 1.267113e+00 1.640883e+00 1.355893e+00 1.265201e+00 2.646603e+00 1.883851e+00 8.783914e-01 2.222570e+00 1.800131e+00 7.287071e-01 1.344934e+00 1.014770e-01 1.034564e-01 1.097703e-01 1.461815e-01 1.818102e-01 1.647539e-01 3.354322e-01 3.001553e-01 1.395690e-01 3.164473e-01 2.577939e-01 1.198022e-01 1.539448e-01
<GCONST> 9.566426e+01
<STATE> 4
<NUMMIXES> 2
<MIXTURE> 1 9.816663e-01
<MEAN> 39
 1.769499e+01 -1.087665e+01 -1.682438e+00 1.600383e+01 2.375518e+01 -1.721287e+00 -2.766139e+01 9.722518e+00 -8.567762e+00 -2.575543e+01 1.446979e+01 5.159609e+00 -9.878822e+00 2.604173e-01 5.035352e-01 -5.351328e-01 -1.265229e+00 -1.466349e+00 -3.450449e-01 1.119583e+00 5.707160e-01 1.940817e-01 3.278649e-01 1.947171e-02 3.509005e-01 8.169416e-01 -4.079104e-02 1.626862e-02 8.514114e-02 1.134614e-01 -6.078366e-02 4.601697e-04 1.543940e-01 9.824034e-02 1.207459e-01 1.128669e-01 -1.140067e-01 -1.410241e-01 -2.228175e-02
<VARIANCE> 39
 1.128943e+01 2.469871e+01 3.791546e+01 4.970662e+01 3.376339e+01 4.080130e+01 6.605047e+01 4.222142e+01 2.045147e+01 4.201381e+01 7.787591e+01 1.445906e+01 4.628210e+01 4.995515e-01 5.236003e-01 1.072798e+00 8.633626e-01 9.338232e-01 1.147162e+00 1.798830e+00 2.193133e+00 9.844559e-01 2.435170e+00 2.683517e+00 9.464361e-01 8.258157e-01 6.518901e-02 5.921861e-02 9.276871e-02 1.046002e-01 1.028291e-01 1.217696e-01 2.450260e-01 2.504681e-01 1.163000e-01 2.474029e-01 2.156230e-01 1.222875e-01 1.025496e-01
<GCONST> 9.244193e+01
<MIXTURE> 2 1.833334e-02
<MEAN> 39
 1.674599e+01 -1.107927e+01 6.085232e+00 1.870430e+01 2.348511e+01 -8.396688e-01 -3.295956e+01 1.085169e+01 -5.365496e+00 -2.619756e+01 2.266053e+01 2.405152e+00 -2.406304e+01 2.765570e-01 -1.259913e-01 -6.373463e-01 -6.334360e-01 -3.959561e-01 3.593176e-01 6.253632e-01 2.383638e-01 -4.085662e-01 -1.599734e-01 4.523349e-01 1.415041e-01 1.499576e-01 2.761372e-02 4.881746e-02 -2.978254e-02 8.086638e-02 2.686207e-02 -1.033305e-02 1.921229e-01 -3.362112e-02 -1.916350e-01 5.257738e-02 -1.012827e-02 -4.411170e-02 8.902967e-02
<VARIANCE> 39
 2.426513e+00 3.609129e+00 8.068512e+00 2.076361e+01 8.086972e+00 5.778475e+00 1.405597e+01 8.735301e+00 2.444813e+01 1.132932e+01 2.313717e+01 3.776911e+00 5.897589e+00 1.248498e-01 1.712154e-01 2.199545e-01 4.676775e-01 3.008375e-01 3.183340e-01 6.310258e-01 4.387567e-01 4.973669e-01 6.379678e-01 4.459334e-01 2.372233e-01 4.019524e-01 1.950737e-02 3.265817e-02 3.471771e-02 3.564976e-02 4.936877e-02 3.325541e-02 7.669767e-02 7.233811e-02 5.967928e-02 8.532654e-02 6.267626e-02 4.180996e-02 6.513873e-02
<GCONST> 4.582137e+01
<TRANSP> 5
 0.000000e+00 1.000000e+00 0.000000e+00 0.000000e+00 0.000000e+00
 0.000000e+00 9.013735e-01 9.862653e-02 0.000000e+00 0.000000e+00
 0.000000e+00 0.000000e+00 8.452725e-01 1.547274e-01 0.000000e+00
 0.000000e+00 0.000000e+00 0.000000e+00 8.296189e-01 1.703812e-01
 0.000000e+00 0.000000e+00 0.000000e+00 0.000000e+00 0.000000e+00
<ENDHMM>
~h "z"
<BEGINHMM>
<NUMSTATES> 5
<STATE> 2
<NUMMIXES> 2
<MIXTURE> 1 5.748440e-01
<MEAN> 39
 -2.960476e+00 -1.144470e+01 3.968516e+01 2.229466e+00 1.207484e+01 3.891553e+01 -1.239303e+01 -1.090719e+00 -1.358446e+01 -1.409568e+01 5.291091e+00 -1.865891e+00 1.616605e+00 -2.498246e+00 -3.263016e-01 2.973824e+00 -1.419411e+00 -1.048287e+00 1.189954e+00 1.673646e+00 2.076443e+00 6.267160e-01 6.562572e-01 9.215242e-02 6.428158e-01 7.904735e-01 9.898183e-02 -8.837092e-02 -8.905518e-01 2.763157e-01 7.274115e-02 -6.695843e-01 2.843839e-01 3.161364e-01 4.183194e-01 1.169405e-01 2.650808e-01 1.726246e-01 -3.404348e-01
<VARIANCE> 39
 2.015833e+01 1.658433e+01 3.264434e+01 5.083450e+01 3.666826e+01 2.770913e+01 3.111266e+01 7.884453e+01 4.794622e+01 3.298038e+01 4.523901e+01 2.583689e+01 2.251994e+01 9.661852e-01 7.598861e-01 3.651076e+00 1.632817e+00 1.340211e+00 2.559518e+00 2.191661e+00 1.667829e+00 2.640157e+00 1.776333e+00 1.415703e+00 1.703144e+00 1.573300e+00 4.557586e-02 1.012024e-01 2.460207e-01 1.988397e-01 2.537464e-01 2.435441e-01 3.348277e-01 3.329292e-01 4.670329e-01 3.038681e-01 2.765026e-01 3.138978e-01 2.436752e-01
<GCONST> 1.048772e+02
<MIXTURE> 2 4.251558e-01
<MEAN> 39
 9.786226e+00 -9.601511e+00 1.777275e+01 1.018936e+01 1.698833e+01 2.496698e+01 -1.603877e+01 -3.066258e+00 -1.381860e+01 -1.786234e+01 8.685057e+00 -2.563088e+00 -4.754228e+00 -2.191598e+00 -1.873788e-01 4.633929e+00 -2.189112e+00 -1.472225e+00 3.335773e+00 2.341872e-01 -3.760914e-01 6.275209e-01 9.486614e-01 -1.638503e+00 -1.541135e-01 1.905606e+00 -3.629610e-01 -4.943009e-03 4.939698e-01 -2.122554e-01 -1.310324e-01 8.702817e-02 2.046631e-01 4.469610e-01 -6.053631e-02 1.771168e-02 6.860039e-02 1.819632e-02 6.626048e-02
<VARIANCE> 39
 2.077540e+01 2.281505e+01 7.376344e+01 7.288020e+01 5.656740e+01 9.519370e+01 2.821813e+01 9.168202e+01 2.684419e+01 2.241176e+01 3.995582e+01 1.582621e+01 3.744879e+01 7.813904e-01 5.571744e-01 2.877891e+00 1.375322e+00 1.833847e+00 1.666592e+00 1.644796e+00 9.266505e-01 1.892226e+00 1.335269e+00 1.772531e+00 8.026059e-01 1.216373e+00 3.559571e-02 7.986994e-02 2.299640e-01 8.438259e-02 1.019227e-01 2.251657e-01 2.536419e-01 1.988139e-01 1.637518e-01 1.999359e-01 1.911288e-01 1.144897e-01 8.768482e-02
<GCONST> 9.666582e+01
<STATE> 3
<NUMMIXES> 2
<MIXTURE> 1 9.541054e-01
<MEAN> 39
 -1.244268e+01 -1.424717e+01 4.417707e+01 -1.399810e+00 7.072402e+00 3.863696e+01 -3.455769e+00 8.533255e+00 -5.041055e+00 -8.837747e+00 7.218122e+00 1.718206e+00 2.070690e+00 -1.625851e+00 -1.426631e+00 6.244323e-02 -1.396831e+00 -1.045863e+00 -2.449334e-01 1.013621e+00 1.678251e+00 1.763481e+00 1.957857e+00 8.558828e-01 5.248407e-01 7.216019e-01 3.328753e-01 -2.249502e-01 -4.290275e-01 -1.421933e-01 9.768364e-02 -1.031687e-01 -5.556315e-01 -4.333812e-01 -3.902688e-01 5.522266e-03 1.588507e-01 -3.188460e-02 2.817950e-01
<VARIANCE> 39
 2.379049e+01 1.887864e+01 4.297900e+01 2.788047e+01 1.810406e+01 3.830490e+01 1.568199e+01 2.885672e+01 3.304059e+01 4.185825e+01 3.158393e+01 1.706779e+01 1.608430e+01 7.754495e-01 6.710073e-01 1.362430e+00 1.353212e+00 1.772551e+00 2.047625e+00 1.686017e+00 2.463976e+00 2.995192e+00 1.269970e+00 1.296037e+00 1.650054e+00 1.474890e+00 7.359015e-02 9.065060e-02 2.589639e-01 2.308763e-01 3.166711e-01 4.041336e-01 2.219605e-01 3.116790e-01 4.816073e-01 2.607031e-01 2.280653e-01 2.506170e-01 2.317693e-01
<GCONST> 1.000330e+02
<MIXTURE> 2 4.589460e-02
<MEAN> 39
 5.614180e-01 -1.031637e+00 3.054697e+01 -1.373703e+00 6.131960e+00 2.822702e+01 -6.657140e+00 1.706297e+01 -6.947106e+00 -2.251351e+01 -3.169986e+00 -1.509631e+01 6.024837e+00 -8.830910e-01 -2.972534e-01 -3.645034e-01 2.469069e+00 1.092300e-01 -2.685314e-01 1.293470e+00 4.760255e-01 1.198667e+00 -1.139092e+00 -4.464791e-01 1.320397e+00 -6.936672e-01 3.685893e-02 -3.427458e-01 -2.204950e-01 -7.968935e-02 -1.985078e-01 -2.240200e-01 1.386914e-02 -5.857382e-01 2.292143e-01 6.725492e-01 5.340140e-01 6.394426e-01 -2.778103e-01
<VARIANCE> 39
 1.978186e+01 5.778652e+01 1.230635e+01 4.370174e+00 6.786973e+00 2.357461e+00 1.184227e+01 8.023573e+01 5.244547e+00 3.095671e+01 1.732345e+01 4.337583e+01 4.184570e-01 4.640932e+00 3.922840e-01 5.382545e+00 7.683687e-02 1.987095e+00 5.125321e+00 6.139445e+00 3.174611e+00 1.582639e+00 4.123062e+00 1.059010e+00 7.533895e-01 9.950974e-02 1.986804e-02 1.419553e-01 1.556622e-01 2.619094e-01 1.867459e-01 3.592925e-01 1.798334e-01 4.171860e-01 2.663430e-01 5.418623e-01 1.195159e-01 2.136211e-01 6.996303e-02
<GCONST> 8.489716e+01
<STATE> 4
<NUMMIXES> 2
<MIXTURE> 1 5.029770e-01
<MEAN> 39
 -1.745270e+01 -2.325970e+01 4.197982e+01 -9.935739e+00 3.757476e+00 3.660659e+01 -5.043614e+00 9.635051e+00 -4.863341e+00 -1.417395e+00 1.224142e+01 4.658178e+00 8.046850e+00 5.814111e-01 -7.003175e-01 -6.741849e-01 -3.895990e-01 1.068379e-01 -7.017715e-02 -5.038336e-01 -7.894737e-01 -6.652398e-01 2.868491e-01 -1.308461e-01 -2.008832e-01 5.239965e-01 6.606899e-01 4.971422e-01 -1.524518e-01 4.737999e-01 1.733138e-01 -8.740370e-02 -1.060357e-01 -4.234537e-01 -2.173215e-01 -3.557908e-01 -4.345184e-01 -3.108799e-01 -2.764169e-01
<VARIANCE> 39
 1.336313e+01 1.981709e+01 1.474935e+01 3.089423e+01 2.543370e+01 3.566707e+01 1.599088e+01 1.352452e+01 2.758336e+01 2.473834e+01 1.664896e+01 1.698926e+01 1.306059e+01 2.290362e+00 2.184937e+00 1.506787e+00 2.925287e+00 2.437413e+00 3.367651e+00 1.359266e+00 1.569126e+00 2.740240e+00 1.743875e+00 1.697922e+00 1.802149e+00 1.546590e+00 1.593893e-01 2.490924e-01 3.026863e-01 3.067938e-01 3.932364e-01 6.933472e-01 2.668434e-01 2.539244e-01 5.697039e-01 3.291141e-01 2.699342e-01 2.632834e-01 2.228793e-01
<GCONST> 1.039663e+02
<MIXTURE> 2 4.970231e-01
<MEAN> 39
 -7.254303e-02 -1.654437e+01 3.074560e+01 -2.930805e+00 5.626004e+00 3.013981e+01 -9.648815e+00 2.064191e+00 -7.940269e+00 -7.667785e+00 4.104509e+00 -5.878001e-01 6.125399e+00 4.354330e+00 1.513358e+00 -4.522632e+00 1.880742e+00 2.570502e-01 -3.564501e+00 -1.470214e+00 -5.928423e-01 -3.710621e-01 -2.434926e+00 -7.426590e-01 -2.226999e-01 -1.020851e+00 1.232628e-01 -1.078339e-01 -7.630795e-01 1.915171e-01 2.210947e-01 -6.634016e-01 -1.591243e-01 6.735238e-01 -7.457122e-02 -6.094909e-01 6.867169e-01 3.053252e-01 -3.405865e-01
<VARIANCE> 39
 7.237833e+01 1.824716e+01 8.623882e+01 2.404768e+01 1.139944e+01 6.097101e+01 1.783776e+01 2.418172e+01 2.498688e+01 3.681218e+01 2.684364e+01 1.229031e+01 1.245538e+01 1.107206e+00 1.232698e+00 4.217872e+00 1.344175e+00 1.090034e+00 2.529930e+00 1.127293e+00 3.080488e+00 1.483033e+00 2.675498e+00 3.085424e+00 1.495025e+00 1.239469e+00 4.124889e-01 2.801450e-01 4.409738e-01 1.752768e-01 1.854322e-01 3.542851e-01 2.032264e-01 3.209635e-01 3.473540e-01 2.480385e-01 5.963901e-01 1.991411e-01 1.321613e-01
<GCONST> 1.049069e+02
<TRANSP> 5
 0.000000e+00 1.000000e+00 0.000000e+00 0.000000e+00 0.000000e+00
 0.000000e+00 8.671166e-01 1.328835e-01 0.000000e+00 0.000000e+00
 0.000000e+00 0.000000e+00 7.429900e-01 2.570100e-01 0.000000e+00
 0.000000e+00 0.000000e+00 0.000000e+00 9.060755e-01 9.392449e-02
 0.000000e+00 0.000000e+00 0.000000e+00 0.000000e+00 0.000000e+00
<ENDHMM>
~h "aa"
<BEGINHMM>
<NUMSTATES> 7
<STATE> 2
<NUMMIXES> 2
<MIXTURE> 1 2.062803e-01
<MEAN> 39
 2.218803e+01 -1.211195e+01 -1.342533e+01 7.940652e+00 1.298554e+01 -9.985502e+00 -2.007468e+01 1.469483e+01 -5.761675e+00 -1.829060e+01 1.515022e+01 7.331732e+00 -6.999021e-01 1.100426e-01 -1.618976e-01 -1.113466e+00 -8.352491e-01 -7.098098e-01 -6.962894e-01 5.937772e-01 5.534417e-01 9.160699e-01 8.106956e-01 -3.000866e-01 3.132595e-01 6.832616e-01 -1.315655e-01 6.592253e-02 1.583870e-01 2.457523e-02 -4.183943e-02 1.914688e-01 1.421012e-01 -3.623752e-02 1.086758e-01 1.404696e-01 -1.933795e-01 -1.956102e-01 -3.125902e-02
<VARIANCE> 39
 7.740331e+00 1.352786e+01 2.266153e+01 2.181991e+01 3.511390e+01 3.077825e+01 5.095170e+01 4.964077e+01 4.382437e+01 3.232901e+01 6.309596e+01 1.645916e+01 1.899286e+01 6.327706e-01 4.433330e-01 6.948761e-01 5.956838e-01 5.175493e-01 6.168455e-01 1.338371e+00 1.568586e+00 6.513840e-01 9.179624e-01 1.426503e+00 6.843540e-01 4.851085e-01 8.618230e-02 6.631881e-02 9.039107e-02 7.075727e-02 5.576442e-02 9.777185e-02 1.137211e-01 1.584641e-01 7.661141e-02 1.048969e-01 1.330603e-01 7.693254e-02 6.493860e-02
<GCONST> 7.909921e+01
<MIXTURE> 2 7.937194e-01
<MEAN> 39
 1.675949e+01 -7.586209e+00 -1.012754e+01 4.741826e+00 3.497072e+00 -7.725195e+00 -9.626961e+00 1.647691e+01 -9.833661e-01 -1.169697e+01 8.258915e+00 3.018028e+00 1.064325e+00 1.275079e+00 -5.913888e-01 -1.751170e+00 -2.677568e-01 1.433043e-01 -1.840735e+00 -8.747874e-01 1.316766e+00 2.603703e-01 -7.902175e-01 6.178293e-01 5.853850e-01 -1.345354e-01 -4.058030e-01 -4.301205e-02 2.273657e-01 -6.768435e-02 -2.744823e-02 3.686540e-01 2.460202e-01 -1.343276e-01 1.861991e-01 3.372081e-01 -1.802626e-01 -1.104514e-01 9.970000e-02
<VARIANCE> 39
 1.266070e+02 3.575916e+01 4.626583e+01 4.752600e+01 9.586745e+01 8.407518e+01 9.256189e+01 9.754888e+01 9.835989e+01 7.841070e+01 7.371562e+01 2.455817e+01 2.305177e+01 3.283463e+00 1.853877e+00 3.295635e+00 2.379569e+00 2.546445e+00 3.897808e+00 3.385453e+00 3.627850e+00 2.358728e+00 3.130373e+00 2.671795e+00 1.686677e+00 1.283638e+00 4.246354e-01 3.020144e-01 4.478739e-01 4.190142e-01 3.736410e-01 4.830122e-01 4.444157e-01 5.706443e-01 4.065107e-01 4.983849e-01 4.501019e-01 2.457087e-01 2.050391e-01
<GCONST> 1.257127e+02
<STATE> 3
<NUMMIXES> 2
<MIXTURE> 1 2.335129e-03
<MEAN> 39
 2.208176e+01 -9.581819e+00 -1.140058e+01 7.326523e+00 -7.313506e+00 -2.085467e+01 1.477182e+00 3.041269e+01 5.733924e+00 -1.584142e+01 4.500152e-01 4.834921e+00 -4.168721e+00 -6.221598e-02 -4.222237e-01 -1.866352e-01 -6.526293e-02 2.909114e-01 2.464773e-01 2.331444e-01 -9.102347e-02 -2.273170e-01 1.254516e-01 1.849269e-02 -3.281083e-01 7.408326e-02 4.255531e-02 4.422795e-02 -2.592145e-02 -1.580585e-02 1.236540e-01 -4.691108e-02 -1.442597e-01 8.661076e-02 -3.479905e-02 -5.554598e-02 9.607786e-02 1.508996e-02 -1.884824e-02
<VARIANCE> 39
 8.701619e+00 6.344855e+00 1.489896e+00 3.674891e+00 1.850929e+00 4.584350e+00 9.447052e+00 7.828745e+00 7.572848e+00 6.168171e+00 4.813081e+00 3.270053e+00 3.871257e-01 6.106592e-01 3.469506e-01 1.620661e-01 2.307186e-01 1.327606e-01 1.758261e-01 2.299085e-01 2.768290e-01 7.644035e-02 1.277438e-01 2.532526e-01 2.482343e-01 3.920761e-02 8.836184e-02 3.347816e-02 2.691544e-02 3.181237e-02 1.620025e-02 3.143303e-02 3.672681e-02 4.345031e-02 1.891724e-02 2.275133e-02 5.747432e-02 5.497798e-02 1.736539e-02
<GCONST> 2.302645e+01
<MIXTURE> 2 9.976648e-01
<MEAN> 39
 2.191370e+01 -1.085882e+01 -1.528639e+01 3.655827e+00 6.891348e+00 -1.298761e+01 -1.514486e+01 2.202819e+01 2.364952e+00 -1.448750e+01 9.180418e+00 4.160368e+00 1.331104e+00 -4.466323e-02 -1.821595e-01 -4.633753e-01 -2.799414e-01 -4.053239e-01 -3.290599e-01 4.394115e-01 3.694118e-01 7.274703e-01 5.582897e-01 -4.221278e-01 -8.076312e-02 1.045962e-01 -4.330204e-02 5.478512e-02 1.216248e-01 7.733937e-02 1.354890e-02 1.245183e-01 7.352103e-02 -1.089792e-01 -6.612769e-02 1.582699e-02 -5.530080e-02 -5.660268e-02 -3.205277e-02
<VARIANCE> 39
 1.218122e+01 1.455697e+01 2.307898e+01 2.304529e+01 4.637653e+01 4.947809e+01 4.639812e+01 7.112782e+01 7.044390e+01 4.298558e+01 8.013982e+01 2.315373e+01 2.047018e+01 7.724845e-01 5.326306e-01 7.987234e-01 8.153147e-01 8.565522e-01 8.525699e-01 1.570698e+00 2.409962e+00 1.168793e+00 1.352678e+00 2.032214e+00 9.638808e-01 6.133187e-01 1.494548e-01 8.458065e-02 1.394027e-01 1.287817e-01 1.340346e-01 1.611520e-01 2.614315e-01 3.824803e-01 1.471392e-01 2.407547e-01 3.201956e-01 1.598324e-01 1.032556e-01
<GCONST> 9.476162e+01
<STATE> 4
<NUMMIXES> 2
<MIXTURE> 1 1.135032e-01
<MEAN> 39
 1.187582e+01 -3.363279e+00 -1.184161e+01 -1.391646e+00 -4.686446e+00 -3.741276e+00 2.823380e+00 1.945613e+01 1.049735e+01 3.308520e+00 8.090816e+00 8.814213e+00 1.029588e+01 -3.322573e-01 3.005978e-01 3.249066e-01 -4.435657e-02 4.106604e-03 5.871620e-01 8.760889e-01 3.933193e-01 2.586507e-01 2.981779e-01 -1.557482e-01 -2.139385e-01 -7.904014e-02 4.690628e-02 -1.986028e-02 9.437658e-03 1.062547e-01 1.618483e-01 1.037300e-02 -1.071927e-01 -2.947522e-03 -1.205708e-01 -1.519604e-01 4.823489e-02 -2.911926e-02 -1.142743e-01
<VARIANCE> 39
 4.080907e+01 7.813500e+01 2.681097e+01 3.150622e+01 7.299042e+01 4.009437e+01 1.034167e+02 6.481282e+01 3.323039e+01 3.408229e+01 4.231706e+01 5.316333e+01 1.767594e+01 8.066661e-01 1.161673e+00 9.123887e-01 1.328460e+00 1.950872e+00 1.864057e+00 2.215522e+00 1.740177e+00 1.485868e+00 1.825401e+00 1.599684e+00 1.340872e+00 1.063982e+00 8.061673e-02 1.175947e-01 1.438325e-01 1.650046e-01 2.220122e-01 2.598141e-01 3.234995e-01 3.020790e-01 2.417488e-01 2.836369e-01 2.589620e-01 2.290858e-01 1.657292e-01
<GCONST> 1.046093e+02
<MIXTURE> 2 8.864958e-01
<MEAN> 39
 2.297130e+01 -1.180921e+01 -1.883763e+01 4.062952e+00 2.060472e+00 -1.684801e+01 -9.750568e+00 2.318675e+01 8.271372e+00 -1.004253e+01 2.958806e+00 2.718394e+00 5.267923e-01 -2.126816e-02 -1.109349e-01 -9.173720e-02 -4.221132e-02 -9.135910e-02 3.583746e-02 2.235971e-01 1.556558e-02 5.525213e-02 1.531418e-01 -7.197287e-02 -8.387990e-02 3.703339e-03 1.867553e-02 3.028684e-02 6.994899e-02 2.474375e-02 3.980132e-02 3.989447e-02 -5.520898e-02 1.164226e-02 -1.199845e-01 -7.593268e-02 1.120376e-01 -1.873813e-02 -2.077339e-02
<VARIANCE> 39
 9.585566e+00 9.969817e+00 1.483105e+01 1.145501e+01 2.792110e+01 3.538813e+01 2.488897e+01 3.867865e+01 4.551680e+01 2.193565e+01 4.348326e+01 1.200241e+01 1.223922e+01 6.996945e-01 3.412002e-01 4.024155e-01 4.268351e-01 3.955609e-01 4.255806e-01 5.937692e-01 1.009367e+00 6.862355e-01 5.605039e-01 9.853048e-01 4.295792e-01 2.844033e-01 9.592567e-02 4.093535e-02 5.513154e-02 6.168072e-02 4.533437e-02 4.900121e-02 8.348912e-02 1.234691e-01 5.460709e-02 7.840662e-02 1.220950e-01 5.645648e-02 3.977989e-02
<GCONST> 6.668246e+01
<STATE> 5
<NUMMIXES> 2
<MIXTURE> 1 6.312559e-01
<MEAN> 39
 2.375661e+01 -1.325025e+01 -1.808949e+01 4.242603e+00 4.379062e+00 -1.529860e+01 -1.112272e+01 2.483003e+01 3.291480e+00 -1.279461e+01 8.448355e+00 1.924404e+00 -3.085474e-01 4.613596e-02 1.336762e-02 2.074939e-01 2.538002e-02 3.350971e-01 2.902198e-01 -2.887614e-01 -9.497884e-02 -6.437584e-01 -2.222734e-01 6.419628e-01 -5.294114e-02 -2.651293e-02 -1.705077e-01 1.510460e-01 1.387188e-01 -3.350962e-02 -2.841269e-02 1.065291e-01 5.808218e-02 -2.443092e-01 1.387286e-02 1.107820e-01 -1.336398e-01 4.399034e-02 6.138004e-02
<VARIANCE> 39
 7.350973e+00 7.988296e+00 1.533842e+01 1.138287e+01 3.199706e+01 2.675948e+01 3.229914e+01 4.536663e+01 5.357114e+01 2.711116e+01 5.604004e+01 1.700025e+01 1.363586e+01 1.097175e+00 5.417136e-01 5.730177e-01 5.597007e-01 6.887252e-01 5.591539e-01 1.042464e+00 2.031774e+00 9.962571e-01 9.137499e-01 1.921559e+00 7.171558e-01 4.122381e-01 1.209708e-01 6.710526e-02 8.085870e-02 7.969729e-02 5.928316e-02 6.316456e-02 1.161716e-01 1.922245e-01 8.094358e-02 1.033563e-01 1.821822e-01 8.767272e-02 5.279607e-02
<GCONST> 7.807788e+01
<MIXTURE> 2 3.687457e-01
<MEAN> 39
 1.988288e+01 -1.118403e+01 -1.333447e+01 3.168322e+00 9.595984e+00 -1.057119e+01 -1.609708e+01 2.082307e+01 -1.294285e+00 -1.393220e+01 1.225169e+01 3.741070e+00 1.986467e+00 -1.253024e-01 6.916481e-02 4.555185e-01 3.774307e-01 6.475424e-01 4.302603e-01 -4.507015e-01 -5.358912e-01 -9.170834e-01 -2.929217e-01 7.708382e-01 -1.469249e-02 -3.278052e-01 1.268002e-01 -4.234021e-02 -4.331701e-02 9.965122e-02 5.433241e-02 -2.462358e-02 -6.074869e-02 7.802287e-02 -5.888164e-02 -1.116518e-01 1.073907e-01 -3.971703e-02 -1.246254e-01
<VARIANCE> 39
 1.638795e+01 1.319664e+01 2.631928e+01 3.076253e+01 5.598536e+01 3.228485e+01 7.768389e+01 9.074068e+01 8.788873e+01 5.212097e+01 1.036911e+02 3.466007e+01 2.951867e+01 6.257582e-01 4.471856e-01 6.944368e-01 9.249894e-01 1.191411e+00 9.623704e-01 2.199202e+00 3.001053e+00 1.455418e+00 1.504913e+00 2.465280e+00 1.147117e+00 8.666475e-01 1.574279e-01 8.225310e-02 1.114241e-01 1.303338e-01 1.707203e-01 1.578785e-01 3.561247e-01 5.675147e-01 2.300643e-01 2.908508e-01 4.430353e-01 2.017066e-01 1.157452e-01
<GCONST> 1.010333e+02
<STATE> 6
<NUMMIXES> 2
<MIXTURE> 1 5.003225e-01
<MEAN> 39
 2.154066e+01 -9.909764e+00 -1.370246e+01 3.411566e+00 2.916028e+00 -1.188525e+01 -8.872470e+00 2.180247e+01 1.842188e+00 -1.107957e+01 8.064196e+00 1.128153e+00 2.201773e-01 -1.059411e-01 4.208119e-01 4.707943e-01 4.209643e-02 2.349397e-01 5.544841e-01 -6.836310e-02 -5.579501e-01 -5.511668e-01 -8.273321e-02 2.815888e-01 9.880435e-03 -6.133302e-02 -3.001503e-02 7.431796e-02 2.863963e-02 2.837492e-02 2.528148e-02 5.715539e-02 1.697308e-02 -3.557770e-02 3.939760e-02 1.762671e-02 -6.557900e-02 9.768434e-04 6.454214e-04
<VARIANCE> 39
 1.466239e+01 1.916844e+01 2.643895e+01 2.276756e+01 5.520295e+01 4.542937e+01 5.718721e+01 6.813691e+01 7.869705e+01 4.256876e+01 7.261790e+01 2.867293e+01 2.197692e+01 7.507296e-01 6.949437e-01 8.001662e-01 7.769700e-01 9.186631e-01 9.750927e-01 1.465700e+00 1.853193e+00 9.857885e-01 9.844466e-01 1.705020e+00 8.243646e-01 5.540832e-01 1.093118e-01 7.626009e-02 1.068589e-01 1.140602e-01 9.906550e-02 1.249592e-01 1.693511e-01 2.322963e-01 1.274039e-01 1.442910e-01 2.203316e-01 1.245695e-01 7.802512e-02
<GCONST> 9.117787e+01
<MIXTURE> 2 4.996722e-01
<MEAN> 39
 5.737411e+00 -1.929356e+00 -6.724201e+00 2.450543e+00 3.508595e+00 -2.141821e-01 -2.425219e+00 1.365686e+01 3.296823e-01 -6.341760e+00 5.581931e+00 2.616928e+00 2.443612e+00 -1.300050e+00 7.860818e-01 9.451936e-01 6.968559e-02 7.302016e-04 9.788142e-01 5.105703e-01 -8.546690e-01 1.561559e-01 4.836711e-01 -7.691020e-01 -4.245287e-02 2.445389e-01 -9.080154e-02 -4.535976e-02 6.818890e-02 -1.245765e-02 -2.296077e-02 2.869314e-02 3.566234e-02 2.015237e-03 3.447682e-02 4.996866e-02 -3.370506e-02 3.542953e-03 4.039846e-02
<VARIANCE> 39
 3.025119e+02 5.769784e+01 7.176144e+01 4.613857e+01 6.659249e+01 1.234879e+02 1.091661e+02 1.000476e+02 8.026201e+01 6.540855e+01 7.133058e+01 3.711927e+01 3.635392e+01 2.552948e+00 2.449061e+00 2.269849e+00 1.534656e+00 1.779317e+00 3.220169e+00 3.225773e+00 3.074295e+00 2.236425e+00 2.266946e+00 3.115384e+00 1.499461e+00 1.351221e+00 2.590370e-01 2.139812e-01 2.716172e-01 1.959594e-01 2.361036e-01 3.348917e-01 3.852486e-01 4.046214e-01 3.534532e-01 3.432098e-01 4.421103e-01 2.202422e-01 2.017762e-01
<GCONST> 1.222290e+02
<TRANSP> 7
 0.000000e+00 1.000000e+00 0.000000e+00 0.000000e+00 0.000000e+00 0.000000e+00 0.000000e+00
 0.000000e+00 7.918646e-01 2.081354e-01 0.000000e+00 0.000000e+00 0.000000e+00 0.000000e+00
 0.000000e+00 0.000000e+00 8.278263e-01 1.721738e-01 0.000000e+00 0.000000e+00 0.000000e+00
 0.000000e+00 0.000000e+00 0.000000e+00 8.489785e-01 1.510215e-01 0.000000e+00 0.000000e+00
 0.000000e+00 0.000000e+00 0.000000e+00 0.000000e+00 8.552682e-01 1.447318e-01 0.000000e+00
 0.000000e+00 0.000000e+00 0.000000e+00 0.000000e+00 0.000000e+00 8.688773e-01 1.311227e-01
 0.000000e+00 0.000000e+00 0.000000e+00 0.000000e+00 0.000000e+00 0.000000e+00 0.000000e+00
<ENDHMM>
~h "ax"
<BEGINHMM>
<NUMSTATES> 7
<STATE> 2
<NUMMIXES> 2
<MIXTURE> 1 4.778851e-01
<MEAN> 39
 -5.374175e+00 -3.359900e+00 2.404850e+00 2.542655e+00 -4.128597e+00 9.971368e-01 1.696732e+00 1.562241e+01 4.402376e+00 -3.141331e+00 1.630728e+00 9.104377e-01 4.997911e+00 3.636416e+00 5.621792e-01 6.871108e-02 6.978904e-01 -5.114485e-01 -1.509721e+00 -1.579275e-01 1.592629e+00 4.471945e-01 -1.009204e+00 -1.037011e-01 -1.822882e-01 -2.427947e-01 2.573638e-01 -2.297012e-01 -3.751099e-01 -5.312985e-01 -6.456594e-01 -6.509300e-01 -3.789946e-01 1.271688e-01 -3.203643e-01 -4.562402e-01 2.075408e-01 -2.938139e-01 -5.267739e-01
<VARIANCE> 39
 1.366205e+02 8.087346e+01 3.202754e+01 1.917605e+01 4.254099e+01 4.467826e+01 4.564922e+01 3.979689e+01 2.315823e+01 4.035767e+01 1.939218e+01 2.854761e+01 2.435441e+01 1.939445e+00 2.736373e+00 2.562371e+00 8.020205e+00 9.965527e+00 5.004825e+00 4.596167e+00 6.594867e+00 3.370966e+00 4.154946e+00 2.423173e+00 3.805464e+00 4.322087e+00 1.842425e-01 3.142846e-01 3.441147e-01 5.860682e-01 6.864899e-01 5.179220e-01 3.923154e-01 5.409519e-01 4.178168e-01 4.674533e-01 3.594755e-01 5.107894e-01 5.537111e-01
<GCONST> 1.261959e+02
<MIXTURE> 2 5.221148e-01
<MEAN> 39
 1.451438e+01 -8.555220e-01 -9.333829e-01 1.545520e+00 -1.104787e+01 -1.392446e+01 -4.891031e+00 2.430297e+01 5.499847e+00 -1.053252e+01 3.308257e+00 -2.337431e+00 -1.011313e+00 2.389284e+00 -3.648133e-01 -6.845018e-01 1.265848e+00 4.837176e-01 -2.316257e+00 -1.544697e+00 5.965916e-01 6.088210e-01 -5.955861e-01 -2.170896e-01 5.134321e-02 -7.787288e-01 -5.351979e-01 -1.416634e-01 -1.059062e-01 3.678807e-01 6.596045e-01 2.591484e-01 -1.220699e-01 -4.610826e-01 1.989618e-01 3.879983e-01 -1.257320e-01 3.481748e-01 2.229173e-01
<VARIANCE> 39
 4.459334e+01 1.963572e+01 1.863148e+01 9.435859e+01 8.844733e+01 1.533059e+02 1.133285e+02 5.260192e+01 5.747097e+01 5.942020e+01 3.078874e+01 4.758737e+01 1.697155e+01 2.045774e+00 8.550046e-01 2.454988e+00 5.620156e+00 6.915730e+00 5.121678e+00 3.078775e+00 6.406271e+00 2.468669e+00 4.659775e+00 2.644486e+00 2.713066e+00 1.337644e+00 2.401929e-01 1.716585e-01 2.525910e-01 1.642172e+00 1.394341e+00 7.691065e-01 4.761648e-01 1.264005e+00 5.195372e-01 9.034751e-01 5.670158e-01 3.694827e-01 2.825247e-01
<GCONST> 1.287363e+02
<STATE> 3
<NUMMIXES> 2
<MIXTURE> 1 9.394116e-01
<MEAN> 39
 2.288483e+01 -4.981789e+00 -8.747093e+00 9.897329e+00 -6.290817e-01 -2.277620e+01 -1.547691e+01 2.297568e+01 9.839588e+00 -1.190509e+01 1.126717e+00 1.218909e+00 -3.706036e+00 4.694678e-01 -5.359765e-01 -1.426142e+00 -2.365149e-01 3.656725e-01 -1.417968e+00 -1.060829e+00 5.092802e-01 1.084734e+00 1.770886e-01 1.652195e-01 7.316228e-01 -3.532715e-01 -3.670542e-01 1.504563e-01 3.069549e-01 -3.155614e-01 -2.728846e-01 4.869551e-01 4.407032e-01 -1.501674e-01 4.511692e-02 3.115064e-01 -1.266236e-01 -1.676604e-01 2.041202e-01
<VARIANCE> 39
 8.998867e+00 1.248735e+01 2.545686e+01 7.557089e+00 2.521386e+01 4.957773e+01 3.108544e+01 2.512029e+01 3.009863e+01 2.524959e+01 2.463954e+01 1.075108e+01 1.502782e+01 9.915807e-01 4.463370e-01 8.943293e-01 6.368680e-01 1.213438e+00 1.605780e+00 1.605671e+00 2.028938e+00 6.113163e-01 1.511855e+00 1.338604e+00 1.001162e+00 7.883438e-01 2.076616e-01 6.530412e-02 1.334556e-01 2.191990e-01 1.924535e-01 2.185483e-01 3.010332e-01 4.049618e-01 1.106544e-01 2.616808e-01 2.583413e-01 1.614704e-01 1.239330e-01
<GCONST> 8.890632e+01
<MIXTURE> 2 6.058815e-02
<MEAN> 39
 2.139573e+01 -9.383383e+00 -1.197368e+01 7.482275e+00 7.771909e+00 -1.679292e+01 -1.847766e+01 1.829589e+01 -4.555258e+00 -2.353314e+01 7.118601e+00 6.093570e+00 -1.664547e+00 1.589096e-01 4.026753e-01 -8.728752e-01 -2.330064e-01 -1.472758e+00 -1.281263e+00 1.215698e+00 1.567574e-01 1.918376e+00 1.629494e+00 -1.575267e+00 3.046090e-01 2.693335e-01 9.621357e-02 5.227522e-02 1.564394e-02 1.337648e-02 6.941894e-02 1.263924e-02 -2.497297e-01 1.781163e-01 6.569625e-02 -3.222954e-02 1.909165e-01 -1.048033e-01 -1.793797e-01
<VARIANCE> 39
 5.483213e+00 2.645641e+00 7.565853e+00 2.088207e+00 2.295812e+01 1.451522e+01 8.096330e+00 1.617216e+01 4.111626e+01 1.987643e+01 2.311273e+01 6.022904e+00 2.150156e+00 2.869706e-01 4.921285e-02 2.050160e-01 5.487876e-02 4.453033e-01 2.352934e-01 6.187485e-01 1.025979e+00 2.651460e-01 4.621824e-01 6.197780e-01 3.380055e-01 4.433420e-01 2.368258e-02 1.676267e-02 3.164278e-02 1.143642e-02 1.013621e-01 3.761947e-02 4.352900e-02 8.948891e-02 5.993668e-02 2.356159e-02 1.035861e-01 3.133960e-02 3.166859e-02
<GCONST> 4.165105e+01
<STATE> 4
<NUMMIXES> 2
<MIXTURE> 1 9.176810e-01
<MEAN> 39
 2.304533e+01 -6.336787e+00 -1.327635e+01 7.657314e+00 -1.133587e+00 -2.766378e+01 -1.938145e+01 2.236804e+01 1.536636e+01 -8.272448e+00 1.146436e-01 3.858750e+00 -2.435558e+00 1.183802e-02 -8.109893e-02 -2.758206e-01 -2.625610e-01 -1.164554e-01 -9.348483e-02 -5.965710e-03 6.830204e-02 4.472314e-01 3.961287e-01 -9.843792e-02 -1.990092e-02 7.817350e-02 -1.757450e-02 5.239249e-02 6.981911e-02 2.034978e-02 1.539531e-02 1.414819e-01 1.036833e-01 -4.531202e-03 -1.236334e-01 -5.887292e-02 3.483768e-03 -5.462089e-02 -1.020589e-02
<VARIANCE> 39
 1.003145e+01 5.402851e+00 1.544530e+01 8.764602e+00 1.103626e+01 2.331720e+01 2.160974e+01 1.866892e+01 1.345681e+01 1.540548e+01 1.775789e+01 4.030365e+00 9.484091e+00 1.017689e+00 2.898208e-01 5.003998e-01 4.453613e-01 5.040154e-01 6.347496e-01 7.621150e-01 1.378751e+00 5.238567e-01 9.034761e-01 9.474363e-01 3.477553e-01 3.183936e-01 1.504051e-01 3.914622e-02 5.732834e-02 5.114895e-02 5.425701e-02 5.182936e-02 9.062811e-02 1.706538e-01 3.729852e-02 1.123654e-01 1.145945e-01 4.038646e-02 4.001225e-02
<GCONST> 6.208891e+01
<MIXTURE> 2 8.231900e-02
<MEAN> 39
 2.265952e+01 -6.552162e+00 -1.152063e+01 7.897915e+00 -6.449834e-01 -2.268222e+01 -1.239642e+01 2.075750e+01 8.999587e+00 -9.035441e+00 4.170203e+00 4.940605e+00 -6.501223e+00 -5.280387e-02 -8.133161e-02 -9.655912e-01 -7.300832e-01 -8.266415e-03 -9.126493e-01 -5.381464e-01 1.639649e-01 1.282012e+00 5.935442e-01 -3.118240e-01 6.421423e-01 1.915797e-01 5.059474e-02 -2.986472e-02 1.868978e-01 -4.559883e-02 -4.747933e-02 3.392024e-01 6.387945e-02 2.486959e-01 -2.436444e-01 -1.914253e-01 1.500969e-01 -4.561863e-01 1.001486e-01
<VARIANCE> 39
 7.027747e+00 2.999458e+00 8.301728e+00 1.785386e+00 6.677815e+00 1.487704e+01 9.541459e+00 8.799784e+00 9.326129e+00 7.249096e+00 5.959864e+00 1.221507e+00 1.195755e+00 3.882044e-01 3.250297e-01 1.247941e-01 1.315567e-01 2.344624e-01 3.051262e-01 3.250250e-01 8.293819e-01 3.085907e-01 2.403937e-01 3.795638e-01 5.267199e-01 1.914862e-01 4.146558e-02 3.207897e-02 3.978587e-02 1.691788e-02 2.895629e-02 6.441735e-02 4.951408e-02 8.794109e-02 1.987441e-02 6.685473e-02 7.147732e-02 4.506810e-02 4.482958e-02
<GCONST> 3.572294e+01
<STATE> 5
<NUMMIXES> 2
<MIXTURE> 1 9.410446e-01
<MEAN> 39
 2.331008e+01 -5.152349e+00 -1.348268e+01 4.823709e+00 -9.775000e-01 -2.240892e+01 -1.478584e+01 2.335222e+01 1.338881e+01 -8.105731e+00 3.180529e+00 4.722503e+00 -4.874352e+00 -5.768006e-02 3.757714e-01 2.675380e-01 -4.155168e-02 3.186272e-02 3.185511e-01 1.923643e-01 -1.707508e-01 -3.176904e-01 -1.010029e-01 1.326827e-01 1.936839e-01 -5.945763e-02 -4.482925e-02 5.567661e-02 1.033423e-01 6.702315e-02 4.837639e-02 7.964019e-02 5.431174e-02 -8.872850e-02 -9.811618e-02 -1.711783e-02 -2.553171e-02 -2.057102e-02 -1.456006e-02
<VARIANCE> 39
 1.027397e+01 1.200939e+01 2.004755e+01 1.029281e+01 1.310928e+01 1.863182e+01 1.880086e+01 2.715756e+01 1.406723e+01 1.949132e+01 2.773951e+01 2.036544e+01 1.877813e+01 8.761414e-01 3.639944e-01 7.064835e-01 7.327293e-01 6.936827e-01 9.388141e-01 8.073208e-01 1.549832e+00 6.791782e-01 9.527428e-01 9.971141e-01 6.370852e-01 3.602186e-01 1.498762e-01 5.155113e-02 9.238598e-02 8.903730e-02 9.073487e-02 1.085691e-01 1.296600e-01 2.390109e-01 7.622972e-02 1.657524e-01 1.688957e-01 9.776633e-02 6.243936e-02
<GCONST> 7.551656e+01
<MIXTURE> 2 5.895501e-02
<MEAN> 39
 1.954265e+01 -4.424086e+00 -1.090072e+01 2.460699e+00 -4.984883e+00 -2.146107e+01 -9.047954e+00 2.109322e+01 1.108929e+01 -7.627683e+00 2.974100e+00 6.874686e+00 -6.398522e+00 3.352527e-01 4.607418e-01 5.730319e-02 -2.396539e-01 2.444742e-01 1.615817e-01 -5.578784e-01 4.948626e-01 -2.810350e-01 -7.286717e-01 8.176898e-01 4.188725e-01 -4.475671e-01 3.977578e-01 -5.629205e-02 -1.370351e-01 2.526488e-01 3.230238e-01 -8.053228e-02 -4.501128e-01 4.198220e-01 3.235656e-02 -3.266537e-01 3.406821e-01 8.141812e-03 -1.222701e-01
<VARIANCE> 39
 4.059585e+00 4.398787e+00 5.629642e+00 9.367448e+00 3.367123e+00 3.868306e+00 5.832863e+00 5.249993e+00 3.083078e+00 6.694545e+00 5.885536e+00 5.889473e+00 2.775793e+00 6.973706e-01 2.382405e-01 4.791745e-01 3.068853e-01 3.263380e-01 3.441983e-01 6.593161e-01 8.644450e-01 5.175192e-01 6.019520e-01 5.002937e-01 3.058004e-01 2.859370e-01 4.887752e-02 3.780789e-02 8.899717e-02 8.150456e-02 4.432653e-02 4.871602e-02 5.885017e-02 6.990176e-02 3.131705e-02 3.336577e-02 9.403539e-02 5.700393e-02 2.561195e-02
<GCONST> 4.274273e+01
<STATE> 6
<NUMMIXES> 2
<MIXTURE> 1 5.842631e-01
<MEAN> 39
 1.838734e+01 6.079813e-01 -2.473081e+00 9.621764e+00 -3.211516e+00 -2.307820e+01 -1.300820e+01 2.481621e+01 1.090880e+01 -1.092430e+01 8.625878e-01 3.028431e+00 -1.574492e+00 -7.296743e-01 5.902932e-01 8.586966e-01 4.325254e-02 2.966517e-01 1.548521e+00 1.017248e+00 -5.215188e-01 -3.834313e-01 3.305987e-01 -2.654112e-01 -4.131501e-01 1.008701e-02 -1.040068e-01 -4.358000e-02 5.631054e-02 3.677585e-02 6.337287e-02 1.815380e-01 9.494069e-02 -4.430726e-02 -6.050872e-02 -9.817258e-03 -6.405934e-03 -4.419878e-02 -3.921003e-02
<VARIANCE> 39
 3.769852e+01 3.855847e+01 6.366977e+01 3.305438e+01 7.054717e+01 2.134976e+02 6.093085e+01 8.136923e+01 6.142092e+01 6.380710e+01 3.956504e+01 2.729556e+01 2.495422e+01 2.200587e+00 2.041471e+00 1.662839e+00 1.406233e+00 1.234199e+00 2.522153e+00 1.291348e+00 2.612735e+00 1.791486e+00 2.329592e+00 2.100595e+00 9.132764e-01 6.996378e-01 2.940346e-01 3.012343e-01 1.737375e-01 1.422434e-01 1.919899e-01 3.026650e-01 2.071891e-01 3.927138e-01 1.491169e-01 2.473307e-01 2.821129e-01 1.815090e-01 1.169747e-01
<GCONST> 1.097450e+02
<MIXTURE> 2 4.157369e-01
<MEAN> 39
 1.920171e+01 1.878038e+00 -1.441515e+00 1.449439e+01 5.541652e+00 -1.389597e+01 -8.896009e+00 2.122553e+01 3.166584e+00 -1.454347e+01 1.948400e+00 1.930298e+00 -8.361735e+00 -6.321188e-01 3.033806e-01 1.048245e+00 1.696873e+00 1.488649e+00 1.161344e+00 5.775351e-01 -2.564297e-01 -6.383672e-01 -2.334726e-01 -4.659131e-01 -9.551981e-01 -6.606584e-01 1.212312e-02 -5.315166e-02 -8.462518e-02 -8.839715e-02 -1.073235e-01 -1.324877e-01 -7.311024e-02 6.061118e-02 1.731635e-01 1.006571e-01 6.396549e-03 9.214219e-03 4.001710e-02
<VARIANCE> 39
 9.740635e+00 2.275123e+01 4.102459e+01 4.693121e+01 2.866706e+01 3.048903e+01 2.435111e+01 3.996799e+01 3.504430e+01 5.388436e+01 7.714037e+01 3.558819e+01 2.811994e+01 2.892185e-01 4.616823e-01 8.288601e-01 1.311070e+00 1.061281e+00 1.743402e+00 1.305219e+00 2.591048e+00 1.289293e+00 2.057863e+00 1.288503e+00 1.199998e+00 5.775303e-01 5.874725e-02 6.188763e-02 8.897352e-02 1.931066e-01 1.297503e-01 2.465086e-01 1.698948e-01 4.192927e-01 1.761333e-01 3.531642e-01 2.195181e-01 1.915029e-01 1.023780e-01
<GCONST> 9.386761e+01
<TRANSP> 7
 0.000000e+00 1.000000e+00 0.000000e+00 0.000000e+00 0.000000e+00 0.000000e+00 0.000000e+00
 0.000000e+00 8.945191e-01 1.054809e-01 0.000000e+00 0.000000e+00 0.000000e+00 0.000000e+00
 0.000000e+00 0.000000e+00 7.471289e-01 2.528710e-01 0.000000e+00 0.000000e+00 0.000000e+00
 0.000000e+00 0.000000e+00 0.000000e+00 8.467761e-01 1.532240e-01 0.000000e+00 0.000000e+00
 0.000000e+00 0.000000e+00 0.000000e+00 0.000000e+00 9.016950e-01 9.830508e-02 0.000000e+00
 0.000000e+00 0.000000e+00 0.000000e+00 0.000000e+00 0.000000e+00 8.789726e-01 1.210274e-01
 0.000000e+00 0.000000e+00 0.000000e+00 0.000000e+00 0.000000e+00 0.000000e+00 0.000000e+00
<ENDHMM>
~h "bh"
<BEGINHMM>
<NUMSTATES> 5
<STATE> 2
<NUMMIXES> 2
<MIXTURE> 1 5.000000e-01
<MEAN> 39
 5.819604e+00 1.555941e+01 1.299930e+01 1.677494e+01 1.320057e+01 1.041184e+01 4.225541e+00 1.116607e+01 1.015164e+00 -6.803034e+00 -5.392215e+00 -4.487446e+00 -3.250463e+00 -2.106243e-01 -2.098233e-01 2.502961e-02 1.610757e-01 3.878438e-01 6.454726e-01 2.709512e-01 -1.790820e-01 -2.529694e-01 1.797387e-01 4.010406e-01 1.784579e-02 3.017217e-02 1.510185e-01 -3.358769e-01 -3.353659e-01 -7.199723e-02 4.749261e-02 -1.052915e-01 -1.773542e-01 3.076095e-02 -5.161775e-02 -1.692136e-01 9.475550e-02 9.945183e-02 6.354091e-02
<VARIANCE> 39
 2.254446e+01 4.651971e+01 2.024528e+01 1.086056e+01 1.452010e+01 3.480290e+01 1.339389e+01 1.730900e+01 1.282279e+01 3.252044e+01 3.014127e+01 1.782846e+01 1.507609e+01 7.697724e-01 3.773309e+00 3.450989e+00 8.716279e-01 1.037835e+00 1.564884e+00 1.153532e+00 1.394290e+00 1.106628e+00 1.896533e+00 1.262590e+00 1.118650e+00 1.142243e+00 6.516558e-02 1.899159e-01 2.212550e-01 1.554043e-01 1.564288e-01 1.701450e-01 1.442975e-01 2.071170e-01 2.042984e-01 2.442418e-01 1.819331e-01 1.463428e-01 1.609314e-01
<GCONST> 9.172791e+01
<MIXTURE> 2 5.000000e-01
<MEAN> 39
 5.819604e+00 1.555941e+01 1.299930e+01 1.677494e+01 1.320057e+01 1.041184e+01 4.225541e+00 1.116607e+01 1.015164e+00 -6.803034e+00 -5.392215e+00 -4.487446e+00 -3.250463e+00 -2.106243e-01 -2.098233e-01 2.502961e-02 1.610757e-01 3.878438e-01 6.454726e-01 2.709512e-01 -1.790820e-01 -2.529694e-01 1.797387e-01 4.010406e-01 1.784579e-02 3.017217e-02 1.510185e-01 -3.358769e-01 -3.353659e-01 -7.199723e-02 4.749261e-02 -1.052915e-01 -1.773542e-01 3.076095e-02 -5.161775e-02 -1.692136e-01 9.475550e-02 9.945183e-02 6.354091e-02
<VARIANCE> 39
 2.254446e+01 4.651971e+01 2.024528e+01 1.086056e+01 1.452010e+01 3.480290e+01 1.339389e+01 1.730900e+01 1.282279e+01 3.252044e+01 3.014127e+01 1.782846e+01 1.507609e+01 7.697724e-01 3.773309e+00 3.450989e+00 8.716279e-01 1.037835e+00 1.564884e+00 1.153532e+00 1.394290e+00 1.106628e+00 1.896533e+00 1.262590e+00 1.118650e+00 1.142243e+00 6.516558e-02 1.899159e-01 2.212550e-01 1.554043e-01 1.564288e-01 1.701450e-01 1.442975e-01 2.071170e-01 2.042984e-01 2.442418e-01 1.819331e-01 1.463428e-01 1.609314e-01
<GCONST> 9.172791e+01
<STATE> 3
<NUMMIXES> 2
<MIXTURE> 1 5.000000e-01
<MEAN> 39
 1.084598e+01 1.583012e-01 2.378611e+00 2.105770e+01 2.413626e+01 1.313130e+01 -4.353161e+00 7.035699e+00 -6.351144e+00 -1.514059e+01 1.435462e+00 -3.703465e-01 -2.385790e+00 8.068528e-01 -1.744771e+00 -4.452870e-01 1.159825e+00 1.473249e+00 -3.951443e-01 -2.413624e+00 -7.738500e-01 -3.270662e-01 -6.915407e-01 1.233873e+00 1.663708e-01 -9.388416e-01 -1.836499e-01 3.276941e-01 5.609446e-01 1.384191e-01 -2.007506e-01 -1.646043e-01 -7.402499e-02 7.435061e-02 4.132432e-01 3.761773e-01 -3.114421e-02 -2.236681e-01 -2.527862e-01
<VARIANCE> 39
 1.274950e+01 3.689754e+01 1.852324e+01 4.092140e+01 5.436253e+01 3.187760e+01 5.683253e+01 3.033842e+01 2.970796e+01 6.164814e+01 2.516860e+01 2.915241e+01 2.390868e+01 1.113182e+00 1.733070e+00 3.627282e+00 2.811797e+00 2.576831e+00 1.907671e+00 2.202696e+00 1.828198e+00 3.686494e+00 5.465886e+00 1.595809e+00 1.905607e+00 1.970230e+00 1.361917e-01 1.915576e-01 2.645313e-01 5.106609e-01 5.428216e-01 2.982707e-01 4.895703e-01 3.927930e-01 4.630247e-01 6.624603e-01 3.194002e-01 2.846373e-01 2.734540e-01
<GCONST> 1.134215e+02
<MIXTURE> 2 5.000000e-01
<MEAN> 39
 1.084598e+01 1.583012e-01 2.378611e+00 2.105770e+01 2.413626e+01 1.313130e+01 -4.353161e+00 7.035699e+00 -6.351144e+00 -1.514059e+01 1.435462e+00 -3.703465e-01 -2.385790e+00 8.068528e-01 -1.744771e+00 -4.452870e-01 1.159825e+00 1.473249e+00 -3.951443e-01 -2.413624e+00 -7.738500e-01 -3.270662e-01 -6.915407e-01 1.233873e+00 1.663708e-01 -9.388416e-01 -1.836499e-01 3.276941e-01 5.609446e-01 1.384191e-01 -2.007506e-01 -1.646043e-01 -7.402499e-02 7.435061e-02 4.132432e-01 3.761773e-01 -3.114421e-02 -2.236681e-01 -2.527862e-01
<VARIANCE> 39
 1.274950e+01 3.689754e+01 1.852324e+01 4.092140e+01 5.436253e+01 3.187760e+01 5.683253e+01 3.033842e+01 2.970796e+01 6.164814e+01 2.516860e+01 2.915241e+01 2.390868e+01 1.113182e+00 1.733070e+00 3.627282e+00 2.811797e+00 2.576831e+00 1.907671e+00 2.202696e+00 1.828198e+00 3.686494e+00 5.465886e+00 1.595809e+00 1.905607e+00 1.970230e+00 1.361917e-01 1.915576e-01 2.645313e-01 5.106609e-01 5.428216e-01 2.982707e-01 4.895703e-01 3.927930e-01 4.630247e-01 6.624603e-01 3.194002e-01 2.846373e-01 2.734540e-01
<GCONST> 1.134215e+02
<STATE> 4
<NUMMIXES> 2
<MIXTURE> 1 5.000000e-01
<MEAN> 39
 1.006829e+01 -5.458491e+00 1.184502e+01 2.956744e+01 2.531513e+01 9.227396e+00 -1.599226e+01 5.285604e+00 9.106388e-01 -1.230145e+01 5.728776e+00 -3.826439e+00 -1.027629e+01 3.334859e-02 -3.299205e-01 7.068529e-01 1.432582e-01 -6.029754e-01 -7.364287e-01 -8.839309e-01 8.320205e-02 5.647982e-01 -1.620048e-01 6.800838e-03 -1.215907e-01 -4.141841e-01 1.009219e-01 5.371552e-04 -1.976529e-01 -1.017808e-01 4.685083e-02 -3.940227e-02 -2.988859e-02 -4.645092e-04 -1.430646e-01 -2.010779e-01 -6.268232e-02 1.292771e-01 5.576762e-02
<VARIANCE> 39
 5.283182e+00 2.486604e+01 2.829931e+01 4.414653e+01 3.618675e+01 2.325713e+01 4.770726e+01 2.143239e+01 2.060824e+01 3.684832e+01 3.120583e+01 2.724494e+01 1.889414e+01 5.108891e-01 9.285066e-01 1.998572e+00 1.355760e+00 1.868260e+00 1.495614e+00 2.131336e+00 1.795570e+00 1.709372e+00 2.185874e+00 1.802852e+00 1.404505e+00 1.493955e+00 4.171612e-02 1.556875e-01 1.511957e-01 1.756002e-01 3.179379e-01 2.114556e-01 3.070028e-01 3.041407e-01 2.220830e-01 3.030154e-01 3.105318e-01 2.052522e-01 2.041982e-01
<GCONST> 9.816032e+01
<MIXTURE> 2 5.000000e-01
<MEAN> 39
 1.006829e+01 -5.458491e+00 1.184502e+01 2.956744e+01 2.531513e+01 9.227396e+00 -1.599226e+01 5.285604e+00 9.106388e-01 -1.230145e+01 5.728776e+00 -3.826439e+00 -1.027629e+01 3.334859e-02 -3.299205e-01 7.068529e-01 1.432582e-01 -6.029754e-01 -7.364287e-01 -8.839309e-01 8.320205e-02 5.647982e-01 -1.620048e-01 6.800838e-03 -1.215907e-01 -4.141841e-01 1.009219e-01 5.371552e-04 -1.976529e-01 -1.017808e-01 4.685083e-02 -3.940227e-02 -2.988859e-02 -4.645092e-04 -1.430646e-01 -2.010779e-01 -6.268232e-02 1.292771e-01 5.576762e-02
<VARIANCE> 39
 5.283182e+00 2.486604e+01 2.829931e+01 4.414653e+01 3.618675e+01 2.325713e+01 4.770726e+01 2.143239e+01 2.060824e+01 3.684832e+01 3.120583e+01 2.724494e+01 1.889414e+01 5.108891e-01 9.285066e-01 1.998572e+00 1.355760e+00 1.868260e+00 1.495614e+00 2.131336e+00 1.795570e+00 1.709372e+00 2.185874e+00 1.802852e+00 1.404505e+00 1.493955e+00 4.171612e-02 1.556875e-01 1.511957e-01 1.756002e-01 3.179379e-01 2.114556e-01 3.070028e-01 3.041407e-01 2.220830e-01 3.030154e-01 3.105318e-01 2.052522e-01 2.041982e-01
<GCONST> 9.816032e+01
<TRANSP> 5
 0.000000e+00 1.000000e+00 0.000000e+00 0.000000e+00 0.000000e+00
 0.000000e+00 9.189601e-01 8.103990e-02 0.000000e+00 0.000000e+00
 0.000000e+00 0.000000e+00 8.028179e-01 1.971821e-01 0.000000e+00
 0.000000e+00 0.000000e+00 0.000000e+00 8.503192e-01 1.496808e-01
 0.000000e+00 0.000000e+00 0.000000e+00 0.000000e+00 0.000000e+00
<ENDHMM>
~h "ch"
<BEGINHMM>
<NUMSTATES> 5
<STATE> 2
<NUMMIXES> 2
<MIXTURE> 1 5.165710e-01
<MEAN> 39
 2.232918e+00 1.776232e+00 8.827017e+00 1.703055e+01 1.233384e+01 9.088258e+00 -1.559814e-01 1.134308e+01 -2.271636e+00 -1.462864e+01 -2.835561e+00 -1.697932e-01 1.267728e-01 -2.811380e+00 -1.126919e+00 1.154947e+00 1.773389e-01 -1.336136e+00 8.547652e-01 1.849312e-01 -1.540244e+00 1.708990e+00 2.573606e+00 -1.515838e+00 -8.287315e-01 1.389984e+00 -8.369973e-02 -1.133274e+00 -1.060692e-01 -2.698218e-01 -3.837622e-01 -1.658150e-01 -4.990394e-01 1.565922e-01 -2.226882e-02 -4.871171e-01 4.271582e-01 1.616665e-01 -4.166608e-01
<VARIANCE> 39
 7.964977e+01 3.995074e+01 3.966496e+01 3.245375e+01 2.549754e+01 2.756216e+01 3.884517e+01 5.691995e+01 5.443274e+01 1.240474e+02 5.246984e+01 3.090593e+01 3.616617e+01 5.825720e-01 1.763103e+01 1.953908e+00 1.867241e+00 2.217345e+00 2.159241e+00 3.791777e+00 2.746452e+00 2.563418e+00 8.836813e+00 4.656947e+00 2.123020e+00 4.181785e+00 1.337545e-01 1.346834e+00 3.144069e-01 2.874749e-01 2.933074e-01 4.509729e-01 2.904789e-01 5.155435e-01 5.129834e-01 1.076695e+00 8.718070e-01 5.423679e-01 4.773771e-01
<GCONST> 1.252097e+02
<MIXTURE> 2 4.834292e-01
<MEAN> 39
 -1.775911e+01 -2.489665e+01 6.290287e+00 9.981756e+00 -3.103789e+00 5.285973e+00 -7.536772e+00 4.791470e+00 4.755563e+00 -7.221336e+00 -2.025096e+00 1.301815e+00 2.006438e+00 -4.045601e-01 -4.361549e+00 1.478386e+00 -4.664024e-01 -2.024124e+00 -5.171458e-01 -1.417261e+00 2.028799e-01 5.812304e-01 -6.055741e-01 9.454317e-01 1.116512e+00 -2.414566e-01 2.143445e-01 3.956298e-01 5.094116e-01 3.034513e-03 1.653397e-01 1.007445e-01 -5.363269e-02 -6.476228e-02 -1.675608e-01 1.101157e-01 -2.235566e-02 -7.575910e-02 9.844820e-02
<VARIANCE> 39
 4.466132e+01 1.367115e+02 9.652414e+01 5.147079e+01 2.979107e+01 4.597958e+01 1.979487e+01 2.467214e+01 2.650391e+01 3.811991e+01 2.071539e+01 1.945342e+01 1.849845e+01 2.830439e+00 8.251501e+00 4.390092e+00 5.106074e+00 4.604876e+00 3.036201e+00 1.596390e+00 1.513226e+00 1.995688e+00 2.223592e+00 3.399573e+00 2.060502e+00 1.972827e+00 2.824943e-01 7.029931e-01 4.321456e-01 4.050847e-01 5.394580e-01 6.156772e-01 2.436860e-01 3.136064e-01 3.352025e-01 4.896408e-01 4.362586e-01 5.240414e-01 4.261569e-01
<GCONST> 1.208810e+02
<STATE> 3
<NUMMIXES> 2
<MIXTURE> 1 9.862357e-01
<MEAN> 39
 -1.624996e+01 -4.552792e+01 2.172318e+01 9.121360e+00 -8.169950e+00 9.685978e+00 -1.559571e+01 3.896013e+00 5.528452e+00 -7.643926e+00 2.009833e+00 1.852777e+00 8.682621e-01 1.897873e-01 -1.261924e+00 -2.027288e-02 -7.348825e-01 5.433481e-01 9.845738e-01 -7.596954e-01 -8.061024e-01 -6.244472e-01 5.874730e-01 4.084385e-01 -5.162873e-01 -1.270116e-01 2.425181e-01 6.051099e-01 -7.164666e-01 -2.100662e-02 2.674341e-01 6.983946e-02 2.840858e-01 -2.114930e-01 -1.776918e-01 -1.120960e-01 -1.891137e-01 -3.334608e-02 -4.006071e-02
<VARIANCE> 39
 1.690083e+01 7.200483e+01 3.378428e+01 2.798978e+01 2.215137e+01 1.773783e+01 1.982309e+01 2.733835e+01 2.669912e+01 2.132741e+01 2.436637e+01 1.614991e+01 1.029460e+01 1.883598e+00 4.892674e+00 5.373999e+00 8.643671e-01 1.579755e+00 1.330360e+00 1.633208e+00 1.542078e+00 1.457454e+00 1.234067e+00 1.745644e+00 1.164306e+00 1.051757e+00 2.991239e-01 7.665052e-01 5.014548e-01 1.731259e-01 4.451769e-01 3.046468e-01 2.642233e-01 2.671160e-01 2.452654e-01 2.889921e-01 3.528146e-01 2.955208e-01 1.748467e-01
<GCONST> 1.041059e+02
<MIXTURE> 2 1.376429e-02
<MEAN> 39
 -2.560884e+01 -8.382984e+00 -5.717333e+00 -2.253225e+00 -2.172647e+00 8.112728e-01 -4.051126e+00 1.691893e+00 5.286900e-01 1.633917e+00 7.549708e-01 -2.058377e+00 -1.201892e-01 9.229658e-01 -8.106114e-01 -8.218656e-01 4.680031e-01 2.062779e+00 5.373944e-01 -5.888639e-01 -1.898691e-01 -9.169772e-01 -7.753651e-01 1.175529e-01 9.507297e-01 -2.328449e-01 3.286463e-01 -1.438598e-01 -3.293488e-01 3.557480e-01 7.371520e-01 2.641233e-01 -7.369942e-02 1.350698e-01 -2.759023e-01 -3.683386e-01 4.489163e-01 7.546723e-01 6.382961e-01
<VARIANCE> 39
 6.293230e-01 1.780368e+00 4.034303e-01 3.803959e+00 2.876588e+00 1.365255e+00 4.594610e+00 2.131229e+00 1.911224e-01 2.230861e+00 7.009811e-01 1.888955e+00 1.858416e+00 3.772951e-01 5.569839e-01 9.836105e-02 1.527636e+00 2.638601e+00 6.633418e-02 1.066128e+00 4.613265e-02 1.647685e-02 2.635251e-01 7.870656e-01 8.299211e-01 2.403765e+00 4.281598e-02 1.556234e-02 8.396696e-03 1.272085e-01 2.755652e-01 1.963687e-03 3.763413e-02 3.231695e-02 3.368268e-02 3.842179e-02 8.598797e-02 4.989437e-02 5.385366e-02
<GCONST> 1.930594e+01
<STATE> 4
<NUMMIXES> 2
<MIXTURE> 1 7.883591e-01
<MEAN> 39
 -6.730052e+00 -2.599897e+01 4.243602e+00 6.101273e+00 -1.495933e+00 1.305525e+01 -6.274752e+00 5.522523e-01 3.497528e-01 -6.714570e+00 1.324510e+00 2.506197e+00 4.428880e+00 5.952348e-01 2.327472e+00 -8.314035e-01 4.707913e-01 8.117816e-01 -3.387807e-01 1.122027e+00 7.449266e-01 2.562549e-01 6.442164e-01 1.822881e-01 7.308234e-02 2.727062e-01 -1.722757e-02 8.178185e-02 1.418703e-01 2.561494e-02 -2.307857e-02 -1.291436e-01 -8.188416e-02 7.252210e-02 2.270134e-02 -2.769192e-02 -1.649189e-02 -6.238776e-02 -6.889802e-02
<VARIANCE> 39
 8.394255e+01 3.395596e+02 1.106458e+02 7.642363e+01 8.779726e+01 1.106717e+02 1.184977e+02 8.542170e+01 5.205935e+01 5.831874e+01 5.799144e+01 2.696027e+01 3.967935e+01 2.119734e+00 4.262936e+00 2.409678e+00 3.567605e+00 3.055194e+00 3.692457e+00 3.745924e+00 3.759434e+00 3.255735e+00 3.326555e+00 1.794285e+00 1.660142e+00 1.987304e+00 1.286156e-01 3.413214e-01 2.360947e-01 3.547714e-01 3.560857e-01 4.053488e-01 3.793673e-01 3.642012e-01 3.729202e-01 4.809530e-01 2.744200e-01 2.636659e-01 2.880957e-01
<GCONST> 1.269073e+02
<MIXTURE> 2 2.116405e-01
<MEAN> 39
 -1.074349e+01 -4.504448e+01 1.233188e+01 1.035777e+00 -8.428748e+00 1.261422e+01 -1.805931e+01 -4.753582e+00 -2.212680e+00 -1.162980e+01 -1.298703e-03 8.685827e-02 3.014863e-01 1.284071e+00 9.042066e-01 -1.423721e+00 -8.714287e-01 -4.976446e-01 3.637342e-01 4.239753e-02 -9.219492e-01 -1.025937e+00 -1.158903e+00 -3.823059e-01 2.043987e-01 4.239424e-01 1.610088e-02 1.753322e-01 1.402769e-01 3.475313e-01 1.623101e-01 1.414428e-01 3.235551e-01 4.392383e-01 3.159990e-01 2.178957e-01 1.997739e-01 1.667361e-01 1.491598e-01
<VARIANCE> 39
 1.523617e+01 1.265566e+01 3.571064e+01 2.347983e+01 2.610723e+01 3.069841e+01 2.292182e+01 4.634574e+01 2.074125e+01 2.149619e+01 1.755036e+01 1.274393e+01 1.223276e+01 7.570906e-01 1.119253e+00 9.075070e-01 1.349508e+00 9.454891e-01 1.506711e+00 1.652803e+00 1.707917e+00 1.021460e+00 1.105658e+00 1.266097e+00 1.021948e+00 7.886846e-01 1.002893e-01 2.382413e-01 1.541983e-01 1.769025e-01 2.253984e-01 1.831399e-01 2.221854e-01 2.333399e-01 2.198348e-01 2.242675e-01 1.366892e-01 1.830647e-01 1.511060e-01
<GCONST> 9.083984e+01
<TRANSP> 5
 0.000000e+00 1.000000e+00 0.000000e+00 0.000000e+00 0.000000e+00
 0.000000e+00 8.914771e-01 1.085228e-01 0.000000e+00 0.000000e+00
 0.000000e+00 0.000000e+00 8.210645e-01 1.789355e-01 0.000000e+00
 0.000000e+00 0.000000e+00 0.000000e+00 9.227524e-01 7.724762e-02
 0.000000e+00 0.000000e+00 0.000000e+00 0.000000e+00 0.000000e+00
<ENDHMM>
~h "dh"
<BEGINHMM>
<NUMSTATES> 5
<STATE> 2
<NUMMIXES> 2
<MIXTURE> 1 5.000000e-01
<MEAN> 39
 3.226955e+00 1.391586e+01 1.319244e+01 1.724743e+01 1.492663e+01 1.421757e+01 5.005551e+00 8.594266e+00 -5.794837e-01 -4.798882e+00 -3.269120e+00 -3.579134e+00 3.229685e-01 -4.666616e-02 -1.578018e+00 -4.949331e-01 -3.321405e-01 -6.200338e-01 3.703421e-02 -1.657009e-01 2.384758e-01 4.670466e-01 7.613510e-01 1.119813e+00 -3.473558e-01 -3.547747e-01 2.126412e-01 -4.067983e-01 -2.675484e-01 -2.174995e-01 -1.774904e-01 -1.006934e-01 -2.240036e-01 -4.113807e-02 -2.334819e-01 -1.629812e-01 3.554794e-01 6.295027e-02 -5.452950e-02
<VARIANCE> 39
 1.478192e+01 4.366713e+01 1.861387e+01 8.446857e+00 1.062586e+01 9.950495e+00 1.359789e+01 1.234392e+01 2.842527e+01 3.323454e+01 2.085147e+01 1.393096e+01 1.721858e+01 9.305415e-01 5.817200e+00 2.959291e+00 2.455983e+00 2.344663e+00 1.348453e+00 1.843714e+00 9.085969e-01 2.149539e+00 1.727372e+00 3.702060e+00 1.121275e+00 1.637639e+00 9.252464e-02 3.278365e-01 2.380406e-01 3.228260e-01 2.480105e-01 1.614581e-01 1.667269e-01 1.613095e-01 4.676782e-01 4.035282e-01 3.830550e-01 2.071669e-01 2.736499e-01
<GCONST> 9.853279e+01
<MIXTURE> 2 5.000000e-01
<MEAN> 39
 3.226955e+00 1.391586e+01 1.319244e+01 1.724743e+01 1.492663e+01 1.421757e+01 5.005551e+00 8.594266e+00 -5.794837e-01 -4.798882e+00 -3.269120e+00 -3.579134e+00 3.229685e-01 -4.666616e-02 -1.578018e+00 -4.949331e-01 -3.321405e-01 -6.200338e-01 3.703421e-02 -1.657009e-01 2.384758e-01 4.670466e-01 7.613510e-01 1.119813e+00 -3.473558e-01 -3.547747e-01 2.126412e-01 -4.067983e-01 -2.675484e-01 -2.174995e-01 -1.774904e-01 -1.006934e-01 -2.240036e-01 -4.113807e-02 -2.334819e-01 -1.629812e-01 3.554794e-01 6.295027e-02 -5.452950e-02
<VARIANCE> 39
 1.478192e+01 4.366713e+01 1.861387e+01 8.446857e+00 1.062586e+01 9.950495e+00 1.359789e+01 1.234392e+01 2.842527e+01 3.323454e+01 2.085147e+01 1.393096e+01 1.721858e+01 9.305415e-01 5.817200e+00 2.959291e+00 2.455983e+00 2.344663e+00 1.348453e+00 1.843714e+00 9.085969e-01 2.149539e+00 1.727372e+00 3.702060e+00 1.121275e+00 1.637639e+00 9.252464e-02 3.278365e-01 2.380406e-01 3.228260e-01 2.480105e-01 1.614581e-01 1.667269e-01 1.613095e-01 4.676782e-01 4.035282e-01 3.830550e-01 2.071669e-01 2.736499e-01
<GCONST> 9.853279e+01
<STATE> 3
<NUMMIXES> 2
<MIXTURE> 1 5.000000e-01
<MEAN> 39
 9.778224e+00 -9.329180e+00 7.042066e+00 1.555275e+01 1.128305e+01 1.251550e+01 -7.918688e+00 6.384785e+00 -4.427194e+00 -7.478201e+00 1.465845e+01 -3.365379e+00 -5.167753e+00 9.747230e-01 -5.085081e-01 1.239164e-01 1.409389e-01 2.112259e-01 -3.220730e-01 -1.230877e+00 -6.295122e-01 -1.188084e+00 -1.147763e+00 1.387730e+00 7.649584e-01 -5.835814e-01 -1.489703e-01 6.024594e-01 3.292465e-01 4.233318e-01 3.719739e-01 -1.584548e-01 2.313551e-02 1.193021e-01 3.054301e-01 3.158053e-02 -4.630808e-01 8.621080e-02 1.141153e-01
<VARIANCE> 39
 1.434225e+01 2.436585e+01 3.452136e+01 8.455518e+01 8.715382e+01 3.322728e+01 7.099790e+01 3.626268e+01 6.131751e+01 3.940202e+01 3.077859e+01 2.426689e+01 2.943563e+01 9.966406e-01 3.811430e+00 2.843707e+00 5.528893e+00 5.363445e+00 2.666883e+00 3.105989e+00 2.912583e+00 4.389065e+00 3.063547e+00 4.459810e+00 1.817802e+00 1.965305e+00 1.059788e-01 6.393790e-01 5.572846e-01 8.930468e-01 8.765577e-01 4.871091e-01 4.809235e-01 5.312814e-01 6.333938e-01 4.937924e-01 6.861072e-01 2.881472e-01 2.901019e-01
<GCONST> 1.238188e+02
<MIXTURE> 2 5.000000e-01
<MEAN> 39
 9.778224e+00 -9.329180e+00 7.042066e+00 1.555275e+01 1.128305e+01 1.251550e+01 -7.918688e+00 6.384785e+00 -4.427194e+00 -7.478201e+00 1.465845e+01 -3.365379e+00 -5.167753e+00 9.747230e-01 -5.085081e-01 1.239164e-01 1.409389e-01 2.112259e-01 -3.220730e-01 -1.230877e+00 -6.295122e-01 -1.188084e+00 -1.147763e+00 1.387730e+00 7.649584e-01 -5.835814e-01 -1.489703e-01 6.024594e-01 3.292465e-01 4.233318e-01 3.719739e-01 -1.584548e-01 2.313551e-02 1.193021e-01 3.054301e-01 3.158053e-02 -4.630808e-01 8.621080e-02 1.141153e-01
<VARIANCE> 39
 1.434225e+01 2.436585e+01 3.452136e+01 8.455518e+01 8.715382e+01 3.322728e+01 7.099790e+01 3.626268e+01 6.131751e+01 3.940202e+01 3.077859e+01 2.426689e+01 2.943563e+01 9.966406e-01 3.811430e+00 2.843707e+00 5.528893e+00 5.363445e+00 2.666883e+00 3.105989e+00 2.912583e+00 4.389065e+00 3.063547e+00 4.459810e+00 1.817802e+00 1.965305e+00 1.059788e-01 6.393790e-01 5.572846e-01 8.930468e-01 8.765577e-01 4.871091e-01 4.809235e-01 5.312814e-01 6.333938e-01 4.937924e-01 6.861072e-01 2.881472e-01 2.901019e-01
<GCONST> 1.238188e+02
<STATE> 4
<NUMMIXES> 2
<MIXTURE> 1 5.000000e-01
<MEAN> 39
 1.417801e+01 -2.206969e+00 5.551309e+00 1.378893e+01 1.171237e+01 6.496614e+00 -8.079009e+00 9.136904e+00 -8.191688e+00 -1.476606e+01 1.540897e+01 4.572766e+00 -3.680416e+00 -5.347978e-02 5.838677e-01 -2.712111e-02 -5.742820e-02 1.464893e-01 -5.127406e-01 -1.815743e-01 5.694138e-01 2.780972e-01 -3.178063e-01 -2.451937e-01 1.341891e-01 -1.041394e-01 -6.693207e-02 -2.954327e-02 -1.901968e-02 -8.886077e-02 -2.695224e-02 1.025483e-01 1.143692e-01 1.051232e-01 7.228527e-02 2.295844e-02 -8.994013e-02 -1.027720e-01 2.694352e-02
<VARIANCE> 39
 1.606702e+01 3.688377e+01 1.561131e+01 2.081509e+01 2.701647e+01 1.867375e+01 5.871986e+01 3.530114e+01 3.341264e+01 5.370165e+01 5.925227e+01 1.853111e+01 2.442445e+01 1.426937e+00 7.480164e-01 1.413702e+00 1.460492e+00 1.581903e+00 2.083519e+00 3.034518e+00 1.268303e+00 2.542028e+00 2.302569e+00 2.242889e+00 1.388054e+00 1.238695e+00 7.592799e-02 1.467155e-01 1.586973e-01 1.623305e-01 1.725310e-01 2.405234e-01 3.128967e-01 1.761704e-01 4.320022e-01 3.436880e-01 3.061675e-01 1.605138e-01 1.423884e-01
<GCONST> 1.007362e+02
<MIXTURE> 2 5.000000e-01
<MEAN> 39
 1.417801e+01 -2.206969e+00 5.551309e+00 1.378893e+01 1.171237e+01 6.496614e+00 -8.079009e+00 9.136904e+00 -8.191688e+00 -1.476606e+01 1.540897e+01 4.572766e+00 -3.680416e+00 -5.347978e-02 5.838677e-01 -2.712111e-02 -5.742820e-02 1.464893e-01 -5.127406e-01 -1.815743e-01 5.694138e-01 2.780972e-01 -3.178063e-01 -2.451937e-01 1.341891e-01 -1.041394e-01 -6.693207e-02 -2.954327e-02 -1.901968e-02 -8.886077e-02 -2.695224e-02 1.025483e-01 1.143692e-01 1.051232e-01 7.228527e-02 2.295844e-02 -8.994013e-02 -1.027720e-01 2.694352e-02
<VARIANCE> 39
 1.606702e+01 3.688377e+01 1.561131e+01 2.081509e+01 2.701647e+01 1.867375e+01 5.871986e+01 3.530114e+01 3.341264e+01 5.370165e+01 5.925227e+01 1.853111e+01 2.442445e+01 1.426937e+00 7.480164e-01 1.413702e+00 1.460492e+00 1.581903e+00 2.083519e+00 3.034518e+00 1.268303e+00 2.542028e+00 2.302569e+00 2.242889e+00 1.388054e+00 1.238695e+00 7.592799e-02 1.467155e-01 1.586973e-01 1.623305e-01 1.725310e-01 2.405234e-01 3.128967e-01 1.761704e-01 4.320022e-01 3.436880e-01 3.061675e-01 1.605138e-01 1.423884e-01
<GCONST> 1.007362e+02
<TRANSP> 5
 0.000000e+00 1.000000e+00 0.000000e+00 0.000000e+00 0.000000e+00
 0.000000e+00 9.003559e-01 9.964411e-02 0.000000e+00 0.000000e+00
 0.000000e+00 0.000000e+00 8.625600e-01 1.374401e-01 0.000000e+00
 0.000000e+00 0.000000e+00 0.000000e+00 8.075221e-01 1.924779e-01
 0.000000e+00 0.000000e+00 0.000000e+00 0.000000e+00 0.000000e+00
<ENDHMM>
~h "dx"
<BEGINHMM>
<NUMSTATES> 5
<STATE> 2
<NUMMIXES> 2
<MIXTURE> 1 5.000000e-01
<MEAN> 39
 2.799633e+00 1.565093e+01 1.347240e+01 1.772793e+01 1.737998e+01 1.597689e+01 5.364472e+00 6.969965e+00 -2.308086e+00 -5.467714e+00 -2.925270e+00 -3.192748e+00 -2.212365e+00 -5.105386e-01 -8.432790e-01 -6.885641e-02 5.581992e-01 9.720686e-02 -1.779533e-01 1.205356e-01 5.239819e-01 5.437926e-01 4.151625e-01 2.395683e-01 3.059275e-02 2.121992e-01 8.708633e-02 -5.134032e-01 -2.951722e-01 1.009654e-01 8.620152e-02 -1.304957e-01 -1.902526e-01 -3.205468e-04 -7.907265e-02 -4.353430e-02 2.105698e-01 2.153726e-02 -4.203391e-02
<VARIANCE> 39
 1.838435e+01 1.791353e+01 1.363741e+01 2.226078e+01 1.553579e+01 2.188249e+01 2.411603e+01 2.091703e+01 2.999053e+01 2.755874e+01 1.722153e+01 1.319297e+01 1.367193e+01 4.570819e-01 3.370747e+00 1.524597e+00 1.592986e+00 1.518038e+00 1.427572e+00 1.651268e+00 1.116513e+00 1.674108e+00 1.344802e+00 1.154418e+00 9.740378e-01 1.030957e+00 6.722654e-02 2.672960e-01 1.743059e-01 1.919472e-01 2.440691e-01 1.615865e-01 1.694518e-01 1.442795e-01 3.190109e-01 2.141478e-01 3.071406e-01 1.645295e-01 1.827127e-01
<GCONST> 9.193527e+01
<MIXTURE> 2 5.000000e-01
<MEAN> 39
 2.799633e+00 1.565093e+01 1.347240e+01 1.772793e+01 1.737998e+01 1.597689e+01 5.364472e+00 6.969965e+00 -2.308086e+00 -5.467714e+00 -2.925270e+00 -3.192748e+00 -2.212365e+00 -5.105386e-01 -8.432790e-01 -6.885641e-02 5.581992e-01 9.720686e-02 -1.779533e-01 1.205356e-01 5.239819e-01 5.437926e-01 4.151625e-01 2.395683e-01 3.059275e-02 2.121992e-01 8.708633e-02 -5.134032e-01 -2.951722e-01 1.009654e-01 8.620152e-02 -1.304957e-01 -1.902526e-01 -3.205468e-04 -7.907265e-02 -4.353430e-02 2.105698e-01 2.153726e-02 -4.203391e-02
<VARIANCE> 39
 1.838435e+01 1.791353e+01 1.363741e+01 2.226078e+01 1.553579e+01 2.188249e+01 2.411603e+01 2.091703e+01 2.999053e+01 2.755874e+01 1.722153e+01 1.319297e+01 1.367193e+01 4.570819e-01 3.370747e+00 1.524597e+00 1.592986e+00 1.518038e+00 1.427572e+00 1.651268e+00 1.116513e+00 1.674108e+00 1.344802e+00 1.154418e+00 9.740378e-01 1.030957e+00 6.722654e-02 2.672960e-01 1.743059e-01 1.919472e-01 2.440691e-01 1.615865e-01 1.694518e-01 1.442795e-01 3.190109e-01 2.141478e-01 3.071406e-01 1.645295e-01 1.827127e-01
<GCONST> 9.193527e+01
<STATE> 3
<NUMMIXES> 2
<MIXTURE> 1 5.000000e-01
<MEAN> 39
 2.794577e+00 -4.187804e+00 4.711556e+00 2.417309e+01 2.139206e+01 1.372750e+01 2.109171e+00 7.959238e+00 -5.389623e+00 -6.003803e+00 5.368191e+00 -1.867563e+00 -2.651568e+00 7.491748e-01 -3.388812e+00 -1.553805e+00 2.040994e-01 -1.478659e-01 -5.269717e-01 -6.803374e-01 3.061238e-02 -1.566405e+00 -7.302672e-01 2.548535e+00 4.419450e-01 -8.939857e-01 2.418932e-01 4.857830e-01 3.189278e-01 -2.529496e-01 -1.745887e-01 -1.732417e-01 -3.472738e-01 -1.877062e-01 -1.638425e-01 -2.555448e-01 6.333224e-03 2.564781e-02 -2.341417e-01
<VARIANCE> 39
 3.509836e+01 1.041214e+02 4.557978e+01 5.239380e+01 6.965328e+01 5.426421e+01 5.523199e+01 4.498067e+01 1.149548e+02 6.586354e+01 1.024869e+02 4.507595e+01 4.067592e+01 1.402227e+00 8.469526e+00 3.861959e+00 3.385810e+00 4.574915e+00 3.713282e+00 2.872680e+00 2.887654e+00 8.579445e+00 5.378472e+00 6.188266e+00 2.537514e+00 2.373337e+00 2.828542e-01 1.004154e+00 5.204993e-01 6.032415e-01 9.148819e-01 4.951474e-01 4.576629e-01 4.461674e-01 1.996549e+00 1.109505e+00 1.451860e+00 3.641692e-01 5.773801e-01
<GCONST> 1.370448e+02
<MIXTURE> 2 5.000000e-01
<MEAN> 39
 2.794577e+00 -4.187804e+00 4.711556e+00 2.417309e+01 2.139206e+01 1.372750e+01 2.109171e+00 7.959238e+00 -5.389623e+00 -6.003803e+00 5.368191e+00 -1.867563e+00 -2.651568e+00 7.491748e-01 -3.388812e+00 -1.553805e+00 2.040994e-01 -1.478659e-01 -5.269717e-01 -6.803374e-01 3.061238e-02 -1.566405e+00 -7.302672e-01 2.548535e+00 4.419450e-01 -8.939857e-01 2.418932e-01 4.857830e-01 3.189278e-01 -2.529496e-01 -1.745887e-01 -1.732417e-01 -3.472738e-01 -1.877062e-01 -1.638425e-01 -2.555448e-01 6.333224e-03 2.564781e-02 -2.341417e-01
<VARIANCE> 39
 3.509836e+01 1.041214e+02 4.557978e+01 5.239380e+01 6.965328e+01 5.426421e+01 5.523199e+01 4.498067e+01 1.149548e+02 6.586354e+01 1.024869e+02 4.507595e+01 4.067592e+01 1.402227e+00 8.469526e+00 3.861959e+00 3.385810e+00 4.574915e+00 3.713282e+00 2.872680e+00 2.887654e+00 8.579445e+00 5.378472e+00 6.188266e+00 2.537514e+00 2.373337e+00 2.828542e-01 1.004154e+00 5.204993e-01 6.032415e-01 9.148819e-01 4.951474e-01 4.576629e-01 4.461674e-01 1.996549e+00 1.109505e+00 1.451860e+00 3.641692e-01 5.773801e-01
<GCONST> 1.370448e+02
<STATE> 4
<NUMMIXES> 2
<MIXTURE> 1 5.000000e-01
<MEAN> 39
 7.136536e-01 -4.102911e-01 6.140440e+00 1.954388e+01 1.712176e+01 1.252438e+01 1.968771e+00 8.112161e+00 -3.003455e+00 -3.620385e+00 6.662189e+00 9.139839e-02 -2.019059e+00 -7.658618e-02 -6.677425e-01 1.804530e-01 -5.768591e-01 -8.690131e-01 -8.565401e-01 -9.770076e-01 -7.197712e-02 -2.683929e-01 -4.583956e-01 6.130396e-01 1.504633e-01 -3.497432e-01 8.080522e-02 1.428478e-01 1.847702e-01 2.072270e-01 3.845666e-01 8.330041e-02 -2.416909e-01 -1.000268e-01 -2.109756e-01 -3.548422e-01 -1.178251e-01 -4.919523e-02 -1.559980e-01
<VARIANCE> 39
 5.666705e+01 1.285993e+02 4.413636e+01 5.501626e+01 5.141142e+01 4.628163e+01 6.212766e+01 3.067910e+01 4.653080e+01 4.756448e+01 5.123957e+01 4.027644e+01 4.267008e+01 4.623286e+00 8.553907e+00 2.943552e+00 3.090855e+00 3.484061e+00 2.691758e+00 4.202912e+00 2.073508e+00 7.296438e+00 5.060748e+00 6.434064e+00 1.622628e+00 4.197542e+00 1.501899e-01 6.853324e-01 3.591637e-01 2.532704e-01 4.809341e-01 3.187678e-01 3.766256e-01 2.618997e-01 6.355365e-01 3.725033e-01 6.587003e-01 2.032919e-01 3.288671e-01
<GCONST> 1.270333e+02
<MIXTURE> 2 5.000000e-01
<MEAN> 39
 7.136536e-01 -4.102911e-01 6.140440e+00 1.954388e+01 1.712176e+01 1.252438e+01 1.968771e+00 8.112161e+00 -3.003455e+00 -3.620385e+00 6.662189e+00 9.139839e-02 -2.019059e+00 -7.658618e-02 -6.677425e-01 1.804530e-01 -5.768591e-01 -8.690131e-01 -8.565401e-01 -9.770076e-01 -7.197712e-02 -2.683929e-01 -4.583956e-01 6.130396e-01 1.504633e-01 -3.497432e-01 8.080522e-02 1.428478e-01 1.847702e-01 2.072270e-01 3.845666e-01 8.330041e-02 -2.416909e-01 -1.000268e-01 -2.109756e-01 -3.548422e-01 -1.178251e-01 -4.919523e-02 -1.559980e-01
<VARIANCE> 39
 5.666705e+01 1.285993e+02 4.413636e+01 5.501626e+01 5.141142e+01 4.628163e+01 6.212766e+01 3.067910e+01 4.653080e+01 4.756448e+01 5.123957e+01 4.027644e+01 4.267008e+01 4.623286e+00 8.553907e+00 2.943552e+00 3.090855e+00 3.484061e+00 2.691758e+00 4.202912e+00 2.073508e+00 7.296438e+00 5.060748e+00 6.434064e+00 1.622628e+00 4.197542e+00 1.501899e-01 6.853324e-01 3.591637e-01 2.532704e-01 4.809341e-01 3.187678e-01 3.766256e-01 2.618997e-01 6.355365e-01 3.725033e-01 6.587003e-01 2.032919e-01 3.288671e-01
<GCONST> 1.270333e+02
<TRANSP> 5
 0.000000e+00 1.000000e+00 0.000000e+00 0.000000e+00 0.000000e+00
 0.000000e+00 8.686902e-01 1.313098e-01 0.000000e+00 0.000000e+00
 0.000000e+00 0.000000e+00 7.126274e-01 2.873726e-01 0.000000e+00
 0.000000e+00 0.000000e+00 0.000000e+00 5.941027e-01 4.058973e-01
 0.000000e+00 0.000000e+00 0.000000e+00 0.000000e+00 0.000000e+00
<ENDHMM>
~h "ee"
<BEGINHMM>
<NUMSTATES> 7
<STATE> 2
<NUMMIXES> 2
<MIXTURE> 1 7.546487e-01
<MEAN> 39
 2.731407e+00 -8.496704e+00 4.648788e+00 1.517338e+01 1.502013e+01 5.655432e+00 -1.389337e+01 3.934686e+00 -6.513430e+00 -1.075393e+01 7.184775e+00 -2.304834e+00 -4.619622e+00 2.113764e+00 -2.035958e-01 -7.516431e-01 1.336197e+00 2.159680e+00 -1.186126e+00 -2.518620e+00 5.455269e-01 -6.658248e-01 -2.162503e+00 1.321982e+00 2.219988e-01 -1.753169e+00 -1.776902e-01 -2.156571e-01 -6.395623e-02 -1.900100e-01 9.727825e-03 -1.260529e-01 -2.424752e-01 1.265420e-01 -8.109530e-02 -1.478591e-01 1.788132e-01 -5.391938e-03 -1.409675e-01
<VARIANCE> 39
 1.637159e+02 8.755160e+01 6.784251e+01 1.029618e+02 9.872047e+01 7.834724e+01 8.358623e+01 6.248654e+01 7.300362e+01 6.544489e+01 7.166981e+01 2.851053e+01 5.145127e+01 4.096494e+00 4.482835e+00 5.550908e+00 4.064085e+00 4.441753e+00 4.155013e+00 6.414283e+00 3.937830e+00 3.891385e+00 6.078565e+00 4.504636e+00 1.945543e+00 4.027650e+00 4.534414e-01 4.870733e-01 6.105889e-01 5.835694e-01 4.953929e-01 4.252467e-01 6.154167e-01 5.969117e-01 6.205029e-01 7.196882e-01 6.290390e-01 3.070463e-01 4.457445e-01
<GCONST> 1.381869e+02
<MIXTURE> 2 2.453527e-01
<MEAN> 39
 4.795097e+00 -6.245201e+00 -6.887998e-01 1.247778e+01 1.565509e+01 -1.277108e+00 -1.801877e+01 5.674044e+00 -7.929896e+00 -1.582550e+01 7.740422e+00 3.740493e-01 -7.268938e+00 -7.816600e-02 -4.827621e-01 -5.734459e-02 -9.548843e-02 2.347578e-01 -9.754284e-02 -6.748523e-01 -3.072425e-02 -7.415886e-02 -9.184755e-02 5.114613e-01 7.406617e-02 -2.114795e-01 -2.540110e-02 1.093422e-02 5.078378e-02 2.979216e-02 9.826237e-03 3.659221e-02 6.406493e-03 7.297101e-02 5.559493e-02 1.674967e-02 8.514034e-03 -5.464866e-02 -2.128865e-02
<VARIANCE> 39
 3.347364e+02 6.572028e+01 7.055925e+01 1.284829e+02 1.612828e+02 2.959965e+01 1.597485e+02 8.741217e+01 4.709763e+01 1.401746e+02 9.808392e+01 4.177220e+01 4.665051e+01 7.446772e-01 7.554121e-01 8.809976e-01 9.713592e-01 9.731927e-01 7.944892e-01 1.899274e+00 1.697017e+00 1.031652e+00 1.366501e+00 2.056141e+00 8.921336e-01 9.946461e-01 9.302165e-02 9.250940e-02 1.194607e-01 1.358773e-01 1.386853e-01 1.251838e-01 2.125777e-01 3.039976e-01 1.644540e-01 2.738555e-01 2.109434e-01 1.696078e-01 1.489224e-01
<GCONST> 1.068822e+02
<STATE> 3
<NUMMIXES> 2
<MIXTURE> 1 8.577963e-01
<MEAN> 39
 1.628922e+01 -1.259010e+01 8.275115e-01 1.914267e+01 2.723226e+01 2.870690e-01 -2.999743e+01 9.360166e+00 -1.183734e+01 -2.497118e+01 1.880706e+01 -4.681650e-01 -1.525506e+01 3.414575e-01 -6.934298e-01 -3.235987e-01 -1.717840e-02 1.088895e+00 -9.906747e-01 -2.198601e+00 7.749411e-01 -1.978300e-01 -1.275265e+00 1.156953e+00 8.504717e-02 -1.136183e+00 -4.019443e-01 2.249097e-01 2.752180e-01 -1.607547e-01 -4.836073e-01 2.501583e-01 7.011790e-01 -2.930186e-01 2.885704e-01 7.076980e-01 -5.902089e-01 -1.217045e-01 5.020338e-01
<VARIANCE> 39
 2.862284e+01 1.792893e+01 3.937569e+01 5.382199e+01 3.616274e+01 2.475411e+01 5.641984e+01 4.404264e+01 3.946567e+01 4.479937e+01 5.155255e+01 2.492424e+01 3.022628e+01 9.794313e-01 1.073385e+00 1.566547e+00 1.187128e+00 1.483992e+00 1.613005e+00 2.658928e+00 2.501685e+00 1.178848e+00 2.643499e+00 2.596364e+00 8.987955e-01 1.390897e+00 1.415196e-01 1.653530e-01 2.376229e-01 2.186141e-01 1.960902e-01 1.808313e-01 3.291641e-01 3.706053e-01 2.164247e-01 3.444295e-01 3.064117e-01 1.638953e-01 2.151205e-01
<GCONST> 1.047086e+02
<MIXTURE> 2 1.422040e-01
<MEAN> 39
 1.309152e+01 -1.253929e+01 1.065980e+01 2.652586e+01 2.705379e+01 -1.191324e+00 -3.574549e+01 1.470824e+00 1.544591e+00 -1.916468e+01 1.575516e+00 -9.473093e-01 -1.173528e+01 3.409290e-02 -6.811875e-02 -1.253649e-01 -2.422182e-01 -9.364770e-02 -5.393128e-02 -1.989878e-02 -5.933009e-02 5.623429e-02 1.409226e-01 -5.313694e-02 -2.545612e-02 3.661786e-02 3.003395e-03 2.730571e-02 -2.681540e-03 3.634493e-02 4.132140e-02 -2.062315e-02 2.482405e-02 7.356837e-02 -7.059748e-02 -6.700130e-03 6.030556e-02 -3.506583e-02 -2.113457e-02
<VARIANCE> 39
 4.003026e+00 9.948258e+00 1.168358e+01 1.441806e+01 1.359801e+01 1.126680e+01 1.532982e+01 1.518840e+01 1.919992e+01 1.795086e+01 1.061435e+01 6.381455e+00 1.470266e+01 2.727441e-01 3.852894e-01 4.863887e-01 6.937156e-01 4.874412e-01 5.783046e-01 9.246080e-01 7.141860e-01 7.499253e-01 7.632504e-01 5.582161e-01 4.358635e-01 7.077591e-01 4.687469e-02 6.191590e-02 7.054122e-02 6.515460e-02 6.967063e-02 9.039686e-02 1.453032e-01 1.265858e-01 9.690099e-02 1.238832e-01 8.346813e-02 6.896554e-02 9.603679e-02
<GCONST> 6.416787e+01
<STATE> 4
<NUMMIXES> 2
<MIXTURE> 1 9.759538e-01
<MEAN> 39
 1.590352e+01 -1.407568e+01 1.923680e+00 1.934843e+01 2.894129e+01 -2.186320e+00 -3.417784e+01 1.026863e+01 -9.690031e+00 -2.530508e+01 1.809375e+01 -7.936777e-01 -1.705938e+01 -9.314381e-02 -3.688961e-02 1.240433e-01 4.859162e-02 1.083115e-01 -2.372780e-02 -1.125784e-01 1.121459e-02 1.407763e-02 8.810897e-02 3.443858e-02 -1.186383e-01 -1.008192e-01 7.966826e-03 5.212747e-02 -6.777039e-03 4.071619e-02 -2.475238e-02 7.442772e-02 1.370724e-01 -2.899795e-02 -4.024560e-02 3.690138e-02 -2.102097e-02 -6.100023e-03 3.969456e-02
<VARIANCE> 39
 7.731085e+00 9.047871e+00 2.759594e+01 2.782368e+01 2.458746e+01 1.203811e+01 3.106339e+01 3.769664e+01 3.099055e+01 2.458638e+01 5.542239e+01 1.346336e+01 2.421997e+01 4.394729e-01 3.009855e-01 5.537951e-01 6.939963e-01 5.536314e-01 5.335706e-01 1.384440e+00 1.649468e+00 6.224331e-01 1.164303e+00 1.292051e+00 4.828666e-01 6.844864e-01 5.939050e-02 4.858155e-02 6.848548e-02 7.633466e-02 7.755862e-02 7.996353e-02 1.981942e-01 2.205114e-01 8.081956e-02 1.711887e-01 1.709519e-01 6.885205e-02 9.039146e-02
<GCONST> 7.677538e+01
<MIXTURE> 2 2.404554e-02
<MEAN> 39
 -1.787750e+01 -3.582928e+00 -7.283325e-01 5.338100e+00 4.945766e+00 2.797829e+00 -5.503899e+00 2.510908e+00 -2.355232e+00 -2.233668e+00 3.817340e+00 8.750732e-01 -3.565360e-01 -1.330682e+00 -1.369740e+00 -1.630408e+00 -1.675194e+00 -1.522474e+00 -1.346065e+00 -1.217934e+00 -1.271294e+00 -1.020390e+00 -8.264792e-01 -7.288429e-01 -4.366370e-01 -2.501368e-01 2.048268e-01 2.644551e-01 2.803918e-01 1.757122e-01 1.513916e-01 2.534941e-01 2.935595e-01 2.487261e-01 2.363635e-01 1.947781e-01 1.459260e-02 -7.320687e-03 5.953095e-02
<VARIANCE> 39
 1.689471e+02 2.564808e+01 3.427310e+01 1.320549e+02 1.658096e+02 2.981465e+01 1.399943e+02 4.099665e+01 6.857613e+01 8.340736e+01 3.339635e+01 1.720993e+01 3.285107e+01 8.589256e-01 1.178921e+00 1.643315e+00 1.987614e+00 2.409605e+00 1.731480e+00 2.298464e+00 1.988692e+00 1.831238e+00 1.673863e+00 1.509000e+00 9.467666e-01 8.814834e-01 1.752514e-01 1.814223e-01 2.429325e-01 4.788197e-01 7.041927e-01 3.234697e-01 5.649131e-01 4.344124e-01 4.930594e-01 5.347232e-01 4.941973e-01 2.346028e-01 1.985437e-01
<GCONST> 1.160338e+02
<STATE> 5
<NUMMIXES> 2
<MIXTURE> 1 6.028445e-01
<MEAN> 39
 1.566232e+01 -1.211017e+01 1.568720e+00 2.106610e+01 2.964686e+01 -8.693154e-01 -3.179905e+01 9.551305e+00 -1.199909e+01 -2.465995e+01 1.953364e+01 -1.372394e+00 -1.717988e+01 -3.981638e-01 1.052421e+00 8.779384e-03 3.471809e-01 -5.420040e-01 4.185143e-01 1.839667e+00 -7.787619e-01 2.355625e-01 1.079900e+00 -1.218652e+00 -7.379778e-02 6.003001e-01 -2.235644e-01 3.642655e-01 1.241957e-01 -7.280223e-02 -3.075714e-01 8.733736e-02 4.952559e-01 -2.329285e-01 2.748832e-01 4.712889e-01 -5.284615e-01 -3.110700e-02 3.449541e-01
<VARIANCE> 39
 1.405415e+01 1.693217e+01 4.611735e+01 5.643104e+01 3.848758e+01 2.325093e+01 6.247079e+01 5.265748e+01 3.833215e+01 4.259788e+01 5.950480e+01 2.907140e+01 3.817627e+01 8.411752e-01 1.329889e+00 1.067180e+00 1.161072e+00 1.530235e+00 1.092623e+00 3.727517e+00 3.023875e+00 1.430267e+00 3.288641e+00 3.292680e+00 9.519125e-01 1.627935e+00 1.057489e-01 1.449546e-01 1.687433e-01 1.953757e-01 1.979771e-01 1.551085e-01 3.907606e-01 4.286844e-01 2.281208e-01 3.968726e-01 3.562907e-01 1.628486e-01 2.401484e-01
<GCONST> 1.053101e+02
<MIXTURE> 2 3.971528e-01
<MEAN> 39
 1.294430e+01 -1.274860e+01 5.279080e+00 2.079261e+01 2.959254e+01 -1.929649e+00 -3.439300e+01 7.202469e+00 -9.204300e+00 -2.089173e+01 1.428999e+01 -2.784166e+00 -1.464719e+01 1.304605e-01 9.624503e-02 -7.318726e-02 3.010440e-01 1.022272e-01 1.536694e-01 1.077300e-01 1.165823e-01 -5.635287e-02 -1.756900e-01 3.257066e-01 -2.691990e-03 -3.144747e-01 1.012545e-01 -1.348656e-03 -4.427363e-02 4.145877e-02 7.983704e-02 4.333119e-02 -3.240390e-02 1.723003e-01 -5.507246e-02 -1.562316e-01 1.634808e-01 8.293116e-03 -9.116761e-02
<VARIANCE> 39
 3.242425e+01 1.368849e+01 6.224720e+01 4.520831e+01 4.827369e+01 1.827836e+01 6.310654e+01 4.359007e+01 3.736613e+01 3.741350e+01 7.001233e+01 1.769127e+01 3.941082e+01 3.787663e-01 4.275020e-01 7.171066e-01 9.662824e-01 8.442062e-01 7.019513e-01 1.532669e+00 1.619723e+00 8.838750e-01 1.255835e+00 1.083678e+00 7.183118e-01 8.714235e-01 7.304510e-02 7.582896e-02 9.394389e-02 1.181774e-01 1.348371e-01 1.138852e-01 2.840124e-01 2.940992e-01 1.333626e-01 2.241440e-01 2.043459e-01 1.026262e-01 1.282424e-01
<GCONST> 9.058669e+01
<STATE> 6
<NUMMIXES> 2
<MIXTURE> 1 5.105089e-01
<MEAN> 39
 4.108427e+00 6.912726e-02 5.556246e+00 2.075470e+01 2.119655e+01 4.122828e+00 -1.430625e+01 2.921219e+00 -5.516327e+00 -1.016380e+01 5.132524e+00 -2.320138e+00 -7.205145e+00 -1.436511e+00 1.375661e+00 6.687485e-01 -5.589421e-01 -1.141914e+00 6.374165e-01 1.778278e+00 -2.257222e-01 7.763892e-01 1.402570e+00 -1.317741e+00 -1.028022e-01 1.172118e+00 -4.771006e-02 -1.941500e-01 2.630058e-02 -6.329151e-02 4.232232e-02 -3.714420e-02 -2.470187e-01 6.423394e-02 -1.263047e-01 -2.054968e-01 2.215822e-01 2.467089e-02 -1.306906e-01
<VARIANCE> 39
 1.108718e+02 8.044656e+01 5.163173e+01 8.143192e+01 8.081490e+01 4.989232e+01 1.233059e+02 6.539924e+01 6.099439e+01 8.233317e+01 7.318634e+01 3.042051e+01 4.834132e+01 2.085807e+00 3.711576e+00 2.106945e+00 2.479913e+00 2.908573e+00 1.936153e+00 4.624525e+00 3.528827e+00 3.209602e+00 3.995140e+00 4.464150e+00 1.451008e+00 2.463296e+00 1.544453e-01 2.571455e-01 2.391145e-01 3.184231e-01 4.095651e-01 2.310063e-01 4.997418e-01 4.526304e-01 4.723413e-01 4.745441e-01 4.322015e-01 2.215142e-01 2.762622e-01
<GCONST> 1.252906e+02
<MIXTURE> 2 4.894912e-01
<MEAN> 39
 -2.580094e+01 -8.443879e+00 -6.625940e+00 -2.217243e+00 -1.920358e+00 1.772529e+00 -3.213185e+00 9.651849e-01 -4.632923e+00 -3.151763e+00 2.259011e+00 2.106424e+00 1.022748e+00 -9.454485e-03 -4.934687e-04 -5.059280e-03 -1.332372e-02 -9.059108e-03 -9.827921e-04 6.790608e-04 -1.009240e-03 6.112464e-03 5.265989e-03 -2.685631e-03 -3.019291e-03 4.946264e-04 9.210469e-03 9.357594e-03 1.140092e-02 1.334165e-02 1.205203e-02 7.278803e-03 3.004118e-03 3.679652e-03 3.929386e-03 2.369532e-03 2.346833e-03 1.489746e-03 5.446910e-04
<VARIANCE> 39
 1.923234e+00 1.308857e+01 8.412626e+00 7.122698e+00 1.237434e+01 1.020409e+01 8.226868e+00 8.968963e+00 2.610683e+01 2.116987e+01 1.379781e+01 2.512581e+01 6.957939e+00 9.283864e-02 2.700852e-01 3.784675e-01 4.730958e-01 6.688157e-01 8.907197e-01 8.893564e-01 1.024430e+00 1.393426e+00 1.173238e+00 1.086005e+00 1.168473e+00 7.794909e-01 2.088750e-02 4.685874e-02 7.543471e-02 1.015029e-01 1.387691e-01 1.800756e-01 1.884286e-01 2.184005e-01 2.777910e-01 2.360281e-01 2.261780e-01 2.315648e-01 1.658505e-01
<GCONST> 7.055032e+01
<TRANSP> 7
 0.000000e+00 1.000000e+00 0.000000e+00 0.000000e+00 0.000000e+00 0.000000e+00 0.000000e+00
 0.000000e+00 7.805296e-01 2.194704e-01 0.000000e+00 0.000000e+00 0.000000e+00 0.000000e+00
 0.000000e+00 0.000000e+00 7.274590e-01 2.725411e-01 0.000000e+00 0.000000e+00 0.000000e+00
 0.000000e+00 0.000000e+00 0.000000e+00 8.749450e-01 1.250550e-01 0.000000e+00 0.000000e+00
 0.000000e+00 0.000000e+00 0.000000e+00 0.000000e+00 8.656924e-01 1.343077e-01 0.000000e+00
 0.000000e+00 0.000000e+00 0.000000e+00 0.000000e+00 0.000000e+00 8.848299e-01 1.151700e-01
 0.000000e+00 0.000000e+00 0.000000e+00 0.000000e+00 0.000000e+00 0.000000e+00 0.000000e+00
<ENDHMM>
~h "ei"
<BEGINHMM>
<NUMSTATES> 7
<STATE> 2
<NUMMIXES> 2
<MIXTURE> 1 6.433455e-01
<MEAN> 39
 1.873318e+01 -1.215770e+01 -1.269181e+01 8.223284e+00 1.858890e+01 -2.621565e+00 -2.240262e+01 8.123750e+00 -7.212181e+00 -8.319700e+00 2.356404e+01 4.856246e+00 -3.055659e+00 -1.161471e-01 -3.685901e-02 -4.016750e-03 1.902116e-01 5.276150e-01 1.020816e-02 -5.680835e-01 -4.730311e-01 -3.516404e-01 -2.280070e-01 1.115491e-01 1.187226e-01 -6.689166e-02 -8.507417e-02 1.292250e-01 1.572684e-01 1.035749e-01 -4.370482e-02 4.824109e-02 1.131947e-01 -6.974345e-02 -8.852849e-03 1.424830e-02 -1.098654e-01 -1.746820e-02 -2.199572e-02
<VARIANCE> 39
 1.836791e+01 1.814717e+01 3.019869e+01 2.882162e+01 5.724753e+01 2.682508e+01 1.027363e+02 5.300899e+01 4.511979e+01 1.754818e+02 4.191714e+01 2.122020e+01 2.679518e+01 6.232231e-01 7.038360e-01 1.079694e+00 8.123519e-01 9.233200e-01 7.143216e-01 1.768437e+00 2.043956e+00 8.770048e-01 1.573212e+00 1.950449e+00 8.553900e-01 7.675566e-01 8.508252e-02 7.154298e-02 9.991132e-02 1.091136e-01 1.101527e-01 1.154666e-01 2.229321e-01 2.945110e-01 1.297896e-01 2.235686e-01 2.651920e-01 1.302140e-01 9.388588e-02
<GCONST> 9.375324e+01
<MIXTURE> 2 3.566523e-01
<MEAN> 39
 1.481089e+01 -6.571833e+00 -7.938224e+00 1.088194e+01 1.536890e+01 -9.453689e-01 -1.738549e+01 5.257569e+00 -4.886240e+00 -2.929640e+00 2.181573e+01 5.216773e+00 -4.013917e+00 8.373628e-01 -2.201568e-01 -5.207191e-01 1.887680e-01 1.424449e+00 -4.602348e-01 -1.669673e+00 4.000810e-01 -1.015067e+00 -1.962621e+00 1.988842e-01 -1.431053e-01 -3.401426e-01 -1.711197e-02 -1.823331e-01 -1.775717e-01 -1.031582e-01 1.671994e-02 7.347590e-02 -3.424706e-02 -5.328983e-02 1.035756e-02 7.519564e-02 3.039855e-02 9.008469e-03 8.577688e-02
<VARIANCE> 39
 2.921838e+01 3.324649e+01 5.455342e+01 5.140420e+01 5.376958e+01 2.341845e+01 5.657486e+01 5.315092e+01 3.262881e+01 1.117882e+02 5.598204e+01 2.693074e+01 2.926250e+01 1.032772e+00 1.823144e+00 3.065130e+00 2.039757e+00 1.448627e+00 1.847869e+00 2.312212e+00 2.841475e+00 1.776589e+00 2.812800e+00 3.204012e+00 1.551593e+00 1.113397e+00 2.161404e-01 2.267502e-01 3.669772e-01 2.848441e-01 2.627622e-01 3.105980e-01 4.294619e-01 5.545604e-01 3.161086e-01 4.882565e-01 4.868397e-01 2.709636e-01 2.001962e-01
<GCONST> 1.144739e+02
<STATE> 3
<NUMMIXES> 2
<MIXTURE> 1 9.929041e-01
<MEAN> 39
 1.397892e+01 -5.916005e+00 -8.917198e+00 1.734911e+01 2.694167e+01 -1.093279e+00 -2.938882e+01 -4.457694e+00 -1.233039e+01 -1.098569e+01 1.905736e+01 6.897654e+00 -3.923187e+00 -7.558777e-01 6.341988e-01 4.936024e-01 4.681108e-01 -1.436353e-01 1.320737e-01 1.769350e-01 -1.435069e+00 -2.158349e-01 4.267673e-01 -9.491597e-01 3.290477e-01 5.498058e-01 -2.611398e-01 2.353483e-01 3.121895e-01 -4.241843e-02 -3.186096e-01 4.835348e-02 4.033241e-01 8.904723e-02 2.666065e-01 2.526317e-01 -3.121156e-01 -5.868280e-02 1.544661e-01
<VARIANCE> 39
 1.694316e+01 2.054686e+01 3.171676e+01 3.314840e+01 2.544471e+01 1.868670e+01 5.056934e+01 8.344793e+01 3.955753e+01 4.017758e+01 4.434739e+01 3.231117e+01 3.465092e+01 1.481179e+00 1.996098e+00 3.160584e+00 1.673733e+00 3.798039e+00 1.695221e+00 5.897997e+00 3.079674e+00 2.900359e+00 3.117275e+00 4.378446e+00 1.478755e+00 1.485224e+00 3.133310e-01 3.491006e-01 6.077680e-01 2.880493e-01 7.458202e-01 2.737205e-01 1.202390e+00 6.747922e-01 6.753876e-01 6.237040e-01 8.799585e-01 2.963512e-01 2.972256e-01
<GCONST> 1.199849e+02
<MIXTURE> 2 7.095762e-03
<MEAN> 39
 6.598210e+00 4.769148e+00 6.102977e+00 2.299000e+01 1.454291e+01 -7.601943e+00 -1.606915e+01 1.252518e+01 7.945389e+00 1.827560e+00 1.221092e+01 -9.667646e-01 -9.879753e+00 -1.874981e-01 2.395153e-01 1.810877e-01 3.663309e-02 6.036531e-02 1.791871e-01 2.805890e-01 -3.635504e-01 -6.896424e-01 -5.379794e-01 -4.741773e-02 6.220955e-01 1.544009e-01 -9.245908e-02 4.259020e-02 -4.687361e-02 -1.085089e-01 1.797583e-01 4.643233e-01 3.357075e-01 -2.664276e-01 -2.912865e-01 -8.083325e-03 -2.236441e-01 -1.224918e-02 1.178614e-01
<VARIANCE> 39
 1.908809e+00 8.371908e+00 1.073372e+01 2.963219e+01 2.973680e+01 1.102797e+01 1.716665e+01 2.309167e+01 6.456644e+01 9.704491e+01 8.666286e+00 2.366345e+01 1.015606e+01 1.534790e-01 4.985921e-01 3.425151e-01 6.430150e-01 1.303189e+00 2.057346e+00 1.419111e+00 1.917163e+00 1.874295e+00 1.815226e+00 1.393472e+00 7.982634e-01 7.122464e-01 2.695969e-02 9.505281e-02 9.074783e-02 1.087174e-01 2.261907e-01 1.355193e-01 2.671864e-01 1.760253e-01 2.532748e-01 3.013110e-01 2.341249e-01 1.324925e-01 9.715888e-02
<GCONST> 8.176109e+01
<STATE> 4
<NUMMIXES> 2
<MIXTURE> 1 1.000000e+00
<MEAN> 39
 1.969661e+00 3.591092e+00 3.004738e+00 2.005290e+01 2.046850e+01 9.625459e-01 -1.984441e+01 -7.401795e+00 -9.188691e+00 -4.498099e+00 1.139914e+01 7.189169e+00 -5.907831e-02 -1.337619e+00 6.773335e-01 1.209661e+00 1.644631e-01 -4.337912e-01 7.649121e-01 1.638367e+00 7.801594e-01 7.713326e-01 6.506245e-01 -5.142725e-01 -1.299063e-01 2.608198e-01 4.407825e-02 -1.497741e-01 -9.452605e-02 -9.279716e-03 1.268056e-01 9.326550e-02 4.221476e-02 2.413984e-01 6.025027e-02 -2.332970e-02 1.932658e-01 -1.948201e-02 -1.071019e-01
<VARIANCE> 39
 4.209201e+01 2.666080e+01 4.183927e+01 2.836966e+01 3.688535e+01 4.141058e+01 6.428414e+01 6.467961e+01 4.312484e+01 3.262259e+01 4.294171e+01 3.457322e+01 2.840540e+01 1.342345e+00 1.628903e+00 2.069076e+00 2.143162e+00 2.894397e+00 2.715656e+00 4.991422e+00 5.412344e+00 3.901354e+00 2.552128e+00 3.533367e+00 2.059893e+00 1.709989e+00 1.685690e-01 1.572683e-01 2.421609e-01 3.833309e-01 4.969919e-01 3.737698e-01 7.351967e-01 6.431756e-01 6.039996e-01 4.161596e-01 5.917531e-01 3.561405e-01 2.554159e-01
<GCONST> 1.190494e+02
<MIXTURE> 2 0.000000e+00
<MEAN> 39
 2.451241e-05 -3.945827e-05 -6.578863e-06 -7.152557e-07 -2.774596e-05 1.187921e-04 -1.449883e-05 1.633167e-05 -6.984919e-06 -4.756451e-05 -2.284069e-07 1.892447e-05 7.908791e-06 -7.654307e-09 2.645538e-08 3.352761e-08 1.137960e-07 9.124051e-09 1.990702e-07 1.084991e-07 -6.868504e-08 -1.708395e-08 1.569279e-07 2.568122e-07 2.303568e-08 -8.591451e-08 -1.363271e-02 1.440285e-03 -1.899552e-03 5.156639e-04 -4.873953e-04 -4.111854e-04 -4.649502e-04 -8.853489e-04 -2.279049e-04 -6.240061e-04 -1.173968e-04 -5.409846e-04 -2.049126e-04
<VARIANCE> 39
 9.626150e-06 2.426654e-05 3.815629e-06 1.000000e-30 1.000000e-30 1.000000e-30 2.935529e-06 1.000000e-30 1.143431e-06 1.000000e-30 1.000000e-30 1.000000e-30 1.000000e-30 1.686828e-11 1.000000e-30 1.923581e-10 1.000000e-30 1.000000e-30 2.846718e-10 1.000000e-30 1.000000e-30 2.116707e-11 1.000000e-30 1.000000e-30 1.000000e-30 8.787993e-11 8.329379e-03 3.102372e-04 3.842243e-04 2.258328e-04 2.910108e-04 3.261111e-04 3.767133e-04 3.033899e-04 2.445394e-04 2.236361e-04 1.965368e-04 1.861692e-04 1.587977e-04
<GCONST> -1.600000e+11
<STATE> 5
<NUMMIXES> 2
<MIXTURE> 1 1.000000e+00
<MEAN> 39
 -1.881312e+01 -1.764699e+00 1.026958e+00 7.048943e+00 6.823561e+00 6.160223e+00 -1.819314e+00 5.059808e+00 1.404663e+00 1.855530e+00 5.070582e+00 1.402917e+00 3.086822e-01 -5.648093e-01 -1.900045e-01 -1.742583e-01 -5.503795e-01 -5.421653e-01 9.280566e-02 4.816216e-01 2.404416e-01 2.011973e-01 1.220337e-01 -2.083490e-01 -1.254001e-01 2.889825e-02 4.845192e-02 -8.075648e-03 -3.604000e-02 -2.236034e-02 -3.815546e-02 -1.160196e-01 -1.639088e-01 -1.529045e-01 -1.537949e-01 -1.142252e-01 -1.440978e-02 1.802797e-02 1.605453e-02
<VARIANCE> 39
 9.381401e+01 3.694764e+01 5.309114e+01 1.247002e+02 1.372558e+02 5.050787e+01 3.244574e+01 4.257458e+01 3.628688e+01 3.225989e+01 3.534937e+01 1.712721e+01 9.712975e+00 8.556032e-01 6.543479e-01 1.141177e+00 1.835334e+00 2.368358e+00 2.135096e+00 2.319701e+00 2.323222e+00 2.111682e+00 1.878010e+00 1.648111e+00 1.240352e+00 8.718418e-01 6.373658e-02 8.870644e-02 1.245862e-01 2.043268e-01 2.921917e-01 2.855416e-01 3.070647e-01 3.392900e-01 3.079653e-01 2.902640e-01 2.606278e-01 2.216432e-01 1.627875e-01
<GCONST> 1.051924e+02
<MIXTURE> 2 0.000000e+00
<MEAN> 39
 -1.609325e-06 -8.135103e-07 4.749745e-07 -6.807968e-07 -4.202593e-08 -3.618188e-07 2.407432e-09 2.424931e-07 1.277658e-07 -1.313165e-07 1.412118e-07 2.625166e-07 -2.114102e-07 1.533401e-01 -5.503851e-03 3.785035e-02 1.390424e-03 1.759262e-02 1.390478e-02 1.895499e-02 1.250848e-02 7.013478e-03 6.770252e-03 6.135121e-03 5.650446e-03 4.476010e-03 -1.806013e-01 2.015203e-02 -3.495460e-02 2.499425e-02 1.963463e-02 -3.039902e-02 -3.971753e-02 -2.047334e-02 -8.192796e-04 8.419420e-03 5.635804e-03 4.006127e-03 -1.858771e-03
<VARIANCE> 39
 1.000000e-30 1.000000e-30 1.000000e-30 1.000000e-30 4.588401e-10 1.000000e-30 9.299506e-14 1.000000e-30 1.959961e-10 7.395329e-10 9.354153e-10 1.000000e-30 1.000000e-30 5.519691e-01 1.833294e-02 3.783517e-02 1.655615e-02 2.303718e-02 2.295028e-02 2.466567e-02 1.928537e-02 1.440313e-02 1.338319e-02 1.233723e-02 1.081821e-02 9.576578e-03 1.242094e-01 1.541650e-02 1.599239e-02 1.925049e-02 2.621124e-02 3.162269e-02 3.145853e-02 1.910103e-02 1.752691e-02 1.237346e-02 1.492543e-02 9.388872e-03 1.088586e-02
<GCONST> -8.000000e+10
<STATE> 6
<NUMMIXES> 2
<MIXTURE> 1 1.000000e+00
<MEAN> 39
 -7.490577e+00 9.907289e-01 7.522554e+00 1.290345e+01 1.364927e+01 9.314386e+00 -3.924267e+00 5.916383e+00 -1.772450e+00 -1.512562e+00 8.544819e+00 3.142311e+00 -4.510136e-01 -7.919847e-01 1.978809e-02 5.046356e-01 -1.210135e-01 -4.409050e-01 2.671798e-01 6.864429e-01 2.145101e-01 -4.584747e-02 -2.087622e-01 -5.495049e-01 -1.894895e-01 1.326216e-01 3.495783e-02 -1.494181e-01 -1.502368e-01 1.666114e-02 7.235023e-02 -1.159001e-01 -2.080317e-01 -4.014858e-02 -7.720096e-02 -1.137695e-01 3.342576e-02 -2.851884e-02 -1.946052e-02
<VARIANCE> 39
 1.637006e+02 1.053624e+02 1.083626e+02 1.471759e+02 1.004314e+02 8.347968e+01 9.941241e+01 8.747665e+01 7.269479e+01 9.267349e+01 4.740994e+01 2.865602e+01 2.076145e+01 1.752516e+00 8.004940e-01 1.740940e+00 2.390476e+00 1.535631e+00 1.739077e+00 2.224049e+00 2.250372e+00 1.315701e+00 1.784956e+00 1.879419e+00 1.085399e+00 8.504306e-01 7.307060e-02 1.244657e-01 1.508003e-01 1.353804e-01 1.665790e-01 2.037537e-01 2.463718e-01 2.530441e-01 1.658332e-01 1.891585e-01 2.473916e-01 1.315001e-01 9.553210e-02
<GCONST> 1.100535e+02
<MIXTURE> 2 0.000000e+00
<MEAN> 39
 0.000000e+00 0.000000e+00 0.000000e+00 0.000000e+00 0.000000e+00 0.000000e+00 0.000000e+00 0.000000e+00 0.000000e+00 0.000000e+00 0.000000e+00 0.000000e+00 0.000000e+00 4.237878e-23 -3.786909e-23 1.582470e-23 -1.329638e-24 3.023070e-24 -8.363062e-24 6.443591e-24 -1.243620e-24 4.356885e-25 -2.915257e-24 3.233656e-24 -1.075627e-24 3.332135e-26 -1.259776e-01 9.946360e-03 -3.100975e-02 6.726459e-03 -2.000426e-04 -2.277133e-02 -2.668727e-02 -1.526267e-02 -5.181108e-03 1.760355e-04 -1.211648e-03 -1.074032e-03 -3.869191e-03
<VARIANCE> 39
 1.000000e-30 1.000000e-30 1.000000e-30 1.000000e-30 1.000000e-30 1.000000e-30 1.000000e-30 1.000000e-30 1.000000e-30 1.000000e-30 1.000000e-30 1.000000e-30 1.000000e-30 5.779452e-23 4.550961e-23 7.666999e-24 4.672506e-26 3.242006e-25 2.289604e-24 1.269824e-24 4.119810e-26 1.051707e-26 3.016532e-25 3.258485e-25 3.081342e-26 3.416759e-28 8.857191e-02 9.054033e-03 1.131149e-02 9.210194e-03 1.184606e-02 1.578277e-02 1.645681e-02 1.080695e-02 9.119515e-03 6.624663e-03 7.254379e-03 5.319290e-03 5.618778e-03
<GCONST> -1.300000e+11
<TRANSP> 7
 0.000000e+00 1.000000e+00 0.000000e+00 0.000000e+00 0.000000e+00 0.000000e+00 0.000000e+00
 0.000000e+00 9.293848e-01 7.061520e-02 0.000000e+00 0.000000e+00 0.000000e+00 0.000000e+00
 0.000000e+00 0.000000e+00 8.507631e-01 1.492369e-01 0.000000e+00 0.000000e+00 0.000000e+00
 0.000000e+00 0.000000e+00 0.000000e+00 8.972027e-01 1.027973e-01 0.000000e+00 0.000000e+00
 0.000000e+00 0.000000e+00 0.000000e+00 0.000000e+00 8.931797e-01 1.068203e-01 0.000000e+00
 0.000000e+00 0.000000e+00 0.000000e+00 0.000000e+00 0.000000e+00 1.719916e-01 8.280084e-01
 0.000000e+00 0.000000e+00 0.000000e+00 0.000000e+00 0.000000e+00 0.000000e+00 0.000000e+00
<ENDHMM>
~h "ii"
<BEGINHMM>
<NUMSTATES> 7
<STATE> 2
<NUMMIXES> 2
<MIXTURE> 1 3.652342e-01
<MEAN> 39
 -1.455379e+00 -2.034718e+01 1.730499e+01 2.191438e+01 1.251010e+01 1.356153e+01 -8.647408e+00 3.012996e+00 -4.604642e+00 -2.704942e+00 9.008186e+00 -6.751047e+00 -2.060055e+00 2.983465e+00 2.605400e+00 8.519080e-01 3.152309e+00 2.588509e+00 -5.500101e-01 -1.780715e+00 -6.228764e-01 1.248651e+00 -9.709221e-01 -1.279909e+00 -2.921730e-01 -1.510000e+00 1.033022e-01 -1.286117e-01 -6.055974e-01 -1.462335e-01 3.374873e-01 -4.953938e-01 -9.930989e-01 -1.716627e-01 -7.674758e-02 -7.986364e-01 -2.941365e-01 4.629012e-02 -4.914246e-01
<VARIANCE> 39
 5.137738e+01 1.011425e+02 1.200367e+02 1.455591e+02 4.346961e+01 1.556132e+02 3.363507e+01 1.035350e+02 5.085006e+01 7.957459e+01 3.063648e+01 2.380921e+01 2.286536e+01 2.205032e+00 3.676722e+00 3.531216e+00 5.212796e+00 3.049576e+00 3.674412e+00 5.756194e+00 3.103199e+00 3.337945e+00 4.724395e+00 3.098671e+00 2.286896e+00 2.264470e+00 3.776027e-01 7.369802e-01 5.613689e-01 6.550120e-01 4.430442e-01 4.017195e-01 5.439851e-01 5.574738e-01 7.259174e-01 6.258920e-01 4.778268e-01 3.550036e-01 3.272894e-01
<GCONST> 1.319631e+02
<MIXTURE> 2 6.347639e-01
<MEAN> 39
 1.083160e+01 -1.222729e+01 1.193785e+01 3.224845e+01 2.622409e+01 5.536478e+00 -2.298868e+01 2.482491e+00 -2.243409e+00 -1.566050e+01 5.090248e+00 -4.993815e+00 -1.236776e+01 1.083882e+00 -2.198758e-01 -6.343308e-01 1.174226e+00 2.363825e+00 -1.310821e+00 -3.426287e+00 2.615297e-01 3.715093e-01 -2.467469e+00 1.760459e-02 4.473949e-01 -2.034098e+00 -4.533067e-01 -2.118450e-01 2.300074e-02 -5.014782e-01 -4.259960e-01 9.293270e-02 3.957372e-01 2.849814e-01 1.075437e-01 2.632977e-01 9.852019e-02 9.075025e-02 2.734427e-01
<VARIANCE> 39
 1.386646e+01 2.349320e+01 7.121391e+01 4.945042e+01 4.387276e+01 5.275517e+01 5.594811e+01 5.633415e+01 4.448139e+01 5.032601e+01 5.269917e+01 2.223041e+01 2.531001e+01 1.007469e+00 1.913027e+00 2.444772e+00 2.402435e+00 2.515691e+00 2.373437e+00 3.294442e+00 3.039362e+00 2.388172e+00 2.549527e+00 2.484203e+00 1.647132e+00 1.620599e+00 1.277107e-01 3.373065e-01 3.046223e-01 3.090521e-01 3.453650e-01 2.147059e-01 4.924634e-01 3.742872e-01 3.123868e-01 4.294116e-01 4.061655e-01 2.545582e-01 2.603511e-01
<GCONST> 1.142349e+02
<STATE> 3
<NUMMIXES> 2
<MIXTURE> 1 1.000000e+00
<MEAN> 39
 1.136862e+01 -1.019634e+01 1.260167e+01 3.214335e+01 2.809024e+01 1.004725e+00 -2.826166e+01 7.615680e+00 -8.237919e-02 -2.088207e+01 6.015731e+00 -4.052329e+00 -1.632488e+01 3.399417e-02 -2.802375e-01 1.598882e-02 8.708489e-02 5.282637e-01 -4.779639e-01 -1.161380e+00 2.324243e-01 4.536103e-01 -6.023187e-01 -1.668279e-01 1.642298e-01 -4.689515e-01 -8.807448e-02 4.815055e-02 4.779616e-02 -5.431804e-02 -1.956451e-01 1.149348e-01 3.363006e-01 -9.572279e-02 -6.764252e-04 2.706791e-01 -1.048220e-01 -7.384793e-02 1.994606e-01
<VARIANCE> 39
 9.844238e+00 2.875897e+01 5.091331e+01 3.956194e+01 4.598964e+01 3.186867e+01 6.401282e+01 3.678626e+01 4.556811e+01 3.861252e+01 6.704790e+01 2.109413e+01 2.423825e+01 4.128347e-01 7.952043e-01 1.258540e+00 1.182281e+00 1.330274e+00 1.030974e+00 2.189376e+00 1.544386e+00 1.010999e+00 1.644599e+00 1.266151e+00 1.046925e+00 9.827557e-01 6.095481e-02 1.198057e-01 1.380038e-01 1.869878e-01 2.452478e-01 1.540866e-01 3.941090e-01 2.507296e-01 1.665472e-01 3.200993e-01 2.268742e-01 1.760190e-01 1.850565e-01
<GCONST> 9.748480e+01
<MIXTURE> 2 0.000000e+00
<MEAN> 39
 -2.208270e+00 -4.924166e+00 1.908871e+01 1.414313e+01 1.305121e+01 -2.550124e+01 -8.712596e+00 3.256981e+00 -1.020494e+01 -1.600216e+01 -1.043865e+01 -7.724840e+00 -3.884650e+00 -3.069684e-02 5.741307e-02 2.626543e-02 -1.140945e-02 -5.099841e-03 1.462645e-03 -7.175154e-02 2.450622e-02 1.508959e-02 -8.209687e-02 -2.880517e-02 4.053793e-02 1.540386e-02 4.400872e-03 3.426807e-02 -3.873229e-02 -2.918413e-02 4.017396e-02 7.009056e-02 -1.632413e-02 -6.592760e-02 5.973514e-02 5.484207e-02 -7.151864e-03 -6.910361e-03 -2.705606e-03
<VARIANCE> 39
 5.265318e+00 3.126786e+01 2.337614e+01 3.727947e+01 3.152877e+01 2.943056e+01 3.225301e+01 2.729765e+01 2.195340e+01 2.848150e+01 2.092086e+01 3.419135e+01 3.785925e+01 6.421357e-02 2.003726e-01 3.487247e-01 3.611105e-01 4.247755e-01 4.733264e-01 5.225756e-01 5.518345e-01 5.403954e-01 5.455791e-01 4.727846e-01 4.464683e-01 3.817663e-01 9.004888e-03 2.605502e-02 4.109941e-02 5.433235e-02 6.215053e-02 8.339533e-02 8.227700e-02 8.697993e-02 9.257926e-02 8.818587e-02 8.279812e-02 7.263009e-02 6.514387e-02
<GCONST> 6.347967e+01
<STATE> 4
<NUMMIXES> 2
<MIXTURE> 1 7.657275e-01
<MEAN> 39
 1.135572e+01 -1.244333e+01 1.185903e+01 3.328576e+01 3.032185e+01 -7.367917e-01 -3.269753e+01 5.771987e+00 2.613777e+00 -2.192503e+01 2.942198e+00 -2.657538e+00 -1.633201e+01 -4.915681e-02 1.155473e-01 2.331694e-02 7.735531e-02 6.053511e-02 -1.236845e-01 -3.460893e-03 2.134746e-02 1.134254e-01 8.312907e-02 -2.140150e-01 -1.661396e-01 -3.331131e-02 3.206115e-02 2.472385e-02 -1.492908e-02 1.554974e-02 -4.575445e-02 7.569206e-02 1.260964e-01 -1.699200e-02 -7.423095e-02 5.642718e-02 2.955952e-02 -4.881151e-02 4.840501e-02
<VARIANCE> 39
 5.345408e+00 1.425205e+01 2.441179e+01 2.384729e+01 2.409449e+01 2.049759e+01 2.752130e+01 2.152439e+01 2.939368e+01 2.506573e+01 3.196802e+01 1.123903e+01 1.878624e+01 2.971973e-01 3.545992e-01 6.359800e-01 6.963499e-01 6.334032e-01 7.362643e-01 1.193728e+00 9.335601e-01 8.243026e-01 1.006746e+00 9.367188e-01 5.890103e-01 6.971294e-01 5.022221e-02 5.940670e-02 6.805538e-02 9.518459e-02 9.405003e-02 1.062674e-01 1.952079e-01 1.423990e-01 1.067494e-01 1.812421e-01 1.313665e-01 9.891339e-02 1.076589e-01
<GCONST> 7.596220e+01
<MIXTURE> 2 2.342699e-01
<MEAN> 39
 1.112803e+01 -1.191230e+01 1.602458e+01 3.376447e+01 2.465210e+01 2.266492e+00 -2.923288e+01 2.042514e+00 9.177535e+00 -1.736211e+01 -5.889825e+00 -4.566533e+00 -1.248628e+01 -1.662262e-02 2.450719e-01 -6.675018e-02 5.006448e-02 2.026984e-02 -2.684921e-01 9.512360e-02 9.741152e-02 4.849180e-02 6.263100e-02 -2.802221e-01 -1.592994e-01 5.264951e-02 -3.444789e-02 8.136687e-02 -7.780922e-02 4.527577e-02 1.132166e-01 -5.485049e-02 7.994612e-02 4.563033e-02 -2.019953e-01 7.431736e-03 1.591409e-01 -3.551370e-02 -3.536423e-02
<VARIANCE> 39
 3.042882e+00 1.426595e+01 1.354740e+01 1.586958e+01 9.212253e+00 2.320509e+01 3.503362e+01 1.995403e+01 1.349141e+01 2.499963e+01 2.517720e+01 1.483581e+01 1.683729e+01 2.182620e-01 4.950660e-01 4.208253e-01 7.208034e-01 5.036418e-01 9.743095e-01 1.166172e+00 9.406466e-01 7.519959e-01 8.843338e-01 8.515000e-01 6.991557e-01 6.536869e-01 3.318465e-02 6.800710e-02 7.223216e-02 9.379778e-02 8.071613e-02 1.306860e-01 1.726818e-01 9.604050e-02 1.084032e-01 1.445576e-01 1.027293e-01 1.005975e-01 1.150543e-01
<GCONST> 7.128151e+01
<STATE> 5
<NUMMIXES> 2
<MIXTURE> 1 6.458883e-01
<MEAN> 39
 1.241817e+01 -1.328047e+01 8.174167e+00 3.163695e+01 3.497085e+01 1.691646e-01 -3.371222e+01 9.748419e+00 -5.138782e+00 -2.531708e+01 1.184344e+01 -4.109877e+00 -2.006391e+01 -1.541979e-01 4.582244e-01 -1.024514e-02 3.163243e-01 -6.377555e-02 2.128970e-01 7.907839e-01 -3.851292e-01 -2.965401e-02 5.105731e-01 -3.885076e-01 -8.261887e-02 1.435179e-01 -7.204227e-02 2.233157e-01 -5.342267e-02 -7.197488e-02 -2.651701e-01 -5.397146e-03 4.486034e-01 -1.689265e-01 5.772258e-02 3.457264e-01 -2.433282e-01 2.454931e-02 2.489876e-01
<VARIANCE> 39
 7.286908e+00 1.237840e+01 2.689479e+01 4.521095e+01 2.907189e+01 2.569205e+01 3.253389e+01 3.422504e+01 4.729091e+01 2.451166e+01 4.827725e+01 1.268625e+01 2.344701e+01 4.597344e-01 7.025176e-01 9.816126e-01 1.049783e+00 1.461168e+00 9.946933e-01 2.876577e+00 1.952586e+00 1.275332e+00 2.154148e+00 1.780630e+00 8.040937e-01 1.151868e+00 6.857307e-02 9.886713e-02 1.040146e-01 1.576346e-01 2.264856e-01 1.319444e-01 3.686278e-01 2.779847e-01 1.904788e-01 3.195873e-01 2.490608e-01 1.245938e-01 1.655866e-01
<GCONST> 9.308871e+01
<MIXTURE> 2 3.541098e-01
<MEAN> 39
 1.216727e+01 -9.145203e+00 9.184080e+00 3.459868e+01 2.953516e+01 -2.953487e+00 -2.641165e+01 5.455243e+00 4.890137e-01 -1.808932e+01 9.103404e-01 -6.041326e+00 -1.638719e+01 1.311809e-01 1.755211e-01 -2.801867e-01 2.527300e-01 2.579719e-01 -7.027954e-02 1.528922e-01 -1.723732e-02 -3.669983e-01 4.961127e-02 1.286627e-01 -1.206802e-01 -2.258692e-02 3.288962e-02 1.326769e-02 -1.044214e-02 -3.207809e-02 8.000003e-03 6.844838e-02 -2.040346e-02 9.010927e-04 -1.042925e-01 -3.884152e-02 1.212378e-01 4.457693e-02 2.021163e-02
<VARIANCE> 39
 3.882715e+00 1.851498e+01 1.673841e+01 2.943933e+01 1.964782e+01 3.122212e+01 3.689180e+01 2.481457e+01 4.032983e+01 3.558269e+01 9.673040e+01 1.980689e+01 4.624466e+01 1.888326e-01 2.608123e-01 5.461190e-01 7.723992e-01 5.051529e-01 5.752918e-01 9.534671e-01 7.640973e-01 6.982575e-01 7.177944e-01 7.694989e-01 5.998008e-01 4.889981e-01 3.081084e-02 3.698513e-02 6.273168e-02 1.025244e-01 7.426252e-02 7.937759e-02 1.448045e-01 1.175597e-01 7.492548e-02 1.213678e-01 1.038006e-01 8.437182e-02 7.239851e-02
<GCONST> 7.335180e+01
<STATE> 6
<NUMMIXES> 2
<MIXTURE> 1 4.791058e-01
<MEAN> 39
 -5.415701e+00 2.311649e+00 8.951746e+00 1.759019e+01 1.395457e+01 5.937099e+00 -6.456906e+00 4.357050e+00 7.041793e-01 -3.015779e+00 -9.206060e-01 -4.460019e+00 -3.684931e+00 -1.498746e+00 7.878234e-01 2.657552e-01 -1.459262e+00 -1.212466e+00 8.137087e-01 1.553399e+00 2.210345e-01 1.876034e-01 9.191774e-01 -1.372006e-03 3.316733e-01 8.377870e-01 1.749207e-03 -2.560569e-01 -2.523721e-02 8.331494e-02 9.962235e-02 -7.605479e-02 -2.312978e-01 4.782490e-03 -8.674237e-02 -2.006150e-01 1.251893e-01 1.499932e-02 -1.748549e-01
<VARIANCE> 39
 1.638228e+02 8.944350e+01 9.302288e+01 1.732059e+02 1.264056e+02 7.241582e+01 4.991639e+01 5.025600e+01 5.002453e+01 3.774010e+01 3.207794e+01 2.945864e+01 2.791413e+01 1.183823e+00 3.237434e+00 1.886029e+00 2.331707e+00 2.116742e+00 1.687531e+00 2.805009e+00 1.833525e+00 1.946514e+00 2.108277e+00 1.931210e+00 1.358126e+00 1.786160e+00 8.835780e-02 1.780764e-01 1.905523e-01 2.476720e-01 2.570137e-01 1.711629e-01 2.397591e-01 2.495602e-01 2.544546e-01 2.858225e-01 2.374209e-01 1.848754e-01 2.075330e-01
<GCONST> 1.138567e+02
<MIXTURE> 2 5.208933e-01
<MEAN> 39
 1.056310e+01 -6.384980e+00 1.013447e+01 3.536787e+01 2.806846e+01 -1.032647e+00 -2.264710e+01 4.316352e+00 6.713755e-01 -1.438453e+01 -7.879841e-01 -7.267174e+00 -1.371919e+01 -4.114446e-01 1.218196e+00 -1.502284e-02 -6.909016e-01 -9.578822e-01 4.537350e-01 1.751629e+00 -2.621813e-01 -8.997882e-02 1.325337e+00 -4.674616e-01 -2.125263e-01 9.361760e-01 -1.333083e-01 1.580704e-01 1.288786e-01 -2.434179e-01 -1.579224e-01 1.757641e-01 1.327285e-01 7.693890e-02 1.074855e-01 7.545856e-02 -2.397628e-02 5.477034e-02 1.539410e-01
<VARIANCE> 39
 9.440479e+00 2.631124e+01 2.799639e+01 3.250112e+01 3.154429e+01 4.906423e+01 3.800351e+01 5.340390e+01 3.679057e+01 3.308926e+01 5.130742e+01 2.582281e+01 2.422081e+01 4.582229e-01 1.473595e+00 9.310058e-01 1.770283e+00 1.729068e+00 1.431725e+00 3.003946e+00 1.611498e+00 1.513836e+00 2.214295e+00 1.592708e+00 9.686493e-01 1.373794e+00 5.888284e-02 1.282029e-01 1.256483e-01 2.461581e-01 2.368632e-01 1.688834e-01 2.859440e-01 2.286491e-01 1.976735e-01 2.319560e-01 1.852123e-01 1.522219e-01 1.566496e-01
<GCONST> 9.818417e+01
<TRANSP> 7
 0.000000e+00 1.000000e+00 0.000000e+00 0.000000e+00 0.000000e+00 0.000000e+00 0.000000e+00
 0.000000e+00 7.774037e-01 2.225963e-01 0.000000e+00 0.000000e+00 0.000000e+00 0.000000e+00
 0.000000e+00 0.000000e+00 7.358142e-01 2.641858e-01 0.000000e+00 0.000000e+00 0.000000e+00
 0.000000e+00 0.000000e+00 0.000000e+00 8.656554e-01 1.343446e-01 0.000000e+00 0.000000e+00
 0.000000e+00 0.000000e+00 0.000000e+00 0.000000e+00 8.139751e-01 1.860249e-01 0.000000e+00
 0.000000e+00 0.000000e+00 0.000000e+00 0.000000e+00 0.000000e+00 8.757888e-01 1.242112e-01
 0.000000e+00 0.000000e+00 0.000000e+00 0.000000e+00 0.000000e+00 0.000000e+00 0.000000e+00
<ENDHMM>
~h "jh"
<BEGINHMM>
<NUMSTATES> 5
<STATE> 2
<NUMMIXES> 2
<MIXTURE> 1 3.429606e-01
<MEAN> 39
 1.206659e+01 5.959333e-01 5.208356e+00 2.020434e+01 1.392376e+01 5.828333e+00 1.291276e+00 9.903779e+00 -1.371273e+01 -1.805853e+01 3.089695e+00 4.538195e-01 -9.908184e-01 -1.932201e+00 2.244060e+00 2.632927e+00 4.447522e-01 -1.013107e+00 2.122199e+00 1.728997e+00 -1.507980e+00 1.534398e+00 1.767637e+00 -2.726963e+00 -1.932373e-01 1.644832e+00 -2.653332e-01 -2.897463e-01 5.824765e-01 -1.152130e-01 -4.002482e-01 2.649751e-01 -2.886896e-01 -3.204591e-01 4.645832e-01 3.373502e-01 1.894268e-01 -1.600563e-02 -1.350091e-02
<VARIANCE> 39
 1.575355e+01 5.869370e+01 3.418743e+01 2.679791e+01 1.265043e+01 2.027376e+01 3.472709e+01 1.445562e+01 5.977301e+01 2.562992e+01 9.373508e+01 1.206018e+01 1.629513e+01 5.213630e-01 1.902663e+00 1.031435e+00 1.186136e+00 1.532480e+00 1.485428e+00 2.146487e+00 1.570778e+00 4.659865e+00 3.622686e+00 3.728241e+00 5.514328e-01 1.390349e+00 3.228084e-02 7.894613e-01 1.517185e-01 2.052564e-01 1.963042e-01 1.934326e-01 4.740767e-01 2.258239e-01 7.894899e-01 5.454434e-01 5.917156e-01 7.983500e-02 4.484057e-01
<GCONST> 1.030147e+02
<MIXTURE> 2 6.570394e-01
<MEAN> 39
 -8.618609e-01 -5.692990e+00 2.635888e+01 2.364964e+01 3.934314e+00 1.738472e+01 3.713624e+00 5.259511e+00 -1.496545e+00 -1.201524e+01 -1.825407e+00 1.179978e-01 -2.904024e-01 -2.457623e+00 -4.992189e+00 3.213666e+00 4.168950e-01 -2.407911e+00 1.085658e+00 -6.324549e-01 8.511070e-01 1.856019e+00 -3.205323e-01 1.547403e+00 8.354042e-01 -6.006852e-01 9.914900e-02 -8.620461e-01 -4.998650e-01 -2.128739e-01 -5.340360e-02 -4.990365e-01 -3.503366e-01 3.134519e-01 -1.874804e-01 -1.590338e-01 5.006762e-01 2.070033e-01 5.230896e-03
<VARIANCE> 39
 2.774664e+01 1.915705e+02 7.053614e+01 2.035001e+01 2.811645e+01 2.684442e+01 1.733528e+01 2.321639e+01 4.437230e+01 3.479273e+01 3.358338e+01 1.986099e+01 1.871724e+01 1.001240e+00 7.066302e+00 2.939991e+00 1.521999e+00 9.394313e-01 3.737632e+00 2.061981e+00 3.418785e+00 1.985896e+00 3.654531e+00 2.828550e+00 1.511385e+00 1.470297e+00 1.612102e-01 1.761349e+00 4.519157e-01 3.449294e-01 3.306719e-01 5.864987e-01 3.067443e-01 9.197013e-01 4.109985e-01 6.109576e-01 4.650810e-01 3.636554e-01 4.062337e-01
<GCONST> 1.173242e+02
<STATE> 3
<NUMMIXES> 2
<MIXTURE> 1 1.804512e-01
<MEAN> 39
 -1.082376e+01 -2.645456e+01 3.043547e+01 1.812938e+01 -8.548912e+00 1.292875e+01 1.799908e+00 1.040793e+01 5.665812e+00 -8.227936e+00 6.615232e+00 4.221708e+00 -8.752420e-01 -1.922934e+00 -6.740388e+00 1.224598e+00 -2.263361e+00 -3.265599e+00 -1.675449e+00 -1.688433e+00 1.449568e+00 5.391428e-01 -9.593034e-01 1.953849e+00 2.255081e+00 8.293326e-02 5.470819e-01 8.464574e-01 -1.571176e-01 1.372490e-02 7.726660e-01 5.064029e-01 -3.648179e-01 -5.194122e-01 -8.771891e-01 -1.726994e-01 -4.708199e-01 -3.004659e-01 4.785182e-01
<VARIANCE> 39
 8.688583e+00 3.865127e+01 4.465456e+00 3.374987e+01 2.298682e+01 3.271227e+01 1.099717e+01 1.244599e+01 8.973585e+00 1.752338e+01 4.671345e+00 1.214900e+01 9.086532e+00 1.239068e+00 1.000667e+00 3.080536e-01 1.538842e+00 1.749791e+00 2.314138e+00 1.173574e+00 1.949805e+00 2.407582e+00 1.255767e+00 8.488528e-01 2.102036e+00 8.553290e-01 1.689314e-01 3.429342e-01 2.525250e-01 4.424418e-01 2.948973e-01 7.949722e-01 1.137672e-01 1.127839e-01 1.100410e-01 2.357763e-01 8.558686e-02 3.016111e-01 5.795810e-02
<GCONST> 8.757491e+01
<MIXTURE> 2 8.195489e-01
<MEAN> 39
 -1.415643e+01 -4.017953e+01 3.030789e+01 1.322771e+01 -8.876129e+00 1.296473e+01 -7.149504e+00 8.432126e+00 -3.351241e-02 -1.021417e+01 9.460217e+00 6.017218e+00 1.443767e+00 -1.747960e-01 -1.054946e+00 -1.729753e-01 -3.226003e-01 4.077936e-02 -9.831234e-02 -7.781177e-01 -5.763311e-01 -6.028956e-01 2.654241e-01 1.927702e-01 -1.598408e-01 1.858246e-01 3.814660e-01 7.472101e-01 -1.661667e-01 1.979402e-01 3.259991e-01 7.036974e-02 2.360170e-01 -1.651798e-01 -9.679063e-02 -2.203852e-03 -3.657482e-01 -2.254798e-01 -1.035995e-01
<VARIANCE> 39
 2.451864e+01 1.106077e+02 2.912231e+01 5.016760e+01 1.382104e+01 1.716471e+01 2.358890e+01 1.122909e+01 2.797954e+01 3.536882e+01 1.478120e+01 1.038876e+01 1.103241e+01 1.085891e+00 3.960979e+00 1.685377e+00 2.909404e+00 1.133404e+00 1.898820e+00 2.904865e+00 1.457695e+00 1.486475e+00 3.153246e+00 1.963479e+00 1.145860e+00 7.010023e-01 1.599242e-01 4.784662e-01 3.507759e-01 1.945382e-01 3.846686e-01 2.115313e-01 1.385396e-01 3.570051e-01 2.599759e-01 4.582098e-01 3.979550e-01 2.273726e-01 1.213092e-01
<GCONST> 1.020991e+02
<STATE> 4
<NUMMIXES> 2
<MIXTURE> 1 9.294332e-01
<MEAN> 39
 3.647783e-01 -2.608037e+01 2.555649e+01 2.310383e+01 1.960838e+00 1.916786e+01 -5.572006e+00 2.155713e+00 -5.979471e-01 -1.393109e+01 6.333097e+00 4.281729e+00 -2.376877e+00 1.767859e+00 2.469340e+00 -1.881538e+00 1.121869e-01 1.558075e+00 -3.712966e-01 -3.791706e-01 -4.311227e-01 -3.416430e-01 2.654224e-01 -5.078347e-02 1.035934e-02 7.631431e-02 4.414488e-02 3.052613e-01 -2.167563e-01 -1.385699e-01 5.124183e-05 -3.214889e-01 -7.829987e-02 2.575837e-01 8.920500e-02 6.407911e-02 1.203969e-01 2.804276e-02 1.627546e-02
<VARIANCE> 39
 4.701358e+01 1.099999e+02 5.614035e+01 5.426248e+01 8.325559e+01 3.613860e+01 2.406697e+01 4.023023e+01 2.328451e+01 3.693772e+01 1.190917e+01 2.574419e+01 2.381789e+01 7.508940e-01 3.027854e+00 3.153238e+00 3.430299e+00 2.548690e+00 2.924607e+00 1.721080e+00 1.965246e+00 1.814638e+00 2.504248e+00 1.515953e+00 1.258463e+00 1.502851e+00 9.036829e-02 5.188681e-01 2.723160e-01 2.909903e-01 1.735091e-01 2.567528e-01 1.953681e-01 1.851742e-01 2.557285e-01 3.682581e-01 2.181452e-01 1.935694e-01 1.132129e-01
<GCONST> 1.080529e+02
<MIXTURE> 2 7.056669e-02
<MEAN> 39
 -9.761658e+00 -4.554545e+01 2.676332e+01 1.052147e+01 -8.422518e+00 1.250863e+01 -1.155968e+01 -3.853806e-01 2.642103e+00 -6.900874e+00 5.978659e+00 2.307322e+00 -2.255522e-01 1.409122e+00 -5.795646e-01 -1.097748e+00 -3.987690e-01 9.505012e-01 4.137029e-01 -7.119871e-01 -9.148992e-01 -1.503832e+00 -4.721007e-01 8.316845e-01 -6.636558e-01 -1.092916e-02 2.339259e-01 9.557756e-01 1.514077e-01 7.371059e-01 8.385402e-01 8.179470e-01 5.291185e-01 4.437448e-01 2.226876e-01 1.502253e-01 3.238794e-01 4.615232e-02 -1.307072e-01
<VARIANCE> 39
 3.439816e+00 2.029245e+01 2.332315e+01 1.382712e+01 4.458839e+00 4.924933e+00 2.532673e+01 1.477496e+01 8.034349e+00 1.726697e+01 2.226294e+01 2.938067e+01 6.431721e+00 3.095112e-01 9.956492e-01 1.356462e+00 1.395433e+00 1.563519e+00 1.136776e+00 1.043502e+00 2.731923e-01 1.572772e-01 6.901426e-01 7.477353e-01 1.550866e+00 2.166764e-01 6.307306e-02 2.782798e-01 2.041316e-01 5.284156e-02 1.281832e-01 4.956992e-02 1.559572e-01 9.268276e-02 4.089903e-02 1.101551e-01 4.471335e-01 5.350318e-01 5.268003e-02
<GCONST> 7.152540e+01
<TRANSP> 5
 0.000000e+00 1.000000e+00 0.000000e+00 0.000000e+00 0.000000e+00
 0.000000e+00 8.752096e-01 1.247903e-01 0.000000e+00 0.000000e+00
 0.000000e+00 0.000000e+00 8.207660e-01 1.792339e-01 0.000000e+00
 0.000000e+00 0.000000e+00 0.000000e+00 8.273830e-01 1.726169e-01
 0.000000e+00 0.000000e+00 0.000000e+00 0.000000e+00 0.000000e+00
<ENDHMM>
~h "kh"
<BEGINHMM>
<NUMSTATES> 5
<STATE> 2
<NUMMIXES> 2
<MIXTURE> 1 3.753751e-01
<MEAN> 39
 -2.643839e+01 -6.533282e+00 -5.114033e+00 -2.806762e+00 -3.281823e+00 1.157409e+00 -3.522259e+00 1.394113e+00 -1.388380e+00 -5.067499e-01 4.121268e-01 -1.416882e+00 -7.794091e-02 9.359369e-02 -2.541295e-01 -2.085587e-01 1.203065e-01 1.817283e-01 -4.803611e-02 -1.070295e-01 6.292275e-03 -8.771354e-02 -2.837881e-01 -1.004544e-01 1.771730e-01 1.533707e-01 1.843729e-01 -4.547559e-02 -4.815501e-02 5.888079e-02 9.225488e-02 4.360777e-02 3.714775e-02 1.649412e-01 9.035916e-03 -8.802771e-02 -2.567950e-02 7.003823e-02 1.259152e-01
<VARIANCE> 39
 7.449974e-01 2.009609e+00 1.984469e+00 3.487085e+00 4.429821e+00 7.580854e+00 7.213783e+00 6.465908e+00 1.393916e+01 1.181351e+01 7.801771e+00 8.688494e+00 7.049662e+00 1.925427e-01 3.848825e-01 3.419562e-01 5.539942e-01 9.314494e-01 1.169466e+00 9.083221e-01 1.237740e+00 1.472222e+00 1.712209e+00 1.378832e+00 1.019302e+00 1.020324e+00 8.192062e-02 1.104539e-01 1.106205e-01 1.207193e-01 2.016666e-01 2.715854e-01 1.910277e-01 2.857205e-01 2.971497e-01 3.746147e-01 3.068342e-01 2.210840e-01 2.371297e-01
<GCONST> 6.870777e+01
<MIXTURE> 2 6.246248e-01
<MEAN> 39
 -3.167249e+00 3.867509e+00 5.261785e+00 1.822376e+01 1.783763e+01 6.600765e+00 -7.477532e+00 3.670609e+00 1.435840e-02 -2.524223e+00 1.079142e+00 -2.132632e+00 -1.642877e+00 -2.423701e+00 -2.447737e-01 -3.766755e-01 -1.639049e+00 -1.458849e+00 8.760913e-01 1.507913e+00 -5.703935e-01 -3.681207e-01 2.370222e-01 -9.530213e-01 2.675422e-01 1.390302e+00 5.103429e-02 -9.031255e-01 -5.387199e-01 -3.317899e-01 -1.791074e-01 1.740630e-02 -1.210064e-01 -4.320181e-02 -3.946529e-01 -4.016033e-01 2.583056e-01 -9.964580e-02 -2.130175e-01
<VARIANCE> 39
 5.864350e+01 2.495602e+01 2.011611e+01 5.712180e+01 8.197604e+01 2.497094e+01 4.052489e+01 3.021685e+01 2.858464e+01 3.203872e+01 2.914642e+01 2.494586e+01 2.386695e+01 1.260468e+00 3.424125e+00 1.445641e+00 1.583366e+00 2.294102e+00 2.360086e+00 3.594304e+00 1.978456e+00 2.749724e+00 2.926425e+00 1.816924e+00 1.070098e+00 2.588804e+00 1.180522e-01 3.505694e-01 2.549260e-01 3.079415e-01 4.264157e-01 2.974489e-01 2.781044e-01 3.656487e-01 4.616090e-01 3.586875e-01 3.351361e-01 1.979540e-01 3.248675e-01
<GCONST> 1.112551e+02
<STATE> 3
<NUMMIXES> 2
<MIXTURE> 1 4.002484e-01
<MEAN> 39
 -1.138284e+01 -3.481253e+00 -8.653795e-01 1.053499e+01 1.228679e+01 9.742629e+00 -2.010827e+00 3.854833e+00 -1.632987e+00 -3.890608e+00 -1.742786e+00 -2.096438e+00 2.516623e+00 -4.353352e-01 -3.606061e+00 -3.081074e+00 -2.798950e+00 -2.406711e+00 -2.992312e-01 2.053224e-01 -4.874041e-02 -5.913332e-01 -2.081345e-01 3.402587e-01 -2.527658e-01 8.477167e-01 8.959967e-01 -4.843704e-01 -3.016241e-01 -2.735110e-01 -3.925160e-01 -4.876136e-01 -8.015814e-01 -3.144215e-01 -4.169969e-01 -6.145188e-02 7.766421e-01 -1.883544e-01 -4.600415e-01
<VARIANCE> 39
 4.711543e+01 4.248332e+01 3.753016e+01 5.147390e+01 5.270552e+01 4.144499e+01 3.068282e+01 3.755897e+01 3.575363e+01 3.065788e+01 3.721730e+01 2.643881e+01 2.457023e+01 3.762845e+00 4.200904e+00 2.667101e+00 4.183565e+00 4.889678e+00 5.346872e+00 5.456914e+00 3.719914e+00 3.901729e+00 3.047289e+00 4.865647e+00 2.529197e+00 2.450445e+00 1.704682e-01 4.107094e-01 5.074074e-01 3.608223e-01 4.927246e-01 3.611645e-01 4.863155e-01 4.387600e-01 5.565875e-01 4.988394e-01 5.919035e-01 3.076877e-01 4.423679e-01
<GCONST> 1.245776e+02
<MIXTURE> 2 5.997512e-01
<MEAN> 39
 -5.660188e+00 -1.867068e+01 -1.145459e+01 -8.493569e-01 -9.188310e-01 3.268137e+00 -8.792113e+00 9.066398e-01 -8.891736e+00 -7.643531e+00 5.534006e+00 -5.169382e+00 3.109028e-01 2.328377e+00 -2.510627e+00 -3.584720e-01 -1.306675e+00 -2.003100e+00 -2.574247e-01 -1.628980e+00 -1.117969e+00 -2.552639e+00 -1.460518e+00 2.625926e+00 -2.692382e-01 -8.583059e-01 -9.360562e-02 5.673017e-01 1.008214e+00 7.354680e-01 3.993442e-01 3.145555e-01 1.962746e-01 7.377273e-02 2.479818e-01 7.289797e-02 -1.481238e-01 2.862588e-01 1.708815e-01
<VARIANCE> 39
 6.001333e+01 5.904795e+01 2.060382e+01 4.188103e+01 8.089703e+01 1.374572e+02 8.406551e+01 7.217309e+01 7.141390e+01 6.708877e+01 1.016482e+02 4.306174e+01 2.478723e+01 1.797464e+00 2.852399e+00 4.164571e+00 3.540243e+00 2.403261e+00 3.780801e+00 2.891441e+00 2.813918e+00 3.641284e+00 3.252724e+00 4.052522e+00 2.438852e+00 2.550131e+00 5.501336e-01 3.433474e-01 3.650414e-01 4.965940e-01 3.735613e-01 4.682226e-01 4.991459e-01 4.212362e-01 1.131601e+00 8.665214e-01 1.076899e+00 3.625009e-01 6.155420e-01
<GCONST> 1.309111e+02
<STATE> 4
<NUMMIXES> 2
<MIXTURE> 1 6.247173e-01
<MEAN> 39
 -2.925049e+00 -2.850499e+01 9.951405e-01 8.954987e+00 -2.139933e-01 8.004772e+00 -1.343219e+01 -4.270703e+00 -1.130744e+01 -6.928763e+00 1.229401e+01 -3.950717e+00 1.579972e-01 9.166801e-02 4.637829e-01 1.336404e+00 1.379936e+00 1.007822e+00 1.007330e+00 7.840219e-01 3.864156e-01 7.519233e-01 8.234775e-01 4.937930e-01 6.610868e-01 3.380596e-01 -3.792530e-02 3.910240e-01 -1.390200e-01 5.028270e-02 1.815476e-01 -1.193194e-01 1.594319e-01 2.331680e-01 2.625962e-01 1.158548e-01 -1.604346e-01 -7.534951e-03 -1.109351e-02
<VARIANCE> 39
 2.793266e+01 6.973102e+01 5.883949e+01 1.058152e+02 1.428858e+02 3.193741e+02 1.012305e+02 6.730451e+01 4.521441e+01 6.374882e+01 4.659609e+01 5.729816e+01 3.193622e+01 9.307088e-01 4.128473e+00 2.570301e+00 1.498749e+00 2.971952e+00 4.143690e+00 2.274242e+00 3.137189e+00 2.611444e+00 2.134030e+00 2.256891e+00 1.297572e+00 1.389914e+00 1.577330e-01 2.504140e-01 3.671202e-01 2.689475e-01 3.565534e-01 6.259140e-01 4.365152e-01 4.248640e-01 4.467323e-01 4.698263e-01 3.622569e-01 2.173509e-01 2.366015e-01
<GCONST> 1.228795e+02
<MIXTURE> 2 3.752807e-01
<MEAN> 39
 1.457313e+00 -1.745402e+01 -7.224420e+00 -3.816103e+00 -1.087432e+01 6.600111e+00 4.745421e+00 8.652138e+00 -6.292088e+00 -4.359339e+00 1.098806e+01 3.627101e+00 7.103549e+00 2.092544e-01 3.868251e-01 -6.990172e-01 -5.289361e-02 -6.944841e-01 -1.304855e+00 4.022339e-01 6.439145e-01 1.145820e+00 9.224601e-01 -5.006245e-01 1.648444e-01 4.454383e-01 1.150352e-01 4.184066e-02 -9.058933e-02 -4.470293e-02 9.390756e-02 -8.822013e-02 -1.606627e-01 1.776916e-02 -3.929835e-02 -1.068810e-01 1.696452e-02 -1.020040e-01 -1.803829e-01
<VARIANCE> 39
 7.338077e+01 6.265907e+01 5.585979e+01 1.172284e+02 2.694885e+02 1.319145e+02 5.027802e+01 7.587218e+01 6.676624e+01 9.237098e+01 9.495029e+01 3.118796e+01 2.223872e+01 1.111289e+00 2.582886e+00 1.660344e+00 1.764174e+00 2.605255e+00 3.444876e+00 2.029449e+00 1.708766e+00 1.826986e+00 1.952968e+00 1.868752e+00 1.451324e+00 1.356290e+00 6.173560e-02 1.681222e-01 2.383365e-01 2.843889e-01 3.443336e-01 4.730075e-01 3.330413e-01 3.016873e-01 2.955699e-01 2.889347e-01 2.892558e-01 2.281827e-01 1.760634e-01
<GCONST> 1.172992e+02
<TRANSP> 5
 0.000000e+00 1.000000e+00 0.000000e+00 0.000000e+00 0.000000e+00
 0.000000e+00 7.040793e-01 2.959207e-01 0.000000e+00 0.000000e+00
 0.000000e+00 0.000000e+00 8.225011e-01 1.774988e-01 0.000000e+00
 0.000000e+00 0.000000e+00 0.000000e+00 9.001617e-01 9.983835e-02
 0.000000e+00 0.000000e+00 0.000000e+00 0.000000e+00 0.000000e+00
<ENDHMM>
~h "mq"
<BEGINHMM>
<NUMSTATES> 5
<STATE> 2
<NUMMIXES> 2
<MIXTURE> 1 1.000000e+00
<MEAN> 39
 2.166251e+01 -6.169969e+00 -7.368403e+00 -3.953873e+00 3.788184e+00 -9.330970e-02 -4.031936e+00 2.506946e+01 -9.032150e+00 -2.006983e+01 1.673077e+01 -2.792284e+00 -8.169448e+00 -9.584540e-02 7.060686e-02 7.124056e-01 6.597533e-01 5.111877e-01 6.225382e-01 -3.540127e-01 -9.918821e-01 -7.379206e-01 1.161092e-01 7.352031e-01 -1.280775e-01 -5.869989e-02 -5.600581e-02 1.411052e-01 -2.100676e-02 1.779601e-01 3.580496e-02 -2.183950e-02 1.590385e-01 -1.776555e-01 1.082013e-01 1.351876e-01 -3.159951e-01 5.621153e-02 6.326308e-02
<VARIANCE> 39
 4.979920e+00 1.383755e+01 2.368119e+01 3.581718e+01 2.003240e+01 3.620095e+01 2.859575e+01 5.227781e+01 1.643960e+01 2.148121e+01 3.056440e+01 1.008393e+01 8.437345e+00 3.563229e-01 5.510085e-01 4.725930e-01 7.655255e-01 6.103368e-01 6.203228e-01 1.658143e+00 2.132085e+00 4.640114e-01 1.033785e+00 1.281042e+00 5.780595e-01 3.287365e-01 7.178930e-02 9.926853e-02 7.156424e-02 1.045936e-01 7.827105e-02 8.097243e-02 2.900930e-01 2.863275e-01 9.627504e-02 1.496947e-01 2.861148e-01 1.028151e-01 5.308566e-02
<GCONST> 7.768916e+01
<MIXTURE> 2 0.000000e+00
<MEAN> 39
 -9.685755e-07 -6.519258e-07 -1.657754e-07 6.034970e-07 1.440640e-09 1.266599e-07 -8.195639e-08 7.823110e-08 2.533197e-07 1.257285e-08 1.639128e-07 7.078052e-07 2.328306e-08 3.019522e-10 -4.656613e-09 -1.216540e-08 1.164153e-10 1.781154e-08 1.982698e-10 -3.026798e-09 5.587935e-09 -1.746230e-09 4.097819e-08 2.363231e-08 1.315493e-08 -2.043089e-08 -3.744487e-03 2.978991e-04 -4.746468e-04 6.844162e-05 -1.603577e-04 -3.450464e-05 5.754238e-05 -8.061554e-05 1.271995e-04 -1.902887e-04 4.669849e-05 -1.564687e-04 -6.364408e-05
<VARIANCE> 39
 1.000000e-30 1.000000e-30 1.000000e-30 1.000000e-30 1.000000e-30 9.313226e-09 1.000000e-30 3.492460e-10 1.000000e-30 1.473381e-10 1.781154e-08 1.000000e-30 1.000000e-30 1.000000e-30 1.000000e-30 1.000000e-30 2.110312e-12 1.000000e-30 1.000000e-30 1.409717e-11 1.000000e-30 1.318767e-11 3.419700e-10 1.000000e-30 1.000000e-30 1.000000e-30 1.827128e-03 6.024704e-05 5.945166e-05 2.794358e-05 3.412523e-05 3.360989e-05 3.020229e-05 3.188291e-05 2.277736e-05 2.193036e-05 1.852728e-05 2.304439e-05 1.544051e-05
<GCONST> -1.800000e+11
<STATE> 3
<NUMMIXES> 2
<MIXTURE> 1 1.000000e+00
<MEAN> 39
 1.657464e+01 2.679427e+00 5.033314e-01 8.463352e+00 1.092484e+01 6.050413e+00 -1.985656e+00 1.091557e+01 -9.654107e+00 -1.520546e+01 5.868939e+00 -3.044215e+00 -3.874937e+00 -1.665687e+00 2.659864e+00 1.709132e+00 1.690091e+00 6.564474e-01 1.058973e+00 1.089728e+00 -1.742530e+00 8.205003e-01 9.196035e-01 -3.730075e+00 -2.092762e-01 1.062725e+00 -2.565081e-01 -1.377288e-01 2.633857e-01 -1.003316e-01 -3.144959e-01 5.501468e-02 -2.874637e-02 1.294954e-01 9.304231e-02 -2.624743e-02 -2.110993e-02 -1.957426e-02 1.442313e-01
<VARIANCE> 39
 1.544195e+01 4.637625e+01 3.598671e+01 1.928154e+01 3.357084e+01 3.668761e+01 2.406175e+01 4.947474e+01 2.652693e+01 1.957791e+01 9.321661e+01 1.491341e+01 1.455291e+01 5.895948e-01 1.000383e+00 1.130278e+00 8.803113e-01 1.073478e+00 1.121301e+00 1.868468e+00 1.124783e+00 2.133966e+00 9.811174e-01 2.727079e+00 8.288255e-01 4.298450e-01 8.216447e-02 5.350260e-01 1.772567e-01 1.506218e-01 2.975802e-01 1.190320e-01 2.530163e-01 1.636031e-01 4.023798e-01 2.058117e-01 1.016548e+00 1.226154e-01 8.485878e-02
<GCONST> 9.595145e+01
<MIXTURE> 2 0.000000e+00
<MEAN> 39
 1.769513e-08 2.514571e-08 -9.313226e-09 1.443550e-08 7.078052e-08 3.911555e-08 -6.798655e-08 3.725290e-09 -1.192093e-07 4.773028e-08 -2.095476e-08 3.818423e-08 3.492460e-09 -1.477929e-11 -3.783498e-10 1.746230e-10 1.011358e-09 1.149601e-09 4.911271e-10 2.779416e-09 1.760782e-09 3.929017e-10 5.966285e-10 -5.209586e-09 2.590241e-09 4.249159e-09 -2.047057e-02 1.739704e-03 -2.860196e-03 4.944406e-04 -9.179143e-04 -4.275220e-04 -1.494129e-04 -1.110907e-03 -5.215620e-04 -1.377407e-03 -4.617415e-04 -8.713729e-04 -4.312473e-04
<VARIANCE> 39
 1.000000e-30 1.964509e-09 1.000000e-30 3.888090e-11 1.000000e-30 1.000000e-30 1.000000e-30 1.000000e-30 1.804437e-09 3.074092e-10 3.783498e-10 1.000000e-30 3.836931e-13 1.000000e-30 2.060574e-13 1.000000e-30 1.962874e-13 1.108447e-12 1.085798e-13 1.000000e-30 8.490986e-13 1.000000e-30 1.000000e-30 4.021672e-12 1.000000e-30 1.989520e-13 1.418590e-02 4.708500e-04 6.059122e-04 2.832045e-04 2.438255e-04 1.964814e-04 2.386844e-04 2.203498e-04 2.247814e-04 1.830704e-04 2.037936e-04 1.436218e-04 1.237932e-04
<GCONST> -1.300000e+11
<STATE> 4
<NUMMIXES> 2
<MIXTURE> 1 1.000000e+00
<MEAN> 39
 1.292390e+01 8.273612e+00 2.966483e+00 1.233034e+01 1.046032e+01 4.966829e+00 -5.510985e-01 9.524424e+00 -6.655682e+00 -1.489543e+01 -4.103102e+00 -1.881774e+00 -6.848508e-01 -1.872018e+00 2.968025e-01 2.241120e+00 8.798202e-01 -1.278989e+00 7.956048e-01 9.072962e-01 -1.050238e+00 1.349774e-02 4.999207e-01 -1.346457e+00 5.108223e-02 9.108749e-01 -2.338880e-01 -1.300516e+00 3.728765e-01 4.246798e-02 -6.184480e-01 1.127600e-03 -9.333126e-02 3.556770e-01 1.301156e-02 -1.946840e-01 6.844257e-01 6.387320e-02 -3.837409e-02
<VARIANCE> 39
 4.479454e+01 7.511521e+01 8.007186e+01 1.006786e+01 7.842785e+01 1.493542e+02 3.999621e+01 1.360207e+02 3.147920e+01 1.957883e+01 6.929417e+01 1.894681e+01 2.534282e+01 1.833406e+00 6.428076e-01 2.734219e+00 3.996262e-01 1.881514e+00 9.281436e-01 6.459641e-01 1.807899e+00 2.050670e+00 2.131608e+00 2.211689e+00 4.302341e-01 1.256462e+00 1.174376e-01 7.468963e-01 2.130305e-01 1.044155e-01 3.356912e-01 9.155362e-02 2.132944e-01 9.878016e-02 2.035703e-01 2.506979e-01 5.979244e-01 9.155164e-02 9.278216e-02
<GCONST> 1.020766e+02
<MIXTURE> 2 0.000000e+00
<MEAN> 39
 0.000000e+00 0.000000e+00 0.000000e+00 0.000000e+00 0.000000e+00 0.000000e+00 0.000000e+00 0.000000e+00 0.000000e+00 0.000000e+00 0.000000e+00 0.000000e+00 0.000000e+00 0.000000e+00 0.000000e+00 0.000000e+00 0.000000e+00 0.000000e+00 0.000000e+00 0.000000e+00 0.000000e+00 0.000000e+00 0.000000e+00 0.000000e+00 0.000000e+00 0.000000e+00 -7.323198e-02 1.123042e-02 -1.038370e-02 1.682460e-03 -2.594927e-03 -1.410091e-03 -1.503533e-03 -3.022441e-03 -2.858302e-03 -3.888699e-03 -2.411382e-03 -1.670942e-03 -2.166644e-03
<VARIANCE> 39
 1.000000e-30 1.000000e-30 1.000000e-30 1.000000e-30 1.000000e-30 1.000000e-30 1.000000e-30 1.000000e-30 1.000000e-30 1.000000e-30 1.000000e-30 1.000000e-30 1.000000e-30 1.000000e-30 1.000000e-30 1.000000e-30 1.000000e-30 1.000000e-30 1.000000e-30 1.000000e-30 1.000000e-30 1.000000e-30 1.000000e-30 1.000000e-30 1.000000e-30 1.000000e-30 6.110287e-02 6.616157e-03 5.196090e-03 3.621858e-03 3.050250e-03 4.287072e-03 4.344802e-03 3.931833e-03 3.373807e-03 2.996578e-03 2.947920e-03 2.834462e-03 2.042745e-03
<GCONST> -2.600001e+11
<TRANSP> 5
 0.000000e+00 1.000000e+00 0.000000e+00 0.000000e+00 0.000000e+00
 0.000000e+00 8.844522e-01 1.155478e-01 0.000000e+00 0.000000e+00
 0.000000e+00 0.000000e+00 7.891734e-01 2.108267e-01 0.000000e+00
 0.000000e+00 0.000000e+00 0.000000e+00 2.436461e-06 9.999976e-01
 0.000000e+00 0.000000e+00 0.000000e+00 0.000000e+00 0.000000e+00
<ENDHMM>
~h "nj"
<BEGINHMM>
<NUMSTATES> 5
<STATE> 2
<NUMMIXES> 2
<MIXTURE> 1 6.448376e-01
<MEAN> 39
 2.500529e+00 4.883284e+00 9.640644e+00 7.663284e+00 8.983262e+00 1.102280e+00 -1.110930e+01 -4.794134e+00 -1.288087e+00 -5.336167e+00 -8.651181e+00 -5.994543e+00 -4.689224e+00 -8.037093e-03 3.616399e-01 2.282659e-01 1.904264e-01 -7.341486e-02 2.493188e-01 -1.645973e-01 1.039757e-01 1.836264e-01 -2.358938e-02 -1.693905e-01 -2.100465e-01 6.134257e-02 -2.933799e-02 -8.245458e-02 -2.934181e-02 -2.555616e-02 -3.167558e-02 -6.560107e-02 9.943750e-02 4.022849e-02 -2.891495e-02 -3.393753e-02 8.488162e-02 6.642201e-02 -4.307508e-02
<VARIANCE> 39
 2.984620e+01 6.743415e+01 3.440329e+01 6.486826e+01 9.630917e+01 1.111856e+02 7.206052e+01 3.914428e+01 4.361893e+01 6.400179e+01 5.133936e+01 4.753320e+01 6.246100e+01 3.205257e-01 9.356377e-01 8.799419e-01 1.011097e+00 1.131665e+00 1.602336e+00 1.676275e+00 1.622988e+00 1.393007e+00 1.544790e+00 1.534638e+00 1.262773e+00 1.005133e+00 5.129976e-02 1.324087e-01 1.310566e-01 1.649362e-01 1.886846e-01 2.602298e-01 2.799097e-01 2.472048e-01 2.361487e-01 2.447439e-01 2.395605e-01 1.899032e-01 1.721881e-01
<GCONST> 1.035840e+02
<MIXTURE> 2 3.551624e-01
<MEAN> 39
 2.709807e+00 8.928315e+00 1.147999e+01 -1.502002e+00 5.525277e+00 -1.202266e+01 -1.337622e+01 -2.554715e-01 -4.602529e+00 -1.768139e+01 -1.319073e+01 -1.517253e+01 -1.372431e+01 -3.641024e-02 1.717343e-01 7.861748e-02 2.967181e-02 -1.046537e-01 -5.441139e-03 -2.671677e-02 6.079637e-02 1.669364e-01 -1.932618e-01 -2.864245e-01 5.561825e-02 9.325963e-02 -4.810160e-02 -6.521460e-02 -1.482642e-02 1.193514e-02 -1.650132e-02 -1.109369e-02 1.465435e-01 -1.707742e-01 -4.778483e-02 1.308504e-01 6.270327e-02 7.036697e-02 2.437993e-02
<VARIANCE> 39
 2.806140e+00 1.555293e+01 1.314208e+01 1.840736e+01 2.262506e+01 2.127437e+01 3.199649e+01 3.318005e+01 3.093358e+01 4.198512e+01 4.848846e+01 2.774301e+01 2.260729e+01 5.275457e-02 2.340834e-01 2.735551e-01 3.459295e-01 4.041417e-01 4.254854e-01 6.606404e-01 7.842113e-01 6.592637e-01 7.675110e-01 6.076438e-01 6.638942e-01 4.363255e-01 1.427971e-02 5.345663e-02 5.262011e-02 7.491710e-02 9.308103e-02 1.030196e-01 1.470128e-01 1.566586e-01 1.284100e-01 1.334793e-01 1.117656e-01 1.170488e-01 9.097067e-02
<GCONST> 6.805726e+01
<STATE> 3
<NUMMIXES> 2
<MIXTURE> 1 5.768365e-01
<MEAN> 39
 -1.650130e+00 4.293084e+00 1.251531e+01 7.997261e+00 8.073728e+00 -5.246037e-01 -5.022378e+00 -3.656913e+00 -1.169887e+00 -5.260289e+00 -6.472120e+00 -5.230941e+00 -5.362416e+00 -2.457572e-01 -1.055694e+00 5.425199e-02 6.005565e-02 -8.472940e-02 -6.629400e-01 5.229853e-01 -3.181231e-01 -3.388248e-01 -7.298808e-02 3.639769e-01 1.593710e-01 -1.386185e-01 1.520792e-02 -1.310300e-01 -6.702862e-02 -3.907461e-02 5.318189e-02 -1.073812e-01 -1.160357e-01 4.202005e-03 -2.860112e-02 -1.644950e-02 3.863433e-02 3.098836e-02 1.592401e-03
<VARIANCE> 39
 3.918433e+01 6.900724e+01 3.661243e+01 5.426512e+01 7.157546e+01 9.625215e+01 7.617765e+01 5.381805e+01 4.801081e+01 6.558137e+01 4.535140e+01 4.882023e+01 3.880204e+01 1.803826e+00 4.185937e+00 2.995981e+00 3.165112e+00 2.961892e+00 4.166068e+00 5.236826e+00 3.490489e+00 2.493116e+00 2.927037e+00 2.647161e+00 2.256471e+00 1.742612e+00 2.675167e-01 6.951686e-01 5.092847e-01 5.361979e-01 4.958111e-01 6.914724e-01 8.867679e-01 5.816731e-01 4.441610e-01 4.559211e-01 3.934963e-01 3.435938e-01 2.966835e-01
<GCONST> 1.282403e+02
<MIXTURE> 2 4.231635e-01
<MEAN> 39
 1.295004e+01 -1.990565e+00 1.135198e+01 1.051720e+01 -6.057696e+00 5.887888e+00 -1.010513e+01 -1.137384e+01 1.444680e+00 -1.270348e+01 -1.434898e+01 -7.786644e+00 -1.003824e+01 -9.293678e-02 2.690157e-01 1.644063e-01 -4.434790e-02 4.908991e-03 -1.315278e-02 2.359147e-02 2.516896e-02 3.590895e-02 -1.700219e-02 -1.722138e-01 -5.740685e-02 3.323376e-02 -9.219238e-03 -9.527378e-02 1.038478e-02 5.471010e-02 -4.705711e-02 -1.766123e-03 5.385786e-02 9.632568e-03 -1.593223e-02 1.461344e-02 6.699349e-02 4.784431e-02 -4.166522e-02
<VARIANCE> 39
 3.856699e+00 2.329041e+01 2.029645e+01 2.178050e+01 2.279533e+01 2.924805e+01 4.529770e+01 3.117255e+01 4.292793e+01 9.096780e+01 3.922691e+01 2.936979e+01 2.970384e+01 1.036110e-01 3.492112e-01 2.670597e-01 3.809765e-01 4.285590e-01 5.403163e-01 4.986794e-01 4.888597e-01 5.781164e-01 5.797477e-01 5.508767e-01 4.750876e-01 4.293715e-01 1.962212e-02 7.488119e-02 4.759888e-02 7.101423e-02 9.162906e-02 9.864736e-02 9.496345e-02 9.101720e-02 1.042438e-01 1.084253e-01 8.732623e-02 8.894771e-02 7.543494e-02
<GCONST> 6.937938e+01
<STATE> 4
<NUMMIXES> 2
<MIXTURE> 1 6.193125e-01
<MEAN> 39
 1.028075e+01 -1.288878e+01 1.373863e+01 1.291313e+01 -1.063704e+01 3.015265e+00 -1.051210e+01 -9.272548e+00 1.731557e+00 -1.466234e+01 -7.812191e+00 -3.781766e+00 -1.403609e+01 -1.313824e-01 -1.218131e+00 -2.753857e-02 8.111192e-02 -5.507110e-01 -1.762661e-01 1.277021e-02 -2.771645e-02 9.013085e-02 -2.377615e-02 5.405732e-01 4.540587e-01 -2.427453e-01 1.725942e-02 3.638613e-02 -6.293325e-02 -6.635727e-02 3.109851e-02 -2.954077e-03 -4.337660e-02 -9.599536e-03 -1.934156e-02 8.019480e-03 4.517408e-03 -5.125827e-03 2.411142e-02
<VARIANCE> 39
 5.360118e+01 1.147594e+02 5.651950e+01 4.958639e+01 6.452203e+01 8.099206e+01 6.030843e+01 4.255379e+01 4.687903e+01 6.013705e+01 5.901341e+01 4.074115e+01 4.006900e+01 1.196394e+00 4.081296e+00 2.274762e+00 1.764822e+00 2.229019e+00 2.915065e+00 2.342601e+00 1.784886e+00 1.712513e+00 1.735224e+00 1.473653e+00 1.255965e+00 1.251955e+00 1.512755e-01 5.907288e-01 2.923045e-01 2.467913e-01 3.750200e-01 4.103101e-01 3.571459e-01 2.759851e-01 2.797883e-01 2.719341e-01 2.224235e-01 2.094979e-01 1.860853e-01
<GCONST> 1.158219e+02
<MIXTURE> 2 3.806876e-01
<MEAN> 39
 7.986883e-01 -2.793469e+00 4.055068e+00 2.384333e+00 1.088714e+01 -1.595118e+01 -9.973896e+00 -5.408926e+00 -6.926043e+00 -7.952407e+00 -2.742266e+00 -4.678221e+00 -8.477713e+00 1.703769e-01 -3.709843e-01 -7.981473e-01 -6.735662e-01 5.414159e-02 -6.422171e-01 -1.553994e-01 1.988008e-01 -1.845535e-01 -3.992972e-03 4.756051e-01 5.521997e-01 5.975723e-02 -9.899956e-03 9.672721e-02 2.898581e-02 -8.035121e-02 -5.190688e-02 1.995320e-01 1.440018e-01 3.425548e-02 4.790647e-02 -3.596259e-02 -8.568133e-02 2.389571e-02 3.080674e-02
<VARIANCE> 39
 9.078952e+00 3.836557e+01 4.360814e+01 6.360629e+01 1.041817e+02 1.081912e+02 7.833575e+01 4.377275e+01 4.398346e+01 6.020568e+01 4.762598e+01 8.173207e+01 5.883461e+01 1.580081e-01 6.745912e-01 6.551996e-01 1.306109e+00 1.275327e+00 2.599120e+00 1.752467e+00 1.489350e+00 1.622001e+00 1.614136e+00 1.536328e+00 1.120704e+00 1.123707e+00 2.352860e-02 7.751360e-02 8.667944e-02 1.638183e-01 1.665535e-01 2.938957e-01 2.637431e-01 2.522829e-01 2.238973e-01 2.590835e-01 2.209582e-01 1.880653e-01 1.505378e-01
<GCONST> 1.003273e+02
<TRANSP> 5
 0.000000e+00 1.000000e+00 0.000000e+00 0.000000e+00 0.000000e+00
 0.000000e+00 8.560609e-01 1.439391e-01 0.000000e+00 0.000000e+00
 0.000000e+00 0.000000e+00 8.582612e-01 1.417388e-01 0.000000e+00
 0.000000e+00 0.000000e+00 0.000000e+00 8.322633e-01 1.677367e-01
 0.000000e+00 0.000000e+00 0.000000e+00 0.000000e+00 0.000000e+00
<ENDHMM>
~h "nx"
<BEGINHMM>
<NUMSTATES> 5
<STATE> 2
<NUMMIXES> 2
<MIXTURE> 1 1.000000e+00
<MEAN> 39
 2.267302e+01 1.037533e+00 -1.307214e+01 -7.207576e+00 1.515646e+01 1.171456e+01 -1.437975e+01 4.332469e+00 -6.441513e+00 -1.578379e+01 7.725212e+00 -1.158913e+00 -3.553278e+00 -1.658977e-01 2.953610e-01 3.628876e-01 4.263979e-01 2.554186e-03 9.342192e-02 7.509149e-01 1.745893e-01 -1.912042e-01 -2.522190e-01 -4.530317e-01 -3.037772e-02 -1.168921e-01 -6.205695e-02 7.271187e-03 1.169916e-01 2.185786e-01 2.000105e-02 -6.826014e-02 5.542519e-02 3.358394e-03 -4.740851e-03 -8.534746e-03 -9.679189e-02 -1.055310e-02 -1.938286e-04
<VARIANCE> 39
 1.260578e+01 1.092547e+01 2.000181e+01 3.372168e+01 1.693380e+01 1.845126e+01 5.773606e+01 4.171829e+01 1.560003e+01 2.489340e+01 2.790317e+01 8.846222e+00 9.984970e+00 4.113477e-01 3.442341e-01 9.232391e-01 2.378859e+00 6.221346e-01 9.697412e-01 2.632954e+00 1.602521e+00 6.784285e-01 1.381940e+00 1.872708e+00 6.632363e-01 4.292864e-01 6.117877e-02 5.052716e-02 1.283194e-01 1.486945e-01 1.062286e-01 1.334110e-01 3.132422e-01 2.692474e-01 8.756666e-02 2.429009e-01 1.833596e-01 1.278996e-01 6.444059e-02
<GCONST> 8.267944e+01
<MIXTURE> 2 0.000000e+00
<MEAN> 39
 1.361686e+01 -1.383072e+00 7.618060e+00 1.232223e+01 -2.383529e+00 8.959254e+00 -1.035662e+01 -1.021862e+01 8.851387e+00 -8.332142e+00 -1.389112e+01 -1.311377e+00 -7.191798e+00 -1.457334e-01 3.850303e-01 1.832990e-01 7.829956e-02 1.980715e-01 -5.036991e-02 -1.340757e-01 -1.179461e-01 -3.900307e-02 1.584407e-01 2.003755e-02 -8.778737e-02 -5.617338e-02 -8.385319e-04 -4.167615e-02 -5.001837e-02 5.873689e-03 7.726591e-03 -9.950018e-03 4.415042e-02 -3.027088e-03 -5.418176e-02 3.586245e-02 5.732016e-02 -7.334471e-04 -7.240163e-03
<VARIANCE> 39
 2.374427e+00 2.125168e+01 1.217588e+01 1.771664e+01 1.535122e+01 2.714209e+01 2.611153e+01 3.003095e+01 4.948417e+01 3.589555e+01 2.532868e+01 2.865796e+01 2.461707e+01 5.158678e-02 1.692707e-01 2.307495e-01 3.434558e-01 3.976840e-01 4.632231e-01 5.185775e-01 4.969022e-01 5.959083e-01 6.742363e-01 5.816705e-01 4.702742e-01 4.794611e-01 8.847732e-03 2.771878e-02 3.858319e-02 5.424614e-02 6.815128e-02 7.742334e-02 8.735045e-02 8.348746e-02 1.017274e-01 9.737392e-02 8.988705e-02 7.854709e-02 8.157872e-02
<GCONST> 6.095366e+01
<STATE> 3
<NUMMIXES> 2
<MIXTURE> 1 2.426130e-01
<MEAN> 39
 1.506173e+01 8.379604e+00 5.625981e+00 2.253040e+01 2.510244e+01 5.818915e+00 -1.644317e+01 -1.058498e+01 -7.034856e+00 -6.430447e+00 -3.029081e+00 -5.016407e+00 -3.607752e+00 -1.081530e-01 4.432988e-01 3.071153e-01 -2.438247e-01 -4.255443e-01 2.048618e-01 4.397794e-01 -3.153033e-01 -6.259931e-02 4.232882e-01 -3.024533e-01 -4.663849e-01 7.503398e-02 -3.381787e-02 -1.206308e-01 -6.165881e-02 -1.241583e-01 -2.161535e-02 9.812440e-02 9.359165e-02 2.957668e-01 5.509604e-02 -1.318280e-01 7.357603e-02 9.778457e-03 -5.837228e-02
<VARIANCE> 39
 2.049420e+00 1.129303e+01 1.183560e+01 6.311272e+00 1.082450e+01 7.538479e+00 1.221850e+01 2.361830e+01 1.236069e+01 2.794848e+01 1.368373e+01 1.646689e+01 4.358698e+00 8.333840e-02 3.065976e-01 2.498711e-01 5.815474e-01 6.180477e-01 3.135815e-01 5.139837e-01 6.989474e-01 3.452930e-01 5.633183e-01 3.615434e-01 4.793597e-01 3.017950e-01 1.584022e-02 6.252623e-02 3.949744e-02 1.525201e-01 1.044904e-01 8.851856e-02 1.055840e-01 1.381260e-01 5.998152e-02 1.192167e-01 6.816319e-02 1.023866e-01 4.983539e-02
<GCONST> 5.524050e+01
<MIXTURE> 2 7.573858e-01
<MEAN> 39
 1.770598e+01 4.845897e+00 -2.662086e+00 1.088053e+01 1.765048e+01 8.322903e+00 -5.100660e+00 3.225279e+00 -8.951502e+00 -1.736593e+01 -4.132065e+00 -3.216542e+00 -3.798202e+00 -2.984796e-01 -1.917532e-01 9.086974e-01 1.210952e+00 1.705400e-01 -5.998923e-01 -2.882659e-01 -1.380499e-01 1.001368e-01 3.369702e-01 -1.481266e-01 -5.469387e-01 -3.119675e-01 2.392336e-01 -2.604297e-01 -4.209672e-01 -6.915103e-01 -1.833103e-01 1.042583e-01 -2.500288e-01 1.049567e-01 -7.968336e-02 -1.024217e-02 6.641552e-01 1.297287e-01 -8.910763e-02
<VARIANCE> 39
 2.106436e+01 1.262412e+01 1.584271e+01 3.777882e+01 2.968398e+01 1.833090e+01 3.535619e+01 5.251945e+01 1.141452e+01 2.114619e+01 2.087371e+01 9.985906e+00 1.432260e+01 4.557520e-01 6.405305e-01 1.529501e+00 3.939673e+00 1.364145e+00 1.203126e+00 2.058457e+00 2.426548e+00 8.139845e-01 1.915022e+00 2.123296e+00 8.571652e-01 5.513237e-01 5.767380e-02 9.814287e-02 1.367750e-01 2.551564e-01 2.019201e-01 1.334450e-01 3.903844e-01 4.177973e-01 1.386459e-01 3.610294e-01 3.097736e-01 1.786156e-01 1.321596e-01
<GCONST> 9.221484e+01
<STATE> 4
<NUMMIXES> 2
<MIXTURE> 1 3.484288e-01
<MEAN> 39
 7.750505e+00 1.536179e+01 1.211356e+01 1.614757e+01 1.396462e+01 8.368400e+00 -4.313684e+00 -3.617162e+00 -1.052447e+01 -8.826842e+00 -1.814487e+00 -4.656837e+00 -4.313237e+00 -1.497939e+00 8.335207e-01 7.243872e-01 -2.439097e-01 -6.011158e-01 3.846040e-01 8.783339e-01 7.379297e-01 1.056968e+00 3.952493e-01 -1.056139e+00 -2.956918e-02 1.010819e+00 2.792908e-02 -3.631097e-01 -2.229512e-01 -1.188788e-01 3.819670e-02 -6.537829e-03 -6.898520e-02 2.204841e-01 -7.778863e-02 -1.362004e-01 4.635680e-01 1.329949e-01 -1.867875e-01
<VARIANCE> 39
 3.696720e+01 1.565254e+01 1.302285e+01 1.492385e+01 2.314158e+01 9.292051e+00 2.267483e+01 2.482791e+01 2.468478e+01 1.627895e+01 1.561573e+01 9.102471e+00 1.168497e+01 5.853519e-01 1.206305e+00 9.365007e-01 1.077647e+00 9.307232e-01 5.156875e-01 7.434493e-01 1.224475e+00 1.540249e+00 1.461490e+00 2.883830e+00 8.707708e-01 8.608479e-01 5.729911e-02 9.601797e-02 1.306431e-01 2.151281e-01 1.828077e-01 8.524328e-02 1.307082e-01 2.605211e-01 2.389698e-01 2.735782e-01 1.935884e-01 1.129152e-01 8.757810e-02
<GCONST> 8.353638e+01
<MIXTURE> 2 6.515715e-01
<MEAN> 39
 1.871925e+01 1.034522e+00 -1.759336e+00 8.509623e+00 1.474967e+01 6.284924e+00 -7.826727e+00 5.736867e+00 -1.459232e+01 -1.777750e+01 1.204790e+01 -1.514761e+00 -1.119265e+01 -3.767423e-01 2.166733e-01 6.770216e-01 1.975889e-01 -1.304655e-01 -5.056933e-02 -3.118981e-01 -4.856858e-01 -5.584781e-01 3.128452e-01 9.539838e-01 1.491510e-01 -2.176282e-01 -1.448801e-01 2.141016e-01 1.724427e-01 1.027441e-01 -1.197547e-02 8.812998e-03 1.011812e-01 -3.462870e-02 1.005426e-01 2.008782e-02 -3.593468e-01 -3.315800e-02 1.764778e-01
<VARIANCE> 39
 1.954024e+01 2.390695e+01 3.604004e+01 2.975170e+01 1.664495e+01 2.391593e+01 2.126901e+01 5.126728e+01 3.950994e+01 2.670750e+01 9.499113e+01 1.731652e+01 2.869556e+01 1.220715e+00 3.270003e+00 2.663090e+00 3.387419e+00 1.246410e+00 1.086950e+00 1.778346e+00 3.946764e+00 1.652858e+00 2.226492e+00 1.045838e+01 1.334935e+00 2.083464e+00 7.374559e-02 2.081144e-01 2.215041e-01 3.408701e-01 1.497499e-01 1.698317e-01 2.154601e-01 4.538775e-01 2.619308e-01 3.184639e-01 8.226187e-01 1.795823e-01 2.285081e-01
<GCONST> 1.073857e+02
<TRANSP> 5
 0.000000e+00 1.000000e+00 0.000000e+00 0.000000e+00 0.000000e+00
 0.000000e+00 9.275736e-01 7.242644e-02 0.000000e+00 0.000000e+00
 0.000000e+00 0.000000e+00 8.269607e-01 1.730394e-01 0.000000e+00
 0.000000e+00 0.000000e+00 0.000000e+00 9.049836e-01 9.501631e-02
 0.000000e+00 0.000000e+00 0.000000e+00 0.000000e+00 0.000000e+00
<ENDHMM>
~h "ou"
<BEGINHMM>
<NUMSTATES> 7
<STATE> 2
<NUMMIXES> 2
<MIXTURE> 1 0.000000e+00
<MEAN> 39
 2.950430e-05 -1.596659e-05 2.567470e-05 -3.993511e-06 -5.960464e-07 1.929002e-07 -1.204014e-05 8.247793e-06 -1.933426e-06 2.965331e-06 -1.872890e-06 -3.390014e-05 -2.196059e-06 2.152519e-07 -1.188600e-07 -1.470326e-07 2.579764e-07 1.881272e-07 -7.177005e-08 7.529743e-07 5.150214e-07 -5.541369e-08 5.667098e-07 8.731149e-08 2.587331e-08 -1.939479e-07 -6.008020e-02 6.977572e-03 -1.033811e-02 -1.313004e-03 -2.156086e-03 -2.000537e-03 2.022802e-04 5.487027e-04 1.507605e-03 -2.313650e-03 -2.747252e-04 -8.833668e-04 -1.887041e-04
<VARIANCE> 39
 1.000000e-30 1.000000e-30 1.000000e-30 1.138542e-07 1.933426e-06 1.000000e-30 1.000000e-30 4.717149e-07 1.000000e-30 1.000000e-30 1.000000e-30 1.000000e-30 1.194421e-07 1.000000e-30 5.235279e-10 2.760316e-10 1.000000e-30 1.000000e-30 3.660716e-11 1.359149e-08 8.079951e-09 2.454215e-11 1.000000e-30 1.000000e-30 1.390887e-11 1.000000e-30 5.130608e-02 3.996924e-03 4.374815e-03 3.314181e-03 3.503656e-03 3.531398e-03 3.649473e-03 3.541191e-03 3.137489e-03 2.687086e-03 2.360017e-03 1.943796e-03 1.500225e-03
<GCONST> -1.500000e+11
<MIXTURE> 2 1.000000e+00
<MEAN> 39
 -1.396321e+00 -7.051704e-01 -2.122001e+00 1.342544e+00 -4.020299e+00 -7.746942e+00 -6.724390e+00 1.247422e+01 1.332896e+00 -8.703188e+00 -6.008151e-01 -7.391116e-01 -1.203320e-01 -6.939654e-01 -3.587625e-01 -5.921139e-01 -2.625459e-01 -3.252823e-01 -7.732749e-01 -2.542130e-01 1.507369e-01 3.438040e-01 2.281556e-01 1.252826e-01 1.775993e-01 -1.986456e-02 -2.736836e-02 -2.174151e-02 1.213732e-01 8.379403e-02 2.865180e-02 1.153912e-01 4.958471e-02 -7.688130e-02 7.621165e-02 1.334697e-01 -2.761711e-02 -1.162415e-02 -8.470287e-03
<VARIANCE> 39
 3.393317e+02 8.832195e+01 5.850636e+01 7.838499e+01 8.243772e+01 1.627691e+02 9.402804e+01 1.600414e+02 1.140727e+02 1.111108e+02 2.853747e+01 4.030909e+01 3.933738e+01 4.165452e+00 2.408287e+00 2.210155e+00 2.361682e+00 2.740415e+00 4.192829e+00 2.337147e+00 4.438927e+00 3.193605e+00 2.840030e+00 2.196803e+00 1.892974e+00 1.905937e+00 2.510821e-01 2.020456e-01 2.813879e-01 2.907814e-01 3.406775e-01 3.559081e-01 3.262662e-01 5.091611e-01 3.828390e-01 4.083306e-01 3.339385e-01 2.776526e-01 2.650286e-01
<GCONST> 1.277695e+02
<STATE> 3
<NUMMIXES> 2
<MIXTURE> 1 0.000000e+00
<MEAN> 39
 0.000000e+00 0.000000e+00 0.000000e+00 0.000000e+00 0.000000e+00 0.000000e+00 0.000000e+00 0.000000e+00 0.000000e+00 0.000000e+00 0.000000e+00 0.000000e+00 0.000000e+00 6.126449e-30 -5.464483e-30 2.270194e-30 -1.821515e-31 4.406674e-31 -1.213802e-30 9.256382e-31 -1.708705e-31 6.429896e-32 -4.287194e-31 4.667875e-31 -1.477681e-31 3.115776e-33 -5.948948e-02 7.116884e-03 -1.043719e-02 -1.810754e-03 -2.071288e-03 -1.224210e-03 1.069486e-03 9.119928e-04 2.393554e-03 -1.654138e-03 -8.557731e-05 -5.460818e-04 -2.131514e-04
<VARIANCE> 39
 1.000000e-30 1.000000e-30 1.000000e-30 1.000000e-30 1.000000e-30 1.000000e-30 1.000000e-30 1.000000e-30 1.000000e-30 1.000000e-30 1.000000e-30 1.000000e-30 1.000000e-30 7.215268e-30 5.740278e-30 1.000000e-30 1.000000e-30 1.000000e-30 1.000000e-30 1.000000e-30 1.000000e-30 1.000000e-30 1.000000e-30 1.000000e-30 1.000000e-30 1.000000e-30 5.242730e-02 4.308010e-03 4.828463e-03 3.723914e-03 3.905280e-03 3.459802e-03 3.704401e-03 3.736516e-03 3.287535e-03 2.844681e-03 2.523395e-03 2.245883e-03 1.678810e-03
<GCONST> -1.300000e+11
<MIXTURE> 2 1.000000e+00
<MEAN> 39
 -2.505762e+01 -6.293181e+00 -5.081000e+00 -2.440141e+00 -3.593226e+00 -1.097711e-01 -4.024423e+00 1.818398e+00 -1.305614e+00 -1.152736e+00 2.909687e-01 -7.404524e-01 4.255980e-01 1.559268e-02 7.512977e-03 1.652780e-02 4.319380e-02 -9.026080e-03 -4.525299e-02 -1.792860e-02 1.862644e-02 5.578949e-02 3.118363e-02 -5.795164e-03 6.327499e-03 2.483392e-02 8.770276e-02 6.961770e-02 6.029542e-02 4.420368e-02 9.178338e-03 -1.662646e-02 -1.977097e-03 4.467303e-02 2.874412e-02 1.189536e-02 2.732509e-02 2.167230e-02 5.679605e-03
<VARIANCE> 39
 6.334137e+01 4.589605e+00 3.948595e+00 7.202636e+00 5.387401e+00 2.094442e+01 9.951403e+00 1.769716e+01 1.380251e+01 1.460946e+01 7.112966e+00 8.416771e+00 6.059029e+00 2.382127e-01 2.436038e-01 3.394792e-01 5.061123e-01 6.787347e-01 9.024933e-01 9.320514e-01 1.071250e+00 1.367807e+00 1.154860e+00 9.335986e-01 9.173442e-01 8.101858e-01 6.349809e-02 7.321265e-02 8.850326e-02 1.173009e-01 1.419867e-01 1.763875e-01 2.108393e-01 2.327777e-01 2.916901e-01 2.390346e-01 2.046111e-01 1.923163e-01 1.841662e-01
<GCONST> 7.255586e+01
<STATE> 4
<NUMMIXES> 2
<MIXTURE> 1 1.000000e+00
<MEAN> 39
 -1.530777e+01 -4.802647e+00 -4.953004e+00 3.356122e-01 -2.930290e+00 -5.219782e+00 -6.420500e+00 6.890355e+00 1.728929e+00 -3.437407e+00 2.908440e-01 1.529965e-01 6.401325e-01 1.676790e+00 1.395753e+00 1.185015e+00 9.374154e-01 1.323292e-01 -6.867220e-01 -2.360044e-01 8.296167e-01 1.137334e+00 8.503009e-01 6.299357e-01 6.802117e-01 1.985035e-01 7.644848e-01 5.260037e-01 5.154408e-01 4.098795e-01 1.993844e-02 -3.566837e-01 -2.323035e-01 4.263384e-01 4.086743e-01 1.164574e-01 1.389895e-01 1.446346e-01 3.270550e-02
<VARIANCE> 39
 3.819077e+02 1.913079e+01 1.921234e+01 2.707883e+01 1.690490e+01 1.272199e+02 4.365333e+01 1.021287e+02 3.472689e+01 4.752901e+01 9.939314e+00 1.029397e+01 7.971185e+00 1.850400e+00 1.659048e+00 1.693714e+00 1.135289e+00 1.622949e+00 2.298846e+00 1.511816e+00 1.384302e+00 1.371723e+00 1.498766e+00 1.432518e+00 1.065232e+00 8.732961e-01 2.759309e-01 1.975230e-01 1.752751e-01 1.642579e-01 1.811502e-01 2.907708e-01 2.352792e-01 2.944256e-01 2.944553e-01 2.640965e-01 2.923581e-01 2.327546e-01 1.854844e-01
<GCONST> 1.028583e+02
<MIXTURE> 2 0.000000e+00
<MEAN> 39
 1.208484e-05 -8.553267e-06 -2.384186e-07 -1.952052e-06 -1.340359e-05 -3.114343e-05 -5.429611e-07 -6.236136e-06 2.693385e-06 -4.857779e-06 -7.867813e-06 4.526228e-07 9.596348e-06 -5.797483e-08 -3.934838e-07 1.234002e-08 -5.355105e-09 2.961606e-07 -4.060566e-07 -2.242159e-07 7.650815e-07 -7.157214e-07 2.267188e-08 -1.420267e-08 1.264270e-07 -1.518056e-07 -1.733069e-02 2.135032e-03 -2.558388e-03 2.833310e-04 -6.236576e-04 -1.803544e-04 -3.749149e-05 -4.109075e-04 1.268192e-04 -8.433932e-04 1.034832e-04 -7.428668e-04 1.402625e-04
<VARIANCE> 39
 3.943220e-06 1.306646e-06 2.658926e-07 1.000000e-30 4.642643e-06 1.331419e-05 1.000000e-30 1.000000e-30 1.000000e-30 4.651025e-06 1.906883e-06 1.000000e-30 1.000000e-30 1.000000e-30 1.000000e-30 1.000000e-30 1.000000e-30 2.783054e-10 4.038156e-10 1.000000e-30 1.731314e-08 1.000000e-30 3.075229e-11 7.235030e-10 1.000000e-30 6.684786e-10 1.100459e-02 5.213512e-04 5.872871e-04 3.387984e-04 4.089739e-04 3.906928e-04 4.339819e-04 3.915064e-04 3.306664e-04 3.511715e-04 2.671561e-04 2.600339e-04 1.677476e-04
<GCONST> -1.300000e+11
<STATE> 5
<NUMMIXES> 2
<MIXTURE> 1 3.665898e-01
<MEAN> 39
 -5.761065e+00 4.508698e+00 2.695780e+00 6.373007e+00 -2.968225e+00 -1.035162e+01 -8.579047e+00 1.248761e+01 9.361312e+00 6.344919e-01 1.238244e+00 3.068368e+00 2.826620e+00 4.163163e+00 9.088546e-01 1.360350e-01 1.213372e+00 -5.312233e-01 -3.177320e+00 -1.243419e+00 2.379727e+00 1.728482e+00 -6.357099e-01 -3.260957e-01 5.500124e-01 8.490643e-02 1.117912e-01 -3.422292e-01 -3.650221e-01 -1.106875e-01 -2.148634e-01 -3.713404e-01 -6.213867e-02 1.102324e-01 -9.929346e-02 -2.597683e-01 -8.576148e-02 -3.769293e-02 -1.340745e-01
<VARIANCE> 39
 1.138699e+02 1.741574e+01 1.342035e+01 2.009590e+01 2.525638e+01 8.088039e+01 2.931936e+01 5.035003e+01 3.456699e+01 1.693357e+01 2.041071e+01 1.373510e+01 1.435216e+01 9.640731e-01 2.097845e+00 2.814255e+00 1.317118e+00 2.449878e+00 3.030744e+00 1.904276e+00 1.859715e+00 1.806311e+00 1.965946e+00 2.219128e+00 1.324074e+00 1.701004e+00 2.433594e-01 1.847330e-01 2.738621e-01 2.175062e-01 3.970136e-01 4.670560e-01 3.985076e-01 3.754661e-01 3.493547e-01 3.155270e-01 4.841968e-01 2.612939e-01 2.887435e-01
<GCONST> 1.075963e+02
<MIXTURE> 2 6.334108e-01
<MEAN> 39
 1.991365e+01 -8.271853e-01 -4.758207e+00 1.107816e+01 -7.653338e+00 -3.345898e+01 -1.690321e+01 2.719190e+01 1.604965e+01 -9.426821e+00 -1.619016e+00 4.585214e+00 4.057689e-01 7.709467e-01 -6.276546e-01 -4.734011e-01 1.870938e-01 -1.063742e-01 -7.931481e-01 -2.499409e-01 4.714554e-01 1.949078e-01 -2.962476e-01 -1.072927e-02 -3.642667e-02 -1.534974e-01 -2.702788e-01 -3.627436e-02 3.718456e-02 -9.070574e-02 2.005165e-01 4.406731e-01 1.038367e-01 -2.154831e-01 -1.401272e-01 5.785580e-02 2.531780e-02 -9.789588e-02 3.356682e-02
<VARIANCE> 39
 1.557451e+01 3.332399e+01 3.372446e+01 1.031998e+01 2.398077e+01 2.448092e+01 1.925316e+01 2.891034e+01 1.478554e+01 2.451440e+01 1.527831e+01 1.613229e+01 7.764145e+00 2.492753e+00 1.030754e+00 8.209035e-01 7.181215e-01 1.356887e+00 3.248743e+00 1.239109e+00 2.424202e+00 9.658265e-01 1.520899e+00 9.576347e-01 7.441791e-01 5.316536e-01 3.490582e-01 1.393837e-01 1.011761e-01 1.186002e-01 1.939672e-01 3.756797e-01 1.953336e-01 3.912433e-01 1.275355e-01 2.087960e-01 1.746839e-01 1.209734e-01 9.172767e-02
<GCONST> 8.983257e+01
<STATE> 6
<NUMMIXES> 2
<MIXTURE> 1 4.291798e-01
<MEAN> 39
 2.263873e+01 -4.053332e+00 -9.232819e+00 2.634733e+00 1.200538e+00 -1.539725e+01 -1.417893e+01 2.132009e+01 5.350522e+00 -1.230508e+01 4.544032e+00 -2.665873e+00 -2.858874e+00 1.367457e-01 5.591660e-01 -3.171642e-01 -1.059985e+00 1.078954e+00 2.696344e+00 3.822378e-01 -1.975746e+00 -1.282052e+00 3.433696e-01 1.134680e-01 -6.246718e-01 1.519773e-01 -9.021723e-02 2.205867e-01 -8.960662e-03 -2.065033e-02 1.372725e-02 1.992014e-01 2.051464e-01 -3.009151e-01 5.759414e-02 1.514847e-01 -3.114480e-01 1.354138e-01 1.657208e-01
<VARIANCE> 39
 1.484877e+01 1.816858e+01 3.371919e+01 2.442192e+01 2.459491e+01 7.499036e+01 3.094543e+01 8.963101e+01 3.247991e+01 3.818383e+01 3.277996e+01 1.534345e+01 1.851700e+01 8.276142e-01 7.743301e-01 7.515436e-01 9.069262e-01 8.828887e-01 1.632859e+00 1.607199e+00 3.268683e+00 9.024326e-01 1.548845e+00 2.000458e+00 9.569638e-01 5.892597e-01 1.557840e-01 8.751180e-02 1.239447e-01 1.449649e-01 1.192301e-01 1.516533e-01 3.019523e-01 4.295905e-01 1.359224e-01 2.495228e-01 2.990199e-01 1.778063e-01 9.836343e-02
<GCONST> 9.434313e+01
<MIXTURE> 2 5.708202e-01
<MEAN> 39
 2.220719e+01 -5.293363e+00 -8.889994e+00 9.408326e+00 -4.738793e+00 -2.985205e+01 -1.556791e+01 2.583469e+01 1.375778e+01 -1.035536e+01 -7.002139e-01 2.782177e+00 -7.971486e-01 5.247612e-02 -2.520986e-01 -2.514512e-01 -5.083472e-01 4.772503e-01 1.102760e+00 3.393904e-01 -2.590444e-01 -7.229684e-01 -3.527840e-01 2.819343e-01 -4.490900e-01 -2.100587e-01 3.629047e-03 7.367980e-02 3.262778e-02 -4.480169e-02 3.506003e-02 1.296413e-01 8.124480e-03 -2.739382e-02 -1.292069e-01 -4.442305e-02 7.739540e-02 -4.501959e-02 -9.845883e-03
<VARIANCE> 39
 7.891388e+00 9.100859e+00 1.714521e+01 1.132031e+01 1.384727e+01 2.510289e+01 1.612796e+01 2.303778e+01 2.064652e+01 2.481983e+01 1.436252e+01 7.229424e+00 6.904522e+00 6.381600e-01 3.657097e-01 5.232175e-01 5.450490e-01 3.773176e-01 7.010715e-01 4.937829e-01 9.247388e-01 6.579903e-01 6.026703e-01 7.387264e-01 3.426940e-01 2.893625e-01 9.627132e-02 4.665200e-02 6.241560e-02 5.965279e-02 4.108081e-02 5.896721e-02 7.373363e-02 1.253735e-01 5.406243e-02 8.219713e-02 9.800033e-02 4.745162e-02 3.878528e-02
<GCONST> 6.169805e+01
<TRANSP> 7
 0.000000e+00 1.000000e+00 0.000000e+00 0.000000e+00 0.000000e+00 0.000000e+00 0.000000e+00
 0.000000e+00 8.311915e-01 1.688084e-01 0.000000e+00 0.000000e+00 0.000000e+00 0.000000e+00
 0.000000e+00 0.000000e+00 9.036373e-01 9.636272e-02 0.000000e+00 0.000000e+00 0.000000e+00
 0.000000e+00 0.000000e+00 0.000000e+00 3.616649e-01 6.383352e-01 0.000000e+00 0.000000e+00
 0.000000e+00 0.000000e+00 0.000000e+00 0.000000e+00 9.305025e-01 6.949750e-02 0.000000e+00
 0.000000e+00 0.000000e+00 0.000000e+00 0.000000e+00 0.000000e+00 9.323976e-01 6.760243e-02
 0.000000e+00 0.000000e+00 0.000000e+00 0.000000e+00 0.000000e+00 0.000000e+00 0.000000e+00
<ENDHMM>
~h "ph"
<BEGINHMM>
<NUMSTATES> 5
<STATE> 2
<NUMMIXES> 2
<MIXTURE> 1 3.129890e-01
<MEAN> 39
 -2.661115e+01 -6.166496e+00 -4.936282e+00 -2.787288e+00 -3.543617e+00 5.766075e-01 -3.702066e+00 1.223393e+00 -1.482776e+00 -4.947341e-01 6.265832e-01 -8.003058e-01 2.456427e-01 -2.034548e-02 -2.324579e-02 -3.946247e-02 -4.629341e-02 -2.710398e-02 -2.202851e-02 -7.656120e-02 -4.677902e-02 -1.559829e-02 -1.850035e-02 -9.404583e-03 1.978260e-02 7.642197e-03 5.870631e-02 4.095417e-02 3.491997e-02 4.017308e-02 5.932301e-02 4.855103e-02 3.758541e-02 7.625137e-03 -3.136972e-02 -4.107808e-02 -1.004592e-02 1.655722e-03 1.597160e-02
<VARIANCE> 39
 4.819078e-01 9.868914e-01 1.783057e+00 2.444174e+00 3.474234e+00 4.268462e+00 5.765117e+00 6.172652e+00 6.551975e+00 5.738890e+00 6.599059e+00 6.235651e+00 4.559741e+00 7.502609e-02 1.301140e-01 2.511526e-01 3.502910e-01 5.276104e-01 6.249411e-01 9.493265e-01 9.654179e-01 9.036703e-01 8.297090e-01 1.007788e+00 8.690099e-01 6.921935e-01 3.527785e-02 4.830418e-02 7.749387e-02 8.894424e-02 1.171246e-01 1.386595e-01 2.164783e-01 2.248798e-01 2.209864e-01 2.204986e-01 2.324287e-01 1.952620e-01 1.613685e-01
<GCONST> 5.205809e+01
<MIXTURE> 2 6.870108e-01
<MEAN> 39
 -1.213051e+01 2.077498e+00 3.467338e+00 6.425847e+00 5.114391e+00 6.457454e+00 -2.094694e+00 2.171026e+00 -6.102596e+00 -7.970053e+00 -2.353582e+00 -1.993533e+00 1.416877e+00 -1.893045e+00 -1.607384e+00 -1.269609e+00 -1.265661e+00 -1.081787e+00 -3.333732e-01 8.078009e-03 -1.873335e-01 1.859099e-01 5.876487e-01 3.610221e-01 1.034473e-01 1.119391e-01 1.285007e-01 -1.551050e-01 -1.772813e-01 -5.742282e-02 -3.389545e-03 -4.601771e-02 -2.451247e-02 1.197825e-01 9.131784e-02 3.074374e-02 6.831910e-02 1.746004e-02 -1.039441e-02
<VARIANCE> 39
 9.261939e+01 8.627847e+01 6.168439e+01 5.927805e+01 4.691716e+01 4.692096e+01 5.565607e+01 7.001505e+01 7.419498e+01 6.908270e+01 3.137038e+01 3.274842e+01 2.549550e+01 2.593189e+00 3.851584e+00 3.363939e+00 2.627996e+00 2.227796e+00 2.807497e+00 2.873451e+00 3.466629e+00 3.756364e+00 3.373354e+00 2.357930e+00 1.854496e+00 1.546042e+00 2.554882e-01 4.011533e-01 4.210416e-01 3.483250e-01 3.237690e-01 3.447747e-01 3.544951e-01 4.444547e-01 5.431166e-01 5.109097e-01 3.924530e-01 2.859293e-01 2.378069e-01
<GCONST> 1.234668e+02
<STATE> 3
<NUMMIXES> 2
<MIXTURE> 1 5.601619e-01
<MEAN> 39
 -1.055936e+01 -2.163007e+00 4.943346e-01 8.840557e+00 8.961788e+00 9.136825e+00 1.511314e+00 8.440826e+00 -1.372143e-01 -2.789962e+00 3.706242e+00 4.348910e+00 7.075549e+00 3.048577e+00 -1.237316e-01 -1.342895e-01 8.432387e-01 9.997972e-01 4.478446e-01 -1.302152e-01 6.658911e-01 -5.313791e-01 -9.165889e-01 9.265872e-01 7.723601e-01 7.322612e-01 8.141346e-02 -1.597728e-01 -2.973585e-01 -3.530510e-01 -3.566950e-01 -2.865732e-01 -2.476322e-01 -1.776172e-01 -1.798196e-01 -5.806417e-02 1.735480e-01 5.084210e-03 -1.495176e-01
<VARIANCE> 39
 9.215849e+01 2.054054e+01 1.609114e+01 2.446482e+01 2.922605e+01 2.872101e+01 3.039598e+01 2.384435e+01 3.137306e+01 3.422884e+01 2.109508e+01 2.557726e+01 2.228449e+01 1.909899e+00 2.354024e+00 2.887574e+00 3.808589e+00 4.546853e+00 4.189566e+00 4.127511e+00 3.370252e+00 3.473889e+00 2.976783e+00 2.656831e+00 2.457228e+00 2.331186e+00 4.078331e-01 1.655264e-01 3.142060e-01 3.073405e-01 4.285594e-01 5.445949e-01 6.733257e-01 5.180852e-01 6.599194e-01 6.595820e-01 3.666259e-01 4.086865e-01 3.974054e-01
<GCONST> 1.182360e+02
<MIXTURE> 2 4.398366e-01
<MEAN> 39
 -2.660883e+01 -6.190793e+00 -4.899532e+00 -2.840766e+00 -3.690041e+00 6.896073e-01 -3.577578e+00 1.165479e+00 -1.524185e+00 -4.146481e-01 6.024138e-01 -8.535888e-01 6.098742e-01 1.090924e-01 1.586697e-02 1.047439e-01 2.441406e-01 2.786545e-01 2.454836e-01 2.706921e-01 3.469073e-01 2.760478e-01 1.706695e-01 2.282451e-01 2.409596e-01 2.520843e-01 4.301830e-01 3.159230e-01 3.987831e-01 5.354606e-01 5.569589e-01 4.197240e-01 3.020757e-01 3.013132e-01 1.181047e-01 -3.642425e-02 3.610034e-02 1.224009e-01 1.471836e-01
<VARIANCE> 39
 6.104870e-01 1.146366e+00 1.594975e+00 2.944629e+00 3.955385e+00 4.671148e+00 5.442305e+00 6.484581e+00 7.204660e+00 6.512964e+00 6.162782e+00 5.615617e+00 5.332666e+00 6.629162e-01 7.813500e-01 1.067733e+00 1.780787e+00 2.148562e+00 1.893769e+00 1.746537e+00 1.744536e+00 1.503826e+00 1.368527e+00 1.185136e+00 1.162256e+00 9.650120e-01 1.458156e-01 1.252478e-01 1.663768e-01 2.834560e-01 3.583951e-01 3.493274e-01 3.447924e-01 3.668967e-01 3.372694e-01 3.148589e-01 2.795179e-01 2.828717e-01 2.444781e-01
<GCONST> 7.453129e+01
<STATE> 4
<NUMMIXES> 2
<MIXTURE> 1 1.000000e+00
<MEAN> 39
 4.920968e+00 -1.046765e+01 -1.047298e+01 3.000104e+00 4.206777e+00 6.183426e+00 -1.565265e-01 1.102967e+01 -2.180041e-01 -6.225506e-01 1.391721e+01 8.372622e+00 7.340568e+00 7.806383e-01 -1.331301e-01 -3.946070e-01 -1.497270e-01 -3.738256e-01 -4.242029e-01 1.009599e-01 2.959032e-01 5.913614e-01 7.988976e-01 4.554921e-01 -9.497955e-02 -4.493497e-01 -7.810023e-02 2.179099e-01 2.511655e-01 1.664103e-01 1.214183e-01 -6.202517e-02 -8.168156e-02 -3.581826e-02 -1.108751e-02 -1.037021e-01 -2.156814e-01 -1.643388e-01 -1.266621e-01
<VARIANCE> 39
 7.479331e+01 8.234950e+01 6.281969e+01 5.924182e+01 1.093351e+02 1.104688e+02 6.598215e+01 9.982367e+01 1.185207e+02 1.351810e+02 7.873953e+01 7.902319e+01 3.448530e+01 1.141234e+00 3.203312e+00 3.614365e+00 2.869283e+00 3.197226e+00 3.103910e+00 2.544969e+00 3.207494e+00 4.843367e+00 5.520788e+00 3.095877e+00 3.478684e+00 2.247993e+00 1.331747e-01 2.890413e-01 3.342302e-01 2.890694e-01 3.679507e-01 5.004444e-01 4.289961e-01 4.437970e-01 8.182027e-01 9.717063e-01 3.597235e-01 4.346984e-01 2.964303e-01
<GCONST> 1.310317e+02
<MIXTURE> 2 0.000000e+00
<MEAN> 39
 5.007752e+00 -2.283543e+01 4.224558e+00 7.395911e+00 -1.496770e+01 1.634329e+01 -3.899620e-01 -7.362168e+00 1.045351e+01 -8.315866e+00 -4.072007e+00 7.575201e+00 -7.643221e+00 4.026023e-01 -7.765181e-02 -8.578298e-02 -6.968217e-02 -1.323925e-01 -1.894298e-01 -1.235157e-01 -2.788639e-02 -4.998827e-02 -1.253398e-01 -5.394829e-02 -4.789721e-02 -1.341058e-01 -2.680980e-02 2.108817e-01 -1.997906e-02 -1.188034e-02 7.128937e-02 -1.880370e-01 -1.090263e-02 7.185538e-02 -9.433557e-02 3.775261e-02 -1.023603e-02 -9.081265e-02 7.448491e-03
<VARIANCE> 39
 4.348479e+01 6.712718e+01 3.071273e+01 2.897330e+01 3.015086e+01 3.144908e+01 3.685800e+01 4.986613e+01 2.770036e+01 2.634098e+01 2.861377e+01 1.982357e+01 1.831832e+01 2.071848e+00 4.567060e+00 1.638904e+00 1.625862e+00 2.427497e+00 3.893136e+00 2.698308e+00 2.704647e+00 2.611578e+00 1.984589e+00 1.565095e+00 1.808744e+00 1.519972e+00 2.321895e-01 5.215378e-01 2.863469e-01 2.859152e-01 3.921969e-01 5.372592e-01 4.658649e-01 5.187892e-01 4.154823e-01 3.823926e-01 2.791561e-01 2.746449e-01 2.874104e-01
<GCONST> 1.139793e+02
<TRANSP> 5
 0.000000e+00 1.000000e+00 0.000000e+00 0.000000e+00 0.000000e+00
 0.000000e+00 9.042233e-01 9.577677e-02 0.000000e+00 0.000000e+00
 0.000000e+00 0.000000e+00 9.012442e-01 9.875578e-02 0.000000e+00
 0.000000e+00 0.000000e+00 0.000000e+00 8.971286e-01 1.028714e-01
 0.000000e+00 0.000000e+00 0.000000e+00 0.000000e+00 0.000000e+00
<ENDHMM>
~h "rq"
<BEGINHMM>
<NUMSTATES> 7
<STATE> 2
<NUMMIXES> 2
<MIXTURE> 1 3.741016e-01
<MEAN> 39
 2.984669e+00 -1.632602e+01 1.180095e+01 1.649940e+00 1.278977e+00 2.054593e+01 -2.155554e+00 8.024451e+00 -1.009509e+01 -1.531096e+01 5.373557e+00 2.842576e+00 5.347949e+00 1.941844e+00 1.725482e+00 1.508967e+00 2.382848e+00 -1.827683e-01 -8.077126e-01 1.516719e+00 -5.098556e-01 -8.853111e-01 -1.062697e+00 -2.609764e-01 4.071773e-01 -2.722161e-01 1.760091e-01 6.022738e-01 -6.749139e-01 5.948592e-01 1.381794e-01 -8.968944e-01 1.466696e-01 -2.784452e-01 1.924232e-01 2.497959e-01 -6.608331e-01 -5.632173e-01 1.074631e-01
<VARIANCE> 39
 1.067856e+01 1.986467e+01 8.371705e+00 6.553316e+01 3.698810e+00 8.717520e+00 1.915141e+01 3.664459e+00 5.526057e+00 2.191267e+00 7.659863e+00 4.672118e+00 5.926129e+00 1.420227e+00 2.710243e+00 1.103795e+00 3.188803e+00 2.713061e-01 3.575566e+00 2.039405e+00 8.216476e-01 5.005299e-01 5.259588e-01 5.555454e+00 1.586376e+00 1.796876e+00 2.807506e-01 3.681859e-01 9.045385e-02 7.117171e-01 6.139587e-02 1.406804e-01 4.080117e-01 5.419526e-02 2.133691e-01 2.154827e-01 2.381747e-01 2.267924e-01 3.883704e-01
<GCONST> 8.291729e+01
<MIXTURE> 2 6.258983e-01
<MEAN> 39
 9.903739e+00 -1.512895e+01 1.330777e+01 1.094818e+01 8.416451e-01 1.996817e+01 -2.502804e+00 5.169623e+00 -5.640463e+00 -2.154413e+01 2.229984e+00 8.405128e-01 6.979346e-03 2.186386e+00 1.650060e+00 -1.189830e+00 1.841451e+00 1.623881e+00 -1.982046e+00 4.895619e-02 3.458335e-01 -7.266946e-01 -5.265073e-01 -1.360113e+00 -1.157388e+00 -2.276230e-01 -9.893285e-02 3.718539e-02 -7.306213e-01 -4.782400e-01 1.578812e-01 -4.136528e-01 -4.255202e-01 -8.408951e-02 -2.220846e-01 3.456796e-01 2.839379e-01 -6.230330e-02 1.784660e-02
<VARIANCE> 39
 2.594559e+01 4.956737e+01 1.380051e+01 3.432024e+01 1.160942e+01 4.995273e+01 3.045018e+01 6.746421e+00 3.125970e+01 6.226754e+00 8.052750e+00 7.759242e+00 7.312366e+00 9.800943e-01 1.535421e+00 3.966459e+00 2.788588e+00 1.835600e+00 4.081549e+00 2.767045e+00 1.988706e+00 1.002463e+00 2.503632e-01 1.315372e+00 1.578311e+00 5.108932e-01 3.722997e-01 6.318548e-01 3.112442e-01 4.112355e-01 3.765454e-01 4.558465e-01 7.922387e-01 1.767549e-01 1.202516e-01 7.982790e-02 2.224464e-01 1.133068e-01 5.247050e-02
<GCONST> 9.478294e+01
<STATE> 3
<NUMMIXES> 2
<MIXTURE> 1 0.000000e+00
<MEAN> 39
 4.792265e+00 -1.912126e+01 8.256557e+00 2.451213e+01 1.160292e+01 1.819415e+01 7.673485e+00 3.453903e+00 4.996493e+00 -4.574647e+00 -3.024233e+00 4.534252e+00 1.549923e+00 -2.303306e+00 -4.620656e+00 1.031160e+00 -1.352414e+00 -1.113822e+00 3.745343e+00 -7.456693e-01 -1.206692e+00 4.268679e+00 -2.608063e-01 -2.248156e+00 2.545908e-02 2.149880e-01 4.363273e-01 -5.970409e-01 -4.939691e-01 -4.104499e-01 4.786224e-01 7.117655e-02 -2.241323e+00 -1.253818e+00 -7.737113e-01 -4.610961e-01 5.581028e-01 -7.018080e-01 -7.416869e-01
<VARIANCE> 39
 1.000000e-30 1.000000e-30 1.000000e-30 1.000000e-30 1.000000e-30 1.000000e-30 1.192093e-07 1.490116e-08 4.768372e-07 1.000000e-30 1.000000e-30 1.000000e-30 1.000000e-30 1.000000e-30 1.000000e-30 1.490116e-08 1.000000e-30 1.000000e-30 1.000000e-30 1.000000e-30 1.000000e-30 1.000000e-30 1.000000e-30 1.000000e-30 1.000000e-30 1.000000e-30 1.862645e-09 1.000000e-30 1.000000e-30 1.000000e-30 1.000000e-30 1.000000e-30 1.000000e-30 1.000000e-30 4.656613e-10 1.000000e-30 1.000000e-30 1.000000e-30 1.000000e-30
<GCONST> -3.300001e+11
<MIXTURE> 2 1.000000e+00
<MEAN> 39
 1.757025e+01 -7.382854e+00 4.968517e+00 1.438815e+01 6.628867e+00 6.181756e+00 -4.657398e+00 4.624239e+00 -1.301989e+01 -2.073522e+01 1.318773e+00 -3.467509e+00 6.615453e-01 9.790170e-01 8.560283e-01 -2.293556e+00 4.665431e-01 2.621375e+00 -2.714751e+00 -2.055864e+00 -1.542219e-01 -1.883162e+00 -8.276786e-01 5.467827e-01 -8.663522e-02 -5.963553e-01 -4.334255e-01 -1.004911e-01 1.191839e-01 -2.672770e-01 2.323075e-01 4.668417e-01 -3.584126e-02 3.526306e-01 7.154515e-02 -4.598171e-01 3.579985e-01 7.372903e-01 -2.199576e-01
<VARIANCE> 39
 3.940239e+00 7.286173e+00 1.111325e+01 9.902864e+00 1.346664e+01 1.887199e+01 3.042466e+01 5.532485e+00 1.749501e+01 7.130826e+00 3.300471e+00 9.838608e+00 1.079993e+00 7.775343e-02 9.497569e-01 9.071825e-02 2.352654e-01 2.516458e-01 1.854159e+00 1.970563e-01 7.301976e-01 6.960955e-01 1.575848e+00 1.658790e+00 1.708941e+00 1.066478e+00 1.506875e-02 1.012569e-01 5.144922e-02 1.034382e-01 1.553880e-01 1.065557e-01 1.144603e-01 3.082319e-02 9.472374e-02 1.239961e-01 3.146411e-02 1.144447e-01 6.674190e-02
<GCONST> 5.658100e+01
<STATE> 4
<NUMMIXES> 2
<MIXTURE> 1 7.403743e-01
<MEAN> 39
 2.008285e+01 -7.182981e+00 -3.646775e+00 1.091260e+01 1.562040e+01 -3.098081e+00 -1.623004e+01 1.133099e+01 -1.906963e+01 -2.921502e+01 1.201921e+01 -3.753327e-01 -6.862616e+00 -1.207030e-01 8.588816e-02 -1.564591e-01 -4.264827e-01 5.093528e-01 1.912740e-01 -4.205676e-01 3.735444e-01 -4.423661e-01 -1.652452e-01 8.620507e-01 -4.916793e-01 -2.732177e-01 -1.336951e-01 -1.042122e-02 2.287655e-01 -1.554031e-02 -1.303511e-01 2.924792e-01 1.780057e-01 -1.504039e-02 1.793038e-01 2.146023e-01 -9.063569e-02 -9.937441e-02 1.377489e-01
<VARIANCE> 39
 7.203831e+00 9.124231e+00 1.593118e+01 8.950071e+00 3.468891e+00 2.977407e+01 2.428013e+01 2.791165e+01 1.315769e+01 1.279290e+01 4.319564e+01 1.549307e+01 1.272360e+01 2.329501e-01 3.840925e-01 7.515770e-01 5.172316e-01 1.056640e+00 2.242989e+00 2.622813e+00 1.493659e+00 3.177270e-01 1.071360e+00 1.881269e+00 1.147996e+00 1.215602e+00 8.130614e-02 1.310993e-01 1.333720e-01 7.786625e-02 8.612709e-02 2.050797e-01 1.695023e-01 3.167055e-01 1.125235e-01 2.091173e-01 2.217711e-01 1.698765e-01 8.292335e-02
<GCONST> 7.932389e+01
<MIXTURE> 2 2.596257e-01
<MEAN> 39
 1.829607e+01 -4.994521e+00 -3.823561e-01 8.741350e+00 1.930781e+01 -1.478520e+00 -1.743211e+01 1.115134e+01 -2.480102e+01 -3.011487e+01 1.515904e+01 1.714869e-01 -7.286072e+00 -3.398076e-02 -2.789682e-01 6.193429e-01 -3.003628e-01 1.050070e+00 -8.173363e-01 -1.641923e+00 1.878437e+00 -1.157883e+00 -9.641277e-01 2.263064e+00 -6.738198e-01 -6.890523e-01 -9.094407e-02 9.377696e-02 3.248263e-01 1.052672e-01 -5.458468e-01 3.283937e-01 4.526175e-01 -2.047511e-01 1.796128e-01 3.290126e-01 -1.115539e-01 -3.309933e-01 5.857439e-02
<VARIANCE> 39
 5.578517e-01 8.711905e-01 7.753258e+00 7.506154e+00 1.668056e+01 6.782383e+00 4.511625e+01 3.070748e+01 2.684985e+01 3.763089e+00 5.699648e+01 1.192276e+01 3.267688e+00 2.896855e-01 5.542068e-01 1.548053e+00 1.555462e-01 2.145086e+00 6.776965e-01 1.161388e+00 6.619949e-01 2.826829e-01 8.262055e-01 3.973303e-01 1.234586e+00 5.837913e-01 3.041226e-02 8.290449e-02 1.089251e-01 1.175159e-01 8.562215e-02 5.569123e-01 1.616646e-01 5.754997e-01 2.138809e-02 7.499099e-02 8.992258e-02 4.611713e-02 5.027634e-02
<GCONST> 6.278622e+01
<STATE> 5
<NUMMIXES> 2
<MIXTURE> 1 5.000002e-01
<MEAN> 39
 1.648311e+01 -8.716843e+00 1.986850e+00 1.490420e+01 1.554052e+01 7.689413e+00 -9.538660e+00 9.317982e+00 -1.512879e+01 -2.395198e+01 5.671815e+00 -7.715473e+00 2.415706e-01 -1.391384e+00 1.747128e+00 5.475765e-01 6.423444e-02 7.018294e-01 1.092762e+00 5.753473e-01 -1.926640e-01 1.005263e+00 9.508844e-01 -1.738835e+00 -1.717543e-01 9.037476e-01 -4.739072e-01 4.447121e-01 3.280790e-01 -1.171053e-01 -4.596630e-01 1.191215e-01 5.410848e-01 -3.841059e-01 6.566612e-01 9.446481e-01 -5.466913e-01 4.013507e-01 -1.198203e-01
<VARIANCE> 39
 4.659760e+00 1.267090e-01 3.219355e+01 5.281556e+01 5.873413e-01 4.019550e+01 1.882051e+01 8.178322e+01 2.090753e+01 3.449268e+01 1.031013e+02 4.923248e-02 1.482097e+01 1.639186e+00 2.142811e-02 2.885228e+00 1.183957e-02 3.465731e-01 3.173444e+00 1.223920e+00 1.006498e-02 1.381541e+00 7.254425e-01 6.514549e-02 5.526661e-01 1.486127e-01 1.923537e-02 3.655278e-02 5.306713e-02 1.433225e-01 3.861377e-02 2.256573e-01 6.444657e-02 5.564119e-01 1.588464e-04 1.258508e-01 3.159104e-01 7.754369e-02 5.251168e-03
<GCONST> 4.374689e+01
<MIXTURE> 2 4.999998e-01
<MEAN> 39
 1.748334e+01 -4.912408e+00 6.519381e+00 7.172498e+00 1.876625e+01 2.960281e+00 -1.890984e+01 1.331033e+01 -3.220710e+01 -2.887740e+01 2.771542e+01 -9.329806e+00 -1.071295e+01 6.647687e-01 -3.381926e-01 3.525429e-01 6.915750e-01 -3.196233e-01 1.935851e+00 1.045099e+00 -1.640531e+00 4.245628e-01 2.374650e+00 5.452880e-01 -1.946172e+00 -1.427778e+00 -1.598011e-01 3.043729e-01 -2.685204e-01 1.269881e-01 1.659334e-01 -1.655996e-01 5.790511e-01 -1.808862e-02 1.157945e+00 6.222216e-01 -1.445170e+00 3.042874e-01 5.446976e-01
<VARIANCE> 39
 1.422229e+00 3.023720e-01 2.461566e-01 4.064647e-01 2.195065e+00 3.879410e+00 5.447817e+00 1.945910e+01 6.212687e+00 6.674847e+00 6.240867e+00 4.603498e-04 8.652864e-01 4.369711e-03 1.781983e-03 1.034947e-02 1.283658e-02 1.614247e-01 5.547156e-01 1.595090e-04 1.202204e-01 1.646672e-01 6.196649e-02 4.493979e-01 1.122476e-02 1.183711e-02 4.694442e-02 4.750057e-02 1.907628e-02 2.191945e-02 7.276126e-03 3.455763e-02 1.179594e-02 1.824279e-01 2.320286e-02 2.791244e-02 4.022332e-02 2.537120e-02 1.728746e-01
<GCONST> -1.951064e+01
<STATE> 6
<NUMMIXES> 2
<MIXTURE> 1 6.306236e-01
<MEAN> 39
 2.555655e+00 5.371960e+00 9.165507e+00 1.478576e+01 1.411751e+01 1.175591e+01 -2.207024e+00 3.512983e+00 -9.664146e+00 -1.492530e+01 -5.849916e+00 -5.798916e+00 2.070802e+00 -2.024335e+00 8.794463e-01 -1.285414e-01 1.136226e-01 -3.897985e-01 -5.366076e-01 3.924535e-01 -9.878807e-01 1.008688e+00 9.261091e-01 -1.952865e+00 3.498434e-01 2.214938e-01 1.760856e-01 -7.109562e-01 -4.347254e-01 -1.982076e-01 -1.648302e-02 -2.487139e-01 -3.644835e-01 2.844663e-01 1.720217e-01 4.647781e-02 5.470287e-01 -4.894339e-02 -9.991109e-02
<VARIANCE> 39
 7.649870e+01 4.566636e+01 8.631897e+00 1.937737e+01 5.307994e+00 4.016401e+00 3.886482e+00 1.225214e+01 8.796537e+00 5.273265e+00 3.013098e+01 5.884950e+00 2.958760e+00 9.574322e-01 4.358514e+00 2.014833e+00 1.052785e+00 1.097941e+00 1.091903e+00 4.642715e-01 1.852875e+00 6.077213e-01 1.417538e+00 4.282965e+00 7.879269e-01 1.141079e+00 1.122515e-01 1.203505e-01 1.009871e-01 1.105447e-01 1.652576e-01 2.797694e-01 1.706868e-01 1.693742e-01 3.559148e-01 5.665504e-01 3.883831e-01 4.253409e-02 3.854414e-01
<GCONST> 8.331361e+01
<MIXTURE> 2 3.693764e-01
<MEAN> 39
 1.378916e+01 -1.852327e+00 5.348828e+00 9.224025e+00 1.674720e+01 7.932290e+00 -1.021504e+01 1.258591e+01 -1.808366e+01 -2.093132e+01 1.426290e+01 -9.968132e+00 -5.139670e+00 -2.202280e+00 2.729695e+00 1.458412e+00 3.970014e-01 -1.021253e+00 2.474123e+00 3.391387e+00 -1.365021e+00 3.072382e+00 2.777488e+00 -4.311570e+00 6.205511e-01 2.134911e+00 -3.126276e-01 5.520499e-01 1.401181e-02 8.138284e-02 -1.303968e-01 -2.967512e-01 4.782120e-02 -3.006880e-01 -1.243128e-01 -2.472527e-01 -6.638406e-01 6.354232e-01 3.637113e-01
<VARIANCE> 39
 1.091395e+01 9.384335e+00 7.016879e+00 1.762190e+00 6.214040e+00 1.334931e+01 2.918618e+01 8.837706e+00 4.824357e+01 1.147835e+01 6.044630e+01 6.493147e+00 3.112879e+01 4.734623e-01 6.735101e-01 9.124924e-01 1.547310e-01 1.476757e-01 9.322985e-01 5.379324e-01 5.469060e-01 8.004593e-01 8.379114e-01 9.425665e-01 1.003204e+00 1.608832e+00 1.408323e-01 1.160206e-01 6.995385e-02 4.403302e-02 7.080318e-02 3.910053e-01 4.710645e-01 1.563715e-01 5.084038e-01 3.597362e-01 4.799571e-01 1.248379e-01 5.332237e-01
<GCONST> 7.699820e+01
<TRANSP> 7
 0.000000e+00 1.000000e+00 0.000000e+00 0.000000e+00 0.000000e+00 0.000000e+00 0.000000e+00
 0.000000e+00 8.339734e-01 1.660266e-01 0.000000e+00 0.000000e+00 0.000000e+00 0.000000e+00
 0.000000e+00 0.000000e+00 5.714289e-01 4.285711e-01 0.000000e+00 0.000000e+00 0.000000e+00
 0.000000e+00 0.000000e+00 0.000000e+00 8.888888e-01 1.111112e-01 0.000000e+00 0.000000e+00
 0.000000e+00 0.000000e+00 0.000000e+00 0.000000e+00 2.500003e-01 7.499998e-01 0.000000e+00
 0.000000e+00 0.000000e+00 0.000000e+00 0.000000e+00 0.000000e+00 8.416959e-01 1.583041e-01
 0.000000e+00 0.000000e+00 0.000000e+00 0.000000e+00 0.000000e+00 0.000000e+00 0.000000e+00
<ENDHMM>
~h "sh"
<BEGINHMM>
<NUMSTATES> 5
<STATE> 2
<NUMMIXES> 2
<MIXTURE> 1 6.294374e-01
<MEAN> 39
 3.138095e+00 -2.265398e+01 5.121012e+00 1.856830e+01 9.930391e+00 1.699134e+01 -4.186899e+00 -9.852490e-01 -9.705476e-01 -9.059291e+00 -1.289941e+00 1.485964e-01 1.353227e+00 -1.542424e+00 -3.671390e+00 9.823890e-01 -4.939891e-02 -1.063011e+00 1.870722e+00 6.906204e-01 -5.675639e-02 1.257894e+00 6.249632e-01 3.725059e-01 7.002021e-01 5.189928e-01 -1.091426e-01 -2.340861e-01 -1.749236e-01 -2.229555e-01 3.413567e-02 -1.531549e-01 -2.300384e-01 1.672451e-01 2.097294e-02 -4.401531e-02 1.736531e-01 9.296522e-03 -2.931179e-02
<VARIANCE> 39
 8.207359e+01 1.585245e+02 1.493796e+02 1.806216e+02 1.212499e+02 1.105083e+02 1.165237e+02 4.600237e+01 6.325811e+01 5.186385e+01 8.244415e+01 3.938468e+01 7.730747e+01 2.335864e+00 5.406716e+00 4.227917e+00 3.749601e+00 2.413914e+00 3.698596e+00 3.829753e+00 3.133085e+00 3.539039e+00 2.849152e+00 3.042238e+00 2.416369e+00 1.992845e+00 1.517369e-01 6.503617e-01 5.449360e-01 3.939654e-01 3.429753e-01 5.885408e-01 4.427690e-01 4.605075e-01 4.629854e-01 4.688632e-01 4.157539e-01 3.516931e-01 2.748193e-01
<GCONST> 1.331547e+02
<MIXTURE> 2 3.705605e-01
<MEAN> 39
 -7.479912e+00 -4.619680e+01 1.068104e+01 1.678196e+01 5.076701e+00 2.643128e+01 -3.584346e+00 5.694472e-01 9.020336e+00 -3.928739e+00 2.680487e+00 4.219881e+00 4.579093e+00 -1.552257e+00 -2.364975e+00 -9.539016e-01 -2.293510e+00 -1.922299e+00 -1.582191e+00 -1.874846e+00 -7.592952e-01 -3.942918e-01 -6.273483e-02 -2.370450e-01 -5.375569e-01 1.056343e-01 2.899463e-01 6.719158e-01 4.296532e-02 1.233886e-01 7.123037e-02 -4.195760e-01 -2.636935e-01 -3.524558e-01 -4.742427e-01 -2.357036e-01 -3.267505e-01 -2.743795e-01 -1.930107e-01
<VARIANCE> 39
 1.470856e+01 2.464632e+01 3.676250e+01 3.472198e+01 3.059813e+01 3.333145e+01 1.140657e+02 2.741442e+01 2.643036e+01 1.642424e+01 2.676130e+01 1.935986e+01 3.110096e+01 7.768406e-01 2.622336e+00 7.692844e-01 1.016820e+00 1.114068e+00 2.592388e+00 1.610451e+00 1.761802e+00 1.665654e+00 1.636654e+00 1.947218e+00 1.697182e+00 1.115273e+00 1.150613e-01 2.988918e-01 1.534662e-01 2.315310e-01 2.882531e-01 5.627136e-01 4.050177e-01 2.617210e-01 2.242040e-01 2.503181e-01 2.699098e-01 2.690022e-01 1.684633e-01
<GCONST> 1.022803e+02
<STATE> 3
<NUMMIXES> 2
<MIXTURE> 1 3.327989e-01
<MEAN> 39
 -1.010427e+01 -5.154308e+01 2.796451e+00 6.939185e+00 -2.147093e+00 2.138688e+01 -1.775390e+00 -3.804460e+00 -1.918844e+00 -7.528491e+00 -5.794024e+00 -1.734570e+00 7.405837e+00 3.048795e-02 1.647576e-02 1.416717e-03 -8.786671e-02 2.317162e-02 1.984354e-03 -4.482322e-03 8.736592e-02 -3.655954e-02 1.392421e-02 5.770332e-02 3.034069e-02 2.182861e-02 8.257078e-02 7.856001e-02 6.459467e-04 3.154624e-02 -8.964870e-03 4.853455e-02 6.649911e-02 7.808533e-02 1.209919e-01 7.418334e-02 1.019917e-01 1.002184e-01 1.787734e-02
<VARIANCE> 39
 1.003240e+01 1.150209e+01 2.494008e+01 1.221278e+01 7.281064e+00 1.225612e+01 3.177184e+01 1.531205e+01 1.872586e+01 1.768570e+01 1.585085e+01 1.414514e+01 9.692738e+00 6.133018e-01 9.967934e-01 9.162024e-01 4.340904e-01 3.625409e-01 7.273801e-01 9.339436e-01 1.100968e+00 1.189719e+00 1.505297e+00 1.557869e+00 1.215440e+00 7.458424e-01 1.211173e-01 1.942027e-01 1.801745e-01 8.417359e-02 7.063541e-02 1.366979e-01 1.848808e-01 1.926353e-01 2.031129e-01 2.588349e-01 2.762959e-01 2.105791e-01 1.391154e-01
<GCONST> 8.084241e+01
<MIXTURE> 2 6.671996e-01
<MEAN> 39
 -1.173878e+01 -5.024289e+01 8.931425e+00 1.101274e+01 8.728814e-02 1.872906e+01 -1.349989e+01 -6.303019e+00 4.808910e+00 -3.974903e+00 4.588570e-01 8.716097e-01 2.840784e+00 -3.459664e-02 -1.245464e-01 -7.282778e-02 -2.322904e-01 4.342311e-02 2.468119e-02 -1.147509e-01 -1.321086e-01 -2.851478e-01 -8.443630e-02 -1.303438e-01 -7.193725e-02 2.712828e-02 7.625011e-02 1.344330e-01 -1.493661e-02 7.965677e-02 1.129093e-01 1.419303e-01 1.870856e-01 9.156482e-02 1.001949e-02 -4.836801e-02 -1.285341e-02 5.271196e-02 2.767976e-02
<VARIANCE> 39
 1.222369e+01 1.757048e+01 2.701898e+01 1.617354e+01 1.269437e+01 1.650312e+01 5.684939e+01 2.714905e+01 2.187277e+01 2.503896e+01 2.769578e+01 1.865687e+01 1.792400e+01 9.778343e-01 1.691018e+00 1.142608e+00 6.005539e-01 6.466436e-01 1.479421e+00 1.434538e+00 1.263708e+00 1.474766e+00 1.746849e+00 1.961252e+00 1.617760e+00 9.226418e-01 1.635812e-01 3.155178e-01 1.899273e-01 1.110694e-01 1.243170e-01 2.255919e-01 2.109149e-01 2.162140e-01 2.672343e-01 3.422373e-01 3.897485e-01 3.232468e-01 1.785410e-01
<GCONST> 9.427896e+01
<STATE> 4
<NUMMIXES> 2
<MIXTURE> 1 4.762154e-01
<MEAN> 39
 4.926476e+00 -2.045711e+01 7.776286e+00 1.481196e+01 6.337739e+00 1.793217e+01 -5.145176e+00 -1.322182e+00 3.253799e+00 -6.635334e+00 -1.115694e+00 3.647317e+00 4.570083e+00 3.803951e+00 5.329840e+00 -1.558856e+00 2.372820e-01 1.545876e+00 -3.081796e+00 -1.327680e+00 1.155945e+00 -7.757341e-01 -1.091696e+00 1.926969e-01 -5.459324e-01 -8.308927e-01 -1.470475e-01 -8.758022e-01 -9.821525e-01 -5.553201e-01 2.892335e-01 -6.821235e-01 -7.282819e-01 4.962867e-01 -3.809752e-01 -6.410677e-01 2.807583e-01 -1.229867e-01 -2.616299e-01
<VARIANCE> 39
 9.754660e+01 1.007573e+02 6.549869e+01 5.622913e+01 3.082413e+01 5.801557e+01 5.445355e+01 3.454631e+01 2.254462e+01 2.036171e+01 2.440068e+01 1.505485e+01 2.255435e+01 3.634721e+00 5.747590e+00 6.645159e+00 3.400412e+00 1.856471e+00 3.908377e+00 4.005994e+00 2.583251e+00 2.137185e+00 3.307386e+00 1.575260e+00 1.058076e+00 1.406868e+00 4.218992e-01 8.828041e-01 5.530511e-01 2.741541e-01 2.159155e-01 6.108174e-01 4.084756e-01 3.043844e-01 2.986892e-01 3.422433e-01 2.507270e-01 2.343090e-01 1.931325e-01
<GCONST> 1.188013e+02
<MIXTURE> 2 5.237838e-01
<MEAN> 39
 -8.236722e+00 -4.615630e+01 5.490332e+00 8.775486e+00 1.879265e+00 2.381614e+01 -5.132002e+00 -2.850918e+00 2.002235e+00 -6.870596e+00 -1.375446e+00 2.960776e+00 5.850783e+00 1.742581e+00 3.448234e+00 3.065136e-01 1.038806e+00 7.019108e-01 3.788129e-01 1.242441e+00 3.620302e-01 3.791432e-01 -7.640294e-02 -4.889993e-02 7.021410e-01 2.407350e-01 5.874516e-01 1.117537e+00 2.725535e-01 3.323712e-01 1.403803e-01 -4.110710e-01 -1.597858e-01 -3.023359e-02 7.044116e-02 1.602463e-01 4.124347e-03 -1.107311e-01 -9.674945e-02
<VARIANCE> 39
 1.606392e+01 4.278497e+01 4.195649e+01 3.247206e+01 2.497910e+01 2.927673e+01 8.124065e+01 3.375979e+01 2.518136e+01 1.936859e+01 2.927202e+01 2.016824e+01 1.914733e+01 1.981665e+00 4.418281e+00 1.733645e+00 1.410017e+00 9.830992e-01 1.792951e+00 1.610012e+00 1.524606e+00 1.384413e+00 1.655284e+00 1.419240e+00 1.250430e+00 8.245257e-01 1.996051e-01 3.485896e-01 2.133700e-01 1.545853e-01 1.698958e-01 3.417501e-01 3.113752e-01 2.778799e-01 2.558810e-01 2.667958e-01 2.121733e-01 2.396484e-01 1.550122e-01
<GCONST> 1.023013e+02
<TRANSP> 5
 0.000000e+00 1.000000e+00 0.000000e+00 0.000000e+00 0.000000e+00
 0.000000e+00 8.926813e-01 1.073187e-01 0.000000e+00 0.000000e+00
 0.000000e+00 0.000000e+00 9.432903e-01 5.670967e-02 0.000000e+00
 0.000000e+00 0.000000e+00 0.000000e+00 8.598923e-01 1.401077e-01
 0.000000e+00 0.000000e+00 0.000000e+00 0.000000e+00 0.000000e+00
<ENDHMM>
~h "sp"
<BEGINHMM>
<NUMSTATES> 5
<STATE> 2
<NUMMIXES> 2
<MIXTURE> 1 5.000000e-01
<MEAN> 39
 5.098849e+00 -6.514025e+00 2.430083e+00 1.092778e+01 1.083864e+01 1.500667e+00 -1.140838e+01 9.359310e+00 -3.377835e+00 -1.113024e+01 6.044074e+00 -4.088247e-01 -3.646332e+00 -1.380477e-02 1.475701e-03 -1.072459e-03 -5.524765e-03 -3.099398e-03 2.005852e-03 8.190720e-04 -5.087083e-03 2.488556e-03 5.650900e-03 -1.806995e-03 5.936168e-04 1.443354e-03 -1.213556e-03 -1.404243e-04 -1.926630e-04 -5.029775e-04 -4.298560e-04 2.249404e-04 5.535607e-04 -2.933974e-04 7.204357e-05 8.173331e-04 -1.603794e-04 -1.434907e-04 3.551734e-04
<VARIANCE> 39
 2.696502e+02 1.642264e+02 1.776205e+02 1.699619e+02 1.712323e+02 1.501611e+02 1.653076e+02 1.112998e+02 8.102897e+01 1.132308e+02 1.038732e+02 3.576029e+01 7.139818e+01 2.864393e+00 3.049235e+00 2.950589e+00 2.442850e+00 2.488132e+00 2.882445e+00 3.574063e+00 2.837703e+00 2.254665e+00 3.083899e+00 2.848865e+00 1.410452e+00 1.706605e+00 2.059384e-01 2.861855e-01 3.165202e-01 2.798763e-01 2.958655e-01 3.292713e-01 4.082396e-01 3.875320e-01 3.475762e-01 4.161765e-01 3.917231e-01 2.236369e-01 2.362328e-01
<GCONST> 1.313330e+02
<MIXTURE> 2 5.000000e-01
<MEAN> 39
 5.098849e+00 -6.514025e+00 2.430083e+00 1.092778e+01 1.083864e+01 1.500667e+00 -1.140838e+01 9.359310e+00 -3.377835e+00 -1.113024e+01 6.044074e+00 -4.088247e-01 -3.646332e+00 -1.380477e-02 1.475701e-03 -1.072459e-03 -5.524765e-03 -3.099398e-03 2.005852e-03 8.190720e-04 -5.087083e-03 2.488556e-03 5.650900e-03 -1.806995e-03 5.936168e-04 1.443354e-03 -1.213556e-03 -1.404243e-04 -1.926630e-04 -5.029775e-04 -4.298560e-04 2.249404e-04 5.535607e-04 -2.933974e-04 7.204357e-05 8.173331e-04 -1.603794e-04 -1.434907e-04 3.551734e-04
<VARIANCE> 39
 2.696502e+02 1.642264e+02 1.776205e+02 1.699619e+02 1.712323e+02 1.501611e+02 1.653076e+02 1.112998e+02 8.102897e+01 1.132308e+02 1.038732e+02 3.576029e+01 7.139818e+01 2.864393e+00 3.049235e+00 2.950589e+00 2.442850e+00 2.488132e+00 2.882445e+00 3.574063e+00 2.837703e+00 2.254665e+00 3.083899e+00 2.848865e+00 1.410452e+00 1.706605e+00 2.059384e-01 2.861855e-01 3.165202e-01 2.798763e-01 2.958655e-01 3.292713e-01 4.082396e-01 3.875320e-01 3.475762e-01 4.161765e-01 3.917231e-01 2.236369e-01 2.362328e-01
<GCONST> 1.313330e+02
<STATE> 3
<NUMMIXES> 2
<MIXTURE> 1 5.000000e-01
<MEAN> 39
 5.098849e+00 -6.514025e+00 2.430083e+00 1.092778e+01 1.083864e+01 1.500667e+00 -1.140838e+01 9.359310e+00 -3.377835e+00 -1.113024e+01 6.044074e+00 -4.088247e-01 -3.646332e+00 -1.380477e-02 1.475701e-03 -1.072459e-03 -5.524765e-03 -3.099398e-03 2.005852e-03 8.190720e-04 -5.087083e-03 2.488556e-03 5.650900e-03 -1.806995e-03 5.936168e-04 1.443354e-03 -1.213556e-03 -1.404243e-04 -1.926630e-04 -5.029775e-04 -4.298560e-04 2.249404e-04 5.535607e-04 -2.933974e-04 7.204357e-05 8.173331e-04 -1.603794e-04 -1.434907e-04 3.551734e-04
<VARIANCE> 39
 2.696502e+02 1.642264e+02 1.776205e+02 1.699619e+02 1.712323e+02 1.501611e+02 1.653076e+02 1.112998e+02 8.102897e+01 1.132308e+02 1.038732e+02 3.576029e+01 7.139818e+01 2.864393e+00 3.049235e+00 2.950589e+00 2.442850e+00 2.488132e+00 2.882445e+00 3.574063e+00 2.837703e+00 2.254665e+00 3.083899e+00 2.848865e+00 1.410452e+00 1.706605e+00 2.059384e-01 2.861855e-01 3.165202e-01 2.798763e-01 2.958655e-01 3.292713e-01 4.082396e-01 3.875320e-01 3.475762e-01 4.161765e-01 3.917231e-01 2.236369e-01 2.362328e-01
<GCONST> 1.313330e+02
<MIXTURE> 2 5.000000e-01
<MEAN> 39
 5.098849e+00 -6.514025e+00 2.430083e+00 1.092778e+01 1.083864e+01 1.500667e+00 -1.140838e+01 9.359310e+00 -3.377835e+00 -1.113024e+01 6.044074e+00 -4.088247e-01 -3.646332e+00 -1.380477e-02 1.475701e-03 -1.072459e-03 -5.524765e-03 -3.099398e-03 2.005852e-03 8.190720e-04 -5.087083e-03 2.488556e-03 5.650900e-03 -1.806995e-03 5.936168e-04 1.443354e-03 -1.213556e-03 -1.404243e-04 -1.926630e-04 -5.029775e-04 -4.298560e-04 2.249404e-04 5.535607e-04 -2.933974e-04 7.204357e-05 8.173331e-04 -1.603794e-04 -1.434907e-04 3.551734e-04
<VARIANCE> 39
 2.696502e+02 1.642264e+02 1.776205e+02 1.699619e+02 1.712323e+02 1.501611e+02 1.653076e+02 1.112998e+02 8.102897e+01 1.132308e+02 1.038732e+02 3.576029e+01 7.139818e+01 2.864393e+00 3.049235e+00 2.950589e+00 2.442850e+00 2.488132e+00 2.882445e+00 3.574063e+00 2.837703e+00 2.254665e+00 3.083899e+00 2.848865e+00 1.410452e+00 1.706605e+00 2.059384e-01 2.861855e-01 3.165202e-01 2.798763e-01 2.958655e-01 3.292713e-01 4.082396e-01 3.875320e-01 3.475762e-01 4.161765e-01 3.917231e-01 2.236369e-01 2.362328e-01
<GCONST> 1.313330e+02
<STATE> 4
<NUMMIXES> 2
<MIXTURE> 1 5.000000e-01
<MEAN> 39
 5.098849e+00 -6.514025e+00 2.430083e+00 1.092778e+01 1.083864e+01 1.500667e+00 -1.140838e+01 9.359310e+00 -3.377835e+00 -1.113024e+01 6.044074e+00 -4.088247e-01 -3.646332e+00 -1.380477e-02 1.475701e-03 -1.072459e-03 -5.524765e-03 -3.099398e-03 2.005852e-03 8.190720e-04 -5.087083e-03 2.488556e-03 5.650900e-03 -1.806995e-03 5.936168e-04 1.443354e-03 -1.213556e-03 -1.404243e-04 -1.926630e-04 -5.029775e-04 -4.298560e-04 2.249404e-04 5.535607e-04 -2.933974e-04 7.204357e-05 8.173331e-04 -1.603794e-04 -1.434907e-04 3.551734e-04
<VARIANCE> 39
 2.696502e+02 1.642264e+02 1.776205e+02 1.699619e+02 1.712323e+02 1.501611e+02 1.653076e+02 1.112998e+02 8.102897e+01 1.132308e+02 1.038732e+02 3.576029e+01 7.139818e+01 2.864393e+00 3.049235e+00 2.950589e+00 2.442850e+00 2.488132e+00 2.882445e+00 3.574063e+00 2.837703e+00 2.254665e+00 3.083899e+00 2.848865e+00 1.410452e+00 1.706605e+00 2.059384e-01 2.861855e-01 3.165202e-01 2.798763e-01 2.958655e-01 3.292713e-01 4.082396e-01 3.875320e-01 3.475762e-01 4.161765e-01 3.917231e-01 2.236369e-01 2.362328e-01
<GCONST> 1.313330e+02
<MIXTURE> 2 5.000000e-01
<MEAN> 39
 5.098849e+00 -6.514025e+00 2.430083e+00 1.092778e+01 1.083864e+01 1.500667e+00 -1.140838e+01 9.359310e+00 -3.377835e+00 -1.113024e+01 6.044074e+00 -4.088247e-01 -3.646332e+00 -1.380477e-02 1.475701e-03 -1.072459e-03 -5.524765e-03 -3.099398e-03 2.005852e-03 8.190720e-04 -5.087083e-03 2.488556e-03 5.650900e-03 -1.806995e-03 5.936168e-04 1.443354e-03 -1.213556e-03 -1.404243e-04 -1.926630e-04 -5.029775e-04 -4.298560e-04 2.249404e-04 5.535607e-04 -2.933974e-04 7.204357e-05 8.173331e-04 -1.603794e-04 -1.434907e-04 3.551734e-04
<VARIANCE> 39
 2.696502e+02 1.642264e+02 1.776205e+02 1.699619e+02 1.712323e+02 1.501611e+02 1.653076e+02 1.112998e+02 8.102897e+01 1.132308e+02 1.038732e+02 3.576029e+01 7.139818e+01 2.864393e+00 3.049235e+00 2.950589e+00 2.442850e+00 2.488132e+00 2.882445e+00 3.574063e+00 2.837703e+00 2.254665e+00 3.083899e+00 2.848865e+00 1.410452e+00 1.706605e+00 2.059384e-01 2.861855e-01 3.165202e-01 2.798763e-01 2.958655e-01 3.292713e-01 4.082396e-01 3.875320e-01 3.475762e-01 4.161765e-01 3.917231e-01 2.236369e-01 2.362328e-01
<GCONST> 1.313330e+02
<TRANSP> 5
 0.000000e+00 1.000000e+00 0.000000e+00 0.000000e+00 0.000000e+00
 0.000000e+00 6.000000e-01 4.000000e-01 0.000000e+00 0.000000e+00
 0.000000e+00 0.000000e+00 6.000000e-01 4.000000e-01 0.000000e+00
 0.000000e+00 0.000000e+00 0.000000e+00 6.000000e-01 4.000000e-01
 0.000000e+00 0.000000e+00 0.000000e+00 0.000000e+00 0.000000e+00
<ENDHMM>
~h "sx"
<BEGINHMM>
<NUMSTATES> 5
<STATE> 2
<NUMMIXES> 2
<MIXTURE> 1 7.837734e-01
<MEAN> 39
 7.993047e-01 -2.514120e+01 -1.095155e+00 1.099578e+01 7.622501e+00 1.738631e+01 -4.803296e+00 -4.165437e-01 2.215851e+00 -6.790058e+00 -3.808635e-01 2.820776e+00 4.023356e+00 -1.023674e+00 -3.707767e+00 9.942632e-01 1.396641e-01 -8.961748e-01 1.818442e+00 5.476948e-01 -2.000175e-01 9.098492e-01 4.634494e-01 8.142793e-02 2.584056e-01 2.390358e-01 -9.678891e-02 -9.703413e-02 -4.215087e-02 -1.734232e-01 6.809023e-02 -2.123668e-01 -2.586199e-01 1.576534e-01 -9.277467e-02 -5.575564e-02 1.920843e-01 -5.320138e-02 -1.062972e-01
<VARIANCE> 39
 1.267170e+02 1.847437e+02 2.475032e+02 2.010573e+02 9.310283e+01 1.284648e+02 8.113006e+01 5.736574e+01 3.762424e+01 3.113406e+01 6.521983e+01 2.621792e+01 3.764601e+01 3.713969e+00 3.902318e+00 5.528228e+00 5.041466e+00 2.311007e+00 4.755167e+00 4.099015e+00 3.529525e+00 2.676657e+00 2.322013e+00 2.235589e+00 1.263239e+00 2.209990e+00 2.107889e-01 5.872637e-01 7.476397e-01 4.645668e-01 3.566514e-01 6.841071e-01 5.144001e-01 5.858808e-01 4.445310e-01 4.275824e-01 3.513466e-01 2.134062e-01 3.881482e-01
<GCONST> 1.323007e+02
<MIXTURE> 2 2.162272e-01
<MEAN> 39
 -6.879100e+00 -3.778907e+01 5.449658e+00 1.391210e+01 5.670370e+00 2.459898e+01 2.368849e+00 2.724335e+00 6.082361e+00 -2.269459e+00 2.193348e+00 5.339473e+00 6.594516e+00 -1.561949e+00 -2.939442e+00 -1.352348e+00 -2.196615e+00 -1.427253e+00 -8.669307e-01 -1.428226e+00 -3.948115e-01 -2.526790e-01 -3.348169e-01 -5.303239e-01 -4.637962e-01 2.442015e-01 2.521813e-01 4.962341e-01 -5.383059e-02 -1.296376e-01 -1.262510e-01 -4.553364e-01 -3.524819e-01 -3.343309e-01 -3.490825e-01 -1.781856e-01 -2.834232e-01 -2.947921e-01 -3.256996e-02
<VARIANCE> 39
 5.128604e+01 2.327763e+02 5.481187e+01 4.608969e+01 2.819905e+01 7.684253e+01 5.515561e+01 2.274898e+01 2.436886e+01 1.281900e+01 1.549900e+01 1.867546e+01 1.361699e+01 1.196177e+00 1.577598e+00 2.074872e+00 6.599523e-01 9.585071e-01 1.314294e+00 1.235735e+00 1.403423e+00 1.353599e+00 1.524297e+00 9.092236e-01 9.598750e-01 9.749169e-01 1.071310e-01 2.544838e-01 1.252880e-01 1.820991e-01 1.736315e-01 1.832622e-01 2.460628e-01 1.893526e-01 2.061993e-01 1.333451e-01 1.187891e-01 9.654661e-02 1.294085e-01
<GCONST> 9.602889e+01
<STATE> 3
<NUMMIXES> 2
<MIXTURE> 1 0.000000e+00
<MEAN> 39
 -2.460413e+01 -2.528620e+01 9.476417e+00 1.453254e+00 8.121964e+00 -6.020190e+00 2.558741e+00 -3.683615e+00 2.657288e+00 -4.109238e+00 2.908855e+00 4.739001e-02 -7.405792e-01 -1.435858e-01 -1.183302e-01 4.800704e-04 -1.259827e-01 -1.603135e-01 -9.897383e-02 -2.412239e-02 1.340315e-02 5.059737e-02 6.779682e-02 8.571308e-02 1.051517e-01 4.385307e-02 1.701642e-01 1.138292e-01 -9.650642e-03 3.541986e-02 8.229297e-02 5.383232e-02 -1.378253e-02 7.141295e-03 -2.082125e-02 2.484192e-02 -1.483140e-02 1.512020e-02 -1.248819e-02
<VARIANCE> 39
 1.287360e+01 1.845261e+01 3.968744e+01 2.419895e+01 2.596645e+01 2.354561e+01 2.662227e+01 3.145501e+01 2.725155e+01 2.397213e+01 2.824627e+01 2.035361e+01 2.221501e+01 5.440961e-01 4.177724e-01 5.778142e-01 6.248232e-01 8.203446e-01 8.965421e-01 1.009574e+00 1.112690e+00 1.137437e+00 1.150113e+00 1.086122e+00 9.778180e-01 8.340899e-01 5.372016e-02 7.531175e-02 9.407701e-02 1.193896e-01 1.523911e-01 1.770679e-01 2.031044e-01 2.243394e-01 2.324814e-01 2.318604e-01 2.228285e-01 1.993412e-01 1.736224e-01
<GCONST> 8.606846e+01
<MIXTURE> 2 1.000000e+00
<MEAN> 39
 -1.102935e+01 -5.106783e+01 7.678093e+00 6.757034e+00 6.010967e-01 2.125127e+01 -1.019533e+01 -3.104370e+00 2.806338e+00 -4.918009e+00 -6.981250e-01 7.675668e-01 5.373332e+00 -2.220327e-01 -1.395782e-01 1.692120e-01 -2.684249e-01 -1.726176e-01 -2.570542e-01 -3.590823e-01 -9.351765e-02 -2.995616e-01 -1.585139e-01 -1.995338e-01 -1.466013e-01 8.517850e-02 1.017409e-01 2.038272e-01 -4.155885e-02 1.059868e-01 5.847266e-02 5.443049e-02 1.348364e-01 5.253423e-02 6.951214e-02 -1.203199e-02 2.603464e-03 7.295303e-02 2.299636e-03
<VARIANCE> 39
 1.002092e+01 1.492974e+01 3.557265e+01 1.252925e+01 1.348247e+01 1.660537e+01 6.848692e+01 2.164230e+01 2.147044e+01 2.170696e+01 2.803238e+01 1.918263e+01 1.706460e+01 8.630826e-01 1.826658e+00 1.409804e+00 8.732178e-01 6.735430e-01 1.499467e+00 1.420438e+00 1.260072e+00 1.380945e+00 1.593282e+00 1.505723e+00 1.256327e+00 7.436962e-01 1.362610e-01 3.258984e-01 2.122197e-01 1.266589e-01 1.126198e-01 2.347139e-01 1.830017e-01 2.255461e-01 2.625740e-01 3.247273e-01 2.991354e-01 2.334717e-01 1.388157e-01
<GCONST> 9.250153e+01
<STATE> 4
<NUMMIXES> 2
<MIXTURE> 1 5.532401e-01
<MEAN> 39
 -4.297148e+00 -2.661967e+01 4.258729e+00 1.134394e+01 3.338780e+00 1.678378e+01 -4.316984e+00 8.820886e-01 4.745051e+00 -5.362423e+00 -7.757458e-01 4.952998e+00 6.724571e+00 1.513997e+00 5.018771e+00 -1.262982e+00 3.157492e-01 1.011231e+00 -2.048697e+00 7.679375e-02 6.533625e-01 -3.693997e-01 -1.430903e-02 5.188994e-02 -1.171838e-01 -1.494658e-01 -8.684695e-02 -2.530944e-01 -4.736609e-01 -4.289983e-01 1.305293e-01 -4.620702e-01 -4.962343e-01 1.855610e-01 -2.822234e-01 -2.342849e-01 1.423554e-01 -1.584060e-01 -1.398014e-01
<VARIANCE> 39
 1.461213e+02 1.654205e+02 6.578126e+01 3.354379e+01 4.688057e+01 8.131095e+01 5.963620e+01 2.941348e+01 5.009107e+01 4.145313e+01 2.703793e+01 1.982839e+01 1.581412e+01 8.939242e+00 5.174976e+00 3.810427e+00 3.159012e+00 2.552274e+00 3.170367e+00 5.305641e+00 1.935275e+00 2.466297e+00 2.372941e+00 1.303540e+00 1.242811e+00 1.878542e+00 3.762389e-01 1.098018e+00 6.223699e-01 3.430690e-01 3.385448e-01 5.037464e-01 5.888686e-01 3.656330e-01 2.717697e-01 3.936871e-01 2.138498e-01 2.209914e-01 2.765759e-01
<GCONST> 1.231856e+02
<MIXTURE> 2 4.467598e-01
<MEAN> 39
 -1.390860e+01 -4.254239e+01 6.165900e+00 6.740290e+00 -7.818176e-01 1.546889e+01 -9.295367e+00 1.045682e-01 2.515960e+00 -6.628842e+00 -2.200585e+00 1.816593e+00 6.261259e+00 6.732168e-01 2.348114e+00 -2.252318e-01 4.088809e-01 -1.045649e-01 -2.715319e-01 8.551006e-01 3.173212e-01 4.956203e-01 -1.457263e-01 1.240825e-01 6.567846e-01 1.210235e-04 3.961181e-01 7.195877e-01 1.423642e-01 2.635477e-01 1.442619e-01 -5.918786e-02 7.177294e-02 -2.623970e-02 9.288403e-02 3.533014e-02 5.815029e-03 8.330946e-02 -4.213190e-02
<VARIANCE> 39
 4.844005e+01 1.890756e+02 8.828930e+01 2.630387e+01 1.422307e+01 1.049590e+02 6.956950e+01 2.620543e+01 3.249724e+01 2.156654e+01 2.407317e+01 2.084179e+01 1.423891e+01 2.060408e+00 3.144063e+00 1.613445e+00 1.427516e+00 9.986958e-01 2.375008e+00 1.561389e+00 1.118465e+00 1.633235e+00 1.218282e+00 1.434993e+00 1.440938e+00 1.100160e+00 2.264000e-01 7.072522e-01 2.658458e-01 1.437275e-01 1.489891e-01 3.376152e-01 2.046978e-01 1.748606e-01 2.273632e-01 1.540080e-01 2.316327e-01 2.522905e-01 1.827630e-01
<GCONST> 1.051194e+02
<TRANSP> 5
 0.000000e+00 1.000000e+00 0.000000e+00 0.000000e+00 0.000000e+00
 0.000000e+00 9.002438e-01 9.975627e-02 0.000000e+00 0.000000e+00
 0.000000e+00 0.000000e+00 9.355245e-01 6.447544e-02 0.000000e+00
 0.000000e+00 0.000000e+00 0.000000e+00 8.848994e-01 1.151006e-01
 0.000000e+00 0.000000e+00 0.000000e+00 0.000000e+00 0.000000e+00
<ENDHMM>
~h "th"
<BEGINHMM>
<NUMSTATES> 5
<STATE> 2
<NUMMIXES> 2
<MIXTURE> 1 0.000000e+00
<MEAN> 39
 -3.886223e-05 -1.931190e-05 5.215406e-07 8.761883e-06 -2.145767e-06 5.111098e-06 8.314848e-06 2.488494e-06 -7.539988e-06 1.132488e-06 -3.003515e-07 5.424023e-06 -4.022149e-08 1.873821e-06 -4.437752e-07 5.909242e-07 1.825392e-07 -4.018657e-07 -3.222376e-07 3.189780e-07 -5.820766e-11 -6.482005e-07 -5.755574e-07 -2.846355e-08 6.949995e-08 9.033829e-08 -3.673423e-02 3.657988e-03 -6.203171e-03 1.457151e-03 -7.559096e-04 -1.241736e-03 -9.468020e-04 -1.675523e-03 -7.280131e-04 -1.245679e-03 7.821736e-05 -6.539826e-04 -5.843351e-06
<VARIANCE> 39
 6.791949e-05 1.000000e-30 1.187436e-07 1.545995e-06 3.539026e-07 4.889444e-07 7.301569e-06 3.557652e-07 1.000000e-30 1.000000e-30 1.000000e-30 3.034249e-06 1.224976e-10 1.000000e-30 1.000000e-30 8.043571e-09 1.000000e-30 1.000000e-30 1.000000e-30 2.622983e-09 1.563194e-12 1.000000e-30 1.000000e-30 1.000000e-30 1.000000e-30 1.000000e-30 2.939744e-02 1.510691e-03 1.924523e-03 1.205781e-03 1.539571e-03 1.394400e-03 1.598690e-03 1.480532e-03 1.398113e-03 1.215753e-03 1.174650e-03 9.854551e-04 6.629324e-04
<GCONST> -1.400000e+11
<MIXTURE> 2 1.000000e+00
<MEAN> 39
 -9.922853e+00 -2.074328e+00 -3.392931e+00 1.938483e+00 2.260924e+00 4.061410e+00 -1.566645e+00 5.241147e+00 -9.840344e-01 -1.858417e+00 3.332133e+00 2.362824e+00 4.509505e+00 -8.487850e-01 -1.311412e-01 1.867754e-02 2.587789e-02 -1.224861e-01 2.356525e-01 4.286349e-01 -1.007932e-01 1.801032e-01 3.260014e-01 -2.576428e-01 1.460385e-01 4.081243e-01 1.251236e-01 -2.172059e-01 -5.651949e-02 6.561796e-02 7.164694e-02 6.407403e-02 3.306288e-02 1.903345e-01 9.998906e-02 1.726771e-03 5.096915e-02 1.973763e-03 5.612599e-02
<VARIANCE> 39
 2.786257e+02 7.278380e+01 6.245856e+01 4.993563e+01 7.366241e+01 5.422583e+01 4.104884e+01 4.646713e+01 3.359649e+01 2.730033e+01 3.536092e+01 2.874726e+01 3.352479e+01 2.937208e+00 2.020431e+00 1.456602e+00 1.190935e+00 1.946404e+00 2.123500e+00 2.171199e+00 1.886297e+00 1.744516e+00 1.544191e+00 1.991845e+00 1.360684e+00 1.744848e+00 1.914202e-01 2.070171e-01 1.857699e-01 1.904868e-01 2.674911e-01 3.190000e-01 2.754197e-01 3.508249e-01 3.051845e-01 2.682509e-01 2.675409e-01 2.376698e-01 2.701865e-01
<GCONST> 1.125145e+02
<STATE> 3
<NUMMIXES> 2
<MIXTURE> 1 0.000000e+00
<MEAN> 39
 0.000000e+00 0.000000e+00 0.000000e+00 0.000000e+00 0.000000e+00 0.000000e+00 0.000000e+00 0.000000e+00 0.000000e+00 0.000000e+00 0.000000e+00 0.000000e+00 0.000000e+00 7.602786e-28 -6.781300e-28 2.817260e-28 -2.260459e-29 5.468585e-29 -1.506301e-28 1.148696e-28 -2.120465e-29 7.979356e-30 -5.320312e-29 5.792728e-29 -1.833769e-29 3.866608e-31 -4.988265e-02 4.965165e-03 -7.294576e-03 2.466788e-03 2.788171e-04 -1.618284e-03 -9.823618e-04 -1.922494e-03 -5.035132e-04 -1.812430e-03 -3.375670e-05 -6.368760e-04 -8.684045e-05
<VARIANCE> 39
 1.000000e-30 1.000000e-30 1.000000e-30 1.000000e-30 1.000000e-30 1.000000e-30 1.000000e-30 1.000000e-30 1.000000e-30 1.000000e-30 1.000000e-30 1.000000e-30 1.000000e-30 8.953985e-28 7.123556e-28 1.229489e-28 1.000000e-30 4.632556e-30 3.514752e-29 2.044002e-29 1.000000e-30 1.000000e-30 4.384753e-30 5.198011e-30 1.000000e-30 1.000000e-30 4.486060e-02 3.359458e-03 3.289693e-03 2.491937e-03 2.905590e-03 2.327311e-03 2.783720e-03 2.963404e-03 2.648251e-03 2.054753e-03 2.260878e-03 1.761504e-03 1.385205e-03
<GCONST> -1.300000e+11
<MIXTURE> 2 1.000000e+00
<MEAN> 39
 -1.029858e+01 -4.974249e+00 4.617464e-01 7.524225e+00 5.947411e+00 9.056480e+00 7.044335e-01 8.357084e+00 4.534259e+00 1.752253e+00 8.178484e-01 -2.501523e-01 8.230891e+00 2.126257e+00 -2.283732e+00 -4.372292e-01 -6.470888e-01 -1.174602e+00 -1.460902e-03 -5.711460e-01 6.007298e-01 5.421233e-01 7.989669e-01 1.134351e+00 -7.216495e-01 3.052413e-01 6.436595e-01 -1.402361e-01 2.372045e-01 -4.649006e-01 -4.249146e-01 -2.214958e-02 -5.020103e-01 -3.624300e-01 -8.638011e-01 -4.264250e-01 6.891297e-01 -1.162573e-01 -4.463226e-01
<VARIANCE> 39
 4.901865e+01 4.157742e+01 2.179584e+01 2.637594e+01 3.065116e+01 2.044812e+01 2.409383e+01 2.311060e+01 2.953505e+01 2.318471e+01 2.042734e+01 2.502425e+01 2.418315e+01 5.308889e+00 2.758492e+00 2.208009e+00 3.851528e+00 3.533413e+00 2.153278e+00 3.426379e+00 3.493180e+00 6.223169e+00 3.044304e+00 3.660691e+00 2.450712e+00 4.587382e+00 2.983753e-01 2.400713e-01 3.120474e-01 3.805109e-01 4.407302e-01 3.957347e-01 3.396831e-01 5.324293e-01 1.041058e+00 6.981224e-01 3.966016e-01 4.811262e-01 6.914348e-01
<GCONST> 1.197925e+02
<STATE> 4
<NUMMIXES> 2
<MIXTURE> 1 4.655198e-01
<MEAN> 39
 6.766481e+00 -1.574951e+01 1.566846e+00 5.859261e-01 -1.385452e+00 8.815020e+00 -8.812033e+00 5.912126e+00 -8.189249e+00 -5.714084e+00 1.527018e+01 -1.621010e+00 4.304509e+00 1.376854e+00 -8.396682e-01 2.535072e-01 -7.250873e-01 -6.341170e-01 3.978613e-01 -4.102721e-01 -3.942735e-01 -1.952018e+00 -1.014984e+00 2.024205e+00 7.316055e-01 -3.396523e-02 -6.379768e-01 5.394055e-01 -2.590608e-01 4.931779e-01 4.418145e-01 -7.023501e-02 6.586766e-01 1.689850e-01 7.127838e-01 4.704128e-01 -5.440523e-01 3.295717e-01 2.338727e-01
<VARIANCE> 39
 5.208352e+01 4.259349e+01 3.739231e+01 5.244177e+01 6.544215e+01 8.238591e+01 8.785902e+01 9.262154e+01 4.612421e+01 1.289274e+02 4.603393e+01 2.303167e+01 3.340063e+01 3.385719e+00 2.758136e+00 1.501102e+00 3.329263e+00 2.478451e+00 3.626797e+00 5.407647e+00 3.390074e+00 6.863446e+00 5.929633e+00 4.702072e+00 1.499123e+00 1.733403e+00 2.903939e-01 2.826752e-01 2.733184e-01 4.819184e-01 3.416791e-01 4.576196e-01 6.481721e-01 5.028371e-01 9.471003e-01 8.779864e-01 5.462810e-01 3.260178e-01 3.786754e-01
<GCONST> 1.284973e+02
<MIXTURE> 2 5.344790e-01
<MEAN> 39
 5.864424e+00 -1.349491e+01 -3.219086e+00 3.253016e-01 -5.360482e+00 9.461237e+00 2.976864e+00 6.334091e+00 -4.095219e+00 3.446365e+00 1.642814e+01 2.772859e+00 6.780986e+00 6.081923e-01 1.474415e+00 -3.899838e-01 8.932178e-01 7.097815e-01 -6.393042e-01 9.600841e-01 6.780838e-01 6.896452e-01 1.861300e-01 -4.594774e-01 5.737383e-02 -5.876324e-01 2.392513e-01 1.795981e-01 1.780602e-01 1.010012e-02 1.004545e-01 -2.944732e-01 -4.454771e-01 1.810088e-01 -1.165369e-01 -3.908089e-01 -4.570106e-02 -2.392242e-01 -2.367961e-01
<VARIANCE> 39
 7.431744e+01 4.955960e+01 4.932000e+01 4.108322e+01 9.789254e+01 7.845580e+01 6.138507e+01 5.589832e+01 3.760013e+01 4.830742e+01 5.449215e+01 2.788030e+01 2.072662e+01 1.527970e+00 2.935282e+00 2.580387e+00 2.656817e+00 4.026953e+00 2.645918e+00 3.624057e+00 2.396548e+00 2.242349e+00 3.117656e+00 2.568366e+00 2.439010e+00 1.726440e+00 1.318842e-01 2.900697e-01 3.487078e-01 2.574066e-01 4.348356e-01 4.911638e-01 5.297141e-01 4.025750e-01 3.835309e-01 3.849604e-01 3.764403e-01 3.691744e-01 2.663876e-01
<GCONST> 1.207584e+02
<TRANSP> 5
 0.000000e+00 1.000000e+00 0.000000e+00 0.000000e+00 0.000000e+00
 0.000000e+00 8.106028e-01 1.893972e-01 0.000000e+00 0.000000e+00
 0.000000e+00 0.000000e+00 7.861698e-01 2.138302e-01 0.000000e+00
 0.000000e+00 0.000000e+00 0.000000e+00 9.042187e-01 9.578126e-02
 0.000000e+00 0.000000e+00 0.000000e+00 0.000000e+00 0.000000e+00
<ENDHMM>
~h "tx"
<BEGINHMM>
<NUMSTATES> 5
<STATE> 2
<NUMMIXES> 2
<MIXTURE> 1 4.968975e-01
<MEAN> 39
 -1.745584e+01 -6.801114e+00 7.254360e+00 4.763087e+00 6.775645e-01 7.383280e+00 -2.956124e+00 5.144907e+00 -1.205683e+00 -4.968938e+00 -1.052124e+00 -1.965975e+00 2.725093e+00 -6.066681e-01 -4.211321e-01 -2.332316e+00 6.060975e-01 8.813791e-01 -3.352487e-01 2.881964e-01 -9.684514e-02 9.727507e-01 5.349917e-01 -6.658135e-01 2.740211e-01 1.094297e+00 4.744825e-01 -5.941692e-01 1.247144e-01 -6.378189e-02 6.184252e-02 1.776067e-01 -1.134188e-02 3.054071e-01 1.666469e-01 1.653208e-01 7.875349e-02 -2.115877e-02 1.906582e-01
<VARIANCE> 39
 1.240510e+02 1.780036e+02 9.985521e+01 9.708022e+01 1.097579e+02 3.317950e+01 3.658097e+01 2.944694e+01 3.528868e+01 2.278181e+01 4.855453e+01 2.094337e+01 1.659855e+01 3.158783e+00 8.715058e+00 7.004752e+00 2.436194e+00 3.609130e+00 2.642456e+00 2.554217e+00 2.706639e+00 2.411657e+00 1.944615e+00 1.868866e+00 1.366819e+00 2.739261e+00 3.063558e-01 4.920908e-01 7.976080e-01 4.268352e-01 4.501260e-01 3.307013e-01 3.372624e-01 3.366490e-01 3.772191e-01 3.004387e-01 3.691249e-01 2.342802e-01 3.480589e-01
<GCONST> 1.235658e+02
<MIXTURE> 2 5.031016e-01
<MEAN> 39
 -2.663813e+01 -6.452657e+00 -5.068104e+00 -2.724384e+00 -3.565074e+00 8.083580e-01 -3.663712e+00 9.924846e-01 -1.625977e+00 -6.354218e-01 4.591916e-01 -9.731408e-01 7.931526e-01 1.495696e-01 -1.182046e-01 -1.006269e-01 3.171219e-01 3.723536e-01 1.090706e-01 9.001225e-02 1.524987e-01 9.530995e-02 -7.051850e-02 -1.215938e-01 1.658951e-01 2.775362e-01 2.115396e-01 -1.473768e-01 1.472825e-01 3.066185e-01 2.796065e-01 2.601132e-01 1.397790e-01 1.978229e-01 1.423677e-01 -1.401062e-02 -2.832538e-02 8.024959e-02 2.557823e-01
<VARIANCE> 39
 5.512841e-01 1.348529e+00 1.869379e+00 2.682737e+00 3.736222e+00 4.835562e+00 5.565057e+00 5.758219e+00 7.760695e+00 7.504393e+00 6.731093e+00 5.954194e+00 5.123281e+00 1.656274e-01 4.340700e-01 4.534965e-01 7.210250e-01 1.029829e+00 9.167302e-01 1.003346e+00 1.082374e+00 1.122010e+00 1.065315e+00 1.050595e+00 9.729970e-01 1.000051e+00 9.732626e-02 1.018278e-01 1.647153e-01 2.283903e-01 3.000793e-01 2.402325e-01 2.030423e-01 2.403986e-01 2.449310e-01 2.168927e-01 1.963038e-01 1.744501e-01 2.574059e-01
<GCONST> 6.400805e+01
<STATE> 3
<NUMMIXES> 2
<MIXTURE> 1 6.536776e-01
<MEAN> 39
 -1.304408e+01 -1.207089e+01 1.190852e+00 9.079431e+00 4.910707e+00 8.865181e+00 -1.280195e+00 7.554035e+00 5.227828e+00 1.837376e-02 -2.076867e+00 -1.856947e+00 8.240180e+00 2.432236e+00 -2.853131e+00 5.627208e-01 4.296188e-01 -6.701708e-01 7.923430e-01 -3.264441e-01 3.720325e-01 4.104660e-01 -5.422041e-02 1.037428e+00 -6.779814e-02 -3.203638e-01 2.834519e-01 -4.479584e-01 6.039320e-01 -3.170310e-01 -4.948017e-01 1.809166e-01 -2.586180e-01 -1.896834e-01 -7.345688e-01 -6.100607e-01 6.318834e-01 1.642791e-01 -6.869946e-01
<VARIANCE> 39
 5.071710e+01 4.200394e+01 4.514210e+01 4.464901e+01 4.566473e+01 2.427645e+01 2.496771e+01 2.337540e+01 3.755216e+01 2.060475e+01 3.099136e+01 2.306748e+01 2.877300e+01 2.687336e+00 4.788499e+00 3.747518e+00 4.816972e+00 6.353362e+00 2.575444e+00 2.744843e+00 2.691125e+00 5.098660e+00 3.536820e+00 4.956794e+00 2.831204e+00 6.725626e+00 3.410254e-01 3.188557e-01 4.695899e-01 4.584304e-01 7.409425e-01 5.596812e-01 3.993555e-01 3.975334e-01 7.419081e-01 7.098024e-01 4.825917e-01 5.730942e-01 7.912341e-01
<GCONST> 1.259591e+02
<MIXTURE> 2 3.463218e-01
<MEAN> 39
 -1.504182e-01 -3.044903e+01 1.326000e+01 9.289936e+00 -2.746192e+00 1.697712e+01 -5.746617e+00 6.146556e+00 -3.014417e+00 -8.897963e+00 1.094842e+01 1.217404e+00 -2.062790e-01 1.921815e+00 -1.919027e+00 3.211296e+00 5.147272e-01 -2.056201e-01 2.241169e+00 -1.072076e+00 -8.057302e-01 -2.530735e+00 -2.406878e+00 1.963144e+00 8.518940e-01 -6.182424e-01 -1.609852e-01 1.617917e+00 -5.504228e-01 4.576723e-01 1.022090e+00 -4.845096e-01 6.030305e-02 -2.453114e-01 3.025011e-01 4.264672e-01 -9.306989e-01 -2.626090e-01 5.366100e-01
<VARIANCE> 39
 2.100674e+01 3.132381e+01 7.778551e+01 2.849556e+01 3.712415e+01 5.241946e+01 3.437511e+01 2.602094e+01 5.784253e+01 4.282884e+01 5.830949e+01 2.984875e+01 3.014536e+01 1.451994e+00 1.155141e+01 3.418784e+00 2.381779e+00 3.631779e+00 4.028188e+00 2.009132e+00 2.700862e+00 3.389075e+00 4.849351e+00 4.958485e+00 2.309520e+00 2.392998e+00 2.334588e-01 9.030235e-01 1.542620e+00 2.902789e-01 3.783020e-01 1.462198e+00 4.879775e-01 5.193207e-01 5.946445e-01 7.816663e-01 5.859246e-01 3.339472e-01 4.655005e-01
<GCONST> 1.268370e+02
<STATE> 4
<NUMMIXES> 2
<MIXTURE> 1 8.405572e-01
<MEAN> 39
 -3.463639e+00 -2.576699e+01 1.140425e+01 7.993442e+00 1.718599e+00 1.971858e+01 -2.596941e+00 6.585193e+00 -2.542602e+00 -1.055803e+01 5.347880e+00 4.139547e+00 6.384456e+00 4.693560e-01 2.023590e+00 -7.910868e-01 4.871821e-01 1.200854e+00 -5.220358e-01 2.908270e-01 -2.831122e-01 -2.103607e-01 4.799059e-02 -2.561626e-01 2.364012e-01 8.154771e-02 -4.679919e-02 5.190077e-01 -6.108693e-01 -2.593046e-02 2.203107e-01 -5.742608e-01 -1.491396e-01 1.260663e-01 1.878971e-01 9.468240e-02 -1.406313e-01 -9.933043e-02 -1.012878e-01
<VARIANCE> 39
 7.371204e+01 1.512185e+02 1.210689e+02 7.301074e+01 6.904238e+01 1.046875e+02 8.629372e+01 8.103676e+01 1.005818e+02 6.338848e+01 7.965044e+01 4.860668e+01 5.737550e+01 5.037539e+00 1.319618e+01 9.045225e+00 2.848332e+00 3.924833e+00 8.566620e+00 5.031035e+00 4.000370e+00 4.901841e+00 6.030887e+00 3.382191e+00 2.600324e+00 2.341458e+00 3.402848e-01 1.422261e+00 1.563582e+00 4.058592e-01 4.825735e-01 1.048768e+00 8.033921e-01 6.803672e-01 7.802908e-01 1.054761e+00 5.493401e-01 3.978619e-01 3.785055e-01
<GCONST> 1.441146e+02
<MIXTURE> 2 1.594406e-01
<MEAN> 39
 -1.063758e+01 -1.207150e+01 2.488559e+00 6.474205e+00 3.592200e+00 7.184156e+00 -4.262790e+00 4.660625e+00 -3.124496e+00 -3.973855e+00 5.463376e+00 2.279750e+00 4.632054e+00 -8.887483e-01 1.021028e+00 -5.612828e-01 2.101660e-03 3.501695e-02 -7.746176e-01 1.650508e-01 -3.238086e-02 2.732142e-01 4.187457e-01 -3.254245e-01 7.867759e-02 -1.665879e-01 5.838976e-02 -3.008620e-01 1.350247e-01 -4.009175e-02 -2.323551e-03 2.516379e-01 7.557162e-02 9.020579e-02 -2.963022e-02 -6.701359e-02 1.436736e-01 1.482399e-01 -1.096026e-02
<VARIANCE> 39
 1.573156e+02 1.568559e+02 1.839008e+02 9.305949e+01 1.170332e+02 1.299882e+02 1.756871e+02 1.036071e+02 6.872881e+01 5.468135e+01 8.933236e+01 4.344119e+01 6.897953e+01 1.900248e+00 2.167562e+00 1.594451e+00 1.455843e+00 1.388263e+00 2.367329e+00 1.720729e+00 1.816167e+00 1.958046e+00 1.227581e+00 1.366300e+00 1.034221e+00 1.305294e+00 1.006805e-01 2.270615e-01 1.561113e-01 9.623028e-02 1.090877e-01 2.516809e-01 1.776136e-01 1.777861e-01 1.743269e-01 1.476005e-01 1.483008e-01 1.443851e-01 1.424863e-01
<GCONST> 1.133036e+02
<TRANSP> 5
 0.000000e+00 1.000000e+00 0.000000e+00 0.000000e+00 0.000000e+00
 0.000000e+00 7.584211e-01 2.415788e-01 0.000000e+00 0.000000e+00
 0.000000e+00 0.000000e+00 8.558652e-01 1.441348e-01 0.000000e+00
 0.000000e+00 0.000000e+00 0.000000e+00 7.792045e-01 2.207955e-01
 0.000000e+00 0.000000e+00 0.000000e+00 0.000000e+00 0.000000e+00
<ENDHMM>
~h "uu"
<BEGINHMM>
<NUMSTATES> 7
<STATE> 2
<NUMMIXES> 2
<MIXTURE> 1 7.274910e-01
<MEAN> 39
 1.724129e+01 5.617083e+00 3.766044e+00 1.189178e+01 9.671769e+00 -9.971142e-01 -8.713503e+00 1.391991e+01 2.552973e+00 -1.773659e+01 -6.634484e+00 -7.466918e+00 -1.207612e+01 1.896269e-01 5.851066e-01 4.129733e-01 4.659650e-02 -8.610831e-01 -1.987675e+00 -7.447087e-01 1.232071e+00 1.333925e+00 1.054121e-01 -3.773803e-01 -3.052633e-01 -6.346624e-01 -1.116904e-01 -8.185926e-02 7.416960e-02 7.672164e-02 -2.801673e-03 8.230970e-02 8.332738e-02 -6.517474e-02 -4.498704e-02 1.066465e-01 1.137032e-01 1.054024e-01 1.008155e-01
<VARIANCE> 39
 4.889225e+00 4.152751e+01 1.778234e+01 5.934937e+01 4.103532e+01 5.953882e+01 5.643758e+01 3.216214e+01 5.167211e+01 1.229961e+02 2.859441e+01 6.391706e+01 1.988415e+01 3.004576e-01 6.410726e-01 5.697776e-01 1.301095e+00 1.498889e+00 1.218164e+00 3.284803e+00 1.729595e+00 1.080916e+00 1.586697e+00 1.836296e+00 1.246877e+00 1.256366e+00 4.694200e-02 7.680063e-02 1.031739e-01 1.081541e-01 1.000466e-01 2.439372e-01 2.196402e-01 2.303476e-01 1.551627e-01 2.784869e-01 1.435426e-01 1.218515e-01 1.357859e-01
<GCONST> 9.450179e+01
<MIXTURE> 2 2.725078e-01
<MEAN> 39
 8.723228e+00 -2.919072e+00 5.143617e+00 8.351482e+00 3.741254e+00 1.065033e+01 5.580363e+00 1.310523e+01 -3.044387e+00 -1.310258e+01 -4.917846e+00 -5.666385e+00 -4.044628e-01 1.906547e+00 1.288781e+00 2.728049e-02 4.811077e-01 -1.822071e-01 -2.284120e+00 -1.199965e+00 5.111070e-01 -6.289275e-02 -9.617780e-01 -3.752851e-01 -7.266396e-01 -1.346970e+00 -1.519486e-01 7.920570e-02 1.026696e-01 1.501015e-01 1.522887e-01 -4.325566e-01 -5.701299e-01 5.684237e-02 4.455762e-01 1.253398e-01 -1.056997e-01 -2.935798e-02 -2.107355e-01
<VARIANCE> 39
 1.008812e+02 2.125666e+02 1.023522e+02 7.214484e+01 4.109431e+01 1.111898e+02 7.640070e+01 3.523594e+01 5.614684e+01 5.350463e+01 1.118014e+02 4.707506e+01 2.392476e+01 1.724147e+00 9.357953e+00 3.115187e+00 2.772773e+00 2.122089e+00 9.349477e+00 4.578494e+00 3.239795e+00 6.097661e+00 4.279929e+00 5.163313e+00 1.979516e+00 2.078618e+00 2.582513e-01 1.171235e+00 5.115613e-01 3.081184e-01 2.602220e-01 9.424842e-01 6.281866e-01 4.333826e-01 9.259300e-01 6.707518e-01 8.630759e-01 3.176056e-01 2.769610e-01
<GCONST> 1.347692e+02
<STATE> 3
<NUMMIXES> 2
<MIXTURE> 1 4.844795e-01
<MEAN> 39
 1.652215e+01 1.122641e+01 1.114205e+01 1.420848e+01 -1.491958e+00 -1.603300e+01 -9.006018e+00 1.649662e+01 4.425158e+00 -1.337658e+01 -3.160950e+00 -1.097998e+00 -1.116902e+01 -2.670027e-02 1.292721e-01 1.405744e-01 -7.071325e-02 -2.843506e-01 -1.838499e-01 3.532128e-02 -1.117648e-01 -2.163401e-01 -4.119296e-02 1.860118e-01 3.529211e-01 1.182121e-01 3.370862e-03 -3.741488e-02 -6.971972e-02 -2.908004e-02 6.288244e-02 1.077185e-01 1.825776e-02 3.813485e-02 -8.307562e-03 -5.759827e-02 -5.134645e-02 -8.514347e-02 1.522791e-02
<VARIANCE> 39
 1.613141e+00 1.157288e+01 9.991083e+00 1.273161e+01 1.202978e+01 1.809643e+01 2.171185e+01 3.081746e+01 1.885674e+01 1.549133e+01 2.164686e+01 2.971611e+01 1.383011e+01 9.359622e-02 3.928640e-01 3.256219e-01 4.572167e-01 3.466964e-01 7.754468e-01 6.339309e-01 1.005050e+00 4.921053e-01 8.256049e-01 6.187271e-01 7.785038e-01 3.201149e-01 1.544389e-02 3.774847e-02 2.858480e-02 5.613077e-02 5.399314e-02 9.185778e-02 8.510814e-02 1.160168e-01 7.281772e-02 1.057892e-01 5.897160e-02 6.825005e-02 4.694480e-02
<GCONST> 5.912038e+01
<MIXTURE> 2 5.155190e-01
<MEAN> 39
 1.686894e+01 4.730618e+00 6.690391e+00 1.469799e+01 7.277293e+00 -8.085310e+00 -9.547874e+00 2.007684e+01 3.494833e+00 -2.417064e+01 -7.735853e+00 -4.824618e+00 -1.444262e+01 3.396387e-02 7.589187e-01 2.582892e-01 -3.560276e-01 -1.130881e+00 -1.095914e+00 3.074612e-01 5.310671e-01 7.524446e-01 1.069632e+00 -2.624133e-01 -5.544272e-01 -5.326816e-02 -1.466995e-02 -6.980120e-02 -2.404017e-02 6.851507e-02 1.859180e-01 2.141056e-01 -5.063959e-02 -3.031947e-01 -1.882594e-01 8.408652e-02 1.719776e-01 1.373854e-01 6.160685e-02
<VARIANCE> 39
 4.575405e+00 1.392913e+01 7.933979e+00 1.538888e+01 2.520911e+01 2.876283e+01 2.300131e+01 1.962008e+01 2.694306e+01 3.407045e+01 1.207266e+01 1.485231e+01 8.451002e+00 1.488315e-01 2.642131e-01 4.521343e-01 4.377848e-01 5.587648e-01 7.100709e-01 8.952033e-01 1.010233e+00 5.664354e-01 1.010274e+00 9.920405e-01 8.978454e-01 3.903532e-01 2.156355e-02 3.226141e-02 5.322158e-02 5.092982e-02 6.481574e-02 8.773447e-02 1.373234e-01 1.337001e-01 7.970089e-02 1.666733e-01 9.140711e-02 8.391927e-02 6.101252e-02
<GCONST> 6.564867e+01
<STATE> 4
<NUMMIXES> 2
<MIXTURE> 1 1.000000e+00
<MEAN> 39
 1.671814e+01 9.720366e+00 9.959290e+00 1.497973e+01 1.488820e+00 -1.628388e+01 -1.361181e+01 1.703383e+01 6.613614e+00 -1.388230e+01 -1.946999e+00 -5.269343e-01 -1.136055e+01 -2.308133e-02 2.266568e-01 3.536494e-02 -1.312076e-01 -2.110132e-01 7.282814e-02 2.279117e-01 -2.838173e-01 -2.707427e-01 2.437128e-01 1.937150e-01 2.166492e-01 2.266263e-01 -5.439550e-03 1.069359e-03 -8.761384e-02 -8.226584e-02 7.636273e-02 2.267816e-01 1.023868e-01 -8.485898e-02 -4.158883e-02 4.783835e-02 -6.487884e-02 -1.035841e-01 4.509337e-02
<VARIANCE> 39
 4.241034e+00 1.501359e+01 1.145748e+01 1.478364e+01 2.557442e+01 3.935456e+01 4.025005e+01 3.583412e+01 2.073271e+01 3.466802e+01 3.440597e+01 3.413422e+01 1.877781e+01 1.625137e-01 3.767444e-01 4.496805e-01 6.290228e-01 5.218949e-01 1.090679e+00 1.101270e+00 1.396063e+00 6.757460e-01 1.344221e+00 7.263166e-01 1.227464e+00 5.173104e-01 2.195898e-02 4.209811e-02 4.520701e-02 7.526609e-02 7.753621e-02 1.363946e-01 1.464286e-01 1.729567e-01 8.822809e-02 1.426807e-01 8.686645e-02 1.018792e-01 7.648326e-02
<GCONST> 7.410297e+01
<MIXTURE> 2 0.000000e+00
<MEAN> 39
 3.167866e+00 9.785287e+00 1.015721e+01 -1.126460e+01 -1.722803e+00 -2.314090e+01 -2.866014e+00 2.988645e+00 -1.257189e+01 -1.059196e+01 -8.080223e+00 -1.134586e+01 -1.309345e+01 -3.083741e-02 -3.272692e-02 -7.965064e-02 -1.481605e-01 -3.861562e-02 -1.373337e-03 8.863221e-04 1.868999e-02 -7.847838e-02 -1.271299e-01 -1.509936e-01 -7.997945e-02 -7.696240e-02 2.445563e-03 -3.155375e-02 -4.496285e-02 1.969696e-02 5.441263e-02 8.198876e-02 8.278470e-03 -1.894769e-02 -7.840006e-03 -4.695274e-02 -3.333806e-02 3.981774e-02 6.458335e-02
<VARIANCE> 39
 5.315660e+00 3.426040e+01 2.038534e+01 3.630614e+01 3.740158e+01 4.321970e+01 4.220889e+01 4.777325e+01 3.740923e+01 6.335217e+01 4.306703e+01 4.340738e+01 4.843743e+01 6.627245e-02 3.302242e-01 3.574037e-01 4.860166e-01 6.125762e-01 7.172378e-01 7.481684e-01 9.198427e-01 8.672596e-01 1.041075e+00 8.651084e-01 8.226215e-01 8.630548e-01 9.753287e-03 3.193334e-02 4.821209e-02 7.355566e-02 8.457156e-02 1.072942e-01 1.135506e-01 1.351915e-01 1.306799e-01 1.277171e-01 1.218774e-01 1.199830e-01 1.098237e-01
<GCONST> 7.718999e+01
<STATE> 5
<NUMMIXES> 2
<MIXTURE> 1 3.834912e-01
<MEAN> 39
 1.731366e+01 1.102849e+01 5.985270e+00 9.370974e+00 3.785697e+00 -6.065734e+00 -9.053711e+00 1.132125e+01 5.957993e+00 -9.602527e+00 -8.094726e+00 -9.723792e+00 -1.125423e+01 -6.804968e-02 1.541981e-01 -8.594989e-01 -9.602219e-01 6.252689e-01 2.306838e+00 1.259357e+00 -9.521463e-01 -6.048471e-01 4.784343e-01 -7.298523e-01 -9.691350e-01 7.445264e-01 -1.879439e-01 3.589857e-04 1.706503e-02 4.462359e-03 4.905120e-02 2.665851e-01 4.043643e-01 2.373694e-01 -7.268105e-02 -1.561212e-01 -3.990734e-02 1.475061e-01 1.740648e-01
<VARIANCE> 39
 4.787459e+00 1.060167e+01 1.797158e+01 1.180953e+01 3.323586e+01 4.694486e+01 3.433700e+01 2.269361e+01 1.756125e+01 3.023105e+01 4.421455e+01 5.112233e+01 1.586078e+01 3.069082e-01 4.181963e-01 5.411911e-01 7.354339e-01 5.514942e-01 9.681458e-01 1.683268e+00 1.773628e+00 8.392718e-01 1.331130e+00 8.948288e-01 9.722978e-01 6.241452e-01 5.367843e-02 5.258065e-02 9.776928e-02 1.435378e-01 1.188423e-01 1.704454e-01 2.157499e-01 2.268123e-01 1.155733e-01 1.638352e-01 1.333005e-01 1.668487e-01 9.425104e-02
<GCONST> 8.153934e+01
<MIXTURE> 2 6.165077e-01
<MEAN> 39
 1.678088e+01 4.458483e+00 5.736254e+00 1.518631e+01 8.604994e+00 -6.166637e+00 -8.145855e+00 1.927807e+01 1.610130e+00 -2.390561e+01 -8.003714e+00 -4.530282e+00 -1.096553e+01 -5.895475e-02 -2.799326e-01 -2.341287e-01 3.960080e-02 6.087012e-01 1.088674e+00 2.751602e-01 -4.607612e-01 -2.853338e-01 8.661786e-02 -2.820773e-01 -2.838185e-01 5.457421e-01 -1.011331e-01 5.099941e-03 8.656589e-02 1.381787e-02 3.853010e-02 2.200332e-01 9.012367e-02 -1.888825e-01 -7.703887e-02 1.524797e-01 5.611358e-02 7.285094e-03 9.762312e-02
<VARIANCE> 39
 5.021236e+00 2.271844e+01 1.758734e+01 2.179122e+01 5.534203e+01 4.288424e+01 2.729515e+01 4.022124e+01 2.581006e+01 4.483643e+01 2.095182e+01 2.681180e+01 1.522675e+01 1.901393e-01 4.841986e-01 6.553242e-01 9.164834e-01 5.259290e-01 1.108411e+00 1.284922e+00 1.296553e+00 6.150641e-01 1.564976e+00 9.061059e-01 9.609773e-01 5.471255e-01 3.499445e-02 6.063031e-02 9.653820e-02 1.093623e-01 1.016639e-01 1.600254e-01 2.032332e-01 1.773044e-01 1.015139e-01 1.941503e-01 1.027880e-01 1.027534e-01 8.494920e-02
<GCONST> 8.044871e+01
<STATE> 6
<NUMMIXES> 2
<MIXTURE> 1 3.286233e-01
<MEAN> 39
 4.574404e+00 1.727058e+01 1.313837e+01 1.220928e+01 6.072220e+00 2.975982e+00 -2.290107e+00 6.759606e+00 9.243350e-01 -1.815464e+00 1.528175e+00 -5.068938e-01 -2.279632e+00 -1.094421e+00 2.818117e-02 3.236189e-01 2.289844e-01 7.197471e-01 1.174525e+00 3.619466e-01 -5.396813e-01 -2.160318e-01 3.707445e-01 -6.331352e-02 -3.372308e-01 2.229087e-01 3.404883e-02 -1.230768e-01 -9.547020e-02 -6.670518e-02 -1.184277e-01 -2.068922e-01 -9.195110e-02 5.932231e-02 -1.296042e-02 -1.442694e-01 -3.721975e-02 1.896491e-02 -4.395617e-02
<VARIANCE> 39
 7.979201e+01 3.157929e+01 3.126972e+01 3.418412e+01 2.367541e+01 5.362253e+01 5.876054e+01 4.108916e+01 1.842809e+01 1.679181e+01 1.579819e+01 1.451091e+01 2.045251e+01 1.665622e+00 6.972665e-01 9.257659e-01 8.599012e-01 1.217165e+00 3.232177e+00 1.734556e+00 1.123803e+00 9.457407e-01 1.147001e+00 7.568870e-01 9.110406e-01 5.314651e-01 5.903463e-02 8.361589e-02 1.131126e-01 1.055299e-01 8.885694e-02 1.762029e-01 1.418489e-01 1.345908e-01 1.543358e-01 1.996541e-01 1.285292e-01 1.202383e-01 8.983485e-02
<GCONST> 8.872897e+01
<MIXTURE> 2 6.713752e-01
<MEAN> 39
 1.127294e+01 9.318809e+00 6.229368e+00 1.073434e+01 7.724701e+00 4.333570e+00 -4.731575e-01 1.180485e+01 3.407401e-01 -1.311649e+01 -9.349107e+00 -7.639635e+00 -4.926732e+00 -1.770192e+00 5.194597e-01 9.544638e-01 3.953043e-01 4.642991e-01 1.802527e+00 1.430231e+00 -4.025424e-01 -9.162326e-02 1.288159e+00 1.466247e-01 1.324249e-01 1.189006e+00 -2.386082e-01 -4.838552e-02 2.886339e-01 2.633727e-01 9.294772e-02 -1.107921e-01 -2.256058e-01 -4.921555e-02 8.316008e-02 4.064219e-02 7.552759e-02 8.914062e-02 -2.372002e-02
<VARIANCE> 39
 5.085274e+01 4.380991e+01 3.398556e+01 4.680642e+01 7.712502e+01 1.022659e+02 6.775175e+01 5.549707e+01 3.253844e+01 5.793975e+01 4.192670e+01 5.808915e+01 2.481732e+01 8.676119e-01 2.141196e+00 1.982848e+00 2.170454e+00 1.591070e+00 2.866665e+00 2.370300e+00 1.983392e+00 1.415855e+00 3.231220e+00 1.500628e+00 1.664862e+00 1.178244e+00 1.104559e-01 2.896326e-01 2.450985e-01 2.804590e-01 1.916525e-01 2.865068e-01 3.971461e-01 3.263251e-01 2.244987e-01 4.404754e-01 2.666915e-01 2.557443e-01 1.644559e-01
<GCONST> 1.123896e+02
<TRANSP> 7
 0.000000e+00 1.000000e+00 0.000000e+00 0.000000e+00 0.000000e+00 0.000000e+00 0.000000e+00
 0.000000e+00 8.394695e-01 1.605305e-01 0.000000e+00 0.000000e+00 0.000000e+00 0.000000e+00
 0.000000e+00 0.000000e+00 8.735772e-01 1.264227e-01 0.000000e+00 0.000000e+00 0.000000e+00
 0.000000e+00 0.000000e+00 0.000000e+00 8.040445e-01 1.959555e-01 0.000000e+00 0.000000e+00
 0.000000e+00 0.000000e+00 0.000000e+00 0.000000e+00 7.897162e-01 2.102838e-01 0.000000e+00
 0.000000e+00 0.000000e+00 0.000000e+00 0.000000e+00 0.000000e+00 8.384359e-01 1.615640e-01
 0.000000e+00 0.000000e+00 0.000000e+00 0.000000e+00 0.000000e+00 0.000000e+00 0.000000e+00
<ENDHMM>
~h "SIL"
<BEGINHMM>
<NUMSTATES> 5
<STATE> 2
<NUMMIXES> 2
<MIXTURE> 1 6.343535e-01
<MEAN> 39
 -9.558927e+00 -2.955737e+00 -2.506285e+00 4.132630e+00 -4.022208e-01 3.377083e+00 4.130420e+00 3.240064e-02 1.627516e+00 6.109094e-01 -1.318923e-01 4.498853e+00 -8.942712e-01 -6.928948e-02 3.829870e-02 -6.734582e-04 6.790166e-03 1.340300e-02 1.375837e-02 2.232590e-02 1.784532e-02 1.971374e-02 1.640245e-02 -5.062588e-03 -1.623879e-03 2.044486e-02 -2.696889e-03 4.180977e-03 1.697672e-02 -6.120666e-03 -4.228717e-03 6.320278e-04 -1.656370e-03 -2.444819e-03 6.286830e-03 -8.582719e-03 -1.216181e-02 -5.073556e-03 -4.548995e-03
<VARIANCE> 39
 4.186462e+01 7.402940e+01 3.099679e+01 3.340697e+01 4.645889e+01 4.345008e+01 2.968412e+01 3.228226e+01 3.052909e+01 2.290461e+01 1.840874e+01 1.938979e+01 2.506889e+01 1.440693e-01 3.649671e-01 4.392949e-01 5.817301e-01 7.149680e-01 8.990549e-01 1.019488e+00 1.134216e+00 1.207672e+00 1.148922e+00 1.105158e+00 1.056239e+00 9.328530e-01 2.465242e-02 5.432563e-02 8.521398e-02 1.176557e-01 1.502030e-01 1.916525e-01 2.139053e-01 2.402989e-01 2.571377e-01 2.458468e-01 2.369102e-01 2.262610e-01 2.008634e-01
<GCONST> 8.756295e+01
<MIXTURE> 2 3.656465e-01
<MEAN> 39
 -1.142323e+01 1.189757e+00 -1.150043e+00 2.073591e+00 1.984568e+00 1.458758e+00 4.666055e+00 1.247311e+00 2.303590e+00 6.847165e-01 -4.941858e-01 4.576219e+00 -1.241537e+00 -2.383977e-01 3.311241e-02 -1.279305e-02 2.437228e-02 2.793390e-02 1.407799e-01 9.608070e-02 8.677866e-02 1.114440e-01 1.082627e-01 3.608481e-02 3.226501e-02 6.382274e-02 1.940947e-02 3.630415e-03 8.181022e-03 2.361297e-02 2.753633e-02 -1.779759e-02 -3.005121e-02 -1.506858e-02 -2.992165e-02 -1.730591e-02 -1.236073e-02 -2.410082e-02 -2.872620e-03
<VARIANCE> 39
 4.480489e+01 6.668343e+01 4.001367e+01 5.130425e+01 5.788618e+01 6.144305e+01 5.531167e+01 4.810794e+01 4.128096e+01 3.064755e+01 2.747056e+01 2.852841e+01 3.160432e+01 1.514161e+00 2.485977e+00 2.332164e+00 2.129232e+00 2.084023e+00 2.247124e+00 2.255863e+00 2.281002e+00 2.357451e+00 2.077529e+00 1.851172e+00 1.746888e+00 1.433622e+00 2.191909e-01 3.888186e-01 4.058700e-01 3.762366e-01 3.878883e-01 4.263409e-01 4.298833e-01 4.452224e-01 4.540788e-01 4.104838e-01 3.682645e-01 3.519675e-01 2.906989e-01
<GCONST> 1.171093e+02
<STATE> 3
<NUMMIXES> 2
<MIXTURE> 1 6.952365e-01
<MEAN> 39
 -4.614826e-36 4.088473e-39 7.546833e-41 -2.003180e-38 -1.016468e-37 1.405099e-39 -7.973388e-43 7.664946e-39 -1.286953e-38 1.415171e-41 6.993320e-41 6.165994e-41 1.993908e-41 5.552645e-41 1.641061e-40 1.461414e-41 6.268008e-42 1.373272e-43 -2.054304e-42 1.018744e-41 -2.522337e-44 -2.642154e-39 1.558244e-42 1.841306e-42 3.833953e-42 -1.401298e-45 -1.041492e-02 1.165869e-03 -4.681267e-04 1.067939e-03 -3.674125e-04 -4.449329e-04 -4.800549e-04 -8.346118e-04 -4.919678e-04 -6.385805e-04 -4.974747e-04 3.757836e-04 -7.628010e-04
<VARIANCE> 39
 1.000000e-02 1.000000e-02 1.000000e-02 1.000000e-02 1.000000e-02 1.000000e-02 1.000000e-02 1.000000e-02 1.000000e-02 1.000000e-02 1.000000e-02 1.000000e-02 1.000000e-02 1.000000e-02 1.000000e-02 1.000000e-02 1.000000e-02 1.000000e-02 1.000000e-02 1.000000e-02 1.000000e-02 1.000000e-02 1.000000e-02 1.000000e-02 1.000000e-02 1.000000e-02 1.000000e-02 1.000000e-02 1.000000e-02 1.000000e-02 1.000000e-02 1.000000e-02 1.000000e-02 1.000000e-02 1.000000e-02 1.000000e-02 1.000000e-02 1.000000e-02 1.000000e-02
<GCONST> -1.079245e+02
<MIXTURE> 2 3.047635e-01
<MEAN> 39
 -3.073403e+01 1.425273e+01 -6.347635e+00 2.336389e+00 -7.483404e-01 1.066642e+01 -1.116233e+01 5.172227e+00 2.572465e-01 4.570226e-01 -1.853601e+00 4.806254e-01 3.082728e+00 -1.703352e-02 1.551152e-02 3.685159e-02 3.168634e-02 1.600667e-02 2.196852e-03 1.066339e-02 1.046215e-02 6.194680e-03 -2.002487e-03 -2.168891e-02 -2.960364e-02 -1.420306e-02 6.402527e-02 -2.888847e-02 1.946194e-02 2.577228e-02 -3.223030e-03 -2.393205e-02 1.966219e-02 7.751088e-04 -1.281637e-02 -3.375708e-03 5.767592e-03 -3.608371e-03 -2.195551e-02
<VARIANCE> 39
 7.722108e+01 3.633752e+01 1.621295e+01 8.805264e+00 1.116743e+01 2.184221e+01 5.614600e+01 9.989722e+00 7.891666e+00 5.587424e+00 5.826734e+00 7.160335e+00 7.011834e+00 2.358004e-01 2.073665e-01 2.922952e-01 2.998027e-01 3.982294e-01 4.320155e-01 5.057585e-01 5.343324e-01 5.329021e-01 5.498871e-01 5.658979e-01 5.152957e-01 4.229449e-01 9.825453e-02 6.422583e-02 7.037972e-02 7.732156e-02 9.463117e-02 1.049519e-01 1.273331e-01 1.155301e-01 1.163909e-01 1.174336e-01 1.189772e-01 1.076718e-01 9.144803e-02
<GCONST> 6.387524e+01
<STATE> 4
<NUMMIXES> 2
<MIXTURE> 1 5.103472e-01
<MEAN> 39
 -1.256804e+01 6.479373e+00 2.038786e+00 8.567524e+00 2.427899e+00 5.176943e+00 4.114543e-01 4.024741e+00 1.021508e+00 1.262775e+00 -1.256009e+00 9.477930e-01 3.137723e-02 -8.586787e-02 3.690922e-02 2.457621e-01 1.594240e-01 1.689443e-01 5.045222e-02 3.103973e-02 6.963865e-02 1.091670e-01 7.266748e-02 3.943156e-02 6.249414e-03 -1.648775e-02 1.051229e-02 -3.655927e-02 1.203187e-02 -3.837839e-02 1.769672e-03 -1.438639e-02 9.163395e-03 8.845959e-03 -7.347676e-03 -3.171584e-02 -5.209196e-03 1.373672e-02 -1.236865e-02
<VARIANCE> 39
 7.612381e+01 6.791934e+01 3.206618e+01 5.097443e+01 4.710615e+01 4.857334e+01 4.886001e+01 4.522910e+01 3.813118e+01 2.496777e+01 2.466132e+01 2.227277e+01 1.953887e+01 6.615518e-01 8.886617e-01 9.175950e-01 1.017072e+00 1.108420e+00 1.194592e+00 1.274129e+00 1.362965e+00 1.347271e+00 1.241394e+00 1.154082e+00 1.094268e+00 9.258087e-01 1.785030e-01 2.040161e-01 1.926394e-01 2.249779e-01 2.455316e-01 2.707347e-01 2.889727e-01 3.002017e-01 2.985176e-01 2.784478e-01 2.593574e-01 2.391664e-01 2.035334e-01
<GCONST> 1.016392e+02
<MIXTURE> 2 4.896528e-01
<MEAN> 39
 -1.020193e+01 3.199551e+00 2.373005e+00 5.452412e+00 2.385052e+00 2.486034e+00 1.580645e+00 3.328131e+00 1.332066e+00 -7.191740e-01 -2.476467e+00 1.183569e+00 -1.171889e+00 1.273982e+00 -3.833585e-01 4.658445e-01 1.614458e-01 4.792918e-02 -5.415885e-01 -1.025224e-01 -1.463170e-02 -2.565329e-01 -5.430909e-01 -4.399176e-01 -3.804746e-01 -3.820809e-01 6.029564e-02 -8.747855e-02 5.094163e-03 -3.020878e-02 5.573182e-03 -8.083791e-02 -5.798243e-02 -1.463480e-02 1.865065e-03 -3.867018e-02 -9.503978e-03 -1.724554e-02 6.533443e-03
<VARIANCE> 39
 9.643607e+01 9.792954e+01 6.559746e+01 7.856171e+01 8.060581e+01 7.181393e+01 7.312693e+01 5.997856e+01 4.726611e+01 4.559750e+01 3.356037e+01 3.527980e+01 2.955104e+01 5.178400e+00 5.150322e+00 3.770604e+00 3.737880e+00 3.884596e+00 3.836053e+00 4.076818e+00 3.454412e+00 3.297246e+00 2.993804e+00 2.481349e+00 2.278534e+00 1.766467e+00 7.921278e-01 8.026540e-01 6.029379e-01 5.582282e-01 6.184182e-01 6.333398e-01 6.467891e-01 5.800772e-01 5.622950e-01 5.424428e-01 4.485731e-01 3.958752e-01 3.163141e-01
<GCONST> 1.329065e+02
<TRANSP> 5
 0.000000e+00 1.000000e+00 0.000000e+00 0.000000e+00 0.000000e+00
 0.000000e+00 9.535479e-01 4.645211e-02 0.000000e+00 0.000000e+00
 0.000000e+00 0.000000e+00 9.280416e-01 7.195845e-02 0.000000e+00
 0.000000e+00 0.000000e+00 0.000000e+00 9.013939e-01 9.860607e-02
 0.000000e+00 0.000000e+00 0.000000e+00 0.000000e+00 0.000000e+00
<ENDHMM>
~h "dxhq"
<BEGINHMM>
<NUMSTATES> 5
<STATE> 2
<NUMMIXES> 2
<MIXTURE> 1 5.000000e-01
<MEAN> 39
 2.422447e+01 -4.091280e+00 -2.224704e+01 -5.428290e+00 8.563605e+00 -5.642519e+00 -1.840445e+01 9.860844e+00 1.179102e+01 -4.606005e+00 -1.225965e+00 3.907565e-01 2.838257e+00 5.410079e-02 3.602452e-01 -1.079849e-01 -3.288822e-01 2.397291e-01 1.171980e+00 5.891464e-01 -6.328553e-01 -6.775066e-01 1.605010e-02 2.392614e-02 -2.540953e-01 1.437291e-01 -4.768471e-02 1.093642e-01 1.510381e-01 7.584337e-02 -1.208935e-02 3.147024e-02 3.485624e-02 -1.725928e-01 -5.301895e-02 1.301201e-01 -1.727491e-02 -1.154988e-01 -1.076871e-01
<VARIANCE> 39
 8.898545e+00 4.013761e+00 8.840327e+00 6.784913e+00 1.185275e+01 2.949640e+01 1.800266e+01 2.954723e+01 1.287690e+01 1.508081e+01 1.066585e+01 2.978074e+00 7.882524e+00 5.403449e-01 5.289156e-01 7.033716e-01 3.454850e-01 6.002928e-01 4.771414e-01 7.906200e-01 1.703883e+00 2.717691e-01 1.124349e+00 5.750523e-01 5.406882e-01 3.867734e-01 5.907175e-02 3.364570e-02 6.782404e-02 5.208690e-02 6.492737e-02 7.666391e-02 9.196143e-02 1.988866e-01 3.426104e-02 1.252208e-01 8.128454e-02 5.012977e-02 4.607364e-02
<GCONST> 6.014620e+01
<MIXTURE> 2 5.000000e-01
<MEAN> 39
 2.422447e+01 -4.091280e+00 -2.224704e+01 -5.428290e+00 8.563605e+00 -5.642519e+00 -1.840445e+01 9.860844e+00 1.179102e+01 -4.606005e+00 -1.225965e+00 3.907565e-01 2.838257e+00 5.410079e-02 3.602452e-01 -1.079849e-01 -3.288822e-01 2.397291e-01 1.171980e+00 5.891464e-01 -6.328553e-01 -6.775066e-01 1.605010e-02 2.392614e-02 -2.540953e-01 1.437291e-01 -4.768471e-02 1.093642e-01 1.510381e-01 7.584337e-02 -1.208935e-02 3.147024e-02 3.485624e-02 -1.725928e-01 -5.301895e-02 1.301201e-01 -1.727491e-02 -1.154988e-01 -1.076871e-01
<VARIANCE> 39
 8.898545e+00 4.013761e+00 8.840327e+00 6.784913e+00 1.185275e+01 2.949640e+01 1.800266e+01 2.954723e+01 1.287690e+01 1.508081e+01 1.066585e+01 2.978074e+00 7.882524e+00 5.403449e-01 5.289156e-01 7.033716e-01 3.454850e-01 6.002928e-01 4.771414e-01 7.906200e-01 1.703883e+00 2.717691e-01 1.124349e+00 5.750523e-01 5.406882e-01 3.867734e-01 5.907175e-02 3.364570e-02 6.782404e-02 5.208690e-02 6.492737e-02 7.666391e-02 9.196143e-02 1.988866e-01 3.426104e-02 1.252208e-01 8.128454e-02 5.012977e-02 4.607364e-02
<GCONST> 6.014620e+01
<STATE> 3
<NUMMIXES> 2
<MIXTURE> 1 5.000000e-01
<MEAN> 39
 2.213015e+01 1.879173e+00 -1.466642e+01 -2.986981e+00 6.221079e+00 2.876102e-01 -1.064080e+01 5.658340e+00 5.692322e+00 -5.933634e-01 -1.833289e-02 -6.848653e+00 -7.970283e-01 -1.944679e-01 1.453997e-01 1.064894e+00 1.048843e+00 -1.376765e+00 -6.477675e-01 1.705035e+00 7.467198e-01 -8.086257e-01 4.143088e-01 6.188189e-01 -4.198072e-01 -5.803137e-01 -5.178874e-02 -3.139750e-01 -4.566581e-02 1.049170e-01 -2.439041e-01 -1.179968e-01 3.375466e-01 4.445876e-01 4.197070e-02 -9.288421e-02 1.121618e-01 2.596326e-01 2.719632e-01
<VARIANCE> 39
 5.108902e+00 3.898431e+00 1.743306e+01 1.120451e+01 2.696426e+01 2.322005e+01 1.909034e+01 3.167542e+01 9.640033e+00 1.098456e+01 1.262575e+01 6.488087e+00 1.366711e+01 2.722307e-01 1.247407e+00 8.702244e-01 4.045571e-01 1.644814e+00 1.665263e+00 1.830346e+00 3.655478e+00 4.332433e-01 1.680855e+00 8.300343e-01 1.454826e+00 1.024148e+00 4.424235e-02 8.267255e-02 1.406539e-01 6.846787e-02 2.226318e-01 4.369603e-01 1.973589e-01 2.929802e-01 8.662972e-02 2.554224e-01 1.656170e-01 1.513734e-01 1.357775e-01
<GCONST> 8.022235e+01
<MIXTURE> 2 5.000000e-01
<MEAN> 39
 2.213015e+01 1.879173e+00 -1.466642e+01 -2.986981e+00 6.221079e+00 2.876102e-01 -1.064080e+01 5.658340e+00 5.692322e+00 -5.933634e-01 -1.833289e-02 -6.848653e+00 -7.970283e-01 -1.944679e-01 1.453997e-01 1.064894e+00 1.048843e+00 -1.376765e+00 -6.477675e-01 1.705035e+00 7.467198e-01 -8.086257e-01 4.143088e-01 6.188189e-01 -4.198072e-01 -5.803137e-01 -5.178874e-02 -3.139750e-01 -4.566581e-02 1.049170e-01 -2.439041e-01 -1.179968e-01 3.375466e-01 4.445876e-01 4.197070e-02 -9.288421e-02 1.121618e-01 2.596326e-01 2.719632e-01
<VARIANCE> 39
 5.108902e+00 3.898431e+00 1.743306e+01 1.120451e+01 2.696426e+01 2.322005e+01 1.909034e+01 3.167542e+01 9.640033e+00 1.098456e+01 1.262575e+01 6.488087e+00 1.366711e+01 2.722307e-01 1.247407e+00 8.702244e-01 4.045571e-01 1.644814e+00 1.665263e+00 1.830346e+00 3.655478e+00 4.332433e-01 1.680855e+00 8.300343e-01 1.454826e+00 1.024148e+00 4.424235e-02 8.267255e-02 1.406539e-01 6.846787e-02 2.226318e-01 4.369603e-01 1.973589e-01 2.929802e-01 8.662972e-02 2.554224e-01 1.656170e-01 1.513734e-01 1.357775e-01
<GCONST> 8.022235e+01
<STATE> 4
<NUMMIXES> 2
<MIXTURE> 1 5.000000e-01
<MEAN> 39
 1.653454e+01 -1.251432e+01 -7.556025e+00 5.383120e+00 -1.014468e+01 2.359473e+00 1.420988e+01 1.642518e+01 7.538963e+00 1.006715e+01 6.027298e+00 -5.445189e+00 4.912487e+00 -3.524136e-03 -2.816576e-01 2.198886e-01 1.226974e-01 -2.727827e-01 4.224835e-02 2.967251e-01 6.428541e-02 -8.056749e-02 -2.288652e-02 3.364490e-02 6.325635e-02 2.451738e-01 5.670463e-02 5.821504e-02 -8.341599e-02 -8.232302e-02 1.114507e-01 -5.361751e-02 -2.196403e-01 -9.150305e-02 -1.051985e-02 -1.118980e-01 -4.749656e-02 2.428501e-02 -4.199271e-02
<VARIANCE> 39
 9.681149e+00 4.087104e+01 1.233198e+01 8.768914e+00 2.461941e+01 2.227344e+01 4.696815e+01 1.522184e+01 2.051196e+01 2.559937e+01 7.367053e+00 7.731829e+00 1.035336e+01 6.605756e-01 2.450043e+00 8.063645e-01 8.511709e-01 9.375954e-01 2.011356e+00 3.463677e+00 8.833287e-01 1.690845e+00 2.214333e+00 9.105474e-01 8.252294e-01 1.115839e+00 2.767659e-02 1.646243e-01 1.394843e-01 1.290656e-01 1.246996e-01 2.468115e-01 1.196711e-01 1.198554e-01 2.508880e-01 1.969042e-01 1.928279e-01 1.617274e-01 1.396361e-01
<GCONST> 8.528708e+01
<MIXTURE> 2 5.000000e-01
<MEAN> 39
 1.653454e+01 -1.251432e+01 -7.556025e+00 5.383120e+00 -1.014468e+01 2.359473e+00 1.420988e+01 1.642518e+01 7.538963e+00 1.006715e+01 6.027298e+00 -5.445189e+00 4.912487e+00 -3.524136e-03 -2.816576e-01 2.198886e-01 1.226974e-01 -2.727827e-01 4.224835e-02 2.967251e-01 6.428541e-02 -8.056749e-02 -2.288652e-02 3.364490e-02 6.325635e-02 2.451738e-01 5.670463e-02 5.821504e-02 -8.341599e-02 -8.232302e-02 1.114507e-01 -5.361751e-02 -2.196403e-01 -9.150305e-02 -1.051985e-02 -1.118980e-01 -4.749656e-02 2.428501e-02 -4.199271e-02
<VARIANCE> 39
 9.681149e+00 4.087104e+01 1.233198e+01 8.768914e+00 2.461941e+01 2.227344e+01 4.696815e+01 1.522184e+01 2.051196e+01 2.559937e+01 7.367053e+00 7.731829e+00 1.035336e+01 6.605756e-01 2.450043e+00 8.063645e-01 8.511709e-01 9.375954e-01 2.011356e+00 3.463677e+00 8.833287e-01 1.690845e+00 2.214333e+00 9.105474e-01 8.252294e-01 1.115839e+00 2.767659e-02 1.646243e-01 1.394843e-01 1.290656e-01 1.246996e-01 2.468115e-01 1.196711e-01 1.198554e-01 2.508880e-01 1.969042e-01 1.928279e-01 1.617274e-01 1.396361e-01
<GCONST> 8.528708e+01
<TRANSP> 5
 0.000000e+00 1.000000e+00 0.000000e+00 0.000000e+00 0.000000e+00
 0.000000e+00 9.178333e-01 8.216671e-02 0.000000e+00 0.000000e+00
 0.000000e+00 0.000000e+00 8.326847e-01 1.673153e-01 0.000000e+00
 0.000000e+00 0.000000e+00 0.000000e+00 9.331229e-01 6.687710e-02
 0.000000e+00 0.000000e+00 0.000000e+00 0.000000e+00 0.000000e+00
<ENDHMM>
~h "dxh"
<BEGINHMM>
<NUMSTATES> 5
<STATE> 2
<NUMMIXES> 2
<MIXTURE> 1 5.000000e-01
<MEAN> 39
 5.098849e+00 -6.514025e+00 2.430083e+00 1.092778e+01 1.083864e+01 1.500667e+00 -1.140838e+01 9.359310e+00 -3.377835e+00 -1.113024e+01 6.044074e+00 -4.088247e-01 -3.646332e+00 -1.380477e-02 1.475701e-03 -1.072459e-03 -5.524765e-03 -3.099398e-03 2.005852e-03 8.190720e-04 -5.087083e-03 2.488556e-03 5.650900e-03 -1.806995e-03 5.936168e-04 1.443354e-03 -1.213556e-03 -1.404243e-04 -1.926630e-04 -5.029775e-04 -4.298560e-04 2.249404e-04 5.535607e-04 -2.933974e-04 7.204357e-05 8.173331e-04 -1.603794e-04 -1.434907e-04 3.551734e-04
<VARIANCE> 39
 2.696502e+02 1.642264e+02 1.776205e+02 1.699619e+02 1.712323e+02 1.501611e+02 1.653076e+02 1.112998e+02 8.102897e+01 1.132308e+02 1.038732e+02 3.576029e+01 7.139818e+01 2.864393e+00 3.049235e+00 2.950589e+00 2.442850e+00 2.488132e+00 2.882445e+00 3.574063e+00 2.837703e+00 2.254665e+00 3.083899e+00 2.848865e+00 1.410452e+00 1.706605e+00 2.059384e-01 2.861855e-01 3.165202e-01 2.798763e-01 2.958655e-01 3.292713e-01 4.082396e-01 3.875320e-01 3.475762e-01 4.161765e-01 3.917231e-01 2.236369e-01 2.362328e-01
<GCONST> 1.313330e+02
<MIXTURE> 2 5.000000e-01
<MEAN> 39
 5.098849e+00 -6.514025e+00 2.430083e+00 1.092778e+01 1.083864e+01 1.500667e+00 -1.140838e+01 9.359310e+00 -3.377835e+00 -1.113024e+01 6.044074e+00 -4.088247e-01 -3.646332e+00 -1.380477e-02 1.475701e-03 -1.072459e-03 -5.524765e-03 -3.099398e-03 2.005852e-03 8.190720e-04 -5.087083e-03 2.488556e-03 5.650900e-03 -1.806995e-03 5.936168e-04 1.443354e-03 -1.213556e-03 -1.404243e-04 -1.926630e-04 -5.029775e-04 -4.298560e-04 2.249404e-04 5.535607e-04 -2.933974e-04 7.204357e-05 8.173331e-04 -1.603794e-04 -1.434907e-04 3.551734e-04
<VARIANCE> 39
 2.696502e+02 1.642264e+02 1.776205e+02 1.699619e+02 1.712323e+02 1.501611e+02 1.653076e+02 1.112998e+02 8.102897e+01 1.132308e+02 1.038732e+02 3.576029e+01 7.139818e+01 2.864393e+00 3.049235e+00 2.950589e+00 2.442850e+00 2.488132e+00 2.882445e+00 3.574063e+00 2.837703e+00 2.254665e+00 3.083899e+00 2.848865e+00 1.410452e+00 1.706605e+00 2.059384e-01 2.861855e-01 3.165202e-01 2.798763e-01 2.958655e-01 3.292713e-01 4.082396e-01 3.875320e-01 3.475762e-01 4.161765e-01 3.917231e-01 2.236369e-01 2.362328e-01
<GCONST> 1.313330e+02
<STATE> 3
<NUMMIXES> 2
<MIXTURE> 1 5.000000e-01
<MEAN> 39
 5.098849e+00 -6.514025e+00 2.430083e+00 1.092778e+01 1.083864e+01 1.500667e+00 -1.140838e+01 9.359310e+00 -3.377835e+00 -1.113024e+01 6.044074e+00 -4.088247e-01 -3.646332e+00 -1.380477e-02 1.475701e-03 -1.072459e-03 -5.524765e-03 -3.099398e-03 2.005852e-03 8.190720e-04 -5.087083e-03 2.488556e-03 5.650900e-03 -1.806995e-03 5.936168e-04 1.443354e-03 -1.213556e-03 -1.404243e-04 -1.926630e-04 -5.029775e-04 -4.298560e-04 2.249404e-04 5.535607e-04 -2.933974e-04 7.204357e-05 8.173331e-04 -1.603794e-04 -1.434907e-04 3.551734e-04
<VARIANCE> 39
 2.696502e+02 1.642264e+02 1.776205e+02 1.699619e+02 1.712323e+02 1.501611e+02 1.653076e+02 1.112998e+02 8.102897e+01 1.132308e+02 1.038732e+02 3.576029e+01 7.139818e+01 2.864393e+00 3.049235e+00 2.950589e+00 2.442850e+00 2.488132e+00 2.882445e+00 3.574063e+00 2.837703e+00 2.254665e+00 3.083899e+00 2.848865e+00 1.410452e+00 1.706605e+00 2.059384e-01 2.861855e-01 3.165202e-01 2.798763e-01 2.958655e-01 3.292713e-01 4.082396e-01 3.875320e-01 3.475762e-01 4.161765e-01 3.917231e-01 2.236369e-01 2.362328e-01
<GCONST> 1.313330e+02
<MIXTURE> 2 5.000000e-01
<MEAN> 39
 5.098849e+00 -6.514025e+00 2.430083e+00 1.092778e+01 1.083864e+01 1.500667e+00 -1.140838e+01 9.359310e+00 -3.377835e+00 -1.113024e+01 6.044074e+00 -4.088247e-01 -3.646332e+00 -1.380477e-02 1.475701e-03 -1.072459e-03 -5.524765e-03 -3.099398e-03 2.005852e-03 8.190720e-04 -5.087083e-03 2.488556e-03 5.650900e-03 -1.806995e-03 5.936168e-04 1.443354e-03 -1.213556e-03 -1.404243e-04 -1.926630e-04 -5.029775e-04 -4.298560e-04 2.249404e-04 5.535607e-04 -2.933974e-04 7.204357e-05 8.173331e-04 -1.603794e-04 -1.434907e-04 3.551734e-04
<VARIANCE> 39
 2.696502e+02 1.642264e+02 1.776205e+02 1.699619e+02 1.712323e+02 1.501611e+02 1.653076e+02 1.112998e+02 8.102897e+01 1.132308e+02 1.038732e+02 3.576029e+01 7.139818e+01 2.864393e+00 3.049235e+00 2.950589e+00 2.442850e+00 2.488132e+00 2.882445e+00 3.574063e+00 2.837703e+00 2.254665e+00 3.083899e+00 2.848865e+00 1.410452e+00 1.706605e+00 2.059384e-01 2.861855e-01 3.165202e-01 2.798763e-01 2.958655e-01 3.292713e-01 4.082396e-01 3.875320e-01 3.475762e-01 4.161765e-01 3.917231e-01 2.236369e-01 2.362328e-01
<GCONST> 1.313330e+02
<STATE> 4
<NUMMIXES> 2
<MIXTURE> 1 5.000000e-01
<MEAN> 39
 5.098849e+00 -6.514025e+00 2.430083e+00 1.092778e+01 1.083864e+01 1.500667e+00 -1.140838e+01 9.359310e+00 -3.377835e+00 -1.113024e+01 6.044074e+00 -4.088247e-01 -3.646332e+00 -1.380477e-02 1.475701e-03 -1.072459e-03 -5.524765e-03 -3.099398e-03 2.005852e-03 8.190720e-04 -5.087083e-03 2.488556e-03 5.650900e-03 -1.806995e-03 5.936168e-04 1.443354e-03 -1.213556e-03 -1.404243e-04 -1.926630e-04 -5.029775e-04 -4.298560e-04 2.249404e-04 5.535607e-04 -2.933974e-04 7.204357e-05 8.173331e-04 -1.603794e-04 -1.434907e-04 3.551734e-04
<VARIANCE> 39
 2.696502e+02 1.642264e+02 1.776205e+02 1.699619e+02 1.712323e+02 1.501611e+02 1.653076e+02 1.112998e+02 8.102897e+01 1.132308e+02 1.038732e+02 3.576029e+01 7.139818e+01 2.864393e+00 3.049235e+00 2.950589e+00 2.442850e+00 2.488132e+00 2.882445e+00 3.574063e+00 2.837703e+00 2.254665e+00 3.083899e+00 2.848865e+00 1.410452e+00 1.706605e+00 2.059384e-01 2.861855e-01 3.165202e-01 2.798763e-01 2.958655e-01 3.292713e-01 4.082396e-01 3.875320e-01 3.475762e-01 4.161765e-01 3.917231e-01 2.236369e-01 2.362328e-01
<GCONST> 1.313330e+02
<MIXTURE> 2 5.000000e-01
<MEAN> 39
 5.098849e+00 -6.514025e+00 2.430083e+00 1.092778e+01 1.083864e+01 1.500667e+00 -1.140838e+01 9.359310e+00 -3.377835e+00 -1.113024e+01 6.044074e+00 -4.088247e-01 -3.646332e+00 -1.380477e-02 1.475701e-03 -1.072459e-03 -5.524765e-03 -3.099398e-03 2.005852e-03 8.190720e-04 -5.087083e-03 2.488556e-03 5.650900e-03 -1.806995e-03 5.936168e-04 1.443354e-03 -1.213556e-03 -1.404243e-04 -1.926630e-04 -5.029775e-04 -4.298560e-04 2.249404e-04 5.535607e-04 -2.933974e-04 7.204357e-05 8.173331e-04 -1.603794e-04 -1.434907e-04 3.551734e-04
<VARIANCE> 39
 2.696502e+02 1.642264e+02 1.776205e+02 1.699619e+02 1.712323e+02 1.501611e+02 1.653076e+02 1.112998e+02 8.102897e+01 1.132308e+02 1.038732e+02 3.576029e+01 7.139818e+01 2.864393e+00 3.049235e+00 2.950589e+00 2.442850e+00 2.488132e+00 2.882445e+00 3.574063e+00 2.837703e+00 2.254665e+00 3.083899e+00 2.848865e+00 1.410452e+00 1.706605e+00 2.059384e-01 2.861855e-01 3.165202e-01 2.798763e-01 2.958655e-01 3.292713e-01 4.082396e-01 3.875320e-01 3.475762e-01 4.161765e-01 3.917231e-01 2.236369e-01 2.362328e-01
<GCONST> 1.313330e+02
<TRANSP> 5
 0.000000e+00 1.000000e+00 0.000000e+00 0.000000e+00 0.000000e+00
 0.000000e+00 6.000000e-01 4.000000e-01 0.000000e+00 0.000000e+00
 0.000000e+00 0.000000e+00 6.000000e-01 4.000000e-01 0.000000e+00
 0.000000e+00 0.000000e+00 0.000000e+00 6.000000e-01 4.000000e-01
 0.000000e+00 0.000000e+00 0.000000e+00 0.000000e+00 0.000000e+00
<ENDHMM>
~h "dxq"
<BEGINHMM>
<NUMSTATES> 5
<STATE> 2
<NUMMIXES> 2
<MIXTURE> 1 5.000000e-01
<MEAN> 39
 2.217407e+01 7.015855e+00 -7.873071e+00 -1.614098e+00 7.469777e+00 -2.692801e+00 -1.990624e+01 3.053062e-01 6.190393e+00 -3.788702e-01 -8.921168e-02 -9.693584e+00 -7.994870e+00 1.252206e-01 2.424292e-01 -3.420023e-01 -8.136268e-01 -1.248959e-01 1.429222e+00 1.538631e+00 -1.546921e-01 -1.236351e+00 -7.181625e-01 -8.959405e-03 8.441816e-02 -5.619806e-02 -7.135786e-02 -2.917334e-03 8.330407e-02 9.260783e-02 -8.959035e-02 -2.321028e-02 2.474532e-01 1.573632e-01 -1.670036e-02 -1.170323e-01 -1.576154e-01 3.883110e-02 9.080307e-02
<VARIANCE> 39
 6.332114e+00 4.476480e+01 7.356455e+01 5.118780e+01 3.976331e+01 6.463613e+01 7.301537e+01 2.507294e+01 5.629090e+01 4.701750e+01 1.848755e+01 3.425409e+01 3.594199e+01 4.115905e-01 2.931310e-01 8.749865e-01 1.276242e+00 7.929776e-01 1.034252e+00 3.348802e+00 1.696838e+00 6.892121e-01 1.958472e+00 1.178651e+00 9.184977e-01 1.039428e+00 5.737321e-02 4.610080e-02 1.166859e-01 1.306901e-01 1.053964e-01 1.159483e-01 2.586188e-01 1.963536e-01 1.067174e-01 1.775512e-01 1.301519e-01 8.611387e-02 8.904412e-02
<GCONST> 9.040956e+01
<MIXTURE> 2 5.000000e-01
<MEAN> 39
 2.217407e+01 7.015855e+00 -7.873071e+00 -1.614098e+00 7.469777e+00 -2.692801e+00 -1.990624e+01 3.053062e-01 6.190393e+00 -3.788702e-01 -8.921168e-02 -9.693584e+00 -7.994870e+00 1.252206e-01 2.424292e-01 -3.420023e-01 -8.136268e-01 -1.248959e-01 1.429222e+00 1.538631e+00 -1.546921e-01 -1.236351e+00 -7.181625e-01 -8.959405e-03 8.441816e-02 -5.619806e-02 -7.135786e-02 -2.917334e-03 8.330407e-02 9.260783e-02 -8.959035e-02 -2.321028e-02 2.474532e-01 1.573632e-01 -1.670036e-02 -1.170323e-01 -1.576154e-01 3.883110e-02 9.080307e-02
<VARIANCE> 39
 6.332114e+00 4.476480e+01 7.356455e+01 5.118780e+01 3.976331e+01 6.463613e+01 7.301537e+01 2.507294e+01 5.629090e+01 4.701750e+01 1.848755e+01 3.425409e+01 3.594199e+01 4.115905e-01 2.931310e-01 8.749865e-01 1.276242e+00 7.929776e-01 1.034252e+00 3.348802e+00 1.696838e+00 6.892121e-01 1.958472e+00 1.178651e+00 9.184977e-01 1.039428e+00 5.737321e-02 4.610080e-02 1.166859e-01 1.306901e-01 1.053964e-01 1.159483e-01 2.586188e-01 1.963536e-01 1.067174e-01 1.775512e-01 1.301519e-01 8.611387e-02 8.904412e-02
<GCONST> 9.040956e+01
<STATE> 3
<NUMMIXES> 2
<MIXTURE> 1 5.000000e-01
<MEAN> 39
 2.096943e+01 4.968610e+00 -8.339767e+00 -9.525015e-01 6.165812e+00 4.401987e+00 -3.195513e+00 7.959041e+00 -3.884338e+00 -1.349120e+01 -5.138556e+00 -6.151958e+00 -1.948746e+00 -2.356802e-01 -1.412317e+00 5.038602e-01 1.981841e+00 2.668507e-01 -1.498457e+00 -5.101189e-01 1.570807e+00 1.094422e-01 -1.033697e+00 1.956240e-01 1.517840e-01 3.828610e-01 3.430963e-02 -2.982114e-01 -4.252211e-02 9.698583e-02 8.335779e-02 -3.475724e-01 -5.753987e-01 2.607580e-02 1.378664e-01 1.028602e-01 4.273282e-01 3.946498e-02 -1.197900e-01
<VARIANCE> 39
 8.134481e+00 4.990171e+01 2.935731e+01 5.934609e+01 4.685395e+01 5.745634e+01 7.528730e+01 4.536126e+01 2.670044e+01 2.990436e+01 4.276656e+01 1.825385e+01 1.174389e+01 8.217573e-01 1.998181e+00 1.845149e+00 1.164354e+00 1.737281e+00 2.363348e+00 6.235725e+00 1.939550e+00 1.676443e+00 1.765903e+00 3.958703e+00 1.141462e+00 1.609414e+00 1.696767e-01 3.377036e-01 2.954602e-01 3.621276e-01 2.307898e-01 3.952973e-01 8.444196e-01 3.444907e-01 2.770206e-01 3.052039e-01 4.419714e-01 1.921849e-01 2.218487e-01
<GCONST> 1.100561e+02
<MIXTURE> 2 5.000000e-01
<MEAN> 39
 2.096943e+01 4.968610e+00 -8.339767e+00 -9.525015e-01 6.165812e+00 4.401987e+00 -3.195513e+00 7.959041e+00 -3.884338e+00 -1.349120e+01 -5.138556e+00 -6.151958e+00 -1.948746e+00 -2.356802e-01 -1.412317e+00 5.038602e-01 1.981841e+00 2.668507e-01 -1.498457e+00 -5.101189e-01 1.570807e+00 1.094422e-01 -1.033697e+00 1.956240e-01 1.517840e-01 3.828610e-01 3.430963e-02 -2.982114e-01 -4.252211e-02 9.698583e-02 8.335779e-02 -3.475724e-01 -5.753987e-01 2.607580e-02 1.378664e-01 1.028602e-01 4.273282e-01 3.946498e-02 -1.197900e-01
<VARIANCE> 39
 8.134481e+00 4.990171e+01 2.935731e+01 5.934609e+01 4.685395e+01 5.745634e+01 7.528730e+01 4.536126e+01 2.670044e+01 2.990436e+01 4.276656e+01 1.825385e+01 1.174389e+01 8.217573e-01 1.998181e+00 1.845149e+00 1.164354e+00 1.737281e+00 2.363348e+00 6.235725e+00 1.939550e+00 1.676443e+00 1.765903e+00 3.958703e+00 1.141462e+00 1.609414e+00 1.696767e-01 3.377036e-01 2.954602e-01 3.621276e-01 2.307898e-01 3.952973e-01 8.444196e-01 3.444907e-01 2.770206e-01 3.052039e-01 4.419714e-01 1.921849e-01 2.218487e-01
<GCONST> 1.100561e+02
<STATE> 4
<NUMMIXES> 2
<MIXTURE> 1 5.000000e-01
<MEAN> 39
 1.342350e+01 -5.255036e-01 -2.150703e+00 9.760757e+00 6.727835e+00 -2.586358e+00 -6.063633e+00 1.462571e+01 -8.146184e-01 -1.361552e+01 -2.565336e+00 -5.786439e+00 5.016566e-01 -1.648116e+00 -9.776711e-02 7.851822e-01 2.468560e-01 -1.765341e-01 -1.544295e-01 -8.992261e-02 -1.639920e-01 2.585260e-01 4.928445e-01 3.756267e-01 5.809885e-01 3.717940e-01 -1.067830e-02 3.895912e-02 -1.002053e-01 -2.107617e-01 -1.089337e-01 5.451315e-02 9.851457e-02 -1.220395e-01 -1.454228e-01 -3.352416e-02 3.354938e-03 6.627589e-02 -7.323028e-02
<VARIANCE> 39
 1.017252e+02 4.597805e+01 7.026596e+01 2.820768e+01 3.616975e+01 6.380242e+01 6.680016e+01 4.300383e+01 2.797807e+01 3.979478e+01 4.813166e+01 2.281560e+01 2.216761e+01 2.556751e+00 3.807772e+00 1.264755e+00 1.158355e+00 1.564857e+00 4.623765e+00 2.745971e+00 4.085319e+00 2.133281e+00 3.116896e+00 2.944013e+00 1.024340e+00 1.522222e+00 1.875910e-01 2.740731e-01 1.184664e-01 1.261829e-01 1.242709e-01 3.870592e-01 3.526827e-01 3.733321e-01 2.197057e-01 4.889822e-01 3.144405e-01 2.083055e-01 2.225699e-01
<GCONST> 1.123223e+02
<MIXTURE> 2 5.000000e-01
<MEAN> 39
 1.342350e+01 -5.255036e-01 -2.150703e+00 9.760757e+00 6.727835e+00 -2.586358e+00 -6.063633e+00 1.462571e+01 -8.146184e-01 -1.361552e+01 -2.565336e+00 -5.786439e+00 5.016566e-01 -1.648116e+00 -9.776711e-02 7.851822e-01 2.468560e-01 -1.765341e-01 -1.544295e-01 -8.992261e-02 -1.639920e-01 2.585260e-01 4.928445e-01 3.756267e-01 5.809885e-01 3.717940e-01 -1.067830e-02 3.895912e-02 -1.002053e-01 -2.107617e-01 -1.089337e-01 5.451315e-02 9.851457e-02 -1.220395e-01 -1.454228e-01 -3.352416e-02 3.354938e-03 6.627589e-02 -7.323028e-02
<VARIANCE> 39
 1.017252e+02 4.597805e+01 7.026596e+01 2.820768e+01 3.616975e+01 6.380242e+01 6.680016e+01 4.300383e+01 2.797807e+01 3.979478e+01 4.813166e+01 2.281560e+01 2.216761e+01 2.556751e+00 3.807772e+00 1.264755e+00 1.158355e+00 1.564857e+00 4.623765e+00 2.745971e+00 4.085319e+00 2.133281e+00 3.116896e+00 2.944013e+00 1.024340e+00 1.522222e+00 1.875910e-01 2.740731e-01 1.184664e-01 1.261829e-01 1.242709e-01 3.870592e-01 3.526827e-01 3.733321e-01 2.197057e-01 4.889822e-01 3.144405e-01 2.083055e-01 2.225699e-01
<GCONST> 1.123223e+02
<TRANSP> 5
 0.000000e+00 1.000000e+00 0.000000e+00 0.000000e+00 0.000000e+00
 0.000000e+00 9.063589e-01 9.364109e-02 0.000000e+00 0.000000e+00
 0.000000e+00 0.000000e+00 8.462763e-01 1.537237e-01 0.000000e+00
 0.000000e+00 0.000000e+00 0.000000e+00 6.278496e-01 3.721504e-01
 0.000000e+00 0.000000e+00 0.000000e+00 0.000000e+00 0.000000e+00
<ENDHMM>
~h "khq"
<BEGINHMM>
<NUMSTATES> 5
<STATE> 2
<NUMMIXES> 2
<MIXTURE> 1 5.000000e-01
<MEAN> 39
 5.098849e+00 -6.514025e+00 2.430083e+00 1.092778e+01 1.083864e+01 1.500667e+00 -1.140838e+01 9.359310e+00 -3.377835e+00 -1.113024e+01 6.044074e+00 -4.088247e-01 -3.646332e+00 -1.380477e-02 1.475701e-03 -1.072459e-03 -5.524765e-03 -3.099398e-03 2.005852e-03 8.190720e-04 -5.087083e-03 2.488556e-03 5.650900e-03 -1.806995e-03 5.936168e-04 1.443354e-03 -1.213556e-03 -1.404243e-04 -1.926630e-04 -5.029775e-04 -4.298560e-04 2.249404e-04 5.535607e-04 -2.933974e-04 7.204357e-05 8.173331e-04 -1.603794e-04 -1.434907e-04 3.551734e-04
<VARIANCE> 39
 2.696502e+02 1.642264e+02 1.776205e+02 1.699619e+02 1.712323e+02 1.501611e+02 1.653076e+02 1.112998e+02 8.102897e+01 1.132308e+02 1.038732e+02 3.576029e+01 7.139818e+01 2.864393e+00 3.049235e+00 2.950589e+00 2.442850e+00 2.488132e+00 2.882445e+00 3.574063e+00 2.837703e+00 2.254665e+00 3.083899e+00 2.848865e+00 1.410452e+00 1.706605e+00 2.059384e-01 2.861855e-01 3.165202e-01 2.798763e-01 2.958655e-01 3.292713e-01 4.082396e-01 3.875320e-01 3.475762e-01 4.161765e-01 3.917231e-01 2.236369e-01 2.362328e-01
<GCONST> 1.313330e+02
<MIXTURE> 2 5.000000e-01
<MEAN> 39
 5.098849e+00 -6.514025e+00 2.430083e+00 1.092778e+01 1.083864e+01 1.500667e+00 -1.140838e+01 9.359310e+00 -3.377835e+00 -1.113024e+01 6.044074e+00 -4.088247e-01 -3.646332e+00 -1.380477e-02 1.475701e-03 -1.072459e-03 -5.524765e-03 -3.099398e-03 2.005852e-03 8.190720e-04 -5.087083e-03 2.488556e-03 5.650900e-03 -1.806995e-03 5.936168e-04 1.443354e-03 -1.213556e-03 -1.404243e-04 -1.926630e-04 -5.029775e-04 -4.298560e-04 2.249404e-04 5.535607e-04 -2.933974e-04 7.204357e-05 8.173331e-04 -1.603794e-04 -1.434907e-04 3.551734e-04
<VARIANCE> 39
 2.696502e+02 1.642264e+02 1.776205e+02 1.699619e+02 1.712323e+02 1.501611e+02 1.653076e+02 1.112998e+02 8.102897e+01 1.132308e+02 1.038732e+02 3.576029e+01 7.139818e+01 2.864393e+00 3.049235e+00 2.950589e+00 2.442850e+00 2.488132e+00 2.882445e+00 3.574063e+00 2.837703e+00 2.254665e+00 3.083899e+00 2.848865e+00 1.410452e+00 1.706605e+00 2.059384e-01 2.861855e-01 3.165202e-01 2.798763e-01 2.958655e-01 3.292713e-01 4.082396e-01 3.875320e-01 3.475762e-01 4.161765e-01 3.917231e-01 2.236369e-01 2.362328e-01
<GCONST> 1.313330e+02
<STATE> 3
<NUMMIXES> 2
<MIXTURE> 1 5.000000e-01
<MEAN> 39
 5.098849e+00 -6.514025e+00 2.430083e+00 1.092778e+01 1.083864e+01 1.500667e+00 -1.140838e+01 9.359310e+00 -3.377835e+00 -1.113024e+01 6.044074e+00 -4.088247e-01 -3.646332e+00 -1.380477e-02 1.475701e-03 -1.072459e-03 -5.524765e-03 -3.099398e-03 2.005852e-03 8.190720e-04 -5.087083e-03 2.488556e-03 5.650900e-03 -1.806995e-03 5.936168e-04 1.443354e-03 -1.213556e-03 -1.404243e-04 -1.926630e-04 -5.029775e-04 -4.298560e-04 2.249404e-04 5.535607e-04 -2.933974e-04 7.204357e-05 8.173331e-04 -1.603794e-04 -1.434907e-04 3.551734e-04
<VARIANCE> 39
 2.696502e+02 1.642264e+02 1.776205e+02 1.699619e+02 1.712323e+02 1.501611e+02 1.653076e+02 1.112998e+02 8.102897e+01 1.132308e+02 1.038732e+02 3.576029e+01 7.139818e+01 2.864393e+00 3.049235e+00 2.950589e+00 2.442850e+00 2.488132e+00 2.882445e+00 3.574063e+00 2.837703e+00 2.254665e+00 3.083899e+00 2.848865e+00 1.410452e+00 1.706605e+00 2.059384e-01 2.861855e-01 3.165202e-01 2.798763e-01 2.958655e-01 3.292713e-01 4.082396e-01 3.875320e-01 3.475762e-01 4.161765e-01 3.917231e-01 2.236369e-01 2.362328e-01
<GCONST> 1.313330e+02
<MIXTURE> 2 5.000000e-01
<MEAN> 39
 5.098849e+00 -6.514025e+00 2.430083e+00 1.092778e+01 1.083864e+01 1.500667e+00 -1.140838e+01 9.359310e+00 -3.377835e+00 -1.113024e+01 6.044074e+00 -4.088247e-01 -3.646332e+00 -1.380477e-02 1.475701e-03 -1.072459e-03 -5.524765e-03 -3.099398e-03 2.005852e-03 8.190720e-04 -5.087083e-03 2.488556e-03 5.650900e-03 -1.806995e-03 5.936168e-04 1.443354e-03 -1.213556e-03 -1.404243e-04 -1.926630e-04 -5.029775e-04 -4.298560e-04 2.249404e-04 5.535607e-04 -2.933974e-04 7.204357e-05 8.173331e-04 -1.603794e-04 -1.434907e-04 3.551734e-04
<VARIANCE> 39
 2.696502e+02 1.642264e+02 1.776205e+02 1.699619e+02 1.712323e+02 1.501611e+02 1.653076e+02 1.112998e+02 8.102897e+01 1.132308e+02 1.038732e+02 3.576029e+01 7.139818e+01 2.864393e+00 3.049235e+00 2.950589e+00 2.442850e+00 2.488132e+00 2.882445e+00 3.574063e+00 2.837703e+00 2.254665e+00 3.083899e+00 2.848865e+00 1.410452e+00 1.706605e+00 2.059384e-01 2.861855e-01 3.165202e-01 2.798763e-01 2.958655e-01 3.292713e-01 4.082396e-01 3.875320e-01 3.475762e-01 4.161765e-01 3.917231e-01 2.236369e-01 2.362328e-01
<GCONST> 1.313330e+02
<STATE> 4
<NUMMIXES> 2
<MIXTURE> 1 5.000000e-01
<MEAN> 39
 5.098849e+00 -6.514025e+00 2.430083e+00 1.092778e+01 1.083864e+01 1.500667e+00 -1.140838e+01 9.359310e+00 -3.377835e+00 -1.113024e+01 6.044074e+00 -4.088247e-01 -3.646332e+00 -1.380477e-02 1.475701e-03 -1.072459e-03 -5.524765e-03 -3.099398e-03 2.005852e-03 8.190720e-04 -5.087083e-03 2.488556e-03 5.650900e-03 -1.806995e-03 5.936168e-04 1.443354e-03 -1.213556e-03 -1.404243e-04 -1.926630e-04 -5.029775e-04 -4.298560e-04 2.249404e-04 5.535607e-04 -2.933974e-04 7.204357e-05 8.173331e-04 -1.603794e-04 -1.434907e-04 3.551734e-04
<VARIANCE> 39
 2.696502e+02 1.642264e+02 1.776205e+02 1.699619e+02 1.712323e+02 1.501611e+02 1.653076e+02 1.112998e+02 8.102897e+01 1.132308e+02 1.038732e+02 3.576029e+01 7.139818e+01 2.864393e+00 3.049235e+00 2.950589e+00 2.442850e+00 2.488132e+00 2.882445e+00 3.574063e+00 2.837703e+00 2.254665e+00 3.083899e+00 2.848865e+00 1.410452e+00 1.706605e+00 2.059384e-01 2.861855e-01 3.165202e-01 2.798763e-01 2.958655e-01 3.292713e-01 4.082396e-01 3.875320e-01 3.475762e-01 4.161765e-01 3.917231e-01 2.236369e-01 2.362328e-01
<GCONST> 1.313330e+02
<MIXTURE> 2 5.000000e-01
<MEAN> 39
 5.098849e+00 -6.514025e+00 2.430083e+00 1.092778e+01 1.083864e+01 1.500667e+00 -1.140838e+01 9.359310e+00 -3.377835e+00 -1.113024e+01 6.044074e+00 -4.088247e-01 -3.646332e+00 -1.380477e-02 1.475701e-03 -1.072459e-03 -5.524765e-03 -3.099398e-03 2.005852e-03 8.190720e-04 -5.087083e-03 2.488556e-03 5.650900e-03 -1.806995e-03 5.936168e-04 1.443354e-03 -1.213556e-03 -1.404243e-04 -1.926630e-04 -5.029775e-04 -4.298560e-04 2.249404e-04 5.535607e-04 -2.933974e-04 7.204357e-05 8.173331e-04 -1.603794e-04 -1.434907e-04 3.551734e-04
<VARIANCE> 39
 2.696502e+02 1.642264e+02 1.776205e+02 1.699619e+02 1.712323e+02 1.501611e+02 1.653076e+02 1.112998e+02 8.102897e+01 1.132308e+02 1.038732e+02 3.576029e+01 7.139818e+01 2.864393e+00 3.049235e+00 2.950589e+00 2.442850e+00 2.488132e+00 2.882445e+00 3.574063e+00 2.837703e+00 2.254665e+00 3.083899e+00 2.848865e+00 1.410452e+00 1.706605e+00 2.059384e-01 2.861855e-01 3.165202e-01 2.798763e-01 2.958655e-01 3.292713e-01 4.082396e-01 3.875320e-01 3.475762e-01 4.161765e-01 3.917231e-01 2.236369e-01 2.362328e-01
<GCONST> 1.313330e+02
<TRANSP> 5
 0.000000e+00 1.000000e+00 0.000000e+00 0.000000e+00 0.000000e+00
 0.000000e+00 6.000000e-01 4.000000e-01 0.000000e+00 0.000000e+00
 0.000000e+00 0.000000e+00 6.000000e-01 4.000000e-01 0.000000e+00
 0.000000e+00 0.000000e+00 0.000000e+00 6.000000e-01 4.000000e-01
 0.000000e+00 0.000000e+00 0.000000e+00 0.000000e+00 0.000000e+00
<ENDHMM>
~h "txh"
<BEGINHMM>
<NUMSTATES> 5
<STATE> 2
<NUMMIXES> 2
<MIXTURE> 1 6.754431e-01
<MEAN> 39
 7.483963e+00 3.215477e+00 -5.868549e+00 5.933662e+00 1.600380e+01 1.230824e+01 -4.423804e+00 2.251970e+00 -3.819006e+00 -3.450432e+00 8.299795e+00 7.156248e+00 3.958633e+00 -2.855759e+00 4.504362e-01 1.595796e+00 6.912607e-01 -8.629374e-01 5.973455e-01 1.820487e+00 -4.670613e-03 4.590403e-01 1.170198e+00 -9.372749e-01 -1.053146e-01 1.079689e+00 -1.760536e-01 -4.565950e-01 9.217743e-03 -5.103771e-02 -1.803392e-01 -2.217195e-01 -2.159306e-01 2.390230e-01 1.232974e-01 -1.603256e-01 5.428148e-03 -1.541616e-01 4.334796e-02
<VARIANCE> 39
 1.063922e+02 1.971400e+01 5.760955e+01 3.543452e+01 2.042870e+01 3.595135e+01 7.007079e+01 4.787180e+01 3.466552e+01 4.593075e+01 3.085645e+01 1.205990e+01 1.860313e+01 1.399419e+00 2.862426e+00 2.269292e+00 1.232173e+00 2.011589e+00 2.480386e+00 1.688290e+00 1.879148e+00 1.890293e+00 2.112776e+00 1.734624e+00 9.034603e-01 1.495467e+00 1.407731e-01 5.304906e-01 3.028397e-01 1.451420e-01 2.764083e-01 3.954593e-01 2.679933e-01 3.129033e-01 3.676789e-01 2.977345e-01 2.922472e-01 1.957156e-01 2.304537e-01
<GCONST> 1.083415e+02
<MIXTURE> 2 3.245567e-01
<MEAN> 39
 -2.655069e+01 -6.219602e+00 -4.934975e+00 -2.964128e+00 -3.469273e+00 1.082705e+00 -3.412533e+00 1.310967e+00 -1.322547e+00 -3.161953e-01 7.170917e-01 -1.175164e+00 1.914189e-01 9.900492e-02 3.240426e-02 1.513084e-01 2.827400e-01 2.408626e-01 3.397646e-02 -1.428366e-01 -6.568136e-02 -7.293901e-02 -1.187389e-01 -8.255993e-02 1.901937e-02 1.765254e-01 1.668551e-01 2.484434e-02 9.668451e-02 2.936121e-01 3.090011e-01 1.712461e-01 1.631308e-01 2.275213e-01 1.707332e-01 8.211266e-02 5.115453e-02 1.028045e-01 1.268900e-01
<VARIANCE> 39
 5.438668e-01 1.430044e+00 2.731455e+00 2.820552e+00 2.288518e+00 4.021142e+00 6.159517e+00 6.297470e+00 8.911143e+00 1.078302e+01 6.464376e+00 6.189181e+00 3.662579e+00 2.378199e-01 3.284218e-01 3.786562e-01 7.811945e-01 9.296316e-01 9.855636e-01 1.182436e+00 1.372327e+00 1.448969e+00 1.213536e+00 1.061560e+00 1.197883e+00 9.294354e-01 7.431878e-02 5.569026e-02 6.581127e-02 1.715619e-01 2.272483e-01 2.703431e-01 2.680472e-01 3.919482e-01 4.116268e-01 3.059172e-01 2.121324e-01 1.893049e-01 1.908697e-01
<GCONST> 6.430083e+01
<STATE> 3
<NUMMIXES> 2
<MIXTURE> 1 7.708719e-01
<MEAN> 39
 -1.240718e+01 -7.555025e+00 3.305730e-01 1.017314e+01 8.142481e+00 1.077202e+01 2.172158e+00 8.103844e+00 3.671480e+00 1.205927e+00 1.606308e+00 1.527493e+00 9.077478e+00 1.053695e+00 -3.054437e+00 6.103206e-01 1.045137e+00 -5.879503e-01 3.193281e-01 -6.295219e-04 9.385935e-01 9.932585e-01 4.608991e-01 5.048875e-01 -9.103310e-01 -1.719339e-01 6.970670e-01 -4.984574e-01 2.188805e-02 -3.076237e-01 -3.090802e-01 1.025097e-02 -3.299205e-01 -1.851335e-01 -5.375156e-01 -3.374482e-01 7.156935e-01 2.247008e-01 -6.521465e-01
<VARIANCE> 39
 5.767485e+01 3.982730e+01 1.711530e+01 2.396499e+01 2.517562e+01 2.855554e+01 1.987034e+01 3.068179e+01 3.220243e+01 1.765578e+01 1.918204e+01 2.322470e+01 2.639452e+01 6.772051e+00 4.234014e+00 1.771151e+00 3.057952e+00 6.009426e+00 3.565109e+00 2.926838e+00 3.840358e+00 4.192805e+00 2.547484e+00 4.294125e+00 2.733143e+00 5.318456e+00 3.830675e-01 2.687540e-01 2.931812e-01 3.815093e-01 6.720758e-01 6.225506e-01 4.157334e-01 6.307502e-01 8.810602e-01 4.734493e-01 5.917989e-01 7.419309e-01 7.357782e-01
<GCONST> 1.224927e+02
<MIXTURE> 2 2.291285e-01
<MEAN> 39
 -4.931533e+00 -2.168694e+01 6.557319e+00 1.021061e+01 1.447132e+00 1.365565e+01 -6.511037e-01 6.247098e+00 2.340658e+00 3.149288e-01 7.658698e+00 6.306426e-02 2.197341e+00 1.919111e+00 -5.432101e+00 2.625208e+00 -4.576735e-01 -1.518810e+00 1.964366e+00 -8.924920e-01 -4.422948e-01 -3.406565e+00 -2.405296e+00 4.268459e+00 2.099972e+00 -2.379919e+00 -2.309029e-01 1.236382e-01 6.183288e-01 9.208469e-02 5.879810e-01 9.709691e-01 9.790003e-02 -5.751236e-02 -9.970658e-01 -5.476022e-01 4.132576e-01 5.667837e-01 8.141059e-01
<VARIANCE> 39
 6.042306e+00 1.902296e+01 1.281761e+01 1.635476e+01 9.148588e+00 1.349269e+01 1.622820e+01 2.460735e+01 3.715969e+01 2.937225e+01 2.635660e+01 3.482176e+01 1.051969e+01 5.529805e-01 6.724516e-01 1.180992e+00 1.122085e+00 1.187381e+00 2.080885e+00 1.351564e+00 3.059191e+00 3.307715e+00 3.789505e+00 1.578607e+00 1.886447e+00 2.249962e+00 3.344694e-01 3.435989e-01 2.437201e-01 1.326343e-01 1.555755e-01 2.782770e-01 2.128764e-01 5.369871e-01 7.546247e-01 4.503709e-01 3.728783e-01 5.344037e-01 2.615706e-01
<GCONST> 9.985256e+01
<STATE> 4
<NUMMIXES> 2
<MIXTURE> 1 3.313357e-01
<MEAN> 39
 -6.735413e+00 -1.321175e+01 -4.874962e+00 7.278191e+00 7.123957e+00 1.525467e+01 8.478762e+00 1.013485e+01 -1.755538e+00 -6.535174e-01 1.198666e+01 1.016753e+01 1.004729e+01 -1.241279e+00 1.999723e+00 -5.743755e-01 -7.420166e-01 -4.367970e-01 -1.506833e+00 -3.056946e-01 -4.773437e-02 7.720985e-01 3.010676e-01 -1.394878e+00 -1.915610e-01 2.665842e-01 -6.082916e-02 -4.129763e-01 2.516337e-01 -7.411844e-02 -1.650966e-01 8.807827e-02 -1.475352e-01 7.100285e-02 -1.403225e-01 -1.642044e-01 1.297653e-01 -9.623472e-02 -2.020785e-01
<VARIANCE> 39
 9.056538e+01 7.701044e+01 5.232919e+01 4.356116e+01 5.473577e+01 6.850728e+01 3.421208e+01 4.521645e+01 4.323575e+01 6.633507e+01 7.892881e+01 2.461407e+01 1.805652e+01 1.558743e+00 3.323907e+00 2.779290e+00 1.596847e+00 2.720729e+00 2.309402e+00 1.760244e+00 1.919047e+00 2.479750e+00 2.814249e+00 2.212425e+00 1.953103e+00 2.256056e+00 1.681691e-01 2.296026e-01 2.406366e-01 1.689538e-01 2.673974e-01 4.064955e-01 2.423713e-01 3.110033e-01 3.948911e-01 4.327577e-01 3.444640e-01 2.576596e-01 2.440019e-01
<GCONST> 1.158092e+02
<MIXTURE> 2 6.686652e-01
<MEAN> 39
 -3.977579e+00 -3.480164e+01 1.044429e+01 1.108880e+01 3.486557e+00 2.319901e+01 4.126034e-01 6.213740e+00 -6.816771e+00 -3.703995e+00 1.873488e+01 5.058049e+00 2.822235e+00 -3.648225e-02 -1.520827e-03 -6.696883e-01 3.090687e-01 7.836253e-01 6.766566e-01 7.124255e-01 -4.077111e-02 -3.735160e-01 2.195612e-01 8.033974e-01 6.012135e-01 4.491243e-01 -1.934778e-01 9.342808e-01 -4.749163e-01 6.288298e-02 2.081568e-01 -4.447657e-01 1.438798e-01 7.737856e-03 5.051743e-01 3.248807e-01 -6.565577e-01 -1.948931e-01 2.008496e-01
<VARIANCE> 39
 2.857068e+01 5.680051e+01 9.076647e+01 4.014280e+01 4.007829e+01 6.870165e+01 4.737637e+01 6.380032e+01 3.805900e+01 4.995166e+01 5.891851e+01 4.969241e+01 2.993182e+01 1.481296e+00 8.926543e+00 7.800201e+00 1.601075e+00 2.268446e+00 5.288059e+00 2.336192e+00 2.559493e+00 5.163172e+00 3.818238e+00 5.321270e+00 2.232276e+00 1.431086e+00 3.189850e-01 4.488482e-01 1.025093e+00 2.210293e-01 3.725870e-01 6.601625e-01 4.158099e-01 4.858519e-01 7.582101e-01 7.845188e-01 4.372775e-01 3.836065e-01 3.754342e-01
<GCONST> 1.276148e+02
<TRANSP> 5
 0.000000e+00 1.000000e+00 0.000000e+00 0.000000e+00 0.000000e+00
 0.000000e+00 8.829547e-01 1.170453e-01 0.000000e+00 0.000000e+00
 0.000000e+00 0.000000e+00 8.423432e-01 1.576567e-01 0.000000e+00
 0.000000e+00 0.000000e+00 0.000000e+00 9.056348e-01 9.436516e-02
 0.000000e+00 0.000000e+00 0.000000e+00 0.000000e+00 0.000000e+00
<ENDHMM>
