~o
<STREAMINFO> 1 39
<VECSIZE> 39<NULLD><MFCC_D_A><DIAGC>
~h "ax"
<BEGINHMM>
<NUMSTATES> 7
<STATE> 2
<NUMMIXES> 2
<MIXTURE> 1 5.196129e-01
<MEAN> 39
 -8.267360e+00 -9.484493e-01 6.285263e+00 -4.952128e+00 7.968490e+00 -4.523848e+00 5.229150e+00 1.130537e+00 1.302837e+00 -3.025461e+00 -1.019544e+00 1.150365e+00 -8.591094e-01 9.390427e-01 -3.369966e-01 1.923237e-01 -5.351753e-01 -2.627978e-01 -1.285495e+00 -3.128452e-01 2.953846e-01 -5.839629e-02 -4.543159e-01 -1.274077e-01 7.941110e-02 2.308498e-02 3.586340e-01 1.437110e-01 -1.192055e-01 2.198459e-01 -1.690395e-01 -3.568706e-01 -3.200355e-01 2.076080e-01 -8.964781e-02 -1.498516e-01 -4.406804e-02 4.133097e-02 -8.003850e-02
<VARIANCE> 39
 6.664755e+01 1.038595e+02 4.692928e+01 1.230862e+02 7.645255e+01 8.023260e+01 7.851975e+01 6.343392e+01 5.846569e+01 4.475097e+01 3.968531e+01 2.980982e+01 2.853356e+01 4.201750e+00 7.051709e+00 2.705641e+00 6.828754e+00 3.753360e+00 5.779229e+00 4.948340e+00 4.185552e+00 4.146615e+00 3.164691e+00 2.654109e+00 2.060246e+00 1.968018e+00 3.547484e-01 1.141158e+00 5.782992e-01 1.071587e+00 6.735290e-01 7.549945e-01 8.264211e-01 8.066705e-01 7.338470e-01 5.369414e-01 4.920448e-01 3.829811e-01 3.722255e-01
<GCONST> 1.360227e+02
<MIXTURE> 2 4.803871e-01
<MEAN> 39
 6.088991e+00 -2.925190e+00 6.121516e+00 -6.190477e+00 6.729874e+00 -1.928777e+01 -2.838522e+00 5.183580e+00 -1.696697e+00 -9.579473e+00 -2.996315e+00 1.941038e+00 -2.631727e+00 1.613228e+00 -2.294357e-01 -1.189149e+00 -1.225958e-01 -1.107126e+00 -2.390357e+00 -1.017073e+00 1.357771e+00 -8.230069e-02 -3.529613e-01 1.627331e-01 3.979899e-01 -8.644318e-02 -4.216933e-01 -2.019327e-01 -8.534097e-02 -1.361192e-01 3.715542e-02 3.470017e-01 3.215630e-01 -5.115396e-02 1.913932e-01 2.910544e-01 6.083750e-02 -4.352900e-02 6.169825e-02
<VARIANCE> 39
 1.540623e+01 4.082666e+01 5.118918e+01 7.189528e+01 1.497212e+02 1.029890e+02 8.225342e+01 9.867852e+01 1.508764e+02 5.428902e+01 4.336678e+01 3.476656e+01 3.244374e+01 2.405467e+00 1.876798e+00 2.219631e+00 3.507227e+00 4.308287e+00 4.772342e+00 6.660111e+00 4.374548e+00 4.945844e+00 3.347096e+00 2.502251e+00 1.927793e+00 1.988757e+00 2.779610e-01 3.972749e-01 3.742329e-01 4.361047e-01 5.100139e-01 7.145220e-01 5.992903e-01 6.506564e-01 6.041631e-01 4.855842e-01 3.853889e-01 3.120101e-01 2.479350e-01
<GCONST> 1.291017e+02
<STATE> 3
<NUMMIXES> 2
<MIXTURE> 1 5.244043e-01
<MEAN> 39
 8.601782e+00 -3.931849e+00 4.423123e+00 -8.100454e+00 1.436936e+01 -2.360794e+01 -9.098554e+00 1.081759e+01 1.094725e+01 -1.017482e+01 -6.797316e+00 3.933440e+00 -1.881798e+00 3.423207e-01 -1.393838e-01 -5.014152e-01 -1.021001e-02 -8.164712e-01 -1.228314e+00 -7.688087e-01 9.391714e-01 7.404671e-01 4.267257e-01 4.038691e-01 -1.474381e-01 4.810458e-02 -1.101069e-01 -2.596491e-02 1.197530e-01 1.050372e-01 -8.821934e-02 2.287359e-01 2.218668e-01 -9.569427e-02 -1.358931e-01 1.053235e-01 8.522561e-02 -1.285469e-01 5.627577e-02
<VARIANCE> 39
 8.715370e+00 2.019581e+01 5.410161e+01 2.868790e+01 6.261491e+01 6.725085e+01 5.287840e+01 4.482898e+01 5.314934e+01 4.500688e+01 4.287678e+01 2.310807e+01 3.383928e+01 2.005239e-01 4.505140e-01 7.664024e-01 1.046083e+00 1.295985e+00 1.604398e+00 1.884472e+00 1.670456e+00 2.004891e+00 1.859797e+00 1.348707e+00 1.336234e+00 8.819593e-01 5.121519e-02 7.105963e-02 1.149849e-01 1.624447e-01 1.877940e-01 2.202162e-01 3.624747e-01 3.153887e-01 3.082852e-01 3.483954e-01 2.245047e-01 2.221301e-01 1.667225e-01
<GCONST> 9.757293e+01
<MIXTURE> 2 4.755957e-01
<MEAN> 39
 9.085776e+00 -5.771732e+00 -1.934476e+00 -9.998540e+00 -2.286427e+00 -2.368730e+01 5.296635e+00 3.482242e+00 -1.213491e+01 -6.833779e+00 -7.253408e-01 2.192882e+00 -1.430565e+00 1.944737e-01 -3.045492e-01 -5.981086e-01 -2.216696e-01 -1.248906e+00 -3.304629e-01 9.927846e-01 6.590996e-01 9.027899e-01 1.095427e-01 -3.744393e-01 7.137079e-02 -2.592596e-01 -1.202765e-01 6.993598e-02 1.475612e-01 5.531738e-02 1.900805e-01 2.660657e-01 -8.487485e-02 -1.118145e-01 2.486914e-01 -1.350881e-01 -6.453845e-02 4.704753e-03 -1.092532e-01
<VARIANCE> 39
 7.535171e+00 4.204335e+01 2.747973e+01 5.844360e+01 7.705167e+01 5.538059e+01 6.880288e+01 5.000238e+01 5.777000e+01 5.182713e+01 3.491342e+01 3.678379e+01 3.980006e+01 2.132073e-01 5.500339e-01 6.529276e-01 1.182394e+00 1.128525e+00 1.438099e+00 1.522906e+00 1.458285e+00 1.860282e+00 1.636778e+00 1.492959e+00 1.207699e+00 9.850324e-01 7.207517e-02 8.474109e-02 1.221124e-01 1.823013e-01 1.744989e-01 3.181829e-01 2.586994e-01 2.339930e-01 3.129318e-01 2.400836e-01 2.819407e-01 2.078576e-01 1.630006e-01
<GCONST> 9.889503e+01
<STATE> 4
<NUMMIXES> 2
<MIXTURE> 1 4.815391e-01
<MEAN> 39
 9.675222e+00 -4.231366e+00 2.176512e+00 -4.026510e+00 6.290710e+00 -2.902456e+01 -1.407437e+01 1.627519e+01 1.550856e+01 -7.641166e+00 -7.880933e-01 1.786629e+00 2.049994e-01 4.460556e-02 -1.074438e-01 -6.548156e-02 1.817213e-02 -2.627815e-01 -7.987088e-03 -2.805292e-02 1.874340e-01 2.147460e-02 8.629465e-02 2.066990e-01 -1.427079e-01 1.741738e-02 -3.534178e-02 4.723623e-02 2.828549e-02 -4.217185e-02 9.211008e-02 9.680402e-02 1.160924e-01 -8.869038e-02 -7.010292e-02 -2.413883e-02 -6.371420e-02 2.360430e-02 -4.798737e-02
<VARIANCE> 39
 7.258916e+00 1.427384e+01 4.874150e+01 1.575204e+01 3.411356e+01 3.943448e+01 5.872295e+01 3.970913e+01 4.096509e+01 3.081100e+01 2.508532e+01 2.840291e+01 2.430129e+01 1.071878e-01 2.635582e-01 3.685434e-01 4.551996e-01 7.473139e-01 8.271953e-01 1.012122e+00 8.589213e-01 1.118834e+00 8.167736e-01 7.774317e-01 7.690109e-01 6.327201e-01 1.657094e-02 3.190964e-02 5.377650e-02 6.434629e-02 9.092700e-02 1.157530e-01 1.348364e-01 1.395315e-01 1.528253e-01 1.326806e-01 1.223943e-01 1.250455e-01 9.473702e-02
<GCONST> 7.561188e+01
<MIXTURE> 2 5.184609e-01
<MEAN> 39
 9.601169e+00 -4.139364e+00 -3.887460e+00 -6.985091e+00 -8.909244e+00 -2.431277e+01 1.111642e+01 8.468934e+00 -3.914281e+00 -6.622971e+00 -1.504122e+00 4.916287e-01 -5.041915e+00 1.121966e-02 -7.799330e-02 -1.505259e-01 -7.491115e-02 1.063329e-01 1.503617e-01 3.807906e-02 6.528012e-02 1.285901e-01 -1.180772e-01 -3.864365e-02 6.245317e-02 -9.300275e-02 -2.034986e-02 4.553340e-02 3.662927e-02 -2.792127e-02 1.103170e-01 2.905032e-02 -6.850422e-02 -2.538291e-02 -1.013147e-01 5.373333e-03 1.398826e-02 -1.400451e-02 4.658305e-02
<VARIANCE> 39
 1.189476e+01 2.613653e+01 2.318292e+01 2.995948e+01 4.794225e+01 7.700505e+01 5.792782e+01 3.464017e+01 5.240585e+01 3.905177e+01 3.246426e+01 3.226858e+01 2.893771e+01 7.886268e-02 2.824482e-01 2.874993e-01 3.829300e-01 6.838298e-01 7.023164e-01 7.430556e-01 7.109448e-01 1.085493e+00 6.279218e-01 5.720224e-01 4.666244e-01 5.338067e-01 1.180228e-02 2.810090e-02 3.833805e-02 5.914287e-02 7.441720e-02 9.015384e-02 1.007696e-01 8.961392e-02 9.293254e-02 9.047303e-02 9.006453e-02 7.382300e-02 6.057345e-02
<GCONST> 7.159933e+01
<STATE> 5
<NUMMIXES> 2
<MIXTURE> 1 4.046307e-01
<MEAN> 39
 9.579029e+00 -4.834340e+00 4.016724e+00 -7.508821e+00 7.785382e+00 -2.703548e+01 -8.736550e+00 1.545086e+01 1.173477e+01 -6.835151e+00 -2.099905e+00 1.646443e+00 -2.313255e+00 -2.062897e-01 2.887253e-01 6.911400e-02 -3.560314e-01 5.257166e-01 8.178500e-01 1.004784e+00 -8.657382e-01 -4.020526e-01 4.286229e-02 -3.024271e-01 -1.159461e-01 -2.742682e-01 -3.977208e-02 8.398364e-02 2.739690e-02 1.721651e-02 7.641567e-02 2.045546e-01 1.007988e-01 -1.838769e-01 -7.524686e-02 7.513019e-02 -4.880624e-02 -2.892420e-02 4.572181e-03
<VARIANCE> 39
 1.099451e+01 1.833445e+01 4.409814e+01 3.045901e+01 4.867680e+01 4.646294e+01 7.169642e+01 5.519936e+01 5.178389e+01 4.750524e+01 2.899224e+01 2.325375e+01 3.231641e+01 2.330213e-01 5.422043e-01 7.870970e-01 9.008442e-01 1.194746e+00 1.445122e+00 1.673933e+00 1.749257e+00 1.661532e+00 1.504927e+00 1.205970e+00 1.175125e+00 9.285285e-01 4.456898e-02 6.837569e-02 1.061492e-01 1.390731e-01 1.657025e-01 1.966597e-01 2.498822e-01 2.548106e-01 2.544228e-01 2.429818e-01 1.991540e-01 1.715789e-01 1.428051e-01
<GCONST> 9.409618e+01
<MIXTURE> 2 5.953693e-01
<MEAN> 39
 9.849599e+00 -8.482129e+00 -2.990585e+00 -1.777479e+01 -7.867184e+00 -2.197111e+01 3.429045e+00 7.889450e+00 -4.827590e+00 -1.526095e+01 -3.913642e+00 2.177385e+00 -9.202245e+00 -7.481155e-02 2.680802e-01 1.183602e-01 -2.401607e-01 4.018976e-01 2.636018e-01 -2.701467e-01 -2.351415e-01 -3.943519e-01 -2.298888e-01 6.353985e-02 -1.070778e-01 2.063193e-02 -1.165605e-02 5.830169e-02 5.310574e-02 6.349590e-02 7.378823e-02 2.738415e-02 -3.681682e-02 -7.919193e-02 -9.485057e-02 4.753407e-02 4.373252e-02 -2.573155e-02 1.973445e-02
<VARIANCE> 39
 5.572382e+00 3.571855e+01 2.390211e+01 5.378392e+01 4.271109e+01 6.256721e+01 7.626846e+01 4.532501e+01 5.864056e+01 6.004622e+01 3.710806e+01 3.080423e+01 4.190054e+01 1.475818e-01 7.347128e-01 6.345945e-01 8.413138e-01 1.153298e+00 1.095365e+00 1.481744e+00 1.538894e+00 1.660675e+00 1.461040e+00 1.242084e+00 1.056352e+00 9.278381e-01 2.649290e-02 6.897020e-02 8.043326e-02 1.344381e-01 1.279574e-01 1.800099e-01 2.017174e-01 1.739685e-01 2.068038e-01 2.030214e-01 1.833177e-01 1.497439e-01 1.372564e-01
<GCONST> 9.169945e+01
<STATE> 6
<NUMMIXES> 2
<MIXTURE> 1 4.388407e-01
<MEAN> 39
 2.640724e+00 4.185182e+00 3.931549e+00 -8.216820e+00 6.897520e-01 -1.556320e+01 3.546250e+00 1.070030e+01 3.810220e+00 -5.168349e+00 -3.308500e+00 1.480419e-01 -4.202500e+00 -1.141067e+00 6.446129e-01 4.236413e-01 1.435526e-01 3.734244e-01 1.359881e+00 3.405211e-01 -4.245339e-01 1.047578e-01 6.341739e-01 8.937780e-03 -6.469806e-02 2.510794e-01 -6.376323e-02 -1.624467e-01 -1.073271e-01 9.986349e-03 3.453436e-02 1.568722e-02 -1.236803e-01 -1.307368e-01 5.586088e-02 1.227843e-02 6.182928e-02 2.647874e-02 8.259156e-02
<VARIANCE> 39
 4.310217e+01 4.922506e+01 4.651793e+01 5.386950e+01 8.929939e+01 8.695332e+01 7.611256e+01 7.068408e+01 9.926135e+01 7.591466e+01 3.630523e+01 2.885436e+01 2.822791e+01 1.621056e+00 1.756964e+00 2.643675e+00 2.245903e+00 3.156591e+00 3.430611e+00 3.735663e+00 3.594145e+00 2.901963e+00 2.873607e+00 2.367323e+00 1.869491e+00 1.677343e+00 2.391957e-01 2.096540e-01 3.633726e-01 3.631098e-01 4.976242e-01 5.881068e-01 5.348107e-01 5.385688e-01 4.870759e-01 4.880490e-01 4.089150e-01 3.413332e-01 2.957213e-01
<GCONST> 1.237505e+02
<MIXTURE> 2 5.611593e-01
<MEAN> 39
 8.836634e+00 -4.339893e+00 4.477664e-02 -8.010841e+00 9.280478e+00 -1.501583e+01 -1.159970e+00 1.566517e+00 -6.039099e+00 -9.130848e+00 -2.640075e+00 -2.154944e-01 -3.645321e+00 -1.259937e-01 4.727351e-01 5.257066e-01 9.565348e-01 1.014615e+00 1.455587e+00 -8.151795e-02 -6.063281e-01 -8.551015e-01 1.644935e-02 -3.122761e-01 -2.805111e-01 -2.830028e-01 -7.808854e-02 3.451421e-02 1.313197e-01 8.129200e-02 -6.901047e-02 4.544037e-02 3.088589e-02 1.764703e-01 1.230129e-01 -4.583967e-02 -8.452634e-02 1.605932e-02 -1.744258e-02
<VARIANCE> 39
 8.931112e+00 3.420578e+01 4.207445e+01 8.129906e+01 1.030257e+02 8.692289e+01 7.988329e+01 8.335554e+01 1.660777e+02 6.074804e+01 5.894654e+01 4.351107e+01 4.337581e+01 2.898110e-01 7.386327e-01 1.269149e+00 2.028711e+00 1.708932e+00 3.431592e+00 3.223164e+00 3.497141e+00 3.139145e+00 2.640802e+00 2.495954e+00 2.103324e+00 1.477341e+00 4.666826e-02 1.060486e-01 2.070578e-01 3.038041e-01 2.582422e-01 5.604469e-01 4.278336e-01 5.139355e-01 5.094313e-01 4.454722e-01 4.208104e-01 3.719648e-01 2.743348e-01
<GCONST> 1.158848e+02
<TRANSP> 7
 0.000000e+00 1.000000e+00 0.000000e+00 0.000000e+00 0.000000e+00 0.000000e+00 0.000000e+00
 0.000000e+00 8.627959e-01 1.372041e-01 0.000000e+00 0.000000e+00 0.000000e+00 0.000000e+00
 0.000000e+00 0.000000e+00 8.163313e-01 1.836687e-01 0.000000e+00 0.000000e+00 0.000000e+00
 0.000000e+00 0.000000e+00 0.000000e+00 8.971369e-01 1.028631e-01 0.000000e+00 0.000000e+00
 0.000000e+00 0.000000e+00 0.000000e+00 0.000000e+00 8.540978e-01 1.459022e-01 0.000000e+00
 0.000000e+00 0.000000e+00 0.000000e+00 0.000000e+00 0.000000e+00 8.188042e-01 1.811958e-01
 0.000000e+00 0.000000e+00 0.000000e+00 0.000000e+00 0.000000e+00 0.000000e+00 0.000000e+00
<ENDHMM>
