~o
<STREAMINFO> 1 39
<VECSIZE> 39<NULLD><MFCC_D_A><DIAGC>
~h "jh"
<BEGINHMM>
<NUMSTATES> 5
<STATE> 2
<NUMMIXES> 2
<MIXTURE> 1 5.734024e-01
<MEAN> 39
 1.129262e+00 6.746397e+00 9.821481e+00 9.485507e+00 1.496180e+01 -3.608531e+00 4.397409e-01 -1.006588e+00 -4.204032e+00 -7.859192e+00 -1.935334e+00 2.368819e+00 -3.681403e+00 -7.291519e-01 -4.281538e-01 5.437813e-01 2.879680e-01 -3.181540e-01 5.840286e-01 4.308248e-01 -2.307821e-01 5.141323e-01 1.979974e-01 3.556621e-02 -8.615491e-02 1.748048e-01 -4.299266e-01 -6.946827e-01 3.574498e-01 -4.487540e-01 -1.510642e-01 1.075952e-03 2.147498e-01 1.717361e-02 2.068534e-01 -1.532519e-03 6.162684e-02 -1.817020e-01 1.307644e-01
<VARIANCE> 39
 2.024999e+01 1.077169e+02 3.469359e+01 8.473976e+01 4.646491e+01 6.798848e+01 5.297918e+01 5.176043e+01 5.836504e+01 6.580929e+01 3.612594e+01 3.128372e+01 2.353986e+01 1.479491e+00 8.065609e+00 3.264037e+00 2.826987e+00 2.377802e+00 2.545247e+00 3.472186e+00 2.992411e+00 2.830386e+00 2.985331e+00 2.012797e+00 1.930620e+00 1.495339e+00 1.959377e-01 1.236311e+00 3.907720e-01 4.514410e-01 3.199318e-01 3.675863e-01 4.946871e-01 4.591434e-01 3.981041e-01 4.353513e-01 3.564961e-01 2.997031e-01 2.684959e-01
<GCONST> 1.224251e+02
<MIXTURE> 2 4.265976e-01
<MEAN> 39
 -8.921165e+00 3.059437e-01 1.938272e+01 2.634543e+00 1.290371e+01 7.032681e-02 2.620802e+00 -3.802871e+00 -3.938120e+00 -5.919189e+00 -8.333570e-01 -2.444103e+00 -2.144922e+00 -1.384927e+00 -6.439808e-01 1.160060e+00 8.153953e-02 -1.821030e-01 3.322149e-01 7.126747e-01 2.573345e-01 7.919285e-01 2.582069e-02 2.059446e-01 -1.055476e-01 1.246597e-01 2.161050e-01 -1.910937e-01 -5.718636e-01 1.224977e-01 -3.251599e-02 -3.223078e-01 -1.438911e-01 1.423334e-01 5.287948e-02 -3.176260e-02 1.536882e-02 1.810593e-01 -1.108597e-01
<VARIANCE> 39
 5.197791e+01 7.653920e+01 7.955415e+01 7.422405e+01 4.748186e+01 5.349524e+01 6.697468e+01 6.208652e+01 5.501220e+01 4.371471e+01 2.903376e+01 3.744241e+01 2.402215e+01 4.103553e+00 7.647824e+00 5.703228e+00 3.774269e+00 2.427973e+00 2.852857e+00 3.342624e+00 2.756816e+00 2.953135e+00 2.934837e+00 2.257762e+00 2.229534e+00 1.638681e+00 3.404376e-01 8.401582e-01 7.018724e-01 5.820726e-01 4.342016e-01 4.945784e-01 5.896204e-01 5.730826e-01 5.188166e-01 5.678356e-01 3.989162e-01 3.752611e-01 3.041731e-01
<GCONST> 1.286373e+02
<STATE> 3
<NUMMIXES> 2
<MIXTURE> 1 3.131510e-01
<MEAN> 39
 -1.082837e+01 -1.224897e+01 1.471050e+01 3.492179e+00 8.644339e+00 -1.435373e+00 7.151376e+00 2.900148e-01 5.597867e+00 -6.409671e+00 2.569588e-02 -2.699052e-01 -6.460895e-01 -3.019037e+00 -4.206815e+00 1.614563e+00 -2.357681e+00 -1.060081e+00 -1.220415e+00 6.542366e-01 -2.683547e-01 1.217504e+00 1.814401e-02 6.604733e-01 -2.245706e-01 4.228984e-01 -1.819205e-01 1.010893e+00 4.696661e-01 3.455797e-01 4.329913e-01 -1.565483e-01 -4.574495e-01 -3.771500e-01 -4.052985e-01 1.815825e-01 -2.410153e-03 8.413337e-02 -1.357882e-01
<VARIANCE> 39
 2.568031e+01 3.751717e+01 4.863597e+01 6.343698e+01 3.270921e+01 3.454746e+01 3.466865e+01 3.098053e+01 4.310685e+01 2.627685e+01 2.643830e+01 2.032584e+01 1.775990e+01 2.014258e+00 7.351645e+00 4.918612e+00 4.605048e+00 3.270325e+00 2.949770e+00 3.393221e+00 3.081032e+00 2.971472e+00 3.020288e+00 2.537784e+00 2.073838e+00 1.865685e+00 3.756548e-01 7.955174e-01 8.490638e-01 1.062603e+00 5.868167e-01 5.715413e-01 5.481224e-01 5.033109e-01 4.930180e-01 6.486877e-01 4.610423e-01 3.963163e-01 3.560042e-01
<GCONST> 1.241314e+02
<MIXTURE> 2 6.868489e-01
<MEAN> 39
 -2.211619e+01 -1.663167e+01 2.430589e+01 -1.686691e+00 9.498152e+00 -4.460114e+00 6.429701e+00 -3.241179e+00 3.521411e+00 -4.697744e+00 2.840506e+00 -1.921710e+00 -1.582837e+00 -7.972572e-01 -1.046912e+00 -3.062652e-01 -4.805157e-01 -4.061143e-02 -6.502327e-01 -3.412117e-01 -4.896990e-01 3.002569e-01 6.992456e-01 4.039728e-01 2.317390e-01 5.403912e-02 6.643889e-01 3.358915e-01 -5.471640e-01 4.768818e-02 5.768085e-02 5.042798e-02 -1.858818e-01 -1.266577e-01 -1.733081e-01 2.533598e-02 -9.131410e-02 4.987691e-02 2.280990e-03
<VARIANCE> 39
 2.641446e+01 4.496207e+01 3.395874e+01 6.827139e+01 3.819949e+01 3.943741e+01 3.993327e+01 3.375211e+01 4.689920e+01 2.530917e+01 2.273747e+01 2.653083e+01 1.643559e+01 2.366879e+00 1.122308e+00 2.757281e+00 1.951301e+00 1.910931e+00 1.537470e+00 1.715159e+00 1.922983e+00 1.677976e+00 1.576481e+00 1.352995e+00 1.191126e+00 1.094075e+00 2.571703e-01 2.184164e-01 4.027688e-01 3.937025e-01 3.194645e-01 2.927346e-01 3.057982e-01 3.084818e-01 3.342507e-01 3.079529e-01 2.759084e-01 2.265570e-01 2.100918e-01
<GCONST> 1.077232e+02
<STATE> 4
<NUMMIXES> 2
<MIXTURE> 1 5.228973e-01
<MEAN> 39
 -4.898582e+00 -8.468264e+00 1.218402e+01 1.850242e-01 1.356378e+01 -2.797669e+00 3.294251e+00 -3.604784e+00 -2.713467e-01 -2.789949e+00 1.084945e+00 -4.383302e-01 -1.638669e+00 1.270061e+00 1.163010e+00 -5.697379e-01 1.033023e-01 -2.964463e-02 -8.912119e-02 -3.607598e-01 6.452326e-01 -3.257123e-01 -2.623128e-01 -1.927138e-01 -1.092650e-01 -1.182837e-01 -1.602680e-01 -1.155091e-01 -5.559554e-02 -1.484990e-01 -1.448010e-01 -2.061805e-01 -5.700570e-02 3.311657e-02 4.010091e-02 -3.451773e-02 5.601365e-02 -5.533791e-03 6.786492e-03
<VARIANCE> 39
 3.219851e+01 3.596514e+01 6.833772e+01 4.363867e+01 7.009995e+01 5.604337e+01 5.068924e+01 5.898569e+01 4.444598e+01 3.747703e+01 3.180456e+01 4.475427e+01 3.636002e+01 1.420446e+00 1.386056e+00 1.642665e+00 1.733579e+00 1.857652e+00 2.230781e+00 2.837159e+00 2.302039e+00 2.150229e+00 1.993583e+00 1.803974e+00 1.480613e+00 1.213212e+00 1.169478e-01 1.425354e-01 2.208559e-01 2.399886e-01 2.913499e-01 3.388248e-01 3.623355e-01 3.687018e-01 3.498513e-01 3.357885e-01 2.948158e-01 2.557687e-01 2.102249e-01
<GCONST> 1.112908e+02
<MIXTURE> 2 4.771027e-01
<MEAN> 39
 -1.824204e+01 -1.968760e+01 1.568501e+01 -3.395880e+00 1.032251e+01 -7.573662e+00 2.484000e+00 -7.716008e+00 4.227260e+00 -1.220275e+00 2.667096e+00 4.463308e-01 -6.567558e-01 1.490940e+00 7.323872e-01 -9.334325e-01 1.656577e-01 7.450195e-01 4.111995e-01 -2.799105e-01 -3.739793e-01 -5.401994e-01 2.061335e-01 -2.067774e-01 1.472045e-01 -6.976397e-02 2.599177e-01 3.509874e-01 1.632220e-01 2.571819e-01 1.267180e-01 2.516133e-01 1.086274e-01 2.504360e-01 -7.405525e-02 -1.385732e-01 -1.140661e-01 -5.009367e-02 -5.147259e-02
<VARIANCE> 39
 2.659726e+01 2.392665e+01 3.919324e+01 3.677390e+01 4.002225e+01 3.469685e+01 5.003930e+01 3.151069e+01 3.042999e+01 2.234790e+01 2.292958e+01 2.390376e+01 1.657117e+01 9.158517e-01 1.193249e+00 1.299941e+00 2.143390e+00 1.605954e+00 1.887167e+00 1.984067e+00 2.383450e+00 1.845488e+00 1.672627e+00 1.550908e+00 1.283401e+00 1.156477e+00 1.199260e-01 1.469580e-01 1.898250e-01 2.613161e-01 2.941469e-01 2.999238e-01 3.805699e-01 3.730227e-01 3.257042e-01 3.238327e-01 2.949826e-01 2.529950e-01 2.243498e-01
<GCONST> 1.036173e+02
<TRANSP> 5
 0.000000e+00 1.000000e+00 0.000000e+00 0.000000e+00 0.000000e+00
 0.000000e+00 8.767991e-01 1.232009e-01 0.000000e+00 0.000000e+00
 0.000000e+00 0.000000e+00 8.606771e-01 1.393229e-01 0.000000e+00
 0.000000e+00 0.000000e+00 0.000000e+00 9.029698e-01 9.703016e-02
 0.000000e+00 0.000000e+00 0.000000e+00 0.000000e+00 0.000000e+00
<ENDHMM>
