~o
<STREAMINFO> 1 39
<VECSIZE> 39<NULLD><MFCC_D_A><DIAGC>
~h "kq"
<BEGINHMM>
<NUMSTATES> 5
<STATE> 2
<NUMMIXES> 2
<MIXTURE> 1 6.466666e-01
<MEAN> 39
 -6.675462e+00 4.109447e+00 4.446803e+00 2.131277e+00 5.367582e+00 2.569955e-02 5.192373e-01 2.085404e+00 -1.411770e+00 -1.533868e+00 -8.030171e-01 1.630754e+00 -7.879708e-01 -6.064678e-01 1.987111e-01 -1.955303e-01 1.000223e-01 -1.864813e-01 2.801058e-01 1.209642e-01 -1.453330e-01 3.625982e-01 2.528692e-01 1.644333e-02 4.619769e-02 5.790233e-02 -4.821587e-02 -1.840331e-01 6.083298e-02 -1.896175e-01 1.749704e-01 -2.328826e-01 1.863226e-01 -8.250051e-02 -3.564842e-02 -2.380019e-02 3.680048e-03 3.817399e-03 -5.136287e-02
<VARIANCE> 39
 3.478658e+01 5.833422e+01 3.711581e+01 6.794362e+01 7.234637e+01 5.383254e+01 6.194919e+01 6.725155e+01 4.894656e+01 3.198094e+01 3.121746e+01 3.132636e+01 2.480786e+01 6.232873e-01 1.218879e+00 1.422674e+00 1.878382e+00 2.235432e+00 1.926233e+00 2.562474e+00 2.386793e+00 2.374635e+00 1.988060e+00 1.687675e+00 1.755305e+00 1.255773e+00 1.263686e-01 3.261719e-01 3.032604e-01 4.072651e-01 4.307551e-01 4.532077e-01 5.249786e-01 5.137493e-01 4.892464e-01 4.345232e-01 3.686273e-01 3.876703e-01 2.608704e-01
<GCONST> 1.149626e+02
<MIXTURE> 2 3.533333e-01
<MEAN> 39
 3.930009e+00 -3.318837e+00 4.502096e+00 -8.377153e+00 6.463782e+00 -1.498402e+01 6.310034e+00 5.533216e+00 -1.982086e+00 -7.990862e+00 -3.137584e+00 2.286650e+00 -4.018532e+00 -7.686962e-01 1.030999e+00 2.684927e-01 5.466146e-01 -2.829943e-01 1.285500e+00 1.269102e-01 7.948056e-02 -1.740485e-01 6.254643e-01 -8.013492e-02 -1.348440e-01 3.025547e-01 -5.880634e-02 2.834537e-02 -8.701362e-02 7.502899e-02 -7.573517e-02 1.316651e-01 -1.045980e-01 -3.038632e-02 1.233684e-01 3.173770e-02 4.646492e-02 -8.910101e-03 1.074699e-01
<VARIANCE> 39
 3.625926e+01 5.992501e+01 6.594973e+01 6.951900e+01 9.668516e+01 7.041304e+01 9.834764e+01 5.878363e+01 1.486509e+02 5.768772e+01 4.532990e+01 2.828331e+01 4.161261e+01 9.857185e-01 1.699324e+00 2.286045e+00 2.012340e+00 2.749338e+00 3.064316e+00 3.777677e+00 2.949690e+00 2.958100e+00 2.695918e+00 2.354236e+00 1.639668e+00 1.631544e+00 1.327990e-01 2.310634e-01 3.463317e-01 3.107326e-01 4.517390e-01 4.055796e-01 5.216147e-01 4.759718e-01 4.795416e-01 4.740988e-01 4.160837e-01 2.795356e-01 2.746096e-01
<GCONST> 1.219928e+02
<STATE> 3
<NUMMIXES> 2
<MIXTURE> 1 5.730304e-01
<MEAN> 39
 -1.106894e+01 5.006258e+00 5.354090e+00 8.485563e-01 8.191278e+00 -2.588544e+00 4.592705e+00 -7.045244e-01 1.386449e+00 -9.595290e-01 -1.143825e+00 1.766135e+00 -1.396873e+00 -5.806618e-01 -1.847699e+00 -3.347796e-01 -1.541652e+00 1.999871e-01 -8.524419e-01 1.168815e+00 -4.256027e-01 1.245839e-01 -7.670797e-02 4.552043e-01 -1.436621e-01 2.394657e-01 3.319587e-01 -1.016231e+00 -1.243150e-01 -7.620116e-01 -4.210948e-03 -3.574778e-01 1.929806e-01 -5.440398e-02 -3.221735e-01 -1.830025e-01 1.624734e-01 -9.717366e-02 4.196078e-02
<VARIANCE> 39
 3.360139e+01 4.421992e+01 3.304276e+01 5.989608e+01 7.279927e+01 5.977661e+01 5.829346e+01 5.541409e+01 5.029402e+01 3.578546e+01 3.771600e+01 3.116771e+01 2.733166e+01 2.447441e+00 8.378836e+00 4.225357e+00 7.079588e+00 5.400634e+00 6.454606e+00 6.255615e+00 5.402902e+00 4.571196e+00 3.971976e+00 3.500595e+00 3.144655e+00 2.361659e+00 3.324257e-01 7.482958e-01 5.447969e-01 7.686535e-01 6.708909e-01 7.515325e-01 8.829403e-01 6.654396e-01 6.674655e-01 6.443791e-01 5.476466e-01 4.547720e-01 3.897235e-01
<GCONST> 1.338963e+02
<MIXTURE> 2 4.269696e-01
<MEAN> 39
 -9.458154e+00 -1.008723e+01 2.663273e+00 -1.066949e+01 8.749968e+00 -6.894410e+00 9.646104e+00 -2.104649e+00 -2.135233e+00 -2.485986e+00 1.483931e+00 3.225555e-01 -9.696227e-01 5.397211e-01 -2.261439e+00 -1.350534e-02 -2.519713e+00 1.772256e-01 -1.395495e+00 1.040388e+00 -6.650627e-01 -6.040910e-01 -6.298835e-01 5.572392e-01 -1.694778e-01 3.611945e-01 3.894265e-03 1.204481e+00 4.759535e-01 7.684711e-01 -2.618459e-02 1.334102e-01 -3.786122e-01 1.088573e-01 2.144042e-01 -2.392469e-02 -2.052125e-01 1.134676e-01 4.441645e-02
<VARIANCE> 39
 3.014506e+01 5.706096e+01 5.423904e+01 6.351302e+01 8.225172e+01 9.136845e+01 9.205642e+01 7.329276e+01 5.714747e+01 4.434961e+01 4.385767e+01 3.954207e+01 2.577478e+01 2.793777e+00 9.775451e+00 4.272019e+00 7.413075e+00 4.954334e+00 6.656582e+00 6.049227e+00 4.655631e+00 4.257749e+00 3.539858e+00 2.913764e+00 2.909036e+00 2.328394e+00 4.718167e-01 1.016070e+00 9.741445e-01 1.035166e+00 9.456133e-01 1.163299e+00 1.147159e+00 1.017743e+00 8.303148e-01 7.370068e-01 5.878035e-01 5.674931e-01 4.322813e-01
<GCONST> 1.399464e+02
<STATE> 4
<NUMMIXES> 2
<MIXTURE> 1 4.480987e-01
<MEAN> 39
 -5.553449e+00 -3.933402e+00 8.804198e+00 -2.967706e+00 9.790676e+00 -5.487975e+00 5.465300e+00 -2.175167e-01 -2.734560e+00 -3.374891e+00 -5.208600e-01 1.207625e+00 -1.402699e+00 1.365110e+00 3.907665e-01 6.540962e-02 1.093802e+00 1.388994e-01 -5.056281e-01 -1.492971e+00 2.760712e-01 -3.906025e-01 -5.645402e-01 -4.492422e-01 -9.681083e-02 -4.909095e-01 8.445967e-02 -2.755817e-01 -3.557285e-01 -2.988332e-01 -1.456669e-01 -3.476869e-01 -1.188223e-01 1.137012e-02 -2.040813e-02 -1.275429e-01 1.350908e-01 5.404533e-02 1.552736e-02
<VARIANCE> 39
 5.482442e+01 7.431882e+01 6.875012e+01 1.015725e+02 7.969991e+01 8.973303e+01 7.316738e+01 6.207630e+01 6.358129e+01 4.448799e+01 6.058573e+01 3.832045e+01 2.697070e+01 4.035645e+00 4.764694e+00 4.261990e+00 5.621067e+00 5.398651e+00 5.902934e+00 6.812556e+00 3.663170e+00 4.049970e+00 3.460561e+00 3.579072e+00 2.648995e+00 2.682033e+00 4.584017e-01 6.257800e-01 7.275636e-01 6.046699e-01 5.795606e-01 6.160643e-01 8.853172e-01 5.862849e-01 5.797687e-01 4.819883e-01 5.065972e-01 4.172705e-01 3.424328e-01
<GCONST> 1.361606e+02
<MIXTURE> 2 5.519013e-01
<MEAN> 39
 -1.192786e+01 -1.068887e+01 7.372059e+00 -1.394329e+01 9.345369e+00 -1.177334e+01 1.194317e+01 -3.157588e+00 4.092319e-01 -5.501534e+00 2.662824e+00 5.373991e-01 1.518932e+00 -1.660768e-01 4.655530e-01 1.374365e+00 6.437963e-01 4.214263e-01 3.233429e-02 -1.272384e-01 1.095533e-01 9.219187e-02 1.991343e-02 -1.904067e-01 3.633410e-02 6.616597e-02 2.579117e-01 4.657410e-01 9.772496e-02 8.194223e-01 1.690739e-01 3.395517e-01 -4.642264e-01 1.387534e-01 -3.769282e-02 6.662577e-02 -2.049716e-01 -2.519030e-02 -2.704750e-01
<VARIANCE> 39
 5.784310e+01 5.469394e+01 4.988196e+01 8.256348e+01 8.395203e+01 7.976008e+01 1.157549e+02 5.243906e+01 3.980891e+01 3.883690e+01 4.150733e+01 3.500827e+01 3.256940e+01 1.891039e+00 2.160956e+00 2.646905e+00 3.981113e+00 2.966329e+00 3.075253e+00 2.844119e+00 2.098119e+00 1.902403e+00 1.754028e+00 2.089733e+00 1.686041e+00 1.599994e+00 4.261891e-01 7.255988e-01 4.913920e-01 8.582850e-01 7.570920e-01 7.218781e-01 8.658827e-01 5.172516e-01 4.449926e-01 4.438013e-01 4.705978e-01 3.780339e-01 3.573825e-01
<GCONST> 1.265608e+02
<TRANSP> 5
 0.000000e+00 1.000000e+00 0.000000e+00 0.000000e+00 0.000000e+00
 0.000000e+00 8.723232e-01 1.276768e-01 0.000000e+00 0.000000e+00
 0.000000e+00 0.000000e+00 8.135143e-01 1.864857e-01 0.000000e+00
 0.000000e+00 0.000000e+00 0.000000e+00 7.834875e-01 2.165125e-01
 0.000000e+00 0.000000e+00 0.000000e+00 0.000000e+00 0.000000e+00
<ENDHMM>
