~o
<STREAMINFO> 1 39
<VECSIZE> 39<NULLD><MFCC_D_A><DIAGC>
~h "n"
<BEGINHMM>
<NUMSTATES> 5
<STATE> 2
<NUMMIXES> 2
<MIXTURE> 1 3.984792e-01
<MEAN> 39
 5.351919e+00 1.740347e+00 7.337350e+00 1.996971e+00 9.109060e+00 -2.793853e+00 -6.560696e+00 -6.249671e+00 -7.855448e+00 -8.406974e+00 -5.452034e+00 -6.440722e+00 -7.467530e+00 -1.748577e-02 3.493894e-01 1.746911e-01 1.341856e-01 1.863974e-01 3.639452e-01 -1.696079e-01 -1.820232e-01 4.468802e-02 1.281726e-01 -1.478185e-01 -2.240390e-01 5.670901e-03 -5.524060e-02 -1.355667e-01 -3.429596e-02 -6.708565e-02 -5.488572e-02 -1.527990e-01 9.617635e-02 1.151017e-03 7.210461e-02 2.983942e-02 2.575711e-02 1.038843e-01 4.517307e-02
<VARIANCE> 39
 3.283501e+01 4.841190e+01 3.643396e+01 7.831425e+01 1.062030e+02 1.009330e+02 6.556683e+01 7.765529e+01 1.095675e+02 8.320598e+01 5.519283e+01 6.447974e+01 6.128576e+01 3.276411e-01 1.222576e+00 1.154608e+00 1.714086e+00 1.487023e+00 2.316534e+00 2.051151e+00 1.864733e+00 1.748793e+00 1.896878e+00 1.667437e+00 1.661599e+00 1.197715e+00 5.848025e-02 1.957746e-01 1.823670e-01 2.711826e-01 2.457683e-01 3.862346e-01 3.515476e-01 3.329606e-01 3.051323e-01 3.412492e-01 2.822163e-01 2.762453e-01 2.136346e-01
<GCONST> 1.126416e+02
<MIXTURE> 2 6.015208e-01
<MEAN> 39
 7.631626e+00 2.938082e+00 8.245627e+00 5.802643e+00 6.575683e+00 -3.253042e-01 -6.791739e+00 -7.852407e+00 -4.796392e+00 -7.846133e+00 -7.557872e+00 -7.660923e+00 -8.384742e+00 -2.848066e-02 1.679447e-01 4.663485e-02 -2.408650e-02 5.180971e-02 6.188405e-02 -1.620909e-02 -2.127203e-02 3.130046e-02 1.696320e-02 -4.825711e-02 -8.152589e-03 4.857870e-02 -1.018746e-02 -3.217150e-02 -1.228965e-02 -9.486937e-03 -2.124042e-03 -1.065763e-02 3.434538e-02 8.254588e-03 -1.937136e-02 -1.669385e-02 9.909089e-03 4.395678e-02 1.115029e-02
<VARIANCE> 39
 2.359516e+01 3.278587e+01 1.748313e+01 6.421082e+01 8.311690e+01 8.441754e+01 4.229968e+01 5.283354e+01 1.324748e+02 8.017454e+01 5.827132e+01 6.001834e+01 4.492298e+01 4.599894e-02 1.848891e-01 1.816559e-01 2.629686e-01 3.183591e-01 3.754166e-01 4.145622e-01 4.248920e-01 4.987502e-01 4.535066e-01 4.817677e-01 4.112690e-01 3.524466e-01 1.000000e-02 2.766409e-02 3.264310e-02 4.926587e-02 5.895380e-02 7.277959e-02 7.410678e-02 7.694150e-02 8.690194e-02 8.323533e-02 8.125649e-02 7.324401e-02 6.193461e-02
<GCONST> 6.925904e+01
<STATE> 3
<NUMMIXES> 2
<MIXTURE> 1 5.706106e-01
<MEAN> 39
 3.506287e+00 5.203376e+00 1.047737e+01 4.901196e+00 1.324157e+01 4.132837e+00 -7.410097e+00 -4.576293e+00 1.678118e-02 -3.495342e+00 -9.764543e+00 -5.570149e+00 -1.731076e+00 -7.035699e-02 7.640240e-02 8.742174e-02 -2.761156e-02 -7.119360e-02 4.221365e-02 7.114504e-02 -1.348568e-02 2.142532e-02 4.199510e-02 5.810405e-02 -3.574424e-03 -1.451553e-02 -1.703909e-02 -6.435568e-02 -3.817055e-02 -1.337469e-02 -5.319107e-02 -4.922993e-02 1.040270e-01 5.989224e-02 -2.909176e-02 -5.569582e-02 4.214473e-02 6.143180e-02 -2.050222e-02
<VARIANCE> 39
 2.002979e+01 2.019586e+01 3.501332e+01 7.552222e+01 6.693204e+01 4.638395e+01 8.971029e+01 7.191122e+01 6.391911e+01 6.437757e+01 4.285194e+01 3.271912e+01 3.940530e+01 8.206388e-02 2.746528e-01 3.452048e-01 4.352593e-01 5.770378e-01 6.446388e-01 8.604610e-01 8.186982e-01 8.138140e-01 8.452580e-01 7.355202e-01 6.624715e-01 5.505949e-01 1.461518e-02 5.776614e-02 6.971427e-02 9.642787e-02 1.125739e-01 1.427480e-01 1.748008e-01 1.609705e-01 1.596097e-01 1.728165e-01 1.417130e-01 1.371465e-01 1.070250e-01
<GCONST> 8.335095e+01
<MIXTURE> 2 4.293894e-01
<MEAN> 39
 -8.069274e-01 5.125101e+00 9.776904e+00 5.064307e+00 9.984889e+00 1.969290e+00 -3.627943e+00 -5.502779e+00 -3.118084e+00 -3.379375e+00 -5.889872e+00 -5.092947e+00 -2.775481e+00 2.536373e-02 -3.019921e-01 6.905308e-02 6.129158e-02 6.527421e-02 -2.935147e-01 3.432182e-01 -4.632584e-03 -1.473905e-01 -2.261671e-01 4.209830e-03 1.867935e-01 -4.712078e-02 -4.100841e-03 -2.978576e-01 -1.909734e-01 -7.485344e-02 -7.094732e-03 -2.806004e-01 9.137597e-02 9.908105e-02 -5.414703e-02 -1.304515e-01 1.135715e-01 1.965292e-01 -1.256302e-02
<VARIANCE> 39
 6.620120e+01 4.401093e+01 4.871198e+01 5.985159e+01 7.466387e+01 6.101136e+01 7.137818e+01 7.941960e+01 6.936333e+01 7.039189e+01 4.650000e+01 4.546684e+01 4.987635e+01 2.029289e+00 2.619143e+00 2.470711e+00 2.654231e+00 2.620845e+00 2.870001e+00 3.952829e+00 2.954500e+00 2.735879e+00 2.813439e+00 2.213998e+00 2.258683e+00 1.528041e+00 2.637529e-01 4.958670e-01 4.597064e-01 4.487465e-01 4.514323e-01 5.489570e-01 6.627457e-01 5.552654e-01 5.091496e-01 5.303587e-01 4.168637e-01 4.117234e-01 2.869726e-01
<GCONST> 1.265322e+02
<STATE> 4
<NUMMIXES> 2
<MIXTURE> 1 5.797779e-01
<MEAN> 39
 2.227675e+00 -6.890638e-01 7.839486e+00 2.011017e+00 1.023947e+01 -4.019504e+00 -2.052159e+00 -6.314403e+00 -7.140925e+00 -7.821518e+00 -5.343366e+00 -3.665143e+00 -3.745990e+00 -1.265675e-01 -1.338047e+00 -8.199244e-01 -8.139778e-01 -3.722168e-01 -1.386518e+00 2.688888e-01 3.133065e-01 -4.629481e-02 -1.183304e-01 6.772687e-01 8.440336e-01 6.474450e-02 6.346860e-02 9.872297e-02 2.716435e-02 -1.172507e-01 -7.562220e-02 -3.802959e-02 -3.005089e-01 2.481602e-02 9.448796e-02 1.333616e-01 3.554936e-02 -1.195894e-01 -2.665116e-02
<VARIANCE> 39
 2.923780e+01 4.137160e+01 4.101942e+01 7.938960e+01 1.063591e+02 9.101151e+01 5.591152e+01 8.081728e+01 6.854614e+01 5.620213e+01 4.793273e+01 4.553080e+01 5.557071e+01 8.851737e-01 3.563203e+00 3.015442e+00 4.565978e+00 3.527245e+00 5.344188e+00 5.011961e+00 4.513997e+00 3.985011e+00 4.741261e+00 3.436142e+00 3.405175e+00 2.405010e+00 1.124644e-01 4.979475e-01 4.861000e-01 5.831017e-01 4.905613e-01 7.141644e-01 7.412387e-01 7.324036e-01 5.783545e-01 7.031883e-01 5.350898e-01 5.187150e-01 3.687591e-01
<GCONST> 1.315406e+02
<MIXTURE> 2 4.202221e-01
<MEAN> 39
 8.596779e+00 -3.270738e+00 6.594601e+00 3.760092e+00 1.132589e+00 4.793306e-01 -6.135448e+00 -6.431602e+00 -7.922511e-01 -9.186069e+00 -6.196751e+00 -4.801508e-01 -6.864538e+00 -1.533807e-02 -2.192025e-01 -1.297413e-01 -2.312236e-01 -3.562035e-01 -3.795066e-01 1.863939e-02 2.000509e-01 1.262193e-02 -3.918877e-03 2.226153e-01 1.568849e-01 -3.037666e-02 -4.990709e-02 -6.380747e-03 4.615479e-02 2.312060e-02 -3.645571e-03 1.577596e-02 5.993811e-02 -6.139779e-03 4.221311e-02 4.667199e-02 -4.849003e-02 -3.393243e-02 2.485703e-02
<VARIANCE> 39
 5.243822e+01 8.116798e+01 3.950153e+01 9.385831e+01 1.851733e+02 1.292135e+02 5.631808e+01 7.762376e+01 1.359277e+02 7.397235e+01 6.728263e+01 5.520131e+01 5.663156e+01 3.048735e-01 1.156041e+00 8.533011e-01 1.037101e+00 1.395071e+00 1.684817e+00 1.653903e+00 1.440414e+00 1.497625e+00 1.427512e+00 1.324296e+00 1.131642e+00 9.893994e-01 4.395611e-02 2.298136e-01 1.251034e-01 1.759194e-01 2.266811e-01 2.970006e-01 2.431985e-01 2.402229e-01 2.632060e-01 2.509238e-01 2.279548e-01 1.960549e-01 1.633004e-01
<GCONST> 1.083135e+02
<TRANSP> 5
 0.000000e+00 1.000000e+00 0.000000e+00 0.000000e+00 0.000000e+00
 0.000000e+00 8.124740e-01 1.875261e-01 0.000000e+00 0.000000e+00
 0.000000e+00 0.000000e+00 7.924019e-01 2.075981e-01 0.000000e+00
 0.000000e+00 0.000000e+00 0.000000e+00 7.348862e-01 2.651139e-01
 0.000000e+00 0.000000e+00 0.000000e+00 0.000000e+00 0.000000e+00
<ENDHMM>
