~o
<STREAMINFO> 1 39
<VECSIZE> 39<NULLD><MFCC_D_A><DIAGC>
~h "q"
<BEGINHMM>
<NUMSTATES> 5
<STATE> 2
<NUMMIXES> 2
<MIXTURE> 1 4.818868e-01
<MEAN> 39
 3.345742e+00 5.810040e-01 7.216249e+00 9.763082e-01 9.901847e+00 -6.479339e+00 -4.113169e+00 -1.878417e+00 -5.323315e+00 -6.870883e+00 -3.156047e+00 -4.365325e+00 -6.319518e+00 -1.028151e-01 7.343256e-01 4.131575e-01 5.984660e-01 3.009634e-02 1.182541e+00 3.662311e-02 -1.891907e-01 1.800576e-01 1.609485e-01 -4.755167e-01 -4.865694e-01 -6.025416e-02 -3.624255e-02 -4.531901e-02 -1.643464e-02 -2.498861e-02 -2.541705e-02 -9.985666e-02 -9.356625e-03 1.753620e-02 4.185548e-02 -2.500092e-03 -1.390791e-03 2.007705e-02 1.876066e-02
<VARIANCE> 39
 4.477005e+01 4.920749e+01 5.909296e+01 8.017692e+01 1.275471e+02 9.459454e+01 7.690301e+01 8.543455e+01 8.066875e+01 8.267345e+01 7.453419e+01 5.069402e+01 5.662914e+01 8.982921e-01 1.602659e+00 1.895939e+00 2.513197e+00 2.755329e+00 3.315070e+00 3.363334e+00 2.810105e+00 2.750867e+00 2.893890e+00 2.449243e+00 2.276393e+00 1.703046e+00 1.171504e-01 2.118005e-01 2.625345e-01 3.270232e-01 3.588705e-01 4.863867e-01 4.626215e-01 4.201603e-01 3.896787e-01 4.072081e-01 3.738934e-01 3.317112e-01 2.522141e-01
<GCONST> 1.229739e+02
<MIXTURE> 2 5.181132e-01
<MEAN> 39
 5.690621e+00 2.578025e+00 5.863310e+00 -1.837268e-01 4.780760e+00 -8.824026e+00 -4.889619e+00 -3.031059e-01 -8.575439e+00 -1.577141e+01 -8.533611e+00 -1.081729e+01 -1.325496e+01 -1.173194e-01 2.987885e-01 2.230414e-01 1.690213e-01 4.644436e-02 1.486880e-01 -3.938787e-02 -1.048032e-01 8.594444e-02 6.757560e-02 -1.067795e-01 -3.486259e-02 1.815168e-02 -2.403654e-02 1.238031e-02 -2.458589e-03 -2.347128e-02 -1.758583e-02 7.125944e-03 6.154739e-02 -6.320093e-02 -1.492555e-03 7.547775e-02 3.565738e-02 8.257663e-02 5.234227e-02
<VARIANCE> 39
 1.882209e+01 4.956591e+01 3.560215e+01 6.323928e+01 8.744816e+01 8.013349e+01 6.709013e+01 9.100706e+01 8.262012e+01 8.447004e+01 7.465903e+01 6.375404e+01 5.887888e+01 9.953773e-02 3.850192e-01 3.973032e-01 5.524316e-01 5.913710e-01 7.409477e-01 8.233635e-01 9.021106e-01 8.706291e-01 8.722892e-01 8.121260e-01 7.880431e-01 6.588092e-01 1.560881e-02 6.060344e-02 6.856904e-02 1.070224e-01 1.105962e-01 1.541252e-01 1.433108e-01 1.444205e-01 1.514981e-01 1.525497e-01 1.515947e-01 1.370103e-01 1.066323e-01
<GCONST> 8.845357e+01
<STATE> 3
<NUMMIXES> 2
<MIXTURE> 1 5.859271e-01
<MEAN> 39
 3.170681e+00 5.362427e+00 1.363712e+01 4.014369e+00 9.427770e+00 1.093826e+00 -3.948317e+00 -7.364102e+00 -1.978473e-01 -1.825489e+00 -8.909153e+00 -6.936682e+00 -3.056268e+00 -3.009064e-01 3.725832e-01 1.898105e-01 3.197896e-01 -3.557805e-02 1.437108e-01 3.223524e-01 4.932014e-02 -3.009862e-02 4.531319e-02 1.008736e-01 2.075950e-01 -5.682812e-03 -6.604641e-02 -5.780746e-02 -7.849506e-02 1.746980e-03 -4.182800e-02 -4.405513e-02 1.584991e-01 9.090375e-02 -4.532163e-02 -6.077570e-02 1.123642e-01 9.985353e-02 -1.939009e-02
<VARIANCE> 39
 3.084507e+01 3.149492e+01 3.268843e+01 5.093386e+01 7.199239e+01 7.979078e+01 6.254811e+01 7.328622e+01 8.118707e+01 7.833757e+01 4.212594e+01 4.403105e+01 5.037801e+01 2.499273e-01 5.795090e-01 6.791817e-01 8.005845e-01 1.001905e+00 1.130129e+00 1.461770e+00 1.386006e+00 1.310157e+00 1.338352e+00 1.177498e+00 1.078028e+00 8.706706e-01 3.607676e-02 9.862011e-02 1.208277e-01 1.477144e-01 1.816158e-01 2.104348e-01 2.477854e-01 2.383883e-01 2.350615e-01 2.404811e-01 2.048243e-01 1.831269e-01 1.515256e-01
<GCONST> 9.841209e+01
<MIXTURE> 2 4.140729e-01
<MEAN> 39
 5.349983e+00 2.777307e+00 8.186657e+00 3.777423e+00 8.561783e+00 7.886965e-01 -2.783470e+00 -3.126126e+00 -1.413942e+00 -4.154404e+00 -6.279182e+00 -6.493417e+00 -4.759153e+00 -7.117350e-02 2.787330e-01 1.316233e-01 5.824064e-02 7.775632e-02 1.942516e-02 -7.914018e-02 5.509277e-03 6.026671e-02 -3.137926e-02 -7.356141e-02 -1.405881e-02 -1.627725e-02 -1.978471e-02 3.458065e-02 1.435352e-02 2.760304e-03 6.750149e-03 7.990119e-03 1.151934e-02 6.573009e-04 -4.569483e-03 9.138961e-04 1.139753e-03 1.984844e-02 -3.360827e-03
<VARIANCE> 39
 2.217853e+01 2.231771e+01 3.075179e+01 4.629649e+01 6.489172e+01 5.222208e+01 4.330276e+01 4.923956e+01 8.506234e+01 6.185719e+01 4.932106e+01 4.369385e+01 2.959336e+01 3.381015e-02 1.598187e-01 1.348252e-01 1.743257e-01 2.377189e-01 2.399783e-01 3.107653e-01 3.060859e-01 3.391965e-01 3.258966e-01 3.335840e-01 2.935074e-01 2.277421e-01 1.000000e-02 1.435359e-02 2.145554e-02 3.102922e-02 4.028651e-02 4.433741e-02 5.416277e-02 5.176156e-02 5.769765e-02 5.584107e-02 5.486159e-02 5.080225e-02 4.002799e-02
<GCONST> 5.716700e+01
<STATE> 4
<NUMMIXES> 2
<MIXTURE> 1 4.878532e-01
<MEAN> 39
 -5.264887e+00 7.806032e+00 7.741979e+00 5.247439e+00 7.276016e+00 -1.848139e+00 1.357259e+00 -2.395654e+00 -1.217480e+00 -4.247908e+00 -5.381192e+00 -2.795049e+00 -5.588177e+00 -6.831757e-01 1.786262e-01 -1.904672e-01 1.633078e-01 8.089553e-02 2.612241e-01 4.945114e-01 2.691475e-02 2.656423e-01 3.596934e-01 1.297752e-01 3.770785e-01 1.498377e-01 -3.969344e-02 -9.551053e-02 -6.324544e-02 -5.726741e-02 4.496475e-02 -1.613201e-02 -5.513655e-02 -1.037349e-02 -2.729746e-03 1.682334e-02 1.786627e-02 -7.625936e-03 2.473566e-02
<VARIANCE> 39
 6.027519e+01 5.326043e+01 6.283479e+01 4.246045e+01 4.856732e+01 5.540116e+01 4.138175e+01 4.396824e+01 3.963840e+01 5.465475e+01 5.240326e+01 4.013994e+01 4.274543e+01 8.222567e-01 9.321944e-01 1.044376e+00 9.648396e-01 1.082067e+00 1.130382e+00 1.429122e+00 1.639008e+00 1.345872e+00 1.540137e+00 1.418144e+00 1.178174e+00 1.014900e+00 1.051442e-01 1.756690e-01 1.787868e-01 1.746205e-01 2.029317e-01 2.146413e-01 2.406424e-01 2.680335e-01 2.484201e-01 2.573117e-01 2.628839e-01 2.104660e-01 1.851510e-01
<GCONST> 1.035188e+02
<MIXTURE> 2 5.121468e-01
<MEAN> 39
 -5.896935e+00 2.510933e+00 9.512474e+00 4.058672e+00 6.832036e+00 -2.584228e+00 1.784795e-01 -3.458148e+00 -1.960566e+00 -3.500450e+00 -4.302875e+00 -3.050265e+00 -4.320060e+00 -7.610667e-01 -6.137704e-01 -4.592258e-01 -2.106862e-01 -2.818563e-01 1.915619e-01 5.789047e-01 1.949016e-01 -1.715862e-02 1.067805e-01 4.472113e-01 4.188241e-01 2.436209e-01 5.609538e-02 -1.367432e-01 -3.511554e-02 -5.715309e-02 -5.411660e-03 -6.196593e-02 -4.091935e-02 5.453481e-02 1.086938e-02 -5.138959e-02 -1.757768e-03 -2.185142e-02 6.207022e-03
<VARIANCE> 39
 8.019395e+01 9.485773e+01 6.908904e+01 7.480928e+01 8.272325e+01 8.037621e+01 6.657729e+01 6.566027e+01 6.021353e+01 6.079450e+01 4.703722e+01 4.270130e+01 3.761622e+01 2.371157e+00 4.421217e+00 3.588525e+00 3.343350e+00 3.380350e+00 3.984716e+00 4.086501e+00 4.251669e+00 3.487770e+00 3.512835e+00 2.967813e+00 2.327091e+00 2.093244e+00 3.316075e-01 7.774804e-01 5.794146e-01 5.778782e-01 5.781019e-01 6.531757e-01 7.011937e-01 6.979331e-01 5.842122e-01 5.577810e-01 5.156883e-01 4.208865e-01 3.632931e-01
<GCONST> 1.334547e+02
<TRANSP> 5
 0.000000e+00 1.000000e+00 0.000000e+00 0.000000e+00 0.000000e+00
 0.000000e+00 8.484660e-01 1.515340e-01 0.000000e+00 0.000000e+00
 0.000000e+00 0.000000e+00 8.523229e-01 1.476771e-01 0.000000e+00
 0.000000e+00 0.000000e+00 0.000000e+00 8.334827e-01 1.665173e-01
 0.000000e+00 0.000000e+00 0.000000e+00 0.000000e+00 0.000000e+00
<ENDHMM>
