~o
<STREAMINFO> 1 39
<VECSIZE> 39<NULLD><MFCC_D_A><DIAGC>
~h "sh"
<BEGINHMM>
<NUMSTATES> 5
<STATE> 2
<NUMMIXES> 2
<MIXTURE> 1 4.953607e-01
<MEAN> 39
 -3.810165e+00 -8.856727e+00 9.454802e+00 4.285112e+00 9.789230e+00 -4.615838e+00 -2.705450e+00 -5.784425e+00 -1.181073e+00 -5.294319e+00 -2.404663e+00 -8.389487e-01 -3.851214e+00 -1.536352e+00 -1.502249e+00 1.326686e+00 1.645335e-01 1.662386e-01 9.385940e-01 8.358916e-01 -2.026244e-01 6.982788e-01 3.541225e-01 3.055479e-01 1.800908e-01 3.357129e-01 -2.340456e-01 -2.123093e-01 -8.382112e-02 -8.962464e-02 -2.045736e-03 -8.909907e-02 9.969879e-02 1.275896e-01 7.186784e-02 -3.958281e-02 9.747887e-02 1.014559e-02 1.109623e-02
<VARIANCE> 39
 8.274332e+01 7.782307e+01 9.396931e+01 7.963438e+01 1.278430e+02 1.195907e+02 7.520648e+01 6.136443e+01 5.600880e+01 5.707730e+01 5.044122e+01 5.440595e+01 5.219585e+01 2.697923e+00 3.895639e+00 2.785155e+00 2.284272e+00 2.378399e+00 3.296138e+00 3.432686e+00 2.972914e+00 2.661748e+00 2.560539e+00 2.422322e+00 1.785189e+00 1.766296e+00 2.110431e-01 4.506917e-01 4.702725e-01 3.375141e-01 3.626174e-01 4.795212e-01 4.209802e-01 4.651079e-01 3.940723e-01 4.137971e-01 3.641841e-01 3.126821e-01 2.726357e-01
<GCONST> 1.270598e+02
<MIXTURE> 2 5.046393e-01
<MEAN> 39
 -1.888268e+01 -1.754656e+01 1.645195e+01 1.818531e+00 1.343334e+01 -2.925294e+00 4.623674e+00 -5.426597e+00 2.619522e+00 -3.747548e+00 4.785959e-01 -1.532027e+00 -9.428526e-01 -2.035000e+00 -1.524597e+00 -5.476587e-01 -8.245842e-01 -6.088013e-01 -2.274339e-01 3.262793e-01 2.526700e-01 5.504311e-01 1.121079e-03 2.974874e-01 8.081716e-02 3.392175e-01 3.623459e-01 2.424990e-01 -2.069154e-01 -6.421261e-02 -1.689548e-01 -1.835310e-01 -3.026361e-01 -1.118551e-01 -1.749869e-01 -8.626398e-02 -1.451235e-01 -3.630549e-02 -5.257785e-02
<VARIANCE> 39
 4.299120e+01 6.973972e+01 4.385440e+01 4.482241e+01 5.810745e+01 4.332170e+01 4.856565e+01 4.505603e+01 4.292429e+01 2.998879e+01 2.930313e+01 3.114938e+01 3.229164e+01 9.397589e-01 7.765734e-01 1.179820e+00 1.203965e+00 1.263425e+00 1.456456e+00 1.862724e+00 1.677844e+00 1.658072e+00 1.564262e+00 1.516433e+00 1.317037e+00 1.113169e+00 8.055464e-02 1.162100e-01 2.304315e-01 2.171994e-01 2.378177e-01 2.636689e-01 3.017974e-01 2.914045e-01 3.038807e-01 2.973026e-01 2.766861e-01 2.407187e-01 2.213044e-01
<GCONST> 1.042897e+02
<STATE> 3
<NUMMIXES> 2
<MIXTURE> 1 8.362868e-01
<MEAN> 39
 -2.564339e+01 -2.326108e+01 1.218428e+01 -2.262683e+00 8.390888e+00 -5.289563e+00 3.288623e+00 -4.967476e+00 4.012695e+00 -3.572881e+00 1.437587e+00 -5.948035e-01 4.637283e-01 -3.979963e-02 -1.516181e-01 -2.572757e-01 -1.915285e-01 -1.204753e-01 -1.398691e-01 -8.814321e-02 -4.486024e-02 6.125624e-02 8.797744e-02 8.485189e-02 1.205547e-01 6.848163e-02 1.386171e-01 7.343667e-02 6.940837e-03 4.818333e-02 5.623593e-02 2.865535e-02 1.989129e-04 -7.326505e-03 -2.470995e-02 2.680502e-02 1.131285e-02 2.096103e-02 -1.373016e-02
<VARIANCE> 39
 2.646160e+01 6.131473e+01 4.021545e+01 3.755397e+01 3.947527e+01 3.494600e+01 3.692334e+01 4.065108e+01 3.408179e+01 2.454259e+01 2.601195e+01 2.003499e+01 2.163243e+01 4.705058e-01 4.157673e-01 5.650983e-01 6.679874e-01 7.930684e-01 9.043102e-01 1.035232e+00 1.158874e+00 1.188392e+00 1.171649e+00 1.103409e+00 1.013546e+00 8.559426e-01 4.508416e-02 6.630256e-02 9.360908e-02 1.244423e-01 1.518099e-01 1.785208e-01 2.043087e-01 2.263848e-01 2.344249e-01 2.334359e-01 2.241560e-01 2.046758e-01 1.770901e-01
<GCONST> 8.985741e+01
<MIXTURE> 2 1.637132e-01
<MEAN> 39
 -5.015499e+00 -3.607707e+01 1.778168e+01 1.308396e+01 -1.727823e+01 1.506275e+01 -4.909100e+00 -8.951486e+00 1.176581e+01 -8.631715e+00 -1.921654e+00 6.331104e+00 -1.030177e+01 -7.199915e-02 -1.790203e-01 -2.126320e-01 -1.554051e-01 -3.305688e-02 -7.605728e-03 -1.534537e-02 3.956434e-02 6.766245e-02 5.517786e-02 7.365327e-02 6.532742e-02 4.500281e-02 1.814598e-01 2.434755e-01 -4.819136e-02 4.173629e-02 1.111861e-01 -7.900710e-02 -4.642600e-02 -4.310948e-02 -1.072296e-01 -3.621559e-02 -7.777276e-02 -7.476822e-02 -2.120494e-02
<VARIANCE> 39
 2.663060e+01 3.315659e+01 5.975653e+01 4.903676e+01 2.878146e+01 3.806292e+01 2.711404e+01 2.960686e+01 2.952025e+01 2.681738e+01 3.708859e+01 2.667643e+01 1.896310e+01 1.685655e+00 2.323485e+00 1.064753e+00 1.102410e+00 1.733619e+00 1.476932e+00 1.377426e+00 1.361493e+00 1.540882e+00 1.461489e+00 1.306414e+00 1.214932e+00 1.171924e+00 1.307011e-01 2.396903e-01 1.853155e-01 1.898387e-01 2.503664e-01 3.114288e-01 2.592765e-01 2.621314e-01 3.059724e-01 3.045487e-01 2.772712e-01 2.461212e-01 2.414397e-01
<GCONST> 1.026413e+02
<STATE> 4
<NUMMIXES> 2
<MIXTURE> 1 4.154337e-01
<MEAN> 39
 -2.898010e+00 -9.539857e+00 1.031604e+01 3.109873e+00 6.315986e+00 -2.058895e+00 -2.547620e+00 -8.073895e+00 -1.991800e+00 -7.198606e+00 -3.683724e+00 -1.186564e+00 -4.672135e+00 2.683888e+00 1.808028e+00 -7.267108e-01 3.043549e-03 -2.327563e-01 -1.122265e+00 -1.242669e+00 -5.366516e-01 -1.166073e+00 -8.351951e-01 -7.969945e-01 -4.917778e-01 -4.456091e-01 -3.943331e-01 -4.894372e-01 -3.683114e-01 -3.704700e-01 -2.398954e-01 -2.737814e-01 5.313346e-03 1.210181e-01 1.512091e-01 1.447621e-01 2.846338e-01 1.656757e-01 1.769975e-01
<VARIANCE> 39
 9.712592e+01 7.876339e+01 4.928724e+01 7.122296e+01 1.242159e+02 1.080997e+02 6.347943e+01 5.437541e+01 6.336531e+01 4.613259e+01 3.813332e+01 4.213042e+01 5.141479e+01 4.048001e+00 4.069923e+00 3.122743e+00 2.991307e+00 2.630369e+00 4.560738e+00 3.237149e+00 3.402139e+00 3.155053e+00 3.100400e+00 2.990555e+00 2.172850e+00 2.243867e+00 4.102447e-01 3.993560e-01 4.717054e-01 4.201122e-01 4.040306e-01 6.600847e-01 5.452983e-01 4.344498e-01 4.325620e-01 4.339677e-01 3.683803e-01 2.889794e-01 2.624437e-01
<GCONST> 1.291774e+02
<MIXTURE> 2 5.845663e-01
<MEAN> 39
 -2.075526e+01 -1.950186e+01 9.220469e+00 -3.873127e+00 9.078379e+00 -4.868367e+00 2.926299e+00 -5.354848e+00 2.743750e+00 -1.768841e+00 2.575774e+00 1.565477e+00 8.554298e-01 1.788334e+00 1.274170e+00 7.911807e-02 7.774328e-01 4.971330e-01 4.477934e-01 -1.682545e-01 1.392413e-03 -4.915144e-01 -6.837178e-02 -3.177708e-01 -2.025392e-02 -3.856966e-01 4.561429e-01 4.742248e-01 1.695037e-01 2.489469e-01 7.005869e-02 3.045902e-02 -1.459803e-01 -5.996007e-02 -2.291673e-01 -2.545109e-01 -2.995870e-01 -2.004077e-01 -1.992176e-01
<VARIANCE> 39
 4.152830e+01 6.428680e+01 3.695214e+01 4.107680e+01 5.530191e+01 4.561212e+01 4.505748e+01 4.432112e+01 3.396259e+01 2.845307e+01 2.670877e+01 2.375935e+01 2.160960e+01 1.876535e+00 2.155750e+00 1.860565e+00 2.187624e+00 1.947654e+00 2.024304e+00 2.099769e+00 2.086237e+00 1.981838e+00 1.934847e+00 2.004751e+00 1.607152e+00 1.520951e+00 2.305661e-01 2.680840e-01 2.675475e-01 3.257408e-01 3.508752e-01 4.224536e-01 4.144306e-01 4.096480e-01 3.852760e-01 3.742473e-01 3.466477e-01 2.933510e-01 2.751558e-01
<GCONST> 1.128887e+02
<TRANSP> 5
 0.000000e+00 1.000000e+00 0.000000e+00 0.000000e+00 0.000000e+00
 0.000000e+00 8.696485e-01 1.303515e-01 0.000000e+00 0.000000e+00
 0.000000e+00 0.000000e+00 9.338334e-01 6.616666e-02 0.000000e+00
 0.000000e+00 0.000000e+00 0.000000e+00 8.497337e-01 1.502663e-01
 0.000000e+00 0.000000e+00 0.000000e+00 0.000000e+00 0.000000e+00
<ENDHMM>
