~o
<STREAMINFO> 1 39
<VECSIZE> 39<NULLD><MFCC_D_A><DIAGC>
~h "ae"
<BEGINHMM>
<NUMSTATES> 7
<STATE> 2
<NUMMIXES> 2
<MIXTURE> 1 7.064996e-01
<MEAN> 39
 -1.082490e+01 -2.205731e+00 5.303984e+00 -3.936108e-01 9.573312e+00 -2.517352e+00 4.987957e+00 3.612279e-02 -4.478773e-01 -8.971024e-02 2.084468e+00 -2.158665e-01 3.738647e-01 8.231757e-01 1.290459e-01 1.323285e-01 3.894646e-02 1.901199e-01 -2.664116e-01 -8.731585e-02 -2.745119e-01 -4.014448e-01 -1.641015e-01 1.530674e-01 3.307842e-02 -9.732073e-03 1.960543e-01 -3.446602e-02 -1.439152e-01 -1.187873e-01 6.398010e-02 -1.389113e-01 -2.128841e-01 1.062796e-01 -1.460427e-01 -1.430613e-01 1.044815e-01 8.259702e-02 4.982735e-02
<VARIANCE> 39
 1.005825e+02 7.495232e+01 5.420060e+01 4.939668e+01 6.328093e+01 4.841603e+01 3.080686e+01 5.247520e+01 3.942926e+01 2.823616e+01 2.577264e+01 3.704416e+01 2.469362e+01 4.335318e+00 2.789690e+00 1.880179e+00 2.573489e+00 2.688108e+00 2.921860e+00 2.525325e+00 2.469796e+00 2.632134e+00 2.172953e+00 1.827694e+00 1.704116e+00 1.445082e+00 3.070583e-01 4.040945e-01 3.984106e-01 4.581141e-01 4.275272e-01 5.355807e-01 4.769048e-01 5.209459e-01 4.100277e-01 3.687295e-01 3.912844e-01 3.138223e-01 2.460617e-01
<GCONST> 1.201622e+02
<MIXTURE> 2 2.935003e-01
<MEAN> 39
 1.621419e+00 -4.223387e+00 1.606920e+00 -3.197364e+00 1.527731e+01 -8.797317e+00 -9.489897e-01 -5.779846e-01 -1.025954e+01 -7.974779e+00 5.101108e+00 3.405774e-01 1.752278e+00 1.479898e+00 -9.193066e-01 -1.646459e+00 -1.113508e+00 7.852168e-01 -1.465781e+00 -1.673946e+00 9.791315e-01 -9.839416e-01 -6.648808e-01 1.460986e+00 9.991900e-01 8.378551e-01 -4.764269e-01 -1.419585e-01 -1.286209e-02 9.669881e-02 -1.514018e-01 1.519575e-01 2.364313e-01 -2.686626e-02 4.614045e-01 4.455941e-01 1.262343e-02 4.440379e-02 5.882763e-02
<VARIANCE> 39
 9.984417e+00 1.468571e+01 3.508984e+01 2.553106e+01 4.605531e+01 1.942422e+01 3.688374e+01 3.740538e+01 2.684497e+01 3.106937e+01 3.354734e+01 1.528520e+01 2.727995e+01 2.104381e+00 1.520106e+00 1.687392e+00 1.581686e+00 2.083291e+00 1.994629e+00 2.213591e+00 2.392408e+00 2.403843e+00 2.034718e+00 2.175831e+00 1.289612e+00 1.606303e+00 4.023492e-01 3.171112e-01 2.972919e-01 3.019054e-01 4.092196e-01 3.100869e-01 4.298648e-01 4.412402e-01 2.856371e-01 3.130848e-01 3.256873e-01 2.002894e-01 2.232571e-01
<GCONST> 1.072500e+02
<STATE> 3
<NUMMIXES> 2
<MIXTURE> 1 3.523380e-01
<MEAN> 39
 -1.508663e+01 6.296096e+00 1.822169e-01 3.297626e+00 3.238006e+00 4.223138e+00 5.056267e+00 5.660669e+00 4.246583e+00 5.388397e+00 4.500048e+00 3.865308e+00 1.008486e+00 -7.187875e-02 -2.652027e-03 2.283872e-02 -1.681740e-02 -6.647720e-02 -4.430503e-02 6.076000e-03 -3.610508e-02 7.826580e-02 5.529538e-02 3.822698e-02 6.070056e-02 -9.582168e-03 9.099232e-03 -2.036782e-02 -3.255436e-03 -1.346219e-02 1.146254e-02 -3.407930e-02 5.707907e-03 -1.288960e-02 -2.473488e-02 -1.315990e-03 -3.694563e-03 -1.233401e-03 -1.823645e-02
<VARIANCE> 39
 1.008545e+01 3.217258e+00 2.469455e+01 2.445822e+01 1.914604e+01 1.405994e+01 1.031294e+01 2.020430e+01 2.434499e+01 1.419961e+01 9.284800e+00 1.686614e+01 9.590311e+00 2.071467e-01 3.063981e-01 4.153311e-01 6.016411e-01 6.037862e-01 1.107680e+00 8.279246e-01 8.566912e-01 1.327067e+00 1.143477e+00 1.182220e+00 9.519971e-01 6.893319e-01 4.254437e-02 7.107675e-02 8.889806e-02 1.310101e-01 1.518613e-01 2.695286e-01 1.810274e-01 1.576952e-01 2.902802e-01 2.490681e-01 2.612360e-01 2.078891e-01 1.538881e-01
<GCONST> 7.651099e+01
<MIXTURE> 2 6.476621e-01
<MEAN> 39
 3.283890e+00 -7.895270e+00 -1.941513e+00 -6.190095e+00 1.552262e+01 -1.285613e+01 -3.769540e+00 1.297561e+00 -1.032482e+01 -6.537862e+00 9.046926e+00 3.788548e+00 4.174431e+00 1.937566e-01 -5.510298e-01 -8.572172e-01 -2.433252e-01 -5.020617e-01 -3.539038e-01 -4.457293e-02 8.245524e-02 5.819988e-01 8.499765e-01 5.073387e-01 5.292348e-01 5.430620e-01 -8.471029e-02 6.109320e-02 1.188734e-01 1.503414e-01 -1.279891e-01 1.900488e-01 1.726432e-01 -3.753650e-02 1.631977e-01 6.985574e-02 -1.741709e-01 -1.627427e-01 -1.480994e-01
<VARIANCE> 39
 5.351778e+00 9.710109e+00 3.642688e+01 2.176006e+01 3.671233e+01 1.970531e+01 2.771502e+01 4.005486e+01 3.624114e+01 4.544476e+01 3.773447e+01 1.901162e+01 2.051909e+01 1.557740e-01 5.013130e-01 6.756966e-01 7.646043e-01 7.429130e-01 9.497079e-01 1.047560e+00 1.296490e+00 1.267531e+00 1.264604e+00 1.087551e+00 1.102167e+00 7.739215e-01 4.657182e-02 7.625840e-02 8.590098e-02 1.413886e-01 1.418175e-01 1.555981e-01 1.613878e-01 1.916410e-01 2.020262e-01 1.910238e-01 1.766402e-01 1.490279e-01 1.378814e-01
<GCONST> 8.383260e+01
<STATE> 4
<NUMMIXES> 2
<MIXTURE> 1 2.142849e-01
<MEAN> 39
 3.137337e+00 -9.107288e+00 -9.014344e+00 -4.690340e+00 1.011923e+01 -1.114458e+01 -3.086812e+00 3.661371e+00 -9.883485e-01 8.536100e-02 7.104829e+00 5.023608e+00 7.127949e+00 9.299809e-02 -1.462816e-01 -1.099418e-01 -1.519231e-02 3.038042e-01 -2.437244e-02 -2.461106e-01 -7.375387e-03 6.015589e-02 -3.310132e-01 1.708785e-01 -1.223913e-02 -4.833451e-02 -1.220406e-02 -5.230437e-03 1.559896e-01 -6.516115e-02 1.322008e-01 3.869599e-02 -7.849292e-02 4.116379e-02 -1.111977e-01 -8.636719e-02 8.267256e-02 -9.035444e-02 -8.594255e-04
<VARIANCE> 39
 2.577156e+01 2.366826e+01 4.007827e+01 2.101047e+01 5.361771e+01 4.646609e+01 4.688091e+01 5.242430e+01 5.198510e+01 5.236604e+01 2.252764e+01 3.406635e+01 3.716388e+01 2.301534e-01 4.938921e-01 6.810483e-01 6.863053e-01 8.775159e-01 1.082149e+00 1.216828e+00 1.441921e+00 1.128876e+00 8.610471e-01 7.578329e-01 9.116917e-01 7.150562e-01 4.372694e-02 9.014513e-02 1.178046e-01 1.372170e-01 1.756251e-01 1.973926e-01 2.275028e-01 3.086778e-01 2.433075e-01 2.415151e-01 1.810723e-01 1.985992e-01 1.533144e-01
<GCONST> 9.174976e+01
<MIXTURE> 2 7.857150e-01
<MEAN> 39
 4.874055e+00 -1.150560e+01 -9.221850e+00 -6.605359e+00 1.164856e+01 -1.396595e+01 -2.494819e+00 3.096429e+00 -4.710212e+00 -2.176702e-01 1.077278e+01 5.032379e+00 6.622934e+00 1.001617e-02 -5.528078e-02 -4.392760e-02 4.543986e-02 6.328816e-03 5.893537e-02 -4.425049e-02 -8.041992e-03 -1.811336e-02 2.087775e-01 7.926076e-02 -5.302944e-02 -9.592054e-02 -1.164118e-02 6.601864e-02 4.641119e-02 2.590652e-02 6.014734e-02 1.439844e-02 -4.329652e-03 -5.326664e-02 -7.223234e-02 -6.490315e-02 -1.864989e-02 -2.710998e-02 -3.180895e-02
<VARIANCE> 39
 2.609866e+00 7.510988e+00 1.699350e+01 1.294742e+01 1.529353e+01 1.586456e+01 1.945246e+01 4.103077e+01 2.165660e+01 1.828149e+01 1.535256e+01 1.784761e+01 1.504438e+01 1.144699e-01 2.564538e-01 4.266413e-01 4.387875e-01 5.617561e-01 5.146437e-01 6.348007e-01 8.332539e-01 7.944068e-01 6.437795e-01 6.556883e-01 5.088587e-01 4.289645e-01 1.830632e-02 3.598084e-02 5.174671e-02 6.837321e-02 7.916818e-02 8.728665e-02 9.126821e-02 1.090649e-01 8.491565e-02 8.488644e-02 9.299923e-02 8.784200e-02 7.339849e-02
<GCONST> 6.192383e+01
<STATE> 5
<NUMMIXES> 2
<MIXTURE> 1 1.818562e-01
<MEAN> 39
 -1.258942e+01 -2.051910e+00 6.001427e+00 -2.130520e+00 5.428039e+00 -5.309134e+00 5.100372e+00 1.717614e+00 -1.130705e+00 7.838966e-01 1.322709e+00 -4.199266e-01 2.235536e+00 2.270877e-01 -9.830248e-02 7.625796e-02 1.620363e-01 -3.972781e-02 -3.678275e-01 -1.528966e-01 -1.385931e-01 -9.447107e-02 -1.747895e-02 -8.012707e-02 -9.067421e-02 5.698858e-02 3.089823e-02 -5.675511e-02 -8.394551e-02 1.550171e-02 3.384239e-02 2.972231e-02 1.379463e-03 1.926086e-02 1.536973e-02 -9.566738e-02 2.719056e-02 3.350831e-02 -2.458024e-02
<VARIANCE> 39
 1.996935e+02 6.164389e+01 1.184274e+02 6.224012e+01 4.361804e+01 5.201657e+01 6.622955e+01 6.713322e+01 4.067316e+01 3.190049e+01 1.935164e+01 2.808122e+01 4.326141e+01 2.731851e+00 9.426956e-01 1.929505e+00 1.815002e+00 3.569479e+00 1.709310e+00 3.668130e+00 1.440583e+00 2.534862e+00 2.015565e+00 2.253910e+00 2.023376e+00 1.142689e+00 1.859575e-01 1.457333e-01 3.764107e-01 3.103217e-01 5.066103e-01 2.078403e-01 5.454744e-01 2.519660e-01 3.816143e-01 3.170525e-01 4.066909e-01 3.398869e-01 2.104767e-01
<GCONST> 1.166750e+02
<MIXTURE> 2 8.181438e-01
<MEAN> 39
 3.422006e+00 -9.222160e+00 -4.701403e+00 -4.530591e+00 1.995818e+01 -1.256304e+01 -8.100093e+00 -1.046332e-01 -1.048449e+01 -1.853488e+00 1.431545e+01 1.879082e+00 1.703806e+00 -2.637935e-01 3.616848e-01 6.534361e-01 1.490942e-01 8.825882e-01 3.068139e-01 -3.172646e-01 -2.977410e-01 -4.452788e-01 -2.098451e-01 3.742139e-02 -7.001880e-01 -6.070596e-01 -3.440213e-02 1.069116e-01 5.039085e-02 2.671682e-02 1.936217e-02 9.640548e-02 1.356123e-01 -1.238869e-03 6.959480e-02 1.075333e-02 -1.130850e-01 -6.159315e-02 -1.110438e-01
<VARIANCE> 39
 3.963513e+00 1.452075e+01 2.106199e+01 1.698277e+01 5.609300e+01 2.010023e+01 3.173288e+01 2.878377e+01 2.816006e+01 4.005441e+01 2.319600e+01 2.883650e+01 2.489282e+01 1.216715e-01 3.531081e-01 5.987297e-01 4.933640e-01 7.931445e-01 7.067512e-01 9.325082e-01 8.891934e-01 9.985898e-01 9.003676e-01 9.256855e-01 9.575348e-01 8.464371e-01 2.154919e-02 4.462291e-02 6.418961e-02 9.074898e-02 1.021879e-01 1.195574e-01 1.369372e-01 1.431279e-01 1.240400e-01 1.408998e-01 1.398452e-01 1.282497e-01 9.810066e-02
<GCONST> 7.585687e+01
<STATE> 6
<NUMMIXES> 2
<MIXTURE> 1 5.571052e-01
<MEAN> 39
 1.325289e+00 -2.674295e+00 4.498923e-01 -6.293489e-01 2.026154e+01 -5.226797e+00 -3.607728e+00 -1.202896e+00 -8.093799e+00 -2.748707e+00 8.372029e+00 -2.553293e+00 -3.789688e+00 -7.663887e-02 9.117849e-01 3.343691e-01 7.992439e-01 -1.737646e-01 9.005344e-01 7.976486e-01 3.259676e-01 7.930310e-01 2.982904e-02 -5.952691e-01 -4.455815e-01 -6.440197e-01 2.401105e-02 -1.990935e-02 -5.082392e-02 9.994243e-02 -1.773036e-01 -2.820672e-02 3.379366e-02 6.440907e-02 2.207324e-01 1.227092e-02 -5.809288e-02 7.168023e-02 4.466007e-02
<VARIANCE> 39
 1.985571e+01 2.888277e+01 4.355098e+01 3.551835e+01 7.808696e+01 4.954322e+01 4.928612e+01 4.837300e+01 4.574912e+01 6.163122e+01 4.612242e+01 5.863551e+01 3.662749e+01 8.704203e-01 1.129195e+00 1.372944e+00 1.790062e+00 2.667485e+00 1.964038e+00 2.248079e+00 2.105402e+00 2.113443e+00 2.249657e+00 1.676456e+00 2.365522e+00 1.801956e+00 1.476176e-01 1.684426e-01 2.380839e-01 2.917711e-01 3.904418e-01 3.529596e-01 4.231766e-01 3.492737e-01 3.902907e-01 3.729326e-01 3.554626e-01 4.020441e-01 3.154769e-01
<GCONST> 1.131949e+02
<MIXTURE> 2 4.428948e-01
<MEAN> 39
 2.620197e+00 -3.244501e+00 4.199865e+00 -3.937851e+00 1.105893e+01 -9.816847e+00 -4.253096e+00 3.008100e+00 1.018088e+00 -5.807038e+00 1.995775e+00 -2.552408e+00 -1.229272e+00 -6.524058e-02 6.241182e-02 2.631745e-02 3.668462e-02 1.213818e-01 1.235487e-01 2.641526e-01 -2.981214e-03 -4.664685e-02 -1.812509e-01 -1.917173e-01 -7.706284e-03 -2.381963e-01 -1.092562e-03 1.962901e-02 2.821833e-02 6.276248e-05 3.537462e-02 4.738472e-02 3.874872e-02 8.009715e-03 -1.267656e-01 3.496873e-03 -7.197106e-03 4.814128e-03 2.274845e-02
<VARIANCE> 39
 1.697639e+01 4.132334e+01 4.873791e+01 4.028762e+01 1.800135e+02 7.467239e+01 6.405746e+01 7.205424e+01 7.991106e+01 6.061185e+01 5.017668e+01 3.040575e+01 5.973383e+01 1.139247e-01 2.619302e-01 3.421783e-01 3.044715e-01 4.041284e-01 7.413601e-01 6.709923e-01 6.755909e-01 7.532345e-01 5.747313e-01 5.470916e-01 5.886809e-01 5.545218e-01 1.887819e-02 3.036578e-02 3.904897e-02 3.665830e-02 6.055739e-02 9.527116e-02 9.624234e-02 1.201517e-01 1.109437e-01 9.086500e-02 1.101257e-01 7.674372e-02 9.467179e-02
<GCONST> 7.797577e+01
<TRANSP> 7
 0.000000e+00 1.000000e+00 0.000000e+00 0.000000e+00 0.000000e+00 0.000000e+00 0.000000e+00
 0.000000e+00 8.916132e-01 1.083868e-01 0.000000e+00 0.000000e+00 0.000000e+00 0.000000e+00
 0.000000e+00 0.000000e+00 8.369225e-01 1.630775e-01 0.000000e+00 0.000000e+00 0.000000e+00
 0.000000e+00 0.000000e+00 0.000000e+00 9.128655e-01 8.713458e-02 0.000000e+00 0.000000e+00
 0.000000e+00 0.000000e+00 0.000000e+00 0.000000e+00 8.043194e-01 1.956807e-01 0.000000e+00
 0.000000e+00 0.000000e+00 0.000000e+00 0.000000e+00 0.000000e+00 8.203326e-01 1.796674e-01
 0.000000e+00 0.000000e+00 0.000000e+00 0.000000e+00 0.000000e+00 0.000000e+00 0.000000e+00
<ENDHMM>
