~o
<STREAMINFO> 1 39
<VECSIZE> 39<NULLD><MFCC_D_A><DIAGC>
~h "dxq"
<BEGINHMM>
<NUMSTATES> 5
<STATE> 2
<NUMMIXES> 2
<MIXTURE> 1 2.890187e-01
<MEAN> 39
 1.127432e+01 -3.518244e+00 -1.346734e+01 -1.360790e+00 1.935069e+01 -2.064110e+01 -7.051727e+00 -6.163376e+00 -1.433870e+01 3.280689e+00 1.958700e+00 8.672072e-01 -1.160625e+00 -1.780951e-02 3.739873e-01 2.254589e-02 4.588638e-01 1.120576e+00 5.025861e-01 -7.857969e-01 -9.260433e-01 -2.443170e-01 2.589875e-01 -2.874030e-01 -2.089685e-01 -9.597918e-02 -6.756441e-02 8.084700e-02 1.779361e-01 1.290405e-02 -1.144513e-01 2.808825e-01 8.485173e-02 -3.391939e-02 2.482008e-01 -1.841969e-01 -1.612752e-01 6.468940e-02 -7.186078e-02
<VARIANCE> 39
 6.379529e+00 3.581019e+01 2.015243e+01 6.532322e+01 3.010541e+01 6.396254e+01 4.682775e+01 3.346164e+01 3.878138e+01 3.339960e+01 4.096272e+01 2.769051e+01 1.687935e+01 9.709667e-02 3.132731e-01 4.677055e-01 6.542786e-01 8.170392e-01 1.123469e+00 1.176347e+00 9.754673e-01 1.177069e+00 1.054072e+00 1.277125e+00 1.018737e+00 5.284163e-01 1.818310e-02 3.368385e-02 7.152803e-02 8.634425e-02 1.295984e-01 1.991765e-01 1.529935e-01 1.485109e-01 2.304353e-01 1.402257e-01 1.429471e-01 1.294556e-01 8.863287e-02
<GCONST> 8.168180e+01
<MIXTURE> 2 7.109812e-01
<MEAN> 39
 9.109398e+00 -5.215113e-01 -3.245310e+00 -1.202036e+01 1.875056e+01 -9.086401e+00 -1.346419e+01 1.133208e-01 7.091676e+00 -8.558418e+00 -5.042045e+00 2.354672e+00 -8.185607e-01 6.480313e-02 1.462376e-01 -2.793714e-01 -2.861797e-01 5.754077e-01 1.033887e+00 4.095108e-01 -8.067639e-01 -1.131076e+00 1.857622e-02 2.519759e-01 2.718180e-02 -1.470330e-01 -4.494127e-02 3.947613e-02 8.307228e-02 1.164010e-01 -7.067959e-02 4.328523e-02 2.604326e-01 1.239803e-02 -1.461533e-01 -3.903447e-03 2.754073e-02 -4.750654e-02 -7.218343e-02
<VARIANCE> 39
 1.033197e+01 3.963924e+01 5.963716e+01 4.398035e+01 6.302397e+01 6.608401e+01 6.741842e+01 4.762946e+01 1.539662e+02 5.008524e+01 4.094930e+01 4.082388e+01 4.605789e+01 2.088594e-01 4.715947e-01 6.802309e-01 9.223354e-01 1.231316e+00 1.471296e+00 1.896431e+00 1.696189e+00 1.947186e+00 1.509865e+00 1.202289e+00 1.417520e+00 1.057162e+00 3.167836e-02 6.496323e-02 9.344804e-02 1.278538e-01 1.770582e-01 1.999660e-01 2.291876e-01 2.416444e-01 2.338680e-01 2.235682e-01 1.897356e-01 1.905206e-01 1.746867e-01
<GCONST> 9.795731e+01
<STATE> 3
<NUMMIXES> 2
<MIXTURE> 1 3.878135e-01
<MEAN> 39
 9.461271e+00 -8.671471e-01 -8.854937e+00 1.440423e+00 2.371756e+01 -1.339260e+01 -1.088794e+01 -1.112341e+01 -1.071567e+01 1.765297e+00 -3.200279e+00 -3.571647e-01 -2.583851e+00 -5.813911e-01 6.204565e-01 1.434584e+00 4.596429e-01 -4.639587e-01 2.577446e+00 2.288196e-01 -3.388342e-01 1.591027e+00 -5.855783e-01 -4.300394e-01 1.996325e-01 -4.216560e-01 -1.639221e-01 -1.238713e-01 3.341932e-01 4.613398e-02 -4.086336e-01 -1.510401e-01 3.417943e-01 3.133008e-01 3.505621e-02 -1.459108e-01 1.444993e-01 1.217621e-02 6.761220e-02
<VARIANCE> 39
 7.410074e+00 3.367188e+01 2.595413e+01 5.746484e+01 2.340206e+01 8.278170e+01 4.093547e+01 2.728788e+01 5.187531e+01 3.085341e+01 3.075355e+01 3.191733e+01 1.502612e+01 3.203413e-01 8.322288e-01 1.539853e+00 1.550242e+00 1.551955e+00 2.431457e+00 2.446464e+00 2.892900e+00 2.538299e+00 1.700688e+00 1.641913e+00 1.559247e+00 1.033742e+00 5.757584e-02 1.925754e-01 2.706341e-01 2.400117e-01 2.475802e-01 9.305192e-01 3.626630e-01 4.256552e-01 6.683788e-01 2.711053e-01 2.660021e-01 2.511356e-01 1.800384e-01
<GCONST> 1.046363e+02
<MIXTURE> 2 6.121864e-01
<MEAN> 39
 8.580741e+00 1.596041e+00 -2.024133e+00 -1.132416e+01 2.028685e+01 -1.001379e+00 -4.438951e+00 -3.555695e+00 -2.635086e+00 -9.942076e+00 -3.838634e+00 2.085278e+00 -4.442235e+00 -3.575647e-01 2.265932e-02 6.613991e-01 1.168290e+00 -7.144235e-01 8.058174e-01 2.071309e+00 4.425953e-01 -5.656622e-01 -4.006207e-01 -3.263398e-01 4.958890e-02 -5.900277e-02 -1.269021e-01 -1.708176e-01 2.085143e-01 2.545573e-01 -9.290627e-02 -3.001037e-01 -2.211249e-01 1.644273e-01 4.488860e-01 6.222543e-02 -1.998442e-01 -2.845180e-02 2.497315e-01
<VARIANCE> 39
 1.101652e+01 3.879178e+01 4.250762e+01 4.793834e+01 8.630866e+01 4.423166e+01 7.363634e+01 6.452523e+01 7.790352e+01 4.397570e+01 4.412258e+01 3.313173e+01 3.475423e+01 3.230199e-01 7.235911e-01 1.559932e+00 1.851241e+00 1.882340e+00 2.573976e+00 3.541229e+00 3.764965e+00 3.472226e+00 3.305269e+00 2.573590e+00 2.306822e+00 3.091276e+00 4.786022e-02 1.148325e-01 2.043246e-01 2.990486e-01 4.154633e-01 3.665473e-01 6.644915e-01 7.633473e-01 4.814566e-01 6.135927e-01 4.143474e-01 4.202819e-01 4.426417e-01
<GCONST> 1.158261e+02
<STATE> 4
<NUMMIXES> 2
<MIXTURE> 1 4.158314e-01
<MEAN> 39
 5.236131e+00 -3.157529e+00 3.001314e+00 -1.657032e+00 1.794749e+01 -9.863174e+00 -5.180480e+00 -5.602600e+00 -6.616839e+00 -8.897928e+00 -2.132282e+00 1.020624e+00 -2.662347e+00 -2.855982e-01 -2.926525e-02 6.566517e-01 3.870399e-01 -3.055757e-01 -6.070529e-01 9.327557e-02 2.449860e-01 -3.987765e-01 -6.763248e-02 5.526966e-01 -7.832737e-02 -1.940255e-01 -8.928067e-02 2.343079e-01 1.702589e-02 -8.682726e-04 1.259810e-03 3.646826e-01 2.203745e-01 1.359590e-01 1.830580e-01 1.278215e-01 -6.107611e-02 -5.300219e-02 -5.439682e-02
<VARIANCE> 39
 1.278046e+01 2.998784e+01 5.578336e+01 6.967949e+01 6.897479e+01 1.002856e+02 6.432359e+01 5.394108e+01 9.350742e+01 6.285743e+01 5.213127e+01 4.171520e+01 2.794869e+01 4.839385e-01 1.413370e+00 1.473007e+00 1.514292e+00 1.938532e+00 4.909263e+00 3.135772e+00 2.703845e+00 3.362210e+00 2.619952e+00 2.800528e+00 2.142524e+00 1.798347e+00 8.216271e-02 1.897771e-01 2.358711e-01 2.334985e-01 2.915144e-01 5.558114e-01 4.488911e-01 4.589180e-01 5.643913e-01 4.438066e-01 4.732510e-01 3.545090e-01 3.079919e-01
<GCONST> 1.171392e+02
<MIXTURE> 2 5.841686e-01
<MEAN> 39
 1.400167e+00 2.502311e+00 4.264393e+00 -2.554348e-01 1.547514e+01 -1.980576e+00 4.164938e-01 -4.032283e+00 -3.584322e+00 -5.634127e+00 -4.180539e+00 5.727047e-01 -2.620826e+00 -5.534189e-01 -2.403275e-01 5.869634e-01 5.863754e-01 -1.946153e-01 -2.652356e-01 -9.523872e-02 -1.601048e-01 1.546035e-01 9.260329e-02 -1.253698e-01 -2.012970e-01 1.715882e-01 1.209175e-01 -1.802644e-01 -1.602210e-01 -1.363166e-01 5.438675e-02 -4.691134e-01 -3.560005e-01 -7.279027e-02 -2.206649e-01 -6.282146e-02 1.467079e-01 2.149228e-02 -3.602368e-02
<VARIANCE> 39
 4.315427e+01 5.934836e+01 5.976461e+01 8.235978e+01 6.327391e+01 7.585494e+01 6.184123e+01 6.742010e+01 6.330238e+01 4.957853e+01 4.851316e+01 3.460279e+01 2.531990e+01 1.713354e+00 4.665776e+00 3.604262e+00 3.540406e+00 3.262985e+00 5.815393e+00 5.079296e+00 4.184405e+00 3.744524e+00 3.274999e+00 2.836624e+00 2.310637e+00 2.151613e+00 2.194170e-01 6.935156e-01 5.545770e-01 5.973905e-01 5.317665e-01 8.905911e-01 8.401958e-01 8.701327e-01 6.858314e-01 6.364797e-01 5.876417e-01 4.547466e-01 4.231443e-01
<GCONST> 1.322686e+02
<TRANSP> 5
 0.000000e+00 1.000000e+00 0.000000e+00 0.000000e+00 0.000000e+00
 0.000000e+00 8.249133e-01 1.750867e-01 0.000000e+00 0.000000e+00
 0.000000e+00 0.000000e+00 7.480533e-01 2.519467e-01 0.000000e+00
 0.000000e+00 0.000000e+00 0.000000e+00 8.829650e-01 1.170350e-01
 0.000000e+00 0.000000e+00 0.000000e+00 0.000000e+00 0.000000e+00
<ENDHMM>
