~o
<STREAMINFO> 1 39
<VECSIZE> 39<NULLD><MFCC_D_A><DIAGC>
~h "e"
<BEGINHMM>
<NUMSTATES> 7
<STATE> 2
<NUMMIXES> 2
<MIXTURE> 1 5.055937e-01
<MEAN> 39
 -5.586452e+00 -3.044321e+00 8.281448e+00 1.046905e+01 6.185012e+00 -3.291313e-01 -5.151639e+00 -2.242756e+00 3.588001e-01 -4.412363e+00 -3.830522e+00 1.562473e-01 -3.744337e+00 1.357415e+00 -6.849577e-01 4.034195e-01 5.445365e-01 6.643959e-01 -1.095895e+00 -1.394920e+00 -5.438152e-01 -5.023760e-01 -8.674662e-01 -3.134426e-01 -4.263634e-01 -4.766835e-01 5.646185e-02 -2.325960e-02 -1.106061e-01 -1.407574e-02 -2.763486e-03 -1.907476e-01 -2.202384e-01 -5.368413e-02 -5.397395e-02 -2.875246e-02 5.325805e-02 -2.670698e-02 2.001428e-02
<VARIANCE> 39
 9.840443e+01 1.115303e+02 5.567244e+01 1.107229e+02 1.386283e+02 9.157660e+01 7.387566e+01 9.151711e+01 5.152076e+01 4.396101e+01 3.695648e+01 3.319226e+01 2.908267e+01 3.211108e+00 6.178424e+00 3.992971e+00 4.953744e+00 4.660983e+00 5.212784e+00 5.244181e+00 3.697550e+00 3.476709e+00 3.240716e+00 2.702798e+00 2.625998e+00 2.044235e+00 4.966705e-01 1.051682e+00 6.145462e-01 8.095970e-01 7.190475e-01 7.612948e-01 8.207239e-01 6.115990e-01 5.735217e-01 5.651840e-01 4.783601e-01 4.168277e-01 3.554304e-01
<GCONST> 1.369938e+02
<MIXTURE> 2 4.944063e-01
<MEAN> 39
 6.037862e-01 -4.370481e+00 6.435696e+00 5.529255e+00 7.566026e+00 -5.555312e+00 -8.761675e+00 -7.986669e+00 -4.574007e+00 -5.484306e+00 -3.201845e+00 -2.652458e+00 -3.948713e+00 1.163949e-01 -6.061513e-01 -1.513581e-01 -1.602886e-02 1.065522e-01 -9.773654e-01 -9.592482e-01 -1.178177e-01 6.144578e-02 5.461690e-02 2.818452e-01 -7.763107e-02 2.605299e-02 -1.824871e-01 -8.354694e-03 1.139655e-01 3.168204e-02 -6.650737e-02 1.746757e-01 2.229694e-01 1.805692e-01 2.121819e-01 2.359706e-02 -2.994559e-02 6.790835e-02 -7.385388e-04
<VARIANCE> 39
 8.402024e+01 9.049932e+01 5.495935e+01 9.005421e+01 1.344534e+02 1.643432e+02 6.677794e+01 8.029290e+01 7.861961e+01 5.618322e+01 3.962067e+01 5.218439e+01 4.883667e+01 5.689404e-01 1.230885e+00 1.126019e+00 1.299208e+00 1.368655e+00 3.014838e+00 2.460294e+00 2.369436e+00 2.039789e+00 1.933473e+00 1.532628e+00 1.423829e+00 1.208780e+00 1.450020e-01 2.247545e-01 2.069483e-01 2.342133e-01 2.475303e-01 4.527953e-01 3.892100e-01 3.601581e-01 3.607996e-01 3.560834e-01 2.783110e-01 2.584056e-01 2.154212e-01
<GCONST> 1.163499e+02
<STATE> 3
<NUMMIXES> 2
<MIXTURE> 1 5.237356e-01
<MEAN> 39
 -9.901808e-01 -6.101150e+00 1.156375e+01 1.421268e+01 1.732321e+01 -9.976310e+00 -1.254025e+01 -1.702545e+00 -2.804730e+00 -9.602030e+00 -4.905558e+00 -1.871683e+00 -6.334709e+00 1.292955e-01 -3.504726e-01 -1.831826e-01 -2.759558e-01 2.831376e-02 -3.498978e-01 -3.444415e-01 -2.942891e-01 5.855336e-03 -1.209495e-01 9.670117e-02 -1.589988e-02 9.840153e-02 -4.543878e-02 5.492763e-02 -1.985871e-02 -6.952490e-02 -5.977615e-02 1.096190e-01 1.160161e-01 -1.228967e-02 9.385379e-03 6.129969e-02 -3.121463e-04 2.065921e-02 4.657056e-02
<VARIANCE> 39
 3.413633e+01 3.185453e+01 8.890582e+01 9.724216e+01 1.631305e+02 9.598808e+01 6.141569e+01 8.157117e+01 5.775130e+01 4.026244e+01 3.755485e+01 5.507912e+01 3.565561e+01 2.938211e-01 6.825123e-01 9.176226e-01 1.101951e+00 9.787624e-01 1.303513e+00 1.514054e+00 1.604781e+00 1.296461e+00 1.205562e+00 1.091030e+00 9.703535e-01 8.250096e-01 5.254387e-02 9.834802e-02 1.232984e-01 1.439872e-01 1.674065e-01 2.354817e-01 2.589236e-01 2.334142e-01 2.150846e-01 2.140598e-01 1.847739e-01 1.707931e-01 1.386811e-01
<GCONST> 1.008726e+02
<MIXTURE> 2 4.762643e-01
<MEAN> 39
 2.625900e-01 -1.105876e+01 1.351953e+01 6.539937e+00 8.578033e+00 -2.266978e+01 -1.560627e+01 -1.551976e+00 -3.638566e+00 -1.014875e+01 -3.669031e+00 -8.890262e+00 -8.073324e-01 -6.018434e-02 6.701593e-02 8.928492e-02 1.709849e-02 -7.064160e-02 -2.757353e-02 -1.276350e-02 7.064705e-02 4.056580e-02 -1.577934e-01 -7.916156e-02 5.627095e-02 8.610059e-03 1.227435e-03 5.275757e-02 -1.693324e-02 6.620210e-03 2.748414e-02 3.740407e-02 3.017066e-02 -2.546182e-02 -2.776814e-02 1.478255e-02 -1.406161e-02 7.158491e-03 -3.117832e-02
<VARIANCE> 39
 4.235684e+00 1.148205e+01 1.746074e+01 1.810703e+01 1.269286e+01 1.662937e+01 1.619517e+01 2.579992e+01 2.665861e+01 4.280279e+01 1.598458e+01 2.088489e+01 2.263227e+01 8.959787e-02 2.524270e-01 3.612265e-01 3.269924e-01 3.466098e-01 3.440394e-01 3.571493e-01 4.687128e-01 4.744270e-01 5.865833e-01 3.816456e-01 3.272179e-01 2.940373e-01 1.328058e-02 3.611571e-02 4.143151e-02 4.767007e-02 5.219100e-02 6.136343e-02 6.458440e-02 6.864674e-02 7.580916e-02 7.218662e-02 6.056409e-02 5.383590e-02 4.621723e-02
<GCONST> 5.521196e+01
<STATE> 4
<NUMMIXES> 2
<MIXTURE> 1 5.513127e-01
<MEAN> 39
 1.234422e+00 -7.744982e+00 8.754622e+00 3.709652e+00 1.886691e+01 -7.435546e+00 -1.703187e+01 -9.641672e+00 -1.507222e+00 -6.507306e+00 -3.839372e+00 -1.904656e+00 -1.966164e+00 -1.917613e-02 1.144271e-01 -9.465466e-02 -1.066311e-01 -2.748758e-02 2.623152e-02 2.120213e-02 1.983304e-02 -1.038515e-02 6.785223e-03 7.618497e-03 6.011792e-02 2.243521e-02 -1.341691e-02 7.424623e-02 7.058725e-03 4.271010e-02 -1.154706e-02 8.078771e-02 1.235429e-01 6.206427e-02 -6.540282e-03 -7.954726e-03 -2.833020e-02 -4.086639e-04 -1.727288e-02
<VARIANCE> 39
 9.292018e+00 1.764754e+01 6.688080e+01 3.214893e+01 4.805629e+01 6.246389e+01 2.958085e+01 5.080261e+01 5.414632e+01 4.160973e+01 3.630365e+01 4.033794e+01 2.019466e+01 1.398238e-01 4.546505e-01 5.673245e-01 7.876205e-01 7.398097e-01 9.502603e-01 1.100246e+00 1.134770e+00 1.021796e+00 9.726439e-01 8.845841e-01 7.253895e-01 5.988973e-01 2.046717e-02 6.645581e-02 7.969079e-02 1.056853e-01 1.253376e-01 1.540168e-01 1.786429e-01 1.839938e-01 1.664943e-01 1.682198e-01 1.494250e-01 1.245816e-01 9.883912e-02
<GCONST> 8.451985e+01
<MIXTURE> 2 4.486872e-01
<MEAN> 39
 1.370993e+01 -1.904460e+01 1.011217e+01 2.031211e+01 -1.047777e+01 -3.662222e+00 -1.660431e+01 -1.195121e+01 3.527297e+00 -1.214681e+01 -7.617382e+00 -1.645020e+00 -9.772802e+00 6.094734e-02 -3.943068e-02 -1.538815e-01 -3.186065e-02 7.936208e-02 -4.160535e-02 -3.617557e-03 -9.841000e-04 -2.093029e-02 1.139264e-01 7.905692e-02 -2.402261e-02 4.690052e-03 -1.895870e-02 8.402868e-02 -5.492025e-03 -6.699223e-03 5.404812e-02 6.735831e-02 7.310120e-02 6.733638e-04 -2.943052e-02 2.693549e-02 -8.329234e-03 -1.166086e-03 1.086037e-02
<VARIANCE> 39
 9.230035e+00 2.546272e+01 3.570216e+01 5.213865e+01 2.519425e+01 5.187111e+01 3.449972e+01 4.042756e+01 3.527919e+01 5.554674e+01 3.837548e+01 2.321471e+01 2.916163e+01 3.559307e-01 6.939524e-01 5.047079e-01 5.496183e-01 8.098994e-01 8.480021e-01 6.510255e-01 5.826303e-01 7.763171e-01 7.791176e-01 5.453798e-01 4.742930e-01 5.120522e-01 6.019241e-02 9.852879e-02 5.491858e-02 7.678011e-02 1.308254e-01 1.293656e-01 9.766670e-02 8.714345e-02 1.234883e-01 1.174575e-01 7.404134e-02 7.580235e-02 8.761715e-02
<GCONST> 7.898474e+01
<STATE> 5
<NUMMIXES> 2
<MIXTURE> 1 5.901286e-01
<MEAN> 39
 -1.614797e+00 -2.078771e+00 7.212551e+00 5.184408e+00 1.061157e+01 -6.310866e+00 -1.089556e+01 -7.872727e+00 -3.163029e+00 -5.712753e+00 -5.071951e+00 -2.673458e+00 -3.567323e+00 -2.504409e-01 7.233927e-01 -3.007717e-03 3.197682e-01 -3.108203e-01 9.830262e-01 8.529809e-01 3.980521e-01 2.868228e-01 2.737828e-01 -1.779724e-01 6.878583e-02 5.709007e-02 -1.776642e-02 1.239740e-03 3.107781e-02 2.031038e-02 -3.472770e-02 -3.118378e-02 -2.058138e-02 2.283608e-02 5.312144e-02 1.539181e-02 -1.104829e-02 -2.326614e-02 -1.370134e-04
<VARIANCE> 39
 5.603028e+01 5.524280e+01 6.262285e+01 7.019599e+01 1.084701e+02 1.127577e+02 8.415453e+01 8.037388e+01 6.581816e+01 6.011290e+01 4.827133e+01 4.844057e+01 4.384967e+01 1.168738e+00 2.384218e+00 2.340661e+00 2.569489e+00 2.687053e+00 3.652263e+00 3.380491e+00 3.119370e+00 2.956481e+00 2.588242e+00 2.404891e+00 2.173248e+00 1.524206e+00 1.767607e-01 3.920714e-01 3.762327e-01 4.230801e-01 4.770019e-01 5.685682e-01 5.640093e-01 5.470011e-01 5.251191e-01 4.304571e-01 3.865555e-01 3.550254e-01 2.708768e-01
<GCONST> 1.259569e+02
<MIXTURE> 2 4.098714e-01
<MEAN> 39
 -8.080509e-01 -4.553621e+00 7.985434e+00 1.020826e+00 7.391949e+00 -2.865661e+01 -1.379202e+01 -6.099421e+00 -9.094636e+00 -1.254814e+01 -7.445219e+00 -9.848862e+00 -9.681396e+00 -2.745931e-02 1.620492e-01 -4.690880e-02 -1.243558e-03 3.297815e-02 1.862350e-01 9.671442e-02 -3.134582e-02 -6.107321e-02 6.909102e-03 -1.249498e-01 1.749500e-02 -1.190146e-01 8.965509e-03 2.843288e-02 -2.496691e-03 2.579660e-02 2.671704e-02 1.227130e-01 5.325607e-02 -6.516360e-03 -1.365115e-02 2.678416e-02 2.143086e-02 2.508607e-02 2.400780e-02
<VARIANCE> 39
 6.842423e+00 3.125722e+01 3.734100e+01 4.173849e+01 3.612700e+01 3.823655e+01 2.906048e+01 3.139523e+01 2.901306e+01 4.157333e+01 4.258162e+01 3.479290e+01 2.152899e+01 9.845922e-02 3.256317e-01 4.767929e-01 6.129264e-01 6.801048e-01 9.334528e-01 8.108588e-01 7.939301e-01 9.368517e-01 9.272817e-01 8.870019e-01 8.031277e-01 7.318424e-01 1.304828e-02 4.437505e-02 5.870646e-02 8.793399e-02 1.018026e-01 1.380531e-01 1.357938e-01 1.323579e-01 1.582249e-01 1.501031e-01 1.373158e-01 1.383425e-01 1.179368e-01
<GCONST> 7.870377e+01
<STATE> 6
<NUMMIXES> 2
<MIXTURE> 1 6.912331e-01
<MEAN> 39
 -6.685548e+00 2.130386e+00 4.356542e+00 7.158335e+00 8.494016e+00 -1.460337e+00 -4.364885e+00 -3.483830e+00 3.789645e-01 -1.944952e+00 -3.879103e+00 -8.253593e-01 -2.334146e+00 -2.825023e-01 1.313391e-01 -9.473901e-02 -5.709793e-02 -1.441940e-01 2.273967e-01 3.911274e-01 2.565053e-01 1.428780e-01 1.166647e-01 7.242233e-02 1.251560e-01 7.600924e-02 -5.599069e-03 -8.204137e-02 5.385492e-03 -5.469659e-02 1.497496e-02 -5.850477e-02 -3.623114e-02 -1.956259e-02 -3.526011e-02 -3.540175e-02 7.135582e-03 -6.445016e-04 5.333317e-04
<VARIANCE> 39
 5.749267e+01 4.980758e+01 4.653042e+01 4.296732e+01 5.714450e+01 7.171713e+01 5.485637e+01 5.177972e+01 4.296052e+01 4.023228e+01 3.174337e+01 3.509719e+01 2.592717e+01 5.352716e-01 8.248502e-01 8.004366e-01 9.465463e-01 9.647313e-01 1.285137e+00 1.499383e+00 1.425488e+00 1.344761e+00 1.289144e+00 1.180108e+00 1.107540e+00 8.755785e-01 7.100479e-02 1.228193e-01 1.431457e-01 1.726539e-01 1.849201e-01 2.476990e-01 2.745578e-01 2.679980e-01 2.599459e-01 2.498450e-01 2.320099e-01 2.154560e-01 1.770842e-01
<GCONST> 1.002017e+02
<MIXTURE> 2 3.087670e-01
<MEAN> 39
 1.311176e+01 -9.997472e+00 7.716427e+00 1.847471e+01 -3.792827e+00 4.269261e+00 -1.033057e+01 -1.239125e+01 3.766520e+00 -6.294832e+00 -7.991358e+00 -1.798187e+00 -8.384443e+00 -2.607389e-01 8.440700e-01 1.225589e-01 -1.398207e-01 2.732224e-01 3.914587e-01 3.509856e-01 1.335326e-01 1.314835e-01 1.918642e-01 -2.523192e-01 -5.899570e-02 1.987247e-01 -4.060147e-03 -9.019629e-02 5.225467e-03 -3.357229e-02 -8.135892e-02 -4.890789e-02 -6.474618e-02 3.832580e-04 2.330274e-02 -4.387095e-02 2.536733e-02 3.706363e-02 2.819874e-04
<VARIANCE> 39
 1.631619e+01 5.997483e+01 3.025491e+01 3.957790e+01 3.420876e+01 5.911804e+01 3.884206e+01 4.111271e+01 5.349216e+01 6.085125e+01 3.952733e+01 3.958315e+01 2.471369e+01 3.989092e-01 1.786481e+00 7.995600e-01 9.862605e-01 1.350988e+00 1.666885e+00 1.604175e+00 1.328836e+00 1.597947e+00 1.476461e+00 1.265916e+00 1.138820e+00 9.761053e-01 4.695672e-02 2.125347e-01 1.254376e-01 1.402474e-01 2.131375e-01 2.548324e-01 2.322605e-01 2.123694e-01 2.703482e-01 2.372804e-01 2.040438e-01 1.840418e-01 1.656363e-01
<GCONST> 9.908585e+01
<TRANSP> 7
 0.000000e+00 1.000000e+00 0.000000e+00 0.000000e+00 0.000000e+00 0.000000e+00 0.000000e+00
 0.000000e+00 8.150686e-01 1.849314e-01 0.000000e+00 0.000000e+00 0.000000e+00 0.000000e+00
 0.000000e+00 0.000000e+00 8.462696e-01 1.537304e-01 0.000000e+00 0.000000e+00 0.000000e+00
 0.000000e+00 0.000000e+00 0.000000e+00 8.898654e-01 1.101346e-01 0.000000e+00 0.000000e+00
 0.000000e+00 0.000000e+00 0.000000e+00 0.000000e+00 8.986763e-01 1.013237e-01 0.000000e+00
 0.000000e+00 0.000000e+00 0.000000e+00 0.000000e+00 0.000000e+00 8.200258e-01 1.799742e-01
 0.000000e+00 0.000000e+00 0.000000e+00 0.000000e+00 0.000000e+00 0.000000e+00 0.000000e+00
<ENDHMM>
