~o
<STREAMINFO> 1 39
<VECSIZE> 39<NULLD><MFCC_D_A><DIAGC>
~h "f"
<BEGINHMM>
<NUMSTATES> 5
<STATE> 2
<NUMMIXES> 2
<MIXTURE> 1 4.100485e-01
<MEAN> 39
 1.796626e+00 -2.920646e+00 3.328315e+00 -7.091978e+00 1.037280e+01 -1.379629e+01 3.908077e+00 8.448477e-01 -2.057373e-01 -8.035532e+00 -9.948564e-01 6.539431e-01 -2.011877e+00 -1.513874e+00 6.325385e-01 9.353766e-01 -2.593111e-01 6.007780e-01 8.229501e-01 9.886359e-01 -4.244708e-01 7.200250e-01 4.758841e-01 2.096466e-01 -3.279363e-01 3.381763e-01 -3.900596e-01 -8.997226e-02 6.651916e-02 3.467078e-02 2.103547e-01 1.920445e-01 3.898295e-02 -5.589335e-02 5.496615e-02 9.450307e-02 1.410294e-01 1.555638e-02 5.770981e-02
<VARIANCE> 39
 4.840082e+01 3.766865e+01 5.686463e+01 7.138457e+01 8.623193e+01 9.169394e+01 8.531567e+01 9.287457e+01 9.225405e+01 6.162929e+01 2.983795e+01 3.665627e+01 3.204198e+01 2.397337e+00 1.368760e+00 1.806692e+00 1.677475e+00 2.736062e+00 3.095439e+00 2.815392e+00 2.638134e+00 2.493922e+00 2.601500e+00 1.817744e+00 1.682723e+00 1.447363e+00 1.764950e-01 2.318801e-01 2.815489e-01 2.755100e-01 3.228418e-01 3.677081e-01 4.061754e-01 3.700526e-01 3.808383e-01 3.835453e-01 2.876844e-01 2.890187e-01 2.334393e-01
<GCONST> 1.187095e+02
<MIXTURE> 2 5.899515e-01
<MEAN> 39
 -1.585175e+01 -1.551351e+00 7.729309e+00 -7.243529e+00 1.722945e+01 -4.595492e+00 8.562895e+00 -3.340965e+00 3.503048e+00 -4.349793e+00 2.257324e+00 -9.441703e-01 1.405435e+00 -2.463601e+00 -8.618322e-01 -7.031665e-01 -4.471729e-01 2.791805e-01 3.659815e-01 -1.137626e-01 -3.731829e-01 -3.769362e-02 -3.910118e-02 3.242532e-01 -1.921992e-02 3.981748e-01 4.077158e-01 -1.006740e-01 -2.800901e-01 -9.457918e-02 -3.625076e-01 -3.459834e-01 -2.940953e-01 2.188951e-02 -1.688870e-01 -1.846896e-01 -1.475902e-01 -2.191112e-03 -1.261082e-01
<VARIANCE> 39
 3.794474e+01 3.006912e+01 3.696891e+01 3.629724e+01 4.906600e+01 3.866109e+01 4.917469e+01 3.866268e+01 3.933981e+01 3.216502e+01 2.111969e+01 2.085070e+01 1.584314e+01 1.946436e+00 1.199190e+00 1.955029e+00 2.033741e+00 2.686450e+00 2.348367e+00 2.500819e+00 2.211571e+00 1.997479e+00 1.933216e+00 1.770481e+00 1.567442e+00 1.408696e+00 2.019766e-01 2.254066e-01 2.903521e-01 2.933460e-01 3.599655e-01 3.714276e-01 4.149454e-01 4.019520e-01 3.977194e-01 3.726283e-01 3.362232e-01 2.893453e-01 2.591272e-01
<GCONST> 1.105595e+02
<STATE> 3
<NUMMIXES> 2
<MIXTURE> 1 2.312202e-01
<MEAN> 39
 -2.011849e+01 -1.268467e+01 1.066750e+01 -1.882523e+01 2.300354e+01 -1.231113e+01 1.386601e+01 -8.649330e+00 8.390205e+00 -8.659396e+00 4.164458e+00 -1.585101e+00 2.067865e+00 -1.955011e-01 -3.926468e-01 -2.771595e-01 -2.176236e-01 -2.698450e-01 -2.959367e-02 -1.311230e-01 -1.358750e-01 -8.424135e-02 -1.042079e-01 4.081220e-02 3.979540e-02 1.035495e-01 2.222494e-01 1.292186e-01 7.949185e-03 1.927112e-01 -8.391973e-02 1.359200e-01 -9.247421e-02 1.498608e-01 -1.294253e-01 1.108364e-01 -9.564154e-02 9.194741e-02 -9.228626e-02
<VARIANCE> 39
 1.970302e+01 2.360036e+01 3.149397e+01 2.502757e+01 3.166649e+01 3.244806e+01 5.077802e+01 3.219571e+01 2.699042e+01 4.276358e+01 2.910762e+01 2.657889e+01 2.859613e+01 1.453753e+00 7.729778e-01 1.173149e+00 1.426417e+00 1.551524e+00 1.835235e+00 1.832194e+00 2.005302e+00 1.886367e+00 1.831237e+00 1.569326e+00 1.489383e+00 1.208199e+00 9.893120e-02 1.367817e-01 1.941786e-01 2.308668e-01 2.778208e-01 3.365157e-01 3.443621e-01 3.773537e-01 3.653231e-01 3.544822e-01 3.166410e-01 2.902647e-01 2.480013e-01
<GCONST> 1.034923e+02
<MIXTURE> 2 7.687797e-01
<MEAN> 39
 -2.546515e+01 -5.316592e+00 5.182599e-01 -1.014452e+01 1.336730e+01 -4.508892e+00 4.143860e+00 -4.057298e+00 1.675601e+00 -5.046123e+00 2.272683e+00 -1.283370e+00 2.229477e+00 -1.519309e-01 -3.431510e-01 -2.302347e-01 -2.690792e-01 -1.743130e-01 -7.424696e-02 -3.065879e-02 -5.297905e-02 3.275013e-02 -3.512295e-02 8.244935e-02 3.946884e-02 7.528704e-02 2.312994e-01 2.895865e-02 1.394252e-01 3.060656e-02 6.189735e-02 -5.252600e-03 9.213040e-02 -9.943989e-03 4.179194e-02 1.035141e-04 3.644056e-02 5.465960e-03 1.392528e-02
<VARIANCE> 39
 1.176915e+01 2.009933e+01 2.096771e+01 2.293049e+01 2.208943e+01 2.328727e+01 2.455520e+01 2.513758e+01 2.492216e+01 2.296042e+01 1.801677e+01 1.398869e+01 1.294775e+01 9.981424e-01 6.281391e-01 9.135668e-01 1.018384e+00 1.192862e+00 1.366520e+00 1.546908e+00 1.590251e+00 1.575584e+00 1.404581e+00 1.335052e+00 1.189907e+00 1.009449e+00 1.105499e-01 1.091064e-01 1.587749e-01 1.862282e-01 2.259963e-01 2.640838e-01 2.930050e-01 3.118650e-01 3.037787e-01 2.800012e-01 2.679037e-01 2.386677e-01 2.069542e-01
<GCONST> 9.260374e+01
<STATE> 4
<NUMMIXES> 2
<MIXTURE> 1 5.026887e-01
<MEAN> 39
 -6.554524e+00 -1.732575e+00 7.797787e+00 -5.445904e+00 1.219855e+01 -5.831824e+00 2.768046e+00 -1.089322e+00 -5.544649e-01 -4.672772e+00 -2.975711e-01 -1.970967e-01 -1.863883e+00 2.324662e+00 8.881272e-01 -3.351239e-02 8.781236e-01 -7.107453e-01 -8.743104e-01 -1.324313e+00 7.436566e-01 -7.447327e-01 -2.047707e-01 -5.990433e-01 2.354418e-02 -8.337958e-01 -3.035954e-01 -3.591199e-01 -3.079649e-01 -1.562093e-01 -3.049450e-02 -1.832630e-01 -9.233725e-02 4.418395e-02 1.603609e-02 -2.960376e-02 1.214927e-01 9.185350e-02 9.832729e-02
<VARIANCE> 39
 7.204004e+01 5.468912e+01 5.470092e+01 7.215884e+01 7.836866e+01 8.615635e+01 7.058906e+01 7.936926e+01 5.410368e+01 5.358977e+01 3.055553e+01 3.417274e+01 2.753362e+01 6.128239e+00 4.085661e+00 3.022760e+00 3.187831e+00 4.095376e+00 5.717117e+00 4.752763e+00 3.900616e+00 3.879366e+00 3.539257e+00 2.827886e+00 2.653683e+00 2.563690e+00 5.137429e-01 5.599077e-01 4.912560e-01 4.450137e-01 5.639826e-01 7.041965e-01 6.550837e-01 6.212690e-01 4.883000e-01 5.920529e-01 4.176550e-01 3.991055e-01 3.497005e-01
<GCONST> 1.323875e+02
<MIXTURE> 2 4.973113e-01
<MEAN> 39
 -1.919306e+01 -9.236015e+00 3.689552e+00 -1.223476e+01 1.489335e+01 -6.318414e+00 7.143879e+00 -6.103525e+00 3.174531e+00 -6.095226e+00 4.311400e+00 -2.684157e-01 3.222131e+00 2.403928e+00 6.682029e-01 1.196788e+00 8.050752e-01 2.333375e-01 1.086554e-01 -3.363338e-03 2.492941e-01 -2.023524e-01 1.609932e-01 -2.533848e-01 3.826904e-02 -4.694991e-01 5.983038e-01 5.120639e-01 1.572707e-01 3.195376e-01 -1.208165e-01 -2.085501e-01 -3.490097e-01 1.940116e-01 -1.673514e-01 -7.740311e-02 -3.054772e-01 -1.087985e-01 -3.564875e-01
<VARIANCE> 39
 3.042087e+01 2.921870e+01 3.283026e+01 3.405130e+01 4.104346e+01 3.583276e+01 4.287782e+01 3.903381e+01 3.163493e+01 3.066770e+01 2.307189e+01 1.659729e+01 1.461290e+01 2.254787e+00 2.112019e+00 1.727328e+00 2.238523e+00 2.263419e+00 2.361685e+00 2.342651e+00 2.605778e+00 2.095444e+00 2.131377e+00 2.099487e+00 1.836933e+00 1.663770e+00 2.622992e-01 2.496722e-01 3.391603e-01 3.445290e-01 4.448123e-01 5.514072e-01 5.425829e-01 4.482497e-01 4.572209e-01 4.257733e-01 3.892074e-01 3.408262e-01 2.868415e-01
<GCONST> 1.128664e+02
<TRANSP> 5
 0.000000e+00 1.000000e+00 0.000000e+00 0.000000e+00 0.000000e+00
 0.000000e+00 8.219813e-01 1.780188e-01 0.000000e+00 0.000000e+00
 0.000000e+00 0.000000e+00 9.210073e-01 7.899267e-02 0.000000e+00
 0.000000e+00 0.000000e+00 0.000000e+00 8.296440e-01 1.703560e-01
 0.000000e+00 0.000000e+00 0.000000e+00 0.000000e+00 0.000000e+00
<ENDHMM>
