~o
<STREAMINFO> 1 39
<VECSIZE> 39<NULLD><MFCC_D_A><DIAGC>
~h "jh"
<BEGINHMM>
<NUMSTATES> 5
<STATE> 2
<NUMMIXES> 2
<MIXTURE> 1 3.833741e-01
<MEAN> 39
 2.107673e+00 4.744800e+00 8.737737e+00 7.646923e+00 1.503040e+01 -5.774251e+00 6.968632e-02 -6.163669e-01 -5.364191e+00 -8.996351e+00 -1.653828e+00 2.412977e+00 -3.804082e+00 -4.588892e-01 6.026065e-01 4.470358e-01 6.421213e-01 3.089382e-02 7.351974e-01 1.393257e-01 -4.325903e-01 1.632223e-01 3.679419e-01 -1.209553e-02 1.324777e-01 1.099156e-01 -2.600716e-01 -2.137380e-01 2.763002e-01 -2.029746e-01 -1.312950e-01 1.169584e-01 1.390328e-01 -3.171403e-02 1.746191e-01 5.818248e-02 -4.526958e-02 -1.452537e-01 8.348619e-02
<VARIANCE> 39
 1.957091e+01 1.207484e+02 3.761403e+01 1.052955e+02 5.518725e+01 7.273356e+01 5.262647e+01 5.956907e+01 7.039673e+01 7.817793e+01 4.303391e+01 3.863479e+01 2.596878e+01 5.478163e-01 2.260861e+00 1.665558e+00 1.424782e+00 1.557912e+00 2.021782e+00 2.445960e+00 1.971890e+00 1.958812e+00 2.279420e+00 1.705768e+00 1.466952e+00 1.230127e+00 1.133896e-01 6.986735e-01 2.742215e-01 2.722876e-01 2.560154e-01 2.860060e-01 3.924449e-01 3.677212e-01 3.527989e-01 4.054477e-01 2.984067e-01 2.757661e-01 2.345544e-01
<GCONST> 1.142102e+02
<MIXTURE> 2 6.166258e-01
<MEAN> 39
 -5.113439e+00 4.266169e+00 1.555814e+01 7.360532e+00 1.361456e+01 4.828596e-01 2.430920e+00 -2.396457e+00 -2.701578e+00 -5.644956e+00 -1.450118e+00 -3.153736e-01 -2.427668e+00 -1.293682e+00 -1.518005e+00 9.554175e-01 -2.443545e-01 -5.960523e-01 2.605617e-01 8.264698e-01 1.887895e-01 9.805382e-01 -2.754507e-02 1.744472e-01 -2.568625e-01 2.376295e-01 -1.547454e-01 -6.675056e-01 -1.346952e-01 -2.631793e-01 -8.356474e-02 -3.280846e-01 9.996247e-03 1.062686e-01 1.201553e-01 -8.212180e-02 1.133139e-01 4.176299e-02 5.805929e-03
<VARIANCE> 39
 4.511811e+01 9.026486e+01 6.169051e+01 7.188065e+01 4.316644e+01 4.722856e+01 6.201719e+01 5.044858e+01 4.829810e+01 4.178618e+01 2.752597e+01 3.251463e+01 2.125191e+01 3.881043e+00 1.262571e+01 6.421666e+00 4.875812e+00 3.047813e+00 3.360202e+00 4.216662e+00 3.591897e+00 3.532384e+00 3.644587e+00 2.507754e+00 2.533743e+00 1.875813e+00 5.268899e-01 1.392619e+00 9.718961e-01 8.416983e-01 4.608306e-01 4.988511e-01 7.039078e-01 6.208063e-01 5.312964e-01 5.519670e-01 4.205628e-01 4.158059e-01 3.456486e-01
<GCONST> 1.320902e+02
<STATE> 3
<NUMMIXES> 2
<MIXTURE> 1 2.615899e-01
<MEAN> 39
 -1.139392e+01 -1.350163e+01 1.427678e+01 2.287512e+00 7.993436e+00 -1.845715e+00 7.210479e+00 2.736708e-01 6.127525e+00 -6.397832e+00 4.174092e-01 -2.703962e-01 -2.731726e-01 -3.118259e+00 -3.945782e+00 1.764787e+00 -2.395777e+00 -1.017442e+00 -1.303857e+00 4.998214e-01 -3.672673e-01 1.074037e+00 1.140459e-02 6.647563e-01 -1.933757e-01 3.913567e-01 -1.643480e-01 1.209296e+00 5.336831e-01 5.360391e-01 5.288716e-01 -9.890360e-02 -4.667802e-01 -3.922342e-01 -4.546700e-01 2.084090e-01 -4.975697e-02 8.971748e-02 -1.912795e-01
<VARIANCE> 39
 2.230792e+01 2.278634e+01 4.800444e+01 5.455795e+01 3.209054e+01 3.274226e+01 3.295176e+01 3.030225e+01 4.177664e+01 2.488598e+01 2.675840e+01 2.004080e+01 1.691347e+01 1.874004e+00 6.375493e+00 4.410266e+00 4.429492e+00 3.123723e+00 2.747415e+00 3.098820e+00 2.850878e+00 2.815839e+00 2.682718e+00 2.467207e+00 1.915625e+00 1.795092e+00 3.485928e-01 6.086111e-01 8.268904e-01 9.012014e-01 5.682285e-01 5.775708e-01 5.455751e-01 5.223563e-01 5.088220e-01 6.752294e-01 4.787561e-01 4.115051e-01 3.459103e-01
<GCONST> 1.216746e+02
<MIXTURE> 2 7.384101e-01
<MEAN> 39
 -2.090855e+01 -1.506014e+01 2.496614e+01 -1.390826e+00 1.019202e+01 -3.936899e+00 6.135111e+00 -3.670130e+00 2.402996e+00 -5.340507e+00 2.174002e+00 -2.350871e+00 -1.977574e+00 -1.121498e+00 -1.119826e+00 1.976597e-02 -4.117165e-01 -1.210270e-02 -5.362006e-01 -1.339258e-01 -3.218991e-01 4.060319e-01 6.224660e-01 4.318007e-01 1.823625e-01 4.232542e-02 6.242443e-01 2.919295e-01 -5.870574e-01 2.543432e-02 2.346489e-02 2.337807e-02 -1.974455e-01 -9.966920e-02 -1.577041e-01 5.987823e-02 -6.743668e-02 6.124407e-02 9.758821e-03
<VARIANCE> 39
 3.442025e+01 5.773374e+01 3.523461e+01 6.982580e+01 3.779292e+01 4.040148e+01 4.661844e+01 4.088165e+01 5.667176e+01 2.713252e+01 2.474763e+01 2.896307e+01 1.890598e+01 2.392500e+00 1.224460e+00 3.034896e+00 2.023324e+00 1.884203e+00 1.649895e+00 1.897047e+00 2.038255e+00 1.736677e+00 1.685976e+00 1.405710e+00 1.242786e+00 1.108731e+00 2.681184e-01 2.477269e-01 4.004003e-01 3.903877e-01 3.086165e-01 2.941914e-01 3.156138e-01 3.225767e-01 3.347481e-01 3.181038e-01 2.797818e-01 2.300141e-01 2.139086e-01
<GCONST> 1.101506e+02
<STATE> 4
<NUMMIXES> 2
<MIXTURE> 1 5.219646e-01
<MEAN> 39
 -5.187554e+00 -8.824591e+00 1.211300e+01 4.381370e-02 1.356936e+01 -2.855977e+00 3.364094e+00 -3.753106e+00 -1.043047e-01 -2.717182e+00 1.086179e+00 -3.049866e-01 -1.560873e+00 1.303426e+00 1.187238e+00 -5.644392e-01 1.197118e-01 4.969017e-03 -3.609230e-02 -3.280386e-01 6.533005e-01 -3.354545e-01 -2.569537e-01 -2.010211e-01 -1.013616e-01 -1.109774e-01 -1.513501e-01 -1.021298e-01 -4.194797e-02 -1.321571e-01 -1.400762e-01 -1.992859e-01 -5.886711e-02 4.009594e-02 3.983122e-02 -3.491559e-02 5.237681e-02 -8.261968e-03 5.190840e-03
<VARIANCE> 39
 3.370275e+01 3.836107e+01 6.677717e+01 4.348285e+01 6.967525e+01 5.547879e+01 5.143554e+01 5.878896e+01 4.443051e+01 3.701875e+01 3.182165e+01 4.431248e+01 3.606071e+01 1.413054e+00 1.365593e+00 1.648475e+00 1.764398e+00 1.881862e+00 2.276080e+00 2.862523e+00 2.322685e+00 2.149655e+00 1.982046e+00 1.807948e+00 1.489213e+00 1.215975e+00 1.177827e-01 1.450545e-01 2.215497e-01 2.437496e-01 2.927290e-01 3.378046e-01 3.682497e-01 3.721332e-01 3.493966e-01 3.358419e-01 2.970068e-01 2.572894e-01 2.111747e-01
<GCONST> 1.114824e+02
<MIXTURE> 2 4.780354e-01
<MEAN> 39
 -1.902229e+01 -1.973572e+01 1.617999e+01 -3.585749e+00 9.745102e+00 -7.636999e+00 2.489887e+00 -7.310040e+00 4.254108e+00 -1.305824e+00 2.895042e+00 2.118390e-01 -6.339156e-01 1.399158e+00 5.874025e-01 -9.997560e-01 9.471075e-02 6.822063e-01 2.764495e-01 -3.584980e-01 -4.830039e-01 -4.851668e-01 2.537154e-01 -1.674001e-01 1.597326e-01 -6.094799e-02 2.817059e-01 3.510514e-01 1.320713e-01 2.537472e-01 1.489480e-01 2.568107e-01 1.056916e-01 2.172105e-01 -8.340688e-02 -1.427449e-01 -1.235550e-01 -5.172590e-02 -5.649263e-02
<VARIANCE> 39
 2.652707e+01 2.450265e+01 3.710877e+01 3.837278e+01 3.853657e+01 3.393084e+01 4.689020e+01 3.166940e+01 3.056813e+01 2.198299e+01 2.229491e+01 2.370807e+01 1.564571e+01 9.470128e-01 1.233280e+00 1.260427e+00 2.109966e+00 1.661252e+00 1.924906e+00 1.887093e+00 2.251744e+00 1.851597e+00 1.641077e+00 1.512425e+00 1.248334e+00 1.140283e+00 1.272760e-01 1.528102e-01 1.986675e-01 2.701772e-01 2.983258e-01 2.979556e-01 3.684818e-01 3.731989e-01 3.276756e-01 3.200101e-01 2.928342e-01 2.504228e-01 2.228138e-01
<GCONST> 1.034074e+02
<TRANSP> 5
 0.000000e+00 1.000000e+00 0.000000e+00 0.000000e+00 0.000000e+00
 0.000000e+00 8.718272e-01 1.281727e-01 0.000000e+00 0.000000e+00
 0.000000e+00 0.000000e+00 8.584660e-01 1.415340e-01 0.000000e+00
 0.000000e+00 0.000000e+00 0.000000e+00 9.068299e-01 9.317017e-02
 0.000000e+00 0.000000e+00 0.000000e+00 0.000000e+00 0.000000e+00
<ENDHMM>
