~o
<STREAMINFO> 1 39
<VECSIZE> 39<NULLD><MFCC_D_A><DIAGC>
~h "n"
<BEGINHMM>
<NUMSTATES> 5
<STATE> 2
<NUMMIXES> 2
<MIXTURE> 1 4.852004e-01
<MEAN> 39
 4.502057e+00 2.552559e+00 7.238564e+00 1.202095e+00 1.043871e+01 -3.672061e+00 -6.271083e+00 -5.689785e+00 -8.434999e+00 -8.212306e+00 -5.006123e+00 -6.446465e+00 -7.074565e+00 -4.751333e-02 2.419732e-01 1.715462e-01 1.086826e-01 1.209229e-01 3.212075e-01 -1.210885e-01 -2.014688e-01 2.867732e-02 1.053364e-01 -1.002440e-01 -1.606757e-01 2.363696e-03 -6.517702e-02 -1.464863e-01 -4.153414e-02 -7.038620e-02 -4.751680e-02 -1.728874e-01 1.121316e-01 8.904861e-03 6.604214e-02 2.606272e-02 3.368020e-02 1.090579e-01 4.571940e-02
<VARIANCE> 39
 2.859041e+01 4.178281e+01 3.876283e+01 7.823083e+01 9.283806e+01 9.606400e+01 6.592820e+01 7.678100e+01 1.015368e+02 8.192064e+01 5.482102e+01 6.008989e+01 6.215835e+01 3.655821e-01 1.216408e+00 1.230384e+00 1.849774e+00 1.491362e+00 2.470985e+00 2.218113e+00 1.982367e+00 1.811852e+00 2.000212e+00 1.703429e+00 1.741610e+00 1.264258e+00 6.193124e-02 2.017160e-01 1.981413e-01 2.979797e-01 2.482469e-01 4.192873e-01 3.754084e-01 3.569958e-01 3.224082e-01 3.654011e-01 2.951707e-01 2.906135e-01 2.264526e-01
<GCONST> 1.135035e+02
<MIXTURE> 2 5.147995e-01
<MEAN> 39
 4.774312e+00 5.265203e+00 8.081415e+00 2.920070e+00 1.013510e+01 -5.008577e+00 -5.691402e+00 -6.498403e+00 -1.106600e+01 -8.445321e+00 -4.543405e+00 -1.046283e+01 -9.598897e+00 -9.826095e-03 1.163885e-01 3.442451e-02 -3.142474e-02 1.912157e-02 1.058707e-01 1.186589e-02 -2.732207e-02 7.550711e-03 -1.366450e-02 -2.105899e-02 -4.715772e-03 4.358950e-02 -1.270425e-02 -4.628631e-02 -1.964058e-02 -1.537611e-02 3.542682e-03 -2.289103e-02 3.444853e-02 4.803478e-03 1.606020e-03 -1.821736e-02 -1.281036e-02 6.111437e-02 2.584266e-02
<VARIANCE> 39
 9.011777e+00 2.517051e+01 2.177062e+01 4.878257e+01 5.901708e+01 5.574994e+01 4.612278e+01 5.535928e+01 6.292213e+01 8.920564e+01 4.725614e+01 5.616230e+01 5.408531e+01 3.826839e-02 1.738846e-01 2.024340e-01 2.845918e-01 3.304553e-01 3.860553e-01 4.477727e-01 4.702346e-01 5.269834e-01 5.057690e-01 5.211703e-01 4.684148e-01 3.860618e-01 8.067805e-03 3.232744e-02 3.869759e-02 5.778865e-02 6.412096e-02 8.202874e-02 8.574484e-02 9.005167e-02 9.364719e-02 9.822181e-02 9.091605e-02 8.470897e-02 6.725913e-02
<GCONST> 6.863236e+01
<STATE> 3
<NUMMIXES> 2
<MIXTURE> 1 5.413680e-01
<MEAN> 39
 3.561750e+00 4.349735e+00 1.023931e+01 4.134443e+00 1.343284e+01 4.253049e+00 -7.600680e+00 -4.083122e+00 9.460464e-01 -3.892651e+00 -1.016803e+01 -4.948434e+00 -1.708315e+00 -5.784786e-02 8.142034e-02 7.549611e-02 -3.584671e-02 -6.584921e-02 1.745851e-02 3.330357e-02 -1.242343e-02 4.734499e-02 4.654194e-02 2.673168e-02 -2.349824e-02 -1.560835e-02 -1.587880e-02 -4.440976e-02 -3.671702e-02 -1.565252e-02 -4.126335e-02 -5.166474e-02 9.582309e-02 5.944503e-02 -3.241704e-02 -4.662525e-02 3.975030e-02 5.087952e-02 -1.559936e-02
<VARIANCE> 39
 2.154669e+01 2.418037e+01 3.546059e+01 7.848225e+01 6.754555e+01 4.740480e+01 8.917231e+01 7.012144e+01 6.145495e+01 6.364806e+01 4.368196e+01 3.411170e+01 3.773921e+01 7.797579e-02 2.722420e-01 3.413151e-01 4.365211e-01 5.819730e-01 6.530763e-01 8.436382e-01 8.122160e-01 7.878803e-01 8.358155e-01 7.114007e-01 6.470335e-01 5.364854e-01 1.494894e-02 5.137686e-02 6.670053e-02 9.298763e-02 1.078676e-01 1.391071e-01 1.702913e-01 1.550120e-01 1.554789e-01 1.666288e-01 1.375143e-01 1.333288e-01 1.036307e-01
<GCONST> 8.295998e+01
<MIXTURE> 2 4.586319e-01
<MEAN> 39
 -1.045919e+00 4.242127e+00 9.936978e+00 4.157180e+00 1.087475e+01 8.391784e-01 -2.767157e+00 -5.390211e+00 -3.984807e+00 -3.974396e+00 -5.637195e+00 -4.882720e+00 -2.811796e+00 -4.635524e-02 -4.033782e-01 -7.753967e-02 -2.483826e-02 1.152070e-01 -4.698259e-01 3.918646e-01 2.111130e-02 -1.276917e-01 -2.560743e-01 1.685831e-02 2.660525e-01 1.915951e-03 1.858390e-02 -1.999784e-01 -1.920330e-01 -8.925744e-02 8.540158e-03 -2.552569e-01 -1.386753e-02 9.787904e-02 -3.442494e-02 -8.841161e-02 1.084388e-01 1.539983e-01 -7.453394e-03
<VARIANCE> 39
 5.710981e+01 4.686790e+01 4.942122e+01 6.251667e+01 7.467327e+01 6.326947e+01 7.088170e+01 8.021612e+01 6.695724e+01 6.859552e+01 4.687556e+01 4.503219e+01 4.960378e+01 2.028438e+00 3.077539e+00 2.963416e+00 3.492580e+00 2.844573e+00 3.606372e+00 4.680262e+00 3.638702e+00 3.290243e+00 3.518397e+00 2.651081e+00 2.737637e+00 1.841934e+00 2.589974e-01 5.145410e-01 5.111394e-01 5.427920e-01 4.664803e-01 5.926170e-01 7.797884e-01 6.494602e-01 5.571834e-01 6.003358e-01 4.869593e-01 4.525606e-01 3.229507e-01
<GCONST> 1.300747e+02
<STATE> 4
<NUMMIXES> 2
<MIXTURE> 1 6.323105e-01
<MEAN> 39
 4.950752e+00 -2.229697e+00 6.858036e+00 2.907037e+00 6.164955e+00 -2.469014e+00 -3.756845e+00 -6.476599e+00 -4.942904e+00 -8.621816e+00 -5.634589e+00 -2.283490e+00 -4.805792e+00 -1.672818e-02 -1.060197e+00 -6.349877e-01 -7.057830e-01 -5.088825e-01 -1.127765e+00 9.734843e-02 3.531235e-01 -2.686273e-02 -4.079157e-02 6.415054e-01 6.465992e-01 -6.404681e-03 1.748781e-02 5.697506e-02 8.336412e-02 -5.547375e-02 -7.349287e-02 1.615618e-02 -1.613189e-01 -2.191873e-03 1.003663e-01 1.184229e-01 -1.808078e-02 -1.247034e-01 -1.792559e-02
<VARIANCE> 39
 4.337997e+01 5.665115e+01 3.850713e+01 8.941076e+01 1.509660e+02 1.192039e+02 5.708193e+01 8.258642e+01 9.402264e+01 6.264741e+01 5.368330e+01 5.086757e+01 6.084755e+01 5.742885e-01 3.021202e+00 2.182198e+00 3.063707e+00 2.864353e+00 4.236718e+00 3.536476e+00 3.185526e+00 2.977623e+00 3.380435e+00 2.654130e+00 2.629180e+00 1.849108e+00 8.038039e-02 4.554980e-01 3.219516e-01 3.926272e-01 4.184715e-01 5.734585e-01 5.486481e-01 5.240831e-01 4.577978e-01 5.354978e-01 4.056025e-01 4.056572e-01 2.871558e-01
<GCONST> 1.263142e+02
<MIXTURE> 2 3.676895e-01
<MEAN> 39
 1.351018e+01 -1.954506e+00 8.471702e+00 1.188475e+01 -3.298193e+00 7.983092e+00 -8.331656e+00 -1.124918e+01 5.450717e+00 -6.831359e+00 -1.138735e+01 -1.894368e+00 -6.831114e+00 -8.041839e-02 2.295846e-01 7.155798e-02 -1.126097e-02 4.931572e-02 -1.148134e-02 3.063558e-02 3.114360e-02 2.151289e-02 6.877984e-02 -1.226423e-02 2.464141e-02 4.889436e-02 -1.375214e-02 -6.265416e-02 1.529581e-03 6.906816e-03 -4.463428e-02 9.622593e-03 6.060921e-02 8.453525e-03 -4.213841e-02 -1.944834e-02 4.390793e-02 3.833544e-02 -1.169961e-02
<VARIANCE> 39
 1.087521e+01 5.162584e+01 1.661000e+01 2.998391e+01 5.970350e+01 3.597641e+01 3.541051e+01 3.409940e+01 9.186629e+01 7.313757e+01 4.452727e+01 3.699535e+01 2.723122e+01 1.214560e-01 4.204182e-01 2.741184e-01 3.677677e-01 5.451311e-01 5.829066e-01 6.096690e-01 5.480618e-01 7.041485e-01 5.826929e-01 6.322727e-01 4.828826e-01 4.442911e-01 1.763327e-02 8.091949e-02 4.638587e-02 6.469878e-02 1.020921e-01 1.042271e-01 9.828651e-02 9.460884e-02 1.186811e-01 1.047794e-01 9.863497e-02 8.620133e-02 8.076790e-02
<GCONST> 7.485767e+01
<TRANSP> 5
 0.000000e+00 1.000000e+00 0.000000e+00 0.000000e+00 0.000000e+00
 0.000000e+00 7.761196e-01 2.238804e-01 0.000000e+00 0.000000e+00
 0.000000e+00 0.000000e+00 8.098956e-01 1.901044e-01 0.000000e+00
 0.000000e+00 0.000000e+00 0.000000e+00 7.615736e-01 2.384265e-01
 0.000000e+00 0.000000e+00 0.000000e+00 0.000000e+00 0.000000e+00
<ENDHMM>
