~o
<STREAMINFO> 1 39
<VECSIZE> 39<NULLD><MFCC_D_A><DIAGC>
~h "rw"
<BEGINHMM>
<NUMSTATES> 5
<STATE> 2
<NUMMIXES> 2
<MIXTURE> 1 4.752979e-01
<MEAN> 39
 1.745877e+01 -1.111596e+01 3.933782e+00 3.159759e-01 -1.356543e+01 6.895748e+00 -7.235846e+00 -6.716102e+00 -1.962023e+00 -1.865926e+01 -2.313751e+00 3.581888e+00 -1.127319e+01 -3.531736e-01 3.768531e-01 5.835879e-01 4.119996e-01 2.999703e-01 6.538537e-01 2.286798e-01 -2.500261e-01 9.837590e-02 1.692169e-01 -2.678463e-01 -1.329331e-02 2.855731e-01 -9.139467e-02 -1.003895e-02 6.013026e-02 4.750729e-02 -4.362461e-03 -7.404602e-03 -4.317801e-02 2.973440e-02 5.664585e-02 1.580600e-02 2.709896e-02 -2.852113e-02 -4.633218e-02
<VARIANCE> 39
 1.486832e+01 4.006991e+01 3.982919e+01 3.646878e+01 4.237846e+01 4.512414e+01 3.195650e+01 4.632661e+01 3.544691e+01 4.094959e+01 4.306892e+01 3.142465e+01 3.031795e+01 1.796130e+00 2.967861e+00 2.804978e+00 2.526502e+00 2.943569e+00 3.946735e+00 2.466862e+00 2.307426e+00 2.657167e+00 3.434446e+00 2.007608e+00 1.720765e+00 1.682212e+00 3.604760e-01 5.460037e-01 4.767353e-01 4.475727e-01 5.586143e-01 7.212025e-01 4.584209e-01 3.909591e-01 5.095186e-01 6.390978e-01 3.568944e-01 2.917427e-01 3.333383e-01
<GCONST> 1.196198e+02
<MIXTURE> 2 5.247022e-01
<MEAN> 39
 4.380008e+00 1.032607e+00 -4.260833e+00 -1.256755e+01 3.895713e+00 -1.566332e+01 2.637535e-01 -2.372111e+00 -1.081768e+01 -1.198713e+01 -6.510713e-01 -4.571539e-01 -8.694195e+00 -8.710334e-02 2.953520e-01 4.232548e-01 6.437508e-01 1.617967e-01 9.745866e-01 3.592338e-01 -4.006517e-01 9.644488e-02 3.780729e-01 -2.104111e-01 1.375431e-01 6.081248e-01 -1.819869e-01 -7.072674e-02 2.675798e-01 2.336447e-01 -6.687236e-03 2.509440e-01 1.006590e-01 -6.656665e-02 1.666411e-01 1.319870e-01 -9.065717e-02 -3.767761e-02 3.224539e-02
<VARIANCE> 39
 9.354233e+00 2.041584e+01 3.897096e+01 2.969145e+01 3.460150e+01 3.739485e+01 3.735451e+01 5.149686e+01 4.962815e+01 4.956972e+01 4.470256e+01 2.656628e+01 2.603513e+01 6.089193e-01 8.510863e-01 2.446794e+00 2.022794e+00 1.665077e+00 3.972837e+00 2.309933e+00 2.222413e+00 2.627315e+00 2.925340e+00 2.276326e+00 1.641715e+00 1.814764e+00 1.539251e-01 1.697399e-01 3.885752e-01 3.143965e-01 2.691478e-01 6.451219e-01 3.417475e-01 3.598978e-01 5.147182e-01 4.463136e-01 3.832902e-01 2.808258e-01 3.110505e-01
<GCONST> 1.108170e+02
<STATE> 3
<NUMMIXES> 2
<MIXTURE> 1 2.623030e-01
<MEAN> 39
 8.638179e+00 -1.187029e+01 1.185526e+01 5.893204e+00 -1.226966e+01 1.470416e+01 -6.395660e+00 -9.245846e+00 2.876478e+00 -1.320794e+01 -3.162943e-01 5.043864e+00 -1.009899e+01 -7.774214e-01 2.404226e-01 1.953609e-01 2.199237e-01 1.794819e-01 6.550987e-02 -2.814121e-03 1.064178e-01 2.738915e-01 4.248367e-01 1.119245e-01 -5.891676e-02 1.548050e-01 7.665329e-02 5.486840e-02 -1.832479e-01 -1.306742e-01 1.579723e-04 -1.849798e-01 -1.235419e-02 8.215976e-02 -8.415732e-02 -5.238752e-02 -4.241137e-03 -1.987772e-02 7.570853e-03
<VARIANCE> 39
 4.382232e+01 1.119643e+02 6.321960e+01 3.856493e+01 4.563406e+01 4.919690e+01 3.137102e+01 3.497753e+01 4.381886e+01 4.502448e+01 3.463609e+01 2.959263e+01 2.668431e+01 1.481245e+00 6.203227e+00 3.001518e+00 2.271407e+00 3.007656e+00 3.756685e+00 2.190625e+00 2.237892e+00 2.800962e+00 2.758412e+00 1.677018e+00 1.716955e+00 1.575501e+00 2.070094e-01 1.074371e+00 4.918712e-01 4.191928e-01 5.993416e-01 6.242923e-01 4.414769e-01 4.038283e-01 5.237388e-01 5.022475e-01 3.248877e-01 3.386101e-01 3.102202e-01
<GCONST> 1.217012e+02
<MIXTURE> 2 7.376970e-01
<MEAN> 39
 1.637021e+00 3.879634e+00 1.400312e+00 -8.055321e+00 4.912688e+00 -9.018880e+00 2.320674e+00 -5.661942e+00 -1.087745e+01 -1.137410e+01 -3.800637e+00 -8.312855e-01 -4.969824e+00 -4.636442e-01 5.405544e-01 5.759485e-01 5.415779e-01 1.463343e-01 5.845137e-01 8.899515e-03 -1.129479e-01 2.488815e-01 -1.246426e-02 -3.498858e-01 8.722618e-03 7.319607e-02 -4.455512e-02 4.432006e-02 -9.907128e-02 -5.252499e-02 -7.954413e-03 -1.890269e-01 -9.840149e-02 7.756730e-02 2.846299e-02 -2.672264e-02 7.338114e-02 2.823395e-02 -1.159268e-01
<VARIANCE> 39
 1.352128e+01 3.422397e+01 3.851045e+01 3.275174e+01 3.451960e+01 3.212512e+01 3.042840e+01 4.139528e+01 4.088367e+01 4.626532e+01 3.558757e+01 3.118401e+01 2.303545e+01 1.875210e+00 2.544976e+00 3.232068e+00 3.631683e+00 2.503044e+00 4.189222e+00 2.495803e+00 2.721591e+00 3.940067e+00 3.949829e+00 2.199359e+00 2.111300e+00 1.661785e+00 3.418362e-01 4.483803e-01 5.444162e-01 6.572770e-01 4.747249e-01 8.623521e-01 4.576231e-01 4.966021e-01 7.302018e-01 7.247280e-01 4.253766e-01 3.979533e-01 3.188758e-01
<GCONST> 1.210442e+02
<STATE> 4
<NUMMIXES> 2
<MIXTURE> 1 5.839093e-01
<MEAN> 39
 -8.719545e+00 1.671871e+00 6.865802e+00 -2.541166e+00 5.612374e+00 -3.730333e+00 3.286508e+00 -7.621688e+00 -3.697675e+00 -3.523816e+00 -3.794909e-01 1.414348e+00 -4.910285e+00 -1.039267e+00 -2.466315e-02 1.056105e-01 3.458924e-01 -5.986030e-03 2.042562e-01 2.266604e-02 7.537422e-02 6.360572e-01 5.671391e-01 1.918845e-01 2.167412e-01 -1.702066e-02 1.555858e-01 5.018769e-02 -1.930356e-01 -1.590773e-01 -7.097410e-02 -1.657709e-01 -2.152013e-02 5.035182e-02 -1.246180e-01 -1.618033e-01 -6.083829e-02 -9.301570e-04 -4.777984e-02
<VARIANCE> 39
 5.157478e+01 1.153329e+02 7.009734e+01 4.234397e+01 4.335409e+01 3.800895e+01 3.716963e+01 4.080387e+01 3.988377e+01 3.713023e+01 4.352673e+01 3.420055e+01 2.314060e+01 2.143486e+00 4.994637e+00 3.348684e+00 3.007465e+00 2.793421e+00 2.517976e+00 2.541540e+00 2.631767e+00 2.698189e+00 2.498578e+00 2.358820e+00 2.394958e+00 1.850413e+00 3.054365e-01 8.294360e-01 5.666509e-01 5.359877e-01 5.206528e-01 4.948695e-01 4.978433e-01 5.020465e-01 5.340822e-01 4.822965e-01 4.414621e-01 4.564833e-01 3.611163e-01
<GCONST> 1.243456e+02
<MIXTURE> 2 4.160907e-01
<MEAN> 39
 -1.514561e+00 8.450760e+00 3.478968e+00 -9.086264e-01 1.317906e+00 -3.615191e+00 -3.265432e-02 -5.037591e+00 -3.039229e+00 -9.047519e+00 -5.790154e+00 1.766642e+00 -6.631918e+00 -5.731289e-01 1.641466e-01 1.908159e-01 4.128297e-01 -3.367709e-02 -5.268259e-02 1.257595e-01 1.583044e-01 4.889339e-01 3.189453e-01 -1.069080e-01 -6.847590e-02 -7.515547e-02 6.437583e-03 -1.995047e-01 3.086499e-02 -8.499323e-02 4.598280e-02 6.201987e-02 2.421499e-02 2.909808e-02 -3.231385e-02 1.123871e-02 9.066688e-02 -2.737559e-02 4.803826e-02
<VARIANCE> 39
 7.554453e+01 8.903970e+01 3.914848e+01 4.167193e+01 6.533616e+01 7.174545e+01 4.322387e+01 4.222689e+01 4.902384e+01 6.860191e+01 3.424037e+01 4.112748e+01 2.577420e+01 4.164453e-01 6.988932e-01 8.242270e-01 8.710219e-01 9.735203e-01 1.057325e+00 1.081467e+00 1.351378e+00 1.406394e+00 1.447387e+00 1.111186e+00 1.047945e+00 9.738412e-01 5.203839e-02 1.360695e-01 1.575972e-01 1.806590e-01 1.873126e-01 2.237600e-01 2.163979e-01 2.606664e-01 2.522041e-01 2.693756e-01 2.149520e-01 2.100135e-01 2.014419e-01
<GCONST> 1.002038e+02
<TRANSP> 5
 0.000000e+00 1.000000e+00 0.000000e+00 0.000000e+00 0.000000e+00
 0.000000e+00 8.347459e-01 1.652542e-01 0.000000e+00 0.000000e+00
 0.000000e+00 0.000000e+00 8.646958e-01 1.353042e-01 0.000000e+00
 0.000000e+00 0.000000e+00 0.000000e+00 8.417807e-01 1.582194e-01
 0.000000e+00 0.000000e+00 0.000000e+00 0.000000e+00 0.000000e+00
<ENDHMM>
