~o
<STREAMINFO> 1 39
<VECSIZE> 39<NULLD><MFCC_D_A><DIAGC>
~h "rx"
<BEGINHMM>
<NUMSTATES> 5
<STATE> 2
<NUMMIXES> 2
<MIXTURE> 1 7.242725e-01
<MEAN> 39
 -1.308434e+00 2.134012e+00 -4.271176e-01 3.351930e+00 6.331000e+00 -3.382260e+00 -5.006396e+00 -2.586719e+00 -4.854493e+00 -7.993415e+00 -5.572024e+00 1.947824e+00 -2.555870e+00 -3.177842e-01 2.539293e-01 -4.719550e-02 4.936061e-02 -2.318536e-02 1.445280e-01 1.420525e-01 2.019627e-02 -1.634166e-03 2.504494e-01 5.749003e-02 4.371041e-02 1.307509e-01 -1.344609e-02 -1.040364e-01 3.773810e-02 1.986309e-02 -1.783796e-02 2.905634e-02 2.866644e-02 7.972150e-03 4.395040e-02 2.449130e-02 2.752141e-02 2.357151e-02 7.727027e-04
<VARIANCE> 39
 5.517929e+01 8.382140e+01 4.287322e+01 7.365214e+01 1.341931e+02 1.034259e+02 5.977863e+01 7.915553e+01 6.993991e+01 7.922659e+01 4.784793e+01 3.430455e+01 4.651165e+01 5.635180e-01 9.590204e-01 1.012003e+00 1.213748e+00 1.771482e+00 2.271878e+00 2.351245e+00 1.656788e+00 1.682215e+00 1.916959e+00 1.459598e+00 1.460216e+00 1.083962e+00 6.458237e-02 2.002925e-01 1.622071e-01 1.946016e-01 2.561838e-01 3.384972e-01 3.615640e-01 2.840684e-01 2.844127e-01 3.311358e-01 2.540509e-01 2.504516e-01 2.010556e-01
<GCONST> 1.111421e+02
<MIXTURE> 2 2.757275e-01
<MEAN> 39
 6.159798e+00 -1.604087e+01 4.825674e+00 1.002907e+01 -9.992601e+00 8.937172e+00 -5.391002e+00 -9.861521e+00 4.314206e+00 -7.899650e+00 -4.294640e+00 4.329414e+00 -6.356020e+00 3.556315e-01 -2.196091e+00 9.873577e-01 4.997005e-01 -1.253524e+00 8.922677e-01 -8.276878e-02 -6.920550e-01 4.749020e-01 -7.007048e-01 -6.959813e-02 5.674365e-01 -5.315423e-01 9.624883e-02 2.049691e-01 2.221573e-02 -2.019378e-02 1.111320e-01 -2.138065e-01 -2.414035e-01 -1.237217e-01 -1.677167e-01 -5.940513e-02 2.601889e-02 -8.893737e-02 -5.538956e-02
<VARIANCE> 39
 7.357435e+01 1.496389e+02 5.457122e+01 5.895305e+01 6.831604e+01 5.559417e+01 4.760110e+01 6.734906e+01 5.456689e+01 6.770077e+01 2.904142e+01 3.331039e+01 4.035404e+01 2.331423e+00 1.137709e+01 4.209340e+00 2.517416e+00 5.850502e+00 4.257732e+00 4.310634e+00 3.991980e+00 3.543040e+00 4.240802e+00 2.279074e+00 2.180465e+00 2.796409e+00 3.852266e-01 2.783344e+00 6.453158e-01 4.505629e-01 1.255410e+00 8.877329e-01 7.717828e-01 6.777103e-01 8.097674e-01 8.098611e-01 4.273728e-01 4.574626e-01 5.200329e-01
<GCONST> 1.367892e+02
<STATE> 3
<NUMMIXES> 2
<MIXTURE> 1 6.928505e-01
<MEAN> 39
 -9.326926e+00 -2.879069e+00 1.673190e+00 2.558836e+00 7.514938e+00 -1.906608e+00 -2.379697e-01 -1.210562e+00 -2.316865e+00 -4.407554e+00 -3.840118e+00 1.642681e+00 1.260103e-01 4.125718e-02 -7.720276e-01 3.575501e-01 -5.507588e-03 1.690294e-01 -2.968549e-01 1.491317e-01 -1.186813e-01 -7.103966e-02 -1.539632e-01 -1.714521e-02 -3.907395e-02 3.929440e-02 1.750515e-01 6.450833e-02 -1.122987e-01 -7.774842e-02 3.155611e-02 -1.853605e-01 -2.512764e-01 3.842499e-02 -1.036843e-01 -1.619368e-01 -2.961256e-02 6.879475e-03 -8.172951e-02
<VARIANCE> 39
 7.073499e+01 1.254073e+02 6.184054e+01 4.360800e+01 6.530437e+01 6.155258e+01 5.741137e+01 5.012370e+01 4.596105e+01 4.338038e+01 3.889795e+01 3.167422e+01 3.133380e+01 2.819147e+00 7.590398e+00 3.728064e+00 2.889393e+00 3.406432e+00 4.342928e+00 4.427477e+00 3.093940e+00 3.069333e+00 2.872730e+00 2.708065e+00 2.086050e+00 2.179969e+00 3.391389e-01 1.159928e+00 7.285310e-01 5.460698e-01 6.335493e-01 8.068292e-01 7.813498e-01 6.189849e-01 5.479628e-01 5.524174e-01 4.913754e-01 4.023706e-01 4.072378e-01
<GCONST> 1.315629e+02
<MIXTURE> 2 3.071495e-01
<MEAN> 39
 7.521407e+00 -2.527738e+01 1.277333e+01 1.575759e+01 -1.483187e+01 1.266585e+01 -6.610318e+00 -1.469043e+01 5.103068e+00 -1.232615e+01 -5.589334e+00 7.106814e+00 -9.243570e+00 6.868834e-01 8.773363e-01 -5.196802e-01 3.513550e-02 7.466263e-01 -7.653859e-01 -8.358256e-01 -7.263031e-01 -1.207891e+00 -4.400717e-01 -3.319287e-01 -4.059127e-01 1.337515e-01 8.557531e-02 3.250653e-01 -5.264431e-01 -1.634867e-01 4.180386e-01 -3.390012e-01 -1.190652e-01 2.303974e-01 -1.065014e-01 1.103027e-01 -1.649541e-02 -1.847084e-01 1.566636e-01
<VARIANCE> 39
 4.736553e+01 5.509247e+01 4.772956e+01 3.572778e+01 3.997725e+01 3.425233e+01 3.476207e+01 3.858242e+01 5.034713e+01 3.435293e+01 2.982457e+01 3.415225e+01 2.336593e+01 1.748435e+00 2.712081e+00 3.403242e+00 2.132637e+00 2.727735e+00 2.792385e+00 2.516517e+00 2.175056e+00 3.114578e+00 2.271345e+00 1.983096e+00 1.878480e+00 1.845007e+00 2.893620e-01 6.749859e-01 4.748681e-01 3.524592e-01 7.780272e-01 5.487714e-01 4.105297e-01 4.401287e-01 6.612400e-01 4.454623e-01 3.564996e-01 3.708761e-01 3.539047e-01
<GCONST> 1.198279e+02
<STATE> 4
<NUMMIXES> 2
<MIXTURE> 1 5.399693e-01
<MEAN> 39
 2.877777e-01 -9.013200e-01 -1.327248e+00 2.962416e+00 1.121205e+01 -4.982889e+00 -6.474027e+00 2.744787e-02 -6.525413e+00 -9.983867e+00 -6.725425e+00 1.936417e+00 -8.607216e-01 3.499734e-01 2.541380e-01 -6.921802e-01 -3.548024e-01 5.122666e-01 -7.959700e-01 -1.055828e+00 3.577040e-01 -3.192360e-01 -4.577559e-01 1.435653e-01 2.876411e-01 -2.066025e-01 -1.060321e-01 -7.128494e-02 5.869070e-02 1.926045e-03 -1.688165e-02 5.185521e-02 1.088720e-01 1.490344e-02 1.398452e-01 6.779265e-02 5.401091e-02 5.187439e-03 -3.920465e-02
<VARIANCE> 39
 3.326802e+01 6.764467e+01 4.629206e+01 5.956163e+01 1.436707e+02 1.025285e+02 5.940282e+01 8.130132e+01 5.954969e+01 6.039658e+01 5.363130e+01 4.040210e+01 3.170789e+01 1.132392e+00 1.850265e+00 1.916059e+00 1.575599e+00 2.935226e+00 3.474318e+00 3.083934e+00 2.131517e+00 2.470213e+00 2.485785e+00 1.969665e+00 1.943208e+00 1.291286e+00 1.383034e-01 3.774430e-01 2.856548e-01 2.526343e-01 4.469564e-01 4.988821e-01 5.320957e-01 4.043643e-01 3.775035e-01 4.163100e-01 3.226965e-01 3.250188e-01 2.214154e-01
<GCONST> 1.199544e+02
<MIXTURE> 2 4.600308e-01
<MEAN> 39
 1.403221e+01 -1.722627e+01 1.166442e+00 1.367045e+01 -7.168200e+00 4.939764e+00 -1.296077e+01 -1.808011e+01 -1.439896e+00 -1.053020e+01 -5.838101e+00 3.047497e+00 -6.625166e+00 7.239142e-02 2.683819e-01 -5.629663e-01 -2.657917e-01 2.794898e-01 -5.931253e-01 -3.716882e-01 2.064322e-01 -1.125291e-01 1.406852e-01 2.484388e-01 -1.670036e-01 7.263037e-02 -1.037460e-01 -4.690755e-02 1.583309e-01 2.196164e-02 -1.269456e-01 1.088190e-01 1.722359e-01 9.822309e-02 1.173968e-01 3.946920e-02 1.786828e-02 3.985451e-02 -3.457556e-02
<VARIANCE> 39
 1.612682e+01 2.706036e+01 2.545688e+01 4.189376e+01 3.218449e+01 4.556997e+01 3.789481e+01 2.547648e+01 2.674156e+01 4.581252e+01 3.206215e+01 3.101178e+01 2.957446e+01 5.786040e-01 8.590693e-01 1.257036e+00 8.235299e-01 1.581940e+00 1.603905e+00 1.759523e+00 1.031599e+00 1.205540e+00 1.284925e+00 1.043176e+00 1.009522e+00 1.071647e+00 7.446692e-02 1.264120e-01 1.428100e-01 1.141990e-01 2.093441e-01 2.142715e-01 2.581078e-01 2.004055e-01 2.125692e-01 2.113347e-01 1.743314e-01 1.538687e-01 1.737009e-01
<GCONST> 9.439288e+01
<TRANSP> 5
 0.000000e+00 1.000000e+00 0.000000e+00 0.000000e+00 0.000000e+00
 0.000000e+00 7.239771e-01 2.760229e-01 0.000000e+00 0.000000e+00
 0.000000e+00 0.000000e+00 7.282461e-01 2.717539e-01 0.000000e+00
 0.000000e+00 0.000000e+00 0.000000e+00 7.352580e-01 2.647420e-01
 0.000000e+00 0.000000e+00 0.000000e+00 0.000000e+00 0.000000e+00
<ENDHMM>
