~o
<STREAMINFO> 1 39
<VECSIZE> 39<NULLD><MFCC_D_A><DIAGC>
~h "th"
<BEGINHMM>
<NUMSTATES> 5
<STATE> 2
<NUMMIXES> 2
<MIXTURE> 1 0.000000e+00
<MEAN> 39
 -3.886223e-05 -1.931190e-05 5.215406e-07 8.761883e-06 -2.145767e-06 5.111098e-06 8.314848e-06 2.488494e-06 -7.539988e-06 1.132488e-06 -3.003515e-07 5.424023e-06 -4.022149e-08 1.873821e-06 -4.437752e-07 5.909242e-07 1.825392e-07 -4.018657e-07 -3.222376e-07 3.189780e-07 -5.820766e-11 -6.482005e-07 -5.755574e-07 -2.846355e-08 6.949995e-08 9.033829e-08 -3.673423e-02 3.657988e-03 -6.203171e-03 1.457151e-03 -7.559096e-04 -1.241736e-03 -9.468020e-04 -1.675523e-03 -7.280131e-04 -1.245679e-03 7.821736e-05 -6.539826e-04 -5.843351e-06
<VARIANCE> 39
 6.791949e-05 0.000000e+00 1.187436e-07 1.545995e-06 3.539026e-07 4.889444e-07 7.301569e-06 3.557652e-07 0.000000e+00 0.000000e+00 0.000000e+00 3.034249e-06 1.224976e-10 0.000000e+00 0.000000e+00 8.043571e-09 0.000000e+00 0.000000e+00 0.000000e+00 2.622983e-09 1.563194e-12 0.000000e+00 0.000000e+00 0.000000e+00 0.000000e+00 0.000000e+00 2.939744e-02 1.510691e-03 1.924523e-03 1.205781e-03 1.539571e-03 1.394400e-03 1.598690e-03 1.480532e-03 1.398113e-03 1.215753e-03 1.174650e-03 9.854551e-04 6.629324e-04
<GCONST> -1.400000e+11
<MIXTURE> 2 1.000000e+00
<MEAN> 39
 -8.883134e+00 3.454239e+00 3.848743e+00 -3.922774e-01 6.383413e+00 -1.276576e+00 1.996639e+00 -7.581881e-01 1.281566e+00 -3.707721e-01 -5.378004e-01 1.918962e+00 -1.272477e+00 -2.396110e-01 3.038653e-01 -1.632485e-01 2.443635e-01 -1.511762e-01 1.986436e-01 1.077763e-01 8.388931e-02 1.483769e-01 1.573833e-01 -7.735694e-02 6.959634e-02 -1.340295e-02 3.132654e-03 -1.445681e-01 1.844673e-02 -6.647728e-02 1.193703e-02 -2.516163e-02 2.111970e-02 -1.740364e-02 -9.627840e-03 -1.507260e-02 1.954514e-02 -1.788111e-02 1.503755e-02
<VARIANCE> 39
 1.105073e+02 5.012700e+01 4.919869e+01 6.241787e+01 5.963333e+01 4.738413e+01 3.522862e+01 3.605519e+01 2.743182e+01 2.457384e+01 2.433253e+01 2.206865e+01 2.306897e+01 9.245167e-01 1.051653e+00 1.201107e+00 1.149064e+00 1.243026e+00 1.421083e+00 1.345946e+00 1.409965e+00 1.233122e+00 1.186044e+00 1.100725e+00 9.652364e-01 8.319840e-01 1.250974e-01 2.231695e-01 2.082127e-01 2.213056e-01 2.213584e-01 2.703307e-01 2.595403e-01 2.632355e-01 2.451051e-01 2.396009e-01 2.233208e-01 1.968053e-01 1.694989e-01
<GCONST> 1.012284e+02
<STATE> 3
<NUMMIXES> 2
<MIXTURE> 1 0.000000e+00
<MEAN> 39
 0.000000e+00 0.000000e+00 0.000000e+00 0.000000e+00 0.000000e+00 0.000000e+00 0.000000e+00 0.000000e+00 0.000000e+00 0.000000e+00 0.000000e+00 0.000000e+00 0.000000e+00 7.602786e-28 -6.781300e-28 2.817260e-28 -2.260459e-29 5.468585e-29 -1.506301e-28 1.148696e-28 -2.120465e-29 7.979356e-30 -5.320312e-29 5.792728e-29 -1.833769e-29 3.866608e-31 -4.988265e-02 4.965165e-03 -7.294576e-03 2.466788e-03 2.788171e-04 -1.618284e-03 -9.823618e-04 -1.922494e-03 -5.035132e-04 -1.812430e-03 -3.375670e-05 -6.368760e-04 -8.684045e-05
<VARIANCE> 39
 0.000000e+00 0.000000e+00 0.000000e+00 0.000000e+00 0.000000e+00 0.000000e+00 0.000000e+00 0.000000e+00 0.000000e+00 0.000000e+00 0.000000e+00 0.000000e+00 0.000000e+00 8.953985e-28 7.123556e-28 1.229489e-28 7.915240e-31 4.632556e-30 3.514752e-29 2.044002e-29 6.965190e-31 9.862945e-32 4.384753e-30 5.198011e-30 5.209071e-31 2.315961e-34 4.486060e-02 3.359458e-03 3.289693e-03 2.491937e-03 2.905590e-03 2.327311e-03 2.783720e-03 2.963404e-03 2.648251e-03 2.054753e-03 2.260878e-03 1.761504e-03 1.385205e-03
<GCONST> -1.300000e+11
<MIXTURE> 2 1.000000e+00
<MEAN> 39
 -1.135558e+01 -5.214590e-01 4.599605e+00 -3.269193e+00 7.928373e+00 -2.893137e+00 3.032588e+00 -3.260062e+00 1.599699e+00 -8.024036e-01 -4.204842e-01 1.439376e+00 -4.574257e-01 -4.455670e-02 -1.443885e+00 8.850405e-02 -9.969705e-01 -7.828986e-02 -4.582976e-01 3.618556e-02 -4.628034e-01 2.567220e-01 1.068998e-01 4.427659e-01 -7.069492e-02 4.350989e-01 1.182365e-01 -2.076286e-02 8.907806e-02 1.231575e-02 7.187819e-02 -2.299219e-02 -2.958477e-02 -1.476975e-02 3.557617e-02 6.259749e-02 1.020812e-01 5.480644e-02 2.037810e-02
<VARIANCE> 39
 4.615061e+01 7.139632e+01 3.722854e+01 6.697029e+01 4.859967e+01 4.870050e+01 4.484853e+01 4.535261e+01 3.603660e+01 2.979794e+01 2.986084e+01 2.327137e+01 2.527530e+01 2.473295e+00 6.743619e+00 3.421154e+00 5.578681e+00 3.622585e+00 3.986825e+00 3.750191e+00 3.675951e+00 3.253034e+00 3.029417e+00 2.730845e+00 2.242320e+00 2.074912e+00 3.513173e-01 1.297315e+00 5.962959e-01 1.020050e+00 6.329287e-01 7.160711e-01 6.663408e-01 7.001668e-01 5.874610e-01 5.966769e-01 4.852791e-01 4.401094e-01 3.824782e-01
<GCONST> 1.292353e+02
<STATE> 4
<NUMMIXES> 2
<MIXTURE> 1 2.126612e-01
<MEAN> 39
 1.788804e+00 -1.154452e+01 7.740295e+00 3.456498e+00 -2.987879e+00 4.716268e+00 -2.037872e+00 -5.170520e+00 3.457059e+00 -7.296158e+00 -1.908348e+00 2.319645e+00 -6.884529e+00 1.232666e+00 -4.926173e-02 -1.350948e-01 2.567445e-02 -4.339466e-01 -6.341559e-01 -5.959034e-01 -3.931781e-01 -6.385152e-01 -7.726169e-01 -3.391120e-01 -3.012635e-01 -5.591474e-01 -8.781649e-02 1.889985e-02 -1.253106e-01 -1.392815e-01 -2.237700e-02 -1.464562e-01 -7.784254e-03 5.650876e-02 2.799470e-02 1.042607e-01 8.978198e-02 4.384300e-02 9.674523e-02
<VARIANCE> 39
 7.765327e+01 1.241225e+02 5.517847e+01 7.737450e+01 2.385033e+02 1.764579e+02 6.955128e+01 4.816558e+01 9.445119e+01 4.397860e+01 3.669238e+01 5.585405e+01 3.672391e+01 3.064017e+00 6.267543e+00 2.787236e+00 2.573619e+00 3.887242e+00 4.769743e+00 3.023556e+00 3.148832e+00 4.232430e+00 3.250400e+00 2.502225e+00 2.267352e+00 2.419011e+00 4.143257e-01 8.889287e-01 5.107711e-01 3.839552e-01 6.439518e-01 7.428746e-01 5.024635e-01 5.327050e-01 6.329762e-01 4.963620e-01 4.133776e-01 3.559448e-01 3.334233e-01
<GCONST> 1.340185e+02
<MIXTURE> 2 7.873389e-01
<MEAN> 39
 -8.123275e+00 -1.002115e+01 5.177886e+00 -7.264246e+00 9.293315e+00 -6.888678e+00 5.264353e+00 -2.298393e+00 3.738380e+00 2.247267e+00 4.412934e+00 2.712308e+00 7.380678e-01 5.375106e-01 -2.251420e-02 6.613083e-02 4.010496e-01 1.803430e-01 -6.541776e-02 1.660557e-01 6.380618e-01 -1.864049e-01 -4.737831e-02 -1.030426e-01 -2.297827e-02 -3.822266e-01 7.530116e-02 1.657786e-01 -4.883206e-02 9.564801e-02 -2.598165e-02 -2.185089e-02 -5.645766e-02 5.397265e-02 -1.314944e-01 -1.999388e-01 -1.889809e-01 -1.003504e-01 -1.243738e-01
<VARIANCE> 39
 3.394203e+01 4.061105e+01 4.926118e+01 4.741045e+01 4.894434e+01 5.112601e+01 7.573982e+01 5.668742e+01 3.758758e+01 3.381191e+01 3.646639e+01 2.401509e+01 2.765076e+01 9.312404e-01 2.041123e+00 1.778928e+00 1.706407e+00 2.037293e+00 2.235502e+00 2.343958e+00 2.428462e+00 2.246712e+00 2.735394e+00 2.195604e+00 1.799299e+00 1.741692e+00 1.387064e-01 3.032748e-01 3.053397e-01 3.315684e-01 3.638377e-01 4.238250e-01 4.136123e-01 4.814570e-01 4.204688e-01 4.464442e-01 3.679612e-01 3.307581e-01 3.402614e-01
<GCONST> 1.150472e+02
<TRANSP> 5
 0.000000e+00 1.000000e+00 0.000000e+00 0.000000e+00 0.000000e+00
 0.000000e+00 8.791104e-01 1.208896e-01 0.000000e+00 0.000000e+00
 0.000000e+00 0.000000e+00 8.640810e-01 1.359190e-01 0.000000e+00
 0.000000e+00 0.000000e+00 0.000000e+00 8.819060e-01 1.180939e-01
 0.000000e+00 0.000000e+00 0.000000e+00 0.000000e+00 0.000000e+00
<ENDHMM>
