~o
<STREAMINFO> 1 39
<VECSIZE> 39<NULLD><MFCC_D_A><DIAGC>
~h "u"
<BEGINHMM>
<NUMSTATES> 7
<STATE> 2
<NUMMIXES> 2
<MIXTURE> 1 4.522199e-01
<MEAN> 39
 1.052951e+00 -1.748570e+00 6.936663e+00 4.198964e-01 3.031223e+00 -3.393682e+00 -2.415325e+00 -2.616324e+00 -3.364737e+00 -8.857501e+00 -5.956406e+00 -1.120599e+00 -4.689754e+00 8.793546e-01 1.038553e-01 2.160388e-01 -4.084848e-01 -2.509102e-01 -9.333869e-01 -6.862040e-01 1.598390e-01 -3.920790e-01 -7.144025e-01 -4.904478e-01 -2.140837e-01 -2.773198e-01 -7.785896e-02 5.020729e-02 -6.105281e-03 9.205393e-03 -4.430888e-02 -2.360626e-02 2.604489e-02 1.002528e-01 6.281504e-02 2.476167e-02 1.054888e-02 -1.085724e-02 1.099158e-03
<VARIANCE> 39
 8.532615e+01 1.139855e+02 4.891747e+01 9.572353e+01 1.571071e+02 1.234725e+02 7.248463e+01 8.817774e+01 9.066522e+01 6.565027e+01 5.382669e+01 4.494799e+01 4.340661e+01 2.212352e+00 4.654462e+00 2.618805e+00 3.063019e+00 3.614009e+00 4.403634e+00 3.873855e+00 3.529109e+00 3.956307e+00 3.207935e+00 2.955049e+00 2.223695e+00 1.898016e+00 3.192766e-01 7.653973e-01 4.103190e-01 4.592243e-01 5.699058e-01 7.083884e-01 6.526876e-01 5.597615e-01 5.705826e-01 4.936717e-01 4.777882e-01 3.683021e-01 3.118499e-01
<GCONST> 1.338997e+02
<MIXTURE> 2 5.477802e-01
<MEAN> 39
 1.443261e+01 -9.127495e+00 6.769188e+00 8.430681e+00 -1.366846e+01 3.244669e+00 -9.239754e+00 -1.118072e+01 5.956299e-02 -1.453526e+01 -8.896471e+00 -1.174631e+00 -1.079762e+01 -6.675939e-02 3.301472e-01 -1.965874e-02 -1.297237e-01 3.257978e-02 -4.335192e-02 1.396047e-01 1.926648e-01 4.622835e-02 3.174493e-02 -1.535764e-01 -1.552520e-01 1.383246e-02 -3.246097e-02 3.647584e-02 -5.229032e-03 3.159500e-02 6.248057e-02 6.394217e-02 6.770788e-02 -2.579992e-03 1.135989e-02 6.670194e-02 -1.286446e-02 5.056459e-03 3.766038e-02
<VARIANCE> 39
 5.741698e+00 8.509703e+01 2.586477e+01 4.472901e+01 5.879397e+01 5.501507e+01 6.234031e+01 8.340434e+01 5.774340e+01 5.804083e+01 4.588679e+01 4.297346e+01 3.451162e+01 1.821098e-01 6.732085e-01 4.123251e-01 5.917163e-01 1.087093e+00 9.649192e-01 9.967599e-01 9.261700e-01 9.690332e-01 1.065642e+00 8.743876e-01 8.415895e-01 7.982250e-01 3.010664e-02 7.127744e-02 5.688979e-02 7.804517e-02 1.409666e-01 1.328219e-01 1.402287e-01 1.295304e-01 1.481003e-01 1.538209e-01 1.234029e-01 1.172270e-01 1.204977e-01
<GCONST> 8.708234e+01
<STATE> 3
<NUMMIXES> 2
<MIXTURE> 1 6.320156e-01
<MEAN> 39
 3.219323e+00 6.015472e+00 1.463309e+01 -3.572941e+00 8.754656e-01 -7.180652e+00 -8.609758e+00 9.359999e-01 5.993473e+00 -4.413512e+00 -1.241533e+01 -3.711953e+00 -4.001838e+00 -7.455824e-02 1.873145e-01 8.890631e-02 1.018585e-01 -9.248596e-02 5.067676e-02 -1.077669e-02 2.763937e-02 9.454283e-02 1.340773e-01 6.687436e-02 -3.155739e-03 -8.302272e-02 -3.424153e-02 -6.871733e-03 -8.721852e-02 6.370170e-02 8.030902e-02 9.821733e-02 9.916420e-02 5.884589e-03 -1.044684e-01 -3.919255e-02 9.365996e-02 5.258971e-02 2.482677e-02
<VARIANCE> 39
 2.000605e+01 4.902001e+01 7.788914e+01 7.207001e+01 6.663099e+01 8.499353e+01 6.633000e+01 6.727424e+01 6.487838e+01 5.334084e+01 5.009669e+01 4.755231e+01 3.179598e+01 2.112910e-01 7.180289e-01 9.433954e-01 1.124027e+00 1.186749e+00 1.814270e+00 1.611791e+00 1.540398e+00 1.634496e+00 1.558669e+00 1.496576e+00 1.238746e+00 9.702585e-01 3.285931e-02 8.309556e-02 1.211049e-01 1.579407e-01 1.682829e-01 2.521335e-01 2.550678e-01 2.496532e-01 2.543957e-01 2.362170e-01 2.401275e-01 2.002023e-01 1.583537e-01
<GCONST> 1.015358e+02
<MIXTURE> 2 3.679844e-01
<MEAN> 39
 2.439742e+00 -1.601650e+00 8.541552e-01 2.672975e+00 1.772074e+01 -1.004319e+01 -1.284506e+01 3.060616e+00 -8.075390e+00 -1.387700e+01 -7.272184e+00 4.226678e+00 -2.594269e+00 -2.177578e-02 2.030212e-01 1.106679e-02 -9.586826e-02 -3.642901e-01 -2.227097e-02 1.984865e-01 2.157364e-01 -8.472413e-02 4.979448e-02 3.728210e-02 -9.466643e-02 -1.324521e-02 -4.956186e-02 5.503174e-02 6.119374e-02 6.000661e-02 -1.231022e-01 1.384991e-01 1.190294e-01 -3.766096e-02 8.451827e-02 1.298070e-01 -6.433070e-03 -9.038631e-02 -2.566059e-03
<VARIANCE> 39
 8.991230e+00 2.654716e+01 3.025837e+01 5.249063e+01 5.114460e+01 6.727215e+01 5.590207e+01 7.204120e+01 1.104087e+02 3.717025e+01 7.343185e+01 4.545879e+01 3.099272e+01 1.312623e-01 4.531054e-01 5.941108e-01 9.677902e-01 1.234453e+00 1.647151e+00 1.516209e+00 1.498288e+00 1.418826e+00 1.424431e+00 1.148460e+00 1.050625e+00 7.751373e-01 2.479376e-02 5.962919e-02 8.820501e-02 1.191579e-01 1.573881e-01 2.264735e-01 2.374895e-01 2.334352e-01 2.252565e-01 2.231656e-01 1.835351e-01 1.691144e-01 1.309090e-01
<GCONST> 9.382995e+01
<STATE> 4
<NUMMIXES> 2
<MIXTURE> 1 3.707101e-01
<MEAN> 39
 7.655677e+00 -2.235727e+00 6.496672e+00 6.337353e+00 -5.351432e+00 2.839487e+00 -6.717082e+00 -7.860939e+00 -3.073260e-01 -1.019892e+01 -8.848209e+00 -1.059336e-01 -6.031992e+00 -5.352130e-01 4.622189e-01 -2.333382e-01 2.667313e-01 4.163878e-01 2.826283e-01 4.536423e-01 4.588981e-02 -1.337017e-01 5.695970e-01 3.074592e-01 1.272091e-01 3.988855e-01 -5.873370e-02 -7.078159e-03 1.542570e-02 3.660297e-02 -1.033451e-02 -1.106722e-02 -6.029624e-03 1.468653e-02 1.249135e-02 2.614680e-02 5.429494e-02 1.135318e-02 -1.435985e-03
<VARIANCE> 39
 4.898061e+01 6.694688e+01 5.960951e+01 6.696774e+01 1.335419e+02 7.956522e+01 5.978959e+01 1.004947e+02 7.851753e+01 8.270016e+01 4.929835e+01 4.499992e+01 4.463772e+01 4.881307e-01 1.643202e+00 1.244218e+00 1.458277e+00 2.160988e+00 2.415089e+00 2.234946e+00 2.187646e+00 2.297815e+00 2.259370e+00 1.819660e+00 1.594552e+00 1.402523e+00 6.755579e-02 2.385035e-01 1.974567e-01 2.260121e-01 3.224160e-01 3.679608e-01 3.737000e-01 3.675909e-01 3.663574e-01 3.716822e-01 3.138738e-01 2.763758e-01 2.471067e-01
<GCONST> 1.157924e+02
<MIXTURE> 2 6.292899e-01
<MEAN> 39
 3.417223e+00 7.293330e+00 8.330730e+00 -9.710498e+00 -1.625434e-01 -2.035127e+01 -9.064593e-01 1.561739e+00 -1.227357e+01 -1.039749e+01 -7.147142e+00 -1.017353e+01 -1.074242e+01 -2.990634e-02 2.168149e-01 1.001392e-02 -4.689300e-02 -1.589202e-01 -7.911995e-03 6.217949e-02 3.558638e-02 5.552286e-02 3.114433e-03 -1.407267e-01 -1.060831e-01 -1.548424e-01 -5.462008e-03 -1.843423e-02 -2.657526e-02 6.268177e-02 6.855920e-02 9.713328e-02 -2.289386e-02 -5.790818e-02 2.742950e-02 2.240322e-02 1.946409e-02 5.355634e-02 3.129942e-02
<VARIANCE> 39
 6.075173e+00 4.578182e+01 2.743917e+01 3.471677e+01 5.041447e+01 4.296664e+01 3.941714e+01 4.597451e+01 8.174229e+01 6.164312e+01 4.850667e+01 5.474281e+01 4.559898e+01 9.210440e-02 5.496898e-01 4.708762e-01 6.562652e-01 8.952708e-01 9.710230e-01 9.655681e-01 1.150128e+00 1.134475e+00 1.179296e+00 1.051585e+00 1.147964e+00 1.009993e+00 1.406629e-02 4.912791e-02 6.224088e-02 9.069604e-02 1.023018e-01 1.395229e-01 1.419330e-01 1.569344e-01 1.592698e-01 1.563243e-01 1.508348e-01 1.450534e-01 1.304802e-01
<GCONST> 8.581348e+01
<STATE> 5
<NUMMIXES> 2
<MIXTURE> 1 4.466925e-01
<MEAN> 39
 -4.625373e+00 5.387253e+00 7.555608e+00 2.217134e+00 1.907907e+00 -2.482082e+00 -4.284086e+00 -1.878417e+00 -3.006986e+00 -4.842531e+00 -5.015221e+00 1.155242e+00 -1.893373e+00 -6.563073e-01 1.144765e-03 -2.087305e-01 3.859551e-01 -7.119522e-02 5.774955e-01 2.702276e-01 5.553771e-02 1.789254e-01 4.102275e-01 3.542806e-01 3.750980e-02 1.391774e-01 3.966124e-02 -1.430764e-02 -2.962244e-02 -5.178158e-02 2.614412e-02 -7.714985e-02 -5.493675e-02 6.344990e-02 4.320054e-03 -5.676643e-02 -5.659798e-02 -5.988459e-02 -2.339852e-02
<VARIANCE> 39
 5.850128e+01 7.165784e+01 1.010742e+02 7.796785e+01 1.016737e+02 7.724444e+01 9.046603e+01 7.987304e+01 1.086616e+02 5.166146e+01 4.983134e+01 4.864491e+01 3.854758e+01 2.320784e+00 4.246994e+00 4.193044e+00 3.743282e+00 4.024185e+00 4.529909e+00 4.093184e+00 4.015946e+00 4.027125e+00 3.049289e+00 2.862605e+00 2.429598e+00 2.010292e+00 3.587485e-01 6.914976e-01 7.692140e-01 6.680337e-01 7.235250e-01 7.985512e-01 7.725973e-01 7.598586e-01 7.407432e-01 5.473166e-01 5.109825e-01 4.560435e-01 3.760380e-01
<GCONST> 1.363338e+02
<MIXTURE> 2 5.533074e-01
<MEAN> 39
 2.557153e+00 5.451685e+00 6.222560e+00 -3.369020e+00 4.277777e+00 -8.372000e+00 -1.527221e+00 3.226936e-01 -7.576495e+00 -1.198772e+01 -1.032283e+01 -6.013878e+00 -6.781127e+00 -2.686405e-01 3.030097e-01 -3.503414e-02 8.793841e-01 2.912660e-01 1.123155e+00 2.698469e-01 -1.557292e-01 3.932452e-01 3.062120e-01 1.808527e-01 3.045668e-01 2.066435e-01 -7.035790e-02 -6.751939e-03 6.904609e-02 8.987733e-02 -2.925749e-03 3.102079e-02 -6.179065e-02 -7.933885e-02 7.567867e-02 9.510525e-02 7.611077e-02 5.501519e-02 1.421150e-02
<VARIANCE> 39
 2.328245e+01 5.422759e+01 4.108444e+01 8.790768e+01 8.662522e+01 1.146944e+02 6.465266e+01 8.359129e+01 1.177507e+02 6.428851e+01 5.320887e+01 5.830955e+01 5.727073e+01 4.549530e-01 1.560633e+00 1.248956e+00 1.994724e+00 1.908756e+00 2.824071e+00 2.625263e+00 2.820343e+00 2.871299e+00 2.559033e+00 2.258335e+00 2.125577e+00 1.605627e+00 5.184826e-02 1.770759e-01 1.755359e-01 2.727775e-01 2.582678e-01 4.197381e-01 3.743305e-01 3.967972e-01 3.900883e-01 3.762122e-01 3.398440e-01 3.132545e-01 2.492796e-01
<GCONST> 1.167156e+02
<STATE> 6
<NUMMIXES> 2
<MIXTURE> 1 4.844660e-01
<MEAN> 39
 -1.274343e+01 3.903363e+00 1.551758e-01 5.268116e+00 1.011818e+00 4.351602e+00 2.022784e-01 1.417190e+00 7.210066e-01 6.789124e-01 -5.280586e-01 2.469493e+00 1.331329e+00 -1.643758e-01 -2.911920e-02 -3.326992e-02 -1.362805e-02 3.402322e-02 6.717723e-02 1.031517e-01 1.068568e-01 9.269566e-02 1.067877e-01 8.033083e-02 4.384815e-02 4.758422e-02 1.470666e-02 -1.180686e-02 2.276913e-02 -2.710514e-03 -1.977393e-02 -2.488383e-02 -7.495021e-03 -1.580037e-02 -2.095792e-02 -4.142664e-02 -4.466193e-02 -2.980665e-02 -3.189496e-02
<VARIANCE> 39
 8.530662e+01 4.831593e+01 2.959365e+01 2.766006e+01 2.746149e+01 2.261732e+01 4.908134e+01 4.840764e+01 2.690251e+01 1.925712e+01 2.016849e+01 1.653423e+01 1.443028e+01 1.740540e-01 2.923222e-01 3.922587e-01 5.078899e-01 6.447412e-01 7.795797e-01 9.050236e-01 1.000027e+00 1.044122e+00 1.001279e+00 9.510639e-01 8.853238e-01 7.806525e-01 3.381644e-02 5.528744e-02 7.769003e-02 1.050473e-01 1.366116e-01 1.682217e-01 1.914387e-01 2.103994e-01 2.182365e-01 2.093443e-01 2.010773e-01 1.868510e-01 1.661759e-01
<GCONST> 8.365037e+01
<MIXTURE> 2 5.155340e-01
<MEAN> 39
 -6.931074e+00 6.256151e+00 4.888354e+00 5.076975e+00 2.729257e+00 8.418594e-01 -7.283200e-01 1.148099e+00 -9.045668e-01 -3.829554e+00 -5.103950e+00 -6.093683e-01 -2.271787e+00 -4.240176e-01 -1.468144e-02 -1.940255e-01 1.732367e-01 3.441521e-02 2.636226e-01 8.102319e-02 6.528354e-02 1.300745e-01 1.960183e-01 1.877071e-01 7.573153e-02 1.186747e-01 2.914968e-02 -9.258871e-02 -1.714387e-03 -9.922794e-02 -1.396455e-02 -7.925435e-02 -1.529153e-02 -8.548290e-03 -1.847258e-02 -2.079010e-02 -3.450577e-03 1.566760e-02 1.840190e-03
<VARIANCE> 39
 8.727489e+01 6.797449e+01 5.638064e+01 5.613258e+01 6.168547e+01 5.870699e+01 6.844949e+01 6.364883e+01 5.847972e+01 4.894307e+01 4.369157e+01 3.794530e+01 3.692794e+01 1.446800e+00 1.910836e+00 1.568437e+00 1.770776e+00 1.810323e+00 2.152139e+00 2.243471e+00 2.094630e+00 2.038249e+00 1.837880e+00 1.800054e+00 1.579065e+00 1.236418e+00 1.834873e-01 3.015012e-01 2.608706e-01 3.032605e-01 3.127815e-01 3.866505e-01 3.939472e-01 3.748209e-01 3.652739e-01 3.434587e-01 3.329348e-01 2.928193e-01 2.336793e-01
<GCONST> 1.161899e+02
<TRANSP> 7
 0.000000e+00 1.000000e+00 0.000000e+00 0.000000e+00 0.000000e+00 0.000000e+00 0.000000e+00
 0.000000e+00 8.445947e-01 1.554053e-01 0.000000e+00 0.000000e+00 0.000000e+00 0.000000e+00
 0.000000e+00 0.000000e+00 8.389135e-01 1.610865e-01 0.000000e+00 0.000000e+00 0.000000e+00
 0.000000e+00 0.000000e+00 0.000000e+00 8.199785e-01 1.800214e-01 0.000000e+00 0.000000e+00
 0.000000e+00 0.000000e+00 0.000000e+00 0.000000e+00 8.055705e-01 1.944295e-01 0.000000e+00
 0.000000e+00 0.000000e+00 0.000000e+00 0.000000e+00 0.000000e+00 8.626199e-01 1.373802e-01
 0.000000e+00 0.000000e+00 0.000000e+00 0.000000e+00 0.000000e+00 0.000000e+00 0.000000e+00
<ENDHMM>
